{
  "version": "1.0",
  "truncation": null,
  "padding": null,
  "added_tokens": [
    {
      "id": 0,
      "content": "[CLS]",
      "single_word": false,
      "lstrip": false,
      "rstrip": false,
      "normalized": false,
      "special": true
    },
    {
      "id": 1,
      "content": "[MASK]",
      "single_word": false,
      "lstrip": false,
      "rstrip": false,
      "normalized": false,
      "special": true
    },
    {
      "id": 2,
      "content": "[SEP]",
      "single_word": false,
      "lstrip": false,
      "rstrip": false,
      "normalized": false,
      "special": true
    },
    {
      "id": 3,
      "content": "[PAD]",
      "single_word": false,
      "lstrip": false,
      "rstrip": false,
      "normalized": false,
      "special": true
    }
  ],
  "normalizer": null,
  "pre_tokenizer": null,
  "post_processor": null,
  "decoder": null,
  "model": {
    "type": "BPE",
    "dropout": null,
    "unk_token": null,
    "continuing_subword_prefix": null,
    "end_of_word_suffix": null,
    "fuse_unk": false,
    "byte_fallback": false,
    "vocab": {
      "[CLS]": 0,
      "[MASK]": 1,
      "[SEP]": 2,
      "[PAD]": 3,
      "!": 4,
      "\"": 5,
      "#": 6,
      "$": 7,
      "%": 8,
      "&": 9,
      "'": 10,
      "(": 11,
      ")": 12,
      "*": 13,
      "+": 14,
      ",": 15,
      "-": 16,
      ".": 17,
      "/": 18,
      "0": 19,
      "1": 20,
      "2": 21,
      "3": 22,
      "4": 23,
      "5": 24,
      "6": 25,
      "7": 26,
      "8": 27,
      "9": 28,
      ":": 29,
      ";": 30,
      "<": 31,
      "=": 32,
      ">": 33,
      "?": 34,
      "@": 35,
      "A": 36,
      "B": 37,
      "C": 38,
      "D": 39,
      "E": 40,
      "F": 41,
      "G": 42,
      "H": 43,
      "I": 44,
      "J": 45,
      "K": 46,
      "L": 47,
      "M": 48,
      "N": 49,
      "O": 50,
      "P": 51,
      "Q": 52,
      "R": 53,
      "S": 54,
      "T": 55,
      "U": 56,
      "V": 57,
      "W": 58,
      "X": 59,
      "Y": 60,
      "Z": 61,
      "[": 62,
      "\\": 63,
      "]": 64,
      "^": 65,
      "_": 66,
      "`": 67,
      "a": 68,
      "b": 69,
      "c": 70,
      "d": 71,
      "e": 72,
      "f": 73,
      "g": 74,
      "h": 75,
      "i": 76,
      "j": 77,
      "k": 78,
      "l": 79,
      "m": 80,
      "n": 81,
      "o": 82,
      "p": 83,
      "q": 84,
      "r": 85,
      "s": 86,
      "t": 87,
      "u": 88,
      "v": 89,
      "w": 90,
      "x": 91,
      "y": 92,
      "z": 93,
      "{": 94,
      "|": 95,
      "}": 96,
      "~": 97,
      "Ā": 98,
      "ā": 99,
      "Ă": 100,
      "ă": 101,
      "Ą": 102,
      "ą": 103,
      "Ć": 104,
      "ć": 105,
      "Ĉ": 106,
      "ĉ": 107,
      "Ċ": 108,
      "ċ": 109,
      "Č": 110,
      "č": 111,
      "Ď": 112,
      "ď": 113,
      "Đ": 114,
      "đ": 115,
      "Ē": 116,
      "ē": 117,
      "Ĕ": 118,
      "ĕ": 119,
      "Ė": 120,
      "ė": 121,
      "Ę": 122,
      "ę": 123,
      "Ě": 124,
      "ě": 125,
      "Ĝ": 126,
      "ĝ": 127,
      "Ğ": 128,
      "ğ": 129,
      "Ġ": 130,
      "ġ": 131,
      "Ģ": 132,
      "ģ": 133,
      "Ĥ": 134,
      "ĥ": 135,
      "Ħ": 136,
      "ħ": 137,
      "Ĩ": 138,
      "ĩ": 139,
      "Ī": 140,
      "ī": 141,
      "Ĭ": 142,
      "ĭ": 143,
      "Į": 144,
      "į": 145,
      "İ": 146,
      "ı": 147,
      "Ĳ": 148,
      "ĳ": 149,
      "Ĵ": 150,
      "ĵ": 151,
      "Ķ": 152,
      "ķ": 153,
      "ĸ": 154,
      "Ĺ": 155,
      "ĺ": 156,
      "Ļ": 157,
      "!!": 158,
      "!!!!": 159,
      "!!!!!!!!": 160,
      "Ĉ!": 161,
      "ďĉ": 162,
      "!!!!!!!!!!!!!!!!": 163,
      "ćć": 164,
      "ďĉďĉ": 165,
      "ĈĈ": 166,
      "Ĉ!Ĉ!": 167,
      "'(": 168,
      "&'(": 169,
      "!!!!!!!!!!!!!!!!!!!!!!!!!!!!!!!!": 170,
      "%&'(": 171,
      "ćĈ!": 172,
      "22": 173,
      "ĈĈĈĈ": 174,
      "ćććć": 175,
      "ćĈ!Ĉ!": 176,
      "ďĉďĉďĉďĉ": 177,
      "ďĉ!": 178,
      "ćĈ": 179,
      "!!!!!!!!!!!!!!!!!!!!!!!!!!!!!!!!!!!!!!!!!!!!!!!!!!!!!!!!!!!!!!!!": 180,
      "2222": 181,
      "%&'(%&'(": 182,
      "!!!": 183,
      "Ĉ!Ĉ!Ĉ!Ĉ!": 184,
      "Ĉ!Ĉ": 185,
      "ćĈĈ": 186,
      "ććĈ!": 187,
      "ďĉ!!": 188,
      "ĈĈĈĈĈĈĈĈ": 189,
      "ćĈćĈ": 190,
      "MM": 191,
      "ĈĈĈ": 192,
      "!!!!!!!!!!!!": 193,
      "ćĈ!ćĈ!": 194,
      "%&": 195,
      "ďĉďĉ!": 196,
      "ćććććććć": 197,
      ")!": 198,
      "%&'(%&'(%&'(%&'(": 199,
      "ďĉďĉďĉ": 200,
      "Ĉ!ćĈ!Ĉ!": 201,
      "22222222": 202,
      "ććĈ": 203,
      "LL": 204,
      ")!)": 205,
      "&'(!!!!!!!!!!!!!!!!!!!!!!!!!!!!!!!!!!!!!!!!!!!!!!!!!!!!!!!!!!!!!!!!": 206,
      "ćĈ!Ĉ": 207,
      "Ĉ!Ĉ!Ĉ": 208,
      "ćććĈ!Ĉ!": 209,
      "ďĉďĉďĉ!": 210,
      "MMMM": 211,
      "!!!!!!!!!!!!!!!!!!!!!!!!!!!!!!!!!!!!!!!!!!!!!!!!": 212,
      "ďĉ!ďĉ": 213,
      "%&'(ďĉ": 214,
      "ćĈ!ćĈ!Ĉ!": 215,
      "ďĉďĉ!!": 216,
      "01": 217,
      "Ĉ!ĈĈĈ": 218,
      "ćĈĈĈ": 219,
      "%&'(%&'(%&'(%&'(%&'(%&'(%&'(%&'(": 220,
      "ďĉďĉďĉďĉďĉďĉďĉďĉ": 221,
      "Ĉ!ĈĈ": 222,
      "!!!!!!": 223,
      "!!!!!": 224,
      "44": 225,
      "55": 226,
      "66": 227,
      "88": 228,
      "ćĈĈĈĈ": 229,
      "ććĈ!Ĉ!": 230,
      "!!!!!!!!!!!": 231,
      "+/": 232,
      "+/,": 233,
      "+/,'(": 234,
      "&'(!!!!!!!!!!!!!!!!!!!!!!!!!!!!!!!!!!!!!!!!!!!!!!!!!!!!!!!!!!!!!!!!!!!!!!!!!!!!!!!!!!!!!!!!!!!!!!!!!!!!!!!!!!!!!!!!!!!!!!!!!!!!!!!!": 235,
      "%&'(ĉ": 236,
      "2222222222222222": 237,
      "!!!!!!!!!": 238,
      "%&-": 239,
      "!L": 240,
      "%!": 241,
      "!LK": 242,
      "ďĉ%&'(": 243,
      "ď%&'(ĉ": 244,
      "!!!!!!!": 245,
      "%!!!!!!!!!!!!!!!!": 246,
      "ďĉ!ďĉďĉďĉďĉ": 247,
      "Ĉ!ĈĈĈĈ": 248,
      "77": 249,
      "LLLL": 250,
      "ĈĈĈĈĈĈĈĈĈĈĈĈĈĈĈĈ": 251,
      "ďĉďĉďĉ!!": 252,
      "ćďĉ": 253,
      "ćĈ!ćć": 254,
      "!!!!!!!!!!!!!!": 255,
      "ćĈćĈćĈ": 256,
      "ďĉ!ďĉ!": 257,
      "Ĉ!Ĉ!Ĉ!Ĉ!Ĉ!Ĉ!": 258,
      "!!!!!!!!!!": 259,
      "!!!!!!!!!!!!!!!": 260,
      "Ĉ!Ĉ!ćĈ!Ĉ!": 261,
      "&'(ĉ": 262,
      "!!!!!!!!!!!!!": 263,
      "%ď": 264,
      "MMMMMMMM": 265,
      "Ĉ&'(": 266,
      "ćĈ!ććĈ": 267,
      "ćĈ!ćĈ": 268,
      "%ď&'(ĉ": 269,
      "-%&": 270,
      "ďĉďĉďĉďĉ!": 271,
      "%Ĉ&'(": 272,
      "%&'(%&'(%&'(%&'(%&'(%&'(%&'(%&'(%&'(%&'(%&'(%&'(%&'(%&'(%&'(%&'(": 273,
      "&'(!!!!!!!!!!!!!!!!!!!!!!!!!!!!!!!!!!!!!!!!!!!!!!!!!!!!!!!!!!!!!!!!!!!!!!!!!!!!!!!!!!!!!!!!!!!!!!!!!!!!!!!!!!!!!!!!": 274,
      "23": 275,
      "!!!S": 276,
      "ĉĉ": 277,
      "ćďĉ!": 278,
      "ďĉďĉ%&'(": 279,
      "ćĈćĈćĈćĈ": 280,
      "ďĉćććć": 281,
      "ćććĈ": 282,
      "%!&'(": 283,
      "Ĉ!Ĉ!Ĉ!": 284,
      "%&-+/,'(": 285,
      "ĈćĈĈ": 286,
      "ćććććććććććććććć": 287,
      "'(3": 288,
      "ć%&'(": 289,
      "!LK!LK": 290,
      "Ĉ!ĈĈ!": 291,
      "ďď": 292,
      "Ĉ!Ĉ!Ĉ!Ĉ": 293,
      "ććććććĈ!": 294,
      "))": 295,
      "+01": 296,
      "4444": 297,
      "5555": 298,
      "6666": 299,
      "8888": 300,
      "ćĈ!Ĉ!Ĉ!": 301,
      "-%&+/,'(": 302,
      "ďĉďĉďĉ%&'(": 303,
      "-%&+/,'(-%&+/,'(": 304,
      "ćĈ!Ĉ!Ĉ": 305,
      "ćĈ!ććĈ!": 306,
      "ďĉ!!!!!!!!!!!!!!!!": 307,
      "ćĈ!ć": 308,
      "ććććĈ": 309,
      "ćĈ!Ĉ!Ĉ!Ĉ!Ĉ!Ĉ!": 310,
      "ďĉĉ": 311,
      ")!)!!!!!!!!!!!!!!!!!!!!!!!!!!!!!!!!!!!!!!!!!!!!!!!!!!!!!!!!!!!!!!!!": 312,
      "ďĉďĉ!!!": 313,
      "ďĉ!!ďĉ": 314,
      "ćĈĈĈĈĈ": 315,
      "ććĈ!Ĉ!Ĉ!Ĉ!": 316,
      "ćććććććĈ!Ĉ!": 317,
      "222222": 318,
      "'(7": 319,
      "ćĈ!ĈĈĈ": 320,
      "ďĉďĉďĉďĉďĉďĉ!": 321,
      "ĄĆ": 322,
      "ĂĄĆ": 323,
      "222": 324,
      "4%&": 325,
      "5222": 326,
      "6'(7": 327,
      "4%&5222": 328,
      "4%&52226'(7": 329,
      "2222224%&52226'(7": 330,
      "8,": 331,
      "2222224%&52226'(78,": 332,
      "%&-+01": 333,
      "ďĉďĉďĉďĉďĉ": 334,
      "ďďĉĉ": 335,
      "TV": 336,
      "ćĈĈćĈĈ": 337,
      "'(32222224%&52226'(78,": 338,
      "TVa": 339,
      "%&-+01'(32222224%&52226'(78,": 340,
      "ďĉ!!!": 341,
      "%&-+01'(32222224%&52226'(78,%&-+01'(32222224%&52226'(78,": 342,
      "Ĉ!ĈĈ!Ĉ": 343,
      "%Ĉ&'(!": 344,
      "ĈĈĈĈĈĈĈĈĈĈĈĈ": 345,
      "ććććĈ!": 346,
      "ďĉďĉďĉďĉďĉďĉ": 347,
      "%!!": 348,
      "!!!!R": 349,
      "Ĉ!Ĉ!ĈĈ": 350,
      "0101": 351,
      "ććĈ!Ĉ": 352,
      "%&-+/,'(%&-+/,'(": 353,
      "ćĈ!Ĉ!Ĉ!ćĈ!Ĉ!": 354,
      "ććć": 355,
      "LLLLLLLL": 356,
      "ďĉďĉ!!ďĉ": 357,
      "Ĉ!ćĈ!": 358,
      "ććĈ!Ĉ!Ĉ": 359,
      "ćĈ!Ĉ!Ĉ!Ĉ!": 360,
      "2323": 361,
      "!!!SĂĄĆ": 362,
      "ććĈ!ć": 363,
      "Ĉ!Ĉ!Ĉ!ćĈ!Ĉ!": 364,
      "ćĈ!ćĈ!ćĈ!ćĈ!": 365,
      "%&'(ďĉďĉ": 366,
      "222222222222222222222222": 367,
      "ď!": 368,
      ")!)!!!!!!!!!!!!!!!!": 369,
      "ććĈĈ": 370,
      "ćĈĈćĈ": 371,
      "ďĉ!!ďĉ!": 372,
      "MMMMMMMMMMMMMMMM": 373,
      "#$": 374,
      "ĈĈĈĈĈĈ": 375,
      "ďĉ!!!!!!!!!!!!!!!!!!!!!!!!!!!!!!!!!!!!!!!!!!!!!!!!": 376,
      "ĈĈ!": 377,
      "%ć": 378,
      "ďĉ!ďĉďĉ": 379,
      "ććĈĈĈ": 380,
      "ćĈ!ĈĈ": 381,
      "ďĉ!!!!!!!!!!!!!!!!!!!!!!!!!!!!!!!!": 382,
      "ďĉćć": 383,
      "ććĈ!ćć": 384,
      "ďĉďĉďĉďĉďĉďĉďĉ": 385,
      "%ĉ": 386,
      "ĈĈĈ!ĈĈĈ": 387,
      "ďĉďĉďĉďĉďĉďĉďĉ!": 388,
      "ĈĈĈĈĈĈĈĈĈ": 389,
      "ďĉ!!!!!!!!": 390,
      "%&'(%&'(%&'(%&'(%&'(%&'(%&'(%&'(%&'(%&'(%&'(%&'(%&'(%&'(%&'(%&'(%&'(%&'(%&'(%&'(%&'(%&'(%&'(%&'(%&'(%&'(%&'(%&'(%&'(%&'(%&'(%&'(": 391,
      "%&'": 392,
      "Ĉ!ĈćĈ!Ĉ!": 393,
      "ďĉ!ďĉ!!": 394,
      "ćććĈ!Ĉ!Ĉ!Ĉ!Ĉ!Ĉ!": 395,
      "ĉ!": 396,
      "ď%ĉ": 397,
      ")!)!!": 398,
      "7777": 399,
      "ććććĈ!ćĈ!Ĉ!": 400,
      "%!!!": 401,
      "&'(!!!!!!!!!!!!!!!!": 402,
      "TVa!!!SĂĄĆ": 403,
      "ćďĉďĉ": 404,
      "ďĉ!%&'(": 405,
      "ćĈ!ćĈ!Ĉ!Ĉ!": 406,
      "ď%ĉ&'(": 407,
      "011": 408,
      "Ĉ!Ĉ!Ĉ!!": 409,
      ")!)!!!!!!!!!!!!!!!!!!!!!!!!!!!!!!!!": 410,
      "-%&+/,'(-%&+/,'(-%&+/,'(-%&+/,'(": 411,
      "ććĈ!Ĉ!Ĉ!Ĉ!Ĉ!Ĉ!": 412,
      "ďĉďĉćććć": 413,
      "ćĈ!ćĈ!Ĉ!Ĉ!ćĈ!Ĉ!": 414,
      "0011": 415,
      "ďĉ!ďĉďĉďĉ!": 416,
      "ćĈĈ!": 417,
      "!ďĉ": 418,
      "ćććĈ!Ĉ!Ĉ!Ĉ!": 419,
      "ď'(": 420,
      "&'(!!!!!!!!!!!!!!!!!!!!!!!!!!!!!!!!!!!!!!!!!!!!!!!!": 421,
      "ďĉ!!!!!": 422,
      "&'(!!!!!!!!!!!!!!!!!!!!!!!!!!!!!!!!!!!!!!!!!!!!!!!!!!!!!!!!!!!!!!!!!!!!!!!!!!!!!!!!!!!!!!!!!!!!!!!!": 423,
      "ćĈ!ćĈ!Ĉ": 424,
      "33": 425,
      "ćĈĈĈĈĈĈ": 426,
      "ćĈ!ćĈĈ": 427,
      "ďĉ!ďĉďĉ!": 428,
      "!!)!": 429,
      "%!!!!!!!!!!!!!!!!!!!!!!!!!!!!!!!!": 430,
      "!!!!!!!!!!!!!!!!!!!!!": 431,
      "ďĉ!!!!!!!!!!!!!!!!!!!!!!!!!!!!!!!!!!!!!!!!!!!!!!!!!!!!!!!!!!!!!!!!": 432,
      "ĈĈĈĈ!": 433,
      "!LK!LK!LK!LK": 434,
      "%&ď'(": 435,
      "ćĈĈĈćĈĈ": 436,
      "ďĉďĉďĉ!ďĉďĉ!": 437,
      "#.": 438,
      "$#$": 439,
      "ď(": 440,
      "Ĉ!ćĈ!Ĉ!Ĉ": 441,
      "ćĈ!ĈĈ!": 442,
      "ććĈ!ćĈ!ćĈ!": 443,
      "#..": 444,
      "!!!!R!!!S": 445,
      "Ĉ!ĈĈĈĈĈĈĈ": 446,
      "ććĈćć": 447,
      "ĈćĈĈćĈ": 448,
      "ććĈ!ććĈ!": 449,
      "$#$!!)!": 450,
      "%&-+/,'(#..": 451,
      "Ĉ!Ĉ!ĈĈĈ": 452,
      "%&'ď(": 453,
      "Ĉ!Ĉ!ĈĈ!Ĉ": 454,
      "ćĈĈćĈĈćĈćĈćĈ": 455,
      "ďĉ!ďĉďĉďĉ": 456,
      "ĈĈĈ!Ĉ!": 457,
      "ćććĈ!Ĉ!Ĉ!": 458,
      "ććććććĈ!ćĈĈ": 459,
      "ćĈ!ćĈ!ćĈ!ćĈ!ćĈ!Ĉ!": 460,
      "ĉĉĉĉ": 461,
      "ĈĈĈĈĈ": 462,
      "Ĉ!ĈĈćĈ": 463,
      "%&-+/,'(#..$#$!!)!": 464,
      "%&-+01'(32222224%&52226'(78,%&-+01'(32222224%&52226'(78,%&-+01'(32222224%&52226'(78,%&-+01'(32222224%&52226'(78,": 465,
      "Ĉ!ĈćĈ!Ĉ!Ĉ!Ĉ": 466,
      "ćĈ!Ĉ!Ĉ!Ĉ!ćĈ!Ĉ!": 467,
      "ďĉďĉďĉďĉďĉďĉďĉďĉ!": 468,
      "Ĉ!ĈĈ!ĈĈĈ": 469,
      "ćććĈ!Ĉ!Ĉ!Ĉ": 470,
      "%ć&'(": 471,
      "Ĉ!Ĉ!Ĉ!Ĉ!Ĉ!Ĉ!Ĉ!Ĉ!": 472,
      "ćććććć": 473,
      "ćććććććććć": 474,
      "ďĉ!ďĉ!ďĉ": 475,
      "%&-+/,'(#..$#$!!)!%&-+/,'(#..$#$!!)!": 476,
      "!!!!!!!!!!!!!!!!!!!!!!!!!!!!!!!!!!!!!!!!!!!!!!!!!!!!!!!!!!!!!!!!!!!!!!!!!!!!!!!!!!!!!!!!!!!!!!!!!!!!!!!!!!!!!!!!!!!!!!!!!!!!!!!!": 477,
      "ćĉ": 478,
      "ďĉďĉďĉďĉďĉćććć": 479,
      "%&5555": 480,
      "44444444": 481,
      "5555222222222222222222222222": 482,
      "66666666": 483,
      "8888,": 484,
      "88888888,": 485,
      "%&55555555222222222222222222222222": 486,
      "44444444%&55555555222222222222222222222222": 487,
      "44444444%&5555555522222222222222222222222266666666": 488,
      "%&ď'(ĉ": 489,
      "%&'(ďĉ!!": 490,
      "ćĈ!ďĉ!": 491,
      "ćďĉďĉďĉ": 492,
      "%&-+/,'(%&-+/,'(%&-+/,'(%&-+/,'(": 493,
      "ďĉ!ďĉďĉ!!": 494,
      "&'(!": 495,
      "ďĉďĉďĉďĉďĉ!!": 496,
      "(7": 497,
      "(788888888,": 498,
      "%!!!!!!!": 499,
      ")!!!!!!!!": 500,
      "%&'ď(ĉ": 501,
      "%&'(ďĉďĉďĉ!": 502,
      "%!!&'(": 503,
      "2222222222222222222222222222222222222222": 504,
      "244444444%&5555555522222222222222222222222266666666": 505,
      "2222222222222222222222222222222222222222244444444%&5555555522222222222222222222222266666666": 506,
      "ďĉ!!!!!!": 507,
      "ćďĉ!ďĉ": 508,
      "(788888888,-%&": 509,
      "ďĉ!!!!": 510,
      "ćĈĈĈĈĈĈĈĈ": 511,
      "ćĈćĈĈ": 512,
      "%!!!!!!!!": 513,
      "Ĉ!Ĉ!ćĈ!": 514,
      "Ĉ!ĈĈĈĈĈ": 515,
      "Ĉ!Ĉ!Ĉ!Ĉ!ĈćĈĈ": 516,
      "ćĈ!Č": 517,
      "ć!": 518,
      "ďĉďĉ!!!!": 519,
      "ćĈććĈ": 520,
      "Ĉ!ĈĈĈ!": 521,
      "ĈĈ!Ĉ!Ĉ!Ĉ!": 522,
      "%!!!!!!": 523,
      "!!!!!!!!!!!!!!!!!!!!!!!!!!!!": 524,
      "ćĈĈĈĈĈĈĈĈĈĈĈĈ": 525,
      "ćĈ!ćČ": 526,
      "Ĉ!ćĈ!ćĈ!": 527,
      "L!LK": 528,
      "ďĉ!ďĉďĉďĉďĉďĉďĉďĉďĉ": 529,
      "ćĈ!ĈćĈ": 530,
      "ďĉďĉďĉć": 531,
      "ĈĈĈĈĈĈĈĈĈĈĈ": 532,
      "%!!!!!!!!!!!!!": 533,
      "TVa!!!SĂĄĆ!!!!R!!!S": 534,
      ")ďĉďĉ!": 535,
      "%!!!!": 536,
      "%!!!!!": 537,
      "Ĉ!ććĈ!Ĉ!": 538,
      "ćĈ!ćĈ!ćĈ": 539,
      "ćĈ!ĈĈ!Ĉ!": 540,
      "%!!!!!!!!!!!!": 541,
      "%&'(!": 542,
      "ćććććĈ!ćĈĈ": 543,
      "'7777": 544,
      "ćĈ!Ĉ!ćĈ!Ĉ!": 545,
      "ćĈ!Ĉ!ĈćĈ!Ĉ!": 546,
      "ććććĈ!Ĉ!": 547,
      "!!Č": 548,
      "ććććĈććĈ": 549,
      "%!!!!!!!!!!!": 550,
      "ćĈćĈćĈćĈćĈćĈćĈćĈ": 551,
      "ćĈ!ćĈćĈćĈ": 552,
      "ćĈĈ!Ĉ!Ĉ": 553,
      "ćĈĈĈĈĈĈĈĈććĈ": 554,
      "ďĉ!!!!!!!!!!!": 555,
      "ćĈ!ćĈ!ćĈ!ćĈ": 556,
      "ććĈ!ćććĈ!ćć": 557,
      "ććĈ!ćĈ!Ĉ": 558,
      "LLLLLLLLLLLLLLLL": 559,
      "ćĈ!ćĈ!Ĉ!ćĈĈ": 560,
      "%&'(ďĉďĉďĉďĉ": 561,
      "%&'(ďĉďĉ!": 562,
      "%!!!&'(": 563,
      "ď%&'(ĉ!": 564,
      "ććĈ!ććććĈ": 565,
      "Ĉ!ĈĈĈĈ!": 566,
      "ďĉ!!!!!!!!!!!!!!!!!!!": 567,
      "ćĈĈ!ćĈ!Ĉ!": 568,
      "ĈĈĈ!ĈĈĈććĈ!": 569,
      "ććććĈ!ĈĈ": 570,
      "ćĈĈĈĈ!Ĉ": 571,
      "ĈĈĈĈćĈĈĈĈ": 572,
      "ććĈććĈ!": 573,
      "ĈĈĈĈĈĈĈĈĈĈĈĈĈĈĈĈĈĈĈĈ": 574,
      "ćĈ!Ĉ!ććĈ!": 575,
      "ćĈćĈĈĈĈ": 576,
      "ć%&'(ďĉ": 577,
      "ďĉ!!ďĉďĉďĉďĉďĉďĉ!": 578,
      "ćććĈćĈ": 579,
      "ćĈ!ĈććĈĈĈ": 580,
      "Ĉ!ĈĈĈĈĈĈ": 581,
      "ćĈćĈćĈćĈćĈĈćĈĈćĈćĈćĈ": 582,
      "ĈćĈ!Ĉ!": 583,
      "ĈĈĈĈĈĈĈĈĈĈĈĈĈĈĈĈĈĈĈĈĈĈĈĈĈĈĈĈĈĈĈĈ": 584,
      "ćĈ!ĈĈ!Ĉ": 585,
      "ćĈ!ććĈćĈ!ćĈ": 586,
      "!!ćĈ!Ĉ!Ĉ!Ĉ!": 587,
      "ććĈĈććĈćć": 588,
      "Ĉ!ĈćĈ!Ĉ!Ĉ!ĈćĈ!ćć": 589,
      "ćĈ!ćĈ!ćĈ!ćĈ!Ĉ!": 590,
      "ćććĈ!Ĉ!ćĈ!Ĉ!": 591,
      "ďĉďĉďĉ!ďĉ": 592,
      "ććĈ!ćĈ!ććĈ!": 593,
      "ďĉ!)!)": 594,
      "Ĉ!Ĉ!Ĉ!Ĉ!!": 595,
      "ĈĈĈĈĈĈćĈ!ććĈ": 596,
      "ćďĉďĉďĉďĉ!": 597,
      "ĈĈĈĈĈĈĈĈĈĈĈĈĈĈ!Ĉ!Ĉ!Ĉ!": 598,
      "ďĉ!ďĉďĉďĉďĉ!!": 599,
      "ĈćĈĈćĈćĈĈĈćĈĈ": 600,
      "ććććććĈ!ćć": 601,
      "ĈĈĈĈĈĈĈĈĈĈ!ćĈ!Ĉ!": 602,
      "ćććĈĈ": 603,
      "ďĉćĈ!Ĉ!": 604,
      "ćĈ!ĈćĈćĈćĈ": 605,
      "ďďďď": 606,
      "ďĉ!ďĉ!!!!!!!!!!!": 607,
      "&'(!!!!!!!!!!!!!!!!!!!!!!!!!!!!!!!!!!!!!!!!!!!!!!!!!!!!!!!!!!!!!!!!!!!!!!!!!!!!!!!!!!!!!!!!!!!!!!!!!!!!!!!!!!!!!!!!!!!!!!!!!!!!!!!!!!!!!!!!!!!!!!!!": 608,
      "ďĉďĉďĉďĉďĉ!": 609,
      "Ĉ!ĈĈ!ĈĈĈĈ!ĈĈ!Ĉ": 610,
      "ćĈ!Ĉ!Ĉ!ćĈĈćĈ": 611,
      "!!!!ďĉ!!": 612,
      "ďĉ!ďĉ!!!!!!": 613,
      "ććĈ!Ĉ!Ĉ!Ĉ!Ĉ!Ĉ!ćĈ": 614,
      "%ćĈ": 615,
      ")!)!!!!!!!!!!!!!!!!!!!!!!!!!!!!!!!!!!!!!!!!!!!!!!!!!!!!!!!!!!!!!!!!!!!!!!!!!!!!!!!!!!!!!!!!!!!!!!!!": 616,
      "ďĉ!!ďĉďĉ": 617,
      "-%&+/,'(-%&+/,'(-%&+/,'(-%&+/,'(-%&+/,'(-%&+/,'(-%&+/,'(-%&+/,'(": 618,
      "ĈĈĈĈĈĈĈĈĈĈ!ĈĈ": 619,
      "Ĉ!ćĈ!Ĉ!ĈćĈĈĈ": 620,
      "ď!ĉ": 621,
      "ćććĈ!Ĉ!Ĉ!Ĉ!ĈĈĈĈĈĈĈĈĈĈ!ćĈ!Ĉ!": 622,
      "%!!!!!!!!!!!!!!": 623,
      "ććććććĈććĈ!": 624,
      "ćď": 625,
      "!!!!!!!!!!!!!!!!!!!!!!!!!!!!!!!!!!!!!!!!!!!!!": 626,
      "ćććććććććććććććććććććććć": 627,
      "%ć&": 628,
      "%!!!!!!!!!!": 629,
      "ďĉďĉ!ďĉ": 630,
      "ďĉďĉ!ďĉďĉďĉ!!": 631,
      "(788888888,-%&+01": 632,
      "Ĉ!Ĉ!Ĉ!ĈĈĈĈĈĈĈĈĈĈ!ĈĈ": 633,
      "ďĉ!!ďĉďĉ!!!": 634,
      "&'(ďĉ": 635,
      "ćććććććĈ!Ĉ!Ĉ!ćĈ!Ĉ!": 636,
      "%&'(%&'(%&'(%&'(%&'(%&'(%&'(%&'(%&'(%&'(%&'(%&'(%&'(%&'(%&'(%&'(%&'(%&'(%&'(%&'(%&'(%&'(%&'(%&'(%&'(%&'(%&'(%&'(%&'(%&'(%&'(%&'(%&'(%&'(%&'(%&'(%&'(%&'(%&'(%&'(%&'(%&'(%&'(%&'(%&'(%&'(%&'(%&'(%&'(%&'(%&'(%&'(%&'(%&'(%&'(%&'(%&'(%&'(%&'(%&'(%&'(%&'(%&'(%&'(": 637,
      "ĥĤ": 638,
      "Ĉ!Ĉ!ĈĈ!Ĉ!Ĉ!Ĉ!": 639,
      "ćććććććĈ!Ĉ!ććććććĈ!ćĈĈ": 640,
      "ćććĈ!Ĉ!Ĉ!Ĉ!ĈĈĈĈĈĈĈĈĈĈ!ćĈ!Ĉ!ĈćĈĈćĈćĈĈĈćĈĈ": 641,
      ")!)!!!!!!!!!!!!!!!!!!!!!!!!!!!!!!!!!!!!!!!!!!!!!!!!!!!!!!!!!!!!!!!!!!!!!!!!!!!!!!!!": 642,
      "ďĉ!!ďĉďĉďĉ": 643,
      "%&'(!!!!!!!!!!!!!!!!!!!!!!!!!!!!!!!!!!!!!!!!!!!!!!!!!!!!!!!!!!!!!!!!": 644,
      "!!!!!!!!!!!!!!!!!!!!!!!!!!!!!!!!!!!!!!!": 645,
      "&'(!!!!!!!!!!!!!!!!!!!!!!!!!!!!!!!!!!!!!!!!!!!!!!!!!!!!!!!!!!!!!!!!!!!!!!!!!!!!!!!!!!!!!!!!!!!!!!!!!!!!!!!!!!!!!!!!!!!!!!!!!!!!!!!!!!!!!!": 646,
      "Ĉ!!": 647,
      "MMMMMMMMMMMMMMMMMMMMMMMMMMMMMMMM": 648,
      "Ĉ!ĈćĈ!": 649,
      "%!!!!!!!!!!!!!!!": 650,
      "Ē!!": 651,
      "ďĉďĉďĉďĉ!!": 652,
      "ćĈ!ĈćĈĈ": 653,
      "ććĈ!ćďĉ": 654,
      "ďĉćććććććć": 655,
      "ďĉďĉ!ďĉďĉ": 656,
      "ďĉĈ!ĈĈĈĈĈĈĈ": 657,
      "!!!!!!!!!!!!!!!!!!!!": 658,
      "Ĉ!Ĉ!Ĉ!ĈĈĈĈĈĈĈĈĈĈ!ĈĈĈ!ĈĈ!ĈĈĈĈ!ĈĈ!Ĉ": 659,
      "%!!!!!!!!!!!!!!!!!!!!!!": 660,
      "%!!!!!!!!!": 661,
      "Ĉ(": 662,
      "Ĉ!ĉ": 663,
      "ćććĈ!": 664,
      "%ď&'(ĉ!": 665,
      "ĖĖ": 666,
      "%&'(ďĉĈ!Ĉ!Ĉ!Ĉ!": 667,
      ")!!!!!!!!)!": 668,
      "ĈĈ!Ĉ": 669,
      "ďĉďĉ!ďĉ!": 670,
      "ďĉĈ!Ĉ!Ĉ!Ĉ!": 671,
      "ďĉďĉďĉďĉ!ďĉďĉ": 672,
      "ďĉďĉďĉďĉďĉ%&'(": 673,
      "Ĉ'(": 674,
      "%&'(ďĉ!": 675,
      "322": 676,
      "ćĈĈĈĈĈćĈĈĈĈĈ": 677,
      "ććĈ!Ĉ!Ĉ!Ĉ": 678,
      "ďĉ!ďĉďĉďĉďĉ!": 679,
      "ćććććććććććć": 680,
      ")!)!!!!!!!!!!!!!!!!!!!!!!!!!!!!!!!!!!!!!!!!!!!!!!!!": 681,
      "ďĉďĉ!ďĉ!!": 682,
      "01'(3": 683,
      "ćććĈ!Ĉ!Ĉ!Ĉ!Ĉ!Ĉ!ćććććĈ!ćĈĈ": 684,
      "ďĉďĉďĉďĉďĉ)!)": 685,
      "ďĉď%&'(ĉ": 686,
      "%!!!!!!!!!!!!!!!!!": 687,
      "%&-+01'(32222224%&52226'(78,%&-+01'(32222224%&52226'(78,%&-+01'(32222224%&52226'(78,%&-+01'(32222224%&52226'(78,%&-+01'(32222224%&52226'(78,%&-+01'(32222224%&52226'(78,%&-+01'(32222224%&52226'(78,%&-+01'(32222224%&52226'(78,": 688,
      "%!!!!!!!!!!!!!!!!!!": 689,
      "ďĉďďĉĉ": 690,
      "ćććććĈ!Ĉ!Ĉ!ćĈĈćĈ": 691,
      "%&'(ďĉćć": 692,
      ")!)!": 693,
      "!LK!LK!LK!LK!LK!LK!LK!LK": 694,
      "ćĈ!ĈĈ!ĈĈĈ": 695,
      "AA": 696,
      "232222222222222222222222222222222222222222244444444%&5555555522222222222222222222222266666666": 697,
      "ďĉďĉďĉďĉďĉďĉďĉďĉďĉďĉ": 698,
      "Ĉ!Ĉ!ĈĈ!Ĉ!": 699,
      "%&'(ďĉďĉďĉ": 700,
      "Ĉ!ĈĈ!Ĉ!Ĉ!Ĉ!": 701,
      "ďĉ!!!!!!!!!!!!!!!!!!!!!!!!!!!!!!!!!!!!!!!!!!!!!!!!!!!!": 702,
      "ďĉďĉďĉďĉďĉďĉ%&'(": 703,
      "%!!!!!!!!!!!!!!!!!!!": 704,
      "&'(!!!!!!!!!!!!!!!!!!!!!!!!!!!!!!!!!!!!!!!!!!!!!!!!!!!!!!!!!!!!!!!!!!!!!!!!!!!!!!!!!!!!!!!!!!!!!!!!!!!!!!!!!!!!!!!!!!!!!!!!!!!!!!!!!!!!!": 705,
      "Ĉ!ćć": 706,
      "&'(!!!!!!!!!!!!!!!!!!!!!!!!!!!!!!!!!!!!!!!!!!!!!!!!!!!!!!!!!!!!!!!!!!!!!!!!!!!!!!!!!!!!!!!!!!!!!!!!!!!!!!!!!!!!!!!!!!!!!!!!!!!!!": 707,
      "ďĉ!!!!!!!!!!!!": 708,
      "ďĉďĉďĉ!!ďĉďĉ": 709,
      "32323": 710,
      "ć(": 711,
      "ćĈ!ďĉ": 712,
      "ćĈ!ćĈ!Ĉ!ĈćĈ!Ĉ!": 713,
      "Ĉ!Ĉ!ĈĈ!": 714,
      "%&'(ďĉďĉďĉďĉďĉďĉďĉďĉ": 715,
      "ďĉ!ďĉ!!!": 716,
      "&'(!!!!": 717,
      "ćĈ!ĈĈĈĈ": 718,
      "%&'(ďĉ!!!": 719,
      "Ĉ!Ĉ!Ĉ!Ĉ!ĈćĈĈĈ!ĈĈĈ": 720,
      "ďĉ!!!!!!!!!!!!!!!!!!": 721,
      "ć!!": 722,
      "Ĉ!ĈĈĈ!Ĉ!Ĉ": 723,
      ")!)!!!!!!!!!!!!!!!!!!!!": 724,
      "ďĉďĉ!ďĉďĉćććć": 725,
      "ććććĈćĈ": 726,
      "Čďĉ": 727,
      "ďĉďĉ!ďĉďĉ%&'(": 728,
      "ććĈ!Ĉ!Ĉ!ćĈ!": 729,
      "777": 730,
      "&'(!!!!!!!!!!!!!!!!!!!!!!!!!!!!!!!!!!!!!!!!!!!!!!!!!!!!!!!!!!!!!!!!!!!!!!!!!!!!!!!!": 731,
      "ďĉ!!ďĉ!!!!!!!!!!!": 732,
      "ćĈ!Ĉ!Ĉ!Ĉ!Ĉ!": 733,
      "Ĉ!ćĈ!Ĉ!Ĉ!ćĈ!Ĉ!": 734,
      "ďĉď": 735,
      "!!!!!!!!!ććććĈ!ĈĈ": 736,
      "ďĉďĉďĉďĉćććć": 737,
      "Čďĉďĉ": 738,
      "&'(!!!!!!!!!!!!!!!!!!!!!!!!!!!!!!!!!!!!!!!!!!!!!!!!!!!!!!!!!!!!!!!!!!!!!!!!!!!!!!!!!!!!!!!!!!!!!!!!!!!!!!!!!!!!!!!!!!!!!!!!!!": 739,
      "Ĉ!Ĉ!Ĉ!ĈĈĈ": 740,
      "Ĉ!Ĉ!Ĉ!Ĉ!Ĉ!Ĉ": 741,
      "ćĈĈĈćĈ": 742,
      "ćĈ!ĈćĈ!Ĉ!": 743,
      "%&-+/,'(#..$#$!!)!%&-+/,'(#..$#$!!)!%&-+/,'(#..$#$!!)!%&-+/,'(#..$#$!!)!": 744,
      "%!Ĉ&'(": 745,
      "%&-+/,'(%&-+/,'(%&-+/,'(%&-+/,'(%&-+/,'(%&-+/,'(%&-+/,'(%&-+/,'(": 746,
      "Ĉ!ďĉďĉ!": 747,
      "RTVa": 748,
      "ććĈ!ĈĈ!": 749,
      "%&'(%&'(%&'(": 750,
      "ďĉďĉ)": 751,
      "ćĈ!Ĉ!ĈĈ": 752,
      "!!!ďĉďĉďĉďĉ": 753,
      ")!)!!!!!!!!": 754,
      "!!!!!!!!!!!!!!!!!!!!!!!!!!!": 755,
      "ďĉććĈ!": 756,
      "ćĈ!Ĉ!ĈćĈ!": 757,
      "Ĉ(!": 758,
      "ćĈ!Ĉ!!": 759,
      "Ĉ!Ĉ!ĈĈĈ!": 760,
      "ďĉ!!ďĉ!ďĉďĉ!": 761,
      "ććććććććććććĈ!": 762,
      "ĈĈĈĈĈ!": 763,
      "ćďĉ%&'(": 764,
      "Ĉ!Ĉ!Ĉ!Ĉ!ĈĈĈĈ": 765,
      "ćĈćĈćĈ!Ĉ!": 766,
      "ćĈ!ćĈ!ćďĉďĉďĉďĉ!": 767,
      "ćććĈćć": 768,
      "Ĉ!ćĈ!Ĉ!Ĉ!Ĉ!Ĉ!!": 769,
      "&'(!!!!!!!!!!!!!!!!!!!!!!!!!!!!!!!!!!!!!!!!!!!!!!!!!!!!!!!!!!!!!!!!!!!!!!!!!!!!!!!!!!!!!!!!!!!!!!!!!!!!!!!!!!!!!!!!!!!!!!!!!!!!": 770,
      "ććĈ!ćďĉďĉďĉďĉďĉďĉďĉďĉ": 771,
      "Ĉ!ćĈ!ĈćĈ": 772,
      "00011": 773,
      "Ĉ!Ĉ!Ĉ!Ĉ!Ĉ!Ĉ!Ĉ": 774,
      "&'(!!!!!!!!!!!!!!!!!!!!!!!!!!!!!!!!!!!!!!!!!!!!!!!!!!!!!!!!!!!!!!!!!!!!!!!!!!!!!!!!!!!!!!!!!!!!!!!!!!!!!!!!!!!!!!!!!!!!!!!!!!!!!!!!!!!!": 775,
      "Ĉ!ĈĈ!Ĉ!Ĉ!Ĉ": 776,
      "Ĉ!ććĈĈ": 777,
      "Ĉ!Ĉ!ćĈĈ": 778,
      "Ē!": 779,
      "ČČ": 780,
      "ćĈćĈ!ćĈ": 781,
      "ďĉ!!!!!!!!!!!!!!!!!!!!!!!!!!!!!!!!!!!": 782,
      "Ĉ!ďĉďĉ": 783,
      "ćĈ!Ĉ!ćĈ": 784,
      ")!)!!!!!!!!!!!!!!!!!!!!!!!!!!!!!!": 785,
      "Ĉ'(!": 786,
      "ďĉďĉďĉ!!ďĉ!": 787,
      "ďĉ!!ďĉ!!!!!!!!": 788,
      "%!!!!!!!!!!!!!!!!!!!!": 789,
      "&'(!!!!!!!!!!!!!!!!!!!!!!!!!!!!!!!!": 790,
      "ďĉ%ď&'(ĉ": 791,
      "Ĉ!Ĉ!ćĈ!ĈĈ!": 792,
      "Ĉ!ĈĈĈ!ĈĈ": 793,
      "ďĉďĉ!!ďĉ!!!!": 794,
      "Ĉ!%&'(ďĉďĉďĉ!": 795,
      "ćĈĈĈććĈ": 796,
      "ćĈĈĈĈĈćĈ": 797,
      "%ćĈ&'(!": 798,
      "Ĉ!ďĉ!ďĉďĉďĉďĉ": 799,
      "ďĉ!!!ćććć": 800,
      "ćĈććć": 801,
      "Ĉ!ĈććĈ": 802,
      "&'(!!!!!!!!!!!!!!!!!!!!!!!!!!!!!!!!!!!!!!!!!!!!!!!!!!!!!!!!!!!!!!!!!!!!!!!!!!!!!!!!!!!!!!!!!!!!!!!!!!!!!!!!!!!!!!!!!!!!!!!!!!!!!!!!!!!": 803,
      "RTVa!!!SĂĄĆ!!!!R!!!S": 804,
      "Ĉ!Ĉ!ĈĈĈĈĈĈ": 805,
      "%&'(!!!!!!!!!!!!!!!!": 806,
      "ćĈ!ćĈĈĈ": 807,
      "Ĉ!Ĉ!Ĉ!ĈĈ!Ĉ": 808,
      "!!ćććć": 809,
      "%&'(!!!!!!!!!!!!!!!!!!!!!!!!!!!!!!!!!!!!!!!!!!!!!!!!!!!!!!!!!!!!!!!!!!!!!!!!!!!!!!!!!!!!!!!!!!!!!!!!!!!!!!!!!!!!!!!!!!!!!!!!!!!!!!!!": 810,
      "ďĉďĉ!!ďĉ!ďĉ!!": 811,
      "ć%Ĉ&'(!": 812,
      "Ĉ!Č": 813,
      "ćĈ!ćĈ!ćĈ!Ĉ!": 814,
      "ćĈĈććĈĈĈ": 815,
      "ććĈ!ćĈĈ": 816,
      "ćĈćĈćĈćĈćĈ": 817,
      "Ĉ!ďĉďĉ!ďĉćććć": 818,
      "ćĈĈĈććĈĈĈ": 819,
      "ćććĈććĈ": 820,
      "ĈĈ!ććĈ!Ĉ!": 821,
      "ćććĈ!ćĈ!": 822,
      "ďĉććććĈ!ćĈ!ćĈ!": 823,
      "ććĈ!Ĉ!Ĉ!Ĉ!Ĉ!ďĉďĉ!ďĉćććć": 824,
      "ćĈ!ćĈ!ćĈ!ćĈ!ćĈ!ćĈćĈćĈ": 825,
      "ćĈ!ćĈ!ĈĈ!Ĉ!": 826,
      "ćĈ!ćĈ!ćĈ!ćĈćĈ!ćĈ!Ĉ!": 827,
      "ČďĉćĈ!ćĈ!ćĈ!ćĈćĈ!ćĈ!Ĉ!": 828,
      "ĈĈ!ććĈ!Ĉ!ČďĉćĈ!ćĈ!ćĈ!ćĈćĈ!ćĈ!Ĉ!": 829,
      "ďĉććććĈ!ćĈ!ćĈ!ĈĈ!ććĈ!Ĉ!ČďĉćĈ!ćĈ!ćĈ!ćĈćĈ!ćĈ!Ĉ!": 830,
      "ććĈ!Ĉ!Ĉ!Ĉ!Ĉ!ďĉďĉ!ďĉćććććĈ!Ĉ!Ĉ!Ĉ!Ĉ!Ĉ!": 831,
      "ćĈ!ćĈ!ćĈ!ćĈ!ćĈ!ćĈćĈćĈďĉďĉ!": 832,
      "ćććĈ!ćĈ!ćĈ!ćĈ!ćĈ!ćĈćĈćĈďĉďĉ!": 833,
      "Ĉ!ĈĈĈćĈ!ćĈĈĈ": 834,
      "ďĉďĉďĉďĉďĉććććĈ!ćĈ!ĈćĈ": 835,
      "Ĉ!Ĉ!Ĉ!Ĉ!ĈćĈĈćĈĈĈĈĈ": 836,
      "ďĉććććĈ!ćĈ!ćĈ!ĈĈ!ććĈ!Ĉ!ČďĉćĈ!ćĈ!ćĈ!ćĈćĈ!ćĈ!Ĉ!ććĈ!ĈĈ!": 837,
      "ćĈ!Ĉ!ĈĈĈĈĈĈ": 838,
      "ďĉďĉďĉďĉĈ!ĈĈĈćĈ!ćĈĈĈ": 839,
      "Ĉ!ćĈ!Ĉ!ĈĈĈ!ĈĈĈććĈ!": 840,
      "ććĈćĈćĈćĈ": 841,
      "ćĈ!ćććĈ!ćć": 842,
      "Ĉ!ĈĈ!ććĈ!Ĉ!Ĉ": 843,
      "ćĈ!ććĈ!ćĈ!ććĈ!": 844,
      "ćććććććĈ!Ĉ!Ĉ!Ĉ!Ĉ!ćĈ!Ĉ!": 845,
      "ćďĉ!ďĉćććĈ!ćĈ!ćĈ!ćĈ!ćĈ!ćĈćĈćĈďĉďĉ!": 846,
      "ďĉďĉďĉďĉďĉććććĈ!ćĈ!ĈćĈĈ!Ĉ!Ĉ!Ĉ!ĈćĈĈćĈĈĈĈĈ": 847,
      "ĈĈćĈćĈćĈ!Ĉ!": 848,
      "Ĉ!Ĉ!ĈĈĈĈ": 849,
      "ććĈ!Ĉ!ĈĈĈ!Ĉ!": 850,
      "ććĈ!Ĉ!ĈćĈĈĈććĈĈĈ": 851,
      "ćććććććĈ!ćĈ!Ĉ!": 852,
      "ćĈ!Ĉ!ććĈ!ĈĈćĈćĈćĈ!Ĉ!": 853,
      "ćĈĈĈĈĈćĈĈĈĈĈćĈ!ĈĈĈ": 854,
      "Ĉ!Ĉ!ĈĈĈĈĈĈćĈ!ĈĈĈ": 855,
      "ďĉććććĈ!ćĈ!ćĈ!ĈĈ!ććĈ!Ĉ!ČďĉćĈ!ćĈ!ćĈ!ćĈćĈ!ćĈ!Ĉ!ććĈ!ĈĈ!ćĈĈ!Ĉ!Ĉ": 856,
      "ććĈ!Ĉ!ĈĈĈ!Ĉ!Ĉ!ĈĈćĈ": 857,
      "ćĈ!Ĉ!ććĈ!ĈĈćĈćĈćĈ!Ĉ!ĈćĈĈ": 858,
      "ĈĈĈĈĈĈĈĈĈĈĈĈĈĈĈĈĈĈĈĈĈĈĈĈĈĈĈ": 859,
      "!!!!!!!!!!ďĉ!!!!!!": 860,
      "ććĈ!ćĈ!ćĈ!ćĈ!ćĈćĈćĈ": 861,
      "ćĈ!ćĈ!Ĉ!ćĈĈćĈ!Ĉ!ććĈ!ĈĈćĈćĈćĈ!Ĉ!ĈćĈĈ": 862,
      "ďĉďĉďĉ!!ďĉ!ććĈ!Ĉ!Ĉ!Ĉ!Ĉ!ďĉďĉ!ďĉćććććĈ!Ĉ!Ĉ!Ĉ!Ĉ!Ĉ!": 863,
      "ćďĉ!ďĉćććĈ!ćĈ!ćĈ!ćĈ!ćĈ!ćĈćĈćĈďĉďĉ!ćććććććĈ!Ĉ!Ĉ!Ĉ!Ĉ!ćĈ!Ĉ!": 864,
      "!!ďĉ!!!!!!": 865,
      "ĈĈĈĈĈĈĈĈĈ!Č": 866,
      "ćĈĈĈććĈ!Ĉ!": 867,
      "ĈĈĈĈĈĈĈĈĈĈĈĈĈĈĈĈĈĈ!": 868,
      "ćĈ!ĈĈĈĈ!ĈĈ!Ĉ": 869,
      "ććĈ!ććĈ!ĈĈ!ććĈ!Ĉ!Ĉ": 870,
      "ďĉ!)!)!!!!!!!!!!!!!!": 871,
      "ćĈ!Ĉ!ĈĈĈĈĈĈććĈ!ćďĉ": 872,
      ")!!!!!!!!!!!!!!!": 873,
      "ćĈ!ćććĈ!Ĉ!Ĉ!": 874,
      "ćĈ!Ĉ!ćĈĈ": 875,
      "ćĈ!ćĈ!ćĈ!Ĉ!Ĉ!": 876,
      "ććććĈ!ććĈ!ć": 877,
      "ććĈĈćĈĈĈ": 878,
      "ćĈ!ćĈ!Ĉ!Ĉ!ćĈ!ćĈ!Ĉ!ćĈĈćĈ!Ĉ!ććĈ!ĈĈćĈćĈćĈ!Ĉ!ĈćĈĈ": 879,
      "!!Č!": 880,
      "ĈĈĈĈĈĈĈĈĈĈĈĈĈĈĈĈĈĈĈĈĈĈĈ": 881,
      "Ĉ!ćććĈ!ććĈ!": 882,
      "ćććĈćććĈĈćĈ": 883,
      "ććĈćĈćĈćĈćĈ!": 884,
      "ćććććććĈ!ćĈ!Ĉ!Ĉ!Ĉ!Ĉ!ćĈ!Ĉ!": 885,
      "ććĈ!ćĈ!ććĈ": 886,
      "ććĈ!ĈĈĈĈĈ!": 887,
      "ćććĈĈ!Ĉ!": 888,
      "Ĉ!Ĉ!Ĉ!ćĈĈĈććĈ": 889,
      "ćĈ!ĈĈĈćć": 890,
      "&'(!!!!ďĉććććĈ!ćĈ!ćĈ!ĈĈ!ććĈ!Ĉ!ČďĉćĈ!ćĈ!ćĈ!ćĈćĈ!ćĈ!Ĉ!ććĈ!ĈĈ!ćĈĈ!Ĉ!Ĉ": 891,
      "ēē": 892,
      "ćĈ!ććććććĈ!": 893,
      "ćĈ!Ĉ!Ĉ!Ĉ!Ĉ!Ĉ!Ĉ!Ĉ!": 894,
      "ćĈ!ćĈ!ććĈ": 895,
      "Ĉ!ćĈ!ćĈĈĈĈ!Ĉ": 896,
      ")!)!!ďĉďĉ": 897,
      "ćĈ!ćĈ!ĈĈ!ćĈ!Ĉ!ĈĈĈ!ĈĈĈććĈ!": 898,
      "ĈĈĈĈ!ććĈ": 899,
      "Ĉ!%&'(ďĉďĉďĉ!))": 900,
      "ďĉďĉďĉďĉďĉććććĈ!ćĈ!ĈćĈĈ!Ĉ!Ĉ!Ĉ!ĈćĈĈćĈĈĈĈĈĈ!%&'(ďĉďĉďĉ!))": 901,
      "Ĉ!ćććĈ!ććĈ!ćĈ!ĈĈĈćć": 902,
      "Ĉ!Ĉ!Ĉ!Ĉ!ĈĈĈĈĈĈĈĈĈ!Č": 903,
      "Ĉ!Ĉ!Ĉ!Ĉ!Ĉ!Ĉ!ĈĈĈ!Ĉ!": 904,
      "ďĉ!!!ćććĈ": 905,
      "Ĉ!ĈĈĈ!ĈĈĈĈĈĈĈĈĈĈĈĈĈĈĈĈĈĈ!": 906,
      "ććććĈćĈććĈ!": 907,
      "ďĉ!!ďĉ!!!!!!!!)!!!!!!!!)!": 908,
      "ďĉďĉďĉďĉďĉ!!ďĉ": 909,
      "Ĉ!Ĉćć": 910,
      "ććććććććĈ!": 911,
      "Ĉ!ĈĈĈĈ!Ĉ": 912,
      "ććĈ!Ĉ!Ĉ!Ĉ!Ĉ": 913,
      "ććĈ!ćďĉďĉďĉďĉ": 914,
      "ďĉ!!ďĉ!ććĈ!": 915,
      "ďĉććĈĈĈĈĈ": 916,
      "&'(!!!!!!!!!!!!!!!!!!!!!!": 917,
      "ććĈ!ćććĈ!ćććĈ!ćććĈ!Ĉ!Ĉ!": 918,
      "ćĈ!Ĉ!!Ĉ!ćĈ!ćĈ!": 919,
      "ćĈĈĈććĈ!Ĉ!ććĈ!ćć": 920,
      "&'(!!!!ďĉććććĈ!ćĈ!ćĈ!ĈĈ!ććĈ!Ĉ!ČďĉćĈ!ćĈ!ćĈ!ćĈćĈ!ćĈ!Ĉ!ććĈ!ĈĈ!ćĈĈ!Ĉ!ĈćĈ!Ĉ!ĈĈĈĈĈĈććĈ!ćďĉ": 921,
      "ćĈćĈćĈĈĈćĈ": 922,
      "ćććĈ!Ĉ!Ĉ": 923,
      "ćĈ!ćĈ!!": 924,
      "Ĉ!ĈĈ!ĈĈĈĈĈĈĈĈĈĈĈĈĈĈĈĈĈĈĈĈĈĈĈĈĈĈĈ": 925,
      "ćććććććĈ!ćĈ!Ĉ!Ĉ!Ĉ!Ĉ!ćĈ!Ĉ!ćĈććĈ": 926,
      "ćĈ!Ĉ!ććĈ": 927,
      "ćĈćĈ!ććĈ": 928,
      "ćĈ!ĈćĈ!ćĈ!ĈĈ!ćĈ!Ĉ!ĈĈĈ!ĈĈĈććĈ!": 929,
      "Ĉ!ĈĈĈ!ĈĈĈĈ": 930,
      "ćĈćĈĈĈ!Ĉ": 931,
      "ćĈ!ćĈ!Ĉ!ćĈĈćĈ!Ĉ": 932,
      "Ĉ!ĈĈĈĈ!ĈĈĈĈĈĈĈĈ": 933,
      "ćĈćĈĈĈĈĈĈĈ": 934,
      "Ĉ!Ĉ!Ĉ!ĈĈĈĈĈĈĈĈĈĈ!ĈĈĈ!ĈĈ!ĈĈĈĈ!ĈĈ!ĈďĉĈ!ĈĈĈĈĈĈĈ": 935,
      "Ĉ!Ĉ!Ĉ!ćĈĈĈććĈĈ!ćććĈ!ććĈ!ćĈ!ĈĈĈćć": 936,
      "ćĈ!ććććććĈ!ćĈ!ććĈ": 937,
      "Ĉ!Ĉ!Ĉ!Ĉ!ćĈ!": 938,
      "ćĈĈĈ!Ĉ!ćĈ!Ĉ!": 939,
      "ĈĈĈĈĈĈĈĈĈĈĈĈĈĈĈĈĈĈĈĈĈĈĈĈ": 940,
      "ćććĈććććĈććĈ": 941,
      "ćĈĈćĈĈćĈĈĈĈĈćĈ": 942,
      "ďĉ!ďĉďĉ!!!!!!!!!!!!!!!!!!!!!!!!!!!!": 943,
      "ććĈ!ććććĈćĈćĈćĈ": 944,
      "ĈĈ!ĈććĈ!Ĉ!Ĉ": 945,
      "Ĉ!Ĉ!ĈĈ!Ĉ!Ĉ!ĈĈĈĈ": 946,
      "ČďĉďĉććĈ!ćĈ!ćĈ!ćĈ!ćĈćĈćĈ": 947,
      "ćĈ!Ĉ!!Ĉ!ćĈ!ćĈ!ććĈ!Ĉ!": 948,
      "ćććďĉ": 949,
      "ďĉďĉ!ďĉ%&'(": 950,
      "Ĉ!Ĉ!ĈĈ!Ĉ!ĈĈĈ": 951,
      "Ĉ!Ĉ!ĈĈ!Ĉ!ĈĈ!Ĉ": 952,
      "Ĉ!ĈĈĈĈ!ĈĈĈĈ": 953,
      "ďĉ!ďĉďĉďĉďĉďĉďĉďĉ": 954,
      "ććććĈ!ćććĈććĈ": 955,
      "ćććĈćććĈĈćĈćĈ!Ĉ!": 956,
      "Ĉ!Ĉ!Ĉ!Ĉ!ĈĈĈĈĈĈĈĈĈ!Čďĉ!": 957,
      "ďćĉ": 958,
      "Ĉ!ĈĈ!Ĉ!ćĈ!": 959,
      "&'(!!!!!!!!!!!!!!!!!!!!!!!!!!!!!!!!!!!!!!!!!!!!!!!!!!!!!!!!!!!!!!!!!!!!!!!!!!!!!!!!!!!!!!!!!!!!!!!!!!!!!!!!!!!!!!!!!!!!!!!!!!!!!!!!!!!!!!!": 960,
      "ďĉďĉďĉ!!ďĉ": 961,
      "ććĈ!Ĉ!Ĉ!Ĉ!Ĉ!ĈĈ!": 962,
      "ćĈ!ĈĈĈ!!ćććć": 963,
      "ććĈ!ĈććććĈ": 964,
      "ďĉ!!!!!!!!ďĉ!!!!!": 965,
      "ćĈĈĈćĈĈćććć": 966,
      "ćććĈ!Ĉ!Ĉ!ććĈ": 967,
      "ććĈĈĈĈćĈĈĈĈ": 968,
      "&'(ćďĉ!ďĉćććĈ!ćĈ!ćĈ!ćĈ!ćĈ!ćĈćĈćĈďĉďĉ!ćććććććĈ!Ĉ!Ĉ!Ĉ!Ĉ!ćĈ!Ĉ!": 969,
      "ćĈĈ!Ĉ!Ĉ!Ĉ!": 970,
      "!!!!!!!!!!!!!!!!!!!!!!!!!!!!!!!!!!!!!!!!!!!!!!!!!!!!!!!!!!!!!!!!!!!!!!!!!!!!!!!!": 971,
      "ćĈ!ĈćĈ!ććĈ": 972,
      "Ĉ!Ĉ!ćĈ!Ĉ!ĈĈĈ": 973,
      "ćĈĈćĈĈćĈ!ćććĈ!ćć": 974,
      "!!Č!!Č!": 975,
      "ćĈćĈćĈćĈćĈćĈćĈćĈćĈćĈćĈćĈ": 976,
      "ććĈ!ćĈ!ĈĈ!ćĈ!Ĉ!": 977,
      "&'(ďĉ))": 978,
      "Ĉ!ććĈĈććĈ!ćĈĈ": 979,
      "Ĉ!ĈĈĈĈ!ĈĈ!ĈĈĈĈ": 980,
      ")!!!!!!!!!!!!!!!!!!!!!!!!!!!!!!!!": 981,
      "Ĉ!ćĈ!Ĉ!Ĉ!Ĉ!Ĉ!Ĉ!": 982,
      "ćĈĈĈĈ!Ĉ!ćĈ!Ĉ!": 983,
      "ćĈĈĈĈ!Ĉ!ćĈ!": 984,
      "ćĈĈĈćĈ!ĈĈĈĈ": 985,
      "ćĈćĈćĈćĈĈĈ": 986,
      "ďĉ!!!!!!!!!!!!!!!!!!!!!!!!!!!!!!!!!!!!!!!!!!!!!!!!!!!!!!!!!": 987,
      "ćĈ!ĈĈćĈ!ćĈ!Ĉ!Ĉ!ćĈ!ćĈ!Ĉ!ćĈĈćĈ!Ĉ!ććĈ!ĈĈćĈćĈćĈ!Ĉ!ĈćĈĈ": 988,
      "ććĈ!ćĈ!ćĈ!ĈćĈĈ": 989,
      "ćĈĈćĈĈćĈćĈćĈććĈćĈćĈćĈćĈ!": 990,
      "ćĈ!ćĈ!ćĈ!ćĈ!ćĈ!Ĉ!ćĈ!ćĈ!Ĉ!ćĈĈćĈ!Ĉ": 991,
      "ćĈ!ĈĈ!Ĉ!ďĉ!ďĉ!": 992,
      "ćĈććĈ!ćĈ!ćĈ!ĈćĈĈ": 993,
      "ććĈ!Ĉ!Ĉ!ććĈ!Ĉ!": 994,
      "ďĉ!!!!!ďĉ!)!)!!!!!!!!!!!!!!": 995,
      "Ĉ!Ĉ!ĈĈ!ĈĈ!Ĉ!ĈĈ": 996,
      "ććĈ!ćććĈ!ćććĈ": 997,
      "ćććĈ!Ĉ!ćĈ!Ĉ!ĈĈĈĈ!ććĈ": 998,
      "!!!!!!!!!ććććĈ!ĈĈ%&'(ďĉ": 999,
      "ćĈććć!!": 1000,
      "ćććĈććććĈććĈććććĈććĈ": 1001,
      "ćĈ!Ĉ!Ĉ!Ĉ!Ĉ!Ĉ": 1002,
      "Ĉ!ĈĈĈ!Ĉ!Ĉ!Ĉ!Ĉ!Ĉ!Ĉ!Ĉ!": 1003,
      "ćĈćĈćĈćĈćĈćĈćĈćĈćĈ": 1004,
      "ććĈ!ĈććĈ!Ĉ!": 1005,
      "Ĉ!ĈĈĈĈĈĈĈĈ!ĈĈĈĈĈ": 1006,
      "ĈĈĈĈĈćĈćĈ": 1007,
      "Ĉ!ĈĈ!ĈĈĈĈĈĈĈĈĈĈĈĈĈĈĈĈĈĈĈĈĈĈĈĈĈĈĈĈ!Ĉ!Ĉ!Ĉ!ĈĈĈĈĈĈĈĈĈ!Čďĉ!": 1008,
      "ďĉďĉďĉďĉďĉ!ďĉ": 1009,
      "ććĈ!ćĈ!Ĉ!Ĉ!ćĈ!Ĉ!": 1010,
      "ćććĈ!Ĉ!ćććĈĈ": 1011,
      "ćĈ!ćććĈ!ććĈ": 1012,
      "Ĉ!Ĉ!ĈĈćĈ!Ĉ!": 1013,
      "ććĈ!ĈćĈćĈ": 1014,
      ")!!!!!!!!)": 1015,
      "Ĉ!ĈĈĈĈĈĈĈ!Ĉ!Ĉ!ĈĈ!Ĉ": 1016,
      "&'(!!!!ďĉććććĈ!ćĈ!ćĈ!ĈĈ!ććĈ!Ĉ!ČďĉćĈ!ćĈ!ćĈ!ćĈćĈ!ćĈ!Ĉ!ććĈ!ĈĈ!ćĈĈ!Ĉ!ĈćĈ!Ĉ!ĈĈĈĈĈĈććĈ!ćďĉ!!!!!!!!": 1017,
      "!&'(ďĉ))": 1018,
      "Ĉ!Ĉ!ĈĈ!Ĉ!Ĉ!!": 1019,
      "ćĈĈĈĈĈćĈĈćĈ": 1020,
      "Ĉ!ĈĈ!ĈĈ!ĈĈĈ!ĈĈĈĈ": 1021,
      "ćĈ!Ĉ!Ĉ!Ĉ!ćĈ!ćć": 1022,
      "ĈĈĈĈĈĈĈĈĈĈĈĈ!Ĉ!": 1023,
      "ćććĈĈĈĈĈ": 1024,
      "ćĈ!ćĈ!Ĉ!ćĈ!Ĉ": 1025,
      "ććĈ!Ĉ!Ĉ!Ĉ!ćĈĈĈ!Ĉ!ćĈ!Ĉ!": 1026,
      "ććććĈ!ććĈ!ćććĈ!ćććĈ": 1027,
      "ćĈ!ĈĈĈ!ĈĈ": 1028,
      "ćĈ!ĈĈćĈĈćĈ": 1029,
      "ćććĈ!Ĉ!Ĉ!ĈĈ!Ĉ!ćĈ!Ĉ!": 1030,
      "Ĉ!ĈĈĈĈĈĈ!Ĉ!Ĉ": 1031,
      "ćĈććĈĈ!ĈĈĈ": 1032,
      "ććććĈ!Ĉ!ććĈ!ĈććććĈ": 1033,
      "ćććĈĈ!Ĉ!ćĈ!ććĈćĈ!ćĈ": 1034,
      "ććĈ!Ĉ!ĈĈĈ": 1035,
      "Ĉ!Ĉ!ćĈ!Ĉ!Ĉ!Ĉ!ćĈ!Ĉ!": 1036,
      "ćĈ!ććĈććĈ": 1037,
      ")))": 1038,
      "ćĈ!Ĉ!Ĉ!Ĉ!Ĉ!Ĉ!ĈĈ": 1039,
      "ćĈ!Ĉ!Ĉ!Ĉ!Ĉ!Ĉ!Ĉ!ćĈ!": 1040,
      "ćĈ!ĈĈĈćĈćĈćĈĈĈćĈ": 1041,
      "Ĉ!ćĈ!ĈĈĈĈ": 1042,
      "ćĈ!ĈĈćĈ!ćĈĈ": 1043,
      "ćĈ!ćĈ!ćĈ!ćĈ!ćĈ!Ĉ!Ĉ!Ĉ!ĈĈ!": 1044,
      "ćććććććććććĈ!Ĉ": 1045,
      "Ĉ!ćĈ!Ĉ!ĈćĈĈĈćĈĈĈćĈĈćććć": 1046,
      "000111": 1047,
      "ććććĈćĈććĈ!ćĈ!Ĉ!Ĉ!Ĉ!ćĈ!Ĉ!": 1048,
      "ććĈ!Ĉ!Ĉ!Ĉ!Ĉ!ĈĈ!ćĈ!ćĈ!ćĈ": 1049,
      "ďĉďĉďĉďĉďĉďĉ!!!": 1050,
      "ććĈĈ!Ĉ!ĈĈĈ!": 1051,
      "ćĈĈĈćĈ!ĈććĈĈĈ": 1052,
      "Ĉ!Ĉ!Ĉ!Ĉ!Ĉ!Ĉ!Ĉ!ĈĈ!": 1053,
      "01010101": 1054,
      "ćĈ!ĈćĈĈ!Ĉ!ćĈ!ĈĈ!": 1055,
      "ćĈĈĈĈĈĈĈĈććĈćĈĈ!": 1056,
      "ćĈ!ćĈ!ćĈ!Ĉ!ććććĈ!ććĈ!ć": 1057,
      "ďĉ!!!ćććĈćĈ!ćĈ!ĈĈ!Ĉ!": 1058,
      "&'(!!!!!!!!!!!!!!!!!!!!!!!!!!!!!!!!!!!!!!!!!!!!!!!!!!!!!!!!!!!!!!!!!!!!!!!!!!!!!!!!!!!!!!!!!!!!!!!!!!!!!!!!!!!!!!!!!!!!!!!!!!!!!!!!!!": 1059,
      "ćĈĈĈĈĈĈćĈĈĈĈ": 1060,
      "ććĈ!Ĉ!ĈćĈĈĈććĈĈĈććĈ!Ĉ!Ĉ!Ĉ!Ĉ!Ĉ!ćĈ": 1061,
      "ćĈ!ććććććĈ!ćĈ!ććĈćććĈćććĈĈćĈćĈ!Ĉ!": 1062,
      "ďĉ!!!!!!!!ďĉ!!!!!ćĈ!ĈćĈ!ćĈ!ĈĈ!ćĈ!Ĉ!ĈĈĈ!ĈĈĈććĈ!": 1063,
      "Ĉ!Ĉ!Ĉ!ĈĈĈĈĈĈĈĈ!ĈĈĈĈĈ": 1064,
      "ćććććććĈ!Ĉ!Ĉ!ććĈĈććĈ!ćĈĈ": 1065,
      "ććĈ!ĈĈ!ĈĈĈĈ!ĈĈ!ĈĈĈĈ": 1066,
      "Ĉ!Ĉ!Ĉ!ćĈ!Ĉ!ćĈ!ćĈ!ćĈ!ćĈ!": 1067,
      "ćććĈ!Ĉ!Ĉ!Ĉ!Ĉ!Ĉ!ĈĈĈĈĈĈĈĈĈĈĈĈ": 1068,
      "ćĈ!ćĈ!ćĈćĈ!ćĈ": 1069,
      "ďĉćĈ!Ĉ!ććĈ!ććĈ!ĈĈ!ććĈ!Ĉ!Ĉ": 1070,
      "Ĉ!Ĉ!ĈĈ!Ĉ!ĈĈĈĈ!Ĉ!ĈĈ!Ĉ!Ĉ!!": 1071,
      "ćĈ!ćććĈ!ććĈćĈ!ććĈ": 1072,
      "Ĉ!Ĉ!ĈĈĈĈĈĈĈĈĈĈĈĈĈĈĈĈĈĈĈĈĈĈĈĈ": 1073,
      "ćĈĈ!Ĉ!ĈĈĈ": 1074,
      "ććĈ!Ĉ!Ĉ!Ĉ!ćĈ!Ĉ!!Ĉ!ćĈ!ćĈ!ććĈ!Ĉ!": 1075,
      "Ĉ!ĈĈ!Ĉ!Ĉ!Ĉ!ĈĈ": 1076,
      "ććĈĈćĈĈĈććĈĈććĈćć": 1077,
      "ćĈ!Ĉ!ććĈćĈ!": 1078,
      "ććĈĈĈĈćĈĈĈĈćĈĈĈĈĈĈĈĈććĈ": 1079,
      "Ĉ!Ĉ!ĈĈ!ĈĈ!Ĉ!ĈĈĈ!ĈĈĈĈ!ĈĈĈĈ": 1080,
      "ďĉďĉ!!ćććĈ!Ĉ!ćĈ!Ĉ!ĈĈĈĈ!ććĈ": 1081,
      "&'(!!!!!!!!!!!!!!!!!!!!!!!!!!!!!!!!!!!!!!!!!!!!!!!!!!!!!!!!!!!!!!!!!!!!!!!!!!!!!!!!!!!!!!!!!!!!!!!!!!!!!!!!!!!!!!!!!!!!!!!!!!!!!!!!!!!!!!!!": 1082,
      "ćĈ!Ĉ!ćĈ!Ĉ!ćĈ!Ĉ!Ĉ!Ĉ!Ĉ!": 1083,
      "Ĉ!ĈĈĈĈ!ĈĈĈĈĈĈĈĈĈĈĈĈ!Ĉ!": 1084,
      "!!!!!!!!!!!!!!!!!!!!!!!!!!!!!!!!!!!!!!!!!!!!!!!!!!!!!!!": 1085,
      "ćĈĈĈĈĈĈĈĈĈĈĈĈĈ!ćĈ!ćĈĈĈĈ!Ĉ": 1086,
      "ććĈ!ććććĈć!!": 1087,
      "ćĈ!Ĉ!ĈĈćĈ": 1088,
      "Ĉ!Ĉ!Ĉ!Ĉ!Ĉ!Ĉ!ĈĈ!ĈĈ!ĈĈ!ĈĈĈ!ĈĈĈĈ": 1089,
      "ćĈĈććĈĈĈćĈ!ĈćĈ!ććĈ": 1090,
      "ćĈĈĈĈ!Ĉ!ćĈ!Ĉ!ćĈĈĈćĈ!ĈĈĈĈ": 1091,
      "ćĈ!ćĈ!Ĉ!ććĈ!ĈććĈ!Ĉ!": 1092,
      "ćĈĈĈĈĈćĈĈĈĈĈćĈ!ĈĈĈćĈ": 1093,
      "ćĈĈĈććĈ!Ĉ!ććĈ!ćććĈćĈćĈćĈćĈĈćĈĈćĈćĈćĈ": 1094,
      "ćĈĈćĈĈćĈĈĈĈĈćĈćĈĈćĈĈćĈćĈćĈććĈćĈćĈćĈćĈ!": 1095,
      "ĈĈ!ĈććĈ!Ĉ!ĈĈ!ĈĈ!Ĉ!ćĈ!": 1096,
      "ćććĈ!Ĉ!ćććĈĈćĈ!ĈĈĈ!!ćććć": 1097,
      "ćďĉďĉďĉďĉďĉďĉďĉ!": 1098,
      "ćĈ!ĈĈ!ĈĈĈ!Ĉ!Ĉ!Ĉ!Ĉ!Ĉ!Ĉ!Ĉ!": 1099,
      "%!!!!!!!!!!!!!!!!!!!!!": 1100,
      "ćĈ!Čďĉďĉďĉ!ďĉďĉ!": 1101,
      "ććĈ!ćĈ!ććĈćĈććć!!": 1102,
      "ćĈćĈćĈćĈĈĈćĈĈĈĈĈĈ": 1103,
      "ććĈ!ĈćĈćĈćĈ!ĈćĈĈ": 1104,
      "ćĈ!ćĈ!ćĈ!ĈĈ!Ĉ!": 1105,
      "ćććĈ!Ĉ!Ĉ!ćĈ!Ĉ!Ĉ": 1106,
      "!!!!!!)!!!!!!!!)": 1107,
      "Ĉ!Ĉ!Ĉ!Ĉ!Ĉ!Ĉ!ĈĈĈ": 1108,
      "Ĉ!Ĉ!ĈĈĈ!Ĉ!Ĉ!Ĉ!ĈĈĈĈ": 1109,
      "ććĈ!Ĉ!ĈĈ!ĈĈĈ": 1110,
      "ćĈ!ĈĈ!ććĈ!ćĈ!ĈĈ!ćĈ!Ĉ!": 1111,
      "ćĈĈ!ćĈ!Ĉ!ĈĈĈĈćĈĈĈĈ": 1112,
      "ććććććĈ!ćććĈ!ćć": 1113,
      "ćĈ!ćĈ!ććĈćĈ!Ĉ!Ĉ!Ĉ!ćĈ!ćć": 1114,
      "ćĈ!ćĈ!Ĉ!ćĈ!ĈćĈ!ĈĈ!Ĉ": 1115,
      "Ĉ!Ĉ!Ĉ!Ĉ!Ĉ!ćĈ!ĈĈĈĈ": 1116,
      "ćĈ!ććĈĈĈĈĈćĈćĈ": 1117,
      "Ĉ!Ĉ!Ĉ!ćĈ!ćĈ": 1118,
      "ććĈ!Ĉ!Ĉ!Ĉ!ćććĈ!Ĉ!Ĉ!ććĈ": 1119,
      "%!!!!!!!&'(": 1120,
      "ĈĈĈ!ĈĈĈććĈ!ćĈćĈĈĈ!Ĉ": 1121,
      "ćĈćĈĈĈĈĈćĈĈ": 1122,
      "Ĉ!Ĉ!Ĉ!Ĉ!Ĉ!Ĉ!ĈĈĈ!Ĉ!ĈĈĈĈ": 1123,
      "ććććĈ!ćććĈććĈćććĈććććĈććĈććććĈććĈ": 1124,
      "ćĈĈ!Ĉ!Ĉ!Ĉ!ćĈćĈĈ": 1125,
      "Ĉ!ĈĈĈĈĈĈ!Ĉ!ĈĈ!ĈĈĈĈ!ĈĈĈĈĈĈĈĈ": 1126,
      "ćććććďĉ!": 1127,
      "ďĉďĉ!ďĉ!)": 1128,
      "ćĈćĈĈĈĈĈĈĈćĈĈĈĈĈĈ": 1129,
      "Ĉ!ĈĈ!ĈĈĈĈĈĈĈĈĈĈĈĈĈĈĈĈĈĈĈĈĈĈĈĈĈĈĈĈ!Ĉ!Ĉ!Ĉ!ĈĈĈĈĈĈĈĈĈ!Čďĉ!ćććććććĈ!Ĉ!ććććććĈ!ćĈĈ": 1130,
      "ććĈ!Ĉ!ĈćĈĈĈććĈĈĈććĈ!Ĉ!Ĉ!Ĉ!Ĉ!Ĉ!ćĈĈ!Ĉ!Ĉ!ćĈĈĈććĈĈ!ćććĈ!ććĈ!ćĈ!ĈĈĈćć": 1131,
      "ććććććććĈ!Ĉ!Ĉ!Ĉ!": 1132,
      "Ĉ!Ĉ!ĈćĈĈĈĈ": 1133,
      "ćĈĈĈćĈ!ĈĈĈĈ!ĈĈ!Ĉ": 1134,
      "ďĉ%&'(ďĉďĉ": 1135,
      "ĈĈĈĈĈĈĈĈĈĈĈĈĈĈĈĈĈĈĈĈĈĈĈĈ!": 1136,
      "ćĈ!ćĈ!ćĈ!ćĈ!Ĉ!Ĉ!Ĉ": 1137,
      "ćĈ!ĈćĈćĈćĈćĈ!Ĉ!ĈćĈ!Ĉ!": 1138,
      "ććĈ!ććććĈćĈćĈćĈććććĈ!Ĉ!ććĈ!ĈććććĈ": 1139,
      "&'(ćďĉ!ďĉćććĈ!ćĈ!ćĈ!ćĈ!ćĈ!ćĈćĈćĈďĉďĉ!ćććććććĈ!Ĉ!Ĉ!Ĉ!Ĉ!ćĈ!Ĉ!ćĈ!ćĈ!ćĈ!ćĈ!ćĈ!Ĉ!Ĉ!Ĉ!ĈĈ!": 1140,
      "ćĈ!ććĈććĈ!!!!!!": 1141,
      "Ĉ!ĈĈďĉ!!": 1142,
      "!!!!!!!!!!!!!!ďĉďĉďĉďĉ": 1143,
      "ďĉ!!!!!!!!ďĉďĉďĉďĉďĉććććĈ!ćĈ!ĈćĈĈ!Ĉ!Ĉ!Ĉ!ĈćĈĈćĈĈĈĈĈĈ!%&'(ďĉďĉďĉ!))": 1144,
      "ćĈ!ććĈ!ćĈ!ććĈ!ćĈććĈ!ćĈ!ćĈ!ĈćĈĈ": 1145,
      "ććĈ!Ĉ!ĈĈĈ!!ćĈ!Ĉ!Ĉ!Ĉ!": 1146,
      "ćććĈćććĈĈ!Ĉ!ćĈ!ććĈćĈ!ćĈ": 1147,
      "ćĈ!Ĉ!ĈćĈććĈĈ!ĈĈĈ": 1148,
      "ĈĈĈ!ĈĈĈććĈ!ĈĈ!ĈĈĈĈ!ĈĈ!ĈĈĈĈ": 1149,
      "Ĉ!ĈĈćĈĈ!Ĉ": 1150,
      "Ĉ!ĈććĈĈ!Ĉ!": 1151,
      "Ĉ!Ĉ!ĈĈ!Ĉ!ĈĈ!ĈĈ!Ĉ!ĈĈ!ĈĈ!Ĉ!ĈĈĈ!ĈĈĈĈ!ĈĈĈĈ": 1152,
      "ćĈ!ĈĈćĈ!ćĈĈćĈ!Ĉ!": 1153,
      "ćĈ!Ĉ!ćĈ!ćĈ!ćĈ!Ĉ!ććććĈ!ććĈ!ć": 1154,
      "ććććććććććććććććććććććĈ!": 1155,
      "!!!SĂĄĆ!!ďĉ!!!!!!": 1156,
      "ćĈĈ!ćĈ!Ĉ!Ĉ!Ĉ!Ĉ!ĈĈĈ": 1157,
      "!!ćĈ!Ĉ!Ĉ!Ĉ!ćĈ!ććĈ!": 1158,
      "ćĈ!ĈĈĈ!ĈĈćĈ!Ĉ!Ĉ!": 1159,
      "ćĈćĈćĈćććĈćĈ": 1160,
      "ćććĈćĈ!ćĈ": 1161,
      "ćĈ!ćĈ!ćĈ!ćĈ!ćĈ!Ĉ!ćĈ!ćĈ!Ĉ!Ĉ!ćĈ!Ĉ!": 1162,
      "ćĈ!ĈććĈĈĈćĈĈĈćĈ!ĈććĈĈĈ": 1163,
      "Ĉ!ćĈ!Ĉ!Ĉ!ćĈ!Ĉ!Ĉ!ĈĈ!": 1164,
      "ććĈ!ĈĈĈĈĈ!ćďĉďĉ": 1165,
      "ććĈĈćĈĈĈććĈĈććĈćććĈĈĈĈĈćĈĈćĈ": 1166,
      "ćĈ!Ĉ!ćĈ!Ĉ!ćĈ!Ĉ!Ĉ!Ĉ!Ĉ!ćĈ!ćĈ!ćĈ!ćĈ!ćĈ!Ĉ!ćĈ!ćĈ!Ĉ!ćĈĈćĈ!Ĉ": 1167,
      "ďĉ!ďĉ!!!!!!!!!!!!!!!!": 1168,
      "ĈĈĈĈĈĈĈĈĈĈĈĈĈĈĈĈĈĈĈĈ!": 1169,
      "ďĉďĉďĉ!!)!)!!!!!!!!!!!!!!!!!!!!": 1170,
      "ćĈ!Ĉ!Ĉ!ććĈ!ćĈ!Ĉ!Ĉ!ćĈ!Ĉ!": 1171,
      "ćĈ!Ĉ!ćĈććĈ!Ĉ!": 1172,
      "!!!!!!!!!!!!!!!ďĉ!!!!!!!!!!!!!!!!!!!!!!!!!!!!!!!!!!!!!!!!!!!!!!!!!!!!!!!!!!!!!!!!": 1173,
      "Ĉ!Ĉ!ćĈ!Ĉ!ĈĈ!": 1174,
      "Ĉ!Ĉ!Ĉ!!ćĈĈĈĈ!Ĉ!ćĈ!Ĉ!ćĈĈĈćĈ!ĈĈĈĈ": 1175,
      ")!)!!!!!!!!ďĉ!ďĉďĉ": 1176,
      "ćĈ!Ĉ!ććĈćĈ!ĈĈĈĈĈĈćĈ!ććĈ": 1177,
      "LL!LK": 1178,
      "!!!!!!!!!ćććĈ!Ĉ!Ĉ!Ĉ!Ĉ!Ĉ!ĈĈĈĈĈĈĈĈĈĈĈĈ": 1179,
      "ďĉ!ďĉ!ďĉ!ďĉ!": 1180,
      "ĈĈĈ!ĈĈĈĈ!ĈĈ!Ĉ!Ĉ!Ĉ!ĈĈ": 1181,
      "ďĉďĉďĉďĉďĉ!!ďĉ!ďĉ!": 1182,
      "ćććĈ!Ĉ!Ĉ!Ĉ!ĈĈĈĈĈĈĈĈĈĈ!ćĈ!Ĉ!ĈćĈĈćĈćĈĈĈćĈĈďĉ": 1183,
      "ćĈćĈ!ććĈ!!": 1184,
      "ććĈ!Ĉ!Ĉ!Ĉ!Ĉ!ĈĈ!ćĈ!ćĈ!ćĈćĈ!ćĈ!ćĈćĈ!ćĈ": 1185,
      "ćĈĈćĈĈćĈĈĈĈĈćĈćĈĈćĈĈćĈćĈćĈććĈćĈćĈćĈćĈ!ćĈćĈćĈćĈćĈćĈćĈćĈćĈćĈćĈćĈ": 1186,
      "%!&'(!!!!!!!!!!!!!!!!!!!!!!!!!!!!!!!!": 1187,
      "ć%&'(ďĉ!": 1188,
      "ćĈ!ććĈ!ćĈ!Ĉ": 1189,
      "ććĈĈććĈćććĈćĈćĈćĈćĈĈćĈĈćĈćĈćĈ": 1190,
      "ććććććććććććČďĉďĉććĈ!ćĈ!ćĈ!ćĈ!ćĈćĈćĈ": 1191,
      "ććĈĈ!Ĉ!ĈĈĈ!ććĈ!Ĉ!Ĉ": 1192,
      "ćĈ!Ĉ!ĈĈćĈćĈĈĈĈĈĈĈĈĈĈĈĈ": 1193,
      "ććĈ!ćĈ!ćĈ!ćďĉ": 1194,
      ")!)!ďĉďĉ!!!": 1195,
      "Ĉ!Ĉ!ĈĈĈĈĈ!Ĉ!Ĉ!": 1196,
      "ćĈĈććĈĈĈćĈ!ĈćĈ!ććĈĈ!Ĉ!ĈĈćĈ!Ĉ!": 1197,
      "ćĈ!ĈĈ!ĈĈĈ!Ĉ!Ĉ!Ĉ!Ĉ!Ĉ!Ĉ!Ĉ!Ĉ!Ĉ!Ĉ!Ĉ!ćĈ!": 1198,
      "Ĉ!Ĉ!ćĈ!ĈĈćĈ!ćĈ!Ĉ!Ĉ!ćĈ!ćĈ!Ĉ!ćĈĈćĈ!Ĉ!ććĈ!ĈĈćĈćĈćĈ!Ĉ!ĈćĈĈ": 1199,
      "ćĈĈćĈĈĈĈĈĈćĈĈĈĈ": 1200,
      "ćććĈ!Ĉ!Ĉ!Ĉ!Ĉ!Ĉ": 1201,
      "ćĈ!Ĉ!Ĉ!Ĉ!Ĉ!Ĉ!Ĉ": 1202,
      "!!!!RTVa!!!SĂĄĆ": 1203,
      "ĈĈĈĈĈĈĈĈĈĈĈĈĈĈ!Ĉ!Ĉ!Ĉ!ĈĈĈĈ": 1204,
      "Ĉ!ĈćĈ!ćĈĈĈĈĈćĈĈĈĈĈćĈ!ĈĈĈćĈ": 1205,
      "ćĈ!ĈĈ!ĈĈĈĈ!Ĉ!Ĉ!ĈĈĈĈĈĈĈĈ!ĈĈĈĈĈ": 1206,
      "Ĉ!Ĉ!ĈĈĈĈĈĈćĈ!ĈĈĈ%&'(ďĉ": 1207,
      "ćĈ!ĈĈ!Ĉ!ďĉ!ďĉ!ďĉďĉďĉ!!": 1208,
      "ćĈ!Ĉ!Ĉ!Ĉ!Ĉ!Ĉ!Ĉ!ćĈ!ďĉ!!!!!!!!ďĉ!!!!!ćĈ!ĈćĈ!ćĈ!ĈĈ!ćĈ!Ĉ!ĈĈĈ!ĈĈĈććĈ!": 1209,
      "ćĈĈĈĈĈĈĈĈĈĈĈĈĈ!ćĈ!ćĈĈĈĈ!Ĉ%&'(ďĉćć": 1210,
      "ĈĈĈĈĈĈĈĈĈĈĈĈĈĈĈĈĈĈĈĈĈĈĈĈ!ĈĈĈĈĈĈĈĈĈĈĈĈĈĈĈĈĈĈĈĈĈĈĈ": 1211,
      "ď!!": 1212,
      "ććĈ!ćĈ!Ĉ!": 1213,
      "ćĈ!ćĈ!Ĉ!ććĈ!Ĉ!Ĉ!Ĉ!ćĈĈĈ!Ĉ!ćĈ!Ĉ!": 1214,
      "ćĈ!ćĈ!ćĈ!ćĈ!Ĉ!Ĉ!Ĉ!Ĉ!Ĉ!Ĉ!Ĉ!Ĉ!ĈĈ!": 1215,
      "ďĉ!!!!!!!!!!!!!!!!!!ďĉ!!!!!!!!!!!!!!!!!!!": 1216,
      "ćĈćĈ!ćĈĈ!": 1217,
      "Ĉ!ćĈ!Ĉ!Ĉ!Ĉ!Ĉ!Ĉ!ćĈ!ćĈ!ćĈ!Ĉ!Ĉ!": 1218,
      "ććććććććĈ!Ĉ!Ĉ!Ĉ!ćĈĈĈĈ!Ĉ!ćĈ!": 1219,
      "Ĉ!Ĉ!ĈĈĈĈĈĈćĈ!ĈĈĈ%&'(ďĉ%&'(%&'(%&'(": 1220,
      "ćĈĈĈĈĈĈĈĈĈĈĈĈĈ!ćĈ!ćĈĈĈĈ!Ĉ%&'(ďĉććďĉďĉ!!ďĉ": 1221,
      "ćĈ!ćĈ!Ĉ!ćĈĈ!Ĉ!Ĉ!Ĉ!ćĈćĈĈ": 1222,
      "ďĉććććććĈ!ććĈ!": 1223,
      "Ĉ!ĈĈĈĈĈĈ!Ĉ!ĈĈ!ĈĈĈĈ!ĈĈĈĈĈĈĈĈ%&'(ďĉ": 1224,
      "ďĉďĉ!!!ďĉćĈ!Ĉ!ććĈ!ććĈ!ĈĈ!ććĈ!Ĉ!Ĉ": 1225,
      "ćĈ!Ĉ!Ĉ!ćĈ!Ĉ!ćĈ!ćĈ!ćĈ!ćĈ!Ĉ!Ĉ!Ĉ": 1226,
      "ćĈ!ćĈ!Ĉ!Ĉ!ćĈĈ!": 1227,
      ")!)!!!!!!!!!!!!!!!!!!!!!!!!!!!!!!!!!!!!!!": 1228,
      "ĈĈĈĈĈĈćĈ!ććĈćĈ!ćĈ!Ĉ!": 1229,
      "ćĈ!Čďĉďĉďĉ!ďĉďĉ!ďĉďĉďĉ!ďĉďĉ!": 1230,
      "Ĉ!Ĉ!Ĉ!Ĉ!Ĉ!Ĉ!ĈĈĈĈ!ĈĈĈĈĈĈĈ!Ĉ!Ĉ!ĈĈ!Ĉ": 1231,
      "%&'(ďĉ!!!!!!!!!!!!!!!!!!!!!": 1232,
      "ćĈ!ćĈ!Ĉ!ćĈ!Ĉ!Ĉ!ćĈ!Ĉ!": 1233,
      "ćĈĈ!Ĉ!ĈćĈĈ!ćĈ!Ĉ!ĈĈĈĈćĈĈĈĈ": 1234,
      "ćććĈ!Ĉ!Ĉ!Ĉ!Ĉ!ćĈ!Ĉ!": 1235,
      "!!!!RTVa!!!SĂĄĆ!!!!R!!!S": 1236,
      "ćĈ!Ĉ!ĈćĈ!Ĉ!ćĈ!ććĈĈĈĈĈćĈćĈ": 1237,
      "%&'(%&'(ďĉ!!": 1238,
      "%!!!!!!!!!!!!!!!!!!!!!!!": 1239,
      "ćĈĈĈĈ!ĈććĈ!ććććĈć!!": 1240,
      "ďĉďĉďĉ!!ďĉ!ććĈ!Ĉ!Ĉ!Ĉ!Ĉ!ďĉďĉ!ďĉćććććĈ!Ĉ!Ĉ!Ĉ!Ĉ!Ĉ!ďĉ!%&'(": 1241,
      "%ćć": 1242,
      "ćĈ!Ĉ!ĈćĈ!Ĉ!Ĉ!": 1243,
      "ćĈĈ!ćĈ!ćĈ!Ĉ": 1244,
      "Ĉ!ććĈ!Ĉ!Ĉ!ĈćĈ!Ĉ!": 1245,
      "Ĉ!Ĉ!Ĉ!Ĉ!Ĉ!ĈĈ!Ĉ!": 1246,
      "Ĉ!Ĉ!ćĈ!Ĉ!Ĉ!Ĉ!ćĈ!Ĉ!ćĈ!ĈćĈ!Ĉ!": 1247,
      "ćĈĈĈĈĈĈĈĈććĈćĈĈ!ććĈĈĈĈćĈĈĈĈćĈĈĈĈĈĈĈĈććĈ": 1248,
      "ďĉ!!!ćććĈćĈ!ćĈ!ĈĈ!Ĉ!ćĈĈĈĈĈĈĈĈĈĈĈĈĈ!ćĈ!ćĈĈĈĈ!Ĉ%&'(ďĉććďĉďĉ!!ďĉ": 1249,
      "ćĈ!ćććĈ!ććĈćĈ!ććĈćććĈ!Ĉ!Ĉ!Ĉ!": 1250,
      "Ĉ!Ĉ!Ĉ!Ĉ!ćććĈ!": 1251,
      "ćďĉ#$": 1252,
      ")!)!!!!!!!!!!!!!!!!!!!!!!!!!!!!!!!!)!)!!": 1253,
      "ćĈ!ćĈ!!ććĈ!ććĈ!": 1254,
      "ććććĈćĈććĈ!ćĈ!Ĉ!Ĉ!Ĉ!ćĈ!Ĉ!ćĈ!ćĈ!Ĉ!ćĈ!ĈćĈ!ĈĈ!Ĉ": 1255,
      "ććććććććććććććććććććććĈ!ććĈ!ćĈ!ććĈ!": 1256,
      "ďĉďĉď%&'(ĉ": 1257,
      "ććććććććććććććććĈ!Ĉ!ćĈ!Ĉ!ĈĈ!": 1258,
      "ďĉ!!ďĉďĉďĉ)!)": 1259,
      ")ććććććććććććĈ!": 1260,
      "Ĉ!Ĉ!ćĈ!ććĈ!ćĈ!ććĈ!ćĈććĈ!ćĈ!ćĈ!ĈćĈĈ": 1261,
      "ćććććĈ!Ĉ!Ĉ!Ĉ!Ĉ!Ĉ!": 1262,
      "ććĈ!ćĈ!ćĈ!Ĉ!Ĉ!ćĈ!Ĉ!": 1263,
      "ďĉćććććććĈ!ćĈ!": 1264,
      "Ĉ!ĈĈ!Ĉ!!ćĈ!Ĉ!Ĉ!Ĉ!ćĈ!ććĈ!": 1265,
      "ćĈ!Ĉ!Ĉ!Ĉ!Ĉ!ĈĈĈ!Ĉ!Ĉ": 1266,
      "Ĉ!ĈĈĈĈĈĈĈĈĈĈĈĈĈĈĈĈĈĈĈĈ!": 1267,
      "ďĉ!!!!!!!!!!!!!!!!!!!!!!!!!!!!!!!!!!!!!!!!!!!!!!!!!!!!!!!!!!!!!!": 1268,
      "ćĈ!ĈćĈĈ!Ĉ!ćĈ!ĈĈ!ććĈ!ćĈ!ććĈćĈććć!!": 1269,
      "!!!!!!!!!!!!!!!!!!": 1270,
      "ďĉďĉďĉďĉ!ďĉďĉ!!": 1271,
      "%ć&'": 1272,
      "ćĈ!ććććććĈ!ćĈ!ććĈćććĈćććĈĈćĈćĈ!Ĉ!ćĈ!ĈćĈćĈćĈćĈ!Ĉ!ĈćĈ!Ĉ!": 1273,
      "Ĉ!Ĉ!ĈĈĈ!Ĉ!Ĉ!Ĉ!ĈĈĈĈĈ!ĈĈĈĈ!ĈĈĈĈĈĈĈĈĈĈĈĈ!Ĉ!": 1274,
      "ćĈ!ććĈććĈ!!!!!!ďĉćć": 1275,
      "%&'(ďĉďĉ!!ďĉ": 1276,
      "ĈĈĈĈĈĈĈĈĈĈĈĈĈĈĈĈĈĈĈĈĈĈĈĈĈĈĈĈĈĈĈĈĈĈĈĈĈĈĈĈĈĈĈĈĈĈĈĈ": 1277,
      "Ĉ!ĈĈĈ!ĈĈĈĈĈĈĈĈĈĈĈĈĈĈĈĈĈĈ!ďĉ!!": 1278,
      "ćććĈćććĈĈ!Ĉ!ćĈ!ććĈćĈ!ćĈ!!Č!!Č!": 1279,
      "ćĈ!ćĈ!ććććĈ!ććĈ!ćććĈ!ćććĈ": 1280,
      "ćććĈĈ!ćĈ!Ĉ!ĈćĈĈĈćĈĈĈćĈĈćććć": 1281,
      "ććććććĈ!ććČ": 1282,
      "%&'(!!!!!!!!!!!!!!!!!!!!!!!!!!!!!!!!!!!!!!!!!!!!!!!!!!!!!!!!!!!!!!!!!!!!!!!!!!!!!!!!!!!!!!!!!!!!!!!!!!!!!!!!!!!!!!!!": 1283,
      "ďĉ!!ďĉ!!!!!!!!)!!!!!!!!)!)!)!!!!!!!!!!!!!!!!!!!!!!!!!!!!!!!!!!!!!!!!!!!!!!!!!!!!!!!!!!!!!!!!!!!!!!!!!!!!!!!!!!!!!!!!!!!!!!!!": 1284,
      "ćććĈ!Ĉ!Ĉ!ĈĈ!Ĉ!ćĈ!Ĉ!Ĉ!ĈćĈ!Ĉ!Ĉ!Ĉ": 1285,
      "ććĈ!ććććĈćĈćĈćĈććććĈ!Ĉ!ććĈ!ĈććććĈćĈćĈćĈćĈćĈćĈćĈćĈćĈ": 1286,
      "ććććććććĈ!Ĉ!ćĈĈ": 1287,
      "ďĉ%&'(!": 1288,
      "ćĈ!ćĈ!Ĉ!Ĉ!ćĈ!Ĉ!ćĈ!Ĉ!Ĉ!Ĉ!ćĈ!Ĉ!": 1289,
      "ććĈ!ćĈ!ććĈ!ćĈ!ćĈ!ććĈćĈ!Ĉ!Ĉ!Ĉ!ćĈ!ćć": 1290,
      "ďĉďĉďĉ!ďĉďĉćććć": 1291,
      "ďĉ!ďĉĈ!Ĉ!ćĈ!Ĉ!ĈĈĈ": 1292,
      "ććććĈ!ćĈ!Ĉ!Ĉ!ćĈ!Ĉ!": 1293,
      "Ĉ!Ĉ!ĈćĈĈĈĈĈ!Ĉ!Ĉ!Ĉ!Ĉ!Ĉ!ĈĈĈ!Ĉ!ĈĈĈĈ": 1294,
      "ććććĈ!ćĈ!ĈĈ!ććĈ!ćĈ!ĈĈ!ćĈ!Ĉ!": 1295,
      "ćĈ!Ĉ!Ĉ!Ĉ!Ĉ!Ĉ!Ĉ!Ĉ!ćĈ!ćĈ!Ĉ!ĈćĈ!Ĉ!": 1296,
      "ćĈćĈĈĈĈĈćĈĈćĈćĈćĈćĈĈĈćĈĈĈĈĈĈ": 1297,
      "ćĈ!Ĉ!ććĈćĈ!ĈĈĈĈĈĈćĈ!ććĈććĈ!ćĈ!Ĉ": 1298,
      "ćĈ!ććĈ!Ĉ!Ĉ": 1299,
      "ćďĉďĉďĉĈ!ĈĈĈĈ": 1300,
      "ĈĈĈĈĈĈĈĈĈĈĈĈĈĈ!Ĉ!Ĉ!Ĉ!Ĉ!ĈĈĈ!ĈĈ": 1301,
      "ďĉ!ďĉďĉ!!!!!!!!!!!!!!!!!!!!!!!!!!!!ďĉ!!!!!!!!!!!!!!!!!!!!!!!!!!!!!!!!!!!!!!!!!!!!!!!!!!!!!!!!!": 1302,
      "Ĉ!ĈĈ!ĈĈĈĈĈĈĈĈĈĈĈĈĈĈĈĈĈĈĈĈĈĈĈĈĈĈĈĈ!Ĉ!Ĉ!Ĉ!ĈĈĈĈĈĈĈĈĈ!Čďĉ!ćććććććĈ!Ĉ!ććććććĈ!ćĈĈ%&'(ďĉďĉ": 1303,
      "ćĈĈćĈĈĈĈĈĈćĈĈĈĈćĈĈćĈĈćĈ!ćććĈ!ćć": 1304,
      "ćććĈ!Ĉ!ćĈ!Ĉ!Ĉ": 1305,
      "Ĉ!ĈĈ!ćĈ!Ĉ": 1306,
      "%&'(ďĉ!!ďĉ!!": 1307,
      "ććććććććĈ!ćććĈ!Ĉ!": 1308,
      "Ĉ!Ĉ!Ĉ!Ĉ!Ĉ!Ĉ!ĈĈ!ĈĈ!ĈĈ!ĈĈĈ!ĈĈĈĈĈ!ĈĈĈĈĈĈ!Ĉ!ĈĈ!ĈĈĈĈ!ĈĈĈĈĈĈĈĈ%&'(ďĉ": 1309,
      "ďĉ!!!!!!!!ďĉďĉďĉďĉďĉććććĈ!ćĈ!ĈćĈĈ!Ĉ!Ĉ!Ĉ!ĈćĈĈćĈĈĈĈĈĈ!%&'(ďĉďĉďĉ!))ďĉ!ďĉďĉďĉďĉ": 1310,
      "%&'(ďĉ!!!!!!!!!!!!!!!!!!!!!ďĉďĉďĉďĉĈ!ĈĈĈćĈ!ćĈĈĈ": 1311,
      "Ĉ!ćĈ!Ĉ!Ĉ!Ĉ!Ĉ!Ĉ!ćĈ!ćĈ!ćĈ!Ĉ!Ĉ!ćĈ!ĈĈĈćĈćĈćĈĈĈćĈ": 1312,
      "Ĉ!ď": 1313,
      "ďĉďĉ!!ďĉ!!ďĉďĉ": 1314,
      "!!!!!!!ďĉ!!ďĉďĉ!!!": 1315,
      "&'(!!!!!!!!!!!!!!!!!!!!!!!!!!!!!!!!!!!!!!!!!!!!!!!!!!!!!!!!!!!!!!!!!!!!!!!!!!!!!!!!!!!!!!!!!!!!!!!!!!!!!!!!!!!!!!!!!!!!!!!!!!!!!!": 1316,
      "ćĈ!Ĉ!Ĉ!Ĉ!Ĉ!Ĉ!Ĉ!Ĉ!Ĉ!Ĉ!": 1317,
      "ďĉ!!!ćććććĈ!ĈĈ!ĈĈĈ!Ĉ!Ĉ!Ĉ!Ĉ!Ĉ!Ĉ!Ĉ!Ĉ!Ĉ!Ĉ!Ĉ!ćĈ!": 1318,
      "ćććĈ!Ĉ!ćććĈĈćĈ!ĈĈĈ!!ćććć!!!!!!!!!!!!!!!!!!!!": 1319,
      "Ĉ!ĈććĈĈ!Ĉ!ććĈ!Ĉ!ĈĈ!ĈĈĈ": 1320,
      "ćĈ!Ĉ!ćĈ!Ĉ!ćĈ!Ĉ!Ĉ!Ĉ!Ĉ!ćĈ!ćĈ!ćĈ!ćĈ!ćĈ!Ĉ!ćĈ!ćĈ!Ĉ!ćĈĈćĈ!ĈććĈ!ĈćĈćĈćĈ!ĈćĈĈ": 1321,
      "ćĈ!Ĉ!Ĉ!ććĈ!ćĈ!Ĉ!Ĉ!ćĈ!Ĉ!ćĈ!ćĈ!ćĈ!ćĈ": 1322,
      "Ĉ!Ĉ!Ĉ!Ĉ!!Ĉ!Ĉ!Ĉ": 1323,
      "ćĈĈ!ćĈ!Ĉ!Ĉ!Ĉ!Ĉ!ĈĈĈćĈ!Ĉ!Ĉ!": 1324,
      "ďĉďĉďĉ!ďĉďĉďĉ!!": 1325,
      "ďĉ!ďĉ!!!SĂĄĆ!!ďĉ!!!!!!": 1326,
      "ćďĉ!!!!!!!!!": 1327,
      "ććĈ!Ĉ!ĈĈĈ!Ĉ!Ĉ!ĈĈćĈďĉ!!ďĉďĉ!!!": 1328,
      "ććĈ!Ĉ!Ĉ!Ĉ!Ĉ!ĈĈ!ćĈ!ćĈ!ćĈćĈ!ćĈ!ćĈćĈ!ćĈćĈ!ććĈćĈ!ćĈ": 1329,
      ")!)!ďĉďĉ!!!)!)!!": 1330,
      "ďĉ!Ĉ!ĈćĈ!Ĉ!Ĉ!ĈćĈ!ćć": 1331,
      "ćďĉććć": 1332,
      "ćĈĈ!Ĉ!ĈĈĈćĈćĈ!ććĈ!!": 1333,
      "ćĈ!ćĈ!Ĉ!ćĈĈ!Ĉ!Ĉ!Ĉ!ćĈćĈĈćĈ!Ĉ!Ĉ!ćĈ!Ĉ!": 1334,
      "Ĉ!ĈĈćďĉďĉďĉďĉďĉďĉďĉ!": 1335,
      "Ĉ!Ĉ!Ĉ!Ĉ!Ĉ!Ĉ!Ĉ!ĈĈĈĈĈĈ": 1336,
      "))))": 1337,
      "ćććććĈ!Ĉ!Ĉ!Ĉ!Ĉ!Ĉ!ćĈ!Ĉ!Ĉ!ćĈ!Ĉ!": 1338,
      "ďĉ!!!!!!!!!!!!!": 1339,
      "ďĉďĉććććććĈ!ćććĈ!ćć": 1340,
      "Ĉ!Ĉďĉ!ďĉ!ďĉ": 1341,
      "ďĉďĉ!!ďĉ!!!!!!)!!!!!!!!)": 1342,
      "ććććĈ!ćĈ!Ĉ!Ĉ!Ĉ!Ĉ!Ĉ!": 1343,
      "ććĈ!ććĈ!ćĈ!Ĉ!ćĈććĈ!Ĉ!": 1344,
      "&'(ćďĉ!ďĉćććĈ!ćĈ!ćĈ!ćĈ!ćĈ!ćĈćĈćĈďĉďĉ!ćććććććĈ!Ĉ!Ĉ!Ĉ!Ĉ!ćĈ!Ĉ!ćĈ!ćĈ!ćĈ!ćĈ!ćĈ!Ĉ!Ĉ!Ĉ!ĈĈ!%&'(ďĉ!!!!!!!!!!!!!!!!!!!!!ďĉďĉďĉďĉĈ!ĈĈĈćĈ!ćĈĈĈ": 1345,
      "ćĈ!ćĈ!Ĉ!ććĈ!Ĉ!Ĉ!Ĉ!ćĈĈĈ!Ĉ!ćĈ!Ĉ!ĈĈĈ!ĈĈĈććĈ!ćĈćĈĈĈ!Ĉ": 1346,
      "&'": 1347,
      "ćććĈ!Ĉ!Ĉ!Ĉ!Ĉ!Ĉ!ćĈ!Ĉ!Ĉ!Ĉ!ćĈ!Ĉ!": 1348,
      "ďĉ!)!)!!!!!!!!!!ďĉ!!!!!!": 1349,
      "-%&+/,'(-%&+/,'(-%&+/,'(-%&+/,'(-%&+/,'(-%&+/,'(-%&+/,'(-%&+/,'(-%&+/,'(-%&+/,'(-%&+/,'(-%&+/,'(-%&+/,'(-%&+/,'(-%&+/,'(-%&+/,'(": 1350,
      "ćććććććĈ!Ĉ!Ĉ!ćĈ!Ĉ!Ĉ!": 1351,
      "ćĈ!ćĈ!Ĉ!ććĈ!ĈććĈ!Ĉ!ćĈ!ćĈ!Ĉ!Ĉ!ćĈĈ!": 1352,
      "Ĉ!ĈĈćĈĈ!Ĉďĉ!!!!!!!!!!!!!!!!!!!!!!!!!!!!!!!!": 1353,
      "%&'(%&'(ďĉ!!ććććććĈććĈ!": 1354,
      "ďĉďĉďĉďĉďĉďĉďĉ!ďĉ!ďĉ": 1355,
      "ććććĈ!ćĈ!Ĉ!Ĉ!ĈĈ!Ĉ!Ĉ!Ĉ": 1356,
      "ďĉďĉďĉďĉ!ďĉďĉ%!!!&'(": 1357,
      "ďĉďĉďĉ!!ďĉďĉćĈ!Čďĉďĉďĉ!ďĉďĉ!ďĉďĉďĉ!ďĉďĉ!": 1358,
      "ćĈćĈćĈćććĈćĈćććĈćĈ": 1359,
      "ďĉććććććĈ!ććĈ!ććĈ!Ĉ!Ĉ!Ĉ!ćććĈ!Ĉ!Ĉ!ććĈ": 1360,
      "ćĈ!Ĉ!Ĉ!Ĉ!Ĉ!Ĉ!ćĈ!Ĉ!ććĈ!": 1361,
      "ĈĈĈ!Ĉ!Ĉ!ĈĈĈ": 1362,
      "ććĈ!Ĉ!Ĉ!ĈćĈ!Ĉ!ĈćĈććĈĈ!ĈĈĈ": 1363,
      "ďĉďĉ%&'(!": 1364,
      "ćććććććććććĈ!ćĈ!!ććĈ!ććĈ!": 1365,
      "ćććĈĈĈĈĈććĈĈććĈćććĈćĈćĈćĈćĈĈćĈĈćĈćĈćĈ": 1366,
      "ďĉďĉ)ďĉďĉ!": 1367,
      "ďĉ!!ďĉ!ďĉ!": 1368,
      ")!)ďĉďĉďĉďĉďĉďĉ!!!": 1369,
      "ććĈ!Ĉ!ĈćĈĈĈććĈĈĈććĈ!Ĉ!Ĉ!Ĉ!Ĉ!Ĉ!ćĈĈ!Ĉ!Ĉ!ćĈĈĈććĈĈ!ćććĈ!ććĈ!ćĈ!ĈĈĈćć!!!!": 1370,
      "ćĈ!ĈććĈĈĈćĈĈĈćĈ!ĈććĈĈĈćĈĈććĈĈĈćĈ!ĈćĈ!ććĈĈ!Ĉ!ĈĈćĈ!Ĉ!": 1371,
      "ćććććććććććććććĈ!Ĉ!Ĉ!ćĈ!Ĉ!": 1372,
      "ďĉďĉ!!ďĉďĉďĉ!": 1373,
      "!!!!!!!!!ďĉ!!!!!!!!": 1374,
      "ďĉ!!ďĉďĉďĉďĉďĉ!!ďĉ!ďĉ!": 1375,
      "ďĉ!!ćććććććĈ!Ĉ!Ĉ!ććĈĈććĈ!ćĈĈ": 1376,
      "ćďĉććććććććććććććććĈ!Ĉ!ćĈ!Ĉ!ĈĈ!": 1377,
      "ćĈ!ćĈ!ćĈ!ćĈ!ćĈ!Ĉ!ćĈ!ćĈ!Ĉ!Ĉ!ćĈ!Ĉ!Ĉ!ććĈ!Ĉ!Ĉ!ĈćĈ!Ĉ!": 1378,
      "ďĉ!!!!!!!!!!!!!!!!!!!!!!!!!!!!!!!!!!!!!!!!!!!!!!!!!!!!!!!!!!!!!!)!)": 1379,
      "ćďĉďĉ!!": 1380,
      "%&'(Ĉ!Ĉ!": 1381,
      "ďĉďĉďĉďĉ!ďĉ!!": 1382,
      "ćĈĈĈććĈ!Ĉ!ććĈ!ćććĈćĈćĈćĈćĈĈćĈĈćĈćĈćĈćĈ!Ĉ!ĈćĈ!Ĉ!Ĉ!": 1383,
      "ćććććĈ!ćĈ!ććććĈ!ććĈ!ćććĈ!ćććĈ": 1384,
      "ćĈĈĈĈ!": 1385,
      "3322": 1386,
      "ćĈćĈĈĈĈĈĈĈćĈĈĈĈĈĈćĈćĈ!ćĈĈ!": 1387,
      "ďĉďĉďĉ!!)!)!!!!!!!!!!!!!!!!!!!!ďĉ!!!!!!!!!!!!!!!!!!!!!!!!!!!!!!!!!!!": 1388,
      "ććććććććććććććććććććććĈ!ććĈ!ćĈ!ććĈ!ććććĈ!ćććĈććĈćććĈććććĈććĈććććĈććĈ": 1389,
      "ćĈ!ďĉ!%&'(": 1390,
      "!!!!!!!!!!!!!!!!!!!!!!!!!!!!!!!!!!!!!!!!!!!!!!!!!!!!": 1391,
      "ćććććĈ!Ĉ!Ĉ!ćĈĈćĈďĉďĉ": 1392,
      "ććĈĈćĈĈĈććĈĈććĈćććĈĈĈĈĈćĈĈćĈćĈĈćĈĈćĈĈĈĈĈćĈćĈĈćĈĈćĈćĈćĈććĈćĈćĈćĈćĈ!ćĈćĈćĈćĈćĈćĈćĈćĈćĈćĈćĈćĈ": 1393,
      "ĈĈĈ!ĈĈĈĈ!ĈĈ!Ĉ!Ĉ!Ĉ!ĈĈĈ!Ĉ!ĈĈ!Ĉ": 1394,
      "ććĈ!ćĈ!Ĉ!ĈĈĈ!ĈĈĈććĈ!ĈĈ!ĈĈĈĈ!ĈĈ!ĈĈĈĈ": 1395,
      "ďĉ!!!ćććĈćĈ!ćĈ!ĈĈ!Ĉ!ćĈĈĈĈĈĈĈĈĈĈĈĈĈ!ćĈ!ćĈĈĈĈ!Ĉ%&'(ďĉććďĉďĉ!!ďĉććĈ!ĈĈĈĈĈ!ćďĉďĉ": 1396,
      "!!!!!!!!!!!!!!!!!!!!!!!!!!!!)!)!!!!!!!!!!!!!!!!!!!!!!!!!!!!!!!!)!)!!": 1397,
      "ćććĈ!Ĉ!Ĉ!Ĉ!Ĉ!ćĈ!Ĉ!Ĉ!ĈćĈ!ćĈĈĈĈĈćĈĈĈĈĈćĈ!ĈĈĈćĈ": 1398,
      "Ĉ!ĈĈ!ĈĈĈĈĈĈĈĈĈĈĈĈĈĈĈĈĈĈĈĈĈĈĈĈĈĈĈĈ!Ĉ!Ĉ!Ĉ!ĈĈĈĈĈĈĈĈĈ!Čďĉ!ćććććććĈ!Ĉ!ććććććĈ!ćĈĈ%&'(ďĉďĉĈ!ĈĈďĉ!!": 1399,
      "L!LK!LK": 1400,
      "ďĉ%&'(ďĉ": 1401,
      "ĈĈĈ!Ĉ!Ĉ!ĈĈĈĈ!Ĉ!ĈĈ!Ĉ!Ĉ!ĈĈĈĈ": 1402,
      "ććĈ!Ĉ!ĈćĈĈĈććĈĈĈććĈ!Ĉ!Ĉ!Ĉ!Ĉ!Ĉ!ćĈĈ!Ĉ!Ĉ!ćĈĈĈććĈĈ!ćććĈ!ććĈ!ćĈ!ĈĈĈćć!!!!%&'(ďĉ!!ďĉ!!": 1403,
      "!!!!!!!!!!!ďĉ": 1404,
      "&'(!!!!!!!!!!!!!!!!!!!!!!!!!!!!!!!!!!!!!!!!!!!!!!!!!!!!!!!!!!!!!!!!!!!!!!!!!!!!!!!!!!!!!!!!!!!!!!!!!!!!!!!!!!!!!!!!!!!!!!!!!!!!!!!!!!!!!!!!!": 1405,
      "ďĉ!ďĉ!!ćĈ!": 1406,
      "Ĉ!%&'(": 1407,
      "ďĉ!ďĉććććĈ!ćĈ!ĈĈ!ććĈ!ćĈ!ĈĈ!ćĈ!Ĉ!": 1408,
      "Ĉ!ĈĈĈ!ĈĈĈ": 1409,
      "ćĈ!ćććĈ!ććĈćĈ!ććĈćććĈ!Ĉ!Ĉ!Ĉ!ćććĈćĈ!ćĈ": 1410,
      "ćĈ!Ĉ!Ĉ!Ĉ!Ĉ!ĈĈĈ!Ĉ!ĈĈ!Ĉ!ĈĈ!Ĉ!ĈĈ!ĈĈ!Ĉ!ĈĈ!ĈĈ!Ĉ!ĈĈĈ!ĈĈĈĈ!ĈĈĈĈ": 1411,
      "ććĈ!ćĈ!ćČ": 1412,
      "ďĉ!ďĉďĉďĉďĉďĉďĉ!!": 1413,
      "ććĈ!Ĉ!Ĉ!ććĈ!Ĉ!Ĉ!ĈĈ!Ĉ!!ćĈ!Ĉ!Ĉ!Ĉ!ćĈ!ććĈ!": 1414,
      "!!!!!!!!!ććććĈ!ĈĈ%&'(ďĉ!!!!!!!!!!!!!!!!!!!!!!!!!!!!)!)!!!!!!!!!!!!!!!!!!!!!!!!!!!!!!!!)!)!!": 1415,
      "ďĉ!!!!!!!!!!!!!!!": 1416,
      "ďĉďĉďĉď%&'(ĉ": 1417,
      "ćććĈ!Ĉ!ćĈ!Ĉ!ćĈ!ćĈ!ćĈ!ĈĈ!Ĉ!": 1418,
      "ďĉ!!!!!!!!!!!!!!!!!!ďĉ!!!!!!!!!!!!!!!!!!!ďĉ!!!!!!!!": 1419,
      ")ććććććććććććĈ!ććĈ!ćĈ!ćĈ!Ĉ!Ĉ!ćĈ!Ĉ!": 1420,
      "ćďĉďĉďĉćĈ!Ĉ!Ĉ!Ĉ!": 1421,
      "ďĉ!!ďĉ!ććĈ!ďĉ!ďĉďĉ!!": 1422,
      "ćĈ!%&'(ďĉ": 1423,
      "ććććĈ!Ĉ!Ĉ!Ĉ!Ĉ!ĈĈ!Ĉ!": 1424,
      "!!!!!!!!!!!!!!!!!!!!!!!!!!!!!!!!!!!!!!!ďĉ!ďĉ!!!!!!!!!!!": 1425,
      "ććĈ!ćććĈ!ćććĈ!ćććĈ!Ĉ!Ĉ!ďĉćć": 1426,
      "Ĉ!Ĉ!Ĉ!!ćĈĈĈĈ!Ĉ!ćĈ!Ĉ!ćĈĈĈćĈ!ĈĈĈĈĈ!Ĉ!ćĈ!ććĈ!ćĈ!ććĈ!ćĈććĈ!ćĈ!ćĈ!ĈćĈĈ": 1427,
      "ććććććććĈ!Ĉ!ćĈĈćĈ!ĈĈćĈ!ćĈĈćĈ!Ĉ!": 1428,
      "Ĉ!Ĉ!Ĉ!ĈćĈĈ!Ĉ!ĈćĈĈ!ćĈ!Ĉ!ĈĈĈĈćĈĈĈĈ": 1429,
      "%&'(ďĉĈ!Ĉ!Ĉ!Ĉ!Ĉ!Ĉ!": 1430,
      "ćĈ!Ĉ!ĈćĈ!ć": 1431,
      "ĉĉĉĉĉĉĉĉ": 1432,
      "Ĉ!ĈćĈ!Ĉ!Ĉ!ĈćĈ!ććďĉ!Ĉ!ĈćĈ!Ĉ!Ĉ!ĈćĈ!ćć": 1433,
      "ďĉććĈ!ćććĈćććĈĈ!Ĉ!ćĈ!ććĈćĈ!ćĈ!!Č!!Č!": 1434,
      "Ĉ!Ĉ!ĈĈĈ!Ĉ!Ĉ!Ĉ!ĈĈĈĈĈ!ĈĈĈĈ!ĈĈĈĈĈĈĈĈĈĈĈĈ!Ĉ!ĈĈĈĈĈĈĈĈĈĈĈĈĈĈĈĈĈĈĈĈĈĈĈĈ!ĈĈĈĈĈĈĈĈĈĈĈĈĈĈĈĈĈĈĈĈĈĈĈ": 1435,
      "ććććĈ!ćĈ!Ĉ!Ĉ!ćĈ!Ĉ!Ĉ!Ĉ!ćĈ!Ĉ!Ĉ!Ĉ!ćĈ!Ĉ!ćĈ!ĈćĈ!Ĉ!": 1436,
      "ćĈ!Ĉ!Ĉ!Ĉ!ĈĈ!Ĉ!Ĉ!Ĉ!": 1437,
      "%!!!!!!!!!!!!!!!!!!!!!!!!": 1438,
      "ďĉďĉďĉďĉďĉďĉ!%&'(%&'(": 1439,
      "2323232222222222222222222222222222222222222222244444444%&5555555522222222222222222222222266666666": 1440,
      "ććććĈ!ćĈ!Ĉ!Ĉ!Ĉ!ćĈ!ĈĈćĈ!ćĈ!Ĉ!Ĉ!ćĈ!ćĈ!Ĉ!ćĈĈćĈ!Ĉ!ććĈ!ĈĈćĈćĈćĈ!Ĉ!ĈćĈĈ": 1441,
      "ďĉďĉ!ďĉ!)ďĉďĉďĉć": 1442,
      "ććĈ!Ĉ!ĈĈĈ!Ĉ!Ĉ!ĈĈćĈďĉ!!ďĉďĉ!!!)!)": 1443,
      "ďĉćĈ!": 1444,
      "ďĉ!ćĈ!ćĈ": 1445,
      "ďĉďĉďĉďĉďĉďĉćďĉ!ďĉ": 1446,
      "ć%&'(ďĉ!!!!!!!!!": 1447,
      "ĈĈĈĈĈĈĈĈĈĈĈĈĈĈĈĈĈĈĈĈĈĈĈĈĈĈĈĈĈĈĈĈĈĈĈĈĈĈĈĈĈĈĈĈĈĈĈĈĈ!Ĉ!ĈĈĈĈĈ!Ĉ!Ĉ!": 1448,
      "ćĈ!ćĈ!Ĉ!Ĉ!ćĈ!Ĉ!ćĈ!Ĉ!Ĉ!Ĉ!ćĈ!Ĉ!ćĈ!ćĈ!ćĈ!ćĈ!Ĉ!Ĉ!Ĉ!Ĉ!Ĉ!Ĉ!Ĉ!Ĉ!ĈĈ!": 1449,
      "ćććĈ!Ĉ!ććĈ!ćĈ!ćČ": 1450,
      "ďĉ!!ďĉ!ďĉďĉďĉ!": 1451,
      "ćććĈ!Ĉ!Ĉ!Ĉďĉ!!!!!ďĉ!)!)!!!!!!!!!!!!!!": 1452,
      "ćĈ!ĈĈĈ!ĈĈćĈ!Ĉ!Ĉ!ćĈćĈĈĈĈĈćĈĈćĈćĈćĈćĈĈĈćĈĈĈĈĈĈ": 1453,
      "ććĈ!ćĈ!ććĈ!ćĈ!ćĈ!ććĈćĈ!Ĉ!Ĉ!Ĉ!ćĈ!ććĈĈĈĈĈĈćĈ!ććĈćĈ!ćĈ!Ĉ!": 1454,
      "ďĉ!!!!!!!!!!!!!!!!!!!!!!!!!!!!!!!!!!!!!!!!!!!!!!!!!!!!!!!!!!!!!!)!)!!!!!!!!!ććććĈ!ĈĈ%&'(ďĉ!!!!!!!!!!!!!!!!!!!!!!!!!!!!)!)!!!!!!!!!!!!!!!!!!!!!!!!!!!!!!!!)!)!!": 1455,
      "ćďĉďĉďĉďĉ": 1456,
      "ďĉďĉďĉ%&'(Ĉ!Ĉ!ĈĈ!Ĉ!ĈĈĈĈ!Ĉ!ĈĈ!Ĉ!Ĉ!!": 1457,
      "ćććććććĈ!Ĉ!ćĈ!ĈćĈĈ!Ĉ!ćĈ!ĈĈ!ććĈ!ćĈ!ććĈćĈććć!!": 1458,
      "ćććĈ!Ĉ!Ĉ!Ĉ!Ĉ!Ĉ!ćĈ!Ĉ!Ĉ!Ĉ!ćĈ!Ĉ!Ĉ!Ĉćć": 1459,
      "L!": 1460,
      "ďĉďĉďĉďĉ!!!!ďĉ!!": 1461,
      "Ĉ!Ĉ!ĈĈĈĈĈĈĈĈĈĈĈĈĈĈĈĈĈĈĈĈĈĈĈĈďĉ!": 1462,
      "ćĈ!Ĉ!Ĉ!Ĉ!Ĉ!Ĉ!ĈćĈĈĈĈ!ĈććĈ!ććććĈć!!": 1463,
      "ćććĈ!Ĉ!ćććĈĈćĈ!ĈĈĈ!!ćććć!!!!!!!!!!!!!!!!!!!!%&'(%&'(": 1464,
      "Ĉ!ĈĈćďĉďĉďĉďĉďĉďĉďĉ!ďĉ!ďĉďĉďĉ!": 1465,
      "ććĈ!Ĉ!ĈćĈĈĈććĈĈĈććĈ!Ĉ!Ĉ!Ĉ!Ĉ!Ĉ!ćĈĈ!Ĉ!Ĉ!ćĈĈĈććĈĈ!ćććĈ!ććĈ!ćĈ!ĈĈĈćć!!!!%&'(ďĉ!!ďĉ!!ćĈ!Ĉ!Ĉ!Ĉ!Ĉ!Ĉ!Ĉ!ćĈ!ďĉ!!!!!!!!ďĉ!!!!!ćĈ!ĈćĈ!ćĈ!ĈĈ!ćĈ!Ĉ!ĈĈĈ!ĈĈĈććĈ!": 1466,
      "ĈĈĈĈĈĈĈĈĈĈĈĈĈĈ!Ĉ!Ĉ!Ĉ!ĈĈĈĈĈ!Ĉ!Ĉ!Ĉ!Ĉ!Ĉ!ĈĈ!ĈĈ!ĈĈ!ĈĈĈ!ĈĈĈĈĈ!ĈĈĈĈĈĈ!Ĉ!ĈĈ!ĈĈĈĈ!ĈĈĈĈĈĈĈĈ%&'(ďĉ": 1467,
      "LK": 1468,
      "Ĉ!Ĉ!Ĉ!Ĉ!Ĉ": 1469,
      "&'(!!!!!!!!!!!!!!!!!!!!!!!!!!!!!!!!!!!!!!!!!!!!!!!!!!!!!!!!!!!!!!!!!!!!!!!!!!!!!!!!!!!!!!!!!!!!!!!!!!!!!!!!!!!!!!!!!!!!!!!!!!!": 1470,
      "ďĉďĉďĉďĉďĉďĉďĉ)!": 1471,
      "ďĉ!!!!!!!!!!!)!!!!!!!!!!!!!!!": 1472,
      "ďĉďĉďĉ!ďĉďĉćććććĈ!Ĉ!ćĈĈ": 1473,
      "ćĈ!Ĉ!ććĈćĈ!ĈĈĈĈĈĈćĈ!ććĈććĈ!ćĈ!ĈććĈĈ!Ĉ!ĈĈĈ!ććĈ!Ĉ!Ĉ": 1474,
      "ććĈ!Ĉ!ćĈĈ!ćĈ!Ĉ!Ĉ!Ĉ!Ĉ!ĈĈĈćĈ!Ĉ!Ĉ!": 1475,
      "ďĉďĉďĉ!!ďĉ!ććĈ!Ĉ!Ĉ!Ĉ!Ĉ!ďĉďĉ!ďĉćććććĈ!Ĉ!Ĉ!Ĉ!Ĉ!Ĉ!ďĉ!%&'(ďĉ!!ďĉ!ďĉďĉ!": 1476,
      "Ĉ!ĈĈĈ!ĈĈĈĈĈĈĈĈĈĈĈĈĈĈĈĈĈĈ!ďĉ!!ďĉ!ďĉ!!!": 1477,
      "ďĉďĉ%ď&'(ĉ": 1478,
      "ććĈ!%&'(": 1479,
      "ććĈ!Ĉ!ććĈ!ććććĈćĈćĈćĈććććĈ!Ĉ!ććĈ!ĈććććĈćĈćĈćĈćĈćĈćĈćĈćĈćĈ": 1480,
      "RTVa!!!SĂĄĆ": 1481,
      "ďĉďĉďĉćććĈ!Ĉ!Ĉ!ĈĈ!Ĉ!ćĈ!Ĉ!Ĉ!ĈćĈ!Ĉ!Ĉ!Ĉ": 1482,
      "ććććĈćććĈ!Ĉ!Ĉ": 1483,
      "%&'(ďĉďĉ!!!": 1484,
      "Ĉ!Ĉ!Ĉ!Ĉ!ććĈćć": 1485,
      "ćĈ!ĈĈ!ĈĈ!ĈĈ!ĈĈĈĈĈĈĈĈĈĈĈĈĈĈĈĈĈĈĈĈĈĈĈĈĈĈĈĈ!Ĉ!Ĉ!Ĉ!ĈĈĈĈĈĈĈĈĈ!Čďĉ!ćććććććĈ!Ĉ!ććććććĈ!ćĈĈ%&'(ďĉďĉĈ!ĈĈďĉ!!": 1486,
      "ďĉ!!!ćććććĈ!ĈĈ!ĈĈĈ!Ĉ!Ĉ!Ĉ!Ĉ!Ĉ!Ĉ!Ĉ!Ĉ!Ĉ!Ĉ!Ĉ!ćĈ!ďĉ!ďĉ!!!!!!!!!!!!!!!!": 1487,
      "ćĈ!Ĉ!Ĉ!ććĈ!ćĈ!Ĉ!Ĉ!ćĈ!Ĉ!ćĈ!ćĈ!ćĈ!ćĈćĈ!Ĉ!ĈĈćĈćĈĈĈĈĈĈĈĈĈĈĈĈ": 1488,
      "ďĉ!ďĉ!!!!!!ďĉďĉ!!": 1489,
      "ćĈ!Ĉ!ćĈĈ!ćĈ!ćĈ!Ĉ": 1490,
      "Ĉ!Ĉ!Ĉ!Ĉ!!Ĉ!Ĉ!Ĉ!Ĉ!!Ĉ!Ĉ!Ĉ": 1491,
      "ćććĈĈććććććĈ!ćĈĈ": 1492,
      "ďĉďĉďĉ!!!!!": 1493,
      "ďĉ!ďĉďĉ!ďĉ": 1494,
      "Ĉ!ĈĈ!ćĈ!ĈĈ!Ĉ!Ĉ!ćĈ!ćĈ": 1495,
      "Ĉ!Ĉ!Ĉ!Ĉ!Ĉ!Ĉ!Ĉ!ĈĈĈĈĈĈĈ!ĈĈĈĈĈĈĈĈĈĈĈĈĈĈĈĈĈĈĈĈ!": 1496,
      "ććďĉďĉ)": 1497,
      "!!!!ďĉ!!)ďĉďĉ!": 1498,
      "ćďĉ#$ćĈ!ćć": 1499,
      "ććććććććććććććććććććććććććĈ!": 1500,
      "ćĈ!Ĉ!ĈćĈ!ďĉćććććććĈ!ćĈ!": 1501,
      "Ĉ!ďĉďĉćĈ!ďĉ!": 1502,
      "ďĉďĉ!!ďĉ!!!!ďĉďĉďĉďĉ": 1503,
      "&'(!!!!!!!!!!!!!!!!!!!!!!!!!!!!!!!!!!!!!!!!!!!!!!!!!!!!!!!!!!!!!!!!!!!!!!!!!!!!!!!!!!!!!!!!!!!!!!!!!!!!!!!!!!!!!!!!!!!!!!!!!!!!!!!!!!!!!!!!!!!": 1504,
      "Ĉ!Ĉ!ĈĈĈĈĈĈćĈ!ĈĈĈ%&'(ďĉ%&'(%&'(%&'(ďĉďĉďĉďĉ!ďĉďĉ%!!!&'(": 1505,
      "ćććććĈ!Ĉ!Ĉ!Ĉ!Ĉ!Ĉ!ćĈ!Ĉ!Ĉ!ćĈ!Ĉ!ćĈ!Ĉ!Ĉ!ćĈ!Ĉ!ćĈ!ćĈ!ćĈ!ćĈ!Ĉ!Ĉ!Ĉ": 1506,
      "ĂĄĆ!!!!R!!!S": 1507,
      "ćĈ!Čďĉďĉ!": 1508,
      "ďĉďĉďĉ!!!!!!!!!!": 1509,
      ")!)!!!!!!!!!!!!!!!!!!!!!!!!!!!!!!!!!!!!": 1510,
      "ďĉďĉ!ďĉďĉďĉ!!ďĉ!!!!": 1511,
      "ćććććććććććĈ!ĈćĈ!Ĉ!ĈćĈ!ć": 1512,
      "ďĉďĉ!!ďĉ!!ďĉďĉćććĈ!Ĉ!Ĉ!Ĉ!Ĉ!Ĉ": 1513,
      "R%&'(": 1514,
      "Ĉ!Ĉ!ĉ": 1515,
      "!!!!!!!!!!!ďĉ!!!!!!!!!!!!!!!!!!!!!!!!!!!!!!!!!!!!!!!!!!!!!!!!!!!!!!!!!!!!!!!!": 1516,
      "!!!!!!!!!ďĉ!!!!!!!!!!!)!!!!!!!!!!!!!!!": 1517,
      "&'(!!!!!!!!!!!!!!!!!!!!!!!!!!!!!!!!!!!!!!!!!!!!!!!!!!!!!!!!!!!!!!!!!!!!!!!!!!!!!!!!!!!!!!!!!!!!!!!!!!!!!!!!!!!!!!!!!!!!!!!!!!!!!!!": 1518,
      "ďĉ!ďĉ!!ďĉďĉ!!ďĉ!!!!!!)!!!!!!!!)": 1519,
      "ďĉ!!!!!!!!!!!!!!!!!!!!!": 1520,
      "ććĈ!Ĉ!Ĉ!Ĉ!Ĉ!Ĉ!ćĈćĈ!ććććććĈ!ćĈ!ććĈćććĈćććĈĈćĈćĈ!Ĉ!ćĈ!ĈćĈćĈćĈćĈ!Ĉ!ĈćĈ!Ĉ!": 1521,
      "ćććĈĈ!ćĈ!Ĉ!ĈćĈĈĈćĈĈĈćĈĈćććććďĉďĉďĉĈ!ĈĈĈĈ": 1522,
      ")!)!!!!!!!!!!!!!!!!!!!!!!!!!!!!!!!!!!!!!!!!!!!!!!!!!!!!!!!!!!!!!!!!!!!!!!!!!!!!!!!!!!!!!!!!!!!!!!!!!!!!!!!!!!!!!!!!": 1523,
      "Ĉ!ďĉ!ďĉďĉďĉďĉďĉ!": 1524,
      "ćććććććĈ!ćĈ!Ĉ!Ĉ!Ĉ!Ĉ!ćĈ!Ĉ!ćĈććĈćďĉ": 1525,
      "ďĉďĉ!ďĉ%&'(ćććććććććććććććć": 1526,
      "ďĈ": 1527,
      "ďĉ!ďĉ!!ďĉ": 1528,
      "ććĈ!Ĉ!Ĉ!Ĉ!Ĉ!Ĉ!Ĉ!ĈĈćĈ": 1529,
      "ćĈ!ćĈ!Ĉ!Ĉ!ćĈ!Ĉ!Ĉ!ćĈ!Ĉ!": 1530,
      "ďĉ!ďĉ!!!!!!ďĉďĉ!!!!": 1531,
      "ćććĈ!Ĉ!ćĈ!Ĉ!ĈĈ!Ĉ!ĈćĈĈĈĈĈ!Ĉ!Ĉ!Ĉ!Ĉ!Ĉ!ĈĈĈ!Ĉ!ĈĈĈĈ": 1532,
      ")!)!!Ĉ!Ĉ!ĈĈ": 1533,
      "Ĉ!ĈĈ!ĈĈĈćĈĈĈćĈ!ĈĈĈĈ!ĈĈ!Ĉ": 1534,
      "ććććĈ!Ĉ!ćĈ!ćĈ!Ĉ!ććĈ!ĈććĈ!Ĉ!ćĈ!ćĈ!Ĉ!Ĉ!ćĈĈ!": 1535,
      "Ĉ!Ĉ!Ĉ!ćĈ!Ĉ!ćĈ!ćĈ!ćĈ!ćĈ!ćĈ!Ĉ!Ĉ!Ĉ!Ĉ!Ĉ!ćĈ!Ĉ!ććĈ!": 1536,
      "ććĈ!Ĉ!ĈĈĈ!!ćĈ!Ĉ!Ĉ!Ĉ!ćďĉďĉ!!": 1537,
      "ćĈ!Ĉ!ćĈ!ćĈ!ćĈ!Ĉ!ććććĈ!ććĈ!ć!ďĉ": 1538,
      "ćĈ!ćĈ!Ĉ!ććĈ!Ĉ!Ĉ!Ĉ!ćĈĈĈ!Ĉ!ćĈ!Ĉ!ĈĈĈ!ĈĈĈććĈ!ćĈćĈĈĈ!ĈćĈĈĈĈĈĈĈĈććĈćĈĈ!ććĈĈĈĈćĈĈĈĈćĈĈĈĈĈĈĈĈććĈ": 1539,
      "ďĉďĉďĉďĉďĉďĉďĉ%&'(": 1540,
      "%!Ĉ&'(!": 1541,
      "323": 1542,
      "ďĈ!ĉ": 1543,
      "ďĉďĉďĉ!ďĉ!ďĉ!": 1544,
      "ďĉ!!ďĉ!!!!!!!!!!!ďĉ!!ćććććććĈ!Ĉ!Ĉ!ććĈĈććĈ!ćĈĈ": 1545,
      "ĈĈĈ!ĈĈĈĈ!ĈĈ!Ĉ!Ĉ!Ĉ!ĈĈĈ!Ĉ!ĈĈ!ĈĈ!Ĉ!Ĉ!Ĉ!Ĉ!Ĉ!ĈĈĈĈ!ĈĈĈĈĈĈĈ!Ĉ!Ĉ!ĈĈ!Ĉ": 1546,
      "ććććććĈ!Ĉ!": 1547,
      "&'(!!!!!!!!!!!!!!!!!!!!!!!!!!!!!!!!!!!!!!!!!!!!!!!!!!!!!!!!!!!!!!!!!!!!!!!!!!!!!!!!!!!!!!!!!!!!!!!!!!!!!!!!!!!!!!!!!!!!!!!!!!!!!!!!!!!!!!!!!!!!!!!!!!!!!!!!!!!!!!!!": 1548,
      "%!!!!!!!!!!!!!!!!!!!!!!!!!": 1549,
      "ďĉćĈ!Ĉ!Č": 1550,
      "ďĉďĉďĉ!!ďĉ!!ďĉ!!!!!!!!)!!!!!!!!)!)!)!!!!!!!!!!!!!!!!!!!!!!!!!!!!!!!!!!!!!!!!!!!!!!!!!!!!!!!!!!!!!!!!!!!!!!!!!!!!!!!!!!!!!!!!!!!!!!!!": 1551,
      "ćĈ!Ĉ!Ĉ!Ĉ!Ĉ!Ĉ!Ĉ!Ĉ!Ĉ!Ĉ!ďĉďĉ!ďĉ%&'(ćććććććććććććććć": 1552,
      "ďĉććććććĈ!ććĈ!ććĈ!Ĉ!Ĉ!Ĉ!ćććĈ!Ĉ!Ĉ!ććĈćĈ!Ĉ!ĈćĈ!Ĉ!ćĈ!ććĈĈĈĈĈćĈćĈ": 1553,
      "ćďĉďĉďĉďĉ!ććĈ!Ĉ!Ĉ!Ĉ!Ĉ": 1554,
      "!!!!!!!!!!!!!!ďĉďĉďĉďĉććććĈ!ćĈ!Ĉ!Ĉ!Ĉ!ćĈ!ĈĈćĈ!ćĈ!Ĉ!Ĉ!ćĈ!ćĈ!Ĉ!ćĈĈćĈ!Ĉ!ććĈ!ĈĈćĈćĈćĈ!Ĉ!ĈćĈĈ": 1555,
      "ććĈ!ććĈ!ćĈ!Ĉ!ćĈććĈ!Ĉ!%&'(ďĉĈ!Ĉ!Ĉ!Ĉ!Ĉ!Ĉ!": 1556,
      "Ĉ!ćĈ!ćĈ!Ĉ!Ĉ!": 1557,
      "ďĉďĉ%&'(ďĉ": 1558,
      "00110101": 1559,
      "!!!!!!!!!!!!!!!!!!!!!Ĉ!Ĉ!Ĉ": 1560,
      "ććććĈćĈććĈ!ćĈ!Ĉ!Ĉ!Ĉ!ćĈ!Ĉ!ćĈ!ćĈ!Ĉ!ćĈ!ĈćĈ!ĈĈ!ĈćĈćĈćĈćććĈćĈćććĈćĈ": 1561,
      "ďĉďĉďĉ!ďĉďĉďĉ!!ďĉďĉďĉďĉ!": 1562,
      "ććĉ": 1563,
      "ćĈ!ĉ": 1564,
      "ďĉďĉďĉďĉďĉ!!ďĉ!!ďĉďĉďĉ)!)": 1565,
      "LLLLLLLLLLLLLLLLLLLLLLLLLLLLLLLL": 1566,
      "%ćĈ&'(": 1567,
      "&'(!!!!!!!!!!!!!!!!!!!!!!!!!!!!!!!!!!!!!!!!!!!!!!!!!!!!!!!!!!!!!!!!!!!!!!!!!!!!!!!!!!!!!!!!!!!!!!!!!!!!!!!!!!!!!!!!!!!!!!!!!!!!!!!!!!!!!!!!!!": 1568,
      "ćďĉ!!!!": 1569,
      "ćďĉďĉ%&'(": 1570,
      "ćććććććććććććććććććććććććććććććććććććććć": 1571,
      "Ĉ!Ĉ!Ĉ!ćĈ!Ĉ!Ĉ!": 1572,
      "ćććĈ!Ĉ!Ĉ!ćĈĈĈĈ!": 1573,
      "ďĉďĉďĉ!ďĉ!%&'(": 1574,
      "&'(!!!!!!!!!!!!!!!!!!!!!!!!!!!!!!!!!!!!!!!!!!!!!!!!!!!!!!!!!!!!!!": 1575,
      "(788888888,-%&+": 1576,
      "&'(!!!!!!!!!!!!!!!!!!!!!!!!!!!!!!!!!!!!!!!!!!!!!!!!!!!!!!!!!!!!!!!!!!!!!!!!!!!!!!!!!!!!!!!!!!!!!!!!!!!!!!!!!!!!!!!!!!!!!!!!!!!!!!!!!": 1577,
      "!!!!!!!!!ćććĈ!Ĉ!Ĉ!Ĉ!Ĉ!Ĉ!ĈĈĈĈĈĈĈĈĈĈĈĈďĉ!!!!!!!!!!!!!!!!!!!!!!!!!!!!!!!!!!!!!!!!!!!!!!!!!!!!!!!!!!!!!!)!)!!!!!!!!!ććććĈ!ĈĈ%&'(ďĉ!!!!!!!!!!!!!!!!!!!!!!!!!!!!)!)!!!!!!!!!!!!!!!!!!!!!!!!!!!!!!!!)!)!!": 1578,
      ")!)!!Ĉ!Ĉ!ĈĈ!!!!!": 1579,
      "%!!&'(!!!!!!!!!!!!!!!!": 1580,
      "!!!!!!!!!!!ďĉćććĈ!Ĉ!Ĉ!Ĉ": 1581,
      "ćĈ!ĈĈĈ!ĈĈćĈ!Ĉ!Ĉ!ćĈćĈĈĈĈĈćĈĈćĈćĈćĈćĈĈĈćĈĈĈĈĈĈćĈ!Ĉ!": 1582,
      "ĈĈĈ!ĈĈĈĈ!ĈĈ!Ĉ!Ĉ!Ĉ!ĈĈĈ!Ĉ!ĈĈ!ĈĈ!Ĉ!Ĉ!Ĉ!Ĉ!Ĉ!ĈĈĈĈ!ĈĈĈĈĈĈĈ!Ĉ!Ĉ!ĈĈ!Ĉ%&'(ďĉĈ!Ĉ!Ĉ!Ĉ!": 1583,
      "ďĉďĉćĈ!ĈĈ!ĈĈĈĈ!Ĉ!Ĉ!ĈĈĈĈĈĈĈĈ!ĈĈĈĈĈ": 1584,
      "Ĉ!Ĉ!Ĉ!Ĉ!Ĉ!Ĉ!ćďĉďĉďĉćĈ!Ĉ!Ĉ!Ĉ!": 1585,
      "ď%ĉ&'(!": 1586,
      "ćććććďĉ!ććććĈćććĈ!Ĉ!Ĉ": 1587,
      "ďĉďĉ%&'(!ďĉďĉďĉ!!ďĉďĉćĈ!Čďĉďĉďĉ!ďĉďĉ!ďĉďĉďĉ!ďĉďĉ!": 1588,
      "ćććććććććććĈ!ĈćĈ!Ĉ!ĈćĈ!ćďĉďĉ!!ćććĈ!Ĉ!ćĈ!Ĉ!ĈĈĈĈ!ććĈ": 1589,
      "ďĉďĉďĉĈ!Ĉ!Ĉ!Ĉ!Ĉ!ćĈ!ĈĈĈĈ": 1590,
      "ćĈ!ĈćĈćĈćĈćććĈĈĈĈĈććĈĈććĈćććĈćĈćĈćĈćĈĈćĈĈćĈćĈćĈ": 1591,
      "ďĉďĉ!ďĉďĉ%&'(ćĈ!Ĉ!Ĉ!Ĉ!Ĉ!Ĉ": 1592,
      ")ďĉďĉďĉďĉďĉďĉďĉ!": 1593,
      "MMM": 1594,
      "LLL!LK": 1595,
      "ďĉďĉďĉćďĉ!ďĉďĉďĉďĉ!!": 1596,
      "Ĉ!Ĉ!Ĉ!Ĉ!ĈćĈĈĈ!ĈĈĈćĈćĈĈĈĈĈĈĈćĈĈĈĈĈĈćĈćĈ!ćĈĈ!": 1597,
      "ďĉďĉďĉďĉďĉďĉ!!": 1598,
      "ďĉ!ďĉďĉďĉďĉďĉ": 1599,
      "ćďĉ!ďĉďĉďĉďĉďĉďĉďĉďĉ": 1600,
      "%!&'(!!!!!!!!!!!!!!!!": 1601,
      "%!!!!!&'(": 1602,
      "ćĈ!ććĈ!Ĉ!ĈćĈ!ĈććĈĈĈćĈĈĈćĈ!ĈććĈĈĈćĈĈććĈĈĈćĈ!ĈćĈ!ććĈĈ!Ĉ!ĈĈćĈ!Ĉ!": 1603,
      "ćĈ!ćĈ!Ĉ!ćĈĈ!Ĉ!Ĉ!Ĉ!ćĈćĈĈćĈ!Ĉ!Ĉ!ćĈ!Ĉ!Ĉ!Ĉ!ćĈ!Ĉ!": 1604,
      "ćććĈ!Ĉ!ććĈ!ćĈ!ćČďĉ!!!": 1605,
      "ďĉ%&'(ďĉďĉďĉďĉďĉďĉ!": 1606,
      "ďĉďĉ!ďĉ%&'(ďĉ": 1607,
      "ć'(": 1608,
      "ćććĈ!ćĈ!Ĉ!Ĉ!ćĈ!Ĉ!ćĈ!Ĉ!Ĉ!Ĉ!ćĈ!Ĉ!ćĈ!ćĈ!ćĈ!ćĈ!Ĉ!Ĉ!Ĉ!Ĉ!Ĉ!Ĉ!Ĉ!Ĉ!ĈĈ!": 1609,
      "%!!!!!!!!!!!!!!!!!!!!!!!!!!": 1610,
      "ďĉ!!!!!!!!!!!!!!!!!!!!!!!!": 1611,
      "ĈĈĈ!ĈĈĈĈ!ĈĈ!Ĉ!Ĉ!Ĉ!ĈĈĈ!Ĉ!ĈĈ!ĈĈ!Ĉ!Ĉ!Ĉ!Ĉ!Ĉ!ĈĈĈĈ!ĈĈĈĈĈĈĈ!Ĉ!Ĉ!ĈĈ!Ĉ%&'(ďĉĈ!Ĉ!Ĉ!Ĉ!ĈĈĈ!Ĉ!Ĉ!ĈĈĈĈ!Ĉ!ĈĈ!Ĉ!Ĉ!ĈĈĈĈ": 1612,
      "ďĉďĉďĉ%&'(ďĉďĉďĉ": 1613,
      "ććĈ!Ĉ!Ĉ!Ĉ!Ĉ!Ĉ!ććĈ!ć": 1614,
      "ćććććććĈ!ćČ": 1615,
      "ćććďĉććććććĈ!ććČ": 1616,
      "ććććĈ!ćĈ!Ĉ!Ĉ!Ĉ!Ĉ!Ĉ!Ĉ!Ĉ!Ĉ!!ćĈĈĈĈ!Ĉ!ćĈ!Ĉ!ćĈĈĈćĈ!ĈĈĈĈĈ!Ĉ!ćĈ!ććĈ!ćĈ!ććĈ!ćĈććĈ!ćĈ!ćĈ!ĈćĈĈ": 1617,
      "ĈĈĈĈĈĈĈĈĈĈĈĈĈĈ!Ĉ!Ĉ!Ĉ!ĈĈĈĈĈ!Ĉ!Ĉ!Ĉ!Ĉ!Ĉ!ĈĈ!ĈĈ!ĈĈ!ĈĈĈ!ĈĈĈĈĈ!ĈĈĈĈĈĈ!Ĉ!ĈĈ!ĈĈĈĈ!ĈĈĈĈĈĈĈĈ%&'(ďĉćĈ!Ĉ!Ĉ!Ĉ!Ĉ!Ĉ!ĈĈ": 1618,
      "ćććĈ!Ĉ!Ĉ!ćĈ!Ĉ!Ĉ!Ĉ!Ĉ!!": 1619,
      "ďĉ%&'(ďĉďĉďĉ": 1620,
      ")!)!!!!!!!!!!!!!!!!!!!!!!!!!!!!!!!!!!!!!!!!!!!!!!!!!!!!!!!!!!!!!!!": 1621,
      "ďĉ!!ďĉ!ććĈ!ďĉ!ďĉďĉ!!ďĉďĉ)ďĉďĉ!": 1622,
      "ćććććĈ!ĈĈćĈĈćĈ": 1623,
      "ććććććĈ!ććĈ!Ĉ!Ĉ!ĈćĈ!Ĉ!ĈćĈććĈĈ!ĈĈĈ": 1624,
      "ďĉćććďĉ!": 1625,
      "ćĈ!ćĈ!ćĈ!ćĈ!ćĈ!Ĉ!ćĈ!ćĈ!Ĉ!Ĉ!ćĈ!Ĉ!Ĉ!ććĈ!Ĉ!Ĉ!ĈćĈ!Ĉ!ććĈ!ććĈ!ćĈ!Ĉ!ćĈććĈ!Ĉ!%&'(ďĉĈ!Ĉ!Ĉ!Ĉ!Ĉ!Ĉ!": 1626,
      "ďĉ!ďĉććććĈ!ćĈ!ĈĈ!ććĈ!ćĈ!ĈĈ!ćĈ!Ĉ!ćĈ!ďĉ!": 1627,
      "ćć%&'(": 1628,
      "ć%&'(ďĉďĉ": 1629,
      "ćććććććĈ!Ĉ!Ĉ!ćĈ!Ĉ!Ĉ!ćďĉ!": 1630,
      "ććĈ!ćĈ!ććĈ!ćĈ!ćĈ!ććĈćĈ!Ĉ!Ĉ!Ĉ!ćĈ!ććĈĈĈĈĈĈćĈ!ććĈćĈ!ćĈ!Ĉ!ćĈ!ććĈććĈ!!!!!!ďĉćć": 1631,
      "ďĉďĉďĉ!!ďĉďĉ!ďĉ!!": 1632,
      "ďĉ!ďĉďĉďĉćĈ!Ĉ!Ĉ!Ĉ!ĈĈ!Ĉ!Ĉ!Ĉ!": 1633,
      "ďĉ!ďĉĈ!Ĉ!ćĈ!Ĉ!ĈĈĈďĉ!ďĉ!!!SĂĄĆ!!ďĉ!!!!!!": 1634,
      "ďĉ!!ďĉ!ďĉďĉďĉ!ďĉ!!!!!": 1635,
      "ďĉ!!ďĉďĉďĉ!": 1636,
      "ćďĉćĈ!ććĈ!ćĈ!Ĉ": 1637,
      "ććććććććĈ!ćććĈ!Ĉ!ćĈ!ďĉ": 1638,
      "Ĉ!Ĉ!Ĉ!ĈćĈĈ!Ĉ!ĈćĈĈ!ćĈ!Ĉ!ĈĈĈĈćĈĈĈĈćĈĈćĈĈĈĈĈĈćĈĈĈĈćĈĈćĈĈćĈ!ćććĈ!ćć": 1639,
      "ćďĉ!ďĉďĉ!!": 1640,
      "%&-+01'(32222224%&52226'(78,%&-+01'(32222224%&52226'(78,%&-+01'(32222224%&52226'(78,%&-+01'(32222224%&52226'(78,%&-+01'(32222224%&52226'(78,%&-+01'(32222224%&52226'(78,%&-+01'(32222224%&52226'(78,%&-+01'(32222224%&52226'(78,%&-+01'(32222224%&52226'(78,%&-+01'(32222224%&52226'(78,%&-+01'(32222224%&52226'(78,%&-+01'(32222224%&52226'(78,%&-+01'(32222224%&52226'(78,%&-+01'(32222224%&52226'(78,%&-+01'(32222224%&52226'(78,%&-+01'(32222224%&52226'(78,": 1641,
      "%&'(ďĉďĉ!!!ćććććĈ!ćĈ!ććććĈ!ććĈ!ćććĈ!ćććĈ": 1642,
      "ďĉ!!ďĉ!!!!!!!!!!!ďĉ!!ćććććććĈ!Ĉ!Ĉ!ććĈĈććĈ!ćĈĈ%&'(ďĉďĉ!!!ćććććĈ!ćĈ!ććććĈ!ććĈ!ćććĈ!ćććĈ": 1643,
      "!!!!!!!!!!!!ďĉ!ďĉ!!!!!!ďĉďĉ!!": 1644,
      "ďĉ!ďĉďĉćĈ!Ĉ!Ĉ!ććĈ!ćĈ!Ĉ!Ĉ!ćĈ!Ĉ!ćĈ!ćĈ!ćĈ!ćĈćĈ!Ĉ!ĈĈćĈćĈĈĈĈĈĈĈĈĈĈĈĈ": 1645,
      "ďĉ!!!!!!!!!!!!!!!!!!!!!!!!!!!!!!!!!!!!!!!!!!!!!": 1646,
      "%!!!!!!&'(": 1647,
      "ďĉ!ďĉ!ďĉ!ďĉ!ďĉ!ďĉ": 1648,
      "ďĉďĉďĉ!ďĉ!%&'(!!!!!!!!!!!!ďĉ!ďĉ!!!!!!ďĉďĉ!!": 1649,
      "!!!!!!!!ććĈ!Ĉ!ĈćĈĈĈććĈĈĈććĈ!Ĉ!Ĉ!Ĉ!Ĉ!Ĉ!ćĈĈ!Ĉ!Ĉ!ćĈĈĈććĈĈ!ćććĈ!ććĈ!ćĈ!ĈĈĈćć!!!!%&'(ďĉ!!ďĉ!!ćĈ!Ĉ!Ĉ!Ĉ!Ĉ!Ĉ!Ĉ!ćĈ!ďĉ!!!!!!!!ďĉ!!!!!ćĈ!ĈćĈ!ćĈ!ĈĈ!ćĈ!Ĉ!ĈĈĈ!ĈĈĈććĈ!": 1650,
      "ććććĈ!Ĉ!Ĉ!Ĉ!Ĉ!ĈĈ!Ĉ!ć": 1651,
      "ćĈ!ĈĈĈ!ĈĈćĈ!Ĉ!Ĉ!ćĈćĈĈĈĈĈćĈĈćĈćĈćĈćĈĈĈćĈĈĈĈĈĈćĈ!Ĉ!ć%&'(": 1652,
      "ďĉďĉ!!ďĉ!ďĉ!!ďĉďĉďĉ!ďĉ": 1653,
      "00101": 1654,
      "ďĉ!ďĉććććććĈććĈ!": 1655,
      "ďĉ!!!!ďĉďĉďĉďĉďĉďĉďĉďĉďĉďĉ": 1656,
      "Ĉ!ĈĈćĈĈ!Ĉďĉ!!!!!!!!!!!!!!!!!!!!!!!!!!!!!!!!ďĉ!!!!!!!!!!!!!!!!!!ďĉ!!!!!!!!!!!!!!!!!!!ďĉ!!!!!!!!": 1657,
      "ďďĉĉ!": 1658,
      "RTVa!!!S": 1659,
      "ćďĉććććććććććććććććĈ!Ĉ!ćĈ!Ĉ!ĈĈ!ćĈ!ćććĈ!ććĈćĈ!ććĈćććĈ!Ĉ!Ĉ!Ĉ!ćććĈćĈ!ćĈ": 1660,
      "ďĉďĉďĉďĉ%&'(ďĉďĉďĉďĉ": 1661,
      "ďĉďĉ!ďĉďĉďĉ": 1662,
      "!!!!!!!!!ďĉ!!!!!!!!ďĉďĉďĉ!ďĉ!%&'(!!!!!!!!!!!!ďĉ!ďĉ!!!!!!ďĉďĉ!!": 1663,
      "ďĉ!!ďĉďĉďĉďĉďĉ!!ďĉ!ďĉ!ďĉďĉďĉ!": 1664,
      "ćĈ!ĈĈĈ!ĈĈćĈ!Ĉ!Ĉ!ćĈćĈĈĈĈĈćĈĈćĈćĈćĈćĈĈĈćĈĈĈĈĈĈćĈ!Ĉ!ć%&'(ďĉ!!ďĉ!ďĉďĉďĉ!ďĉ!!!!!": 1665,
      "ć%&'(ďĉĈ!ćĈ!Ĉ!Ĉ!ćĈ!Ĉ!Ĉ!ĈĈ!": 1666,
      "ććĈ!Ĉ!Ĉ!Ĉ!Ĉ!ĈĈ!ćĈ!ćĈ!ćĈćĈ!ćĈ!ćĈćĈ!ćĈćĈ!ććĈćĈ!ćĈćĈ!Ĉ!ććĈćĈ!ĈĈĈĈĈĈćĈ!ććĈććĈ!ćĈ!ĈććĈĈ!Ĉ!ĈĈĈ!ććĈ!Ĉ!Ĉ": 1667,
      "Ĉ!Ĉ!ĈĈĈĈĈĈćĈ!ĈĈĈ%&'(ďĉ%&'(%&'(%&'(ďĉďĉďĉďĉ!ďĉďĉ%!!!&'(ďĉďĉďĉ!!ďĉ!ććĈ!Ĉ!Ĉ!Ĉ!Ĉ!ďĉďĉ!ďĉćććććĈ!Ĉ!Ĉ!Ĉ!Ĉ!Ĉ!ďĉ!%&'(ďĉ!!ďĉ!ďĉďĉ!": 1668,
      "Ĉ!ďĉ!ďĉďĉďĉďĉďĉ!ďĉďĉďĉ!!)!)!!!!!!!!!!!!!!!!!!!!ďĉ!!!!!!!!!!!!!!!!!!!!!!!!!!!!!!!!!!!": 1669,
      "ćď%&'(ĉ": 1670,
      "ďĉďĉďĉďĉďĉćććććĈ!Ĉ!ćĈ!Ĉ!ćĈ!Ĉ!Ĉ!Ĉ!Ĉ!ćĈ!ćĈ!ćĈ!ćĈ!ćĈ!Ĉ!ćĈ!ćĈ!Ĉ!ćĈĈćĈ!ĈććĈ!ĈćĈćĈćĈ!ĈćĈĈ": 1671,
      "ćććććććććććĈ!ćĈ!!ććĈ!ććĈ!ćĈ!Ĉ!Ĉ!Ĉ!Ĉ!Ĉ!ĈćĈĈĈĈ!ĈććĈ!ććććĈć!!": 1672,
      "ććććĈ!ćĈ!Ĉ!Ĉ!Ĉ!Ĉ!Ĉ!Ĉ!Ĉ!Ĉ!!ćĈĈĈĈ!Ĉ!ćĈ!Ĉ!ćĈĈĈćĈ!ĈĈĈĈĈ!Ĉ!ćĈ!ććĈ!ćĈ!ććĈ!ćĈććĈ!ćĈ!ćĈ!ĈćĈĈć%&'(ďĉĈ!ćĈ!Ĉ!Ĉ!ćĈ!Ĉ!Ĉ!ĈĈ!": 1673,
      "ē!": 1674,
      "ććĈ!ďĉ!ďĉ!!ćĈ!": 1675,
      "ćććĈ!Ĉ!Ĉ!Ĉ!Ĉ!Ĉ!Ĉ!Ĉ!Ĉ!Ĉ!": 1676,
      "ďĉďĉďĉ!ďĉďĉ!ďĉďĉ!!ďĉ!!ďĉďĉćććĈ!Ĉ!Ĉ!Ĉ!Ĉ!Ĉ": 1677,
      "ďĉďĉďĉďĉďĉ!!ďĉ!!!!": 1678,
      "!!!!!!!!!!!!!!!!!!!": 1679,
      "ďĉďĉćććććććć": 1680,
      "!!!!!!!ďĉ!!ďĉďĉ!!!ďĉďĉďĉďĉďĉ!ďĉ": 1681,
      "ďĉďĉ%&'(!ďĉďĉďĉ!!ďĉďĉćĈ!Čďĉďĉďĉ!ďĉďĉ!ďĉďĉďĉ!ďĉďĉ!ďĉďĉďĉ": 1682,
      "ćććććĈ!ĈĈćĈĈćĈďĉćććććććć": 1683,
      "ďĉďĉďĉ!ććĈ!ć": 1684,
      "&'(!!!!!!!!!!!!!!!!!!!!!!!!!!!!!!!!!!!!!!!!!!!!!!!!!!!!!!!!!!!!!!!!!!!!!!!!!!!!!!!!!!!!!!!!!!!!!!!!!!!!!!!!!!!!!!!!!!!!!!!!": 1685,
      "&'(!!!!!!!!!!!!!!!!!!!!!!!!!!!!!!!!!!!!!!!!!!!!!!!!)!)!!!!!!!!ďĉ!ďĉďĉ": 1686,
      "ďĉ!)!)!!!!!!!!!!ďĉ!!!!!!ćććĈ!Ĉ!Ĉ!Ĉďĉ!!!!!ďĉ!)!)!!!!!!!!!!!!!!": 1687,
      "7'7777": 1688,
      "ďĉďĉďĉ%ď&'(ĉ": 1689,
      "7'777777": 1690,
      "ć%Ĉ&'(": 1691,
      "ħ)": 1692,
      "%&'(ďĉďĉ!!!!ďĉ!!)ďĉďĉ!": 1693,
      "R%&'(TVa": 1694,
      "ć)": 1695,
      "%&'(ďĉďĉ!!": 1696,
      "%&'(%&'(%&'(%&'(%&'(%&'(%&'(%&'(%&'(%&'(%&'(%&'(%&'(%&'(%&'(%&'(%&'(%&'(%&'(%&'(%&'(%&'(%&'(%&'(%&'(%&'(%&'(%&'(%&'(%&'(%&'(%&'(%&'(%&'(%&'(%&'(%&'(%&'(%&'(%&'(%&'(%&'(%&'(%&'(%&'(%&'(%&'(%&'(%&'(%&'(%&'(%&'(%&'(%&'(%&'(%&'(%&'(%&'(%&'(%&'(%&'(%&'(%&'(%&'(%&'(%&'(%&'(%&'(%&'(%&'(%&'(%&'(%&'(%&'(%&'(%&'(%&'(%&'(%&'(%&'(%&'(%&'(%&'(%&'(%&'(%&'(%&'(%&'(%&'(%&'(%&'(%&'(%&'(%&'(%&'(%&'(%&'(%&'(%&'(%&'(%&'(%&'(%&'(%&'(%&'(%&'(%&'(%&'(%&'(%&'(%&'(%&'(%&'(%&'(%&'(%&'(%&'(%&'(%&'(%&'(%&'(%&'(%&'(%&'(%&'(%&'(%&'(%&'(": 1697,
      ")!)ďĉďĉďĉďĉďĉďĉ!!!ďĉ!!ďĉ!ďĉ!": 1698,
      "ćĈ!!": 1699,
      "%!!!!!!!!!!!!!!!!!!!!!!!!!!!!!!!!!!!!!!!!!!!!!!!!": 1700,
      "Ĉ!)": 1701,
      "ďĉ!ďĉďĉ!ďĉ!ďĉďĉďĉ!": 1702,
      "ćććĈ!Ĉ!Ĉ!Ĉ!ĈĈĈĈĈĈĈĈĈĈ!ćĈ!Ĉ!ĈćĈĈćĈćĈĈĈćĈĈďĉĈ!ĈĈĈĈ": 1703,
      "ććĈ!ćććĈ!ćććĈ!ćććĈ!Ĉ!Ĉ!ďĉćććĈ!ć": 1704,
      "ćććććććĈ!ćČČ": 1705,
      "ďĉďĉćććĈ!Ĉ!Ĉ!Ĉ!Ĉ!Ĉ!ćććććĈ!ćĈĈ": 1706,
      "ďĉ%&'(Ĉ!Ĉ!ĈĈĈĈĈĈĈĈĈĈĈĈĈĈĈĈĈĈĈĈĈĈĈĈďĉ!": 1707,
      "ďĉďĉďĉďĉďĉďĉ!ďĉďĉ!ďĉďĉďĉ!!": 1708,
      "ććĈ!Ĉďĉ%&'(Ĉ!Ĉ!ĈĈĈĈĈĈĈĈĈĈĈĈĈĈĈĈĈĈĈĈĈĈĈĈďĉ!": 1709,
      "ćććććććććććććććĈ!Ĉ!Ĉ!ćĈ!Ĉ!Ĉ!Ĉ!Ĉ!ćĈ!Ĉ!ćĈ!ćĈ!ćĈ!ćĈ!ćĈ!Ĉ!Ĉ!Ĉ!Ĉ!Ĉ!ćĈ!Ĉ!ććĈ!": 1710,
      "ćććĈ!Ĉ!ćććĈĈćĈ!ĈĈĈ!!ćććć!!!!!!!!!!!!!!!!!!!!%&'(%&'(ďĉďĉďĉ": 1711,
      "&'(!!!!!!!!!!!!!!!!!!!!!!!!!!!!!!!!!!!!!!!!!!!!!!!!!!!!!!!!!!!!!!!!!!!!!!!!!!!!!!!!!!!!!!!!!!!!!!!!!!!!!!!!!!!!!!!!!!!!!!!!!": 1712,
      "ďĉďĉďĉďĉďĉďĉR%&'(TVa": 1713,
      "ďĉ!ďĉ!!!!!!!!!!!ďĉ!!ďĉďĉďĉďĉďĉďĉ!": 1714,
      "%&'(ďĉĈ!Ĉ!Ĉ!Ĉ!ĈĈĈĈĈĈĈĈĈĈĈĈĈĈ!Ĉ!Ĉ!Ĉ!Ĉ!ĈĈĈ!ĈĈ": 1715,
      "ćĈ!Ĉ!Ĉ!Ĉ!Ĉ!ĈĈĈ!Ĉ!ĈĈ!Ĉ!ĈĈ!Ĉ!ĈĈ!ĈĈ!Ĉ!ĈĈ!ĈĈ!Ĉ!ĈĈĈ!ĈĈĈĈ!ĈĈĈĈ%&'(ďĉĈ!Ĉ!Ĉ!Ĉ!ĈĈĈĈĈĈĈĈĈĈĈĈĈĈ!Ĉ!Ĉ!Ĉ!Ĉ!ĈĈĈ!ĈĈ": 1716,
      "ďĉ!ďĉ!!ďĉďĉ!!ďĉ!!!!!!)!!!!!!!!)ďĉďĉďĉ!!": 1717,
      "ĥ!": 1718,
      "!!!!!!!!!!!!!!!!!!!!!!!!!!!!!!!!!!!": 1719,
      "77'7777": 1720,
      "ćďĉ!ććććććććĈ!Ĉ!ćĈĈćĈ!ĈĈćĈ!ćĈĈćĈ!Ĉ!": 1721,
      "ďĉďĉďĉďĉććććĈ!ĈĈ!ćĈ!ĈĈ!Ĉ!Ĉ!ćĈ!ćĈ": 1722,
      "77'77777": 1723,
      "ďĉďĉ!ďĉ!!!!!!!!ďĉďĉďĉďĉďĉććććĈ!ćĈ!ĈćĈĈ!Ĉ!Ĉ!Ĉ!ĈćĈĈćĈĈĈĈĈĈ!%&'(ďĉďĉďĉ!))ďĉ!ďĉďĉďĉďĉ": 1724,
      "%!!!!&'(": 1725,
      "ďĉďĉďĉďĉďĉ!)!)!ďĉďĉ!!!)!)!!": 1726,
      "Ĉ!ĈćĈ!Ĉ!Ĉ!ĈćĈ!ććďĉ!Ĉ!ĈćĈ!Ĉ!Ĉ!ĈćĈ!ććďĉďĉ!ďĉďĉ%&'(ćĈ!Ĉ!Ĉ!Ĉ!Ĉ!Ĉ": 1727,
      "FD": 1728,
      "!!!!!!!!!!!!ďĉ!!ďĉ": 1729,
      "ď%&'(ĉďĉďĉ": 1730,
      "ďĉ!!!!!!!!!!!!!!!!!!!ććĈ!ćĈ!ćĈ!ćďĉ": 1731,
      "ćďĉ!!!!ćďĉ!": 1732,
      "ďĉ!ďĉďĉďĉ%&'(": 1733,
      "ćĈ!Ĉ!Ĉ!Ĉ!Ĉ!Ĉ!Ĉ!Ĉ!ćĈ!ćĈ!Ĉ!ĈćĈ!Ĉ!ďĉćĈ!": 1734,
      "ďĉďĉďĉďĉďĉďĉR%&'(TVaďĉććĈ!ćććĈćććĈĈ!Ĉ!ćĈ!ććĈćĈ!ćĈ!!Č!!Č!": 1735,
      "ć%&'(Ĉ!Ĉ!Ĉ!Ĉ!Ĉ!Ĉ!": 1736,
      "!LK!LK!LK!LK!LK!LK!LK!LK!LK!LK!LK!LK!LK!LK!LK!LK": 1737,
      "!!!!!!!!!!!!!!ďĉďĉďĉďĉććććĈ!ćĈ!Ĉ!Ĉ!Ĉ!ćĈ!ĈĈćĈ!ćĈ!Ĉ!Ĉ!ćĈ!ćĈ!Ĉ!ćĈĈćĈ!Ĉ!ććĈ!ĈĈćĈćĈćĈ!Ĉ!ĈćĈĈďĉďĉ!ďĉ%&'(ďĉ": 1738,
      "ďĉďĉ!ďĉďĉ!!!ďĉćĈ!Ĉ!ććĈ!ććĈ!ĈĈ!ććĈ!Ĉ!Ĉ": 1739,
      "%!!!!!!!!!!!!!!!!!!!!!!!!!!!": 1740,
      "ďĉďĉ!ďĉ!)ďĉďĉďĉćďĉďĉ!ďĉďĉďĉ!!ďĉ!!!!": 1741,
      "!!!!!!!!!!!!!!ďĉďĉďĉďĉććććĈ!ćĈ!Ĉ!Ĉ!Ĉ!ćĈ!ĈĈćĈ!ćĈ!Ĉ!Ĉ!ćĈ!ćĈ!Ĉ!ćĈĈćĈ!Ĉ!ććĈ!ĈĈćĈćĈćĈ!Ĉ!ĈćĈĈďĉďĉ!ďĉ%&'(ďĉĈ!ďĉ!ďĉďĉďĉďĉďĉ!ďĉďĉďĉ!!)!)!!!!!!!!!!!!!!!!!!!!ďĉ!!!!!!!!!!!!!!!!!!!!!!!!!!!!!!!!!!!": 1742,
      ")!!!": 1743,
      "ćďĉďĉ!ďĉďĉ": 1744,
      "ćććććďĉ!ććććĈćććĈ!Ĉ!ĈćĈ!ć": 1745,
      "ďĉ!!!!!!!!!": 1746,
      "ďĉďĉďďĉĉ": 1747,
      "%&'(ďĉĈ!ćĈ!Ĉ!Ĉ!Ĉ!Ĉ!Ĉ!ćĈ!ćĈ!ćĈ!Ĉ!Ĉ!ćĈ!ĈĈĈćĈćĈćĈĈĈćĈ": 1748,
      "&'(!ďĉ!)!)!!!!!!!!!!ďĉ!!!!!!ćććĈ!Ĉ!Ĉ!Ĉďĉ!!!!!ďĉ!)!)!!!!!!!!!!!!!!": 1749,
      "ĈĈ!ĈććĈ!Ĉ!ĈĈ!ĈĈ!Ĉ!ćĈ!%&'(ďĉĈ!ćĈ!Ĉ!Ĉ!Ĉ!Ĉ!Ĉ!ćĈ!ćĈ!ćĈ!Ĉ!Ĉ!ćĈ!ĈĈĈćĈćĈćĈĈĈćĈ": 1750,
      "ďĉďĉďĉďĉďĉ!ďĉďĉďĉ!": 1751,
      "ććĈĈćĈĈĈććĈĈććĈćććĈĈĈĈĈćĈĈćĈćĈĈćĈĈćĈĈĈĈĈćĈćĈĈćĈĈćĈćĈćĈććĈćĈćĈćĈćĈ!ćĈćĈćĈćĈćĈćĈćĈćĈćĈćĈćĈćĈććĈ!Ĉ!ććĈ!ććććĈćĈćĈćĈććććĈ!Ĉ!ććĈ!ĈććććĈćĈćĈćĈćĈćĈćĈćĈćĈćĈ": 1752,
      ")ććććććććććććĈ!ććĈ!ćĈ!ćĈ!Ĉ!Ĉ!ćĈ!Ĉ!ćĈ!%&'(ďĉ": 1753,
      ")ććććććććććććĈ!ććĈ!ćĈ!ćĈ!Ĉ!Ĉ!ćĈ!Ĉ!ćĈ!%&'(ďĉććĈ!Ĉ!Ĉ!Ĉ!ćĈ!Ĉ!!Ĉ!ćĈ!ćĈ!ććĈ!Ĉ!": 1754,
      "ć%ć&'(": 1755,
      "'7777777": 1756,
      "ććććĈ!ĈĈďĉ!!!!!!!!!!!": 1757,
      "Ē!!!": 1758,
      "ďĉ%&'(ďĉďĉďĉďĉďĉďĉ!ďĉďĉďĉďĉ!!": 1759,
      "ď%&'(ĉ!!": 1760,
      "&'(!!!!!!!!!!!!!!!!!!!!!!Ĉ!ďĉďĉćĈ!ďĉ!": 1761,
      "%&'(ćďĉ!": 1762,
      "Ĉ!Ĉ!ĈćĈ!Ĉ!Ĉ!Ĉ!Ĉ!Ĉ!Ĉ!Ĉ!Ĉ!Ĉ!ďĉďĉ!ďĉ%&'(ćććććććććććććććć": 1763,
      "010011": 1764,
      "%&'ď(ĉ!": 1765,
      "&'(!!!!!!!!!!!!!!!!!!!!!!!!!!!!!!!!!!!!!!!!!!!!!!!!!!!!!!!!!!!!!!!!!!!!!!!!!!!!!!!!!!!!!!!!!!!!!!!!!!!!!!!!!!!!!!!!!!!!!!!!!!ďĉććĈĈĈĈĈ": 1766,
      "M&'(": 1767,
      "ďĉďĉ!!!!!!!!!!!!!!!!!!!!!": 1768,
      "ćĈ!ĈĈ!ćĈ!ć": 1769,
      "323232222222222222222222222222222222222222222244444444%&5555555522222222222222222222222266666666": 1770,
      "Ĉ!Ĉ!Ĉ!ĈĈĈĈĈĈĈĈĈĈ!ĈĈĈ!ĈĈ!ĈĈĈĈ!ĈĈ!ĈďĉĈ!ĈĈĈĈĈĈĈĈ!ĈĈĈ!": 1771,
      "001011": 1772,
      "%&'(%&'(ďĉ!!ććććććĈććĈ!ďĉćĈ!Ĉ!Č": 1773,
      "ćććĈ!Ĉ!Ĉ!Ĉ!Ĉ!Ĉ!ćĈ!Ĉ!Ĉ!Ĉ!ćĈ!Ĉ!Ĉ!Ĉććďĉ!ćĈ!ćĈ": 1774,
      "ďĉĦ": 1775,
      "ćďĉďĉććĈ!": 1776,
      "ďĉďĉ!!!!ďĉ!!!ćććććĈ!ĈĈ!ĈĈĈ!Ĉ!Ĉ!Ĉ!Ĉ!Ĉ!Ĉ!Ĉ!Ĉ!Ĉ!Ĉ!Ĉ!ćĈ!ďĉ!ďĉ!!!!!!!!!!!!!!!!": 1777,
      "ććĈ!Ĉ!ćĈĈ!ćĈ!Ĉ!Ĉ!Ĉ!Ĉ!ĈĈĈćĈ!Ĉ!Ĉ!ćďĉććć": 1778,
      "ďĉďĉďĉďĉďĉ!!ďĉ!": 1779,
      "ďĉďĉ!%&'(": 1780,
      "ďĉďĉ%&'(ďĉďĉ": 1781,
      "ććĈ!ćĈ!Ĉ!ĈĈĈ!ĈĈĈććĈ!ĈĈ!ĈĈĈĈ!ĈĈ!ĈĈĈĈďĉďĉďĉ!!!!!!!!!!": 1782,
      "ććĈ!%&'(Ĉ!Ĉ!ĈćĈ!Ĉ!Ĉ!Ĉ!Ĉ!Ĉ!Ĉ!Ĉ!Ĉ!Ĉ!ďĉďĉ!ďĉ%&'(ćććććććććććććććć": 1783,
      "ćďĉďĉ!ďĉďĉć%&'(Ĉ!Ĉ!Ĉ!Ĉ!Ĉ!Ĉ!": 1784,
      "%&'(ĂĄĆ!!!!R!!!S": 1785,
      "ććććĈ!ćĈ!Ĉ!ĈćĈ!Ĉ!": 1786,
      "Lĉ": 1787,
      "&'(!!!!!!!!!!!!!!!!!!!!!!!!!!!!!!!!!!!!!!!!!!!!!!!!!!!!!!!!!!!!!!!!!!!!!!!!!!!!!!!!!!!!!!!!!!!!!!!!!!!!!!!!!!!!": 1788,
      ")!)!!!!!!!!!!!!!!!!!!!!!!!!!!!!!!!!!!!!!!!!!!!!!!!!!!!!!!!!!!!!!!!!!!!!!!!!!!!!!!!!!!!!!!!!!!!!!!!!!!!!!!!!!!!!!!!!!!!!!!!!!!!!!!!!": 1789,
      "ďĉďĉ!ďĉďĉćććććĈ!ćČ": 1790,
      "ďĉďĉďĉďĉ%&'(": 1791,
      "ďĉ!ďĉ%&'(": 1792,
      "ďĉďĉďĉďĉďĉďĉďĉďĉ!!!ďĉďĉďĉďĉ": 1793,
      "&'(!!!!!!!!!!!!!!!!!!!!!!!!!!!!!!!!!!!!!!!!!!!!!!!!!!!!!!!!!!!!!!!!!!!!!!!!!!!!!!!!!!!!!!!!!!!!!!!!!!!!!!": 1794,
      "%!!!!!!!!!!!!!!!!!!!!!!!!!!!!": 1795,
      "ďĉ!ďĉďĉďĉďĉ!!!!!!!!!!!!!!!!!!!!!Ĉ!Ĉ!Ĉ": 1796,
      "!ďĉ!!!!!!!!!!!!!!ďĉďĉďĉďĉććććĈ!ćĈ!Ĉ!Ĉ!Ĉ!ćĈ!ĈĈćĈ!ćĈ!Ĉ!Ĉ!ćĈ!ćĈ!Ĉ!ćĈĈćĈ!Ĉ!ććĈ!ĈĈćĈćĈćĈ!Ĉ!ĈćĈĈďĉďĉ!ďĉ%&'(ďĉĈ!ďĉ!ďĉďĉďĉďĉďĉ!ďĉďĉďĉ!!)!)!!!!!!!!!!!!!!!!!!!!ďĉ!!!!!!!!!!!!!!!!!!!!!!!!!!!!!!!!!!!": 1797,
      "Ĉ!ćĈ!Ĉ!ĈćĈĈĈćĈĈĈĈĈ": 1798,
      "ďĉďĉďĉďĉďĉ)!)ďĉďĉďĉćććĈ!Ĉ!Ĉ!ĈĈ!Ĉ!ćĈ!Ĉ!Ĉ!ĈćĈ!Ĉ!Ĉ!Ĉ": 1799,
      "ďĉ!ďĉďĉ!!!!!!!!!!!!!!!!!!!!!!!!!!!!ďĉ!!!!!!!!!!!!!!!!!!!!!!!!!!!!!!!!!!!!!!!!!!!!!!!!!!!!!!!!!ďĉ!!!!!!!!!!!!!!!": 1800,
      "ćĈćďĉďĉďĉ": 1801,
      "ĉĉĉ": 1802,
      "ďĉ!!!!!!!!!!!!!!!!!": 1803,
      "&'(!!!!!!!!!!!!!!!!!!!!!!!!!!": 1804,
      "ćďĉ#$ćĈ!ćć%&'(ďĉďĉ!!!!ďĉ!!)ďĉďĉ!": 1805,
      "ćĈ!ćĈ!ćĈ!ćĈ!ćĈ!Ĉ!ćĈ!ćĈ!Ĉ!Ĉ!ćĈ!Ĉ!Ĉ!ććĈ!Ĉ!Ĉ!ĈćĈ!Ĉ!ććĈ!ććĈ!ćĈ!Ĉ!ćĈććĈ!Ĉ!%&'(ďĉĈ!Ĉ!Ĉ!Ĉ!Ĉ!Ĉ!ĈĈĈĈĈĈĈĈĈĈĈĈĈĈĈĈĈĈĈĈĈĈĈĈĈĈĈĈĈĈĈĈĈĈĈĈĈĈĈĈĈĈĈĈĈĈĈĈĈ!Ĉ!ĈĈĈĈĈ!Ĉ!Ĉ!": 1806,
      "ďĉďĉďĉďĉďĉ!ďĉ!ďĉďĉďĉďĉ": 1807,
      "Mĉ": 1808,
      "ćĈ!)!)!!Ĉ!Ĉ!ĈĈ!!!!!": 1809,
      "ććććććććććććććććććććććććććĈ!ćććĈ!Ĉ!ćĈ!Ĉ!ćĈ!ćĈ!ćĈ!ĈĈ!Ĉ!": 1810,
      "ććććććććććććććććććććććććććććććććććććććććććććĈ!ćĈ!Ĉ!ĈćĈ!Ĉ!": 1811,
      "Ĉ!ćĈ": 1812,
      "Ĉ!Ĉ!ĈĈĈĈ!Ĉ!Ĉ!ĈĈĈĈĈĈĈĈĈĈ!ĈĈĈ!ĈĈ!ĈĈĈĈ!ĈĈ!ĈďĉĈ!ĈĈĈĈĈĈĈĈ!ĈĈĈ!": 1813,
      "%&'(ďĉ!ćććĈ!Ĉ!ćĈ!Ĉ!ĈĈ!Ĉ!ĈćĈĈĈĈĈ!Ĉ!Ĉ!Ĉ!Ĉ!Ĉ!ĈĈĈ!Ĉ!ĈĈĈĈ": 1814,
      "ćććĈ!Ĉ!Ĉ!Ĉ!Ĉ!ćĈ!Ĉ!Ĉ!ĈćĈ!ćĈĈĈĈĈćĈĈĈĈĈćĈ!ĈĈĈćĈ%&'(ďĉ!ćććĈ!Ĉ!ćĈ!Ĉ!ĈĈ!Ĉ!ĈćĈĈĈĈĈ!Ĉ!Ĉ!Ĉ!Ĉ!Ĉ!ĈĈĈ!Ĉ!ĈĈĈĈ": 1815,
      "ďĉ!ďĉďĉćĈ!Ĉ!Ĉ!ććĈ!ćĈ!Ĉ!Ĉ!ćĈ!Ĉ!ćĈ!ćĈ!ćĈ!ćĈćĈ!Ĉ!ĈĈćĈćĈĈĈĈĈĈĈĈĈĈĈĈ%&'(ďĉ!!": 1816,
      "ćďĉďĉ!ďĉďĉć%&'(Ĉ!Ĉ!Ĉ!Ĉ!Ĉ!Ĉ!ĈĈĈ!ĈĈĈĈ!ĈĈ!Ĉ!Ĉ!Ĉ!ĈĈĈ!Ĉ!ĈĈ!ĈĈ!Ĉ!Ĉ!Ĉ!Ĉ!Ĉ!ĈĈĈĈ!ĈĈĈĈĈĈĈ!Ĉ!Ĉ!ĈĈ!Ĉ%&'(ďĉĈ!Ĉ!Ĉ!Ĉ!ĈĈĈ!Ĉ!Ĉ!ĈĈĈĈ!Ĉ!ĈĈ!Ĉ!Ĉ!ĈĈĈĈ": 1817,
      "ďĉďĉ!!ďĉ!!!!ďĉďĉďĉďĉ!!!!!!!!!!!!!!!!!!!!!!!!!!!!!!!!!!!!!!!!!!!!!": 1818,
      "ććĈ!Ĉ!Ĉ!Ĉ!Ĉ!Ĉ!ćĈćĈ!ććććććĈ!ćĈ!ććĈćććĈćććĈĈćĈćĈ!Ĉ!ćĈ!ĈćĈćĈćĈćĈ!Ĉ!ĈćĈ!Ĉ!ćĈĈĈććĈ!Ĉ!ććĈ!ćććĈćĈćĈćĈćĈĈćĈĈćĈćĈćĈćĈ!Ĉ!ĈćĈ!Ĉ!Ĉ!": 1819,
      "ďĉďĉďĉďĉ%ď&'(ĉ": 1820,
      "ďĉďĉďĉďĉ!ďĉďĉ!!!!!!!!!!!!!!!!!!!!!!!!!!!": 1821,
      "ďĉ!!!!!!!!!!!!!!!!!!!!!!!!!!!!!!!!!!!!!!!!!!!!!!!!!!!!ďĉ!!!!!!!!!!!!": 1822,
      "ďĉ!ďĉďĉćĈ!Ĉ!Ĉ!ććĈ!ćĈ!Ĉ!Ĉ!ćĈ!Ĉ!ćĈ!ćĈ!ćĈ!ćĈćĈ!Ĉ!ĈĈćĈćĈĈĈĈĈĈĈĈĈĈĈĈ%&'(ďĉ!!ďĉďĉďĉďĉďĉďĉ!ďĉďĉ!ďĉďĉďĉ!!": 1823,
      "ćĈ!Ĉ!ćĈ!ćĈ!Ĉ!": 1824,
      "!!!!!!)!!!!!!!!!!!!!!!!!!!!!!!!!!!!!!!!": 1825,
      "%!!!!!!!!!!!!!!!!!!!!!!!!!!!!!!": 1826,
      "%&-+/,'(%&-+/,'(%&-+/,'(%&-+/,'(%&-+/,'(%&-+/,'(%&-+/,'(%&-+/,'(%&-+/,'(%&-+/,'(%&-+/,'(%&-+/,'(%&-+/,'(%&-+/,'(%&-+/,'(%&-+/,'(": 1827,
      "ććććććććĈ!Ĉ!Ĉ!Ĉ!ćĈĈĈĈ!Ĉ!ćĈ!ďĉďĉ": 1828,
      "ćĈ!ćďĉďĉ!ďĉďĉćććććĈ!ćČ": 1829,
      "ďĈĈ": 1830,
      "Ĉ!Ĉ!!": 1831,
      "&'(!!!!!!!!!!!!!!!!!!!!!!!!!!!!!!!!!!!!!!!!!!!!!!!!!!!!!!!!!!!!!!!!!!!!!!!!!!!!!!!!!!!!!!!!!!!!!!!!!!!!!!!!!!!!!!!!!!!!!!!!!!!!!!!!!!!!!!!!!!!!!!": 1832,
      ")!)!!!!!!!!!!!!!!!!!!!!!!!!!!!!!!!!!!!!!!!!!!!!!!!!!!!!!!!!!!!!!!!!!!!!!!!!!!!!!!!!!!!!!": 1833,
      "%&'ć(": 1834,
      "%&ď'(ĉ!": 1835,
      "Ĉ!Ĉ!Ĉ!Ĉ!ćććĈ!ďĉ!!ďĉ!!!!!!!!!!!ďĉ!!ćććććććĈ!Ĉ!Ĉ!ććĈĈććĈ!ćĈĈ%&'(ďĉďĉ!!!ćććććĈ!ćĈ!ććććĈ!ććĈ!ćććĈ!ćććĈ": 1836,
      "ććććĈ!ćĈ!Ĉ!Ĉ!ĈĈ!Ĉ!Ĉ!ĈććĈ!ć": 1837,
      "ććĈ!Ĉďĉ%&'(Ĉ!Ĉ!ĈĈĈĈĈĈĈĈĈĈĈĈĈĈĈĈĈĈĈĈĈĈĈĈďĉ!ćććććĈ!Ĉ!Ĉ!Ĉ!Ĉ!Ĉ!ćĈ!Ĉ!Ĉ!ćĈ!Ĉ!ćĈ!Ĉ!Ĉ!ćĈ!Ĉ!ćĈ!ćĈ!ćĈ!ćĈ!Ĉ!Ĉ!Ĉ": 1838,
      "ďď!": 1839,
      "ďĉďĉĉ": 1840,
      "ďĉďĉďĉďĉćĈ!ĈĈ!Ĉ!ďĉ!ďĉ!ďĉďĉďĉ!!": 1841,
      "ďĉďĉćććććććĈĈććććććĈ!ćĈĈ": 1842,
      "ćććĈ!Ĉ!Ĉ!Ĉ!Ĉ!Ĉ!Ĉ!Ĉ!Ĉ!Ĉ!ćĈ!ćĈ!Ĉ!ćĈ!Ĉ!Ĉ!ćĈ!Ĉ!": 1843,
      "Ĉ!ć": 1844,
      "%&'(ďĉďĉďĉďĉďĉďĉďĉ": 1845,
      "!!!!!!!%!&'(": 1846,
      "ććĈ!Ĉ!Ĉ!ćĈ!ďĉďĉďĉďĉďĉďĉ": 1847,
      "ď)": 1848,
      "%ćć&'(": 1849,
      "ćććĈ!Ĉ!ććĈ!ćĈ!ćČďĉ!!!ďĉ!": 1850,
      "RTVa!!!S%&'(ĂĄĆ!!!!R!!!S": 1851,
      "ďĉďĉ)!)!!ďĉďĉ": 1852,
      ")!)!!!!!!!!!!!!!!!": 1853,
      "&'(!!!!!!!!!!!!!!!!!!!!!!!!!!!!!!!!!!!!!!!!!!!!!!!!!!!!!!!!!!!!!!!!!!!!!!!!!!!!!!!!!!!!!!!!!!!!!!!!!!!!!!!!!!!!!!!!!!!!!!!!!!!!!!!!!!!!!!!!!!!!": 1854,
      "ććĈ!ćďĉďĉďĉďĉďĉďĉďĉ!!": 1855,
      "ćĈ!Ĉ!ćĈ!ćĈ!ćĈ!Ĉ!ććććĈ!ććĈ!ć!ďĉććĈ!Ĉ!ĈĈĈ!Ĉ!Ĉ!ĈĈćĈďĉ!!ďĉďĉ!!!)!)": 1856,
      "ďĉććććććĈ!ććĈ!ććĈ!Ĉ!Ĉ!Ĉ!ćććĈ!Ĉ!Ĉ!ććĈćĈ!Ĉ!ĈćĈ!Ĉ!ćĈ!ććĈĈĈĈĈćĈćĈ%&'(ďĉ": 1857,
      "!!!!!!!!!ďĉ!!!!!!!!ďĉďĉďĉ!ďĉ!%&'(!!!!!!!!!!!!ďĉ!ďĉ!!!!!!ďĉďĉ!!ďĉ!ďĉďĉ!!": 1858,
      "ę!": 1859,
      "ďĉ!ďĉďĉ%&'(": 1860,
      "ďĉ!!ďĉďĉďĉďĉďĉďĉ!ďĉďĉ!!": 1861,
      "ďĉ%!&'(": 1862,
      "%&'(ďĉďĉ!!ďĉćććĈ!Ĉ!Ĉ!ćĈ!Ĉ!Ĉ": 1863,
      "ďĉďĉďĉďĉďĉ!ďĉďĉďĉďĉ": 1864,
      "%Ĉ&'(Ĉ": 1865,
      "ďĉďĉ!ďĉďĉćććććďĉ!": 1866,
      "ćććĈ!Ĉ!Ĉ!ćĈĈĈĈ!ćĈ!ĈĈ!ćĈ!ć": 1867,
      "%M&'(": 1868,
      "AB": 1869,
      "ďĉďĉ!!!!!!!": 1870,
      "ď%&'(ĉďĉ": 1871,
      "ďĉďĉďĉďĉ!ďĉďĉďĉďĉ!ďĉ!!": 1872,
      "ďĉďĉďĉ%&'(ďĉďĉďĉďĉďĉ": 1873,
      "%&'(ďĉďĉďĉ!ććĈ!ćďĉďĉďĉďĉďĉďĉďĉďĉ": 1874,
      "Ē!!Ė": 1875,
      "ďĉĈ!Ĉ!ĈĈĈ!Ĉ!Ĉ!Ĉ!ĈĈĈĈĈ!ĈĈĈĈ!ĈĈĈĈĈĈĈĈĈĈĈĈ!Ĉ!ĈĈĈĈĈĈĈĈĈĈĈĈĈĈĈĈĈĈĈĈĈĈĈĈ!ĈĈĈĈĈĈĈĈĈĈĈĈĈĈĈĈĈĈĈĈĈĈĈ": 1876,
      "ďĉďĉďĉ%&'(ďĉďĉďĉďĉďĉďĉďĉďĉ": 1877,
      "ďĉ!!ďĉ!!!!!!": 1878,
      "&'(!!!!!!!!!!!!!!!!!!!!!!!!!!!!!!!": 1879,
      "ćĈ!ďĉ!%&'(ććććććććććććććććććććććććććććććććććććććććććććĈ!ćĈ!Ĉ!ĈćĈ!Ĉ!": 1880,
      "ďĉďĉďĉ!!ďĉ!!ďĉ!!!!!!!!)!!!!!!!!)!)!)!!!!!!!!!!!!!!!!!!!!!!!!!!!!!!!!!!!!!!!!!!!!!!!!!!!!!!!!!!!!!!!!!!!!!!!!!!!!!!!!!!!!!!!!!!!!!!!!!!!!!!!!!!": 1881,
      "KK": 1882,
      "&'(!!!!!!!!!!!!!!!!!!!!!!!!!!!!!!!!!!!!!!!!!!!!!!!!!!!!!!!!!!!!!!!!!!!!!!!!!!!": 1883,
      "&'(!!!!!!!!!!!!!!!!!!!!!!!!!!!!!!!!!!!!!!!!!!!!!!!!!!!!!!!!!!!!!!!!!!!!!!!!!!!!!!!!!!!!!!!!!!!!!!!!!!!!!!!!!!!!!!!!!!!!!!!": 1884,
      "ďĉďĉďĉďĉďĉďĉ%&'(ďĉďĉ!ďĉďĉďĉ": 1885,
      "ććććććććććććććććććććććĈ!ććĈ!ćĈ!ććĈ!ććććĈ!ćććĈććĈćććĈććććĈććĈććććĈććĈć%&'(ďĉ!!!!!!!!!": 1886,
      ">>": 1887,
      "ćĈ!ĈĈ!ĈĈ!ĈĈ!ĈĈĈĈĈĈĈĈĈĈĈĈĈĈĈĈĈĈĈĈĈĈĈĈĈĈĈĈ!Ĉ!Ĉ!Ĉ!ĈĈĈĈĈĈĈĈĈ!Čďĉ!ćććććććĈ!Ĉ!ććććććĈ!ćĈĈ%&'(ďĉďĉĈ!ĈĈďĉ!!)!)!!!!!!!!!!!!!!!!": 1888,
      "ďLĉ": 1889,
      "%&'(ďĉ!!!!!!!!!!!!!!!!!!!!!!!!!!!!!!!!!!!!!!!!!!!!!!!!!!!!!!!!!!!!!!!!": 1890,
      "&'(!!!!!!!!!!!!!!!!!!!!!!!!!!!!!!!!!!!!!!!!!!!!!!!!!!!!!!!!!!!!!!!!!!!!!!!!!!!!!!!!!!!!!!!!!!!!!!!!!!!!!!!!!!!!!!!!!!!!!!!!!!!!!!!!!!!!!!!!!!!!!!!": 1891,
      "23232222222222222222222222222222222222222222244444444%&5555555522222222222222222222222266666666": 1892,
      "ďĉ!ďĉ!!!!!!ďĉďĉ!!!!ďĉďĉďĉ": 1893,
      "ďĉ!!!!!!!!!!!!!!!!!!!ććĈ!ćĈ!ćĈ!ćďĉ!!!!!!!!!!!!!!!": 1894,
      "&'(!!!!!!!!!!!!!!!!!!!!!!Ĉ!ďĉďĉćĈ!ďĉ!ććĈ!%&'(Ĉ!Ĉ!ĈćĈ!Ĉ!Ĉ!Ĉ!Ĉ!Ĉ!Ĉ!Ĉ!Ĉ!Ĉ!ďĉďĉ!ďĉ%&'(ćććććććććććććććć": 1895,
      "ħ!": 1896,
      "&'(ďĉ!!!!!!!!!ćććĈ!Ĉ!Ĉ!Ĉ!Ĉ!Ĉ!ĈĈĈĈĈĈĈĈĈĈĈĈďĉ!!!!!!!!!!!!!!!!!!!!!!!!!!!!!!!!!!!!!!!!!!!!!!!!!!!!!!!!!!!!!!)!)!!!!!!!!!ććććĈ!ĈĈ%&'(ďĉ!!!!!!!!!!!!!!!!!!!!!!!!!!!!)!)!!!!!!!!!!!!!!!!!!!!!!!!!!!!!!!!)!)!!": 1897,
      "%&'(Ĉ!Ĉ!ćććććĈ!ćĈĈ": 1898,
      "ďĉďĉďĉďĉďĉďĉ!%&'(%&'(Ĉ!Ĉ!ĈĈĈĈĈĈćĈ!ĈĈĈ%&'(ďĉ%&'(%&'(%&'(ďĉďĉďĉďĉ!ďĉďĉ%!!!&'(ďĉďĉďĉ!!ďĉ!ććĈ!Ĉ!Ĉ!Ĉ!Ĉ!ďĉďĉ!ďĉćććććĈ!Ĉ!Ĉ!Ĉ!Ĉ!Ĉ!ďĉ!%&'(ďĉ!!ďĉ!ďĉďĉ!": 1899,
      "ďĉďĉďĉďĉ!!!!ďĉ!!ďĉďĉďĉďĉďĉďĉďĉďĉ!": 1900,
      "%&-+/,'(#..$#$!!)!%&-+/,'(#..$#$!!)!%&-+/,'(#..$#$!!)!%&-+/,'(#..$#$!!)!%&-+/,'(#..$#$!!)!%&-+/,'(#..$#$!!)!%&-+/,'(#..$#$!!)!%&-+/,'(#..$#$!!)!": 1901,
      "ďĉććĈĈĈĈĈďĉďĉ)!)!!ďĉďĉ": 1902,
      "ďĉďĉďĉĈ!Ĉ!Ĉ!Ĉ!Ĉ!ćĈ!ĈĈĈĈćĈ!ćĈ!": 1903,
      "%&'(!!!!!!!!!!!!!!!!!!!!!!!!!!!!!!!!": 1904,
      "%!!!!!!!!&'(": 1905,
      "!!!!ďĉďĉ!!!!!!!!!!!!!!!!!!!!!": 1906,
      "Ĉ!Ĉ!Ĉ!ĈĈĈĈĈĈĈĈĈĈ!ĈĈĈ!ĈĈ!ĈĈĈĈ!ĈĈ!ĈďĉĈ!ĈĈĈĈĈĈĈĈ!ĈĈĈ": 1907,
      "ćďĉďĉ!": 1908,
      "ĉ!!": 1909,
      "ďĉ!!!!!!!!!!!!!!": 1910,
      "ďĉďĉďĉ!ďĉ!ďĉ!ďĉ": 1911,
      "ďĉďĉďĉ!ďĉďĉ!!ďĉďĉďĉ!": 1912,
      "ďĉďĉďĉ%&'(Ĉ!Ĉ!Ĉ!Ĉ!ćććĈ!ďĉ!!ďĉ!!!!!!!!!!!ďĉ!!ćććććććĈ!Ĉ!Ĉ!ććĈĈććĈ!ćĈĈ%&'(ďĉďĉ!!!ćććććĈ!ćĈ!ććććĈ!ććĈ!ćććĈ!ćććĈ": 1913,
      "ďĉ!ďĉďĉďĉĈ!Ĉ!Ĉ!Ĉ!ććĈćć": 1914,
      "%!!&'(!!!!!!!!!!!!!!!!!!!!!!!!!!!!!!!!": 1915,
      "ďĉ!!!!!!!!!!!!!%!!!!!!!&'(": 1916,
      "ćĈ!Ĉ!ćĈĈ!ćĈ!ćĈ!ĈĈ!Ĉ!Ĉ!ćĈ!Ĉ!Ĉ!": 1917,
      "ć!!!!!!!!!!!!!!!!!!!!!!!!!!!!!!!!!!!!!!!!!!!!!!!!!!!!!!!": 1918,
      "ĉĈ": 1919,
      "ďĉďĉďĉďĉďĉďĉďĉďĉ!!": 1920,
      "ďĉ!ďĉďĉďĉďĉďĉďĉďĉćďĉ!ďĉďĉďĉďĉ!!": 1921,
      "01'(333": 1922,
      "ďĉ!ďĉ!!!!!!!!ććĈ!Ĉ!ĈćĈĈĈććĈĈĈććĈ!Ĉ!Ĉ!Ĉ!Ĉ!Ĉ!ćĈĈ!Ĉ!Ĉ!ćĈĈĈććĈĈ!ćććĈ!ććĈ!ćĈ!ĈĈĈćć!!!!%&'(ďĉ!!ďĉ!!ćĈ!Ĉ!Ĉ!Ĉ!Ĉ!Ĉ!Ĉ!ćĈ!ďĉ!!!!!!!!ďĉ!!!!!ćĈ!ĈćĈ!ćĈ!ĈĈ!ćĈ!Ĉ!ĈĈĈ!ĈĈĈććĈ!": 1923,
      "ď!ĉ!": 1924,
      ")!)!!!!!!!!!!!!!!!!!!!!!!!!!!!!!!)!)!!!!!!!!!!!!!!!!!!!!!!!!!!!!!!!!!!!!!!!!!!!!!!!!!!!!!!!!!!!!!!!!": 1925,
      "ććććććććććććČďĉďĉććĈ!ćĈ!ćĈ!ćĈ!ćĈćĈćĈćďĉďĉ": 1926,
      "7'777777(788888888,-%&+01": 1927,
      "&'(!!!!!!!!!!!!!!!!!!!!!!!!!!!!!!!!!!!!!!!!!!!!!!!!!!!!!!!!!!!!!!!!!!!!!!!!!!!!!!!!!!!!!!!!!!!!!!!!!!!!!!!!!!!!!!!!!!!!!!!!!!!!!!!!!!!!!!!!!!!!!!!!!": 1928,
      "&'(!!!!!!!!!!!!!!!!!!!!!!!!!!!!!!!!!!!!!!!!!!!!!!!!!!!!!!!!!!!!!!!!!!!!!!!!!!!!!!!!!!!!!!!!!!!!!!!!!!!!!!!!!!!!!!!!!!!!!!!!!!!!!!!!!!!!!!%!!!!!!!!!!!!!": 1929,
      ")!)!!!!!!!!!!!!!!!!!!!!!!!!!!!!!!!!!!!!!!)!)!!!!!!!!!!!!!!!!!!!!!!!!!!!!!!!!!!!!": 1930,
      "ďĉďĉďĉďĉ!ďĉďĉ!!ďĉďĉďĉďĉďĉďĉďĉ!ďĉ!ďĉ": 1931,
      ")ďĉďĉďĉďĉďĉďĉďĉ!ďĉ!!": 1932,
      "ďĈ!Ĉ": 1933,
      "ďMĉ": 1934,
      "ĈĈĈĈĈĈĈ": 1935,
      "ďĉďĉďĉ!!!!!ďĉďĉďĉ!ďĉďĉćććććĈ!Ĉ!ćĈĈ": 1936,
      "ćĈ!%Ĉ&'(!": 1937,
      "%!!!!!!!!!!!!!!!!!!!!!!!!!!!!!": 1938,
      "&'(!!!!ďĉććććĈ!ćĈ!ćĈ!ĈĈ!ććĈ!Ĉ!ČďĉćĈ!ćĈ!ćĈ!ćĈćĈ!ćĈ!Ĉ!ććĈ!ĈĈ!ćĈĈ!Ĉ!ĈćĈ!Ĉ!ĈĈĈĈĈĈććĈ!ćďĉ!!!!!!!!ďĉ!ďĉ!": 1939,
      "ďĉ!ďĉďĉ!ďĉćććĈ!Ĉ!Ĉ!Ĉ!": 1940,
      "ďĉććććććĈ!ććĈ!ććĈ!Ĉ!Ĉ!Ĉ!ćććĈ!Ĉ!Ĉ!ććĈćĈ!Ĉ!ĈćĈ!Ĉ!ćĈ!ććĈĈĈĈĈćĈćĈ%&'(ďĉćććććĈ!ĈĈćĈĈćĈďĉćććććććć": 1941,
      "ćĈ!Ĉ!Ĉ!Ĉ": 1942,
      "&'(!!!!!!!!!!!!!!!!!!!!!!!!!!!!!!!!!!!!!!!!!!!!!!!!)!)!!!!!!!!ďĉ!ďĉďĉ!!!!!!!!!!!!!!!!!!!!!!!!!!!!!!!!!!!!!!!!!!!!!!!!!!!!!!!!!!!!!!!!": 1943,
      "ďĉďĉďĉďĉďĉďĉ%&'(ďĉďĉ!ďĉďĉďĉćććććĈ!Ĉ!Ĉ!ćĈĈćĈ": 1944,
      "%&Ĉ'(!": 1945,
      "ďĉďĉ!ďĉ!ďĉďĉďĉ!": 1946,
      "ďĉďĉďĉ!ďĉ!!": 1947,
      "%ď&'(ĉ!!": 1948,
      ")!)!!!!!!!!!!!!!!!!!": 1949,
      "ĥĤ!": 1950,
      "ďĉ!!!!!!!!!!!!!%!!!!!!!&'(!ďĉ!!!!!!!!!!!!!!ďĉďĉďĉďĉććććĈ!ćĈ!Ĉ!Ĉ!Ĉ!ćĈ!ĈĈćĈ!ćĈ!Ĉ!Ĉ!ćĈ!ćĈ!Ĉ!ćĈĈćĈ!Ĉ!ććĈ!ĈĈćĈćĈćĈ!Ĉ!ĈćĈĈďĉďĉ!ďĉ%&'(ďĉĈ!ďĉ!ďĉďĉďĉďĉďĉ!ďĉďĉďĉ!!)!)!!!!!!!!!!!!!!!!!!!!ďĉ!!!!!!!!!!!!!!!!!!!!!!!!!!!!!!!!!!!": 1951,
      "ďĉ!ďĉďĉ!ďĉćććĈ!Ĉ!Ĉ!Ĉ!%&'(Ĉ!Ĉ!ćććććĈ!ćĈĈ": 1952,
      "Ħ!": 1953,
      "ďĉďĉďĉďĉďĉďĉďĉďĉďĉ": 1954,
      "ďĉ!ďĉ!ďĉďĉďĉ": 1955,
      "32222": 1956,
      "Ĉ!%Ĉ&'(!": 1957,
      "ďĉ!ďĉ!ďĉďĉ!!": 1958,
      "ďĉ!!!!!!!!!!!!!!!!!!!!!!!!!!!!!!!!!!!!!!!!!!!!!!!!!!!!!!!!!!!!!!!!!!!!!": 1959,
      "ďĉ!ďĉďĉ!!ďĉďĉďĉďĉ": 1960,
      "%!!!!!!!!!!!!&'(": 1961,
      "ćďĉ#$ćĈ!ćć%&'(ďĉďĉ!!!!ďĉ!!)ďĉďĉ!ďĉďĉ%&'(!ďĉďĉďĉ!!ďĉďĉćĈ!Čďĉďĉďĉ!ďĉďĉ!ďĉďĉďĉ!ďĉďĉ!ďĉďĉďĉ": 1962,
      "ďĉďĉćććććććĈĈććććććĈ!ćĈĈ%&'(ďĉďĉ!!": 1963,
      ")ħ": 1964,
      "ďĈ!Ĉ!ĉ": 1965,
      "ĒĒ": 1966,
      "%&'(ďĉďĉ)!)!!ďĉďĉ": 1967,
      "777'7777": 1968,
      "ććďĉďĉ)ćďĉ": 1969,
      "ďĉďĉďĉ!ďĉďĉ!ďĉďĉ!!ďĉ!!ďĉďĉćććĈ!Ĉ!Ĉ!Ĉ!Ĉ!ĈćĈĈ!Ĉ!ĈĈĈćĈćĈ!ććĈ!!": 1970,
      "ďĉ!!ďĉ!!!!!!)!!!!!!!!)!": 1971,
      "%!&'(!!!!!!!!!!!!!!!!!!!!!!!!!!!!!!!!!!!!!!!!!!!!!!!!": 1972,
      "%&'(ďĉďĉ!!!!!!!!!!!ďĉćććĈ!Ĉ!Ĉ!Ĉ": 1973,
      "%&'Ĉ(!": 1974,
      "&'(!!!!!!!!!!!!!!!!!!!!!!!!!!!!!": 1975,
      "ďĉĈ!ĈĈĈĈĈĈĈĈ!ĈĈĈ": 1976,
      "ćććĈ!Ĉ!Ĉ!Ĉ!Ĉ!Ĉ!ćććććĈ!ćĈĈ%&'(ďĉďĉ!!!!!!!!!!!ďĉćććĈ!Ĉ!Ĉ!Ĉ": 1977,
      "ĈĈĈ!Ĉ": 1978,
      "!!!!!!!!!!!!!!ďĉďĉ!ďĉ!)ďĉďĉďĉćďĉďĉ!ďĉďĉďĉ!!ďĉ!!!!": 1979,
      "ć%&'(ďĉďĉďĉďĉ!": 1980,
      "ďĉ!!!!!!!!!!!!!!!!!!!!!!!!!!!!!!!!!!!!!!!!!!!!!!!!!!!!!!!!!!!!!!!": 1981,
      "ďĉ!ďĉďĉďĉďĉďĉďĉďĉďĉďĉďĉ!!": 1982,
      "ććĈ!ćďĉććććććććĈ!Ĉ!Ĉ!Ĉ!ćĈĈĈĈ!Ĉ!ćĈ!": 1983,
      "ďĉďĉććććććĈ!ćććĈ!ćććĈ!ćĈ!ćďĉďĉďĉďĉ!": 1984,
      "ćććććĈ!Ĉ!Ĉ!ćĈĈćĈďĉďĉĈ!Ĉďĉ!ďĉ!ďĉ": 1985,
      "ććĈ!Ĉ!Ĉ!ććĈ!Ĉ!Ĉ!ĈĈ!Ĉ!!ćĈ!Ĉ!Ĉ!Ĉ!ćĈ!ććĈ!ćďĉ!ďĉďĉ!!": 1986,
      "%&'(Ĉ!": 1987,
      "&'(!!!!!!!!!!!!!!!!!!!!!!!!!!!!!!!!!!!!!!!!!!!!!!!!!!!!!!!!!!!!!!!!!!!!!!!!!!!!!!!!!!!!!!!!!!!!!!!!!!!!!!!!!!!!!!!!!!!!!!!!!!ďĉććĈĈĈĈĈ%&'(ďĉďĉ)!)!!ďĉďĉ": 1988,
      "ćL": 1989,
      "ď%&'(ĉďĉďĉďĉ": 1990,
      "Ĉ!ĈĈĈ!ĈĈĈĈĈĈĈĈĈĈĈĈĈĈĈĈĈĈ!ďĉ!!ďĉ!ďĉ!!!ďĉďĉćĈ!ĈĈ!ĈĈĈĈ!Ĉ!Ĉ!ĈĈĈĈĈĈĈĈ!ĈĈĈĈĈ": 1991,
      "!!!!!!!!!ďĉ!!!!!!!!!!!)!!!!!!!!!!!!!!!ďĉďĉ%&'(ďĉ": 1992,
      "!!!!!!!!!ďĉ!!!!!!!!!!!)!!!!!!!!!!!!!!!ďĉďĉ%&'(ďĉ)!)ďĉďĉďĉďĉďĉďĉ!!!ďĉ!!ďĉ!ďĉ!": 1993,
      "đđ": 1994,
      "&'(ććććććććĈ!ćććĈ!Ĉ!ćĈ!ďĉ": 1995,
      "ďĉďĉććććććĈ!ćććĈ!ćććĈ!ćĈ!": 1996,
      "%L": 1997,
      "%!ć": 1998,
      "Ĉ!ĈććĈĈ!Ĉ!ććĈ!Ĉ!ĈĈ!ĈĈĈďĉďĉďĉďĉďĉďĉďĉ": 1999,
      "RTVa!!!SĂĄĆďĉćććďĉ!": 2000,
      "ććĈ!ćĈ!Ĉ!ĈĈĈ!ĈĈĈććĈ!ĈĈ!ĈĈĈĈ!ĈĈ!ĈĈĈĈďĉďĉďĉ!!!!!!!!!!ďĉďĉďĉ%&'(ďĉďĉďĉ": 2001,
      "!!!!!!!!!!!!!!!!!!!!!!!!!!!!!!!!!!!!!!!!!!!!!!!!!!!!!!!!!!!!!!!!!!!!!!!!!!!!!!!!!!!!!!!!!!!!!!!!": 2002,
      "&'(!!!!!!!!!!!!!!!!!!!!!!!!!!!!!!!!!!!!!!!!!!!!!!!!!!!!!!!!!!!!!!!!!!!!!!!!!!!!!!!!!!!!!!!!!!!!!!!!!!!!!!!!!!!!!!!!!!!!!!!!!!!!!!!!!!!!!!!!!!!!!": 2003,
      "ćććĈ!Ĉ!Ĉ!Ĉ!ĈĈĈĈĈĈĈĈĈĈ!ćĈ!Ĉ!ĈćĈĈćĈćĈĈĈćĈĈ%&'(ďĉ": 2004,
      "&'(!!!!!!!!!!!!!!!!!!!!!!!!!!!!!!!!!!!!!!!!!!!!!!!!!!!!!!!!!!!!!!!!!!!!!!!!!!!!!!!!!!!!!!!!!!!!!!!!!!!!!!!!!!!!!!!!!!": 2005,
      "ďĉďĉ%&'(ďĉďĉďĉ!!ďĉ": 2006,
      "ćććććććĈ!Ĉ!ććććććĈ!ćĈĈ%&'(ďĉďĉ!!ďĉćććĈ!Ĉ!Ĉ!ćĈ!Ĉ!Ĉ": 2007,
      "%ć&'ć(": 2008,
      "ďĉďĉćććĈ!Ĉ!Ĉ!Ĉ!Ĉ!Ĉ!ćććććĈ!ćĈĈ%&'(ďĉďĉ!!ďĉ": 2009,
      "ďĉ!!!!!!!!!!!!!!!!!!!!!!!!!!!!!!!!!!!!!!!!!!!!!!!!!!!!ďĉ!!!!!!!!!!!!ďĉďĉ%&'(ďĉďĉďĉ!!ďĉ": 2010,
      "B!": 2011,
      "-%&+/,'(-%&+/,'(-%&+/,'(-%&+/,'(-%&+/,'(-%&+/,'(-%&+/,'(-%&+/,'(-%&+/,'(-%&+/,'(-%&+/,'(-%&+/,'(-%&+/,'(-%&+/,'(-%&+/,'(-%&+/,'(-%&+/,'(-%&+/,'(-%&+/,'(-%&+/,'(-%&+/,'(-%&+/,'(-%&+/,'(-%&+/,'(-%&+/,'(-%&+/,'(-%&+/,'(-%&+/,'(-%&+/,'(-%&+/,'(-%&+/,'(-%&+/,'(": 2012,
      "ďĉďĉďĉ%&'(Ĉ!Ĉ!ĈĈ!Ĉ!ĈĈĈĈ!Ĉ!ĈĈ!Ĉ!Ĉ!!Ĉ!": 2013,
      "Ĉ!Ĉ!Ĉ!Ĉ!Ĉ!Ĉ!Ĉ!ĈĈĈĈĈĈĈ!ĈĈĈĈĈĈĈĈĈĈĈĈĈĈĈĈĈĈĈĈ!ďĉďĉďĉďĉďĉďĉćďĉ!ďĉ": 2014,
      "ćććććććĈ!Ĉ!Ĉ!ćĈ!Ĉ!Ĉ!ćďĉ!ććććĈ!ćĈ!Ĉ!Ĉ!ćĈ!Ĉ!Ĉ!Ĉ!ćĈ!Ĉ!Ĉ!Ĉ!ćĈ!Ĉ!ćĈ!ĈćĈ!Ĉ!": 2015,
      "ććććĈ!ćĈ!Ĉ!Ĉ!ĈĈ!Ĉ!Ĉ!ĈććĈ!ć%&'(ďĉ": 2016,
      "ćććććĈ!ćĈ!Ĉ!ćĈĈ!Ĉ!Ĉ!Ĉ!ćĈćĈĈćĈ!Ĉ!Ĉ!ćĈ!Ĉ!Ĉ!Ĉ!ćĈ!Ĉ!": 2017,
      "ď%&'(ĉďĉďĉ!": 2018,
      "77'77777(788888888,-%&+01": 2019,
      "&'(!ďĉ!)!)!!!!!!!!!!ďĉ!!!!!!ćććĈ!Ĉ!Ĉ!Ĉďĉ!!!!!ďĉ!)!)!!!!!!!!!!!!!!ďĉ!!!!!!!!!!!!!%!!!!!!!&'(!ďĉ!!!!!!!!!!!!!!ďĉďĉďĉďĉććććĈ!ćĈ!Ĉ!Ĉ!Ĉ!ćĈ!ĈĈćĈ!ćĈ!Ĉ!Ĉ!ćĈ!ćĈ!Ĉ!ćĈĈćĈ!Ĉ!ććĈ!ĈĈćĈćĈćĈ!Ĉ!ĈćĈĈďĉďĉ!ďĉ%&'(ďĉĈ!ďĉ!ďĉďĉďĉďĉďĉ!ďĉďĉďĉ!!)!)!!!!!!!!!!!!!!!!!!!!ďĉ!!!!!!!!!!!!!!!!!!!!!!!!!!!!!!!!!!!": 2020,
      "ďĉďĉďĉ!ďĉ!ďĉ!ďĉ%&'(": 2021,
      "ĥďĉ": 2022,
      "Ĉ!ćĈĈ": 2023,
      "ććĈ!Ĉ!ćĈ!Ĉ!": 2024,
      ")!)!!!!!!!!!!!!!!!!!!!!!!!!!!!!!!!!!!!!!!!!!!!!!!!!!!!!!!!!!!!!!!!!!!!!!!!!!!!!!!!!!!": 2025,
      "ďććĉ": 2026,
      ")!)ďĉďĉďĉ!ďĉďĉďĉ!!ďĉďĉďĉďĉ!": 2027,
      "%!!!!!!!!!!!!!!!!!!!!!!!!!!!!!!!": 2028,
      "ďĉďĉďĉ!ďĉćďĉ!!!!ćďĉ!": 2029,
      "Ĉ!ĈĈĈĈĈ!Ĉ!Ĉ!ĈĈĈĈĈĈĈĈĈĈ!ĈĈĈ!ĈĈ!ĈĈĈĈ!ĈĈ!ĈďĉĈ!ĈĈĈĈĈĈĈĈ!ĈĈĈ": 2030,
      "ďĉďĉďĉďĉďĉ%ď&'(ĉ": 2031,
      ")!!!)": 2032,
      "ććććĈ!ćĈ!Ĉ!Ĉ!ĈĈ!Ĉ!Ĉ!ĈććĈ!ć%&'(ďĉććććććććĈ!Ĉ!Ĉ!Ĉ!ćĈĈĈĈ!Ĉ!ćĈ!ďĉďĉ": 2033,
      "ďĉ!%ď&'(ĉ": 2034,
      "ďĉ%&'(ďĉďĉ!!!!ďĉ!!!ćććććĈ!ĈĈ!ĈĈĈ!Ĉ!Ĉ!Ĉ!Ĉ!Ĉ!Ĉ!Ĉ!Ĉ!Ĉ!Ĉ!Ĉ!ćĈ!ďĉ!ďĉ!!!!!!!!!!!!!!!!": 2035,
      ")!)!!!!!!!!!!!!!!!!!!!!!!!!!!!!!!!!!!!!!!!!!!!!!!!!!!!!!!!!!!!!!!!!!!!!!!!!!!!!!!!!!!!!!!!!!": 2036,
      "ććććĈ!Ĉ!Ĉ!Ĉ!Ĉ!ĈĈ!Ĉ!ćďĉ!!ďĉďĉ": 2037,
      "ďĉďĉďĉďĉ%&'(ďĉďĉďĉďĉćććććććććććććććĈ!Ĉ!Ĉ!ćĈ!Ĉ!Ĉ!Ĉ!Ĉ!ćĈ!Ĉ!ćĈ!ćĈ!ćĈ!ćĈ!ćĈ!Ĉ!Ĉ!Ĉ!Ĉ!Ĉ!ćĈ!Ĉ!ććĈ!": 2038,
      "ććććććććććććććććććććććĈ!ććĈ!ćĈ!ććĈ!ććććĈ!ćććĈććĈćććĈććććĈććĈććććĈććĈć%&'(ďĉ!!!!!!!!!ďĉďĉďĉ!!ďĉďĉ!ďĉ!!": 2039,
      "Ĉ!Ĉ!Ĉ!ĈćĈĈ!Ĉ!ĈćĈĈ!ćĈ!Ĉ!ĈĈĈĈćĈĈĈĈćĈĈćĈĈĈĈĈĈćĈĈĈĈćĈĈćĈĈćĈ!ćććĈ!ćć%&'(ďĉďĉ": 2040,
      "M!": 2041,
      "ďĉ!ďĉďĉďĉďĉ%&'(": 2042,
      "ćďĉ!ďĉďĉďĉ": 2043,
      "!!!!!!!ďĉ!!ďĉďĉ!!!ďĉďĉďĉďĉďĉ!ďĉććĈ!Ĉ!Ĉ!Ĉ!Ĉ!Ĉ!Ĉ!ĈĈćĈ": 2044,
      "ďĉ!ďĉďĉ!ďĉćććĈ!Ĉ!Ĉ!Ĉ!%&'(Ĉ!Ĉ!ćććććĈ!ćĈĈďĉďĉ": 2045,
      "Ĉ!Ĉ!Ĉ!ĈćĈĈ!Ĉ!ĈćĈĈ!ćĈ!Ĉ!ĈĈĈĈćĈĈĈĈćĈĈćĈĈĈĈĈĈćĈĈĈĈćĈĈćĈĈćĈ!ćććĈ!ćć%&'(ďĉďĉ!!!!ďĉďĉ!!!!!!!!!!!!!!!!!!!!!": 2046,
      "Ĉ)": 2047,
      "ĉďĉ": 2048,
      "ďďĉ": 2049,
      "ēĖ": 2050,
      "ćĈćć": 2051,
      "Ĉ!Ĉ!Ĉ!Ĉ!ĈćĈ!ĈĈ!ĈĈĈ": 2052,
      "ďĉ%&'(ďĉďĉ!!ďĉ": 2053,
      "ććććććĈ!ććĈ!Ĉ!Ĉ!ĈćĈ!Ĉ!ĈćĈććĈĈ!ĈĈĈďĉ!!!": 2054,
      "ćďĉ!!": 2055,
      "%&'(ďĉďĉďĉ%&'(Ĉ!Ĉ!Ĉ!Ĉ!ćććĈ!ďĉ!!ďĉ!!!!!!!!!!!ďĉ!!ćććććććĈ!Ĉ!Ĉ!ććĈĈććĈ!ćĈĈ%&'(ďĉďĉ!!!ćććććĈ!ćĈ!ććććĈ!ććĈ!ćććĈ!ćććĈ": 2056,
      "ććĈ!ć%&'(": 2057,
      "ćććĈ!Ĉ!Ĉ!Ĉ!Ĉ": 2058,
      "ďĉďĉ!!ďĉ!!ďĉ!ććĈ!ďĉ!ďĉďĉ!!ďĉďĉ)ďĉďĉ!": 2059,
      "MMMMMMMMMMMM": 2060,
      "&Ĉ'(!": 2061,
      "BB": 2062,
      "%!!&'(!!!!!!!!!!!!!!!!!!!!!!!!!!!!!!!!!!!!!!!!!!!!!!!!!!!!!!!!!!!!!!!!!!!!!!!!!!!!!!!!!!!!!!!!!!!!!!!!": 2063,
      "ďĉďĉďĉďĉďĉďĉďĉďĉ!ďĉďĉďĉďĉďĉćććććĈ!Ĉ!ćĈ!Ĉ!ćĈ!Ĉ!Ĉ!Ĉ!Ĉ!ćĈ!ćĈ!ćĈ!ćĈ!ćĈ!Ĉ!ćĈ!ćĈ!Ĉ!ćĈĈćĈ!ĈććĈ!ĈćĈćĈćĈ!ĈćĈĈ": 2064,
      "ďĉďĉďĉ%&'(ďĉďĉďĉďĉďĉďĉďĉďĉďĉďĉďĉ!": 2065,
      "ĈĈ!Ĉ!": 2066,
      "ďćĈ": 2067,
      "ďĉďĉďĉďĉććĈ!Ĉ!ĈĈĈ!!ćĈ!Ĉ!Ĉ!Ĉ!ćďĉďĉ!!": 2068,
      "ďĉ!ďĉ!!!!": 2069,
      "'(333": 2070,
      "%&'(!ďĉďĉďĉ!ďĉ!ďĉ!": 2071,
      "ćĈ!ćĈ!Ĉ!ććĈ!Ĉ!Ĉ!Ĉ!ćĈĈĈ!Ĉ!ćĈ!Ĉ!ĈĈĈ!ĈĈĈććĈ!ćĈćĈĈĈ!ĈćĈĈĈĈĈĈĈĈććĈćĈĈ!ććĈĈĈĈćĈĈĈĈćĈĈĈĈĈĈĈĈććĈćďĉ!": 2072,
      "ććććććĈ!Ĉ!Ĉ!ćĈ!Ĉ!Ĉ!Ĉ!Ĉ!!": 2073,
      "ćďĉććććććććććććććććĈ!Ĉ!ćĈ!Ĉ!ĈĈ!ćĈ!ćććĈ!ććĈćĈ!ććĈćććĈ!Ĉ!Ĉ!Ĉ!ćććĈćĈ!ćĈćććĈ!Ĉ!Ĉ!Ĉ!Ĉ!ćĈ!Ĉ!Ĉ!ĈćĈ!ćĈĈĈĈĈćĈĈĈĈĈćĈ!ĈĈĈćĈ%&'(ďĉ!ćććĈ!Ĉ!ćĈ!Ĉ!ĈĈ!Ĉ!ĈćĈĈĈĈĈ!Ĉ!Ĉ!Ĉ!Ĉ!Ĉ!ĈĈĈ!Ĉ!ĈĈĈĈ": 2074,
      "%!&'(!!!!!!!!!!!!!!!!!!!!!!!!!!!!!!!!!!!!!!!!!!!!!!!!!!!!!!!!!!!!!!!!!!!!!!!!!!!!!!!!!!!!!!!!!!!!!!!!": 2075,
      "ďĉ!ďĉ!!Ĉ": 2076,
      "ďĖ": 2077,
      "!!!!!!!!!!ććććććććććććČďĉďĉććĈ!ćĈ!ćĈ!ćĈ!ćĈćĈćĈ": 2078,
      "ďďĉ!": 2079,
      "ďĉďĉďĉďĉďĉďĉďĉďĉďĉďĉďĉďĉ": 2080,
      "ďďď": 2081,
      "ćĈ!ć!": 2082,
      "ďďĉĉďďĉĉ": 2083,
      "Ĉ!Ĉ!ĈĈĈĈ!Ĉ!Ĉ!ĈĈĈĈĈĈĈĈĈĈ!ĈĈĈ!ĈĈ!ĈĈĈĈ!ĈĈ!Ĉ": 2084,
      "!!!!!!!!!!!!!!!!!!!!!!!!!!!!!!!!!!!!!!!ďĉ!ďĉ!!!!!!!!!!!ďĉ!ďĉććććććĈććĈ!": 2085,
      "Ĉ!Ĉ!Ĉ!Ĉ!ĈćĈĈĈ!ĈĈĈćĈćĈĈĈĈĈĈĈćĈĈĈĈĈĈćĈćĈ!ćĈĈ!ďĉ": 2086,
      "ďĉ!ďĉććććĈ!ćĈ!ĈĈ!ććĈ!ćĈ!ĈĈ!ćĈ!Ĉ!ćĈ!ďĉ!)ććććććććććććĈ!ććĈ!ćĈ!ćĈ!Ĉ!Ĉ!ćĈ!Ĉ!ćĈ!%&'(ďĉććĈ!Ĉ!Ĉ!Ĉ!ćĈ!Ĉ!!Ĉ!ćĈ!ćĈ!ććĈ!Ĉ!": 2087,
      "'7777777(788888888,-%&+01": 2088,
      "ďĉďĉďĉ!ďĉ!ďĉ!ďĉ%&'(ććďĉďĉ)ćďĉ": 2089,
      "ććććććĈ!ć": 2090,
      "ďĉďĉ!ďĉ!ďĉďĉďĉ!ďĉ!ďĉ!!ďĉ": 2091,
      "ďĉďĉďĉ!ďĉ%&'(!": 2092,
      "%!&'(!!!!!!!!!!!!!!!!!!!!!!!!!!!!!!!!!!!!!!!!!!!!!!!!!!!!!!!!!!!!!!!!": 2093,
      "ďĉ!ďĉ!ďĉďĉ!": 2094,
      "ĥĤē": 2095,
      "ćĈ!ćĈ!Ĉ!Ĉ!ćĈ!Ĉ!Ĉ!ćĈ!Ĉ!Ĉ!ĈĈćĈĈ!Ĉďĉ!!!!!!!!!!!!!!!!!!!!!!!!!!!!!!!!ďĉ!!!!!!!!!!!!!!!!!!ďĉ!!!!!!!!!!!!!!!!!!!ďĉ!!!!!!!!": 2096,
      "%L&'(": 2097,
      "%&'(!ďĉďĉďĉ!ďĉ!ďĉ!ďĉ!ďĉďĉ!!ďĉďĉďĉďĉ": 2098,
      "ďĉ!ď%&'(ĉ": 2099,
      "%&'(ďĉ!!!!!!!!!!!!!!!!!!!!!!!!!!!!!!!!!!!!!!!!!!!!!": 2100,
      "&'(!!!!!!!!!!!!!!!!!!!!!!!!!!!!!!!!!!!!!!!!!!!!!!!!!!!!!!!!!!!!!!!!!!!!!!!!!!!!!!!!!!!!!!!!!!!!!!!!!!!!!!!!!!!!!!!!!!!!": 2101,
      "ć%&'(ćććć": 2102,
      "%&'(!!!!!!!!!!!!!!!!!!!!!!)!!!!!!!!!!!!!!!!!!!!!!!!!!!!!!!!": 2103,
      "ďćĈ!ĉ": 2104,
      "ďďĉďĉĉ": 2105,
      "ďĉďĉďĉďĉďĉďĉďĉďĉďĉďĉ%&'(": 2106,
      "ďĉďĉďĉďĉďĉďĉďĉ!ďĉ!ďĉćććććććĈ!ćČČ": 2107,
      "ććććĈćĈććĈ!ćĈ!Ĉ!Ĉ!Ĉ!ćĈ!Ĉ!ćĈ!ćĈ!Ĉ!ćĈ!ĈćĈ!ĈĈ!ĈćĈćĈćĈćććĈćĈćććĈćĈćĈ!ĈćĈćĈćĈćććĈĈĈĈĈććĈĈććĈćććĈćĈćĈćĈćĈĈćĈĈćĈćĈćĈ": 2108,
      "ć'": 2109,
      "ďĉćĈ!ćĈ!Ĉ!ććĈ!Ĉ!Ĉ!Ĉ!ćĈĈĈ!Ĉ!ćĈ!Ĉ!ĈĈĈ!ĈĈĈććĈ!ćĈćĈĈĈ!ĈćĈĈĈĈĈĈĈĈććĈćĈĈ!ććĈĈĈĈćĈĈĈĈćĈĈĈĈĈĈĈĈććĈ": 2110,
      "ćĈ!ć%&'(": 2111,
      "ďĉďĉďĉďĉďĉďĉďĉ!!": 2112,
      "ćĈ!Ĉćććć": 2113,
      "ďĉ!ďĉďĉďĉďĉćććĈ!Ĉ!ććĈ!ćĈ!ćČďĉ!!!ďĉ!": 2114,
      "ďĉćććććĈ!Ĉ!Ĉ!ćĈĈćĈ": 2115,
      "%&'(ďĉďĉďĉ!ďĉ!!ďĉďĉďĉďĉďĉďĉ!ďĉďĉ!!": 2116,
      "&'(!!!!!!!!!!!!!!!!!!!!!!!!!!!!!!!ććććĈ!ĈĈďĉ!!!!!!!!!!!": 2117,
      "LL!LK!LK": 2118,
      "!!!!!!!!!!!%!&'(": 2119,
      "ďĉćććććĈ!ĈĈćĈĈćĈ": 2120,
      "ďďďďďďďď": 2121,
      "!&'(ďĉ))ħ": 2122,
      "ćĈĈ!Ĉ!ĈĈĈćĈćĈ!ććĈ!!ďĉ!!ďĉďĉďĉ": 2123,
      "ďĉďĉďĉďĉďĉďĉďĉ)!ďĉďĉďĉďĉ%&'(ďĉďĉďĉďĉćććććććććććććććĈ!Ĉ!Ĉ!ćĈ!Ĉ!Ĉ!Ĉ!Ĉ!ćĈ!Ĉ!ćĈ!ćĈ!ćĈ!ćĈ!ćĈ!Ĉ!Ĉ!Ĉ!Ĉ!Ĉ!ćĈ!Ĉ!ććĈ!": 2124,
      "ćĈ!Ĉ!ĈćĈ!ďĉćććććććĈ!ćĈ!%&'(ćďĉ!": 2125,
      "ďĉďĉďĉďĉďĉďĉďĉďĉ!ďĉďĉďĉďĉďĉćććććĈ!Ĉ!ćĈ!Ĉ!ćĈ!Ĉ!Ĉ!Ĉ!Ĉ!ćĈ!ćĈ!ćĈ!ćĈ!ćĈ!Ĉ!ćĈ!ćĈ!Ĉ!ćĈĈćĈ!ĈććĈ!ĈćĈćĈćĈ!ĈćĈĈ%&'(ďĉďĉďĉ%&'(Ĉ!Ĉ!Ĉ!Ĉ!ćććĈ!ďĉ!!ďĉ!!!!!!!!!!!ďĉ!!ćććććććĈ!Ĉ!Ĉ!ććĈĈććĈ!ćĈĈ%&'(ďĉďĉ!!!ćććććĈ!ćĈ!ććććĈ!ććĈ!ćććĈ!ćććĈ": 2126,
      "ćĈ!Ĉ!ĈćĈ!ďĉćććććććĈ!ćĈ!%&'(ćďĉ!ďĉďĉ!!!": 2127,
      "ĦĦ": 2128,
      "332222": 2129,
      "AAAA": 2130,
      "%ć&'Ĉ(!": 2131,
      "ďĉ!!!!!!!!!!": 2132,
      "ćććďĉ!": 2133,
      "%&'(ďĉćććććććć": 2134,
      "%&'(ďĉĈ!ĈĈĈĈĈĈĈ": 2135,
      "LLLL!LK": 2136,
      "ďĉ!!!ďĉ!!!ćććĈćĈ!ćĈ!ĈĈ!Ĉ!ćĈĈĈĈĈĈĈĈĈĈĈĈĈ!ćĈ!ćĈĈĈĈ!Ĉ%&'(ďĉććďĉďĉ!!ďĉććĈ!ĈĈĈĈĈ!ćďĉďĉ": 2137,
      "ćĈ!Ĉ!Ĉ!ćĈ!Ĉ!Ĉ!Ĉ!Ĉ!!": 2138,
      "ćďĉďĉćććĈ!ćĈ!Ĉ!Ĉ!ćĈ!Ĉ!ćĈ!Ĉ!Ĉ!Ĉ!ćĈ!Ĉ!ćĈ!ćĈ!ćĈ!ćĈ!Ĉ!Ĉ!Ĉ!Ĉ!Ĉ!Ĉ!Ĉ!Ĉ!ĈĈ!": 2139,
      "%!!!!!!!!!!!!!!!!!!!!!!!!!!!!!!!!!!!!": 2140,
      "ďĉććććććććććććĈ!ćĈ!Ĉ!Ĉ!Ĉ!Ĉ!Ĉ!Ĉ!Ĉ!Ĉ!!ćĈĈĈĈ!Ĉ!ćĈ!Ĉ!ćĈĈĈćĈ!ĈĈĈĈĈ!Ĉ!ćĈ!ććĈ!ćĈ!ććĈ!ćĈććĈ!ćĈ!ćĈ!ĈćĈĈć%&'(ďĉĈ!ćĈ!Ĉ!Ĉ!ćĈ!Ĉ!Ĉ!ĈĈ!": 2141,
      "ĈćĈ": 2142,
      "ććĈĈĈĈ": 2143,
      "%&'(ďĉ!ďĉďĉďĉďĉ!!": 2144,
      "LLL": 2145,
      "ćććĉ": 2146,
      "MMMMMMMMMMMMMMMMMMMMMMMMMMMMMMMMMMMMMMMMMMMMMMMMMMMMMMMMMMMMMMMM": 2147,
      "ďĉ!ďĉďĉďĉďĉďĉďĉ!!%&'(ďĉ!ďĉďĉďĉďĉ!!": 2148,
      "Ĥ))))": 2149,
      "ħĉ": 2150,
      "Ĉ!ćĉ": 2151,
      "ćĈ!Ĉ!ćĈ!Ĉ": 2152,
      "ďĉ!%&'(ďĉ": 2153,
      "Ĉ!Ĉ!Ĉ!Ĉ!Ĉ!": 2154,
      "ďĉ!!ďĉ!ďĉďĉďĉďĉ!": 2155,
      "ćďĉ)ħ": 2156,
      "Ĉ!Ĉ!Ĉ!%&'(": 2157,
      "ćďĉ%&'(ććććććĈ!Ĉ!Ĉ!ćĈ!Ĉ!Ĉ!Ĉ!Ĉ!!": 2158,
      "ćĈ!Ĉ!Ĉ!Ĉ!Ĉ!Ĉ!ĈĈďĉ!!!": 2159,
      "ććĈ!ćĈ!ćĈ!ćďĉ!!!!!!!!!!!!!!!ďĉ!!!!!!!!!!!!!!!!!!!!!!!!!!!!!!!!!!!!!!!!!!!!!!!!!!!!!!!!!!!!!!!!": 2160,
      "ďĉďĉďĉ!ďĉďĉćććććĈ!Ĉ!ćĈĈćďĉćĈ!ććĈ!ćĈ!Ĉ": 2161,
      "ďĉ!ďĉ!!!!!!!!!!!ďĉ!!ďĉďĉďĉďĉďĉďĉ!ďĉďĉďĉďĉďĉďĉ%&'(ďĉďĉ!ďĉďĉďĉćććććĈ!Ĉ!Ĉ!ćĈĈćĈ": 2162,
      "ćĈćďĉďĉďĉ!!!": 2163,
      "ććĈ!Ĉďĉ%&'(Ĉ!Ĉ!ĈĈĈĈĈĈĈĈĈĈĈĈĈĈĈĈĈĈĈĈĈĈĈĈďĉ!ćććććĈ!Ĉ!Ĉ!Ĉ!Ĉ!Ĉ!ćĈ!Ĉ!Ĉ!ćĈ!Ĉ!ćĈ!Ĉ!Ĉ!ćĈ!Ĉ!ćĈ!ćĈ!ćĈ!ćĈ!Ĉ!Ĉ!Ĉć%&'(ďĉ!!!!!!!!!": 2164,
      "ďĉďĉ!ďĉďĉďĉďĉ!": 2165,
      "%Ĉ&'(ĈĈ": 2166,
      "ćććććććććććĈ!": 2167,
      "Ĉ!ĈĈĈ!ďĉ!!!!!!!!!!!!!!!!!!!!!!!!!!!!!!!!": 2168,
      "%!!!!!!!!!!!&'(": 2169,
      "%&'(!!!!!!!!!!!!!!!!!!!!!!!!!!!!!!!!!!!!!!!!!!!!!!!!!!!!!!!!!!!!!!!!!!!!!!!!!!!!!!!!!!!!!!!!!!!!!!!!": 2170,
      ")!)!!!!!!!!!!!!!!!%&'(!ďĉďĉďĉ!ďĉ!ďĉ!ďĉ!ďĉďĉ!!ďĉďĉďĉďĉ": 2171,
      "ďĦ": 2172,
      "Ĉ!ććĈ!": 2173,
      "ďĉĉĉ": 2174,
      "ďĉďĉďĉďĉďĉďĉďĉďĉďĉ!ďĉďĉďĉďĉ": 2175,
      "&'(!!!!!!!!!!!!!!!!!!!!!!!!!!!!!!!!!!!!!!!!!!!!!!!!!!!!!!!!!!!": 2176,
      "ďĉďĉďĉďĉďĉćććććĈ!)!)!!Ĉ!Ĉ!ĈĈ!!!!!": 2177,
      "ČČďĉďĉďĉ!!!!!ďĉďĉďĉ!ďĉďĉćććććĈ!Ĉ!ćĈĈ": 2178,
      "ćĈ!ćĈ!Ĉ!ćĈ!Ĉ!Ĉ!ćĈ!Ĉ!ćďĉ!ďĉďĉďĉďĉďĉďĉďĉďĉ": 2179,
      "%&'(ďĉďĉďĉďĉďĉďĉďĉ!!!!!!!!!!!ďĉ!!!!!!!!!!!!!!!!!!!!!!!!!!!!!!!!!!!!!!!!!!!!!!!!!!!!!!!!!!!!!!!!": 2180,
      "&'(!!!!!!!!!!!!!!!!!!!!!!!!!!!!!!!!!!!!!!!!!!!!!!!!!!!!!!!!!!!!!!!!!!!!!!!!!!!)!)!!!!!!!!!!!!!!!!!!!!!!!!!!!!!!!!!!!!!!": 2181,
      "ďĉ!!!!!!!!!!!!!!!!!!!!!!!!!!!!": 2182,
      "ďĉďĉďĉďĉďĉďĉ!ďĉďĉ!ďĉďĉ!!!ďĉćĈ!Ĉ!ććĈ!ććĈ!ĈĈ!ććĈ!Ĉ!Ĉ": 2183,
      "ďĉďĉďĉďĉďĉ)!)ďĉďĉďĉ!ďĉďĉďĉ!!ďĉďĉďĉďĉ!": 2184,
      "32323232222222222222222222222222222222222222222244444444%&5555555522222222222222222222222266666666": 2185,
      "Ĉ!ĈĈĈ!Ĉ!ĈĈ!Ĉ!Ĉ!": 2186,
      "ććĈ!ćďĉďĉďĉďĉďĉďĉďĉ!!ďĉďĉ": 2187,
      "ďĉďĉďĉ!ďĉ%&'(!ďĉ!ďĉ!ďĉďĉ!!": 2188,
      "%ĈĈ": 2189,
      "ćć!": 2190,
      "ďĉďĉďĉďĉďĉďĉďĉďĉďĉ%&'(": 2191,
      "Ĉ!Ĉ!Ĉ!Ĉ!Ĉ!Ĉ!Ĉ!Ĉ!ĈĈĈ!Ĉ": 2192,
      "ďĉ%&'(ďĉďĉĈ!Ĉ!Ĉ!Ĉ!ćććĈ!": 2193,
      "ďĈĈĈ": 2194,
      "Ĕĥ": 2195,
      "%!!!!!!!!!!!!!!!!!!!!!!!!!!!!!!!!!!!!!!": 2196,
      "ćććććććĈ!ćĈ!Ĉ!Ĉ!Ĉ!Ĉ!ćĈ!Ĉ!ćĈććĈćďĉćĈ!Ĉ!Ĉ!Ĉ!Ĉ!Ĉ!Ĉ!Ĉ!ćĈ!ćĈ!Ĉ!ĈćĈ!Ĉ!": 2197,
      "ďĉďĉćććĈ!Ĉ!Ĉ!Ĉ!Ĉ!Ĉ!ćććććĈ!ćĈĈ%&'(ďĉďĉ!!ďĉ!!!!!!!!!ďĉ!!!!!!!!!!!)!!!!!!!!!!!!!!!ďĉďĉ%&'(ďĉ)!)ďĉďĉďĉďĉďĉďĉ!!!ďĉ!!ďĉ!ďĉ!": 2198,
      ")!)ďĉďĉďĉ!ďĉďĉďĉ!!ďĉďĉďĉďĉ!ďĉ!ďĉ!ďĉ!ďĉ!ďĉ!ďĉ": 2199,
      ")ďĉ": 2200,
      "%&'(!!!!!!!!!!!!!!!!!!!!!!!!!!!!!!!!!!!!!!!!!!!!!!!!": 2201,
      "%&'(ďĉćĈ!ćĈ!Ĉ!ććĈ!Ĉ!Ĉ!Ĉ!ćĈĈĈ!Ĉ!ćĈ!Ĉ!ĈĈĈ!ĈĈĈććĈ!ćĈćĈĈĈ!ĈćĈĈĈĈĈĈĈĈććĈćĈĈ!ććĈĈĈĈćĈĈĈĈćĈĈĈĈĈĈĈĈććĈćďĉ!": 2202,
      "&'(!!!!!!!!!!!!!!!!!!!!!!!!!!!!!!!!!!!!!!!!!!!!!!!!!!!!!!!!!!!!!!!!!!!!!!!!!!!!!!!!!!!!!!!!!!!!!!!!!!!!!!!!!!!!!!!!!!!": 2203,
      "ćĈ!ćĈ!Ĉ!Ĉ!ďĉďĉ!": 2204,
      "ććććććĈ!ćĈĈďĉďĉ!!ďĉ": 2205,
      "%&'(ďĉ!!!ďĉďĉďĉ!!ďĉ": 2206,
      "ČČČČ": 2207,
      "ďĉ!ďĉ!ďĉ!": 2208,
      "ććć%Ĉ&'(!": 2209,
      "%ć&Ĉ'(!": 2210,
      "Ĉ!%&'(ďĉ!ďĉďĉďĉďĉďĉ": 2211,
      "ććĈ!Ĉ!ĈĈĈ!Ĉ!Ĉ!ĈĈćĈďĉ!!ďĉďĉ!!!)!)!!!!!!!!!!!!": 2212,
      "ććĈ!ćĈ!ććĈ!ćĈ!ćĈ!ććĈćĈ!Ĉ!Ĉ!Ĉ!ćĈ!ććĈĈĈĈĈĈćĈ!ććĈćĈ!ćĈ!Ĉ!ćĈ!ććĈććĈ!!!!!!ďĉććďĉ%&'(ďĉďĉ!!!!ďĉ!!!ćććććĈ!ĈĈ!ĈĈĈ!Ĉ!Ĉ!Ĉ!Ĉ!Ĉ!Ĉ!Ĉ!Ĉ!Ĉ!Ĉ!Ĉ!ćĈ!ďĉ!ďĉ!!!!!!!!!!!!!!!!": 2213,
      "ćďĉďĉćććĈ!ćĈ!Ĉ!Ĉ!ćĈ!Ĉ!ćĈ!Ĉ!Ĉ!Ĉ!ćĈ!Ĉ!ćĈ!ćĈ!ćĈ!ćĈ!Ĉ!Ĉ!Ĉ!Ĉ!Ĉ!Ĉ!Ĉ!Ĉ!ĈĈ!%&'(ďĉ!!!!!!!!!!!!!!!!!!!!!!!!!!!!!!!!!!!!!!!!!!!!!": 2214,
      "ćććććććććććĈ!ććĈ!Ĉ!ćĈ!Ĉ!": 2215,
      "ćĈ!%&'(": 2216,
      "&'(!!!!!!!!!!!!!!!!!!!!!!!!!!!!!!!!!!!!!!!!!!ććććććććććććČďĉďĉććĈ!ćĈ!ćĈ!ćĈ!ćĈćĈćĈ": 2217,
      "ďĉďĉďĉ%&'(Ĉ!Ĉ!ĈĈ!Ĉ!ĈĈĈĈ!Ĉ!ĈĈ!Ĉ!Ĉ!!Ĉ!%&'(ďĉ!ďĉďĉďĉďĉďĉ": 2218,
      "&'(!!!!!!!!!!!!!!!!!!!!!!!!!!!!!!!!!!!!!!!!!!!!!!!!!!!!!!!!!!!!!!)!)!!!!!!!!!!!!!!!!!!!!!!!!!!!!!!!!!!!!!!!!!!!!!!!!!!!!!!!!!!!!!!!!": 2219,
      "ććććććććććććććććććććććććććĈ!ćććĈ!Ĉ!ćĈ!Ĉ!ćĈ!ćĈ!ćĈ!ĈĈ!Ĉ!%&'(": 2220,
      "ćK": 2221,
      "Ĉ!Ĉ!ćĈ!Ĉ": 2222,
      "%&'(!!!!!!!": 2223,
      "&'(!!!!!!!!!!!!!!!!!!!!!!!!!!!!!!!!!!!!!!!!!!!!!!!!!!!!!!!!!!!!!!!!!!!!!!!!!!!!!!!!!!!!!!!!!!!!!!!!!!!!!!!!!!!!!!!!!!!!!!": 2224,
      "ďĉ!!ďĉ!ďĉďĉ!ďĉ!ďĉďĉďĉ!": 2225,
      "Ĉ!ćĈ!ćĈ!Ĉ!Ĉ!ďĉďĉ!!!!!!!": 2226,
      ")!)!!!!!!!!!!!!!!!!!!!!!!!!!!!!!!!!!!!!!!!!!!!!!!!!!!!!!!!!!!!!!!!!!!!!!!!!!!!!!!!!!!%&'(!!!!!!!!!!!!!!!!!!!!!!)!!!!!!!!!!!!!!!!!!!!!!!!!!!!!!!!": 2227,
      "Ĉ!Ĉ!Ĉ!Ĉ!Ĉ!Ĉ!Ĉ!Ĉ!ĈĈĈ!ĈĈ!ĈĈĈ!Ĉ!ĈĈ!Ĉ!Ĉ!": 2228,
      "Ĕ!": 2229,
      "!!ďĉ": 2230,
      "%&'(ďĉ!ďĉ!!ďĉďĉ!!ďĉ!!!!!!)!!!!!!!!)ďĉďĉďĉ!!": 2231,
      "ďĉďĉďĉ!ďĉďĉďĉďĉ": 2232,
      "ďĉ%&'(ďĉ!!": 2233,
      "ď%&'(ĉďĉ!": 2234,
      "ććĈ!Ĉďĉ": 2235,
      "%!!!!!!!!!!!!!!!!!!!!!!!!!!!!!!!!!!": 2236,
      "ćĈ!ćĈ!Ĉ!ĈćĈ!Ĉ!ććĈ!Ĉ!Ĉ!Ĉ!Ĉ!ĈĈ!ćĈ!ćĈ!ćĈćĈ!ćĈ!ćĈćĈ!ćĈćĈ!ććĈćĈ!ćĈćĈ!Ĉ!ććĈćĈ!ĈĈĈĈĈĈćĈ!ććĈććĈ!ćĈ!ĈććĈĈ!Ĉ!ĈĈĈ!ććĈ!Ĉ!Ĉ": 2237,
      "ćććććććĈ!Ĉ!ćĈ!ĈćĈĈ!Ĉ!ćĈ!ĈĈ!ććĈ!ćĈ!ććĈćĈććć!!%&'(ďĉ!ďĉ!!ďĉďĉ!!ďĉ!!!!!!)!!!!!!!!)ďĉďĉďĉ!!": 2238,
      "ćĈ!ĈĈ!ĈĈ!ĈĈ!ĈĈĈĈĈĈĈĈĈĈĈĈĈĈĈĈĈĈĈĈĈĈĈĈĈĈĈĈ!Ĉ!Ĉ!Ĉ!ĈĈĈĈĈĈĈĈĈ!Čďĉ!ćććććććĈ!Ĉ!ććććććĈ!ćĈĈ%&'(ďĉďĉĈ!ĈĈďĉ!!)!)!!!!!!!!!!!!!!!%&'(!ďĉďĉďĉ!ďĉ!ďĉ!ďĉ!ďĉďĉ!!ďĉďĉďĉďĉ": 2239,
      "ďĉćĈ!ćĈ!Ĉ!ććĈ!Ĉ!Ĉ!Ĉ!ćĈĈĈ!Ĉ!ćĈ!Ĉ!ĈĈĈ!ĈĈĈććĈ!ćĈćĈĈĈ!ĈćĈĈĈĈĈĈĈĈććĈćĈĈ!ććĈĈĈĈćĈĈĈĈćĈĈĈĈĈĈĈĈććĈć%&'(ďĉ!": 2240,
      "ćććććććććććĈ!ććĈ!Ĉ!ćĈ!Ĉ!ćĈ!ć!": 2241,
      "ďĉćĈ!Č": 2242,
      "%&ć'(": 2243,
      "ďĉďĉ!!ćććĈ!Ĉ!ćĈ!Ĉ!ĈĈĈĈ!ććĈďĉďĉćććććććć": 2244,
      "!!!!!!!!!!!!!!!!!!!!!!!!!!!!!!!!!!!!!!!ďĉ!ďĉ!!!!!!!!!!!ďĉ!ďĉććććććĈććĈ!%&'(ďĉďĉďĉ!ććĈ!ćďĉďĉďĉďĉďĉďĉďĉďĉ": 2245,
      "ďĉ!!ďĉ%&'(ďĉďĉ": 2246,
      "ďĉďĉďĉ!ććĈ!ćďĉďĉďĉďĉďĉďĉďĉďĉ": 2247,
      "ďĉďĉďĉďĉďĉďĉďĉďĉďĉ%&'(ďĉďĉďĉ": 2248,
      "ďĉ%&'(!!!": 2249,
      "%ď&'(ĉďĉ": 2250,
      "ďĉďĉďĉ%&'(ďĉďĉ!!": 2251,
      "ďĉĈ!Ĉ!Ĉ!Ĉ!Ĉ!ĈĈĈ!ĈĈĈ": 2252,
      "ćďĉ%&'(ććććććĈ!Ĉ!Ĉ!ćĈ!Ĉ!Ĉ!Ĉ!Ĉ!!ĈĈ!ĈććĈ!Ĉ!ĈĈ!ĈĈ!Ĉ!ćĈ!%&'(ďĉĈ!ćĈ!Ĉ!Ĉ!Ĉ!Ĉ!Ĉ!ćĈ!ćĈ!ćĈ!Ĉ!Ĉ!ćĈ!ĈĈĈćĈćĈćĈĈĈćĈ": 2253,
      "ćććĈ!ćć": 2254,
      "ććććć": 2255,
      "%&'(ĉĉĉĉĉĉĉĉĉ": 2256,
      "ďĉ!!ďĉ)!!!)": 2257,
      "ďĉďĉďĉďĉďĉďĉďĉ!!!!!!!!!!!": 2258,
      "%!!!!!!!!!!!!!!!!!!!!!!!!!!!!!!!!!!!!!": 2259,
      "L!M": 2260,
      "ććććĈ!Ĉ!ćĈ!ćĈ!Ĉ!ććĈ!ĈććĈ!Ĉ!ćĈ!ćĈ!Ĉ!Ĉ!ćĈĈ!ďĉďĉďĉďĉ": 2261,
      "%Ĉ!": 2262,
      "BM": 2263,
      "ďĤ": 2264,
      "Ė!": 2265,
      "ďĉďĉď%ĉ&'(": 2266,
      "%&'(ďĉ!!!!!!!!!!!": 2267,
      ")!)!!!!!!!!!!!!!!!!!!": 2268,
      "%&'(ďĉ!!ďĉďĉďĉ": 2269,
      "%&'(ďĉ!!ďĉďĉ!!ďĉ!ďĉ!!ďĉďĉďĉ!ďĉ": 2270,
      "L!LKL!LK": 2271,
      "%&'(ďĉďĉ!ďĉ!!!!!!!!ďĉďĉďĉďĉďĉććććĈ!ćĈ!ĈćĈĈ!Ĉ!Ĉ!Ĉ!ĈćĈĈćĈĈĈĈĈĈ!%&'(ďĉďĉďĉ!))ďĉ!ďĉďĉďĉďĉ": 2272,
      "ćĈ!ććĈ!Ĉ!ĈćĈ!ĈććĈĈĈćĈĈĈćĈ!ĈććĈĈĈćĈĈććĈĈĈćĈ!ĈćĈ!ććĈĈ!Ĉ!ĈĈćĈ!Ĉ!ćććĈ!Ĉ!ćććĈĈćĈ!ĈĈĈ!!ćććć!!!!!!!!!!!!!!!!!!!!%&'(%&'(ďĉďĉďĉ": 2273,
      "ćććĈ!Ĉ!Ĉ!ćĈ!Ĉ!Ĉ!Ĉ!Ĉ!!%&'(ďĉďĉ!ďĉ!!!!!!!!ďĉďĉďĉďĉďĉććććĈ!ćĈ!ĈćĈĈ!Ĉ!Ĉ!Ĉ!ĈćĈĈćĈĈĈĈĈĈ!%&'(ďĉďĉďĉ!))ďĉ!ďĉďĉďĉďĉ": 2274,
      "ďĉďĉďĉďĉďĉ!!ďĉ!!!!ďĉďĉďĉ!ďĉďĉ!": 2275,
      "!!!!!!!!!!!!!!!!!!!!!!!!": 2276,
      "&'(ďĉ!!!!!!!!!!!!!!!!!!!!!!!!!!!!!!!!": 2277,
      "ćĈ!%&'(ďĉ!": 2278,
      ")!)!!!!!!!!!!!!": 2279,
      ")!)!!!!!!!!!!!": 2280,
      "ćĈĈĈĈĈĈĈ": 2281,
      "ďĉďĉ%&'(ďĉ!ďĉ": 2282,
      "ćĈĈĈĈĈĈ!ĈĈ!ĈĈĈćĈĈĈćĈ!ĈĈĈĈ!ĈĈ!Ĉ": 2283,
      "%Ĉ&'(!Ĉ": 2284,
      "ďĉ!ďĉďĉ!Ĉ!Ĉ!ĈĈ!Ĉ!Ĉ!Ĉ!": 2285,
      "Ĉ!Ĉ!Ĉ!Ĉ!Ĉ!ćĈ!ĈĈĈĈćĈ!ćĈ!ćďĉďĉďĉďĉ!": 2286,
      "ďĉćĈ!ćĈ!Ĉ!ććĈ!Ĉ!Ĉ!Ĉ!ćĈĈĈ!Ĉ!ćĈ!Ĉ!ĈĈĈ!ĈĈĈććĈ!ćĈćĈĈĈ!ĈćĈĈĈĈĈĈĈĈććĈćĈĈ!ććĈĈĈĈćĈĈĈĈćĈĈĈĈĈĈĈĈććĈć%&'(ďĉ!ććĈ!ćĈ!Ĉ!ĈĈĈ!ĈĈĈććĈ!ĈĈ!ĈĈĈĈ!ĈĈ!ĈĈĈĈďĉďĉďĉ!!!!!!!!!!ďĉďĉďĉ%&'(ďĉďĉďĉ": 2287,
      "ďĉ%&'(Ĉ!Ĉ!Ĉ!Ĉ!": 2288,
      "ďĉďĉďĉďĉ!ďĉďĉďĉďĉ": 2289,
      "%!&'(!": 2290,
      "!!!!R%&'(": 2291,
      "010101'(3": 2292,
      "&'(!!!!!!!!!!!!!!!!!!!!!!!!!!!": 2293,
      "%!!!!!!!!!&'(": 2294,
      "&'(!!!!!!!!!!!!!!!!!!!!!!!!!!!!!!!!!!!!!!!!!!!!!!!!!!!!!!!!!!!!!!!!!!!!!!!!!!!!!!!!!!!!!!!!!!!!!!!!!!!!!!!!!!!!!!!!!!!!!!!!!!!!!!!!!!!!%!!!!!!!!!!!!!!": 2295,
      "ďĉďĉ!!ďĉ!!!!ďĉďĉďĉďĉ!!!!!!!!!!!!!!!!!!!!!!!!!!!!!!!!!!!!!!!!!!!!!ćććććććĈ!ćĈ!Ĉ!Ĉ!Ĉ!Ĉ!ćĈ!Ĉ!ćĈććĈ": 2296,
      "ććĈ!Ĉ!Ĉ!ćĈ!ďĉďĉďĉďĉďĉďĉćććććććĈ!Ĉ!ććććććĈ!ćĈĈ%&'(ďĉďĉ!!ďĉćććĈ!Ĉ!Ĉ!ćĈ!Ĉ!Ĉ": 2297,
      "ďĉććĈĈĈĈĈďĉďĉ)!)!!ďĉďĉ!!!!!!!!!!!!!!!!!!!!!!!!!!!!!!!!!!!!!!!!!!!!!!!!": 2298,
      "ĥďĉĈ!ĈĈ!": 2299,
      "ďĉ!ďĉććććĈ!ćĈ!ĈĈ!ććĈ!ćĈ!ĈĈ!ćĈ!Ĉ!ćĈ!ďĉ!)ććććććććććććĈ!ććĈ!ćĈ!ćĈ!Ĉ!Ĉ!ćĈ!Ĉ!ćĈ!%&'(ďĉććĈ!Ĉ!Ĉ!Ĉ!ćĈ!Ĉ!!Ĉ!ćĈ!ćĈ!ććĈ!Ĉ!ćĈ!ďĉ!%&'(ććććććććććććććććććććććććććććććććććććććććććććĈ!ćĈ!Ĉ!ĈćĈ!Ĉ!": 2300,
      ")!!": 2301,
      "ć%&'(ććććććĈ!ć": 2302,
      "ćĈĈćĈćĈĈćĈĈ": 2303,
      "ďĉ!%&'(ďĉďĉ!ďĉ!ďĉďĉďĉ!ďĉ!ďĉ!!ďĉ": 2304,
      "00110011": 2305,
      "%&'(ďĉďĉ!ďĉ!!ďĉ!ďĉďĉďĉďĉ!": 2306,
      "ćććĈ!Ĉ!ćĈ!Ĉ!ćĈ!ćĈ!ćĈ!ĈĈ!Ĉ!ćĈ!ćĈ!Ĉ!Ĉ!": 2307,
      "ďĉďĉďĉďĉ!ďĉďĉ!!ďĉďĉďĉďĉďĉďĉďĉ!ďĉ!ďĉć%&'(ććććććĈ!ć": 2308,
      "ďĉďĉďĉďĉ!ďĉďĉ!!ďĉďĉďĉďĉďĉďĉďĉ!ďĉ!ďĉć%&'(ććććććĈ!ćČČďĉďĉďĉ!!!!!ďĉďĉďĉ!ďĉďĉćććććĈ!Ĉ!ćĈĈ": 2309,
      "%Ĉ": 2310,
      "ććć%&'(": 2311,
      "&'(!!!!!!!!!!!!!!!ďĉ!!!!!!!!!!!!!!!!!!!!!!!!!!!!!!!!!!!!!!!!!!!!!!!!!!!!!!!!!!!!!!!!": 2312,
      "!!!!!!!!!!!!ďĉ!!ďĉ!!!!!!!!!!!": 2313,
      "ćďĉ%&'(ďĉ": 2314,
      "ćććĈĈ!ćĈ!Ĉ!ĈćĈĈĈćĈĈĈćĈĈćććććďĉďĉďĉĈ!ĈĈĈĈĈ!ćĈ!Ĉ!ĈćĈĈĈ": 2315,
      "ďĉ!!ďĉďĉďĉ!ďĉ!!!!!!!!!!!!!!!!!!!!!!!!!!!!!!!!!!!!!!!!!!!!!!!!!!!!": 2316,
      "Ĉ!ĈćĈ!Ĉ!Ĉ!ĈćĈ!ććďĉ!Ĉ!ĈćĈ!Ĉ!Ĉ!ĈćĈ!ććďĉďĉ!ďĉďĉ%&'(ćĈ!Ĉ!Ĉ!Ĉ!Ĉ!Ĉďĉ": 2317,
      "777'7777(788888888,-%&+01": 2318,
      "ćĈ!ćĈ!Ĉ!ćĈ!Ĉ!Ĉ!ćĈ!Ĉ!ćďĉ!ďĉďĉďĉďĉďĉďĉďĉďĉ)": 2319,
      "ďĉďĉďĉďďĉĉ": 2320,
      "%ď&'(ĉďĉďĉ!": 2321,
      "ďĉďĉ%&'(ďĉďĉďĉďĉďĉďĉ": 2322,
      "ďďďĉĉĉ": 2323,
      "Ĉ!ĈĈ!ĈĈĈĈ!ĈĈ!ĈďĉĈ!ĈĈĈĈĈĈĈĈ!ĈĈĈ": 2324,
      "&'(!!!!!!!!!!!!!!!!!!!!!!Ĉ!ďĉďĉćĈ!ďĉ!ććĈ!%&'(Ĉ!Ĉ!ĈćĈ!Ĉ!Ĉ!Ĉ!Ĉ!Ĉ!Ĉ!Ĉ!Ĉ!Ĉ!ďĉďĉ!ďĉ%&'(ćććććććććććććććććĈ!Ĉ!ćĈĈ!ćĈ!ćĈ!Ĉ": 2325,
      "ďĉ!ďĉ!!!!!!!!!!!ďĉ!!ďĉďĉďĉďĉďĉďĉ!ďĉďĉďĉďĉďĉďĉ%&'(ďĉďĉ!ďĉďĉďĉćććććĈ!Ĉ!Ĉ!ćĈĈćĈ%&'(ďĉďĉ": 2326,
      "ďĉ!ďĉď%&'(ĉ": 2327,
      "ďĉďĉ!!ďĉ!!ďĉ!!!!!!)!!!!!!!!)!": 2328,
      "!!!!!ďĉďĉďĉ!ďĉďĉćććććĈ!Ĉ!ćĈĈćďĉćĈ!ććĈ!ćĈ!Ĉ": 2329,
      "ďĉ%&'(ďĉďĉ!": 2330,
      "%ď&'(ĉďĉďĉ": 2331,
      "&'(!!!!!!!!!!!!!!!!!!!!!!!!!!!!!!!!!!!!!!!!!!!!!!!!!!!!!!!!!!!!!!!!!!!!!!!!!!!!!!!!!!!!!!!!!!!!!!!!!!!!!!!!!!!!!!!!!!!!!!!!!!!!!%!!!!!!!!!!!": 2332,
      "%&'(ďĉ!!!ďĉďĉďĉďĉďĉďĉďĉďĉ!": 2333,
      "001101010011": 2334,
      "ććććććĈ!ććĈ!Ĉ!Ĉ!ĈćĈ!Ĉ!ĈćĈććĈĈ!ĈĈĈ%&'(ďĉ!!!ďĉďĉďĉďĉďĉďĉďĉďĉ!": 2335,
      "ďĉ!ďĉĈ!Ĉ!ćĈ!Ĉ!ĈĈĈďĉ!ďĉ!!!SĂĄĆ!!ďĉ!!!!!!RTVa!!!S%&'(ĂĄĆ!!!!R!!!S": 2336,
      "&'(ććććććććĈ!ćććĈ!Ĉ!ćĈ!ďĉćĈ!Ĉ!ĈćĈ!ďĉćććććććĈ!ćĈ!%&'(ćďĉ!ďĉďĉ!!!": 2337,
      "ććĈ!Ĉďĉ%&'(Ĉ!Ĉ!ĈĈĈĈĈĈĈĈĈĈĈĈĈĈĈĈĈĈĈĈĈĈĈĈďĉ!ćććććĈ!Ĉ!Ĉ!Ĉ!Ĉ!Ĉ!ćĈ!Ĉ!Ĉ!ćĈ!Ĉ!ćĈ!Ĉ!Ĉ!ćĈ!Ĉ!ćĈ!ćĈ!ćĈ!ćĈ!Ĉ!Ĉ!Ĉć%&'(ďĉ!!!!!!!!!ďĉďĉďĉďĉďĉ)!)ďĉďĉďĉćććĈ!Ĉ!Ĉ!ĈĈ!Ĉ!ćĈ!Ĉ!Ĉ!ĈćĈ!Ĉ!Ĉ!Ĉ": 2338,
      "ćďĉďĉćććĈ!ćĈ!Ĉ!Ĉ!ćĈ!Ĉ!ćĈ!Ĉ!Ĉ!Ĉ!ćĈ!Ĉ!ćĈ!ćĈ!ćĈ!ćĈ!Ĉ!Ĉ!Ĉ!Ĉ!Ĉ!Ĉ!Ĉ!Ĉ!ĈĈ!%&'(ďĉ!!!!!!!!!!!!!!!!!!!!!!!!!!!!!!!!!!!!!!!!!!!!!ďĉďĉďĉďĉďĉ!!ďĉ!!ďĉďĉďĉ)!)": 2339,
      "ďĉ!ďĉĈ!Ĉ!ćĈ!Ĉ!ĈĈĈďĉ!ďĉ!!!SĂĄĆ!!ďĉ!!!!!!RTVa!!!S%&'(ĂĄĆ!!!!R!!!SćććććććĈ!Ĉ!ćĈ!ĈćĈĈ!Ĉ!ćĈ!ĈĈ!ććĈ!ćĈ!ććĈćĈććć!!": 2340,
      "ćďĉ!ďĉďĉďĉďĉ": 2341,
      "ďĉď%ĉ&'(": 2342,
      "Ĉ!ĈĈĈ!ĈĈĈćďĉďĉ!ďĉďĉć%&'(Ĉ!Ĉ!Ĉ!Ĉ!Ĉ!Ĉ!ĈĈĈ!ĈĈĈĈ!ĈĈ!Ĉ!Ĉ!Ĉ!ĈĈĈ!Ĉ!ĈĈ!ĈĈ!Ĉ!Ĉ!Ĉ!Ĉ!Ĉ!ĈĈĈĈ!ĈĈĈĈĈĈĈ!Ĉ!Ĉ!ĈĈ!Ĉ%&'(ďĉĈ!Ĉ!Ĉ!Ĉ!ĈĈĈ!Ĉ!Ĉ!ĈĈĈĈ!Ĉ!ĈĈ!Ĉ!Ĉ!ĈĈĈĈ": 2343,
      "ĈĈĈĈĈĈĈĈĈĈĈĈĈĈ!Ĉ!Ĉ!Ĉ!ĈĈĈĈĈ!Ĉ!Ĉ!Ĉ!Ĉ!Ĉ!ĈĈ!ĈĈ!ĈĈ!ĈĈĈ!ĈĈĈĈĈ!ĈĈĈĈĈĈ!Ĉ!ĈĈ!ĈĈĈĈ!ĈĈĈĈĈĈĈĈ%&'(ďĉćĈ!Ĉ!Ĉ!Ĉ!Ĉ!Ĉ!ĈĈďĉ%&'(!!!": 2344,
      "ć%&'(ďĉďĉćććĈ!ćĈ!Ĉ!Ĉ!ćĈ!Ĉ!ćĈ!Ĉ!Ĉ!Ĉ!ćĈ!Ĉ!ćĈ!ćĈ!ćĈ!ćĈ!Ĉ!Ĉ!Ĉ!Ĉ!Ĉ!Ĉ!Ĉ!Ĉ!ĈĈ!": 2345,
      "ćďĉ!ććććććććĈ!Ĉ!ćĈĈćĈ!ĈĈćĈ!ćĈĈćĈ!Ĉ!ć%&'(ďĉďĉćććĈ!ćĈ!Ĉ!Ĉ!ćĈ!Ĉ!ćĈ!Ĉ!Ĉ!Ĉ!ćĈ!Ĉ!ćĈ!ćĈ!ćĈ!ćĈ!Ĉ!Ĉ!Ĉ!Ĉ!Ĉ!Ĉ!Ĉ!Ĉ!ĈĈ!": 2346,
      "!!!!!!!!!!!!!!ďĉďĉ!ďĉ!)ďĉďĉďĉćďĉďĉ!ďĉďĉďĉ!!ďĉ!!!!%&'(ďĉďĉďĉďĉďĉďĉďĉ!!!!!!!!!!!ďĉ!!!!!!!!!!!!!!!!!!!!!!!!!!!!!!!!!!!!!!!!!!!!!!!!!!!!!!!!!!!!!!!!": 2347,
      "ćĈ!ćććć": 2348,
      "%&'(ďĉ!!!!!!!!!!!!!!!!!!!!!!!!!!!!!!!!!!!!!!!!!!!!!!!!": 2349,
      "ďĉďĉďĉďĉďĉďĉďĉďĉďĉďĉďĉďĉďĉ": 2350,
      "%!!&'(!!!!!!!!!!!!!!!!!!!!!!!!!!!!!!!!!!!!!!!!!!!!!!!!!!!!!!!!!!!!!!!!": 2351,
      "ď!ď!": 2352,
      "ććććĈ!ćĈ!Ĉ!Ĉ!ĈĈ!Ĉ!Ĉ!ĈććĈ!ćďĉććććććććĈ!Ĉ!Ĉ!Ĉ!ćĈĈĈĈ!Ĉ!ćĈ!": 2353,
      "33222323": 2354,
      "ććĈ!Ĉ!ĈĈĈ!!ćĈ!Ĉ!Ĉ!Ĉ!ćďĉďĉ!!ďĉďĉďĉďĉććććĈ!ĈĈ!ćĈ!ĈĈ!Ĉ!Ĉ!ćĈ!ćĈ": 2355,
      "ćĈ!ĈćććććććĈ": 2356,
      "&'(!!!!!!!!!!!!!!!!!!!!!!!!!!!!!!!!!!!!!!!!!!!!!!!!!!!!!!!!!!!!!!!!!!!!!!!!!!!!!!!!!!!!!!!!!!!!!!!!!!!!!!!!!!!!!!!!!!!!!": 2357,
      "ďĉďĉ%&'(ďĉďĉďĉ!!": 2358,
      "ďĉďĉ!ďĉďĉĈ!": 2359,
      "&'Ĉ(!": 2360,
      "ćďĉďĉ%&'(ćććććććĈ!Ĉ!Ĉ!ćĈ!Ĉ!Ĉ!ćďĉ!ććććĈ!ćĈ!Ĉ!Ĉ!ćĈ!Ĉ!Ĉ!Ĉ!ćĈ!Ĉ!Ĉ!Ĉ!ćĈ!Ĉ!ćĈ!ĈćĈ!Ĉ!": 2361,
      "ĈĈĈĈĈĈĈĈĈĈĈĈĈĈ!Ĉ!Ĉ!Ĉ!ĈĈĈĈĈ!Ĉ!Ĉ!Ĉ!Ĉ!Ĉ!ĈĈ!ĈĈ!ĈĈ!ĈĈĈ!ĈĈĈĈĈ!ĈĈĈĈĈĈ!Ĉ!ĈĈ!ĈĈĈĈ!ĈĈĈĈĈĈĈĈ%&'(ďĉćĈ!Ĉ!Ĉ!Ĉ!Ĉ!Ĉ!ĈĈďĉ!!!": 2362,
      "ććććććććććććććććććććććććććĈ!ćććĈ!Ĉ!ćĈ!Ĉ!ćĈ!ćĈ!ćĈ!ĈĈ!Ĉ!%&'(ćĈ!ćĈ!Ĉ!Ĉ!ďĉďĉ!": 2363,
      "%&'(!!!!!!": 2364,
      "ďĉ!!ďĉďĉ!!ďĉ!ďĉ!!": 2365,
      "ďĉďĉďĉććĈ!Ĉ!ćĈĈ!ćĈ!Ĉ!Ĉ!Ĉ!Ĉ!ĈĈĈćĈ!Ĉ!Ĉ!ćďĉććć": 2366,
      "ďĉďĉďĉďĉďĉďĉRTVa": 2367,
      "ďĉďĉ!!!!ďĉďĉ": 2368,
      "ććĈ!Ĉ!Ĉ!Ĉ!Ĉ!Ĉ!ććĈ!ćďĉ!ďĉććććĈ!ćĈ!ĈĈ!ććĈ!ćĈ!ĈĈ!ćĈ!Ĉ!ćĈ!ďĉ!": 2369,
      "ďĈĈĉ": 2370,
      "ćĈ!ĈĈ!ĈĈ!ĈĈ!ĈĈĈĈĈĈĈĈĈĈĈĈĈĈĈĈĈĈĈĈĈĈĈĈĈĈĈĈ!Ĉ!Ĉ!Ĉ!ĈĈĈĈĈĈĈĈĈ!Čďĉ!ćććććććĈ!Ĉ!ććććććĈ!ćĈĈ%&'(ďĉďĉĈ!ĈĈďĉ!!)!)!!!!!!!!!!!!!!!!ďĉďĉďĉ!ďĉ%&'(!ďĉ!ďĉ!ďĉďĉ!!": 2371,
      "ď&'(ĉ": 2372,
      "!!!!!!!!!!ćććććććććććĈ!ĈćĈ!Ĉ!ĈćĈ!ćďĉďĉ!!ćććĈ!Ĉ!ćĈ!Ĉ!ĈĈĈĈ!ććĈ": 2373,
      "%!!!!!!!!!!!!!!!!!!!!!!!!!!!!!!!!!!!!!!!": 2374,
      "&'(!!!!!!!!!!!!!!!!!!!!!!)!)!!!!!!!!!!!!!!!!!!!!!!!!!!!!!!!!!!!!!!!!!!!!!!!!!!!!!!!!!!!!!!!!!!!!!!!!!!!!!!!!": 2375,
      "ďĉ!!!!!!!!!!!!!!!!!!!!!ďĉ": 2376,
      ")!)!!!!!!!!!!!!!!!!!!!!!!!!!!!!!!!!!!!!!!!!!!!!!!!!!!!!!!!!!!!!!!!)!)!!!!!!!!!!!!!!!!!!!!!!!!!!!!!!!!": 2377,
      "ďĉďĉďĉďĉďĉďĉďĉďĉ!!!ďĉďĉďĉďĉććĈ!Ĉ!Ĉ!Ĉ!Ĉ!Ĉ!": 2378,
      "ďĉďĉďĉĈ!Ĉ!Ĉ!Ĉ!Ĉ!ćĈ!ĈĈĈĈćĈ!ćĈ!ć%&'(ďĉďĉďĉďĉ!": 2379,
      "Ĥ!": 2380,
      "%!&'(!!!": 2381,
      "ďďďĉĉ": 2382,
      "ďĉďĉ!!ďĉ!!!!!!!!!": 2383,
      "&'(!!!!!!!!!!!!!!!!!!!!!!!!!!!!!!!!!!!!!!!!!!!!!!!!!!!!!!!!!!!!!!!!!!!!!!!!!!!!!!!!!!!!!!!!!!!!!!!!!!!!!!!!!!!!!!!!!!!!!!!!!!!!!!!!!!!!!!%!!!!!!!!!!!!!!!": 2384,
      "ććććĈ!ćĈ!Ĉ!Ĉ!ćĈ!Ĉ!Ĉ!Ĉ!ćĈ!Ĉ!Ĉ!Ĉ!ćĈ!Ĉ!ćĈ!ĈćĈ!Ĉ!ćĈ!ćĈ!ćĈ!ćĈ!ćĈ!Ĉ!ćĈ!ćĈ!Ĉ!Ĉ!ćĈ!Ĉ!Ĉ!ććĈ!Ĉ!Ĉ!ĈćĈ!Ĉ!ććĈ!ććĈ!ćĈ!Ĉ!ćĈććĈ!Ĉ!%&'(ďĉĈ!Ĉ!Ĉ!Ĉ!Ĉ!Ĉ!ĈĈĈĈĈĈĈĈĈĈĈĈĈĈĈĈĈĈĈĈĈĈĈĈĈĈĈĈĈĈĈĈĈĈĈĈĈĈĈĈĈĈĈĈĈĈĈĈĈ!Ĉ!ĈĈĈĈĈ!Ĉ!Ĉ!": 2385,
      "%&'(%&'(%&'(%&'(%&'(%&'(%&'(%&'(%&'(%&'(%&'(%&'(%&'(%&'(%&'(%&'(%&'(%&'(%&'(%&'(%&'(%&'(%&'(%&'(%&'(%&'(%&'(%&'(%&'(%&'(%&'(%&'(%&'(%&'(%&'(%&'(%&'(%&'(%&'(%&'(%&'(%&'(%&'(%&'(%&'(%&'(%&'(%&'(%&'(%&'(%&'(%&'(%&'(%&'(%&'(%&'(%&'(%&'(%&'(%&'(%&'(%&'(%&'(%&'(%&'(%&'(%&'(%&'(%&'(%&'(%&'(%&'(%&'(%&'(%&'(%&'(%&'(%&'(%&'(%&'(%&'(%&'(%&'(%&'(%&'(%&'(%&'(%&'(%&'(%&'(%&'(%&'(%&'(%&'(%&'(%&'(%&'(%&'(%&'(%&'(%&'(%&'(%&'(%&'(%&'(%&'(%&'(%&'(%&'(%&'(%&'(%&'(%&'(%&'(%&'(%&'(%&'(%&'(%&'(%&'(%&'(%&'(%&'(%&'(%&'(%&'(%&'(%&'(%&'(%&'(%&'(%&'(%&'(%&'(%&'(%&'(%&'(%&'(%&'(%&'(%&'(%&'(%&'(%&'(%&'(%&'(%&'(%&'(%&'(%&'(%&'(%&'(%&'(%&'(%&'(%&'(%&'(%&'(%&'(%&'(%&'(%&'(%&'(%&'(%&'(%&'(%&'(%&'(%&'(%&'(%&'(%&'(%&'(%&'(%&'(%&'(%&'(%&'(%&'(%&'(%&'(%&'(%&'(%&'(%&'(%&'(%&'(%&'(%&'(%&'(%&'(%&'(%&'(%&'(%&'(%&'(%&'(%&'(%&'(%&'(%&'(%&'(%&'(%&'(%&'(%&'(%&'(%&'(%&'(%&'(%&'(%&'(%&'(%&'(%&'(%&'(%&'(%&'(%&'(%&'(%&'(%&'(%&'(%&'(%&'(%&'(%&'(%&'(%&'(%&'(%&'(%&'(%&'(%&'(%&'(%&'(%&'(%&'(%&'(%&'(%&'(%&'(%&'(%&'(%&'(%&'(%&'(%&'(%&'(%&'(%&'(%&'(%&'(%&'(%&'(%&'(": 2386,
      "&'(ďĉ!!!!!!!!!ćććĈ!Ĉ!Ĉ!Ĉ!Ĉ!Ĉ!ĈĈĈĈĈĈĈĈĈĈĈĈďĉ!!!!!!!!!!!!!!!!!!!!!!!!!!!!!!!!!!!!!!!!!!!!!!!!!!!!!!!!!!!!!!)!)!!!!!!!!!ććććĈ!ĈĈ%&'(ďĉ!!!!!!!!!!!!!!!!!!!!!!!!!!!!)!)!!!!!!!!!!!!!!!!!!!!!!!!!!!!!!!!)!)!!)!)!!!!!!!!!!!!!!!!": 2387,
      "ďĉ!!ďĉ%&'(ďĉďĉćććĈ!Ĉ!Ĉ!Ĉ!ĈĈĈĈĈĈĈĈĈĈ!ćĈ!Ĉ!ĈćĈĈćĈćĈĈĈćĈĈďĉĈ!ĈĈĈĈ": 2388,
      "ďĉ!!!!!!!": 2389,
      "ďĉďĉććĈ!Ĉ!Ĉ!ćĈ!": 2390,
      "ďĉ!ďĉ!ďĉ%&'(ďĉďĉďĉďĉ": 2391,
      "ďĉďĉďĉćďĉ!ďĉďĉďĉďĉ": 2392,
      "&'(!!!!!!!!!!!!!!!!!!!!!!!!!!!!!!!!!!!!!!!!!!!!!!!!!!!!!!!!!!!!!!!!!!!!!!!!!!!!!!!!!!!!!!!!!!!!!!!!!!!!!!!!!!!!!!!!!!!!!!!!!!!!!%!!!!!!!!!!!!!!!!!!": 2393,
      "ćĈ!Ĉ!ćĈ!ćĈ!Ĉ!ćĈ!Ĉ!ćĈ!Ĉ": 2394,
      "ďĉ!ďĉďĉďĉďĉďĉďĉďĉćďĉ!ďĉďĉďĉďĉ!!ďĉ%&'(ďĉďĉďĉďĉďĉďĉ!ďĉďĉďĉďĉ!!": 2395,
      "ďĉ!ďĉ!ďĉďĉďĉďĉ!": 2396,
      "01000111": 2397,
      "%Ĉ&'(!Ĉ!": 2398,
      "&'(!!!!!!!!!!!!!!!!!!!!!!!!!!!!!!!!!!!!!!!!!!!!!!!!!!!!!!!!!!!!!!!!!!!!!!!!!!!!!!!!!!!!!!!!!!!!!!!!!!!!!!!!!!!!!": 2399,
      "%&'(ďĉďĉ!ďĉďĉďĉďĉďĉďĉďĉďĉ!": 2400,
      "&'(!!!!!!!!!!!!!!!!!!!!!!!!!!!!!!!!!!!!!!!!!!!!!!!!!!!!!!!!!!!!!!!!!!!!!!!!!!!!!!!!!!!": 2401,
      "ć%&'(ďĉ!ďĉďĉ!!!": 2402,
      "ćĈ!Ĉ!ĈćĈ!ďĉćććććććĈ!ćĈ!ć%&'(ďĉ!ďĉďĉ!!!": 2403,
      "%&-+01'(32222224%&52226'(78,%&-+01'(32222224%&52226'(78,%&-+01'(32222224%&52226'(78,%&-+01'(32222224%&52226'(78,%&-+01'(32222224%&52226'(78,%&-+01'(32222224%&52226'(78,%&-+01'(32222224%&52226'(78,%&-+01'(32222224%&52226'(78,%&-+01'(32222224%&52226'(78,%&-+01'(32222224%&52226'(78,%&-+01'(32222224%&52226'(78,%&-+01'(32222224%&52226'(78,%&-+01'(32222224%&52226'(78,%&-+01'(32222224%&52226'(78,%&-+01'(32222224%&52226'(78,%&-+01'(32222224%&52226'(78,%&-+01'(32222224%&52226'(78,%&-+01'(32222224%&52226'(78,%&-+01'(32222224%&52226'(78,%&-+01'(32222224%&52226'(78,%&-+01'(32222224%&52226'(78,%&-+01'(32222224%&52226'(78,%&-+01'(32222224%&52226'(78,%&-+01'(32222224%&52226'(78,%&-+01'(32222224%&52226'(78,%&-+01'(32222224%&52226'(78,%&-+01'(32222224%&52226'(78,%&-+01'(32222224%&52226'(78,%&-+01'(32222224%&52226'(78,%&-+01'(32222224%&52226'(78,%&-+01'(32222224%&52226'(78,%&-+01'(32222224%&52226'(78,": 2404,
      "ĥďĉĈ!ĈĈ!ďĉćĈ!Č": 2405,
      "C!": 2406,
      "ćĈĈ!Ĉ!": 2407,
      "ćĈĈćĈĈćĈĈćĈćĈĈćĈĈ": 2408,
      "ćĈ!ĈĈ!ćĈ!ĈćććććććĈ": 2409,
      "ďĉ!ďĉďĉďĉďĉďĉďĉďĉďĉ!!": 2410,
      "32232323": 2411,
      "ćććĈ!Ĉ!Ĉ!Ĉ!ĈĈĈĈĈĈĈĈĈĈ!ćĈ!Ĉ!ĈćĈĈćĈćĈĈĈćĈĈ%&'(ďĉĈ!Ĉ!ĈĈĈĈ!Ĉ!Ĉ!ĈĈĈĈĈĈĈĈĈĈ!ĈĈĈ!ĈĈ!ĈĈĈĈ!ĈĈ!ĈďĉĈ!ĈĈĈĈĈĈĈĈ!ĈĈĈ!": 2412,
      "Ħ%&'(%&'(%&'(%&'(%&'(%&'(%&'(%&'(%&'(%&'(%&'(%&'(%&'(%&'(%&'(%&'(%&'(%&'(%&'(%&'(%&'(%&'(%&'(%&'(%&'(%&'(%&'(%&'(%&'(%&'(%&'(%&'(%&'(%&'(%&'(%&'(%&'(%&'(%&'(%&'(%&'(%&'(%&'(%&'(%&'(%&'(%&'(%&'(%&'(%&'(%&'(%&'(%&'(%&'(%&'(%&'(%&'(%&'(%&'(%&'(%&'(%&'(%&'(%&'(": 2413,
      "ďĉďĉďĉ)!)ďĉďĉďĉďĉďĉďĉ!!!": 2414,
      "%!!!!!!!!!!!!!!!!!!!!!!!!!!!!!!!!!!!": 2415,
      "!!!!!!!!!!!!!!!!!!!!!!!!!!!!!!!!!!!!!!!!!!!!!!!!!!!!!!!!!!!!!!!!!!!!!!!!!!!!!!!!!!!!!!!!!!!!!!!!!!!!!!!!!!!!!!!!!!!!!!!!!!!!!!!!!!!!!!!!!!!!!!!!!!!!!!!!!!!!!!!!!!!!!!!!!!!!!!!!!!!!!!!!!!!!!!!!!!!!!!!!!!!!!!!!!!!!!!!!!!!!!!!!!!!!!!!!!!!!!!!!!!!!!!!!!!!!!!!!": 2416,
      "ćććĈ!Ĉ!Ĉ!ćĈ!Ĉ!Ĉćďĉďĉďĉďĉ": 2417,
      "ćććććććĈ!ćĈ!Ĉ!Ĉ!Ĉ!Ĉ!ćĈ!Ĉ!ćĈććĈćďĉćĈ!Ĉ!Ĉ!Ĉ!Ĉ!Ĉ!Ĉ!Ĉ!ćĈ!ćĈ!Ĉ!ĈćĈ!Ĉ!ďĉćĈ!": 2418,
      "ć%&'(ćććććĈ!Ĉ!Ĉ!ćĈ!Ĉ!Ĉ!Ĉ!Ĉ!!": 2419,
      "ďĈĈĈĉ": 2420,
      "ďĉďĉďĉĈ!Ĉ!Ĉ!Ĉ!Ĉ!ćĈ!ĈĈĈĈćĈ!ćĈ!ć%&'(ďĉďĉďĉďĉ!ďĉ!ďĉďĉćĈ!Ĉ!Ĉ!ććĈ!ćĈ!Ĉ!Ĉ!ćĈ!Ĉ!ćĈ!ćĈ!ćĈ!ćĈćĈ!Ĉ!ĈĈćĈćĈĈĈĈĈĈĈĈĈĈĈĈ%&'(ďĉ!!ďĉďĉďĉďĉďĉďĉ!ďĉďĉ!ďĉďĉďĉ!!": 2421,
      "3232222222222222222222222222222222222222222244444444%&5555555522222222222222222222222266666666": 2422,
      "ďĉ!!!!!!!!!!!!!!!!!ďĉ": 2423,
      "%!!&'(!!!!!!!!!!!!!!!!!!!!!!!!!!!!!!!!!!!!!!!!!!!!!!!!": 2424,
      "ďĉ!ďĉďĉďĉďĉďĉďĉďĉďĉďĉďĉďĉďĉďĉďĉďĉ": 2425,
      "Ĉ!ďĉ!ďĉďĉďĉďĉďĉ": 2426,
      "ďĉďĉ%&'(ďĉďĉćĈ!ĈĈ!Ĉ!ďĉ!ďĉ!ďĉďĉďĉ!!": 2427,
      "&'(!!!!!!!!!!!!!!!!!!!!!!!!!!!!!!!!!!!!!!!!!!!!!!!!!!!!!!!!!!!!!!!!!!!!!!!!!!!!!!!!!!!!!!!!!!!!!!!!!!!!!!!!!!!!%!!!!!!!!!!!!!!!!!!!!!!": 2428,
      "&'(!!!!!!!!!!!!!!!!!!!!!!!!!!!!!!!!!!!!!!!!!!!!!!!!!!!!!!!!!!!!!!!!!!!!!!!!!!!!!!!!!!!!!!!!!!!!!!!!!!!!!!!!!!!!!!!!!!!!!!!!!!ďĉććĈĈĈĈĈ%&'(ďĉďĉ)!)!!ďĉďĉ!!!!!!!!!!!!!!!!!!!!!!!!!!!!!!!!!!!!!!!!!!!!!!!!!!!!!!!!!!!!!!!!!!!!!!!!!!!!!!!!": 2429,
      "&'(!!!!!!!!!!!!!!!!!!!!!!!!!!!!!!!!!!!!!!!!!!!!!!!!!!!!!!!!!!!ďĉ!)!)!!!!!!!!!!ďĉ!!!!!!": 2430,
      "A!": 2431,
      "ĉďĉďĉ": 2432,
      "%&'(ćĈ!Ĉ!": 2433,
      "ćĈ!ćĈďĉďĉďĉďĉ!ďĉďĉďĉďĉ!ďĉ!!": 2434,
      "ć%&'(ďĉďĉďĉ": 2435,
      "ďĉ!!!!!ďĉ!ďĉďĉďĉďĉďĉďĉďĉ": 2436,
      "ďĈ!Ĉĉ": 2437,
      "ćĈ!ď": 2438,
      "%!&'(!!!!!!!!!!!!!!!": 2439,
      "ć%&'(!!!!!!!!!!!!!!!!!!!!!!!!!!!!!!!!!!!!!!!!!!!!!!!!!!!!!!!": 2440,
      "ď!ď": 2441,
      "%ć&ć'(": 2442,
      "%&'(ďĉďĉďĉďĉďĉďĉďĉďĉďĉďĉďĉďĉ": 2443,
      "ďĉďĉďĉ!!ďĉďĉ!ďĉ!!ďĉććććććĈ!ććĈ!ććĈ!Ĉ!Ĉ!Ĉ!ćććĈ!Ĉ!Ĉ!ććĈćĈ!Ĉ!ĈćĈ!Ĉ!ćĈ!ććĈĈĈĈĈćĈćĈ%&'(ďĉćććććĈ!ĈĈćĈĈćĈďĉćććććććć": 2444,
      "!!!!!!!!!!!!!!!!!!!!!!!!!!!!!!!!!!!ćććććććććććĈ!Ĉ": 2445,
      "ććĈĈćĈĈĈććĈĈććĈćććĈĈĈĈĈćĈĈćĈćĈĈćĈĈćĈĈĈĈĈćĈćĈĈćĈĈćĈćĈćĈććĈćĈćĈćĈćĈ!ćĈćĈćĈćĈćĈćĈćĈćĈćĈćĈćĈćĈććĈ!Ĉ!ććĈ!ććććĈćĈćĈćĈććććĈ!Ĉ!ććĈ!ĈććććĈćĈćĈćĈćĈćĈćĈćĈćĈćĈć%&'(!!!!!!!!!!!!!!!!!!!!!!!!!!!!!!!!!!!!!!!!!!!!!!!!!!!!!!!": 2446,
      "!%!!!!!!!!!!!!": 2447,
      "ĈĈĈ!": 2448,
      "Ĉ!Ĉ!Ĉ!Ĉ!ĈĈĈ!ĈĈĈ": 2449,
      "ďĉ!!)ďĉďĉ!": 2450,
      "Ĉ!Ĉ!ĈĈ!Ĉ!Ĉ!": 2451,
      "ďĉ!ďĉ%ď&'(ĉ": 2452,
      "ćććććććććććććććććććććććććć": 2453,
      "ććć%ć&'(": 2454,
      "%!!!!!!!!!!!!!!!!!!!!!!!!!!!!!!!!!!!!!!!!!": 2455,
      "ĈćĈĈćĈćĈĈĈćĈĈďĉ": 2456,
      "!!!!!!!!!!!!!!!!!!!!!!!!!!!!!!!!!!!!!!!!!!!!!!!!!!!!!!!!!!!!!!!!!!!!!!!!!!!!!!!!!": 2457,
      "&'(!!!!!!!!!!!!!!!!!!!!!!!!!!!!!!!!!!!!!!!!!!!!!!!!!!!!!!!!!!!!!!!!!!!!!!!!!!!!!!!!!!!!!!!!!!!!!!!!!!!!!!!!!!!!!!!!!!!!!!!!!!!!!!!!!!!!!!!!%!!!!!!!!!!": 2458,
      "ďĉďĉďĉďĉ!!!!ďĉ!!ďĉďĉďĉďĉďĉďĉďĉďĉ!ćĈ!Čďĉďĉ!": 2459,
      "ćĈ!Ĉ!ćĈ!ćĈ!Ĉ!ćĈ!Ĉ!ćĈ!ĈćĈĈćĈĈćĈĈćĈćĈĈćĈĈ": 2460,
      "Ėē": 2461,
      "ćĈ!ćĈ!ćĈĈ": 2462,
      "%&'(%&'(%&'(%&'(%&'(%&'(": 2463,
      "ďĉďĉďĉ)!)": 2464,
      "Ĉ!Ĉ!Ĉďĉ!!!!!!!!!!!!!!!!!!!!!!!!!!!!!!!!!!!!!!!!!!!!!!!!!!!!!!!!!!!!!!!!": 2465,
      "ďĉ%&'(ďĉ!": 2466,
      "ďĉ!!!!!!!!!!!!!!!!!!!!!!!": 2467,
      "&'(!!!!!!!!!!!!!!!!!!!!!!!!!!!!!!!!!!!!!!!!!!!!!!!!!!!!!!!!!!!!!!!!!!!!!!!!!!!!!!!!!!!!!!!!!!!!!!!!!!!!!!!!": 2468,
      "ďĉ!!!!!!!!!!!!!!!!!!!!!!!!!!!!!!!!!!!!!!!!!!!!!!!!!!!!!!!!!!!!!!!!!!!!!!!!!!!!!!!!!!!!!!!!!!!!!!!!": 2469,
      "&'(!!!!!!!!!!!!!!!!!!!!!!!!!!!!!!!!!!!!!!!!!!!!!!!!!!!!!!!!!!!!!!!!!!!!!!!!!!!!!!!!!!!!!!!!!!!!!!!!!!!!!!!!!!!!!!!!!!!!!!!!!!!!!!!!!!!!!!%!!!!!!!!!!!!!!!!!!!!!!": 2470,
      "L!LK!LK!LK": 2471,
      "ďĉďĉďĉďĉďĉ!!ďĉ!!ďĉďĉďĉ)!)ďĉďĉďĉďĉďĉ!)!)!ďĉďĉ!!!)!)!!": 2472,
      "ē!Ħ": 2473,
      "ďĉďĉćććććććĈĈććććććĈ!ćĈĈ%&'(ďĉďĉ!!ďĉ!!!!!!!!!!!!!!!!!!!ććĈ!ćĈ!ćĈ!ćďĉ!!!!!!!!!!!!!!!": 2474,
      "ďĉ!!ďĉ)!!!)!!!!!": 2475,
      "!%!!!!!!!!!!!!!!!!!!!!!!": 2476,
      "%&'(ďĉ!ďĉďĉďĉćĈ!Ĉ!Ĉ!Ĉ!ĈĈ!Ĉ!Ĉ!Ĉ!": 2477,
      "%&'(ćććććććććććĈ!ćĈ!!ććĈ!ććĈ!ćĈ!Ĉ!Ĉ!Ĉ!Ĉ!Ĉ!ĈćĈĈĈĈ!ĈććĈ!ććććĈć!!": 2478,
      "%&'(ďĉ!ďĉ!!!!!!!!ććĈ!Ĉ!ĈćĈĈĈććĈĈĈććĈ!Ĉ!Ĉ!Ĉ!Ĉ!Ĉ!ćĈĈ!Ĉ!Ĉ!ćĈĈĈććĈĈ!ćććĈ!ććĈ!ćĈ!ĈĈĈćć!!!!%&'(ďĉ!!ďĉ!!ćĈ!Ĉ!Ĉ!Ĉ!Ĉ!Ĉ!Ĉ!ćĈ!ďĉ!!!!!!!!ďĉ!!!!!ćĈ!ĈćĈ!ćĈ!ĈĈ!ćĈ!Ĉ!ĈĈĈ!ĈĈĈććĈ!": 2479,
      "ćĈĈ!Ĉ": 2480,
      "!!!!!!!!!!!!!!!!!!!!!!!!!!!!!!!!!!!!!!!!!!!!!!!!!!!!!!!!!!!!!!!!!!!!!": 2481,
      "Ĉ!ĈĈ!Ĉ!": 2482,
      "ďĉďĉďĉďĉďĉďĉďĉďĉ!!!": 2483,
      "%!!&'(!!!!!!!!!!!!!!!!!!!!!!!!!!!!!!!!!!!!!!!!!!!!!!!!!!!!!!!!!!!!!!!!!!!!!!!!!!!!!!!!": 2484,
      "ď!Ĉ!ĉ": 2485,
      "ć!Ĉ": 2486,
      "ďĉ!!ďĉďĉďĉďĉďĉďĉ!ďĉďĉďĉďĉďĉďĉ!!": 2487,
      "ćććĈ!Ĉ!Ĉ!Ĉ!ĈĈĈĈĈĈĈĈĈĈ!ćĈ!Ĉ!ĈćĈĈćĈćĈĈĈćĈĈďĉ%&'(": 2488,
      "3222323232222222222222222222222222222222222222222244444444%&5555555522222222222222222222222266666666": 2489,
      "ćĈ!ďĉććĈ!Ĉ!Ĉ!Ĉ!ćĈ!Ĉ!!Ĉ!ćĈ!ćĈ!ććĈ!Ĉ!": 2490,
      "RTVa!!!SĂĄĆ!!!!R!!!SćććććććĈ!Ĉ!ćĈ!ĈćĈĈ!Ĉ!ćĈ!ĈĈ!ććĈ!ćĈ!ććĈćĈććć!!%&'(ďĉ!ďĉ!!ďĉďĉ!!ďĉ!!!!!!)!!!!!!!!)ďĉďĉďĉ!!": 2491,
      "ćĈ!ćĈ!Ĉ!Ĉ!ćĈ!Ĉ!Ĉ!ćĈ!Ĉ!Ĉ!ĈĈćĈĈ!Ĉďĉ!!!!!!!!!!!!!!!!!!!!!!!!!!!!!!!!": 2492,
      "ćďĉ#$ćĈ!ćć%&'(ďĉďĉ!!!!ďĉ!!)ďĉďĉ!ďĉďĉ%&'(!ďĉďĉďĉ!!ďĉďĉćĈ!Čďĉďĉďĉ!ďĉďĉ!ďĉďĉďĉ!ďĉďĉ!ďĉďĉďĉĈ!Ĉ!Ĉ!Ĉ!!Ĉ!Ĉ!Ĉ!Ĉ!!Ĉ!Ĉ!Ĉ": 2493,
      "ďĉďĉ!!ćććĈ!Ĉ!ćĈ!Ĉ!ĈĈĈĈ!ććĈďĉďĉććććććććććććććĈ!ććĈ!Ĉ!Ĉ!ĈćĈ!Ĉ!ĈćĈććĈĈ!ĈĈĈ%&'(ďĉ!!!ďĉďĉďĉďĉďĉďĉďĉďĉ!": 2494,
      "&'(!!!!!!!!!!!!!!!!!!!!!!!!!!!ććććććććććććČďĉďĉććĈ!ćĈ!ćĈ!ćĈ!ćĈćĈćĈćďĉďĉ": 2495,
      "ćďĉ!ďĉďĉďĉďĉ!!": 2496,
      "ďK": 2497,
      "ďĉďĉďĉďĉď%&'(ĉ": 2498,
      "%&'(ĉĉĉĉĉ": 2499,
      "ćďĉ!ďĉďĉďĉ%&'(ďĉďĉďĉďĉďĉ": 2500,
      "ďď!!": 2501,
      "!!!!RTVa": 2502,
      "ććććĈ!Ĉ!ćĈ!ćĈ!Ĉ!ććĈ!ĈććĈ!Ĉ!ćĈ!ćĈ!Ĉ!Ĉ!ćĈĈ!%&'(ďĉďĉďĉďĉ": 2503,
      "ďĉćććďĉ!ďĉďĉ!ďĉďĉćććććďĉ!": 2504,
      "ďĖĉ": 2505,
      "ďĉďĉďĉďĉ%&'(ďĉďĉ!": 2506,
      "ćĈć": 2507,
      "ďĉ!ďĉ%!&'(": 2508,
      "ďĉďĉďĉďĉďĉď%&'(ĉ": 2509,
      "LLLLLLLLLLLL": 2510,
      "%!!!!!!!!!!!!!!!!!!!!!!!!!!!!!!!!!": 2511,
      "&'(!!!!!!!!!!!!!!!!!!!!!!!!!!!!!!!!!!!!!!!!!!!!!!!!!!!!!!!!!!!!!!!!!!!!!!!!!!!!!!!!!!!!!!!!!!!!!!!!!!!!!!!!!!!!!!!!!!!!!!!!!!!!!!!!!!!!!%!!!!!!!!!!!!!!!!!!!!!!!": 2512,
      "Ĉ!Ĉććďĉ!ćĈ!ćĈ": 2513,
      "&'(!!!!ďĉććććĈ!ćĈ!ćĈ!ĈĈ!ććĈ!Ĉ!ČďĉćĈ!ćĈ!ćĈ!ćĈćĈ!ćĈ!Ĉ!ććĈ!ĈĈ!ćĈĈ!Ĉ!ĈćĈ!Ĉ!ĈĈĈĈĈĈććĈ!ćďĉ!!!!!!!!ďĉ!": 2514,
      "!!!!!!!!!!!!!!!!!!!!!!!!!!!!!!!!!!!!!!!!!!!!!!!!!!!!ďĉ!!!!!!!!!!!!": 2515,
      "&'(!!!!ďĉććććĈ!ćĈ!ćĈ!ĈĈ!ććĈ!Ĉ!ČďĉćĈ!ćĈ!ćĈ!ćĈćĈ!ćĈ!Ĉ!ććĈ!ĈĈ!ćĈĈ!Ĉ!ĈćĈ!Ĉ!ĈĈĈĈĈĈććĈ!ćďĉ!!!!!!!!ďĉ!ďĉ!%&'(": 2516,
      "ďĉ!ďĉďĉďĉďĉďĉďĉ!!%&'(ďĉ!ďĉďĉďĉďĉ!!ďĉďĉďĉ!ďĉ!ďĉ!ďĉ%&'(ććďĉďĉ)ćďĉ": 2517,
      "%ĈĈ&'(": 2518,
      "ďĉ!ďĉ!ďĉ!Ĉ!Ĉ!Ĉ!Ĉ!Ĉ!Ĉ!Ĉ!Ĉ!ĈĈĈ!ĈĈ!ĈĈĈ!Ĉ!ĈĈ!Ĉ!Ĉ!": 2519,
      "ďĉ!!!!!!!!!!!!!!!!!!!!!ďĉ!!!!!!!!!!!!!!ďĉďĉďĉďĉ": 2520,
      "ďĉďĉĈ!Ĉďĉ!ďĉ!ďĉ": 2521,
      "ćďĉďĉćć": 2522,
      ")!)!!!!!!!!!!!!!!!!!!!!!!!!!!!!!!!!!!!!!!!!!!!!!!!!!!!!!!!!!!!!!!!!!!!!!!!!!!!!!!!!!!!!!!!!!!!!!!!!!!!!": 2523,
      "&'(!!!!!!!!!!!!!!!!!!!!!!!!!!!!!!!!!!!!!!!!!!!!!!!!!!!!!!!!!!!!!!!!!!!!!!!!!!!!!!!!!!!!!!!!!!!!!!!!!!!!!!!!!!!!!!!!!!!!!!!!!!!!!!!!!!!!!%!!!!!!!!!!!!!!!!!!!!!!": 2524,
      "ćĈ!ććĈ!ćĈ!ĈďĉććććććććććććĈ!ćĈ!Ĉ!Ĉ!Ĉ!Ĉ!Ĉ!Ĉ!Ĉ!Ĉ!!ćĈĈĈĈ!Ĉ!ćĈ!Ĉ!ćĈĈĈćĈ!ĈĈĈĈĈ!Ĉ!ćĈ!ććĈ!ćĈ!ććĈ!ćĈććĈ!ćĈ!ćĈ!ĈćĈĈć%&'(ďĉĈ!ćĈ!Ĉ!Ĉ!ćĈ!Ĉ!Ĉ!ĈĈ!": 2525,
      "ħ)ę": 2526,
      "ď)ĉ": 2527,
      "ćććććĈ!ćĈ!Ĉ!ćĈĈ!Ĉ!Ĉ!Ĉ!ćĈćĈĈćĈ!Ĉ!Ĉ!ćĈ!Ĉ!Ĉ!Ĉ!ćĈ!Ĉ!ďĉ": 2528,
      "L!L": 2529,
      "ďħĉ": 2530,
      "%&'(ďĉĈ!Ĉ!ĈĈĈ!Ĉ!Ĉ!Ĉ!ĈĈĈĈĈ!ĈĈĈĈ!ĈĈĈĈĈĈĈĈĈĈĈĈ!Ĉ!ĈĈĈĈĈĈĈĈĈĈĈĈĈĈĈĈĈĈĈĈĈĈĈĈ!ĈĈĈĈĈĈĈĈĈĈĈĈĈĈĈĈĈĈĈĈĈĈĈ": 2531,
      "ćććććććĈĈ": 2532,
      "ďĉ!ďĉďĉďĉďĉďĉďĉďĉďĉććććĈ!ćĈ!Ĉ!Ĉ!ĈĈ!Ĉ!Ĉ!ĈććĈ!ć%&'(ďĉććććććććĈ!Ĉ!Ĉ!Ĉ!ćĈĈĈĈ!Ĉ!ćĈ!ďĉďĉ": 2533,
      "Ĉ!Ĉ!ĈĈ!Ĉ!Ĉ!Ĉ!ďĉďĉďĉďĉďĉ!ďĉďĉďĉ!": 2534,
      "&'(!!!!!!!!!!!!!!!!!!!!!!!!!!!!!!!!!!!!!!!!!!!!!!": 2535,
      "RTVa!!!SĂĄĆ!!!!R!!!SĈ!ćĈ!ćĈ!Ĉ!Ĉ!": 2536,
      "ďĉďĉďĉďĉďĉ!!ďĉ!!!!!!!ďĉ!!ďĉďĉ!!!": 2537,
      "ćĈ!Ĉ!ćĈ!ćĈ!ćĈ!Ĉ!ććććĈ!ććĈ!ć!": 2538,
      "&'ć(": 2539,
      "Ĉ!%&'(Ĉ!Ĉ!Ĉ!Ĉ!ĈĈĈ!ĈĈĈ": 2540,
      "ćĈ!Ĉ!Ĉ!Ĉ!Ĉ!ĈĈĈ!Ĉ!ĈĈ!Ĉ!ĈĈ!Ĉ!ĈĈ!ĈĈ!Ĉ!ĈĈ!ĈĈ!Ĉ!ĈĈĈ!ĈĈĈĈ!ĈĈĈĈ%&'(ďĉĈ!Ĉ!Ĉ!Ĉ!ĈĈĈĈĈĈĈĈĈĈĈĈĈĈ!Ĉ!Ĉ!Ĉ!Ĉ!ĈĈĈ!ĈĈďĉ!ďĉďĉďĉ": 2541,
      "%&'(!!": 2542,
      "%&'(ďĉ!ďĉďĉďĉďĉ!!!!!!!!!!!!!!!!!!!!!Ĉ!Ĉ!Ĉ": 2543,
      "ďĉ!)": 2544,
      "ćďĉĈ!ćĈ!Ĉ!Ĉ!ćĈ!Ĉ!Ĉ!ĈĈ!": 2545,
      "Ĉ!ćĈ!ć%&'(": 2546,
      "ĈĈ!ĉ": 2547,
      "!!!!!!!!!!!!!!!!!!!!!!!!!!!!!!!!!!!!!!!ďĉďĉććććććĈ!ćććĈ!ćććĈ!ćĈ!ćďĉďĉďĉďĉ!": 2548,
      "ĖĖĖĖ": 2549,
      "&'(!!!!!!!!!!!!!!!!!!!!!!!!!!!!!!!!!!!!!!!!!!!!!!!!!!!!!!!!!!!!!!!!!!!!!!!!!!!!!!!!!!!!!!!!!!!!!!!!!!!!!!!!!!!!!!!!!!!!!!!!!!!!%!!!!!!!!!!!!!!!!!!!": 2550,
      "ććććććććĈ!ćććĈ!Ĉ!ćĈ!%&'(ďĉ": 2551,
      "ćććĈ!Ĉ!Ĉ!Ĉ!Ĉ!ćĈ!Ĉ!Ĉ!ĈćĈ!ćĈĈĈĈĈćĈĈĈĈĈćĈ!ĈĈĈćĈďĉ!": 2552,
      "ćĈ!ĈĈ!ćĈ!ĈćććććććĈćĈ!Ĉ!ćĈ!ćĈ!Ĉ!ćĈ!Ĉ!ćĈ!ĈćĈĈćĈĈćĈĈćĈćĈĈćĈĈ": 2553,
      "ďB": 2554,
      "ďćććĉ": 2555,
      "!!!!!!!!!!!!!!!!!": 2556,
      "ďĉďĉ!!!!!!!!!!!!!!!!!!!!!!!!!!!!!!!!!!!!!!!!!!!!!!!!!!!!!!!!!!!!!!!!": 2557,
      "ďĉďĉ%&ď'(ĉ": 2558,
      "&'(!!": 2559,
      "&'(!!!!!!!": 2560,
      "ćĈ!Ĉ!Č": 2561,
      "ďĉďĉďĉĈ!ĈĈćďĉďĉďĉďĉďĉďĉďĉ!ďĉ!ďĉďĉďĉ!": 2562,
      "%Ĉ&'(ĈĈĈ": 2563,
      "ďĉďĉďĉ%&'(ďĉďĉďĉďĉ": 2564,
      "&'(!!!!!!!!!!!!!!!!!!!!!!!!!!!!!!!!!!!!!!!!!!!!!!!!!!!!!!!!!!!!!!!!!!!!!!!!!!!!!!!!!!!!!!!!!!!!!!!!!!!!!!!": 2565,
      "ďĉ!ďĉ!ďĉććďĉďĉ)": 2566,
      "Ĉ!ďĉďĉćĈ!ďĉ!%&'(": 2567,
      "ćĈ!Ĉ!ćĈĈćďĉćĈ!ććĈ!ćĈ!Ĉ": 2568,
      "ćďĉ!!!!!!!!!ďĉďĉďĉďĉďĉ)!)": 2569,
      "ďĉ!ďĉďĉďĉďĉďĉďĉďĉďĉďĉďĉ!!ććć": 2570,
      "ććććĈ!Ĉ!Ĉ!Ĉ!Ĉ!ĈĈ!Ĉ!ćďĉ!!ďĉďĉćĈ!ćďĉďĉ!ďĉďĉćććććĈ!ćČ": 2571,
      "ćĈ!ĈĈ!ĈĈ!ĈĈ!ĈĈĈĈĈĈĈĈĈĈĈĈĈĈĈĈĈĈĈĈĈĈĈĈĈĈĈĈ!Ĉ!Ĉ!Ĉ!ĈĈĈĈĈĈĈĈĈ!Čďĉ!ćććććććĈ!Ĉ!ććććććĈ!ćĈĈ%&'(ďĉďĉĈ!ĈĈďĉ!!)!)!!!!!!!!!!!!!!!!ďĉďĉďĉ!ďĉ%&'(!ďĉ!ďĉ!ďĉďĉ!!ďĉďĉďĉďĉďĉ!ďĉ!ďĉďĉďĉďĉ": 2572,
      "ćČ": 2573,
      "22222222222222222222222222222222": 2574,
      "ďĉďĉďĉ!!)!)!!!!!!!!!!!!!!!!!!!!!!!!!!!!!!!!!!!!!!!!!!!!!!!!!!!!!!!!!!!!!!!!!!!!!!!!!!!!!!!!!!!!!!!!!!!!!!!!!!!!!!!!!!!!!!!!!!!!!!!!!!!!!!!!": 2575,
      "ćďĉďĉćććććććĈ!Ĉ!Ĉ!ćĈ!Ĉ!Ĉ!ćďĉ!": 2576,
      "&'(!!!!!!!!!!!!!!!!!!!!!!!!!!!!!!!!!!!!!!!!!!!!!!!!!!!!!!!!!!!!!!!!!!!!!!!!!!!!!!!!!!!!!!!!!!!!!!!!!!!!!!!!!!!!!!!!!!!!!!!!!!!!!!!!!!!%!!!!!!!!!!!!!!!": 2577,
      "%&'(!!!!!!!!!!!!!!!!!!!!!!!!!!": 2578,
      "ďĉďĉďĉćććĈ!Ĉ!Ĉ!ĈĈ!Ĉ!ćĈ!Ĉ!Ĉ!ĈćĈ!Ĉ!Ĉ!Ĉćďĉ!ććććććććĈ!Ĉ!ćĈĈćĈ!ĈĈćĈ!ćĈĈćĈ!Ĉ!ć%&'(ďĉďĉćććĈ!ćĈ!Ĉ!Ĉ!ćĈ!Ĉ!ćĈ!Ĉ!Ĉ!Ĉ!ćĈ!Ĉ!ćĈ!ćĈ!ćĈ!ćĈ!Ĉ!Ĉ!Ĉ!Ĉ!Ĉ!Ĉ!Ĉ!Ĉ!ĈĈ!": 2579,
      "Ĉ!Ĉ!Ĉ!Ĉ!!Ĉ!Ĉ!Ĉ!Ĉ!!Ĉ!Ĉ!Ĉďĉďĉďĉ%&'(Ĉ!Ĉ!ĈĈ!Ĉ!ĈĈĈĈ!Ĉ!ĈĈ!Ĉ!Ĉ!!Ĉ!%&'(ďĉ!ďĉďĉďĉďĉďĉ": 2580,
      "ćććĈĈ!ćĈ!Ĉ!ĈćĈĈĈćĈĈĈćĈĈćććććďĉďĉďĉĈ!ĈĈĈĈĈ!ćĈ!Ĉ!ĈćĈĈĈćĈĈĈĈĈ": 2581,
      "ćďĉ%&'(ććććććĈ!Ĉ!Ĉ!ćĈ!Ĉ!Ĉ!Ĉ!Ĉ!!ĈĈ!ĈććĈ!Ĉ!ĈĈ!ĈĈ!Ĉ!ćĈ!%&'(ďĉĈ!ćĈ!Ĉ!Ĉ!Ĉ!Ĉ!Ĉ!ćĈ!ćĈ!ćĈ!Ĉ!Ĉ!ćĈ!ĈĈĈćĈćĈćĈĈĈćĈ%&'(ďĉďĉ!ďĉ!!ďĉ!ďĉďĉďĉďĉ!": 2582,
      "&ď'(": 2583,
      "0000111": 2584,
      "%&'(!!!!!": 2585,
      "ćĈ!Ĉ!Ĉ!ĈĈ!Ĉ": 2586,
      "ďĉďĉďĉďĉ!!!!!!!!!ďĉ!!!!!!!!": 2587,
      "ďĉ!!!ďĉ%&'(ďĉďĉ!!ďĉ": 2588,
      "ďĉ!ďĉďĉ!!ďĉďĉďĉďĉďĉďĉďĉďĉ!": 2589,
      "&'(!!!!!!!!!!!!!!!!!!!!!!!!!!!!!!!!!!!!!!!!!!!!!!!!!!!!!!!!!!!!!!!!!!!!!!!!!!!!!!!!!!!!!!!!!!!!!!!!!!!!!!!!!!!!!!!!!!!!!!!!!!!!!!!!!!!!!!%!!!!!!!!!!!!!!!!!!!!!": 2590,
      "ďĉďĉďĉďĉďĉďĉďĉďĉďĉďĉćďĉďĉďĉďĉ!ććĈ!Ĉ!Ĉ!Ĉ!Ĉ": 2591,
      "%&'(ďĉďĉďĉďĉďĉďĉďĉďĉďĉćććć": 2592,
      "!!!!RTVa!!!SĂĄĆ!": 2593,
      "ďĈĉ": 2594,
      "%!ć&'(": 2595,
      "ćĈ!ćĈ!Ĉ!Ĉ!ćĈ!Ĉ!Ĉ!ćĈ!Ĉ!Ĉ!ĈĈćĈĈ!Ĉďĉ!!!!!!!!!!!!!!!!!!!!!!!!!!!!!!!!ďĉ!!!!!!!!!!!!!!!!!!ďĉ!!!!!!!!!!!!!!!!!!!ďĉ!!!!!!!!%&'(ďĉ!ďĉ!!!!!!!!ććĈ!Ĉ!ĈćĈĈĈććĈĈĈććĈ!Ĉ!Ĉ!Ĉ!Ĉ!Ĉ!ćĈĈ!Ĉ!Ĉ!ćĈĈĈććĈĈ!ćććĈ!ććĈ!ćĈ!ĈĈĈćć!!!!%&'(ďĉ!!ďĉ!!ćĈ!Ĉ!Ĉ!Ĉ!Ĉ!Ĉ!Ĉ!ćĈ!ďĉ!!!!!!!!ďĉ!!!!!ćĈ!ĈćĈ!ćĈ!ĈĈ!ćĈ!Ĉ!ĈĈĈ!ĈĈĈććĈ!": 2596,
      "ďĦĉ": 2597,
      "ć%&'(ćććććĈ!Ĉ!Ĉ!ćĈ!Ĉ!Ĉ!Ĉ!Ĉ!!ĈĈ!ĈććĈ!Ĉ!ĈĈ!ĈĈ!Ĉ!ćĈ!%&'(ďĉĈ!ćĈ!Ĉ!Ĉ!Ĉ!Ĉ!Ĉ!ćĈ!ćĈ!ćĈ!Ĉ!Ĉ!ćĈ!ĈĈĈćĈćĈćĈĈĈćĈ": 2598,
      "ďĉďĉ!ďĉ!!ďĉ!": 2599,
      "Ĉ!Ĉ!Ĉ!!ĈĈ!ĈććĈ!Ĉ!ĈĈ!ĈĈ!Ĉ!ćĈ!": 2600,
      "%!!!&'(!!!!!!!!!!!!!!!!!!!!!!!!!!!!!!!!": 2601,
      "ććććĈ!Ĉ!ćĈ!ćĈ!Ĉ!ććĈ!ĈććĈ!Ĉ!ćĈ!ćĈ!Ĉ!Ĉ!ćĈĈ!ďĉďĉďĉďĉććĈ!Ĉ!ĈĈĈ!!ćĈ!Ĉ!Ĉ!Ĉ!": 2602,
      "%)": 2603,
      "ď!!!": 2604,
      "ďĉ!!%&'(": 2605,
      "ďĉďĉ!ďĉďĉďĉďĉďĉďĉ!": 2606,
      "Ĉ!Ĉ!ĈĈ!Ĉ!ćĈ!Ĉ!": 2607,
      "!!!!!!!!!!!ďĉ!ďĉďĉ!!!!!!!!!!!!!!!!!!!!!!!!!!!!ďĉ!!!!!!!!!!!!!!!!!!!!!!!!!!!!!!!!!!!!!!!!!!!!!!!!!!!!!!!!!": 2608,
      "&'(!!!!!!!!!!!!!!!!!!!!!!!!!!!!!!!!!!!!!!!!!!!!!!!!!!!!!!!!!!!!!!!!!!!!!!!!!!!!!!!!!!!!!!!!!!!!!!!!!!!!!!!!!!!!!!!!!": 2609,
      "ćďĉďĉćććććććĈ!Ĉ!Ĉ!ćĈ!Ĉ!Ĉ!": 2610,
      "ďĉććććććććććććĈ!ćĈ!Ĉ!Ĉ!Ĉ!Ĉ!Ĉ!": 2611,
      "32233": 2612,
      "ććĈ!Ĉ!Ĉ!Ĉ!Ĉďĉďĉďĉďĉďĉďĉďĉďĉ": 2613,
      "ććććĈćĈććĈ!ćĈ!Ĉ!Ĉ!Ĉ!ćĈ!Ĉ!ćĈ!ćĈ!Ĉ!ćĈ!ĈćĈ!ĈĈ!ĈćĈćĈćĈćććĈćĈćććĈćĈćĈ!ĈćĈćĈćĈ": 2614,
      "!!!!!!!!!!!ďĉćććĈ!Ĉ!Ĉ!Ĉ%&'(ďĉ!ďĉďĉďĉďĉ!!!!!!!!!!!!!!!!!!!!!Ĉ!Ĉ!Ĉ": 2615,
      "ć%&'(ďĉďĉććĈ!": 2616,
      "Ĉ!ćĈ!Ĉ!ĈćĈĈĈćĈĈĈĈĈĈ!ĈĈ!ĈĈĈćĈĈĈćĈ!ĈĈĈĈ!ĈĈ!Ĉ": 2617,
      "Ĕ!ďĉďĉďĉďĉ": 2618,
      "ćććĈ!Ĉ": 2619,
      "%&'(ďĉďĉďĉďĉďĉďĉďĉ!": 2620,
      "ćĈ!Ĉ!Ĉ!Ĉ!Ĉ": 2621,
      "ďĉ!!ďĉďĉďĉ%&'(": 2622,
      "ďĉďĉďĉ!!!!": 2623,
      "ďĉ!ďĉďĉďĉćććĈ!Ĉ!Ĉ!ćĈĈĈĈ!ćĈ!ĈĈ!ćĈ!ć": 2624,
      "ĈĈĈĈĈĈĈĈĈĈĈĈĈĈĈĈĈĈĈĈĈĈĈĈĈĈĈĈĈĈĈĈĈĈĈĈĈĈĈĈĈĈĈĈĈĈĈĈĈ!Ĉ!ĈĈĈĈĈ!Ĉ!Ĉ!ďĉĈ!Ĉ!ĈĈĈ!Ĉ!Ĉ!Ĉ!ĈĈĈĈĈ!ĈĈĈĈ!ĈĈĈĈĈĈĈĈĈĈĈĈ!Ĉ!ĈĈĈĈĈĈĈĈĈĈĈĈĈĈĈĈĈĈĈĈĈĈĈĈ!ĈĈĈĈĈĈĈĈĈĈĈĈĈĈĈĈĈĈĈĈĈĈĈ": 2625,
      "ĥ!Ĥ": 2626,
      ")!)!!!!!!!!!!!!!!!!!!!!!!!!!!!!!!!!!!!!!!!!!!!!!!!!!!!!!!!!!!!!!!!!!!!!!!!!!!!!!!!!!!%&'(!!!!!!!!!!!!!!!!!!!!!!)!!!!!!!!!!!!!!!!!!!!!!!!!!!!!!!!ďĉďĉďĉ!ďĉ!!": 2627,
      "ćĈ!ĈĈ!ĈĈ!ĈĈ!ĈĈĈĈĈĈĈĈĈĈĈĈĈĈĈĈĈĈĈĈĈĈĈĈĈĈĈĈ!Ĉ!Ĉ!Ĉ!ĈĈĈĈĈĈĈĈĈ!Čďĉ!ćććććććĈ!Ĉ!ććććććĈ!ćĈĈ%&'(ďĉďĉĈ!ĈĈďĉ!!)!)!!!!!!!!!!!!!!!%&'(!ďĉďĉďĉ!ďĉ!ďĉ!ďĉ!ďĉďĉ!!ďĉďĉďĉďĉďĉ!ďĉ!ďĉ%&'(ďĉďĉďĉďĉ": 2628,
      "ďĉ!ďĉ!ďĉďĉďĉďĉ!ďĉďĉ": 2629,
      "ďĉďĉďĉďĉ!!!!ďĉ!!ďĉďĉďĉďĉďĉďĉďĉďĉ!ćĈ!Čďĉďĉ!%&'(ďĉďĉďĉďĉďĉďĉďĉďĉďĉćććć": 2630,
      "Ĉ!%&'(Ĉ!Ĉ!Ĉ!Ĉ!ĈĈĈ!ĈĈĈćďĉďĉ!ďĉďĉć%&'(Ĉ!Ĉ!Ĉ!Ĉ!Ĉ!Ĉ!ĈĈĈ!ĈĈĈĈ!ĈĈ!Ĉ!Ĉ!Ĉ!ĈĈĈ!Ĉ!ĈĈ!ĈĈ!Ĉ!Ĉ!Ĉ!Ĉ!Ĉ!ĈĈĈĈ!ĈĈĈĈĈĈĈ!Ĉ!Ĉ!ĈĈ!Ĉ%&'(ďĉĈ!Ĉ!Ĉ!Ĉ!ĈĈĈ!Ĉ!Ĉ!ĈĈĈĈ!Ĉ!ĈĈ!Ĉ!Ĉ!ĈĈĈĈ": 2631,
      "Ĉ!ďĉďĉćĈ!ďĉ!%&'(ććĈ!Ĉ!Ĉ!Ĉ": 2632,
      "Ĉ!!!": 2633,
      "ďĉħ": 2634,
      "ćććĈ!ćĈ": 2635,
      "ćć%ć&'(": 2636,
      "ćĈ!ćĈ!ĈĈ!": 2637,
      "ďĉ!ďĉ%&'(!": 2638,
      "ďĉďĉ!!ďĉ%&'(": 2639,
      "Ĉ!Ĉ!Ĉ!Ĉ!Ĉ!Ĉ!Ĉ!ĈĈćĈ": 2640,
      "ďĉďĉďĉ%&'(ćććĈ!Ĉ!Ĉ!Ĉ!Ĉ!Ĉ!Ĉ!Ĉ!Ĉ!Ĉ!ćĈ!ćĈ!Ĉ!ćĈ!Ĉ!Ĉ!ćĈ!Ĉ!": 2641,
      "%!!!!!!!!!!!!!!!!!!!!!!!!!!!!!!!!!!!!!!!!": 2642,
      "ďĉ!ďĉ!ďĉ%&'(ďĉďĉ": 2643,
      ")!!!!!!!!!!!!!!!ďĉďĉďĉ)!)ďĉďĉďĉďĉďĉďĉ!!!": 2644,
      "ďĉ!!ďĉďĉďĉ)!)ďĉďĉďĉďĉďĉ!)!)!ďĉďĉ!!!)!)!!": 2645,
      "ćĈ!Ĉ!ćĈ!Ĉ!ćĈ!Ĉ!Ĉ!Ĉ!Ĉ!ćĈ!ćĈ!ćĈ!ćĈ!ćĈ!Ĉ!ćĈ!ćĈ!Ĉ!ćĈĈćĈ!ĈććĈ!ĈćĈćĈćĈ!ĈćĈĈďĉ%&'(ďĉďĉĈ!Ĉ!Ĉ!Ĉ!ćććĈ!": 2646,
      "ććĈ!Ĉ!Ĉ!ĈćĈ!Ĉ!ĈćĈććĈĈ!ĈĈĈďĉ!!!": 2647,
      "ďďĉ!ĉ": 2648,
      "Ĉ!ĈćĈ!Ĉ!Ĉ!ĈćĈ!ććďĉ!Ĉ!ĈćĈ!Ĉ!Ĉ!ĈćĈ!ććďĉďĉ!ďĉďĉ%&'(ćĈ!Ĉ!Ĉ!Ĉ!Ĉ!ĈďĉĈ!%&'(Ĉ!Ĉ!Ĉ!Ĉ!ĈĈĈ!ĈĈĈćďĉďĉ!ďĉďĉć%&'(Ĉ!Ĉ!Ĉ!Ĉ!Ĉ!Ĉ!ĈĈĈ!ĈĈĈĈ!ĈĈ!Ĉ!Ĉ!Ĉ!ĈĈĈ!Ĉ!ĈĈ!ĈĈ!Ĉ!Ĉ!Ĉ!Ĉ!Ĉ!ĈĈĈĈ!ĈĈĈĈĈĈĈ!Ĉ!Ĉ!ĈĈ!Ĉ%&'(ďĉĈ!Ĉ!Ĉ!Ĉ!ĈĈĈ!Ĉ!Ĉ!ĈĈĈĈ!Ĉ!ĈĈ!Ĉ!Ĉ!ĈĈĈĈ": 2649,
      "ďĒ": 2650,
      "!!!!ďĉ!!!ćććććĈ!ĈĈ!ĈĈĈ!Ĉ!Ĉ!Ĉ!Ĉ!Ĉ!Ĉ!Ĉ!Ĉ!Ĉ!Ĉ!Ĉ!ćĈ!ďĉ!ďĉ!!!!!!!!!!!!!!!!": 2651,
      "%&'(!!!": 2652,
      "ĈĈĈĈĈćĈĈ": 2653,
      "ďĉ!!ďĉďĉ!!ďĉ!ďĉ!!ďĉďĉďĉ!ďĉ": 2654,
      "ďĉďĉ!ďĉďĉďĉďĉ!ďĉ!!": 2655,
      "ďĉďĉďĉ!ďĉďĉ!!": 2656,
      "ďĉ%&'(ďĉďĉďĉďĉ": 2657,
      "ďĉ!!!!!!!!!!!!!!!!!!!!!!!!!!!": 2658,
      "Ĉ!ĈĈćďĉďĉďĉďĉďĉďĉďĉ!ďĉ!ďĉďĉďĉ!ďĉ!ďĉďĉďĉĈ!Ĉ!Ĉ!Ĉ!ććĈćć": 2659,
      ">>>>": 2660,
      "ć!!!!!!!!!!!!!!!!!!!!!!!!!!!!!!!!!!!!!!!!!!!!!!!!!!!!!!!%&'(%&'(ďĉ!!ććććććĈććĈ!": 2661,
      "ďĉ!ďĉďĉďĉďĉďĉďĉďĉďĉ!!ďĉďĉďĉďĉ!!!!ďĉ!!": 2662,
      "%ććĈ": 2663,
      ")M": 2664,
      "Lďĉ!": 2665,
      "Ğğ": 2666,
      "ďĉ!!!!RTVa!!!SĂĄĆ!!!!R!!!S": 2667,
      "ďĉďĉďĉďĉďĉďĉďĉďĉ%&'(": 2668,
      "!!!!!!!!!%!&'(": 2669,
      "ď%&'(ĉďĉďĉďĉďĉ": 2670,
      "!!!!!!!!!!!!!!!!!!!!!!!!!!!!!!!!!!!!!!!!!!!!!!!!!!!!!!!!!!!!!!!!!!!!!!!!!!!!!!!!!!!!!!!!!!!!!!!!!!!!!!!!!!!!!!!!!!!!!!!!!!!!!!!!!!!!!!!!!!!!!!!!!!!!!!!!!!!!!!!!!!!!!!!!!!!!!!!!!!!!!!!!!!!!!!!!": 2671,
      "ćĈ!ďĉ!)ććććććććććććĈ!ććĈ!ćĈ!ćĈ!Ĉ!Ĉ!ćĈ!Ĉ!ćĈ!%&'(ďĉććĈ!Ĉ!Ĉ!Ĉ!ćĈ!Ĉ!!Ĉ!ćĈ!ćĈ!ććĈ!Ĉ!": 2672,
      "ććććĈ!ĈĈ%&'(ďĉ!!!!!!!!!!!": 2673,
      ")!!!!!!!!!!!!!!!!!!!!!!!!!!!!!!!!%&'(ďĉďĉďĉ!ďĉ!!ďĉďĉďĉďĉďĉďĉ!ďĉďĉ!!": 2674,
      "ćĈ!ĈĈ!ĈĈĈĈ!Ĉ!Ĉ!ĈĈĈĈĈĈĈĈ!ĈĈĈĈĈďĉ!ďĉďĉ!": 2675,
      "ćĈ!ććĈ!Ĉ!ĈćĈ!ĈććĈĈĈćĈĈĈćĈ!ĈććĈĈĈćĈĈććĈĈĈćĈ!ĈćĈ!ććĈĈ!Ĉ!ĈĈćĈ!Ĉ!ćććĈ!Ĉ!ćććĈĈćĈ!ĈĈĈ!!ćććć!!!!!!!!!!!!!!!!!!!!%&'(%&'(": 2676,
      "ďĉ!ďĉ!!!!!!ďĉďĉ!!!!ďĉďĉďĉććĈ!Ĉ!ćĈĈ!ćĈ!Ĉ!Ĉ!Ĉ!Ĉ!ĈĈĈćĈ!Ĉ!Ĉ!": 2677,
      "ćććććĈ!Ĉ!Ĉ!ćĈĈćĈďĉďĉĈ!Ĉďĉ!ďĉ!ďĉ%&'(ćććććććććććĈ!ćĈ!!ććĈ!ććĈ!ćĈ!Ĉ!Ĉ!Ĉ!Ĉ!Ĉ!ĈćĈĈĈĈ!ĈććĈ!ććććĈć!!": 2678,
      "ďĉ!!!!!!!!!!!!!!!!!!!!!!!!!!!!!!!!!!!!!!!!!!!!!!!!!!!!ďĉ!!!!!!!!!!!!ďĉďĉ%&'(ďĉďĉďĉ!!ďĉ!!!!!!!ďĉ!!ďĉďĉ!!!ďĉďĉďĉďĉďĉ!ďĉ": 2679,
      "ćććĈ!Ĉ!Ĉ!Ĉ!Ĉďĉ!ďĉ!ďĉ!Ĉ!Ĉ!Ĉ!Ĉ!Ĉ!Ĉ!Ĉ!Ĉ!ĈĈĈ!ĈĈ!ĈĈĈ!Ĉ!ĈĈ!Ĉ!Ĉ!": 2680,
      "!!!!!!!!!!!!!!!!!!!!!!!!!!!!!!!!!!!!!!!ďĉ!ďĉ!!!!!!!!!!!ďĉ!ďĉććććććĈććĈ!%&'(ďĉďĉďĉ!ććĈ!ćďĉďĉďĉďĉďĉďĉďĉďĉďĉ!!ďĉ%&'(ďĉďĉćććĈ!Ĉ!Ĉ!Ĉ!ĈĈĈĈĈĈĈĈĈĈ!ćĈ!Ĉ!ĈćĈĈćĈćĈĈĈćĈĈďĉĈ!ĈĈĈĈ": 2681,
      "ėĥĤē": 2682,
      "!!!!!!!!!!!!!!!!!!!!!!!!!!!!!!!!!!!!!": 2683,
      "ćĈ!ďĉďĉďĉďĉďĉďĉďĉďĉďĉďĉďĉďĉ": 2684,
      "ććććććĈ": 2685,
      "ďĉ!ďĉ!ďĉďĉďĉďĉ": 2686,
      "ďĉďĉďĉďĉďĉďĉďĉďĉďĉćććć": 2687,
      "%ď&'(ĉďĉďĉďĉ": 2688,
      "Ĉ!Ĉ!ĈĈĈ!ĈćĈ!": 2689,
      "ćććďĉ!!ďĉďĉďĉ!ďĉ!!!!!!!!!!!!!!!!!!!!!!!!!!!!!!!!!!!!!!!!!!!!!!!!!!!!": 2690,
      "ďĉ!%&'(!": 2691,
      "ďĉďĉďĉďĉďĉ%&'(ďĉďĉďĉ!": 2692,
      "ďĉďĉ!ďĉ!!ďĉ!ďĉďĉďĉďĉ!": 2693,
      "ďĉď%&'(ĉďĉ": 2694,
      "ďĉ!ďĉ!!!ďĉ!!!ćććĈćĈ!ćĈ!ĈĈ!Ĉ!ćĈĈĈĈĈĈĈĈĈĈĈĈĈ!ćĈ!ćĈĈĈĈ!Ĉ%&'(ďĉććďĉďĉ!!ďĉććĈ!ĈĈĈĈĈ!ćďĉďĉ": 2695,
      "ďĉ!!!!!ďĉ!)!)!!!!!!!!!!!!!!ďĉ!!!!!!!!!!!!!!!!!!!!!ďĉ!!!!!!!!!!!!!!ďĉďĉďĉďĉ": 2696,
      "ćďĉćććďĉ!!ďĉďĉďĉ!": 2697,
      "ćććććĈ!Ĉ!Ĉ!ćĈĈćĈďĉďĉććĈ!Ĉ!Ĉ!ćĈ!": 2698,
      "ććĈ!ďĉ!ďĉ!!ćĈ!ďĉďĉďĉĈ!Ĉ!Ĉ!Ĉ!Ĉ!ćĈ!ĈĈĈĈćĈ!ćĈ!ć%&'(ďĉďĉďĉďĉ!ďĉ!ďĉďĉćĈ!Ĉ!Ĉ!ććĈ!ćĈ!Ĉ!Ĉ!ćĈ!Ĉ!ćĈ!ćĈ!ćĈ!ćĈćĈ!Ĉ!ĈĈćĈćĈĈĈĈĈĈĈĈĈĈĈĈ%&'(ďĉ!!ďĉďĉďĉďĉďĉďĉ!ďĉďĉ!ďĉďĉďĉ!!": 2699,
      "ďĉďĉďĉďĉďĉďĉR%&'(TVaďĉććĈ!ćććĈćććĈĈ!Ĉ!ćĈ!ććĈćĈ!ćĈ!!Č!!Č!ďĉ!ďĉĈ!Ĉ!ćĈ!Ĉ!ĈĈĈ": 2700,
      "ććĈ!Ĉ!Ĉ!Ĉ!Ĉ!Ĉ!ćĈćĈ!ććććććĈ!ćĈ!ććĈćććĈćććĈĈćĈćĈ!Ĉ!ćĈ!ĈćĈćĈćĈćĈ!Ĉ!ĈćĈ!Ĉ!ćĈĈĈććĈ!Ĉ!ććĈ!ćććĈćĈćĈćĈćĈĈćĈĈćĈćĈćĈćĈ!Ĉ!ĈćĈ!Ĉ!Ĉ!ććććĈćĈććĈ!ćĈ!Ĉ!Ĉ!Ĉ!ćĈ!Ĉ!ćĈ!ćĈ!Ĉ!ćĈ!ĈćĈ!ĈĈ!Ĉ": 2701,
      "ďĉ!ďĉďĉďĉďĉćććĈ!Ĉ!ććĈ!ćĈ!ćČďĉ!!!ďĉ!Ĉ!Ĉ!Ĉ!Ĉ!ĈćĈ!ĈĈ!ĈĈĈ": 2702,
      "Ĉ!Ĉ!Ĉ!Ĉ!Ĉ!ćĈ!ĈĈĈĈćĈ!ćĈ!ćďĉďĉďĉďĉ!ďĉ!ďĉďĉ": 2703,
      "ććććĈ!ćĈ!Ĉ!Ĉ!ćĈ!Ĉ!Ĉ!Ĉ!ćĈ!Ĉ!Ĉ!Ĉ!ćĈ!Ĉ!ćĈ!ĈćĈ!Ĉ!ćĈ!ćĈ!ćĈ!ćĈ!ćĈ!Ĉ!ćĈ!ćĈ!Ĉ!Ĉ!ćĈ!Ĉ!Ĉ!ććĈ!Ĉ!Ĉ!ĈćĈ!Ĉ!ććĈ!ććĈ!ćĈ!Ĉ!ćĈććĈ!Ĉ!%&'(ďĉĈ!Ĉ!Ĉ!Ĉ!Ĉ!Ĉ!ĈĈĈĈĈĈĈĈĈĈĈĈĈĈĈĈĈĈĈĈĈĈĈĈĈĈĈĈĈĈĈĈĈĈĈĈĈĈĈĈĈĈĈĈĈĈĈĈĈ!Ĉ!ĈĈĈĈĈ!Ĉ!Ĉ!%&'(ďĉĈ!Ĉ!ĈĈĈ!Ĉ!Ĉ!Ĉ!ĈĈĈĈĈ!ĈĈĈĈ!ĈĈĈĈĈĈĈĈĈĈĈĈ!Ĉ!ĈĈĈĈĈĈĈĈĈĈĈĈĈĈĈĈĈĈĈĈĈĈĈĈ!ĈĈĈĈĈĈĈĈĈĈĈĈĈĈĈĈĈĈĈĈĈĈĈ": 2704,
      "Ĉ!Ĉ!ĈĈ!Ĉ!ćĈ!Ĉ!ĈĈĈĈĈ": 2705,
      "ćďĉ!ďĉďĉďĉďĉďĉďĉďĉ": 2706,
      "Ē!!!!": 2707,
      "ććććĈ!Ĉ": 2708,
      "ďĉďĉďĉďĉ%&'(ďĉďĉ": 2709,
      "ďĉ!ďĉ!ďĉďĉďĉ!": 2710,
      "2322": 2711,
      "ďďĉĉďĉďĉďĉďĉ": 2712,
      "ďĉďĉďĉďĉďĉďĉď%&'(ĉ": 2713,
      "ćććĈ!Ĉ!Ĉ!Ĉďĉ!ďĉďĉďĉďĉ!!!!!!!!!!!!!!!!!!!!!Ĉ!Ĉ!Ĉ": 2714,
      "ćďĉ!ďĉ!!!!!!!!!!!!!!!!!!!!!!!!!!!!!!!!!!!ćććććććććććĈ!Ĉ": 2715,
      "ćććĈ!Ĉ!Ĉ!Ĉ!Ĉ!Ĉ!ćććććĈ!ćĈĈďĉďĉ!!ďĉ!!!!!!!!!": 2716,
      "&'(!!!!!!!!!!!!!!!!!!!!!!!!!!!!!!!!!!!!!!!!!!!!!!!!!!!!!!!!!!!!!!!!!!!!!!!!!!!!!!!!!!!!!!!!!!!!!!!!!!!!!!!!!!!!!!!!!!!!!!!!!!!!!!!!!!!!!!!!%!!!!!!!!!!!!!": 2717,
      "&'(!!!!!!!!!!!!!!!!!!!!!!!!!!!!!!!!!!!!!!!!!!!!!!!!!!!!!!!!!!!!!!!!!!!!!!!!!!!!!!!!!!!!!!!!!!!!!!!!!!!!!!!!!!!!!!!!!!!!!!!!!!!!!!!!!!!!!!!!!%!": 2718,
      "ćććććĈ!Ĉ!Ĉ!Ĉ!Ĉ!Ĉ!ćĈ!Ĉ!Ĉ!ćĈ!Ĉ!ćĈ!Ĉ!Ĉ!ćĈ!Ĉ!ćĈ!ćĈ!ćĈ!ćĈ!Ĉ!Ĉ!Ĉćďĉ!!!!!!!!!": 2719,
      "ćććĈ!Ĉ!Ĉ!ćĈĈĈĈ!ćĈ!Ĉ": 2720,
      "&'(!!!!!!!!!!!!!!!!!!!!!!!!!!!!!!!!!!!!!!!!!!!!!!!!!!!!!!!!!!!!!!)!)!!!!!!!!!!!!!!!!!!!!!!!!!!!!!!!!!!!!!!!!!!!!!!!!!!!!!!!!!!!!!!!!!!!!!!!!!!!!!!!!": 2721,
      "&'(!!!!!!!!!!!!!!!!!!!!!!!!!!!!!!!!!!!!!!!!!!!!!!!!!!!!!!!!!!!!!!!!!!!!!!!!!!!!!!!!!!!!!!!!!!!!!!!!!!!!!!ććććććććĈ!ćććĈ!Ĉ!ćĈ!ďĉ": 2722,
      "ďĉďĉďĉďĉďĉ)!)ďĉďĉďĉćććĈ!Ĉ!Ĉ!ĈĈ!Ĉ!ćĈ!Ĉ!Ĉ!ĈćĈ!Ĉ!Ĉ!Ĉćďĉ!": 2723,
      "ďĉ!ďĉďĉďĉďĉ%&'(ďĉďĉďĉćďĉ!ďĉďĉďĉďĉ!!": 2724,
      "ććĈ!ĈďĉĈ!Ĉ!ĈĈĈĈĈĈĈĈĈĈĈĈĈĈĈĈĈĈĈĈĈĈĈĈ": 2725,
      "ďĉďĉďĉďĉďĉďĉďĉďĉďĉ%&'(ďĉďĉďĉĈ!Ĉ!Ĉ!Ĉ!ĈćĈĈĈ!ĈĈĈćĈćĈĈĈĈĈĈĈćĈĈĈĈĈĈćĈćĈ!ćĈĈ!ďĉ": 2726,
      "%&'(ďĉ!!ďĉďĉ!!ďĉ!ďĉ!!ďĉďĉďĉ!ďĉććĈ!": 2727,
      "ďĉ!ďĉććććĈ!ćĈ!ĈĈ!ććĈ!ćĈ!ĈĈ!ćĈ!Ĉ!ćĈ!ďĉ!)ććććććććććććĈ!ććĈ!ćĈ!ćĈ!Ĉ!Ĉ!ćĈ!Ĉ!ćĈ!%&'(ďĉććĈ!Ĉ!Ĉ!Ĉ!ćĈ!Ĉ!!Ĉ!ćĈ!ćĈ!ććĈ!Ĉ!ćĈ!ďĉ!%&'(ććććććććććććććććććććććććććććććććććććććććććććĈ!ćĈ!Ĉ!ĈćĈ!Ĉ!ććĈ!Ĉ!Ĉ!Ĉ!Ĉ!ĈĈ!ćĈ!ćĈ!ćĈćĈ!ćĈ!ćĈćĈ!ćĈćĈ!ććĈćĈ!ćĈ": 2728,
      "&'(!!!!!!!!!!!!!!!ďĉ!!!!!!!!!!!!!!!!!!!!!!!!!!!!!!!!!!!!!!!!!!!!!!!!!!!!!!!!!!!!!!!!!!!!!!!!!!!!!!!!!!!!!!!!!!!!!!!!": 2729,
      "Lďĉ!K": 2730,
      "Ĉ!Ĉ!ĈĈĈ!ĈćĈ!ĈĈĈĈĈćĈĈ": 2731,
      "'7": 2732,
      "ĤĤ": 2733,
      "ďĉ%&ď'(ĉ": 2734,
      "ďĉďĉ!ďĉ!ďĉďĉďĉďĉ": 2735,
      "ďĉďĉďĉď%ĉ&'(": 2736,
      "ććĈćĈ!Ĉ!Ĉ!Ĉ!Ĉ!Ĉ!": 2737,
      ")!)!!!!!!!!!!": 2738,
      "ďĉďĉďĉ!ććĈ!ćďĉďĉďĉďĉ": 2739,
      "MMMMM": 2740,
      "ďĉ!ďĉ)))": 2741,
      "%&'(ďĉććĈ!Ĉ!ĈĈĈ!Ĉ!Ĉ!ĈĈćĈďĉ!!ďĉďĉ!!!)!)!!!!!!!!!!!!": 2742,
      "77'7": 2743,
      "ďĉďĉďĉ!!ďĉďĉďĉ": 2744,
      "ďĉććććĈ!ćĈ!Ĉ!": 2745,
      "ďĉ!!ďĉ!!!!": 2746,
      "ďĉďĉďĉďĉďĉďĉ%ď&'(ĉ": 2747,
      "777777'7": 2748,
      "Ĉ!Ĉ!ćĈĈćĈĈĈĈĈĈĈĈ": 2749,
      "ď!!ĉ": 2750,
      "&'(!!!!!!!!!!!!!!!!!!!!!!!!!!!!!!!!!!!!!!!!!!!!!!!!!!!!!!!!!!!!!!!!!!!!!!!!!!!!!!!!!!!!!!!!!!!!!!!!!!!!!!!!!!!!!!!!!!!!!!!!!!!!!!%!!!!!!!!!!!!!!!!!": 2751,
      ")!)!ďĉďĉ!!!)!)!!ďĉďĉďĉďĉďĉ!!ďĉ!": 2752,
      "Ĉ!Ĉďĉ!ďĉ!ďĉćććććććććććĈ!ćĈ!!ććĈ!ććĈ!ćĈ!Ĉ!Ĉ!Ĉ!Ĉ!Ĉ!ĈćĈĈĈĈ!ĈććĈ!ććććĈć!!": 2753,
      "ććĈĈćĈĈĈććĈĈććĈćććĈĈĈĈĈćĈĈćĈćĈĈćĈĈćĈĈĈĈĈćĈćĈĈćĈĈćĈćĈćĈććĈćĈćĈćĈćĈ!ćĈćĈćĈćĈćĈćĈćĈćĈćĈćĈćĈćĈććĈ!Ĉ!ććĈ!ććććĈćĈćĈćĈććććĈ!Ĉ!ććĈ!ĈććććĈćĈćĈćĈćĈćĈćĈćĈćĈćĈć": 2754,
      "ďĉďĉďĉďĉ!ďĉďĉ!!!!!!!!!!!!!!!!!!!!!!!!!!!ďĉ!ďĉ!!!!!!": 2755,
      "Ĉ!ĈĈĈ!ĈĈĈĈĈĈĈĈĈĈĈĈĈĈĈĈĈĈ!ďĉ!!ďĉ!ďĉ!!!ďĉďĉćĈ!ĈĈ!ĈĈĈĈ!Ĉ!Ĉ!ĈĈĈĈĈĈĈĈ!ĈĈĈĈĈďĉ!%&'(ďĉďĉ!ďĉ!ďĉďĉďĉ!ďĉ!ďĉ!!ďĉ": 2756,
      "ďĤĉ": 2757,
      "ćĈ!Ĉ!ćĈ!ćĈ!ćĈ!Ĉ!ććććĈ!ććĈ!ć!%&'(ďĉććĈ!Ĉ!ĈĈĈ!Ĉ!Ĉ!ĈĈćĈďĉ!!ďĉďĉ!!!)!)!!!!!!!!!!!!": 2758,
      "00001111": 2759,
      "ďĉďĉ%!&'(": 2760,
      "ďĉďĉ%&'ď(ĉ": 2761,
      "%&'(ďĉďĉďĉďĉďĉďĉ": 2762,
      ")!)ďĉďĉďĉćććĈ!Ĉ!Ĉ!ĈĈ!Ĉ!ćĈ!Ĉ!Ĉ!ĈćĈ!Ĉ!Ĉ!Ĉćďĉ!ććććććććĈ!Ĉ!ćĈĈćĈ!ĈĈćĈ!ćĈĈćĈ!Ĉ!ć%&'(ďĉďĉćććĈ!ćĈ!Ĉ!Ĉ!ćĈ!Ĉ!ćĈ!Ĉ!Ĉ!Ĉ!ćĈ!Ĉ!ćĈ!ćĈ!ćĈ!ćĈ!Ĉ!Ĉ!Ĉ!Ĉ!Ĉ!Ĉ!Ĉ!Ĉ!ĈĈ!": 2763,
      "%!&Ĉ'(!": 2764,
      "))ħ!": 2765,
      ")!)!!!!!!!!!!!!!!!!!!!": 2766,
      "ďĉ!ďĉďĉĈ!Ĉ!": 2767,
      "!!!!!!!!!ććććĈ!ĈĈ%&'(ďĉ!!!!!!!!!!!": 2768,
      "%!&'(!!!!!!!!!!!!!!!!!!!!!!!!!!!!!!!!!!!!!!!!!!!": 2769,
      "ćĈ!Ĉ!ĈćĈ!Ĉ!ćĈ!ććĈĈĈĈĈćĈćĈďĉćććććĈ!ĈĈćĈĈćĈ": 2770,
      "ďĉ!ďĉ!ďĉ!ďĉ!ďĉ!ďĉćććĈ!Ĉ!Ĉ!Ĉ!Ĉ!Ĉ!ćĈ!Ĉ!Ĉ!Ĉ!ćĈ!Ĉ!Ĉ!Ĉćć": 2771,
      "ććĈ!ćććĈ!ćććĈ!ćććĈ!Ĉ!Ĉ!ďĉćććĈ!ćďĉďĉďĉďĉďĉ!!ďĉ!!!!": 2772,
      "ďĉďĉďĉďĉďĉďĉďĉďĉďĉďĉ%&'(ćććĈ!Ĉ!Ĉ!ćĈ!Ĉ!Ĉ!Ĉ!Ĉ!!": 2773,
      "ďĉďĉďĉďĉďĉďĉďĉďĉ!!!ďĉďĉďĉďĉććĈ!Ĉ!Ĉ!Ĉ!Ĉ!Ĉ!ććĈ!ć%&'(": 2774,
      "Ĉ!ĈćĈ!Ĉ!Ĉ!ĈćĈ!ććďĉ!Ĉ!ĈćĈ!Ĉ!Ĉ!ĈćĈ!ććďĉďĉ!ďĉďĉ%&'(ćĈ!Ĉ!Ĉ!Ĉ!Ĉ!ĈďĉĈ!%&'(Ĉ!Ĉ!Ĉ!Ĉ!ĈĈĈ!ĈĈĈćďĉďĉ!ďĉďĉć%&'(Ĉ!Ĉ!Ĉ!Ĉ!Ĉ!Ĉ!ĈĈĈ!ĈĈĈĈ!ĈĈ!Ĉ!Ĉ!Ĉ!ĈĈĈ!Ĉ!ĈĈ!ĈĈ!Ĉ!Ĉ!Ĉ!Ĉ!Ĉ!ĈĈĈĈ!ĈĈĈĈĈĈĈ!Ĉ!Ĉ!ĈĈ!Ĉ%&'(ďĉĈ!Ĉ!Ĉ!Ĉ!ĈĈĈ!Ĉ!Ĉ!ĈĈĈĈ!Ĉ!ĈĈ!Ĉ!Ĉ!ĈĈĈĈćďĉďĉ%&'(ćććććććĈ!Ĉ!Ĉ!ćĈ!Ĉ!Ĉ!ćďĉ!ććććĈ!ćĈ!Ĉ!Ĉ!ćĈ!Ĉ!Ĉ!Ĉ!ćĈ!Ĉ!Ĉ!Ĉ!ćĈ!Ĉ!ćĈ!ĈćĈ!Ĉ!": 2775,
      "Ĉ!Ĉ!Ĉ!Ĉ!ĈĈ!Ĉ!Ĉ!Ĉ!": 2776,
      "&'(!!!!!!!!!!!!!!!!!!!!!!!!!!!!!!!!!!!!!!!!!!!!!!!!!!!!!!!!!!!!!!!!!!!!!": 2777,
      "ďĉďĉďĉ!ďĉ%&'(": 2778,
      "ďĉ%&'(Ĉ!ćĈ!Ĉ!Ĉ!Ĉ!Ĉ!Ĉ!ćĈ!ćĈ!ćĈ!Ĉ!Ĉ!ćĈ!ĈĈĈćĈćĈćĈĈĈćĈ": 2779,
      "%&'(%&'(%&'(%&'(%&'(%&'(%&'(%&'(%&'(%&'(%&'(%&'(%&'(%&'(%&'(%&'(%&'(%&'(%&'(%&'(%&'(%&'(%&'(%&'(": 2780,
      "ďĉĈ!Ĉ!Ĉ!Ĉ!ĈĈĈĈĈĈĈĈĈĈĈĈĈĈ!Ĉ!Ĉ!Ĉ!Ĉ!ĈĈĈ!ĈĈ": 2781,
      "ćĈĈĈĈĈĈĈĈććĈćĈĈ!ććĈĈĈĈćĈĈĈĈćĈĈĈĈĈĈĈĈććĈćďĉ!": 2782,
      "ďĉďĉďĉďĉ!ďĉďĉ!!%!&'(": 2783,
      "ďĉ!ďĉďĉďĉďĉďĉďĉ!!ďĉ!ďĉďĉďĉďĉ!!": 2784,
      "&'(!!!!!!!!!!!!!!!!!!!!!!!!!!!!!!!!!!!!!!!!!!!!!!!!!!!!!!!!!!!!!!!!!!!!!!!!!!!!!!!!!!!!!!!!!!!!!!!!!!!!!!!!!!!!!!!!!!!!!!!!!!!!!!!!!!!!!!!!!!!%!!!!!!!!": 2785,
      "ďĉďĉďĉĈ!Ĉ!Ĉ!Ĉ!Ĉ!ćĈ!ĈĈĈĈćĈ!ćĈ!ćďĉďĉďĉďĉ!": 2786,
      "ććććĈ!ćĈ!Ĉ!Ĉ!Ĉ!Ĉ!Ĉ!Ĉ!Ĉ!Ĉ!!ćĈĈĈĈ!Ĉ!ćĈ!Ĉ!ćĈĈĈćĈ!ĈĈĈĈĈ!Ĉ!ćĈ!ććĈ!ćĈ!ććĈ!ćĈććĈ!ćĈ!ćĈ!ĈćĈĈć%&'(ďĉĈ!ćĈ!Ĉ!Ĉ!ćĈ!Ĉ!Ĉ!ĈĈ!ćĈ!": 2787,
      "ďĉďĉďĉ!ďĉďĉ!ďĉďĉ!!ďĉ!!ďĉďĉćććĈ!Ĉ!Ĉ!Ĉ!Ĉ!ĈćĈĈ!Ĉ!ĈĈĈćĈćĈ!ććĈ!!%&'(ďĉ!!ďĉďĉďĉ": 2788,
      "ďĉ!ďĉ!!!!ďĉďĉ!!ďĉ!!ďĉ!!!!!!)!!!!!!!!)!": 2789,
      "ďĉďĉćććĈ!Ĉ!Ĉ!Ĉ!Ĉ!Ĉ!ćććććĈ!ćĈĈ%&'(ďĉďĉ!!ďĉ!!!!!!!!!ďĉ!!!!!!!!!!!)!!!!!!!!!!!!!!!ďĉďĉ%&'(ďĉ)!)ďĉďĉďĉďĉďĉďĉ!!!ďĉ!!ďĉ!ďĉ!ććĈ!Ĉ!Ĉ!ććĈ!Ĉ!Ĉ!ĈĈ!Ĉ!!ćĈ!Ĉ!Ĉ!Ĉ!ćĈ!ććĈ!": 2790,
      "ć%ď&'(ĉ": 2791,
      "Ĉĉ": 2792,
      "ĐĐ": 2793,
      "!!)": 2794,
      "ďĉ)": 2795,
      "Ĉ!ćĈ!Ĉ!Ĉ!": 2796,
      "ćĈ!ćĈ!Ĉ!ĈĈ!": 2797,
      "ďĉďĉ!!ďĉďĉďĉďĉďĉďĉďĉďĉ!": 2798,
      "ćďĉď%&'(ĉ": 2799,
      "'(3323": 2800,
      "ďĉďĉďĉ%&'(ďĉďĉďĉďĉďĉďĉďĉďĉďĉďĉćďĉďĉďĉďĉ!ććĈ!Ĉ!Ĉ!Ĉ!Ĉ": 2801,
      "ćĈ!ćďĉďĉďĉďĉďĉ!!ďĉ!!!!ďĉďĉďĉ!ďĉďĉ!": 2802,
      "%Ĉ&'(!Ĉ!Ĉ!": 2803,
      "ćĈ!ďĉ!ďĉďĉďĉ%&'(ďĉďĉďĉďĉďĉďĉďĉďĉďĉďĉćďĉďĉďĉďĉ!ććĈ!Ĉ!Ĉ!Ĉ!Ĉ": 2804,
      "ďĉďĉ!ďĉďĉ%&'(ďĉďĉ!": 2805,
      "ććććććććććććĈ!ćĈ!ĈĈ!ćĈ!ĈćććććććĈćĈ!Ĉ!ćĈ!ćĈ!Ĉ!ćĈ!Ĉ!ćĈ!ĈćĈĈćĈĈćĈĈćĈćĈĈćĈĈ": 2806,
      "&'(!!!!!!!!!!!!!!!!!!!!!!!!!!!!!!!!!!!!!!!!!!!!!!!!!!!!!!!!!!!!!!!!!!!!!!!!!!!!!!!!!!!!!!!!!!!!!!!!!!!!!!!!!!!!!!!!!!!!!!!!!!!!!!!!!!!!!!!%!!!!!!!!!!!": 2807,
      "ććĈ!ćĈ!ććĈ!ćĈ!ćĈ!ććĈćĈ!Ĉ!Ĉ!Ĉ!ćĈ!ććĈĈĈĈĈĈćĈ!ććĈćĈ!ćĈ!Ĉ!ćĈ!ććĈććĈ!!!!!!ďĉćć%&'(ďĉďĉďĉ": 2808,
      "ććććĈ!Ĉ!Ĉ!Ĉ!Ĉ!ĈĈ!Ĉ!ćďĉ!!": 2809,
      "ćďĉ!!!!ćďĉ!ćććććďĉ!ććććĈćććĈ!Ĉ!ĈćĈ!ć": 2810,
      "ćĈćďĉďĉďĉ!!!ďĉďĉďĉďĉ": 2811,
      "&'(!!!!!!!!!!!!!!!!!!!!!!!!!!!!!!!!!!!!!!!!!!!!!!!!!!!!!!!!!!!!!!!!!!!!!!!!!!!!!!!!!!!!!!!!!!!!!!!!!!!!!!!!!!!!!!!!!!!!!!!!!!!!!!!!!!!!!!!!!!!!!!!!!%!!!!!!!!!!!!!!!!!!!!!!!!!!!!!!!!!!!!": 2812,
      "!!!!!!!ďĉ!!ďĉďĉ!!!ďĉďĉďĉďĉďĉ!ďĉććĈ!Ĉ!Ĉ!Ĉ!Ĉ!Ĉ!Ĉ!ĈĈćĈ%&'(ďĉďĉ": 2813,
      "ććĈ!Ĉ!ĈĈĈ!!ćĈ!Ĉ!Ĉ!Ĉ!ćďĉďĉ!!ďĉďĉďĉďĉććććĈ!ĈĈ!ćĈ!ĈĈ!Ĉ!Ĉ!ćĈ!ćĈ%&'(ďĉďĉďĉďĉ": 2814,
      "Ĉ!Ĉ!ćĈĈćĈĈĈĈĈĈĈĈĈ!Ĉ!ĈĈĈ!ĈćĈ!ĈĈĈĈĈćĈĈ": 2815,
      "ćħ": 2816,
      "ćďĉďĉďĉďĉďĉďĉ": 2817,
      "'(;": 2818,
      "ďĉ!!Ĉ!ĈćĈ!Ĉ!Ĉ!ĈćĈ!ććďĉ!Ĉ!ĈćĈ!Ĉ!Ĉ!ĈćĈ!ććďĉďĉ!ďĉďĉ%&'(ćĈ!Ĉ!Ĉ!Ĉ!Ĉ!Ĉ": 2819,
      "ćććĈ!Ĉ!Ĉ!Ĉ!Ĉ!%&'(": 2820,
      "&'(!!!!!!!!!!!!!!!!!!!!!!!!!!!!!!!!!!!!!!!!!!!!!!!!!!!!!!!!!!!!!!!!!!!!!!!!!!!!!!!!!!!!!!!!!!!!!!!!!!!!!!!!!!!!!!!!!!!!!!!!!!!!!!!!!!!!!!!!!!!!!!!!!!!!!!!!!!!!!!!!!!!!!!!": 2821,
      "ďĉ!!!!!!!!!!!!!!!!!!!!!!": 2822,
      "ďĉ!ďĉďĉďĉ!ďĉ!ďĉďĉďĉĈ!Ĉ!Ĉ!Ĉ!ććĈćć": 2823,
      "&'(!!!!!!!!!!!!!!!!!!!!!!!!!!!!!!!!!!!!!!!!!!!!!!!!!!!!!!!!!!!!!!!!!!!!!!!!!!!!!!!!!!!!!!!!!!!!!!!!!!!!!!!!!!!!!!!!!!!!!!!!!!!!!!!!!!!!!!!!!!!!!!!!!!": 2824,
      "ćĈ!ĈćĈĈćĈĈĈĈĈĈĈ": 2825,
      "Ĉ!Ĉ!Ĉ!ĈĈĈĈĈĈĈĈĈĈ!ĈĈĈ!ĈĈ!ĈĈĈĈ!ĈĈ!Ĉ%&'(ďĉĈ!ĈĈĈĈĈĈĈ": 2826,
      "ďĉďĉďĉďĉďĉďĉ%&'(Ĉ!Ĉ!Ĉ!Ĉ!Ĉ!Ĉ!ćďĉďĉďĉćĈ!Ĉ!Ĉ!Ĉ!": 2827,
      "!!!ďĉďĉďĉďĉććĈ!Ĉ!Ĉ!Ĉ!Ĉ!Ĉ!ććĈ!ć": 2828,
      "!!!!!!!!!!!!!!!!!!!%&'(": 2829,
      "!LK!LK!LK!LK!LK!LK!LK!LK!LK!LK!LK!LK!LK!LK!LK!LK!LK!LK!LK!LK!LK!LK!LK!LK!LK!LK!LK!LK!LK!LK!LK!LK": 2830,
      "ďĉďĉďĉďĉ!!!!ďĉ!!ďĉďĉďĉďĉďĉďĉďĉďĉ!ćĈ!Č": 2831,
      "ďĉćĈ!ćĈ!Ĉ!ććĈ!Ĉ!Ĉ!Ĉ!ćĈĈĈ!Ĉ!ćĈ!Ĉ!ĈĈĈ!ĈĈĈććĈ!ćĈćĈĈĈ!ĈćĈĈĈĈĈĈĈĈććĈćĈĈ!ććĈĈĈĈćĈĈĈĈćĈĈĈĈĈĈĈĈććĈć%&'(ďĉ!ććĈ!ćĈ!Ĉ!ĈĈĈ!ĈĈĈććĈ!ĈĈ!ĈĈĈĈ!ĈĈ!ĈĈĈĈďĉďĉďĉ!!!!!!!!!!ďĉďĉďĉ%&'(ďĉďĉďĉĈ!Ĉ!Ĉ!Ĉ!Ĉ!Ĉ!ćďĉďĉďĉćĈ!Ĉ!Ĉ!Ĉ!": 2832,
      "ĈćĈĈćĈćĈĈĈćĈĈďĉĈ!Ĉ!ĈĈĈĈ!Ĉ!Ĉ!ĈĈĈĈĈĈĈĈĈĈ!ĈĈĈ!ĈĈ!ĈĈĈĈ!ĈĈ!Ĉ": 2833,
      "Ĉ!Ĉ!Ĉ!ĈĈĈĈĈĈĈĈĈĈ!ĈĈĈ!ĈĈ!ĈĈĈĈ!ĈĈ!Ĉ%&'(ďĉĈ!ĈĈĈĈĈĈĈĈ!ĈĈĈ": 2834,
      "!!!!!!%!!!!!!!!!!": 2835,
      "%!&'(!!!!!!!!!!!!!!!!!!!!!!!!!!!!!!!!!!!!!!!!!!!!!!!!!!!!!!!!!!!!!!!!!!!!!!!!!!!!!!!!": 2836,
      "ďĉďĉďĉ!!ďĉďĉ!": 2837,
      "ďĉďĉďĉ%&'(ďĉ!ďĉďĉ": 2838,
      "ďĉ!!!!!!!!!!!!!!!!!!!!": 2839,
      "ďĉďĉďĉďĉďĉďĉ!!!!!!!!!!!ďĉ!!!!!!!!!!!!!!!!!!!!!!!!!!!!!!!!!!!!!!!!!!!!!!!!!!!!!!!!!!!!!!!!": 2840,
      "ďĉďĉďĉďĉďĉďĉďĉĈ!Ĉ!Ĉ!Ĉ!Ĉ!Ĉ!Ĉ!ĈĈĈĈĈĈĈ!ĈĈĈĈĈĈĈĈĈĈĈĈĈĈĈĈĈĈĈĈ!": 2841,
      "ďĉďĉďĉďĉďĉďĉďĉ!ďĉ!ďĉďĉďĉďĉ": 2842,
      "ďĉďĉćććććďĉ!": 2843,
      "!ďĉ!!!!": 2844,
      "ďĉďĉďĉďĉďĉďĉďĉďĉ!ćĈ!Čďĉďĉ!": 2845,
      "ďĉďĉďĉ!ďĉ!!!!!!!!!!!!!": 2846,
      "Ĉ!!Ĉ!!": 2847,
      "ćććĈ!Ĉ!Ĉ!Ĉ!Ĉ!ĈćĈĈ!Ĉ!ĈĈĈćĈćĈ!ććĈ!!ďĉ!!ďĉďĉďĉ": 2848,
      "ďĉ!!ďĉ!!!!!!!!)!!!!!!!!)!)!)!!!!!!!!!!!!!!!!!!!!!!!!!!!!!!!!!!!!!!!!!!!!!!!!!!!!!!!!!!!!!!!!!!!!!!!!!!!!!!!!!!!!!!!!!!!!!!!!!!!!!!!!!!": 2849,
      "Ĉ!ĈĈ!ĈĈĈćĈĈĈćĈ!ĈĈĈĈ!ĈĈ!Ĉďĉďĉďĉďĉďĉďĉ!%&'(%&'(Ĉ!Ĉ!ĈĈĈĈĈĈćĈ!ĈĈĈ%&'(ďĉ%&'(%&'(%&'(ďĉďĉďĉďĉ!ďĉďĉ%!!!&'(ďĉďĉďĉ!!ďĉ!ććĈ!Ĉ!Ĉ!Ĉ!Ĉ!ďĉďĉ!ďĉćććććĈ!Ĉ!Ĉ!Ĉ!Ĉ!Ĉ!ďĉ!%&'(ďĉ!!ďĉ!ďĉďĉ!": 2850,
      "ćĈ!Ĉ!ćĈ!ćĈ!ćĈ!Ĉ!ććććĈ!ććĈ!ć!ďĉććĈ!Ĉ!ĈĈĈ!Ĉ!Ĉ!ĈĈćĈ": 2851,
      "ćďĉďĉďĉďĉ!ććĈ!Ĉ!Ĉ!Ĉ!Ĉďĉďĉďĉďĉďĉďĉďĉďĉ": 2852,
      "ćĈ!ćĈ!Ĉ!ćĈĈ!Ĉ!Ĉ!Ĉ!ćĈćĈĈćĈ!Ĉ!Ĉ!ćĈ!Ĉ!Ĉ!Ĉ!ćĈ!Ĉ!%&'(ďĉćĈ!ćĈ!Ĉ!ććĈ!Ĉ!Ĉ!Ĉ!ćĈĈĈ!Ĉ!ćĈ!Ĉ!ĈĈĈ!ĈĈĈććĈ!ćĈćĈĈĈ!ĈćĈĈĈĈĈĈĈĈććĈćĈĈ!ććĈĈĈĈćĈĈĈĈćĈĈĈĈĈĈĈĈććĈćďĉ!": 2853,
      "ććĈ!ďĉ!ďĉ!!ćĈ!%&'(ďĉďĉďĉ": 2854,
      "ďĉ%&'(ďĉďĉďĉďĉďĉďĉ!ďĉďĉďĉďĉ!!ďĉďĉďĉďĉďĉďĉ!": 2855,
      "ććććććććććććććććććććććććććĈ!ćććĈ!Ĉ!ćĈ!Ĉ!ćĈ!ćĈ!ćĈ!ĈĈ!Ĉ!ćĈ!ćĈ!Ĉ!Ĉ!": 2856,
      "%&-+/,'(%&-+/,'(%&-+/,'(%&-+/,'(%&-+/,'(%&-+/,'(%&-+/,'(%&-+/,'(%&-+/,'(%&-+/,'(%&-+/,'(%&-+/,'(%&-+/,'(%&-+/,'(%&-+/,'(%&-+/,'(%&-+/,'(%&-+/,'(%&-+/,'(%&-+/,'(%&-+/,'(%&-+/,'(%&-+/,'(%&-+/,'(%&-+/,'(%&-+/,'(%&-+/,'(%&-+/,'(%&-+/,'(%&-+/,'(%&-+/,'(%&-+/,'(": 2857,
      "ďĉ!!!!!!!!!!!!!!!!!!!!!!!!!!!!!!!!!!!!!!!!!!!!!!!!!!!!!!!!!!!!!!!%&'(%&'(": 2858,
      "!!!!!!!!!!!!ďĉ!!ďĉ!!!!!!!!!!!ďĉďĉ%&'(ďĉďĉćĈ!ĈĈ!Ĉ!ďĉ!ďĉ!ďĉďĉďĉ!!": 2859,
      "ďĉ!ďĉ!!!!!!!!!!!ďĉ!!ďĉďĉďĉďĉďĉďĉ!ďĉďĉďĉďĉďĉďĉ%&'(ďĉďĉ!ďĉďĉďĉćććććĈ!Ĉ!Ĉ!ćĈĈćĈ%&'(ďĉďĉććĈ!Ĉ!Ĉ!ćĈ!ďĉďĉďĉďĉďĉďĉ": 2860,
      "ďKĉ": 2861,
      "ďĉĈ!Ĉ!Ĉ!Ĉ!ĈĈĈĈĈĈĈĈĈĈĈĈĈĈ!Ĉ!Ĉ!Ĉ!Ĉ!ĈĈĈ!ĈĈ%&'(ďĉ!ďĉďĉďĉćĈ!Ĉ!Ĉ!Ĉ!ĈĈ!Ĉ!Ĉ!Ĉ!": 2862,
      "!!!!!!!!!!!!!!!!!!!%&'(ďĉ!ďĉďĉ!!!!!!!!!!!!!!!!!!!!!!!!!!!!ďĉ!!!!!!!!!!!!!!!!!!!!!!!!!!!!!!!!!!!!!!!!!!!!!!!!!!!!!!!!!ďĉ!!!!!!!!!!!!!!!": 2863,
      "ďē": 2864,
      "ĖĦ": 2865,
      "ďĉ%&'ď(ĉ": 2866,
      "%&'(!!!!": 2867,
      "%&'(ććććĈ!ćĈ!Ĉ!Ĉ!ĈĈ!Ĉ!Ĉ!ĈććĈ!ćďĉććććććććĈ!Ĉ!Ĉ!Ĉ!ćĈĈĈĈ!Ĉ!ćĈ!": 2868,
      "ć%&'(ďĉďĉďĉďĉ": 2869,
      "ć%&'(ďĉďĉ!!ćććĈ!Ĉ!ćĈ!Ĉ!ĈĈĈĈ!ććĈďĉďĉććććććććććććććĈ!ććĈ!Ĉ!Ĉ!ĈćĈ!Ĉ!ĈćĈććĈĈ!ĈĈĈ%&'(ďĉ!!!ďĉďĉďĉďĉďĉďĉďĉďĉ!": 2870,
      ")!)!!!!!!!!!!!!!!!!!!!!!!!!!!!!!!!!!!!!!!!!!!!!!!!!!!!!!!!!!!!!!!!!!!!!!!!!!!!!!!": 2871,
      "MMMMMMMMMMMMMMMMMMMMMMMM": 2872,
      "MMMMMMMMMMMMMMMMMMMMMMMMMMMM": 2873,
      "ďĉ!!!!!!!!!!!!!!!!!!!!!!!!!!!!!!!!!!!!": 2874,
      "&'(!!!!!!!!!!!!!!!!!!!!!!!!!!!!!!!!!!!!!!!!!!!!!!!!!!": 2875,
      "ďĉ!ďĉďĉďĉĈ!ĈĈćďĉďĉďĉďĉďĉďĉďĉ!ďĉ!ďĉďĉďĉ!": 2876,
      "ďĉ!ďĉďĉďĉďĉďĉďĉďĉďĉ%&'(ććććĈ!ćĈ!Ĉ!Ĉ!ĈĈ!Ĉ!Ĉ!ĈććĈ!ćďĉććććććććĈ!Ĉ!Ĉ!Ĉ!ćĈĈĈĈ!Ĉ!ćĈ!": 2877,
      "ćĈ!Ĉ!ĈćĈ!ć%&'(ďĉďĉ!!ćććĈ!Ĉ!ćĈ!Ĉ!ĈĈĈĈ!ććĈďĉďĉććććććććććććććĈ!ććĈ!Ĉ!Ĉ!ĈćĈ!Ĉ!ĈćĈććĈĈ!ĈĈĈ%&'(ďĉ!!!ďĉďĉďĉďĉďĉďĉďĉďĉ!": 2878,
      "&'(!!!!!!!!!!!!!!!!!!!!!!!!!!!!!!!!!!": 2879,
      "ćććĈ!Ĉ!Ĉ!ćĈ!Ĉ!Ĉć%&'(ďĉďĉďĉďĉ": 2880,
      "!!!!!!!!!!!!!!!!!!!!!!!!!!!!!!!!!!!!!!!ďĉ!ďĉ!!!!!!!!!!!ďĉ!ďĉ": 2881,
      "'7777777(788888888,-%&+": 2882,
      "ćďĉďĉććĈ!ďĉďĉďĉďĉ!": 2883,
      "Ĉ!Ĉ!ćĈ!Ĉďĉ!!!!!!!!!": 2884,
      "ććĈĈćĈĈĈććĈĈććĈćććĈĈĈĈĈćĈĈćĈćĈĈćĈĈćĈĈĈĈĈćĈćĈĈćĈĈćĈćĈćĈććĈćĈćĈćĈćĈ!ćĈćĈćĈćĈćĈćĈćĈćĈćĈćĈćĈćĈććĈ!Ĉ!ććĈ!ććććĈćĈćĈćĈććććĈ!Ĉ!ććĈ!ĈććććĈćĈćĈćĈćĈćĈćĈćĈćĈćĈć%&'(!!!!!!!!!!!!!!!!!!!!!!!!!!!!!!!!!!!!!!!!!!!!!!!!!!!!!!!%&'(%&'(ďĉ!!ććććććĈććĈ!ďĉćĈ!Ĉ!Č": 2885,
      "ćďĉ#$ćĈ!ćć%&'(ďĉďĉ!!!!ďĉ!!)ďĉďĉ!ďĉďĉ%&'(!ďĉďĉďĉ!!ďĉďĉćĈ!Čďĉďĉďĉ!ďĉďĉ!ďĉďĉďĉ!ďĉďĉ!ďĉďĉďĉĈ!Ĉ!Ĉ!Ĉ!!Ĉ!Ĉ!Ĉ!Ĉ!!Ĉ!Ĉ!Ĉ%&'(": 2886,
      "%Ĉ!Ĉ": 2887,
      ")ĉ": 2888,
      "EFD": 2889,
      "ďĈ!ćĉ": 2890,
      "ďĉďĉććć": 2891,
      "%&'(!!!!!!!!!!!!!!!": 2892,
      "%&'(ćĈ!Ĉ!ćĈ!ćĈ!ćĈ!Ĉ!ććććĈ!ććĈ!ć!ďĉććĈ!Ĉ!ĈĈĈ!Ĉ!Ĉ!ĈĈćĈďĉ!!ďĉďĉ!!!)!)": 2893,
      "%&'(ďĉ!!ďĉ!ďĉďĉ!ďĉ!ďĉďĉďĉ!": 2894,
      "ćĈ!ćĈ!ćĈ!": 2895,
      ")!)!!!!!!!!!ććććĈ!ĈĈ": 2896,
      "ďĉ!ďĉ%&'(ďĉďĉ": 2897,
      "%&'(ĉĉ": 2898,
      "ďĉ!ďĉ!ďĉďĉ!!ďĉ!ďĉ!!": 2899,
      "ć%&'(ďĉ!ďĉďĉ!!": 2900,
      "Ĉ!ĈĈ!ćĈ!ćĈ!": 2901,
      "ĈĈĈĈĈĈĈĈĈĈĈĈĈ": 2902,
      "ďĉ!!!!!!!!!!!!!!!!!!!!!!!!!!!!!!!!!!!!!!!": 2903,
      "ďĉ!ďĉďĉďĉ!!!": 2904,
      "L!LKLLLL": 2905,
      "&'(!!!!!!!!!!!!!!!!!!!!!!!!!!!!!!!!!!!!!!!!!!!!!!!!!!!!!!!!!!!!!!!!!!!!!!!!!!!!!!!!!!!!!!!!!!!!!!!!!!!!!!!!!!!!!!!!!!!!!!!!!!!!!!!!!!!!!!!!!%!!!!!!!!!": 2906,
      "0011010101'(3": 2907,
      "ćććďĉććććććĈ!ććČďĉďĉďĉďĉďĉďĉďĉďĉ!!!": 2908,
      "ďĉ!ďĉĈ!Ĉ!ćĈ!Ĉ!ĈĈĈďĉ!ďĉ!!!SĂĄĆ!!ďĉ!!!!!!RTVa!!!SĂĄĆ!!!!R!!!S": 2909,
      "ćććććĈ!ĈĈćĈĈćĈďĉććććććććĈ!Ĉ!Ĉ!ĈćĈĈ!Ĉ!ĈćĈĈ!ćĈ!Ĉ!ĈĈĈĈćĈĈĈĈćĈĈćĈĈĈĈĈĈćĈĈĈĈćĈĈćĈĈćĈ!ćććĈ!ćć%&'(ďĉďĉ!!!!ďĉďĉ!!!!!!!!!!!!!!!!!!!!!": 2910,
      "ďĉ!ďĉďĉ!ďĉćććĈ!Ĉ!Ĉ!Ĉ!%&'(Ĉ!Ĉ!ćććććĈ!ćĈĈďĉďĉ!!!!!!!!!!!ďĉćććĈ!Ĉ!Ĉ!Ĉ%&'(ďĉ!ďĉďĉďĉďĉ!!!!!!!!!!!!!!!!!!!!!Ĉ!Ĉ!Ĉ": 2911,
      "ďĉćććććĈ!Ĉ!Ĉ!ćĈĈćĈ%&'(ďĉďĉ": 2912,
      "ďĉ!!!!!!!!!!!!!!!!!ďĉ!!!!!!!!!ćććĈ!Ĉ!Ĉ!Ĉ!Ĉ!Ĉ!ĈĈĈĈĈĈĈĈĈĈĈĈ": 2913,
      "!!!!RTVa!!!S": 2914,
      "ćĈ!ććĈ!Ĉ!ĈćĈ!ĈććĈĈĈćĈĈĈćĈ!ĈććĈĈĈćĈĈććĈĈĈćĈ!ĈćĈ!ććĈĈ!Ĉ!ĈĈćĈ!Ĉ!ćććĈ!Ĉ!ćććĈĈćĈ!ĈĈĈ!!ćććć!!!!!!!!!!!!!!!!!!!!%&'(%&'(ďĉďĉďĉ%&'(ćććĈ!Ĉ!Ĉ!Ĉ!Ĉ!Ĉ!Ĉ!Ĉ!Ĉ!Ĉ!ćĈ!ćĈ!Ĉ!ćĈ!Ĉ!Ĉ!ćĈ!Ĉ!": 2915,
      "ćďĉ!ďĉ!!!!!!!!!!!!!!!!!!!!!!!!!!!!!!!!!!!ćććććććććććĈ!ĈćĈ!Ĉ!ĈćĈ!ć%&'(ďĉďĉ!!ćććĈ!Ĉ!ćĈ!Ĉ!ĈĈĈĈ!ććĈďĉďĉććććććććććććććĈ!ććĈ!Ĉ!Ĉ!ĈćĈ!Ĉ!ĈćĈććĈĈ!ĈĈĈ%&'(ďĉ!!!ďĉďĉďĉďĉďĉďĉďĉďĉ!": 2916,
      "322222222222222222222222222222222": 2917,
      "Ėďĉ": 2918,
      "ďĉ!Ħ": 2919,
      "ďĉďĉďĉ!!!": 2920,
      "LLL!LK!LK": 2921,
      "ďĉ%&'(ćććććććć": 2922,
      "ć%&'(ďĉ!ďĉďĉďĉďĉďĉďĉďĉďĉ": 2923,
      "ď!ďď": 2924,
      "ď%ĉ&'(!!": 2925,
      "ďĉďĉ!ďĉ!%&'(ďĉ!!!": 2926,
      "%&'(ďĉ!ćĈ!ćĈďĉďĉďĉďĉ!ďĉďĉďĉďĉ!ďĉ!!": 2927,
      "Ĉ!Ĉ!ĈĈ!Ĉ!Ĉ!ĈĈĈĈćďĉďĉćććććććĈ!Ĉ!Ĉ!ćĈ!Ĉ!Ĉ!ćďĉ!": 2928,
      "ćĈĈĈććĈ!Ĉ!ććĈ!ćććĈćĈćĈćĈćĈĈćĈĈćĈćĈćĈćĈ!Ĉ!ĈćĈ!Ĉ!Ĉ!ććććĈćĈććĈ!ćĈ!Ĉ!Ĉ!Ĉ!ćĈ!Ĉ!ćĈ!ćĈ!Ĉ!ćĈ!ĈćĈ!ĈĈ!ĈćĈćĈćĈćććĈćĈćććĈćĈćĈ!ĈćĈćĈćĈ": 2929,
      "ďĉ!ďĉďĉ!ďĉćććĈ!Ĉ!Ĉ!Ĉ!Ĉ!Ĉ!ćććććĈ!ćĈĈ%&'(ďĉďĉ!!!!!!!!!!!ďĉćććĈ!Ĉ!Ĉ!Ĉ": 2930,
      "%&'(%&'(ďĉ!!ććććććĈććĈ!ďĉćĈ!Ĉ!Čďĉďĉďĉ!": 2931,
      "ććĈ!ćďĉďĉďĉďĉďĉďĉďĉ!!ďĉď%&'(ĉďĉ": 2932,
      ")ďĉďĉďĉďĉďĉďĉďĉ!ďĉ!!ďĉďĉďĉďĉďĉďĉďĉ)!": 2933,
      "ďĉďĉďĉ%&'(ďĉďĉďĉďĉďĉďĉďĉďĉďĉďĉďĉ!ććĈ!ćććĈ!ćććĈ!ćććĈ!Ĉ!Ĉ!ďĉćć": 2934,
      "%&'(ďĉććććććććĈ!Ĉ!Ĉ!ĈćĈĈ!Ĉ!ĈćĈĈ!ćĈ!Ĉ!ĈĈĈĈćĈĈĈĈćĈĈćĈĈĈĈĈĈćĈĈĈĈćĈĈćĈĈćĈ!ćććĈ!ćć": 2935,
      "ćććććććććććććććććććććććććć%&'(Ĉ!": 2936,
      "ćďĉ!ďĉďĉďĉ%&'(ďĉďĉďĉďĉďĉĈ!ĈććĈĈ!Ĉ!ććĈ!Ĉ!ĈĈ!ĈĈĈ": 2937,
      "ćććĈ!Ĉ!Ĉ!ćĈĈĈĈ!ćĈ!ĈĈ!ćĈ!ć%&'(": 2938,
      "!ĉ": 2939,
      "ďĈĈĈĈ": 2940,
      "!!!!!!!!%&'(": 2941,
      "ďĉ%&'(ďĉďĉďĉďĉďĉ": 2942,
      "ćććććććććććććććććććććććććććććććć": 2943,
      "ďĉ!!!!!!!!!!!!!!!!!!!!!!!!!": 2944,
      "ďďĉĉďĉďĉ": 2945,
      "ďĉććĈ!Ĉ!Ĉ!Ĉ!Ĉ!Ĉ!Ĉ!ĈĈćĈ": 2946,
      "ćĈĈĈĈĈĈĈĈĈĈĈĈĈĈ": 2947,
      "ďĉććććććććććććććĈ!ććĈ!Ĉ!Ĉ!ĈćĈ!Ĉ!ĈćĈććĈĈ!ĈĈĈďĉ!!!": 2948,
      "%&'(ďĉďĉďĉ!!!!!ďĉďĉďĉ!ďĉďĉćććććĈ!Ĉ!ćĈĈćďĉćĈ!ććĈ!ćĈ!Ĉ": 2949,
      "ćĈ!Ĉ!Ĉ!Ĉ!Ĉ!Ĉ%&'(ďĉĈ!Ĉ!Ĉ!Ĉ!": 2950,
      "Ĉ!Ĉ!ĈĈĈĈĈĈćĈ!ĈĈĈ%&'(ďĉ%&'(%&'(%&'(ďĉďĉďĉďĉ!ďĉďĉ!!%!&'(": 2951,
      "%ćć&": 2952,
      "Ĉ!ĈĈĈ!ĈĈĈć": 2953,
      "ćććĈ!Ĉ!Ĉ!Ĉ!Ĉ!Ĉ!ćĈ!Ĉ!Ĉ!Ĉ!ćĈ!Ĉ!Ĉ!Ĉććďĉ!ćĈ!ćĈďĉďĉďĉďĉ!": 2954,
      "ďĉďĉ!!ďĉ!!ďĉ!ććĈ!ďĉ!ďĉďĉ!!ďĉďĉ)ďĉďĉ!ďĉďĉ!!ďĉ!!!!ďĉďĉďĉďĉ": 2955,
      "ďĉ!ďĉ!ďĉďĉ!ďĉ!ďĉďĉďĉďĉ!": 2956,
      "ďĉďĉďĉďĉ!ďĉďĉďĉďĉ%&'(!": 2957,
      "Ĉ!Ĉ!ĈĈ!Ĉ!Ĉ!Ĉ!ďĉďĉďĉďĉďĉ!ďĉďĉďĉ!%&'(ćĈ!Ĉ!ćĈ!ćĈ!ćĈ!Ĉ!ććććĈ!ććĈ!ć!ďĉććĈ!Ĉ!ĈĈĈ!Ĉ!Ĉ!ĈĈćĈďĉ!!ďĉďĉ!!!)!)": 2958,
      "Ĕ!ďĉďĉďĉďĉćććďĉ!": 2959,
      "ććĈćĈ!Ĉ!Ĉ!Ĉ!Ĉ!Ĉ!ććĈ!Ĉ!Ĉ!ćĈ!": 2960,
      "ććććććććććććććććććććććććććĈ!ćććĈ!Ĉ!ćĈ!Ĉ!ćĈ!ćĈ!ćĈ!ĈĈ!Ĉ!ćĈ!ćĈ!Ĉ!Ĉ!%&'(ďĉďĉ!ďĉďĉďĉďĉďĉďĉďĉďĉ!": 2961,
      "!!Ħ": 2962,
      "&'(!!!!!!!!!!!!!!!!!!!!!!!!!!!!!!!!!!!!!!!!!!!!!!!!!!!!!!!!!!!!!!!!!!!!!!!!!ććććĈ!ĈĈ%&'(ďĉ!!!!!!!!!!!": 2963,
      "ćĈ!ĈĈ!Ĉ!Ĉ!Ĉ!": 2964,
      "ďĉ!ďĉ!!!!!!!!": 2965,
      "%&'(ďĉ!!!!!!!!!!!!!!!!!!!!!!!!!!!!!!!!": 2966,
      "ďĉ%&'(ďĉďĉďĉďĉďĉďĉďĉ!": 2967,
      "%Ĉ&'(!Ĉ!Ĉ": 2968,
      "%!!!&'(!!!!!!!!!!!!!!!!!!!!!!!!!!!!!!!!!!!!!!!!!!!!!!!!!!!!!!!!!!!!!!!!!!!!!!!!!!!!!!!!!!!!!!!!!!!!!!!!": 2969,
      "&'(!!!!!!!!!!!!!!!!!!!!!!!!!!!!!!!!!!!!!!!!!!!!!!!!!!!!!!!!!!!!": 2970,
      "%!!!!!!!!!!!!!!&'(": 2971,
      "ďĉ!!ďĉďĉďĉĈ!ĈĈĈ!ĈĈĈĈĈĈĈĈĈĈĈĈĈĈĈĈĈĈ!ďĉ!!ďĉ!ďĉ!!!": 2972,
      "&'(!!!!ďĉććććĈ!ćĈ!ćĈ!ĈĈ!ććĈ!Ĉ!ČďĉćĈ!ćĈ!ćĈ!ćĈćĈ!ćĈ!Ĉ!ććĈ!ĈĈ!ćĈĈ!Ĉ!ĈćĈ!Ĉ!ĈĈĈĈĈĈććĈ!ćďĉ!!!!!!!!ďĉ!ďĉ%!&'(": 2973,
      ")!)!!!!!!!!!!!!!!!!!!!!!!!!!!!!!!!!!!!!!!!!!!!!!!!!!!!!!!!!!!!!!!!!!!!!!!!!!!!!!!!!!!!!!!!!!!!!!!!!!!!!!!!!!!!!!!!!!!!!!!!!!": 2974,
      "ďĉ!ďĉććććććĈććĈ!ďĉďĉďĉ!ććĈ!ć": 2975,
      "ćĈ!ĈĈĈ!ĈĈćĈ!Ĉ!Ĉ!ćĈćĈĈĈĈĈćĈĈćĈćĈćĈćĈĈĈćĈĈĈĈĈĈćĈ!Ĉ!ć%&'(ďĉ!!ďĉ!ďĉďĉďĉ!ďĉ!!!!!ďĉ!ďĉďĉďĉďĉ": 2976,
      "ďĉ!ďĉ!!!!!!ďĉďĉ!!!!ďĉďĉďĉććĈ!Ĉ!": 2977,
      "&'(!!!!!!!!!!!!!!!!!!!!!!!!!!!!!!!!!!!!!!!!!!!!!!!!!!!!!!!!!!!!!!!!!!!!!!!!!!!!!!!!!!!!!!!!!!!!!!!!!!!!!!!!!!!!!!!!!!!!!!!!!!ďĉććĈĈĈĈĈ%&'(ďĉďĉ)!)!!ďĉďĉ!!!!!!!!!!!!!!!!!!!!!!!!!!!!!!!!!!!!!!!!!!!!!!!!!!!!!!!!!!!!!!!!": 2978,
      "ďĉ!ďĉĈ!Ĉ!ćĈ!Ĉ!ĈĈĈďĉ!ďĉ!!!SĂĄĆ!!ďĉ!!!!!!RTVa!!!S%&'(ĂĄĆ!!!!R!!!SćććććććĈ!Ĉ!ćĈ!ĈćĈĈ!Ĉ!ćĈ!ĈĈ!ććĈ!ćĈ!ććĈćĈććć!!ďĉ!ďĉ!!": 2979,
      "!)": 2980,
      "!!Ĉ": 2981,
      "%&'(ďĉ!ďĉďĉ!ďĉ!ďĉďĉďĉ!": 2982,
      "ďĉďĉďĉďĉ%&'(ďĉ": 2983,
      "ćĈĉ": 2984,
      "ćĈ)!)!!Ĉ!Ĉ!ĈĈ!!!!!": 2985,
      "Ĉ!Ĉ!Ĉ!Ĉ!ĈĈ!": 2986,
      "Ĉ!ĈĈĈĈ!ĈĈĈĈĈ": 2987,
      "ďĉ%&'(!!": 2988,
      "!!!!!!!!!!!!!%!!!!!!!!!!!!!!!!!!!!!!!!!!!!!!!": 2989,
      "23322": 2990,
      "ďďĉĉďĉ": 2991,
      "ďĉ!!!!!!!!ććĈ!Ĉ!ĈćĈĈĈććĈĈĈććĈ!Ĉ!Ĉ!Ĉ!Ĉ!Ĉ!ćĈĈ!Ĉ!Ĉ!ćĈĈĈććĈĈ!ćććĈ!ććĈ!ćĈ!ĈĈĈćć!!!!%&'(ďĉ!!ďĉ!!ćĈ!Ĉ!Ĉ!Ĉ!Ĉ!Ĉ!Ĉ!ćĈ!ďĉ!!!!!!!!ďĉ!!!!!ćĈ!ĈćĈ!ćĈ!ĈĈ!ćĈ!Ĉ!ĈĈĈ!ĈĈĈććĈ!": 2992,
      "ďĉďĉďĉďĉďĉ!!ďĉ!!!!!!!": 2993,
      "ććććććĈ!ććČďĉďĉďĉďĉďĉďĉďĉďĉ!!!ďĉďĉďĉďĉććĈ!Ĉ!Ĉ!Ĉ!Ĉ!Ĉ!ććĈ!ć%&'(": 2994,
      "ďĉďĉďĉďĉďĉ!!ďĉ!!ďĉďĉďĉ)!)ďĉďĉďĉďĉďĉ!": 2995,
      "ćĈ!Ĉ!ćĈĈ!ćĈ!ćĈ!ĈĈ!Ĉ!Ĉ!ćĈ!Ĉ!Ĉ!ććĈ!Ĉ!Ĉ!Ĉ!Ĉ!Ĉ!ćĈćĈ!ććććććĈ!ćĈ!ććĈćććĈćććĈĈćĈćĈ!Ĉ!ćĈ!ĈćĈćĈćĈćĈ!Ĉ!ĈćĈ!Ĉ!": 2996,
      "&'(!!!!!!!!!!!!!!!!!!!!!!!!!!!!!!!!!!!!!!!!!!!!!!!!!!!!!!!!!!!!!!!!!!!!!!!!!!!!!!!!!!!!!!!!!!!!!!!!!!!!!!!!!!!!!!!!!!!!!!!!!!!!!!!!!!!!!!%!!!!!!!!!!!!!!!&'(!!!!!!!!!!!!!!!!!!!!!!!!!!!!!!!!!!!!!!!!!!!!!!!!!!!!!!!!!!!!!!!!!!!!!!!!!!!!!!!!!!!!!!!!!!!!!!!!!!!!!!!!!!!!!!!!!!!!!!!!!!!!!!!!!!!!!!%!!!!!!!!!!!!!": 2997,
      "Ĉ!Ĉ!ĈĈĈĈĈĈćĈ!ĈĈĈ%&'(ďĉ%&'(%&'(%&'(ďĉďĉďĉďĉ!ďĉďĉ!!%!&'(ďĉďĉďĉ!!ďĉ!ććĈ!Ĉ!Ĉ!Ĉ!Ĉ!ďĉďĉ!ďĉćććććĈ!Ĉ!Ĉ!Ĉ!Ĉ!Ĉ!ďĉ!%&'(ďĉ!!ďĉ!ďĉďĉ!": 2998,
      ")Ĉ": 2999,
      "ML": 3000,
      "ćĈ!ďĉďĉďĉĈ!Ĉ!Ĉ!Ĉ!Ĉ!ćĈ!ĈĈĈĈćĈ!ćĈ!ćďĉďĉďĉďĉ!": 3001,
      "ďĉ!))ħ!": 3002,
      "!!!)!)!!!!!!!!!!!!!!!!!!!!!!!!!!!!!!!!!!!!!!)!)!!!!!!!!!!!!!!!!!!!!!!!!!!!!!!!!!!!!": 3003,
      "ďĉďĉďĉćććĈ!Ĉ!Ĉ!Ĉ!ĈĈĈĈĈĈĈĈĈĈ!ćĈ!Ĉ!ĈćĈĈćĈćĈĈĈćĈĈďĉĈ!ĈĈĈĈ": 3004,
      "Ĉ!ćĈ!Ĉ!Ĉ!Ĉ!Ĉ!": 3005,
      "ďĉďĉďĉďĉďĉďĉďĉďĉććććĈ!ćĈ!Ĉ!Ĉ!ĈĈ!Ĉ!Ĉ!ĈććĈ!ć%&'(ďĉććććććććĈ!Ĉ!Ĉ!Ĉ!ćĈĈĈĈ!Ĉ!ćĈ!ďĉďĉ": 3006,
      "Ĉ!ĈĈĈ!ĈĈ!ĈĈĈĈ!ĈĈ!ĈďĉĈ!ĈĈĈĈĈĈĈĈ!ĈĈĈ": 3007,
      "%&'(ďĉďĉćĈ!ćďĉďĉ!ďĉďĉćććććĈ!ćČ": 3008,
      "ďĉďĉďĉďĉďĉďĉďĉ!!!": 3009,
      "ďĉ!ďĉďĉ!%&'(": 3010,
      "%!!!!!!!!!!!!!!!!!!!!!!!!!!!!!!!!!!!!!!!!!!": 3011,
      "ďĉďĉďĉćďĉďĉďĉďĉ!": 3012,
      "ďĉďĉ!ďĉ)))": 3013,
      "Ē!!Ē": 3014,
      "%&'(ďĉďĉďĉ!!!!!!!!!!": 3015,
      "ćĈ!ĈććĈĈĈćĈĈĈćĈ!ĈććĈĈĈćĈĈććĈĈĈćĈ!ĈćĈ!ććĈĈ!Ĉ!ĈĈćĈ!Ĉ!ćććĈ!Ĉ!ćććĈĈćĈ!ĈĈĈ!!ćććć!!!!!!!!!!!!!!!!!!!!%&'(%&'(ďĉďĉďĉ": 3016,
      "ćććććĈ!Ĉ!Ĉ!ćĈĈćĈďĉďĉĈ!Ĉ": 3017,
      "ććĈĈćĈĈĈććĈĈććĈćććĈĈĈĈĈćĈĈćĈćĈĈćĈĈćĈĈĈĈĈćĈćĈĈćĈĈćĈćĈćĈććĈćĈćĈćĈćĈ!ćĈćĈćĈćĈćĈćĈćĈćĈćĈćĈćĈćĈććĈ!Ĉ!": 3018,
      "ććĈ!ćĈ!Ĉ!ĈĈĈ!ĈĈĈććĈ!ĈĈ!ĈĈĈĈ!ĈĈ!ĈĈĈĈ%&'(ďĉďĉďĉ!!!!!!!!!!": 3019,
      "ďĉ!!!!!!!!!!!!!!!!!!!!!!!!ďĉ!!ďĉďĉďĉďĉďĉ!!ďĉ!ďĉ!": 3020,
      "77'77777(788888888,-%&+": 3021,
      "32222323232222222222222222222222222222222222222222244444444%&5555555522222222222222222222222266666666": 3022,
      "ćććććććććććĈ!ććĈ!Ĉ!ćĈ!Ĉ!ćĈ!ć!ďĉ!!ďĉ)!!!)!!!!!": 3023,
      "ćććĈ!Ĉ!Ĉ!ćĈ!Ĉ!Ĉ!Ĉ!Ĉ!!%&'(ďĉďĉ!ďĉ!!!!!!!!ďĉďĉďĉďĉďĉććććĈ!ćĈ!ĈćĈĈ!Ĉ!Ĉ!Ĉ!ĈćĈĈćĈĈĈĈĈĈ!%&'(ďĉďĉďĉ!))ďĉ!ďĉďĉďĉďĉćďĉ!ďĉďĉďĉ": 3024,
      "ććććĈ!Ĉ!Ĉ!Ĉ!Ĉ!ĈĈ!Ĉ!ćďĉ!!%&'(ďĉďĉćĈ!ćďĉďĉ!ďĉďĉćććććĈ!ćČ": 3025,
      "ďĉďĉ!ďĉ!%&'(ďĉ!!!ďĉ!!!ćććĈćĈ!ćĈ!ĈĈ!Ĉ!ćĈĈĈĈĈĈĈĈĈĈĈĈĈ!ćĈ!ćĈĈĈĈ!Ĉ%&'(ďĉććďĉďĉ!!ďĉććĈ!ĈĈĈĈĈ!ćďĉďĉ": 3026,
      "ćĈĈĈĈĈĈĈĈĈĈĈĈĈĈćĈ!ĈćĈĈćĈĈĈĈĈĈĈ": 3027,
      "ĥ!!": 3028,
      "Ħē": 3029,
      "ććď": 3030,
      "ďĉďĉ!ďĉ!ďĉ": 3031,
      "ćĈĈĈĈćć": 3032,
      "ćďĉ!!!": 3033,
      "!!!!!!!!!!!!!!!%!!!!!!!!!!!!!!": 3034,
      "!!!!!!!!!!!!!!!)!)!!!!!!!!!!!!!!!!!!!!!!!!!!!!!!!!!!!!!!!!!!!!!!!!!!!!!!!!!!!!!!!!!!!!!!!!!!!!!!!!!!!!!": 3035,
      "%Ĉ&'(ĈĈĈĈ": 3036,
      "%!&'(!!!!!!!!!!!!!!!!!!!!!!!!!!!!!!!!!!!!!!!!!!!!!": 3037,
      "ďĉďĉďĉ%&'(ďĉďĉ!": 3038,
      "ďĉ!!ďĉććććććććććććććććććććććĈ!ććĈ!ćĈ!ććĈ!ććććĈ!ćććĈććĈćććĈććććĈććĈććććĈććĈ": 3039,
      "ďĉ!ďĉďĉ%ď&'(ĉ": 3040,
      "%!!!&'(!!!!!!!!!!!!!!!!": 3041,
      "Ĉ!Ĉ!Ĉ!!ďĉďĉ!ďĉ!!!!!!!!ďĉďĉďĉďĉďĉććććĈ!ćĈ!ĈćĈĈ!Ĉ!Ĉ!Ĉ!ĈćĈĈćĈĈĈĈĈĈ!%&'(ďĉďĉďĉ!))ďĉ!ďĉďĉďĉďĉ": 3042,
      "001101010101": 3043,
      "&'(!!!!!!!!!!!!!!!!!!!!!!!!!!!!!!!!!!!!!!!!!!!!!!!!!!!!!": 3044,
      "%&ď'(ĉďĉďĉ": 3045,
      "ćďĈĈ": 3046,
      "!!!!!!!!!!!!!!!!!!!!!!!!!!!!!!!!!!!!!!!!!!!!!)!)!!!!!!!!!!!!!!!!!!!!!!!!!!!!!!": 3047,
      "!!!!!!!!!!!!!!!!!!!!!!!!!!!ďĉ!ďĉ!!!!!!ďĉďĉ!!!!": 3048,
      "ďĉďĉďĉ!!)!)!!!!!!!!!!!!!!!!!!!!ďĉ!!!!!!!!!!!!!!!!!!!!!!!!!!!!!!!!!!!ďĉ!ďĉďĉ!": 3049,
      "ďĉďĉďĉďĉćĈ!ĈĈ!Ĉ!ďĉ!ďĉ!ďĉďĉďĉ!!ďĉ!ďĉ%&'(!": 3050,
      "ćĈ!ďĉ!)ććććććććććććĈ!ććĈ!ćĈ!ćĈ!Ĉ!Ĉ!ćĈ!Ĉ!ćĈ!%&'(ďĉććĈ!Ĉ!Ĉ!Ĉ!ćĈ!Ĉ!!Ĉ!ćĈ!ćĈ!ććĈ!Ĉ!ćĈ!ďĉ!": 3051,
      "ćććććććććććććććććććććććććć%&'(Ĉ!ćććĈ!Ĉ!ćĈ!Ĉ!ćĈ!ćĈ!ćĈ!ĈĈ!Ĉ!ćĈ!ćĈ!Ĉ!Ĉ!": 3052,
      "%ććć": 3053,
      "Ĉ!ćĈ!ćĈ!Ĉ!": 3054,
      "!!!!!!!!!!!!!!!!!!!!!!!!!": 3055,
      "ďĉďĉďĉďĉ!!!": 3056,
      "ĈĈĈĈĈĈĈĈĈĈ": 3057,
      ")!)!!!!!!!!!!ďĉ!!!!!!": 3058,
      "ďĉďĉ!!ďĉďĉďĉďĉććććĈ!ĈĈ!ćĈ!ĈĈ!Ĉ!Ĉ!ćĈ!ćĈ": 3059,
      "ďĉďĉďĉďĉďĉďĉďĉďĉ!ďĉ": 3060,
      "%!&": 3061,
      "ĈĈĈĈĈĈĈĈĈĈĈĈĈĈĈĈĈ!": 3062,
      "ďĉďĉ%&'(ďĉ!!": 3063,
      "22222244444444%&5555555522222222222222222222222266666666": 3064,
      "ďďĉĉďĉďĉďĉ": 3065,
      "232323232222222222222222222222222222222222222222244444444%&5555555522222222222222222222222266666666": 3066,
      "ććććććĈććĈ!ďĉćĈ!Ĉ!Č": 3067,
      "!&'(ďĉ))ďĉħ": 3068,
      "ďĉ%&'(ďĉ!!!!ďĉ!!)ďĉďĉ!": 3069,
      "Ĉ!Ĉ!Ĉ!Ĉ!ććĈććďĉďĉďĉ!!ďĉ!!ďĉ!!!!!!!!)!!!!!!!!)!)!)!!!!!!!!!!!!!!!!!!!!!!!!!!!!!!!!!!!!!!!!!!!!!!!!!!!!!!!!!!!!!!!!!!!!!!!!!!!!!!!!!!!!!!!!!!!!!!!!!!!!!!!!!!": 3070,
      "32322": 3071,
      "ħ)ę!": 3072,
      "Ĉ!ĈĈĈ!ĈĈĈĈĈĈĈĈĈĈĈĈĈĈĈĈĈĈ!ďĉ!!ďĉ!ďĉ!!!ďĉďĉćĈ!ĈĈ!ĈĈĈĈ!Ĉ!Ĉ!ĈĈĈĈĈĈĈĈ!ĈĈĈĈĈ%&'(ďĉ!ďĉďĉ!ďĉ!ďĉďĉďĉ!": 3073,
      "ććĈ!Ĉ!ĈĈĈ!!ćĈ!Ĉ!Ĉ!Ĉ!ćďĉďĉ!!ďĉďĉďĉďĉććććĈ!ĈĈ!ćĈ!ĈĈ!Ĉ!Ĉ!ćĈ!ćĈ%&'(ďĉďĉďĉďĉ!!!!!!!!!ďĉ!!!!!!!!ďĉďĉďĉ!ďĉ!%&'(!!!!!!!!!!!!ďĉ!ďĉ!!!!!!ďĉďĉ!!ďĉ!ďĉďĉ!!": 3074,
      "%&'(ďĉ!!ďĉ!ďĉďĉ!ďĉ!ďĉďĉďĉ!ďĉďĉďĉ!ďĉďĉ!!ďĉďĉďĉ!": 3075,
      "ďĉďĉďĉďĉ!ďĉďĉďĉďĉ%&'(!ďĉ!!Ĉ!ĈćĈ!Ĉ!Ĉ!ĈćĈ!ććďĉ!Ĉ!ĈćĈ!Ĉ!Ĉ!ĈćĈ!ććďĉďĉ!ďĉďĉ%&'(ćĈ!Ĉ!Ĉ!Ĉ!Ĉ!Ĉ": 3076,
      ")!)!!!!!!!!!!ďĉ!!!!!!ćććĈ!Ĉ!Ĉ!Ĉďĉ!!!!!ďĉ!)!)!!!!!!!!!!!!!!": 3077,
      "ćď%&'(ĉ!": 3078,
      "ć%ćĈ&'(!": 3079,
      "ĉĈĈ": 3080,
      "!!%!!!!!!!!!!!": 3081,
      "!!!!ďĉďĉďĉććĈ!Ĉ!ćĈĈ!ćĈ!Ĉ!Ĉ!Ĉ!Ĉ!ĈĈĈćĈ!Ĉ!Ĉ!ćďĉććć": 3082,
      "Ĉ!ćĈ!Ĉ": 3083,
      "ďĉē": 3084,
      "ďĉĈ!Ĉ!": 3085,
      "ććććĈ!Ĉ!Ĉ!Ĉ!": 3086,
      "ďĉďĉďĉďĉ!!!!!!!!!": 3087,
      "ďĉďĉďĉďĉďĉ!ďĉ!!": 3088,
      "ďĉ!!ďĉďĉ%&'(ďĉ!ďĉ": 3089,
      "!!!!!!!!!!!!%!!!!!!!!!!!!!!!!!!!!!!!!!!!!!!!!!!!!!!!!!!!!!!!!": 3090,
      "ććććććććććććććĈ!ććĈ!Ĉ!Ĉ!ĈćĈ!Ĉ!ĈćĈććĈĈ!ĈĈĈďĉ!!!": 3091,
      "ďĉďĉďĉ%!&'(": 3092,
      "ďĉďĉďĉďĉďĉďĉďĉďĉďĉ!!!ďĉ%&'(ďĉďĉ!!ďĉ": 3093,
      "ććĈ!Ĉ!Ĉ!ĈĈ!Ĉ": 3094,
      "!!!!!!!RTVa!!!SĂĄĆďĉćććďĉ!": 3095,
      "ďĉ!ďĉ!%&'(": 3096,
      "ć%&'(ďĉďĉ!ďĉďĉ": 3097,
      "ć%&'(ďĉ!ďĉďĉďĉĈ!ĈĈćďĉďĉďĉďĉďĉďĉďĉ!ďĉ!ďĉďĉďĉ!": 3098,
      "ďĉ!!!!!!!!!!!!!!!!!!!!!!!!!!!!!!": 3099,
      "ďĉ!!!!!!!!!!!!!!!!!!!!!!!!!!!!!!!": 3100,
      "ćĈ!ćďĉďĉďĉďĉćććć": 3101,
      "ďĉ!!ďĉ!!!": 3102,
      "ďĉďĉďĉďĉďĉďĉćĈ!Ĉ!Ĉ!ĈĈ!Ĉ": 3103,
      "!!!SĂĄĆ!!!!R!!!S": 3104,
      "ďĉďĉďĉďĉďĉďĉďĉ%&'(ďĉ": 3105,
      "ď%ĉ&'(ďĉ": 3106,
      "001101'(3": 3107,
      "%!!&'(!!!!!!!!!": 3108,
      "ēēē": 3109,
      "ćĈĈ!ćĈ!ćĈ!ĈĈ!Ĉ!Ĉ!ćĈ!Ĉ!Ĉ!": 3110,
      "ďĉďĉ)ďĉďĉ!ďĉďĉ!!ďĉ!!!!ďĉďĉďĉďĉ!!!!!!!!!!!!!!!!!!!!!!!!!!!!!!!!!!!!!!!!!!!!!ćććććććĈ!ćĈ!Ĉ!Ĉ!Ĉ!Ĉ!ćĈ!Ĉ!ćĈććĈ": 3111,
      "ććĈ!%&'(ďĉ!ďĉ!!ćĈ!": 3112,
      "LLLLLLLLLLLLLLLLLLLLLLLLLLLLLLLLLLLLLLLLLLLLLLLLLLLLLLLLLLLLLLLL": 3113,
      "MMM!!!!!!!!!!!!!!!!!!": 3114,
      "ćććććććććććććććĈ!Ĉ!Ĉ!ćĈ!Ĉ!Ĉ!Ĉ!Ĉ!ćĈ!Ĉ!ćĈ!ćĈ!ćĈ!ćĈ!ćĈ!Ĉ!Ĉ!Ĉ!Ĉ!Ĉ!ćĈ!Ĉ!ććĈ!ćĈ!ĈĈĈ!ĈĈćĈ!Ĉ!Ĉ!ćĈćĈĈĈĈĈćĈĈćĈćĈćĈćĈĈĈćĈĈĈĈĈĈćĈ!Ĉ!ć%&'(ďĉ!!ďĉ!ďĉďĉďĉ!ďĉ!!!!!": 3115,
      "&'(!!!!!!!!!!!!!!!!!!!!!!!!!!!!!!!!!!!!!!!!!!!!!!!!!!!!!!!!!!!!!!!!!!!!!!!!!!!!!!!!!!!!!!!!!!!!!!!!!!!!!!!!!!!!!!!!!!!!!!!!!!!!!!!!!!!!!!!!!!!!!!%!": 3116,
      "ćććĈ!Ĉ!Ĉ!Ĉ!Ĉ!Ĉ!Ĉ!Ĉ!Ĉ!Ĉ!ćĈ!ćĈ!Ĉ!ćĈ!Ĉ!Ĉ!ćĈ!Ĉ!ć%&'(ďĉ!ďĉďĉďĉďĉďĉďĉďĉďĉ": 3117,
      "ďĉďĉďĉďĉďĉ)!)ďĉďĉďĉ!ďĉďĉďĉ!!ďĉďĉďĉďĉ!ďĉ!ďĉ!ďĉ!ďĉ!": 3118,
      "ď%&'(ĉďĉ!ďĉďĉďĉďĉďĉďĉďĉďĉ!ďĉďĉďĉďĉďĉćććććĈ!Ĉ!ćĈ!Ĉ!ćĈ!Ĉ!Ĉ!Ĉ!Ĉ!ćĈ!ćĈ!ćĈ!ćĈ!ćĈ!Ĉ!ćĈ!ćĈ!Ĉ!ćĈĈćĈ!ĈććĈ!ĈćĈćĈćĈ!ĈćĈĈ%&'(ďĉďĉďĉ%&'(Ĉ!Ĉ!Ĉ!Ĉ!ćććĈ!ďĉ!!ďĉ!!!!!!!!!!!ďĉ!!ćććććććĈ!Ĉ!Ĉ!ććĈĈććĈ!ćĈĈ%&'(ďĉďĉ!!!ćććććĈ!ćĈ!ććććĈ!ććĈ!ćććĈ!ćććĈ": 3119,
      "ďĉĈ!Ĉ!Ĉ!Ĉ!Ĉ!ĈĈĈ!ĈĈĈć%&'(ďĉďĉ!ďĉďĉ": 3120,
      "!!!!!!!!!!!!!!ďĉďĉ!ďĉ!)ďĉďĉďĉćďĉďĉ!ďĉďĉďĉ!!ďĉ!!!!%&'(ďĉďĉďĉďĉďĉďĉďĉ!!!!!!!!!!!ďĉ!!!!!!!!!!!!!!!!!!!!!!!!!!!!!!!!!!!!!!!!!!!!!!!!!!!!!!!!!!!!!!!!!%!!!!!!!!!!!!": 3121,
      "ćĈ!Ĉ!ĈćĈ!ďĉćććććććĈ!ćĈ!ć%&'(ďĉ!ďĉďĉ!!!ććććććććććććććććććććććććććĈ!ćććĈ!Ĉ!ćĈ!Ĉ!ćĈ!ćĈ!ćĈ!ĈĈ!Ĉ!%&'(ćĈ!ćĈ!Ĉ!Ĉ!ďĉďĉ!": 3122,
      "ďĉććććĈ!ćĈ!Ĉ!ćĈ!Ĉ!ćĈ!ćĈ!Ĉ!": 3123,
      "ďĉ!ďĉďĉďĉďĉďĉďĉ!!ďĉ!ďĉďĉďĉďĉ!!%&'(ďĉďĉďĉ!": 3124,
      "ććĈ!ďĉ!ďĉ!!ćĈ!%&'(ďĉďĉďĉĈ!Ĉ!Ĉ!Ĉ!Ĉ!ćĈ!ĈĈĈĈćĈ!ćĈ!ćďĉďĉďĉďĉ!ďĉ!ďĉďĉ": 3125,
      "ďĉ!!ďĉďĉ%&'(ďĉ!ďĉ!!!!!!!!!!!!!!!!!!!!!!!!!!!!!!!!!!!!!!!!!!!!!!!!!!!!": 3126,
      "Aē": 3127,
      "ďĐ": 3128,
      "Ĉ!ďĉ": 3129,
      "Ĉ!))": 3130,
      "ďĉććć": 3131,
      "'(!": 3132,
      "ďĉ!!ďĉďĉďĉďĉďĉďĉďĉ)!": 3133,
      "%&'(ďĉćĈ!Ĉ!Č": 3134,
      "%!&'Ĉ(!": 3135,
      "Ĉ!ĈĈĈĈĈ!ćĈ!Ĉ!ĈćĈĈĈćĈĈĈĈĈĈ!ĈĈ!ĈĈĈćĈĈĈćĈ!ĈĈĈĈ!ĈĈ!Ĉ": 3136,
      "ďĉďĉ%&'(ďĉďĉďĉ": 3137,
      "Ĉ!Ĉ!Ĉ!ĉ": 3138,
      "ćĈ!ć%Ĉ&'(!": 3139,
      "ćĈ!Ĉ!Ĉ!Ĉ!Ĉ!Ĉ!ĈĈĈ!ĈĈĈĈ!ĈĈ!Ĉ!Ĉ!Ĉ!ĈĈĈ!Ĉ!ĈĈ!ĈĈ!Ĉ!Ĉ!Ĉ!Ĉ!Ĉ!ĈĈĈĈ!ĈĈĈĈĈĈĈ!Ĉ!Ĉ!ĈĈ!Ĉ%&'(ďĉĈ!Ĉ!Ĉ!Ĉ!ĈĈĈ!Ĉ!Ĉ!ĈĈĈĈ!Ĉ!ĈĈ!Ĉ!Ĉ!ĈĈĈĈ": 3140,
      "%!!!!!!!!!!!!!!!!!!!!!!!!!!!!!!!!!!!!!!!!!!!": 3141,
      "L!LKLL!LK": 3142,
      "ćďĈ!ĉ": 3143,
      "Ĉ!Ĉ!ĈĈ!Ĉ!Ĉ!Ĉ!ďĉďĉďĉďĉďĉ!ďĉ": 3144,
      "ćĈ!ćĈ!ćďĉďĉďĉďĉ!ďĉďĉćććććććĈĈććććććĈ!ćĈĈ%&'(ďĉďĉ!!": 3145,
      "&'(!!!!!!!!!!!!!!!!!!!!!!!!!!!!!!!!!!!)!)!!!!!!!!!!!!!!!!!!!!!!!!!!!!!!!!!!!!!!)!)!!!!!!!!!!!!!!!!!!!!!!!!!!!!!!!!!!!!": 3146,
      "ćććććććĈ!Ĉ!Ĉ!ććĈĈććĈ!ćĈĈďĉďĉ!!!": 3147,
      "ćĈ!ćĈ!ćĈ!ĈĈ!Ĉ!ćĈ!ćĈ!Ĉ!Ĉ!": 3148,
      "ćĈ!Ĉ!ĈĈćĈćĈĈĈĈĈĈĈĈĈĈĈĈďĉ!!ďĉďĉďĉďĉďĉďĉ!": 3149,
      "ďĉďĉďĉď%&'(ĉďĉďĉďĉďĉ": 3150,
      "ćĈ!Čďĉďĉ!ďĉďĉďĉďĉďĉďĉďĉďĉďĉ%&'(": 3151,
      "ďĉ!ďĉ!!ďĉććććććććććććććććććććććĈ!ććĈ!ćĈ!ććĈ!ććććĈ!ćććĈććĈćććĈććććĈććĈććććĈććĈć%&'(ďĉ!!!!!!!!!ďĉďĉďĉ!!ďĉďĉ!ďĉ!!": 3152,
      "ďĉ!ďĉďĉďĉćĈ!Ĉ!Ĉ!Ĉ!ĈĈ!Ĉ!Ĉ!Ĉ!ĈĈĈĈĈĈĈĈĈĈĈĈĈĈ!Ĉ!Ĉ!Ĉ!ĈĈĈĈ": 3153,
      "!!!!!!)!!!!!!!!!!!!!!!!!!!!!!!!!!!!!!!!%&'(ďĉďĉďĉ!ďĉ!!ďĉďĉďĉďĉďĉďĉ!ďĉďĉ!!": 3154,
      "&'(!!!!!!!!!!!!!!!!!!!!!!!!!!!!!)!)!!!!!!!!!!!!!!!!!!!!!!!!!!!!!!!!!!!!!!!!!!!!!!!!!!!!!!!!!!!!!!!!!!!!!!!!!!!!!!!!!!!!!": 3155,
      "ććĈ!ćďĉďĉďĉďĉďĉďĉďĉ!!ďĉďĉ%&'(ďĉ": 3156,
      "ďĉ!ďĉďĉďĉďĉďĉďĉ!!%&'(ďĉ!ďĉďĉďĉďĉ!!ďĉďĉďĉ!ďĉ!ďĉ!ďĉ%&'(ććďĉďĉ)ćďĉć%&'(ćććććĈ!Ĉ!Ĉ!ćĈ!Ĉ!Ĉ!Ĉ!Ĉ!!ĈĈ!ĈććĈ!Ĉ!ĈĈ!ĈĈ!Ĉ!ćĈ!%&'(ďĉĈ!ćĈ!Ĉ!Ĉ!Ĉ!Ĉ!Ĉ!ćĈ!ćĈ!ćĈ!Ĉ!Ĉ!ćĈ!ĈĈĈćĈćĈćĈĈĈćĈ": 3157,
      "Ĉ!ĈćĈ!Ĉ!Ĉ!ĈćĈ!ććďĉ!Ĉ!ĈćĈ!Ĉ!Ĉ!ĈćĈ!ććďĉďĉ!ďĉďĉ%&'(ćĈ!Ĉ!Ĉ!Ĉ!Ĉ!ĈďĉĈ!%&'(Ĉ!Ĉ!Ĉ!Ĉ!ĈĈĈ!ĈĈĈćďĉďĉ!ďĉďĉć%&'(Ĉ!Ĉ!Ĉ!Ĉ!Ĉ!Ĉ!ĈĈĈ!ĈĈĈĈ!ĈĈ!Ĉ!Ĉ!Ĉ!ĈĈĈ!Ĉ!ĈĈ!ĈĈ!Ĉ!Ĉ!Ĉ!Ĉ!Ĉ!ĈĈĈĈ!ĈĈĈĈĈĈĈ!Ĉ!Ĉ!ĈĈ!Ĉ%&'(ďĉĈ!Ĉ!Ĉ!Ĉ!ĈĈĈ!Ĉ!Ĉ!ĈĈĈĈ!Ĉ!ĈĈ!Ĉ!Ĉ!ĈĈĈĈćďĉďĉ%&'(ćććććććĈ!Ĉ!Ĉ!ćĈ!Ĉ!Ĉ!ćďĉ!ććććĈ!ćĈ!Ĉ!Ĉ!ćĈ!Ĉ!Ĉ!Ĉ!ćĈ!Ĉ!Ĉ!Ĉ!ćĈ!Ĉ!ćĈ!ĈćĈ!Ĉ!ćĈ!ćĈ!ćĈ!ćĈ!ćĈ!Ĉ!ćĈ!ćĈ!Ĉ!Ĉ!ćĈ!Ĉ!Ĉ!ććĈ!Ĉ!Ĉ!ĈćĈ!Ĉ!": 3158,
      "32222222222222222222222222222222222222244444444%&5555555522222222222222222222222266666666": 3159,
      "%&'(ďĉďĉďĉ!!ďĉ!!ďĉ!!!!!!!!)!!!!!!!!)!)!)!!!!!!!!!!!!!!!!!!!!!!!!!!!!!!!!!!!!!!!!!!!!!!!!!!!!!!!!!!!!!!!!!!!!!!!!!!!!!!!!!!!!!!!!!!!!!!!!!!!!!!!!!!": 3160,
      "ďĉ!ď%ĉ&'(": 3161,
      "!!!%&'(": 3162,
      "ćĈ!ćĈ!ććĈ!": 3163,
      "ď%&'(ĉďĉ!!": 3164,
      "'(323": 3165,
      "ć%&'(Ĉ!Ĉ!": 3166,
      "ć%&'(ďĉďĉ!!ďĉďĉďĉďĉććććĈ!ĈĈ!ćĈ!ĈĈ!Ĉ!Ĉ!ćĈ!ćĈ": 3167,
      "ďĉ!!!!!!!!!!!!!!!!!!!!!!!!!!": 3168,
      "ď!ďďďď": 3169,
      "ć%&'(ďĉćĈ!Ĉ!Ĉ!Ĉ!Ĉ!Ĉ!Ĉ!Ĉ!ćĈ!ćĈ!Ĉ!ĈćĈ!Ĉ!ďĉćĈ!": 3170,
      "ćďćĉ": 3171,
      "ďĉďĉďĉďĉďĉ)!)ďĉďĉďĉ!ďĉďĉďĉ!!": 3172,
      "ćĈ!ćććĈ!ććĈćĈ!ććĈćććĈ!Ĉ!Ĉ!Ĉ!ćććĈćĈ!ćĈćććĈ!Ĉ!Ĉ!Ĉ!Ĉ!ćĈ!Ĉ!Ĉ!ĈćĈ!ćĈĈĈĈĈćĈĈĈĈĈćĈ!ĈĈĈćĈ%&'(ďĉ!ćććĈ!Ĉ!ćĈ!Ĉ!ĈĈ!Ĉ!ĈćĈĈĈĈĈ!Ĉ!Ĉ!Ĉ!Ĉ!Ĉ!ĈĈĈ!Ĉ!ĈĈĈĈ": 3173,
      "ďĉďĉďĉďĉďĉďĉ!%&'(%&'(Ĉ!Ĉ!ĈĈĈĈĈĈćĈ!ĈĈĈ%&'(ďĉ%&'(%&'(%&'(ďĉďĉďĉďĉ!ďĉďĉ!!%!&'(ďĉďĉďĉ!!ďĉ!ććĈ!Ĉ!Ĉ!Ĉ!Ĉ!ďĉďĉ!ďĉćććććĈ!Ĉ!Ĉ!Ĉ!Ĉ!Ĉ!ďĉ!%&'(ďĉ!!ďĉ!ďĉďĉ!": 3174,
      "%&'(ćďĉ!ďĉďĉďĉĈ!ĈĈćďĉďĉďĉďĉďĉďĉďĉ!ďĉ!ďĉďĉďĉ!": 3175,
      "%M&'(MMMMMMMMMMMMMMMMMMMMMMMMMMMMMMMM": 3176,
      "&'(!!!!!!!!!!!!!!!!!!!!!!!!!!!!!ďĉććĈĈĈĈĈďĉďĉ)!)!!ďĉďĉ!!!!!!!!!!!!!!!!!!!!!!!!!!!!!!!!!!!!!!!!!!!!!!!!": 3177,
      "ćććĈ!Ĉ!Ĉ!Ĉ!ĈĈĈĈĈĈĈĈĈĈ!ćĈ!Ĉ!ĈćĈĈćĈćĈĈĈćĈĈ%&'(ďĉĈ!ĈĈĈĈĈ!Ĉ!Ĉ!ĈĈĈĈĈĈĈĈĈĈ!ĈĈĈ!ĈĈ!ĈĈĈĈ!ĈĈ!ĈďĉĈ!ĈĈĈĈĈĈĈĈ!ĈĈĈ": 3178,
      "ďĉ!!!!!!!!!!!!!!!!!!!!!!!!!!!!!!!!!!!!!!!!!!!!!!!!!!!!ďĉ!!!!!!!!!!!!ďĉďĉ%&'(ďĉďĉďĉ!!ďĉ!!!!!!!ďĉ!!ďĉďĉ!!!ďĉďĉďĉďĉďĉ!ďĉććĈ!Ĉ!Ĉ!Ĉ!Ĉ!Ĉ!Ĉ!ĈĈćĈ%&'(ďĉďĉ": 3179,
      "ć'ć(": 3180,
      "&'(!!!!!!!!!!!!!!!!!!!!!!!!!!!!!!!!!!!!!!!!!!ććććććććććććČďĉďĉććĈ!ćĈ!ćĈ!ćĈ!ćĈćĈćĈćďĉ%&'(ďĉ": 3181,
      "&'(!!!!!!!!!!!!!!!!!!!!!!Ĉ!ďĉďĉćĈ!ďĉ!ććĈ!%&'(Ĉ!Ĉ!ĈćĈ!Ĉ!Ĉ!Ĉ!Ĉ!Ĉ!Ĉ!Ĉ!Ĉ!Ĉ!ďĉďĉ!ďĉ%&'(ćććććććććććććććććĈ!Ĉ!ćĈĈ!ćĈ!ćĈ!ĈĈ!Ĉ!Ĉ!": 3182,
      "ććććĈ!Ĉ!ćĈ!ćĈ!Ĉ!ććĈ!ĈććĈ!Ĉ!ćĈ!ćĈ!Ĉ!Ĉ!ćĈĈ!ďĉďĉďĉďĉććĈ!Ĉ!ĈĈĈ!!ćĈ!Ĉ!Ĉ!Ĉ!ć%&'(ďĉďĉ!!ďĉďĉďĉďĉććććĈ!ĈĈ!ćĈ!ĈĈ!Ĉ!Ĉ!ćĈ!ćĈ": 3183,
      "ďĉ!!ďĉďĉ!!ďĉ!ďĉ!!ďĉďĉďĉ!ďĉććĈ!%&'(ďĉ!ďĉ!!ćĈ!": 3184,
      "-+/,'(": 3185,
      "ďĉď!ĉ": 3186,
      "Ĉ!Ĉ!ćććĈ!": 3187,
      "%&'(!!!!!!!!!!!!!!!!!!!!!!!!!!!!!!!!!!!!!!!!!!!!!": 3188,
      "ćĈ!%ć&'(": 3189,
      "MM!!!!!!!!!!!!!!!!!!": 3190,
      "!!!!!!!Ĉ!Ĉ!Ĉďĉ!!!!!!!!!!!!!!!!!!!!!!!!!!!!!!!!!!!!!!!!!!!!!!!!!!!!!!!!!!!!!!!!": 3191,
      "!!!!!!!!!!!!!ďĉ!!!!ďĉďĉďĉďĉďĉďĉďĉďĉďĉďĉ": 3192,
      "Ĉ!Ĉ!Ĉ!%Ĉ&'(!": 3193,
      "!LK!LK!LK": 3194,
      "ďĉďĉďĉ%&'(ćććĈĈ!ćĈ!Ĉ!ĈćĈĈĈćĈĈĈćĈĈćććććďĉďĉďĉĈ!ĈĈĈĈĈ!ćĈ!Ĉ!ĈćĈĈĈćĈĈĈĈĈ": 3195,
      "&'(!!!!!!!!!!!!!!!!!!!!!!!!!!!!!!!!!!!!!!!!!!!!!!!!!!!!!!)!!!!!!!!!!!!!!!!!!!!!!!!!!!!!!!!%&'(ďĉďĉďĉ!ďĉ!!ďĉďĉďĉďĉďĉďĉ!ďĉďĉ!!": 3196,
      "&'(!!!!!!!!!!!!!!!!!!!!!!!!!!!!!!!!!!!!!!!!!!!!!!!!!!!!!!!!!!!!!!!!!!!!!!!!!!!!!!!!!!!!!!!!!!!!!!!!!!!!!!!!!!!": 3197,
      "ďĉďĉďĉ!ďĉďĉ!ďĉďĉ!!!ďĉćĈ!Ĉ!ććĈ!ććĈ!ĈĈ!ććĈ!Ĉ!Ĉ": 3198,
      "ďĉďĉďĉďĉďĉ%&'(ďĉďĉďĉ": 3199,
      "ďĉďďĉĉďĉďĉďĉďĉ": 3200,
      "&'(!!!!!!!!!!!!!!!!!!!!!!!!!!!!!!!!!!!!!!!!!!!!!!!!!!!!!!!!!!!!!!!!!!!!!!!!!!!!!!!!!!!!!!!!!!!!!!!!!!!!!!!!!!!!!!!!!!!!!!!!!!!!!!!!!!!!!!!%!!!!!!!!!!!!": 3201,
      "01010101010101'(3": 3202,
      "ć%&'(ďĉ!ććććććććĈ!Ĉ!ćĈĈćĈ!ĈĈćĈ!ćĈĈćĈ!Ĉ!": 3203,
      "Ĉ!Ĉ!ĈĈĈĈĈ!Ĉ!Ĉ!ďĉĈ!Ĉ!ĈĈĈ!Ĉ!Ĉ!Ĉ!ĈĈĈĈĈ!ĈĈĈĈ!ĈĈĈĈĈĈĈĈĈĈĈĈ!Ĉ!ĈĈĈĈĈĈĈĈĈĈĈĈĈĈĈĈĈĈĈĈĈĈĈĈ!ĈĈĈĈĈĈĈĈĈĈĈĈĈĈĈĈĈĈĈĈĈĈĈ": 3204,
      "Ĉ!ĈĈĈĈĈĈĈĈĈĈĈĈĈĈĈĈĈĈĈĈ!ďĉďĉďĉďĉďĉďĉćďĉ!ďĉ": 3205,
      "ďĉ!!ďĉ!ďĉ!ććĈ!Ĉ!Ĉ!ććĈ!Ĉ!Ĉ!ĈĈ!Ĉ!!ćĈ!Ĉ!Ĉ!Ĉ!ćĈ!ććĈ!ćďĉ!ďĉďĉ!!": 3206,
      "ćĈ!ďĉ!%&'(ďĉďĉďĉďĉďĉďĉďĉďĉďĉďĉďĉďĉďĉ": 3207,
      "ććććĈ!Ĉ!Ĉ!Ĉ!Ĉ!ĈĈ!Ĉ!ćďĉ!": 3208,
      "Ĉ!Ĉ!Ĉ!ćĈ!Ĉ!ćĈ!ćĈ!ćĈ!ćĈ!ćĈ!Ĉ!Ĉ!Ĉ!Ĉ!Ĉ!ćĈ!Ĉ!ććĈ!ćĈ!ĈĈĈ!ĈĈćĈ!Ĉ!Ĉ!ćĈćĈĈĈĈĈćĈĈćĈćĈćĈćĈĈĈćĈĈĈĈĈĈćĈ!Ĉ!ć%&'(ďĉ!!ďĉ!ďĉďĉďĉ!ďĉ!!!!!": 3209,
      "ďĉ!!ďĉďĉďĉďĉďĉ!!ďĉ!ďĉ!ďĉďĉďĉ!ďĉďĉďĉ%&'(ďĉďĉďĉďĉďĉ": 3210,
      "&'(!!!!!!!!!!!!!!!!!!!!!!!!!!!!!!!!!!!!!!!!!!!!!!!!)!)!!!!!!!!ďĉ!ďĉďĉ!!!!!!!!!!!!!!!!!!!!!!!!!!!!!!!!!!!!!!!!!!!!!!!!": 3211,
      "ććććĈ!ĈĈďĉ!!!!!!!!!!!)!)!!!!!!!!!!!!!!!!!!!!!!!!!!!!!!!!": 3212,
      "ćďĉďĉććĈ!ďĉďĉďĉďĉ!ďĉďĉ!!": 3213,
      "ćĈ!Ĉ!ćĈĈ!ćĈ!ćĈ!ĈĈ!Ĉ!Ĉ!ćĈ!Ĉ!Ĉ!ććĈ!Ĉ!Ĉ!Ĉ!Ĉ!Ĉ!ćĈ": 3214,
      "ćććććććĈ!ćĈ!Ĉ!Ĉ!Ĉ!Ĉ!ćĈ!Ĉ!ćĈććĈćďĉćĈ!Ĉ!Ĉ!Ĉ!Ĉ!Ĉ!Ĉ!Ĉ!ćĈ!ćĈ!Ĉ!ĈćĈ!Ĉ!ďĉćĈ!%&'(ďĉďĉďĉďĉďĉďĉďĉďĉďĉďĉďĉďĉ": 3215,
      "Ĉ!ĈĈćďĉďĉďĉďĉďĉďĉďĉ!ďĉ!ďĉďĉďĉ!ďĉ!ďĉďĉďĉĈ!Ĉ!Ĉ!Ĉ!ććĈćć%&'(ďĉďĉďĉ!!ďĉ!!ďĉ!!!!!!!!)!!!!!!!!)!)!)!!!!!!!!!!!!!!!!!!!!!!!!!!!!!!!!!!!!!!!!!!!!!!!!!!!!!!!!!!!!!!!!!!!!!!!!!!!!!!!!!!!!!!!!!!!!!!!!!!!!!!!!!!": 3216,
      "ćďĉ!ďĉďĉďĉďĉďĉďĉďĉ%&'(ďĉ": 3217,
      "&'(!!!!!!!!!!!!!!!!!!!!!!!!!!!!!!!!!!!!!!!!!!!!!!!!!!!!!!!!!!!!!!!!!!!!!!!!!!!!!!!!!!!!!!!!!!!!!!!!!!!!!!!!!!!!!!!!!!!!!!!!!!!!!!!!!!!!!!!!!!!!!!!!!!!!!!!!!!!!!!!!!!!!!!!ććććććććĈ!ćććĈ!Ĉ!ćĈ!%&'(ďĉ": 3218,
      "!!!ďĉďĉďĉďĉććĈ!Ĉ!Ĉ!Ĉ!Ĉ!Ĉ!ććĈ!ćďĉ!ďĉććććĈ!ćĈ!ĈĈ!ććĈ!ćĈ!ĈĈ!ćĈ!Ĉ!": 3219,
      "EF": 3220,
      "ćĉĉ": 3221,
      "!!!!!!!!!!!!!!!!!!!!!!!": 3222,
      "ćĈ!Ĉ!ĉ": 3223,
      "!!!Ħ": 3224,
      "!!!%!!!!!!!!": 3225,
      "!!!%!!!!!!!!!!!!!": 3226,
      "ďĉďĉ!)": 3227,
      "ďĉďĉ!ď%&'(ĉ!": 3228,
      "ďĉďĉďĉďĉďĉďĉďĉďĉďĉ!ďĉďĉďĉ%&'(": 3229,
      "!!!!!!!!!)!)!!!!!!!!!!!!!!!!!!!!!!!!!!!!!!!!!!!!!!!!!!!!!!!!!!!!!!!!!!!!!!!!!!!!!!!!!!!!!!!!!!!!!!!!!!!!!!!!": 3230,
      "Ĉ!Ĉ!Ĉ!Ĉ!Ĉ!Ĉ!Ĉ!": 3231,
      "ďĉďĉďĉďĉ!ďĉ!ďĉ!ďĉ!ďĉ!ďĉ!ďĉćććĈ!Ĉ!Ĉ!Ĉ!Ĉ!Ĉ!ćĈ!Ĉ!Ĉ!Ĉ!ćĈ!Ĉ!Ĉ!Ĉćć": 3232,
      "ćďĉ!ććććĈ!ćĈ!Ĉ!Ĉ!ćĈ!Ĉ!Ĉ!Ĉ!ćĈ!Ĉ!Ĉ!Ĉ!ćĈ!Ĉ!ćĈ!ĈćĈ!Ĉ!": 3233,
      "Ĉ!ĈĈ!ĈĈ!ĈĈ!ćĈ!ćĈ!": 3234,
      "ďĉďĉďĉďĉďĉďĉćďĉ)ħ": 3235,
      "ďĉ!ďĉďĉď%&'(ĉ": 3236,
      "%&'(%&'(%&'(%&'(%&'(%&'(%&'(%&'(%&'(%&'(%&'(%&'(%&'(%&'(%&'(%&'(%&'(%&'(%&'(%&'(%&'(%&'(%&'(%&'(%&'(%&'(%&'(%&'(%&'(%&'(%&'(%&'(%&'(%&'(%&'(%&'(%&'(%&'(%&'(%&'(%&'(%&'(%&'(%&'(%&'(%&'(%&'(%&'(%&'(%&'(%&'(%&'(%&'(%&'(%&'(%&'(": 3237,
      "&'(!!!!!!!!!!!!!!!!!!!!!!!!!!!!!!!!!!!!!!!!!!!!!!!!!!!!": 3238,
      "&'(!!!!!!!!!!!!!!!!!!!!!!!!!!!!!!!!!!!!!!!!!!!!!!!!!!!!!!!": 3239,
      "ďĉ!ďĉ!ďĉćććĈ!Ĉ!Ĉ!Ĉ!Ĉ!Ĉ!ćĈ!Ĉ!Ĉ!Ĉ!ćĈ!Ĉ!Ĉ!Ĉććďĉ!ćĈ!ćĈ": 3240,
      "ďĉďĉďĉďĉďĉ!!ďĉ!ďĉďĉďĉďĉ": 3241,
      "ćĈĈĈĈĈĈĈĈĈĈĈĈĈĈĈĈ!": 3242,
      "ďĉďĉ!ďĉ!!ďĉććććććĈ!ććĈ!ććĈ!Ĉ!Ĉ!Ĉ!ćććĈ!Ĉ!Ĉ!ććĈćĈ!Ĉ!ĈćĈ!Ĉ!ćĈ!ććĈĈĈĈĈćĈćĈ%&'(ďĉćććććĈ!ĈĈćĈĈćĈďĉćććććććć": 3243,
      "Ĉ!Ĉ!Ĉ!Ĉ!ĈćĈĈĈ!ĈĈĈćĈćďĉďĉďĉ!!!": 3244,
      "!&'(ďĉ))ďħĉ": 3245,
      "ćĈ!ĈĈćĈ!ćĈĈćĈ!Ĉ!ćďĉďĉćććĈ!ćĈ!Ĉ!Ĉ!ćĈ!Ĉ!ćĈ!Ĉ!Ĉ!Ĉ!ćĈ!Ĉ!ćĈ!ćĈ!ćĈ!ćĈ!Ĉ!Ĉ!Ĉ!Ĉ!Ĉ!Ĉ!Ĉ!Ĉ!ĈĈ!%&'(ďĉ!!!!!!!!!!!!!!!!!!!!!!!!!!!!!!!!!!!!!!!!!!!!!ďĉďĉďĉďĉďĉ!!ďĉ!!ďĉďĉďĉ)!)": 3246,
      "!!!!!!!!!!!!!!!ďĉ!!!!!!!!!!!!!!!!!!!!!!!!!!!!!!!!!!!!!!!!!!!!!!!!!!!!!!!!!!!!!!!!!!!!!": 3247,
      "ďĉďĉďĉ!!ďĉ!ććĈ!Ĉ!Ĉ!Ĉ!Ĉ!ďĉďĉ!ďĉćććććĈ!Ĉ!Ĉ!Ĉ!Ĉ!Ĉ!ďĉ!%&'(ďĉ!!ďĉ!": 3248,
      "ďĉ!ďĉ!!!SĂĄĆ!!ďĉ!!!!!!RTVa!!!SĂĄĆ!!!!R!!!S": 3249,
      "ćĈćĈćĈćććĈćĈćććĈćĈćĈ!ĈćĈćĈćĈćććĈĈĈĈĈććĈĈććĈćććĈćĈćĈćĈćĈĈćĈĈćĈćĈćĈ": 3250,
      "ćććććććććććććććĈ!Ĉ!Ĉ!ćĈ!Ĉ!Ĉ!Ĉ!Ĉ!ćĈ!Ĉ!ćĈ!ćĈ!ćĈ!ćĈ!": 3251,
      ")!)!!!!!!!!!!!!!!!!!!!!!!!!!!!!!!!!!!!!!!!!!!!!!!!!!!!!!!!!!!!!!!!!!!!!!!!!!!!!!!!!!!!!!!!!!!!!!!!!!!!!!!!!!!!!!!!!!!!!!!!!": 3252,
      "ćďĉďĉ%&'(ďĉďĉ": 3253,
      "ďĉďĉďĉďĉďĉ!ďĉďĉďĉ!ćĈ!Ĉ!ćĈ!ćĈ!ćĈ!Ĉ!ććććĈ!ććĈ!ć!%&'(ďĉććĈ!Ĉ!ĈĈĈ!Ĉ!Ĉ!ĈĈćĈďĉ!!ďĉďĉ!!!)!)!!!!!!!!!!!!": 3254,
      "ďLĉK": 3255,
      "ćććććĈ!ćĈ!Ĉ!ćĈĈ!Ĉ!Ĉ!Ĉ!ćĈćĈĈćĈ!Ĉ!Ĉ!ćĈ!Ĉ!Ĉ!Ĉ!ćĈ!Ĉ!%&'(ďĉćĈ!ćĈ!Ĉ!ććĈ!Ĉ!Ĉ!Ĉ!ćĈĈĈ!Ĉ!ćĈ!Ĉ!ĈĈĈ!ĈĈĈććĈ!ćĈćĈĈĈ!ĈćĈĈĈĈĈĈĈĈććĈćĈĈ!ććĈĈĈĈćĈĈĈĈćĈĈĈĈĈĈĈĈććĈćďĉ!": 3256,
      ")!)!!!!!!!!!!!!ććĈ!ćĈ!ććĈ!ćĈ!ćĈ!ććĈćĈ!Ĉ!Ĉ!Ĉ!ćĈ!ććĈĈĈĈĈĈćĈ!ććĈćĈ!ćĈ!Ĉ!ćĈ!ććĈććĈ!!!!!!ďĉćć%&'(ďĉďĉďĉ": 3257,
      "ććĈ!Ĉďĉ%&'(Ĉ!Ĉ!ĈĈĈĈĈĈĈĈĈĈĈĈĈĈĈĈĈĈĈĈĈĈĈĈďĉ!ćććććĈ!Ĉ!Ĉ!Ĉ!Ĉ!Ĉ!ćĈ!Ĉ!Ĉ!ćĈ!Ĉ!ćĈ!Ĉ!Ĉ!ćĈ!Ĉ!ćĈ!ćĈ!ćĈ!ćĈ!Ĉ!Ĉ!Ĉć%&'(ďĉ!!!!!!!!!ďĉďĉďĉďĉďĉ)!)ďĉďĉďĉćććĈ!Ĉ!Ĉ!ĈĈ!Ĉ!ćĈ!Ĉ!Ĉ!ĈćĈ!Ĉ!Ĉ!Ĉć%&'(ďĉ!ććććććććĈ!Ĉ!ćĈĈćĈ!ĈĈćĈ!ćĈĈćĈ!Ĉ!": 3258,
      "ďĉććććććććććććĈ!ćĈ!Ĉ!Ĉ!Ĉ!Ĉ!Ĉ!Ĉ!Ĉ!Ĉ!!ćĈĈĈĈ!Ĉ!ćĈ!Ĉ!ćĈĈĈćĈ!ĈĈĈĈ": 3259,
      "32222224%&52226'(78,": 3260,
      "ćďĉďĉďĉ%&'(": 3261,
      "Ĉ!ćĈ!ććĈ!": 3262,
      "ćććć%&'(": 3263,
      "Ĉ!Ĉ!Ĉ!Ĉ!Ĉ!ćĈ!Ĉ!": 3264,
      "ďĉďĉďĉĈ!Ĉ!Ĉ!Ĉ!!Ĉ!Ĉ!Ĉ!Ĉ!!Ĉ!Ĉ!Ĉ": 3265,
      ")!)!!!!!!": 3266,
      "01001011": 3267,
      "ď%&'(ĉ!!!": 3268,
      "ď%&'(ĉ!ďĉ": 3269,
      "ďĉďĉďĉ!!ďĉ!!!!": 3270,
      "ďĉďĉďĉ!!ďĉ!!ďĉ!!!!!!!!)!!!!!!!!)!": 3271,
      "ćďĉ!ďĉďĉ!!!": 3272,
      "ďĉďĉ%&'(Ĉ!Ĉ!ĈĈ!Ĉ!ĈĈĈĈ!Ĉ!ĈĈ!Ĉ!Ĉ!!": 3273,
      "ćĈ!Ĉ!Ĉ!%&'(": 3274,
      "ďĉ!!!ďĉďĉďĉďĉďĉďĉďĉďĉ!": 3275,
      "&'(!!!!!!!!!!!!!!!!!!!!!!!!!!!!!!!!!!!!!!!!!!!!!!!!!!!!!!!!!!!!!!!!!!!!!!!!!!!!!!!!!!!!!!!!!!!!!!!!!!!!!!!!!!!!!!!!!!!!!!!!!!!!!!!!!!!!!!!!!!!!!!!!!!!!": 3276,
      "ďĉĈ!Ĉ!Ĉ!Ĉ!Ĉ!Ĉ": 3277,
      "3223322": 3278,
      "&'(!!!!!!!!!!!!!!!!!!!!!!!!!!!!!!!!!!!!!!!!!!!!!!!!!!!!!!!!!!!!!!!!!!!!!!!!!!!!!!!!!!!!!!!!!!!!!!!!!!!!!!!!!!!!!!!!!!!!!!!!!!!!!!!!!!!!!%!!!!!!!!!!!!!!!!": 3279,
      "&'(!!!!!!!!!!!!!!!!!!!!!!!!!!!!!!!!!!!!!!!!!!!!!!!!!!!!!!!!!!!!!!!!!!!!!!!!!!!!!!!!!!!!!!!!!!!!!!!!!!!!!!!!!!!!!!!!!!!!!!!!!!!!!!!!!!!%!!!!!!!&'(": 3280,
      "ćĈ!ćĈ!ćĈ!ćĈ!Ĉ!Ĉ!Ĉ!Ĉ!Ĉ!Ĉ!Ĉ!Ĉ!ĈĈ!ďĉ!!!!!!!!!!!!!!!!!!!!!!!!!!!!!!!!!!!!!!!!!!!!!": 3281,
      "ďĉďĉďĉďĉďĉďĉćďĉ!ďĉ!!!!!!!!!!!!!!!!!!!!!!!!!!!!!!!!!!!": 3282,
      "ďĉďĉďĉďĉďĉďĉďĉďĉ!!!ďĉďĉďĉďĉććĈ!Ĉ!Ĉ!Ĉ!Ĉ!Ĉ!ććĈ!ć": 3283,
      "ććĈ!Ĉ!Ĉ!Ĉ!Ĉ!Ĉ!ćĈćĈ!ććććććĈ!ćĈ!ććĈćććĈćććĈĈćĈćĈ!Ĉ!ćĈ!ĈćĈćĈćĈćĈ!Ĉ!ĈćĈ!Ĉ!ćĈĈĈććĈ!Ĉ!ććĈ!ćććĈćĈćĈćĈćĈĈćĈĈćĈćĈćĈćĈ!Ĉ!ĈćĈ!Ĉ!Ĉ!ććććĈćĈććĈ!ćĈ!Ĉ!Ĉ!Ĉ!ćĈ!Ĉ!ćĈ!ćĈ!Ĉ!ćĈ!ĈćĈ!ĈĈ!ĈćĈćĈćĈćććĈćĈćććĈćĈ": 3284,
      "%!!!!!!!!!!!!!!!!!!!!!!!!!!!!!!&'(!!!!!!!!!!!!!!!!!!!!!!)!)!!!!!!!!!!!!!!!!!!!!!!!!!!!!!!!!!!!!!!!!!!!!!!!!!!!!!!!!!!!!!!!!!!!!!!!!!!!!!!!!": 3285,
      "3222232323232222222222222222222222222222222222222222244444444%&5555555522222222222222222222222266666666": 3286,
      "&'(!ďĉ!)!)!!!!!!!!!!ďĉ!!!!!!ćććĈ!Ĉ!Ĉ!Ĉďĉ!!!!!ďĉ!)!)!!!!!!!!!!!!!!ďĉ!!!!!!!!!!!!!%!!!!!!!&'(!ďĉ!!!!!!!!!!!!!!ďĉďĉďĉďĉććććĈ!ćĈ!Ĉ!Ĉ!Ĉ!ćĈ!ĈĈćĈ!ćĈ!Ĉ!Ĉ!ćĈ!ćĈ!Ĉ!ćĈĈćĈ!Ĉ!ććĈ!ĈĈćĈćĈćĈ!Ĉ!ĈćĈĈďĉďĉ!ďĉ%&'(ďĉĈ!ďĉ!ďĉďĉďĉďĉďĉ!ďĉďĉďĉ!!)!)!!!!!!!!!!!!!!!!!!!!ďĉ!!!!!!!!!!!!!!!!!!!!!!!!!!!!!!!!!!!ďĉ!ďĉ": 3287,
      "ďĉďĉďĉďĉďĉďĉďĉ)!ďĉďĉďĉďĉ%&'(ďĉďĉďĉďĉćććććććććććććććĈ!Ĉ!Ĉ!ćĈ!Ĉ!Ĉ!Ĉ!Ĉ!ćĈ!Ĉ!ćĈ!ćĈ!ćĈ!ćĈ!ćĈ!Ĉ!Ĉ!Ĉ!Ĉ!Ĉ!ćĈ!Ĉ!ććĈ!ćĈ!ĈĈĈ!ĈĈćĈ!Ĉ!Ĉ!": 3288,
      "3322222323232222222222222222222222222222222222222222244444444%&5555555522222222222222222222222266666666": 3289,
      "%Ĉ!&'(": 3290,
      "ć%&'(ďĉďĉććĈ!ďĉďĉďĉďĉ!ďĉďĉ!!ďĉďĉďĉďĉďĉďĉďĉ!ďĉ!ďĉć%&'(ććććććĈ!ćČČďĉďĉďĉ!!!!!ďĉďĉďĉ!ďĉďĉćććććĈ!Ĉ!ćĈĈ": 3291,
      "Ĉ!ďĉďĉćĈ!ďĉ!%&'(ććĈ!Ĉ!Ĉ!ĈćĈ!Ĉ!Ĉ!Ĉ!Ĉ!Ĉ!Ĉ!Ĉ!Ĉ!Ĉ!": 3292,
      "ďĉďĉ!ďĉďĉ%&'(ďĉďĉ!ďĉ!!ďĉďĉďĉďĉďĉďĉ!ďĉďĉďĉďĉďĉďĉ!!": 3293,
      ")!)!!!!!!!!!ććććĈ!ĈĈďĉ!!!!!!!!!!!!!!!!!!!!!!!!!!!!": 3294,
      ")!)!!!!!!!!!!!!!!!!!!!!!!!!!!!!!!!!!!!!!!!!!!!!!!!!!!!!!!!!!!!!!!!!!!!!!!!!!!!!!!!!!!!!!!!!!!!!!!!!!!!!!!!!!!!!!!!!!!!!!!!!!%!!!!!!!!!!!!!!!!!!": 3295,
      "ďĉďĉďĉďĉďĉďĉďĉďĉććććĈ!ćĈ!Ĉ!Ĉ!ĈĈ!Ĉ!Ĉ!ĈććĈ!ć%&'(ďĉććććććććĈ!Ĉ!Ĉ!Ĉ!ćĈĈĈĈ!Ĉ!ćĈ!ďĉďĉćďĉććććććććććććććććĈ!Ĉ!ćĈ!Ĉ!ĈĈ!": 3296,
      "ćĈ!Čďĉďĉ!ďĉďĉďĉďĉďĉďĉďĉďĉďĉ%&'(ćććććĈ!ćĈ!Ĉ!ćĈĈ!Ĉ!Ĉ!Ĉ!ćĈćĈĈćĈ!Ĉ!Ĉ!ćĈ!Ĉ!Ĉ!Ĉ!ćĈ!Ĉ!ďĉ": 3297,
      "'777": 3298,
      "Vb": 3299,
      "!!!!!!!!!!!!!!!!!!!!!!!!!!!!!!": 3300,
      "ććććĈ!ĈĈ!ćĈ!ĈĈ!Ĉ!Ĉ!ćĈ!ćĈ": 3301,
      "ďĉďĉďĉďĉ%&ď'(ĉ": 3302,
      "ććĈćĈ!ĈĈ": 3303,
      "&'(!!!!!!!!!!!!!!!!!!!!!!!!!!!!!!!!!!!!!!!!!!!!!!!!!!!!!!!!!!!!!!!!!%!!!!!!!!!!!!!!!!!!!!!!": 3304,
      "ćććĈ!Ĉ!ććććććĈ!ćĈĈ": 3305,
      "ćććĈ!Ĉ!ćĈ!ďĉ": 3306,
      "ďĉ!ďĉććć": 3307,
      "ćďĉććććććĈ!Ĉ!": 3308,
      "ďĉ!ďĉ!ććĈ!Ĉ!Ĉ!ććĈ!Ĉ!Ĉ!ĈĈ!Ĉ!!ćĈ!Ĉ!Ĉ!Ĉ!ćĈ!ććĈ!ćďĉ!ďĉďĉ!!": 3309,
      "ďĉďĉďĉďĉďĉďĉ!%&'(": 3310,
      "%&-+01'(;": 3311,
      "ććććĈ!ćĈćĈĈ": 3312,
      "7777'777": 3313,
      "ćććććććĈ!ćĈ!Ĉ!ĈćĈ!Ĉ!ććĈ!Ĉ!Ĉ!Ĉ!Ĉ!ĈĈ!ćĈ!ćĈ!ćĈćĈ!ćĈ!ćĈćĈ!ćĈćĈ!ććĈćĈ!ćĈćĈ!Ĉ!ććĈćĈ!ĈĈĈĈĈĈćĈ!ććĈććĈ!ćĈ!ĈććĈĈ!Ĉ!ĈĈĈ!ććĈ!Ĉ!Ĉ": 3314,
      "ćĈććĈćĈ!ćĈ": 3315,
      "!!!!!!!!!!!!!!!!!!!!!!!!!!!!!!!!!!!!!!!!!!!!!ćććććććĈ!ćĈ!Ĉ!Ĉ!Ĉ!Ĉ!ćĈ!Ĉ!ćĈććĈćďĉćĈ!Ĉ!Ĉ!Ĉ!Ĉ!Ĉ!Ĉ!Ĉ!ćĈ!ćĈ!Ĉ!ĈćĈ!Ĉ!": 3316,
      "ďĉĈ!Ĉ!Ĉ!Ĉ!ĈĈ": 3317,
      "Ĉ!ĈĈ!Ĉ!Ĉ!Ĉ!Ĉ!ćĈ!": 3318,
      "ďĉ!!!!!!!!!!!!%!!!!!": 3319,
      "ććććĈ!ćććĈććĈćććĈććććĈććĈććććĈććĈćďĉ!!!!!!!!!": 3320,
      "ĈĈĈĈĈĈćĈ!ććĈćĈ!ćĈ!Ĉ!ćĈ!ććĈććĈ!!!!!!ďĉćć": 3321,
      "ĈĈĈ!Ĉ!Ĉ!ĈĈĈĈ!Ĉ!ĈĈ!Ĉ!Ĉ!ĈĈĈĈćďĉďĉćććććććĈ!Ĉ!Ĉ!ćĈ!Ĉ!Ĉ!": 3322,
      "!!!!!!!!!ďĉ!!!!!!!!!!!)!!!!!!!!!!!!!!!ďĉďĉďĉ)!)": 3323,
      "3232222": 3324,
      "!!!!!!!!!!!!!!!!!!!ďĉ!ďĉďĉ!!!!!!!!!!!!!!!!!!!!!!!!!!!!": 3325,
      "ďĉďĉďĉďĉďĉďĉR%&'(TVaďĉććĈ!ćććĈćććĈĈ!Ĉ!ćĈ!ććĈćĈ!ćĈ!!Č!!Č!ďĉ!ďĉĈ!Ĉ!ćĈ!Ĉ!ĈĈĈďĉ!ďĉ!!!SĂĄĆ!!ďĉ!!!!!!": 3326,
      ")!)!!!!!!!!!!!!!!!!!!!!!!!!!!!!!!!!!!!!!!!!!!!!!!!!!!!!!!!!!!!!!!!!!!!!!!!!!!!!!!!!!!!!!!!!!!!!!!!!!!!!!!!!!!!!!!!!!!!!!!!!!!!!!!!!!!!!!!!!!!!!!": 3327,
      "ďĉďĉďĉďĉďĉ!ďĉďĉďĉďĉďĉ!ďĉďĉďĉ": 3328,
      "KKKK": 3329,
      "-%&+/,'(-%&+/,'(-%&+/,'(-%&+/,'(-%&+/,'(-%&+/,'(-%&+/,'(-%&+/,'(-%&+/,'(-%&+/,'(-%&+/,'(-%&+/,'(-%&+/,'(-%&+/,'(-%&+/,'(-%&+/,'(-%&+/,'(-%&+/,'(-%&+/,'(-%&+/,'(-%&+/,'(-%&+/,'(-%&+/,'(-%&+/,'(-%&+/,'(-%&+/,'(-%&+/,'(-%&+/,'(-%&+/,'(-%&+/,'(-%&+/,'(-%&+/,'(-%&+/,'(-%&+/,'(-%&+/,'(-%&+/,'(-%&+/,'(-%&+/,'(-%&+/,'(-%&+/,'(-%&+/,'(-%&+/,'(-%&+/,'(-%&+/,'(-%&+/,'(-%&+/,'(-%&+/,'(-%&+/,'(-%&+/,'(-%&+/,'(-%&+/,'(-%&+/,'(-%&+/,'(-%&+/,'(-%&+/,'(-%&+/,'(-%&+/,'(-%&+/,'(-%&+/,'(-%&+/,'(-%&+/,'(-%&+/,'(-%&+/,'(-%&+/,'(": 3330,
      "ďĉďĉďĉďĉďĉďĉďĉ!!ďĉďĉďĉ": 3331,
      "Ĉ!ćĈ!ćĈ!Ĉ!Ĉ!ďĉďĉ!!!!!!!RTVa!!!SĂĄĆ": 3332,
      "ćććĈ!Ĉ!Ĉ!Ĉ!ĈĈĈĈĈĈĈĈĈĈ!ćĈ!Ĉ!ĈćĈĈćĈćĈĈĈćĈĈďĉ%&'(Ĉ!ĈĈĈĈĈ!Ĉ!Ĉ!ĈĈĈĈĈĈĈĈĈĈ!ĈĈĈ!ĈĈ!ĈĈĈĈ!ĈĈ!ĈďĉĈ!ĈĈĈĈĈĈĈĈ!ĈĈĈ": 3333,
      "ďĉ!ďĉ!ďĉďĉďĉďĉ!ďĉďĉĥďĉĈ!ĈĈ!ďĉćĈ!Č": 3334,
      "777777'7(788888888,-%&+01": 3335,
      "ćććĈ!Ĉ!Ĉ!Ĉ!Ĉ!%&'(Ĉ!Ĉ!Ĉ!Ĉ!Ĉ!": 3336,
      "ďĉ!ďĉ%&'(ďĉďĉĈ!Ĉ!Ĉ!Ĉ!ććĈćć": 3337,
      "ďĉćććććĈ!Ĉ!Ĉ!ćĈĈćĈ%&'(ďĉďĉĈ!Ĉďĉ!ďĉ!ďĉćććććććććććĈ!ćĈ!!ććĈ!ććĈ!ćĈ!Ĉ!Ĉ!Ĉ!Ĉ!Ĉ!ĈćĈĈĈĈ!ĈććĈ!ććććĈć!!": 3338,
      "ćććĈ!Ĉ!Ĉ!ćĈĈĈĈ!ćĈ!ĈĈ!ćĈ!ć%&'(ďĉďĉďĉďĉďĉćććććĈ!)!)!!Ĉ!Ĉ!ĈĈ!!!!!": 3339,
      "!!!!!!!!!!!!%!!!!!!!!!!!!!!!!!!!!!!!!!!!!!!!!!!!!!!!!!!!!!!!!&'(ćďĉ!ďĉćććĈ!ćĈ!ćĈ!ćĈ!ćĈ!ćĈćĈćĈďĉďĉ!ćććććććĈ!Ĉ!Ĉ!Ĉ!Ĉ!ćĈ!Ĉ!ćĈ!ćĈ!ćĈ!ćĈ!ćĈ!Ĉ!Ĉ!Ĉ!ĈĈ!%&'(ďĉ!!!!!!!!!!!!!!!!!!!!!ďĉďĉďĉďĉĈ!ĈĈĈćĈ!ćĈĈĈ": 3340,
      "ććĈ!Ĉ!Ĉ!ĈĈ!ĈćĈ!ćć": 3341,
      "ďĉ!ďĉ!!!SĂĄĆ!!ďĉ!!!!!!RTVa!!!SĂĄĆ!!!!R!!!SćććććććĈ!Ĉ!": 3342,
      "32222224%&52226'(78,<": 3343,
      "%&-+01'(;32222224%&52226'(78,<": 3344,
      "%K": 3345,
      "C!!!": 3346,
      "Ĉĉ!": 3347,
      "ę!!": 3348,
      "!!!!!!!!%!!!!!!!!!!!!!!!!!": 3349,
      "ďĉĒ": 3350,
      "ďĉď%&'(ĉ!": 3351,
      "ćć%Ĉ&'(!": 3352,
      "ďĉďĉ!!!!!!!!!!!!!!!!!!!!!!!!!!!!!!!!!!!!!!!!!!!!!!!!": 3353,
      "ĈĈ!!": 3354,
      "%&'(Ĉ!Ĉ!Ĉ!Ĉ!": 3355,
      "!!!%!&'(": 3356,
      "!!!%!!!!!!!!!!": 3357,
      "ćĈćĈćĈ!ćĈ!ććĈ!": 3358,
      "ďĉďĉďĉ%&'(ďĉ": 3359,
      "ďĉďĉďĉ%&'ď(ĉ": 3360,
      "Ĉ!ćĈ!Ĉ!%&'(": 3361,
      "Ĉ!ćĈ!Ĉ!Ĉ!ĈĈćĈĈ!Ĉďĉ!!!!!!!!!!!!!!!!!!!!!!!!!!!!!!!!ďĉ!!!!!!!!!!!!!!!!!!ďĉ!!!!!!!!!!!!!!!!!!!ďĉ!!!!!!!!": 3362,
      ")!)!!!!!!!!!": 3363,
      "!!!!!ďĉ!ďĉďĉďĉďĉďĉďĉďĉ": 3364,
      "!!!!!!!%!!!!!!!!!!!!&'(": 3365,
      "ďĉ!ďĉďĉďĉďĉďĉ!": 3366,
      "!!!!!!!!!!!!!ďĉ!ďĉ!!!!!!": 3367,
      "ďĉ!!!!!!!!!!!!!!!!!!!!!!!!!!!!!": 3368,
      "ďďĉĉ!!": 3369,
      "%Ĉ&'(!ĈĈĈ": 3370,
      "ĈĈĈĈĈĈĈĈĈĈ!ĈĈĈĈ!ĈĈĈĈĈ": 3371,
      "ďĉďĉćććććĈ!Ĉ!Ĉ!ćĈĈćĈ": 3372,
      "ďĉ!ďĉďĉďĉ!ďĉ!!!!!ďĉ!ďĉďĉďĉďĉďĉďĉďĉ": 3373,
      "ĈćĈĈćĈćć": 3374,
      "ćďććĉ": 3375,
      "Ĉ!Ĉ!Ĉ!Ĉ!ĈćĈĈĈ!ĈĈĈćĈćĈĈĈĈĈĈĈćĈĈĈĈĈĈ": 3376,
      "Ĉ!Ĉ!Ĉ!ĈĈĈĈ!Ĉ!ĈĈ!Ĉ!Ĉ!ĈĈĈĈćďĉďĉćććććććĈ!Ĉ!Ĉ!ćĈ!Ĉ!Ĉ!ćďĉ!": 3377,
      "ćďĉ%&'(ďĉďĉďĉ": 3378,
      "ććĈ!ćććĈ!ćććĈ!ćććĈ!Ĉ!Ĉ!%&'(ďĉćć": 3379,
      "ćĈĈĈćĈ!ĈĈĈĈ!ĈĈ!Ĉďĉďĉďĉďĉďĉďĉ!%&'(%&'(Ĉ!Ĉ!ĈĈĈĈĈĈćĈ!ĈĈĈ%&'(ďĉ%&'(%&'(%&'(ďĉďĉďĉďĉ!ďĉďĉ%!!!&'(ďĉďĉďĉ!!ďĉ!ććĈ!Ĉ!Ĉ!Ĉ!Ĉ!ďĉďĉ!ďĉćććććĈ!Ĉ!Ĉ!Ĉ!Ĉ!Ĉ!ďĉ!%&'(ďĉ!!ďĉ!ďĉďĉ!": 3380,
      "ćććĈ!Ĉ!Ĉ!Ĉ!ĈĈĈĈĈĈĈĈĈĈ!ćĈ!Ĉ!ĈćĈĈćĈćĈĈĈćĈĈďĉĈ!Ĉ!ĈĈĈĈ!Ĉ!Ĉ!ĈĈĈĈĈĈĈĈĈĈ!ĈĈĈ!ĈĈ!ĈĈĈĈ!ĈĈ!Ĉ": 3381,
      "ććĈĈ!Ĉ!ĈĈĈ!ććĈ!Ĉ!ĈćĈ!ććĈ!Ĉ!ĈćĈ!ĈććĈĈĈćĈĈĈćĈ!ĈććĈĈĈćĈĈććĈĈĈćĈ!ĈćĈ!ććĈĈ!Ĉ!ĈĈćĈ!Ĉ!ćććĈ!Ĉ!ćććĈĈćĈ!ĈĈĈ!!ćććć!!!!!!!!!!!!!!!!!!!!%&'(%&'(ďĉďĉďĉ": 3382,
      "%&'(!!!!!!!!!!!!!!!!!!!!!!!!!!!!!!!!!!!!!!!!!!!!!!!!!!!!!!!!!!!!!!!!!!!!!!!!!!!!!!!!!!!!!!!!!!!!!!!!!!!!!!!!!!!!!!!!!!!!!!!!!!!!!": 3383,
      "ćĈĈĈććĈ!Ĉ!ććĈ!ćććĈćĈćĈćĈćĈĈćĈĈćĈćĈćĈćĈ!Ĉ!ĈćĈ!Ĉ!Ĉ!ććććĈćĈććĈ!ćĈ!Ĉ!Ĉ!Ĉ!ćĈ!Ĉ!ćĈ!ćĈ!Ĉ!ćĈ!ĈćĈ!ĈĈ!ĈćĈćĈćĈćććĈćĈćććĈćĈćĈ!ĈćĈćĈćĈćććĈĈĈĈĈććĈĈććĈćććĈćĈćĈćĈćĈĈćĈĈćĈćĈćĈ": 3384,
      "ććććććććććććććććććććććĈ!ććĈ!ćĈ!ććĈ!ććććĈ!ćććĈććĈćććĈććććĈććĈććććĈććĈćďĉ!!!!!!!!!": 3385,
      "Ĉ!Ĉ!ĈĈĈĈĈĈćĈ!ĈĈĈ%&'(ďĉ%&'(%&'(%&'(ďĉďĉďĉďĉ!ďĉďĉ%!!!&'(ďĉďĉďĉ!!ďĉ!ććĈ!Ĉ!Ĉ!Ĉ!Ĉ!ďĉďĉ!ďĉćććććĈ!Ĉ!Ĉ!Ĉ!Ĉ!Ĉ!ďĉ!%&'(ďĉ!!ďĉ!": 3386,
      "ćććććććĈ!ćČČďĉďĉďĉ!!!!!": 3387,
      "ďĉ!!!!!!!!!%!!!!!!!!": 3388,
      "ďĉ!ďĉďĉ%&'(ďĉďĉďĉďĉďĉ": 3389,
      "%&-+/,'(#..$#$!!)!%&-+/,'(#..$#$!!)!%&-+/,'(#..$#$!!)!%&-+/,'(#..$#$!!)!%&-+/,'(#..$#$!!)!%&-+/,'(#..$#$!!)!%&-+/,'(#..$#$!!)!%&-+/,'(#..$#$!!)!%&-+/,'(#..$#$!!)!%&-+/,'(#..$#$!!)!%&-+/,'(#..$#$!!)!%&-+/,'(#..$#$!!)!%&-+/,'(#..$#$!!)!%&-+/,'(#..$#$!!)!%&-+/,'(#..$#$!!)!%&-+/,'(#..$#$!!)!": 3390,
      "ćďĉďĉ!ďĉďĉ!ďĉ)))": 3391,
      "ćďĉ#$ćĈ!ćć%&'(ďĉďĉ!!!!ďĉ!!)ďĉďĉ!ďĉďĉ%&'(!ďĉďĉďĉ!!ďĉďĉćĈ!Čďĉďĉďĉ!ďĉďĉ!ďĉďĉďĉ!ďĉďĉ!ďĉďĉďĉĈ!Ĉ!Ĉ!Ĉ!!": 3392,
      "ďĉďĉďĉďĉďĉďĉďĉ!ďĉ!ďĉćććććććĈ!ćČČďĉďĉďĉ!!!!!": 3393,
      "AAAAAA": 3394,
      "!!!!!!!!!!!!!!!!!!!!!!!!ďĉ!!ďĉďĉďĉďĉďĉ!!ďĉ!ďĉ!ďĉďĉďĉ!": 3395,
      "!!!!R%&'(TVa!!!SĂĄĆ!!!!R!!!S": 3396,
      "ććĈ!Ĉ!Ĉ!Ĉ!Ĉ!Ĉ!ććĈ!ćďĉ!ďĉććććĈ!ćĈ!ĈĈ!ććĈ!ćĈ!ĈĈ!ćĈ!Ĉ!ćĈ!ďĉ!)": 3397,
      "&'(!!!!ďĉććććĈ!ćĈ!ćĈ!ĈĈ!ććĈ!Ĉ!ČďĉćĈ!ćĈ!ćĈ!ćĈćĈ!ćĈ!Ĉ!ććĈ!ĈĈ!ćĈĈ!Ĉ!ĈćĈ!Ĉ!ĈĈĈĈĈĈććĈ!ćďĉ!!!!!!!!ďĉ!ďĉ!%&'(ććĈ!ćďĉďĉďĉďĉďĉďĉďĉ!!": 3398,
      "ćĈćďĉďĉďĉ!!!ďĉďĉďĉďĉ%&'(ďĉ!!ďĉ!ďĉďĉ!ďĉ!ďĉďĉďĉ!ďĉďĉďĉ!ďĉďĉ!!ďĉďĉďĉ!": 3399,
      "%&'(ďĉ!ćĈ!ćĈďĉďĉďĉďĉ!ďĉďĉďĉďĉ!ďĉ!!Ĉ!ĈćĈ!Ĉ!Ĉ!ĈćĈ!ćć": 3400,
      "ćĈćĈćĈ!ćĈ!ććĈ!ćĈććĈćĈ!ćĈ": 3401,
      "!%!&'(!!!!!!!!!!!!!!!": 3402,
      "LM": 3403,
      "ďĈ!Ĉ!Ĉ": 3404,
      "ďĈ!ĈĈ": 3405,
      "!!!!!!!!!!!!!!!!!!!!!!!!!!": 3406,
      "Ĉ!Ĉ!ćĈ": 3407,
      "Ĉ!Ĉ!%Ĉ&'(!": 3408,
      "%&'(\"": 3409,
      "ďĉ!!ďĉďĉ!": 3410,
      "ďĉďĉďĉM": 3411,
      "ďĉďĉďĉ!ćĈ!Ĉ!ćĈ!ćĈ!ćĈ!Ĉ!ććććĈ!ććĈ!ć!ďĉććĈ!Ĉ!ĈĈĈ!Ĉ!Ĉ!ĈĈćĈ": 3412,
      "ććĈ!Ĉ!Ĉ!ĈćĈ!": 3413,
      "ďĉ%&'(ďĉďĉďĉďĉďĉďĉďĉ": 3414,
      "!!!!!!!ďĉďĉ": 3415,
      "LLLLLL!LK": 3416,
      "-%&+01": 3417,
      "ďĉďĉďĉ%&'(ććĈ!Ĉ!ćĈĈ!ćĈ!Ĉ!Ĉ!Ĉ!Ĉ!ĈĈĈćĈ!Ĉ!Ĉ!ćďĉććć": 3418,
      "'(788888888,": 3419,
      "010101'(333": 3420,
      "ďĉ!!ďĉ!ďĉďĉ!!ďĉďĉďĉďĉďĉďĉďĉďĉ!": 3421,
      "MMMMMMMMMMMMMMMMMMMM": 3422,
      "7777777": 3423,
      "%&'(ďĉďĉ!ďĉďĉ": 3424,
      "%!!!!!!!!!!&'(": 3425,
      "&'(!!!!!!!!!!!!!!!!!!!!!!!!!!!!!!!!!!!!!!!!!!!!!!!!!!!!!!!!!!!!!!!!!!!!!!!!!!!!!!!!!!!!!!!!!!!!!!!!!!!!!!!!!!!!!!!!!!!!!!!!!!!!!!!!!!%!!!!!!!!!!!!": 3426,
      ")!)!!!!!!!!ďĉ!ďĉďĉ!!!!!!!!!!!!!!!!!!!!!!!!!!!!!!!!!!!!!!!!!!!!!!!!!!!!!!!!!!!!!!!!!!!!!!!!!!!!!!!!!": 3427,
      "%!&'(!!!!!!!!!!!!!!!!!!!!!!!!!!!!!!!!!!!!!!!!!": 3428,
      "ćĈĈćĈĈĈĈĈĈćĈĈĈĈćĈĈćĈĈćĈ!ćććĈ!ććďĉďĉ!!!!": 3429,
      "Ĉ!ďĈ!ĉ": 3430,
      "&'Ĉ(": 3431,
      "ćććććććććććĈ!ćĈ!!ććĈ!ććĈ!ćĈ!Ĉ!Ĉ!Ĉ!Ĉ!Ĉ!Ĉ": 3432,
      "ććĈ!Ĉ!ććĈ!ććććĈćĈćĈćĈććććĈ!Ĉ!ććĈ!ĈććććĈćĈćĈćĈćĈćĈćĈćĈćĈćĈć!!!!!!!!!!!!!!!!!!!!!!!!!!!!!!!!!!!!!!!!!!!!!!!!!!!!!!!": 3433,
      "ćďĉ#$ćĈ!ććďĉ%&'(ďĉ!!!!ďĉ!!)ďĉďĉ!": 3434,
      ")!)!!!!!!!!!!!!!!!!!!!!!!!!!!!!!!!!!!!!)!)!!!!!!!!!!!!!!!!!!!!!!!!!!!!!!!!!!!!!!!!!!!!!!!!": 3435,
      "ćĈ!ćĈ!ćĈ!ćĈ!ćĈ!Ĉ!ćĈ!ćĈ!Ĉ!Ĉ!ćĈ!Ĉ!Ĉ!ććĈ!Ĉ!Ĉ!ĈćĈ!Ĉ!ććĈ!ććĈ!ćĈ!Ĉ!ćĈććĈ!Ĉ!%&'(ďĉĈ!Ĉ!Ĉ!Ĉ!Ĉ!Ĉ!ĈĈĈĈĈĈĈĈĈĈĈĈĈĈĈĈĈĈĈĈĈĈĈĈĈĈĈĈĈĈĈĈĈĈĈĈĈĈĈĈĈĈĈĈĈĈĈĈĈ!Ĉ!ĈĈĈĈĈ!Ĉ!Ĉ!ďĉ": 3436,
      "%M&'(MMMMMMMMMMMMMMMMMMMMMMMMMMMMMMMMMMMMMMMMMMMMMMMMMMMMMMMMMMMMMMMM": 3437,
      "&'(!!!!!!!!!!!!!!!!!!!!!!!!!!!!!!!!!!!!!!!!!!!!!!!!)!)!!!!!!!!ďĉ!ďĉďĉ!!!!!!!!!!!!!!!!!!!!!!!!!!!!!!!!!!!!!!!!!!!!!!!!!!!!!!!!!!!!!!!!!%!&'(!!!!!!!!!!!!!!!": 3438,
      "%&'(ďĉ!!!ďĉďĉďĉ!!ďĉćććĈ!Ĉ!Ĉ!Ĉ!": 3439,
      "ćĈ!%&'(ďĉ!)ććććććććććććĈ!ććĈ!ćĈ!ćĈ!Ĉ!Ĉ!ćĈ!Ĉ!": 3440,
      "ďĉ!ďĉďĉďĉďĉďĉďĉďĉďĉďĉďĉ!!ććć%&'(ďĉ": 3441,
      ")!)!!!!!!!!!!!!!!!!!!!!!!!!!!!!!!!!!!!!!!!!!!!!!!!!!!!!!!!!!!!!!!!!!!!!!!!!!!!!!!!!!!%&'(!!!!!!!!!!!!!!!!!!!!!!)!!!!!!!!!!!!!!!!!!!!!!!!!!!!!!!!ďĉďĉďĉ!ďĉ!!ďĉďĉďĉďĉ%&'(ďĉďĉ!": 3442,
      "ć!!!!!!!!!!!!!!!!!!!!!!!!!!!!!!!!!!!!!!!!!!!!!!!!!!!!!!!%&'(%&'(ďĉ!!ććććććĈććĈ!%&'(ďĉćĈ!Ĉ!Č": 3443,
      "ďĉďĉďĉ!ďĉďĉ!ďĉďĉ!!ďĉ!!ďĉďĉćććĈ!Ĉ!Ĉ!Ĉ!Ĉ!ĈćĈĈ!Ĉ!ĈĈĈćĈćĈ!ććĈ!!%&'(ďĉ!!ďĉďĉďĉĈ!ĈĈĈ!ĈĈĈĈĈĈĈĈĈĈĈĈĈĈĈĈĈĈ!ďĉ!!ďĉ!ďĉ!!!": 3444,
      "Ĉ!Ĉ!Ĉ!Ĉ!ĈĈ!ćĈ!Ĉ": 3445,
      "!!!!!!!%!!!!!!!!!!!!&'(ććĈ!ćĈ!ćĈ!ćďĉ!!!!!!!!!!!!!!!ďĉ!!!!!!!!!!!!!!!!!!!!!!!!!!!!!!!!!!!!!!!!!!!!!!!!!!!!!!!!!!!!!!!!": 3446,
      "7777777'(788888888,": 3447,
      "!ĥĤ": 3448,
      "Bďĉ": 3449,
      "Ĉ!ĥ": 3450,
      "ďĉďĉ!!!!RTVa!!!SĂĄĆ!!!!R!!!S": 3451,
      "&'(!!!!!!!!!!!!!!!!!!!!!!!!!!!!!!!!!!!!!!!!!!!!!)!)!!!!!!!!!!!!!!!!!!!!!!!!!!!!!!": 3452,
      "ďĉ!%!&'(": 3453,
      "ćĈććĈ!": 3454,
      "Ĉ!Ĉĉ": 3455,
      "!!!!!!!!!!!!ďĉďĉďĉďĉďĉ!!ďĉ!!!!!!!ďĉ!!ďĉďĉ!!!": 3456,
      "ćĈ!ćĈ!ććććĈćĈ": 3457,
      "%&Ĉ'(": 3458,
      "ďĉďĉ!ďĉďĉ!!": 3459,
      ")!)!!!!!!!": 3460,
      ")!)!!!!!!!!!!!!!": 3461,
      "ďĉďĉďĉďĉďĉďĉďĉďĉďĉďĉ!!": 3462,
      "!!!!!!!!!!!%!!!!!!!!!!!!!!!!!!!!!!!!!!!!!!!!!!!!!!!!!!!!!!!!": 3463,
      "!!!!!!!%!!!!!!!!!!!!!!!!!!": 3464,
      "ďĉ!ďĉďĉďĉďĉďĉďĉďĉ%&'(": 3465,
      "-%&+": 3466,
      "Ĉ!Ĉ!Ĉ!Ĉďĉ!!!!!!!!!!!": 3467,
      "-%&+/,'(#$": 3468,
      "ďĉďĉďĉďĉďĉćććććććĈ!Ĉ!ććććććĈ!ćĈĈ": 3469,
      "ć!Ĉ!": 3470,
      "%!!!!&'(!!!!!!!!!!!!!!!!": 3471,
      "ć%&'(ďĉćĈ!ććĈ!ćĈ!ĈďĉććććććććććććĈ!ćĈ!Ĉ!Ĉ!Ĉ!Ĉ!Ĉ!Ĉ!Ĉ!Ĉ!!ćĈĈĈĈ!Ĉ!ćĈ!Ĉ!ćĈĈĈćĈ!ĈĈĈĈĈ!Ĉ!ćĈ!ććĈ!ćĈ!ććĈ!ćĈććĈ!ćĈ!ćĈ!ĈćĈĈć%&'(ďĉĈ!ćĈ!Ĉ!Ĉ!ćĈ!Ĉ!Ĉ!ĈĈ!": 3472,
      "&'(ďĉćććĈ!Ĉ!Ĉ!Ĉďĉ!ďĉďĉďĉďĉ!!!!!!!!!!!!!!!!!!!!!Ĉ!Ĉ!Ĉ": 3473,
      "ďĉď%&'(ĉ!!": 3474,
      "ĈĈĈ!ĈĈĈććĈ!ĈĈ!ĈĈĈĈ!ĈĈ!ĈĈĈĈďĉďĉďĉ!!!!!!!!!!": 3475,
      "ćććĈĈ!ćĈ!Ĉ!ĈćĈĈĈćĈĈĈćĈĈćććććďĉďĉďĉĈ!ĈĈĈĈĈ!ćĈ!Ĉ!Ĉ": 3476,
      "Ĉ!Ĉ!Ĉ!Ĉ!Ĉ!Ĉ!ćďĉďĉďĉćĈ!Ĉ!Ĉ!Ĉ!ďĉ!!!!!!!!!!!!!!!!!!!!!!!!!!!!!!!!!!!!!!!!!!!!!!!!!!!!": 3477,
      "%!!!!!!!!!!!!!!!!!!!!!!!!!!&'(!!!!!!!!!!!!!!!!!!!!!!!!!!!!!!!!!!!!!!!!!!!!!!!!!!!!!!!!!!!!!!!!!!!!!!!!!!!!!!!!!!!": 3478,
      "7'777777(788888888,-%&+": 3479,
      "ďĉďĉ!ďĉ!!!!!!!!ďĉďĉďĉďĉďĉććććĈ!ćĈ!ĈćĈĈ!Ĉ!Ĉ!Ĉ!ĈćĈĈćĈĈĈĈĈĈ!%&'(ďĉďĉďĉ!))ďĉ!ďĉďĉďĉďĉ%&'(ćďĉ!ďĉďĉďĉĈ!ĈĈćďĉďĉďĉďĉďĉďĉďĉ!ďĉ!ďĉďĉďĉ!": 3480,
      "!!!!!!!%!&'(!!!!!!!!!!!ďĉ!ďĉďĉ!!!!!!!!!!!!!!!!!!!!!!!!!!!!ďĉ!!!!!!!!!!!!!!!!!!!!!!!!!!!!!!!!!!!!!!!!!!!!!!!!!!!!!!!!!": 3481,
      "%&'(ďĉ!!!!!!!!!!!!!!!!!!!!!!!!!!!!!!!!!!!!!!!!!!!!!!!!!!!!!!!!!!!!!!!!!!!!!": 3482,
      "&'(!!!!!!!!!!!!!!!!!!!!!!!!!!!!!!!!!!!!!!!!!!!!!!!!)!)!!!!!!!!ďĉ!ďĉďĉ!!!!!!!!!!!!!!!!!!!!!!!!!!!!!!!!!!!!!!!!!!!!!!!!!!!!!!!!!!!!!!!!!!": 3483,
      "777'7777(788888888,-%&+": 3484,
      "Ĉ!ćĈĈĈ!ĈĈĈ": 3485,
      "ć'Ĉ(!": 3486,
      "ććććććĈ!ćĈĈďĉďĉ!!ďĉćććĈ!Ĉ!Ĉ!ćĈ!Ĉ!Ĉć%&'(ďĉďĉďĉďĉ": 3487,
      "ďĉďĉďĉ!!ďĉďĉ!ďĉ!!ďĉććććććĈ!ććĈ!ććĈ!Ĉ!Ĉ!Ĉ!ćććĈ!Ĉ!Ĉ!ććĈćĈ!Ĉ!ĈćĈ!Ĉ!ćĈ!ććĈĈĈĈĈćĈćĈ%&'(ďĉćććććĈ!ĈĈćĈĈćĈďĉććććććććĈ!Ĉ!Ĉ!ĈćĈĈ!Ĉ!ĈćĈĈ!ćĈ!Ĉ!ĈĈĈĈćĈĈĈĈ": 3488,
      "&'(!!!!!!!!!!!!!!!!!!!!!!!!!!!!!!!!!!!!!!!!!!!!!!!!!!!!!!!!!!!!!!!!!!!!!!!!!!!!!!!!!!!!!!!!!!!!!!!!!!!!!!!!!!!!!!!!!!!!!!!!!!!!!!!!!!!!!!!!%!!!!!!!!!!&'(!!!!!!!!!!!!!!!!!!!!!!!!!!!!!!!!!!!!!!!!!!!!!!!!!!!!!!!!!!!!!!)!)!!!!!!!!!!!!!!!!!!!!!!!!!!!!!!!!!!!!!!!!!!!!!!!!!!!!!!!!!!!!!!!!": 3489,
      "&'(!!!!!!!!!!!!!!!!!!!!!!!!!!!!!!!!!!!!!!!!!!!!!!!!!!!!!!!!!!!!!!!!!!!!!!!!!!!!!!!!!!!!!!!!!!!!!!!!!!!!!!!!%!!!!!!!!!!!!!!!!!!!!!!!!!!&'(!!!!!!!!!!!!!!!!!!!!!!!!!!!!!!!!!!!!!!!!!!!!!!!!!!!!!!!!!!!!!!!!!!!!!!!!!!!!!!!!!!!": 3490,
      "ďĉćććďĉ!ďĉďĉ!ďĉďĉćććććďĉ!ďĉďĉďĉ!ďĉ": 3491,
      "ćććććććĈĈććććććĈ!ćĈĈďĉďĉ!!ďĉ": 3492,
      "322333222323232222222222222222222222222222222222222222244444444%&5555555522222222222222222222222266666666": 3493,
      "ćĈ!ĈĈ!ĈĈ!ĈĈ!ĈĈĈĈĈĈĈĈĈĈĈĈĈĈĈĈĈĈĈĈĈĈĈĈĈĈĈĈ!Ĉ!Ĉ!Ĉ!ĈĈĈĈĈĈĈĈĈ!Čďĉ!ćććććććĈ!Ĉ!ććććććĈ!ćĈĈ%&'(ďĉďĉĈ!ĈĈďĉ!!)!)!!!!!!!!!!!!!!!%&'(!ďĉďĉďĉ!ďĉ!ďĉ!ďĉ!ďĉďĉ!!ďĉďĉďĉďĉďĉ!ďĉ!ďĉ%&'(ďĉďĉďĉďĉćććććĈ!Ĉ!Ĉ!ćĈĈćĈďĉďĉĈ!Ĉ": 3494,
      "ćĈ!Ĉ!ĈćĈ!Ĉ!ćĈ!ććĈĈĈĈĈćĈćĈďĉćććććĈ!ĈĈćĈĈćĈ%&'(ďĉććććććććĈ!Ĉ!Ĉ!ĈćĈĈ!Ĉ!ĈćĈĈ!ćĈ!Ĉ!ĈĈĈĈćĈĈĈĈćĈĈćĈĈĈĈĈĈćĈĈĈĈćĈĈćĈĈćĈ!ćććĈ!ćć": 3495,
      "ďĉďĉćććĈ!Ĉ!Ĉ!Ĉ!Ĉ!Ĉ!ćććććĈ!ćĈĈ%&'(ďĉďĉ!!ďĉ!!!!!!!!!ďĉ!!!!!!!!!!!)!!!!!!!!!!!!!!!ďĉďĉ%&'(ďĉ)!)ďĉďĉďĉďĉďĉďĉ!!!ďĉ!!ďĉ!ďĉ!ććĈ!Ĉ!Ĉ!ććĈ!Ĉ!Ĉ!ĈĈ!Ĉ!!ćĈ!Ĉ!Ĉ!Ĉ!ćĈ!ććĈ!ć%&'(ďĉ!ďĉďĉ!!": 3496,
      "ďĈĈĈĈĉ": 3497,
      "ćĈ!Ĉ!Ĉ!Ĉ!Ĉ!Ĉ%&'(ďĉĈ!Ĉ!Ĉ!Ĉ!Ĉ!ĈĈĈ!ĈĈĈć": 3498,
      "ďĉďĉďĉďĉćĈ!ĈĈ!Ĉ!ďĉ!ďĉ!ďĉďĉďĉ!!ďĉ!ďĉ%&'(!ďĉďĉďĉćďĉ!ďĉďĉďĉďĉ": 3499,
      "ćďĉ!ďĉďĉďĉďĉďĉďĉďĉ%&'(ďĉĈ!ĈććĈĈ!Ĉ!ććĈ!Ĉ!ĈĈ!ĈĈĈďĉďĉďĉďĉďĉďĉďĉ": 3500,
      "ććĈ!Ĉďĉ%&'(Ĉ!Ĉ!ĈĈĈĈĈĈĈĈĈĈĈĈĈĈĈĈĈĈĈĈĈĈĈĈďĉ!ćććććĈ!Ĉ!Ĉ!Ĉ!Ĉ!Ĉ!ćĈ!Ĉ!Ĉ!ćĈ!Ĉ!ćĈ!Ĉ!Ĉ!ćĈ!Ĉ!ćĈ!ćĈ!ćĈ!ćĈ!Ĉ!Ĉ!Ĉć%&'(ďĉ!!!!!!!!!ďĉďĉďĉďĉďĉ)!)ďĉďĉďĉćććĈ!Ĉ!Ĉ!ĈĈ!Ĉ!ćĈ!Ĉ!Ĉ!ĈćĈ!Ĉ!Ĉ!Ĉć%&'(ďĉ!ććććććććĈ!Ĉ!ćĈĈćĈ!ĈĈćĈ!ćĈĈćĈ!Ĉ!ćďĉďĉćć": 3501,
      "ććććĈ!ćĈćĈĈćććć": 3502,
      "ďĈĈ!ĉ": 3503,
      "Ĉ!%Ĉ&'(": 3504,
      "ďĉĈ!Ĉ!Ĉ!Ĉ!ĈćĈĈĈ!ĈĈĈ": 3505,
      "ĈĈĈ!Ĉ!Ĉ!Ĉ!ĈĈ!ćĈ!Ĉ": 3506,
      "%&'(ćĈ!ćć": 3507,
      "%&'(!ďĉ": 3508,
      "ćĈ!%Ĉ&'(": 3509,
      "ďĉ!ćĈ!Ĉ!ćĈ!ćĈ!ćĈ!Ĉ!ććććĈ!ććĈ!ć!ďĉććĈ!Ĉ!ĈĈĈ!Ĉ!Ĉ!ĈĈćĈďĉ!!ďĉďĉ!!!)!)": 3510,
      "ćĈćĈ!Ĉ!": 3511,
      "Ĉ!ĈććĈ!Ĉ!Ĉ!ĈĈ!ĈćĈ!ćć": 3512,
      "ďĉ!ďĉ%&'(ďĉďĉďĉďĉ": 3513,
      "ďĉ!ďĉćććĈ!Ĉ!Ĉ!Ĉ!Ĉ!Ĉ!ćććććĈ!ćĈĈ%&'(ďĉďĉ!!!!!!!!!!!ďĉćććĈ!Ĉ!Ĉ!Ĉ": 3514,
      "ďĉďĉďĉďĉďĉďĉďĉďĉďĉďĉďĉďĉ!": 3515,
      "ď%&'(ĉďĉďĉďĉ!": 3516,
      "ďĉďĉďĉďĉ!ďĉďĉ!": 3517,
      "Ĉ!Ĉ!Ĉ!ĈĈ!Ĉ!": 3518,
      "ćĈĈĈĈĈćĈĈĈĈĈĈ": 3519,
      "ĈĈĈĈĈĈĈĈĈĈĈĈĈĈĈ": 3520,
      ")!)!!)!)!!!!!!!!!!!!!!!!!!!!!!!!!!!!!!!!!!!!!!!!!!!!!!!!!!!!!!!!!!!!!!!!!!!!!!!!!!!!!!!!!!!!!!!!!!!!!!!!!!!!": 3521,
      "%&'ď(ĉ!!": 3522,
      "ďĉďĉ!!!!ďĉ!!)ďĉďĉ!": 3523,
      ")ďĉďĉ!ďĉ!ďĉ!ďĉďĉďĉ": 3524,
      "ćććććććććććććććććććććććććććććććĈ!ćĈ!Ĉ!ĈćĈ!Ĉ!ććĈ!Ĉ!Ĉ!Ĉ!Ĉ!ĈĈ!ćĈ!ćĈ!ćĈćĈ!ćĈ!ćĈćĈ!ćĈćĈ!ććĈćĈ!ćĈćĈ!Ĉ!ććĈćĈ!ĈĈĈĈĈĈćĈ!ććĈććĈ!ćĈ!ĈććĈĈ!Ĉ!ĈĈĈ!ććĈ!Ĉ!Ĉ": 3525,
      "%ć&Ĉ'(": 3526,
      "ĖĖĖ": 3527,
      "ďĉď%&'(ĉďĉďĉ": 3528,
      "RTVaďĉććĈ!ćććĈćććĈĈ!Ĉ!ćĈ!ććĈćĈ!ćĈ!!Č!!Č!": 3529,
      ")!)!!!!!!!!!!!!!!!!!!!!!!!!!!!!!!)!)!!!!!!!!!!!!!!!!!!!!!!!!!!!!!!!!!!!!!!!!!!!!!!!!!!!!!!!!!!!!!!!!!!!!!!!!!!!!!!!!!!!!!!!!!": 3530,
      "ćĈ!ććććććĈ!ćĈ!ććĈćććĈćććĈĈćĈćĈ!Ĉ!ćĈ!ĈćĈćĈćĈćĈ!Ĉ!ĈćĈ!Ĉ!ćĈĈĈććĈ!Ĉ!ććĈ!ćććĈćĈćĈćĈćĈĈćĈĈćĈćĈćĈćĈ!Ĉ!ĈćĈ!Ĉ!Ĉ!ććććĈćĈććĈ!ćĈ!Ĉ!Ĉ!Ĉ!ćĈ!Ĉ!ćĈ!ćĈ!Ĉ!ćĈ!ĈćĈ!ĈĈ!ĈćĈćĈćĈćććĈćĈćććĈćĈćĈ!ĈćĈćĈćĈ": 3531,
      "ďĉ%&'(ďĉćďĉććććććććććććććććĈ!Ĉ!ćĈ!Ĉ!ĈĈ!ćĈ!ćććĈ!ććĈćĈ!ććĈćććĈ!Ĉ!Ĉ!Ĉ!ćććĈćĈ!ćĈćććĈ!Ĉ!Ĉ!Ĉ!Ĉ!ćĈ!Ĉ!Ĉ!ĈćĈ!ćĈĈĈĈĈćĈĈĈĈĈćĈ!ĈĈĈćĈ%&'(ďĉ!ćććĈ!Ĉ!ćĈ!Ĉ!ĈĈ!Ĉ!ĈćĈĈĈĈĈ!Ĉ!Ĉ!Ĉ!Ĉ!Ĉ!ĈĈĈ!Ĉ!ĈĈĈĈ": 3532,
      "Ĉ!ćĈ!ćĈ!Ĉ!Ĉ!ďĉďĉ": 3533,
      "ďĉ!!!!ďĉďĉďĉďĉďĉďĉďĉďĉďĉďĉćććĈ!Ĉ!": 3534,
      "ďĉďĉććććććĈ!ćććĈ!ćććĈ!ćĈ!ć%&'(ďĉďĉďĉďĉ!": 3535,
      "%ććĈ&'(!": 3536,
      "ććĈ!ďĉ!ďĉ!!ćĈ!ďĉďĉďĉĈ!Ĉ!Ĉ!Ĉ!Ĉ!ćĈ!ĈĈĈĈćĈ!ćĈ!ć%&'(ďĉďĉďĉďĉ!ďĉ!ďĉďĉćĈ!Ĉ!Ĉ!ććĈ!ćĈ!Ĉ!Ĉ!ćĈ!Ĉ!ćĈ!ćĈ!ćĈ!ćĈćĈ!Ĉ!ĈĈćĈćĈĈĈĈĈĈĈĈĈĈĈĈ%&'(ďĉ!!ďĉďĉďĉďĉďĉďĉ!ďĉďĉ!ďĉďĉďĉ!!ććććĈ!Ĉ!": 3537,
      "ćďĉ!ďĉ!!!!!!!!!!!!!!!!!!!!!!!!!!!!!!!!!!!ćććććććććććĈ!ĈćĈ!Ĉ!ĈćĈ!ć%&'(ďĉďĉ!!ćććĈ!Ĉ!ćĈ!Ĉ!ĈĈĈĈ!ććĈďĉďĉććććććććććććććĈ!ććĈ!Ĉ!Ĉ!ĈćĈ!Ĉ!ĈćĈććĈĈ!ĈĈĈ%&'(ďĉ!!!ďĉďĉďĉďĉďĉďĉďĉďĉ!ďĉ!ďĉďĉďĉďĉ%&'(ďĉďĉďĉćďĉ!ďĉďĉďĉďĉ!!": 3538,
      "ďĉďĉ)ďĉďĉ!ďĉďĉ!!ďĉ!!!!ďĉďĉďĉďĉ!!!!!!!!!!!!!!!!!!!!!!!!!!!!!!!!!!!!!!!!!!!!!ćććććććĈ!ćĈ!Ĉ!Ĉ!Ĉ!Ĉ!ćĈ!Ĉ!ćĈććĈć%&'(ďĉćĈ!Ĉ!Ĉ!Ĉ!Ĉ!Ĉ!Ĉ!Ĉ!ćĈ!ćĈ!Ĉ!ĈćĈ!Ĉ!ďĉćĈ!": 3539,
      "&'(!!!!!!!!!!!!!!!!!!!!!!!!!!!!!!!!!!!!!!!!!!!!!!!!!!!!!!!!!!!!!!!!!!!!!!!!!!!!!!!!!!!!!!!!!!!!!!!!!!!!!!!!!!!!!!!!!!!!!!!!!!!!!!!!!!!!!!!!!!!!!!!!!!!!!!!!!!!!!!!!!!!!!!!ććććććććĈ!ćććĈ!Ĉ!ćĈ!%&'(ďĉćĈ!Ĉ!ĈćĈ!ďĉćććććććĈ!ćĈ!": 3540,
      "ĈćĈĈćĈćć%&'(%&'(": 3541,
      "'77": 3542,
      "7'77": 3543,
      "Bĉ": 3544,
      "ć%ćć&'(": 3545,
      "Ĉć": 3546,
      "%&'(ď%&'(ĉďĉďĉ": 3547,
      "%&'(ďĉ!ďĉĈ!Ĉ!ćĈ!Ĉ!ĈĈĈďĉ!ďĉ!!!SĂĄĆ!!ďĉ!!!!!!RTVa!!!SĂĄĆ!!!!R!!!S": 3548,
      "ĈĈĈĈĈćĈĈćĈćć%&'(%&'(": 3549,
      "ććććććć": 3550,
      "ďĉďĉďĉ%&ď'(ĉ": 3551,
      "ććĈććĈ": 3552,
      "ćĈĈĈćĈĈĈĈĈĈ!ĈĈ!ĈĈĈćĈĈĈćĈ!ĈĈĈĈ!ĈĈ!Ĉ": 3553,
      "Ĉ!ĈĈ!!": 3554,
      "!!!!!!!!!%!!!!!&'(": 3555,
      "ď%&'(ĉďĉďĉ!!": 3556,
      "ďĉ!ďĉ!ďĉďĉ": 3557,
      "ďĉćććććććĈĈććććććĈ!ćĈĈ": 3558,
      "%!&'(!!!!!!!": 3559,
      "77777'77": 3560,
      "ď%ĉ&'(ďĉďĉ": 3561,
      "ććĈććďĉďĉďĉ!!ďĉ!!ďĉ!!!!!!!!)!!!!!!!!)!)!)!!!!!!!!!!!!!!!!!!!!!!!!!!!!!!!!!!!!!!!!!!!!!!!!!!!!!!!!!!!!!!!!!!!!!!!!!!!!!!!!!!!!!!!!!!!!!!!!!!!!!!!!!!": 3562,
      "ĈĈ!ĈććĈ!Ĉ!ĈĈ!ĈĈ!Ĉ!ćĈ!ďĉ%&'(Ĉ!ćĈ!Ĉ!Ĉ!Ĉ!Ĉ!Ĉ!ćĈ!ćĈ!ćĈ!Ĉ!Ĉ!ćĈ!ĈĈĈćĈćĈćĈĈĈćĈ": 3563,
      "%!&'(!!!!!!!!!!!!!!!!!!!!!!!!!!!!!!!!!!!!!": 3564,
      "ďĈćĉ": 3565,
      "ďĉďĉďĉďĉďĉďĉďĉďĉ!!ďĉďĉďĉďĉ!!!!ďĉ!!": 3566,
      "%&'(ďĉĈ!ĈĈĈĈĈĈĈĈ!ĈĈĈ!ďĉ!!!!!!!!!!!!!!!!!!!!!!!!!!!!!!!!": 3567,
      "ČČČČČČČČ": 3568,
      "ďĉďĉďĉ%&'(ďĉďĉ!!ďĉ!ďĉďĉďĉďĉďĉďĉďĉďĉďĉďĉďĉďĉďĉďĉďĉ": 3569,
      "ĈĈĈĈĈĈĈĈĈĈĈĈĈĈ!Ĉ!Ĉ!Ĉ!ĈĈĈĈĈ!Ĉ!Ĉ!Ĉ!Ĉ!Ĉ!ĈĈ!ĈĈ!ĈĈ!ĈĈĈ!ĈĈĈĈĈ!ĈĈĈĈĈĈ!Ĉ!ĈĈ!ĈĈĈĈ!ĈĈĈĈĈĈĈĈ%&'(ďĉćĈ!Ĉ!Ĉ!Ĉ!Ĉ!Ĉ!ĈĈďĉ%&'(!!!ďĉ!ďĉďĉ!ďĉćććĈ!Ĉ!Ĉ!Ĉ!%&'(Ĉ!Ĉ!ćććććĈ!ćĈĈďĉďĉ!!!!!!!!!!!ďĉćććĈ!Ĉ!Ĉ!Ĉ%&'(ďĉ!ďĉďĉďĉďĉ!!!!!!!!!!!!!!!!!!!!!Ĉ!Ĉ!Ĉ": 3570,
      "322323232323232222222222222222222222222222222222222222244444444%&5555555522222222222222222222222266666666": 3571,
      "ćĈ!Ĉ!Ĉ!Ĉ!Ĉďĉ!))ħ!": 3572,
      "ďĉďĉďĉďĉ!!!!ďĉ!!ďĉďĉďĉďĉďĉďĉďĉďĉ!ćĈ!Čďĉďĉ!%&'(ďĉďĉďĉďĉďĉďĉďĉďĉďĉćććććĈ!ćĈ!Ĉ!ćĈĈ!Ĉ!Ĉ!Ĉ!ćĈćĈĈćĈ!Ĉ!Ĉ!ćĈ!Ĉ!": 3573,
      "ćĈĈĈĈĈĈĈĈććĈćĈĈ!ććĈĈĈĈćĈĈĈĈćĈĈĈĈĈĈĈĈććĈćďĉ!ććĈ!ćĈ!Ĉ!ĈĈĈ!ĈĈĈććĈ!ĈĈ!ĈĈĈĈ!ĈĈ!ĈĈĈĈ": 3574,
      "ďĉ!!ďĉ!!!ďĉ!!ďĉďĉ": 3575,
      "ďĉ!!ďĉďĉ!!ďĉ!ďĉ!!ďĉďĉďĉ!ďĉććĈ!%&'(ďĉ!ďĉ!!ćĈ!ďĉďĉďĉĈ!Ĉ!Ĉ!Ĉ!Ĉ!ćĈ!ĈĈĈĈćĈ!ćĈ!": 3576,
      "ćĈ!ćĈ!ććććĈćĈćććĈ!ćć": 3577,
      "AM": 3578,
      "Bē": 3579,
      "ďĉĈ!": 3580,
      "%&'(Ĉ!Ĉ!Ĉ!Ĉ!Ĉ!Ĉ!Ĉ!Ĉ!": 3581,
      "%&'(ďĉďĉďĉďĉ!ďĉďĉďĉďĉ!ďĉ!!": 3582,
      "ćĈ!Ĉ!ć": 3583,
      "ćĈ!Ĉ!Ĉ!ĈĈ!": 3584,
      "!!!!!!!!!!!!ďĉ!!!!!!!!!!!!!!!!!!!!!!!!!!!!!!!!!!!!!!!!!!!!!!!!!!!!!!!!!!!!!!!!": 3585,
      "ďĉďĉďĉćććĈ!Ĉ!Ĉ!ćĈĈĈĈ!ćĈ!ĈĈ!ćĈ!ć": 3586,
      "Ĉ!ćĈ!Ĉ!ĈĈĈĈĈ": 3587,
      "ćďĉ%ď&'(ĉ": 3588,
      "ďĉďĉďĉ%&'(ďĉďĉ": 3589,
      "ćĈ!ćĉ": 3590,
      "%&-+/,'(%&-+/,'(\"": 3591,
      "ćĈ!Ĉ!Ĉ!ćĈ!Ĉ!Ĉ!Ĉ!ćĈ!Ĉ!": 3592,
      "ďĉ!!!!!!!!!!!!!!!!!!!!!!!!!!!!!!!!!!!!!": 3593,
      "%!!!&'(!!!!!!!!!!!!!!!!!!!!!!!!!!!!!!!!!!!!!!!!!!!!!!!!!!!!!!!!!!!!!!!!": 3594,
      "&'(!!!!!!!!!!!!!!!!!!!!!!!!!!!!!!!!!!!!!!!!!!!!!!!!!!!!!!!!!!!!!!!!!!!!!!!!!!!!!!!!!!!!!!!!!!!!!!!!!!!!!!!!!!": 3595,
      "%!!!!!!!!!!!!!!!!!!!!!!!!!!!!!!!!!!!!!!!!!!!!!": 3596,
      "%ć&'(ćććć": 3597,
      "ćĈ!Ĉ!ĈćĈ!Ĉ!ććĈ!Ĉ!Ĉ!Ĉ!Ĉ!ĈĈ!ćĈ!ćĈ!ćĈćĈ!ćĈ!ćĈćĈ!ćĈćĈ!ććĈćĈ!ćĈćĈ!Ĉ!ććĈćĈ!ĈĈĈĈĈĈćĈ!ććĈććĈ!ćĈ!ĈććĈĈ!Ĉ!ĈĈĈ!ććĈ!Ĉ!Ĉ": 3598,
      "ďĉ!ďĉ!!!!!!!!!!!ďĉ!!": 3599,
      "ďĉďĉďĉďĉďĉ%&'(ďĉďĉďĉďĉ!": 3600,
      "&'(!!!!!!!!!!!!!!!!!!!!!!!!!!!!!!!!!!!!!!!!!!!!!!!!!!!!!!!!!!!!!!!!!!!!!!!!!!!!!!!!!!!!!!!!!!!!!!!!!!!!!!!!!!!!!!!!!!!!!!!!!!!!!!!!!!!!%!!!!!!!!!!!!!!!!": 3601,
      "ććĈ!Ĉ!Ĉ!Ĉ!ćĈ!Ĉ!!Ĉ!ćĈ!ćĈ!ććĈ!Ĉ!ćĈ!ďĉ!": 3602,
      "ćććććďĉ!ďĉďĉďĉ!ďĉćďĉ!!!!ćďĉ!": 3603,
      "%ć&'Ĉ(": 3604,
      "ććĈĈćĈĈĈććĈĈććĈćććĈĈĈĈĈćĈĈćĈćĈĈćĈĈćĈĈĈĈĈćĈćĈĈćĈĈćĈćĈćĈććĈćĈćĈćĈćĈ!ćĈćĈćĈćĈćĈćĈćĈćĈćĈćĈćĈćĈćć": 3605,
      "ďĉ!!ďĉ!!!!!!!!!!!ďĉ!!ćććććććĈ!Ĉ!Ĉ!ććĈĈććĈ!ćĈĈ%&'(ďĉďĉ!!!ćććććĈ!ćĈ!ććććĈ!ććĈ!ćććĈ!ćććĈćďĉďĉććĈ!": 3606,
      "ćĈ!ĈĈĈ!ĈĈćĈ!Ĉ!Ĉ!ćĈćĈĈĈĈĈćĈĈćĈćĈćĈćĈĈĈćĈĈĈĈĈĈćĈ!Ĉ!ć%&'(ďĉ!!ďĉ!ďĉďĉďĉ!ďĉ!!!!!ďĉ!ďĉďĉďĉďĉďĉďĉďĉ": 3607,
      "ćĈ!)!)!!Ĉ!Ĉ!ĈĈ!!!!!RTVa!!!SĂĄĆ!!!!R!!!SĈ!ćĈ!ćĈ!Ĉ!Ĉ!": 3608,
      "ďĉďĉďĉďĉ!ďĉďĉ!!!!!!!!!!!!!!!!!!!!!!!!!!!ďĉ!ďĉ!!!!!!ďĉďĉ!!!!": 3609,
      "ććććĈ!Ĉ!Ĉ!Ĉ!Ĉ!ĈĈ!Ĉ!ćďĉ!!ďĉďĉćĈ!ć": 3610,
      "&'(!!!!!!!!!!!!!!!!!!!!!!!!!!!!!!!!!!!!!!!!!!!!!!!!!!!!!!!!!!!!!!!!!!!!!!!!!!!)!)!!!!!!!!!!!!!!!!!!!!!!!!!!!!!!!!!!!!!!)!)!!!!!!!!!!!": 3611,
      "&'(!!!!!!!!!!!!!!!!!!!!!!!!!!!!!!!!!!!!!!!!!!!!!!!!!!!!!!!!!!!!!!!!!!!!!!!!!!!!!!!!!!!!!!!!!!!!!!!!!!!!!!!!!!!!!!!!!!!!!!!!!!!!!%!!!!!!!!!!!&'(!!!!!!!!!!!!!!!!!!!!!!!!!!!!!!!!!!!!!!!!!!!!!!!!!!!!!!!!!!!!!!!!!!!!!!!!!!!!!!!!!!!!!!!!!!!!!!!!!!!!!!!!!!!!!!!!!!!!!!!!!!!!!!!!!!!%!!!!!!!!!!!!!!!": 3612,
      "332223232323232222222222222222222222222222222222222222244444444%&5555555522222222222222222222222266666666": 3613,
      "ćĈ!ćĈ!Ĉ!Ĉ!ćĈ!Ĉ!Ĉ!ćĈ!Ĉ!Ĉ!ĈĈćĈĈ!Ĉďĉ!!!!!!!!!!!!!!!!!!!!!!!!!!!!!!!!ďĉ!!!!!!!!!!!!!!!!!!ďĉ!!!!!!!!!!!!!!!!!!!": 3614,
      "ďĉ!!ďĉ!!!!!!!!)!!!!!!!!)!)!)!!!!!!!!!!!!!!!!!!!!!!!!!!!!!!!!!!!!!!!!!!!!!!!!!!!!!!!!!!!!!!!!!!!!!!!!!!!!!!!!!!!!!!!!!!!!!!!!!!!!!!!!!!ďĉ!!!!!!!!!!!!!!!!!!!!!!!!": 3615,
      "ďēĉ": 3616,
      "ĈĈĈĈĈĈĈĈĈĈĈĈĈĈĈĈĈ!ćĈĈĈĈĈĈĈĈĈĈĈĈĈĈćĈ!ĈćĈĈćĈĈĈĈĈĈĈ": 3617,
      "ćĈ!ćďĉďĉďĉďĉćććććĈ!ćČ": 3618,
      "ďĉďĉďĉďĉďĉďĉďĉďĉďĉ!ďĉďĉďĉ%&'(ďĉďĉďĉ!": 3619,
      "ććććĈ!ćĈćĈĈććććĈĈĈĈĈćĈĈćĈćć%&'(%&'(": 3620,
      "!ďĉćććć": 3621,
      "32222222222222222222222222222222222222222244444444%&5555555522222222222222222222222266666666": 3622,
      "MďMĉ": 3623,
      "Ĉ!ćĈĈćĈ": 3624,
      "ďĉĈ!Ĉ!Ĉ!Ĉ": 3625,
      "ćĈĈĉ": 3626,
      "ďĉ!!ďĉďĉ!!": 3627,
      "Ĉ!ćĈ!Ĉ!Ĉ!Ĉ!Ĉ!ćĈ!Ĉ!ćĈ!ćĈ!ćĈ!ćĈ!": 3628,
      "ććĈćĈ!Ĉ!Ĉ!": 3629,
      ")!)!!!!!!!!!!!!!!": 3630,
      "ďĉ!ďĉď%ĉ&'(": 3631,
      "ďĉďĉďĉ!!ďĉďĉďĉďĉďĉďĉ!ďĉďĉ!ďĉďĉ!!!ďĉćĈ!Ĉ!ććĈ!ććĈ!ĈĈ!ććĈ!Ĉ!Ĉ": 3632,
      "Ĉ!Ĉ!Ĉ!Ĉ!Ĉ!Ĉ!ĈĈĈĈĈĈĈĈĈĈĈĈĈĈĈĈĈĈĈĈĈĈĈĈĈĈĈĈĈĈĈĈĈĈĈĈĈĈĈĈĈĈĈĈĈĈĈĈĈ!Ĉ!ĈĈĈĈĈ!Ĉ!Ĉ!ďĉĈ!Ĉ!ĈĈĈ!Ĉ!Ĉ!Ĉ!ĈĈĈĈĈ!ĈĈĈĈ!ĈĈĈĈĈĈĈĈĈĈĈĈ!Ĉ!ĈĈĈĈĈĈĈĈĈĈĈĈĈĈĈĈĈĈĈĈĈĈĈĈ!ĈĈĈĈĈĈĈĈĈĈĈĈĈĈĈĈĈĈĈĈĈĈĈ": 3633,
      "%ď&'(ĉďĉďĉďĉ!": 3634,
      "ĉĉ!": 3635,
      "Ĉ!ĈĈ!ĉ": 3636,
      "ďĉ!!ďĉććććććććććććććććććććććĈ!ććĈ!ćĈ!ććĈ!ććććĈ!ćććĈććĈćććĈććććĈććĈććććĈććĈć%&'(ďĉ!!!!!!!!!ďĉďĉďĉ!!ďĉďĉ!ďĉ!!": 3637,
      "ďĉ!!ďĉćććĈ!Ĉ!Ĉ!ćĈ!Ĉ!Ĉćďĉďĉďĉďĉ": 3638,
      "ďĉďĉďĉďĉďĉ!!!": 3639,
      "ććĈ!Ĉ!ĈćĈ!ĈććĈĈĈćĈĈĈćĈ!ĈććĈĈĈćĈĈććĈĈĈćĈ!ĈćĈ!ććĈĈ!Ĉ!ĈĈćĈ!Ĉ!ćććĈ!Ĉ!ćććĈĈćĈ!ĈĈĈ!!ćććć!!!!!!!!!!!!!!!!!!!!%&'(%&'(ďĉďĉďĉ": 3640,
      "%&'(ďĉďĉććććććććććććććĈ!ććĈ!Ĉ!Ĉ!ĈćĈ!Ĉ!ĈćĈććĈĈ!ĈĈĈďĉ!!!": 3641,
      ")!)!!!!!!!!!!!!!!!!!!!!!!!!!!!!!!!!!!!!!!!!!!!!!": 3642,
      "Ĉ!ĈĈĈĈĈĈĈĈ!ĈĈĈ!ďĉ!!!!!!!!!!!!!!!!!!!!!!!!!!!!!!!!": 3643,
      "ĉĉĉĉĉĉ": 3644,
      "%&ď'(ĉďĉ": 3645,
      "ďĉ!!ďĉďĉďĉďĉďĉďĉ!ďĉďĉ!ďĉďĉ!!!ďĉćĈ!Ĉ!ććĈ!ććĈ!ĈĈ!ććĈ!Ĉ!Ĉ": 3646,
      "ďďďď!": 3647,
      "Ĉ!Ĉ!ĈĈ!Ĉ!Ĉ!Ĉ!ďĉďĉďĉďĉ": 3648,
      "ććććććććććććć%&'(": 3649,
      "ďĉďĉ!ďĉďĉ%&'(ćĈ!Ĉ!Ĉ!Ĉ!Ĉ!Ĉ!ĈĈĈ!ĈĈĈĈ!ĈĈ!Ĉ!Ĉ!Ĉ!ĈĈĈ!Ĉ!ĈĈ!ĈĈ!Ĉ!Ĉ!Ĉ!Ĉ!Ĉ!ĈĈĈĈ!ĈĈĈĈĈĈĈ!Ĉ!Ĉ!ĈĈ!Ĉ%&'(ďĉĈ!Ĉ!Ĉ!Ĉ!ĈĈĈ!Ĉ!Ĉ!ĈĈĈĈ!Ĉ!ĈĈ!Ĉ!Ĉ!ĈĈĈĈ": 3650,
      "&'(!!!!!!!!!!!!!!!!!!!!!!!!!!!!!!!!!!!!!!!!!!!!!!!!!!!!!!!!!!!!!!!!!!!!!!!!!!!!!!!!!!!!!!!!!": 3651,
      "Ĉ!ďĉďĉ!ďĉ%&'(": 3652,
      "ďĉććĈ!ďĉďĉďĉďĉ!ďĉďĉ!!ďĉďĉďĉďĉďĉďĉďĉ!ďĉ!ďĉć%&'(ććććććĈ!ćČČďĉďĉďĉ!!!!!ďĉďĉďĉ!ďĉďĉćććććĈ!Ĉ!ćĈĈ": 3653,
      "ďĉďĉďĉďĉďĉ!ďĉććĈ!Ĉ!Ĉ!Ĉ!Ĉ!Ĉ!Ĉ!ĈĈćĈ": 3654,
      "ď!!ď": 3655,
      "ćććĈ!Ĉ!Ĉ!ĈĈ!Ĉ!ćĈ!Ĉ!Ĉ!ĈćĈ!Ĉ!Ĉ!Ĉćďĉ!ććććććććĈ!Ĉ!ćĈĈćĈ!ĈĈćĈ!ćĈĈćĈ!Ĉ!": 3656,
      "ćĈĈćĈĈĈĈĈĈćĈĈĈĈćĈĈćĈĈćĈ!ćććĈ!ććďĉďĉ!!!!ďĉďĉ": 3657,
      "ćććććĈ!ćĈ!ććććĈ!ććĈ!ćććĈ!ćććĈćďĉďĉććĈ!ďĉďĉďĉďĉ!": 3658,
      "Ĉ!ĈĈćďĉďĉďĉďĉďĉďĉďĉ!ďĉ!ďĉďĉďĉ!ďĉ!ďĉďĉďĉ": 3659,
      ")!)!!!!!!!!!!!!!!!!!!!!!!!!!!!!!!!!!!!!!!!!!!!!!!!!!!!!!!!!!!!!!!!!!!!!!!!!!!!!!!!!!!!!!!!!!!!!!!!!!!!!!!!!!!!!!!!!!!!!!!!!!!": 3660,
      "ćććććććććććĈ!ĈćĈ!Ĉ!ĈćĈ!ćďĉďĉ!!ćććĈ!Ĉ!ćĈ!Ĉ!ĈĈĈĈ!ććĈďĉďĉćććććććć": 3661,
      "ďĉ!ďĉďĉďĉćĈ!Ĉ!Ĉ!Ĉ!ĈĈ!Ĉ!Ĉ!Ĉ!ĈĈĈĈĈĈĈĈĈĈĈĈĈĈ!Ĉ!Ĉ!Ĉ!ĈĈĈĈĈ!Ĉ!Ĉ!Ĉ!Ĉ!Ĉ!ĈĈ!ĈĈ!ĈĈ!ĈĈĈ!ĈĈĈĈĈ!ĈĈĈĈĈĈ!Ĉ!ĈĈ!ĈĈĈĈ!ĈĈĈĈĈĈĈĈ%&'(ďĉ": 3662,
      "ďĉďĉďĉďĉďĉćććććĈ!Ĉ!ćĈ!Ĉ!ćĈ!Ĉ!Ĉ!Ĉ!Ĉ!ćĈ!ćĈ!ćĈ!ćĈ!ćĈ!Ĉ!ćĈ!ćĈ!Ĉ!ćĈĈćĈ!ĈććĈ!ĈćĈćĈćĈ!ĈćĈĈ%&'(ďĉďĉďĉ": 3663,
      "ďĉďĉďĉ!ďĉďĉ!ďĉďĉ!!ďĉ!!ďĉďĉćććĈ!Ĉ!Ĉ!Ĉ!Ĉ!ĈćĈĈ!Ĉ!ĈĈĈ": 3664,
      "ćĈ!Ĉ!Ĉ!Ĉ!Ĉ!ĈĈĈ!Ĉ!ĈĈ!Ĉ!ĈĈ!Ĉ!ĈĈ!ĈĈ!Ĉ!ĈĈ!ĈĈ!Ĉ!ĈĈĈ!ĈĈĈĈ!ĈĈĈĈ%&'(ďĉĈ!Ĉ!Ĉ!Ĉ!ĈĈĈĈĈĈĈĈĈĈĈĈĈĈ!Ĉ!Ĉ!Ĉ!Ĉ!ĈĈĈ!ĈĈďĉ!ďĉďĉďĉćĈ!Ĉ!Ĉ!Ĉ!ĈĈ!Ĉ!Ĉ!Ĉ!": 3665,
      "ďĉďĉďĉďĉ%&'(ďĉďĉďĉďĉ!": 3666,
      "ďĉ!ďĉďĉ!!!!!!!!!!!!!!!!!!!!!!!!!!!!ďĉ!!!!!!!!!!!!!!!!!!!!!!!!!!!!!!!!!!!!!!!!!!!!!!!!!!!!!!!!!ďĉ!!!!!!!!!!!!!!!%&'(ďĉ!!!!!!!!!!!!!!!!!!!!!!!!!!!!!!!!!!!!!!!!!!!!!!!!!!!!!!!!!!!!!!!!!!!!!": 3667,
      "ďĉďĉ!ďĉďĉćććććďĉ!ďĉďĉďĉ!ďĉćďĉ!!!!ćďĉ!": 3668,
      "ďĉďĉ!!ďĉ!!ďĉ!ććĈ!ďĉ!ďĉďĉ!!ďĉďĉ)ďĉďĉ!ďĉďĉ!!ďĉ!!!!": 3669,
      "!&'(ďĉ))ħďĉďďĉĉďĉďĉďĉďĉ": 3670,
      "Ħ%&'(%&'(%&'(%&'(%&'(%&'(%&'(%&'(%&'(%&'(%&'(%&'(%&'(%&'(%&'(%&'(%&'(%&'(%&'(%&'(%&'(%&'(%&'(%&'(%&'(%&'(%&'(%&'(%&'(%&'(%&'(%&'(%&'(%&'(%&'(%&'(%&'(%&'(%&'(%&'(%&'(%&'(%&'(%&'(%&'(%&'(%&'(%&'(%&'(%&'(%&'(%&'(%&'(%&'(%&'(%&'(%&'(%&'(%&'(%&'(%&'(%&'(%&'(%&'(%&'(%&'(%&'(%&'(%&'(%&'(%&'(%&'(": 3671,
      "ćĈ!ďĉććĈ!Ĉ!Ĉ!Ĉ!ćĈ!Ĉ!!Ĉ!ćĈ!ćĈ!ććĈ!Ĉ!ćĈ!%&'(ďĉ!": 3672,
      "ćďĉ!ďĉďĉďĉďĉ!!ďĉ%&'(ďĉďĉďĉďĉďĉďĉ!ďĉďĉďĉďĉ!!": 3673,
      "ćĈ!Ĉ!ćĈ!Ĉ!ćĈ!Ĉ!Ĉ!Ĉ!Ĉ!ćĈ!ćĈ!ćĈ!ćĈ!ćĈ!Ĉ!ćĈ!ćĈ!Ĉ!ćĈĈćĈ!ĈććĈ!ĈćĈćĈćĈ!ĈćĈĈďĉ%&'(ďĉďĉĈ!Ĉ!Ĉ!Ĉ!ćććĈ!ďĉ!!ďĉ!!!!!!!!!!!": 3674,
      ")!!!!!!!!!!!!!!!!!!!!!!!!!!!!!!!!%&'(ďĉďĉďĉ!ďĉ!!ďĉďĉďĉďĉďĉďĉ!ďĉďĉ!!ďĉ!!ďĉ!ććĈ!ďĉ!ďĉďĉ!!": 3675,
      "!!!!!!!!!!!!!!!!!!!!!!!!!!!!!!!!!!!!!!!ďĉ!ďĉ!!!!!!!!!!!ďĉ!ďĉććććććĈććĈ!%&'(ďĉďĉďĉ!ććĈ!ćďĉďĉďĉďĉďĉďĉďĉďĉďĉ!!ďĉ%&'(ďĉďĉćććĈ!Ĉ!Ĉ!Ĉ!ĈĈĈĈĈĈĈĈĈĈ!ćĈ!Ĉ!ĈćĈĈćĈćĈĈĈćĈĈďĉĈ!ĈĈĈĈĈ!Ĉ!Ĉ!ĈĈĈĈĈĈĈĈĈĈ!ĈĈĈ!ĈĈ!ĈĈĈĈ!ĈĈ!Ĉ%&'(ďĉĈ!ĈĈĈĈĈĈĈĈ!ĈĈĈ": 3676,
      "ďĉ!!!!!!!!!!!!!!!!!!!!!!!!!!!!!!!!!!!!!!!!!!!!!!!!!!!!!!!!!!!!!!!%&'(%&'(ďĉ!!!!!!!!!!!!!!!!!!!!!!!!!!!!!!!!!!!!!!!!!!!!!!!!!!!!!!!!!!!!!!!!!!!!!!!!!!!!!!!!!!!!!!!!!!!!!!!!": 3677,
      "ďĉ!ďĉ!%&'(ďĉďĉďĉćďĉ!ďĉďĉďĉďĉ": 3678,
      "322332232323232222222222222222222222222222222222222222244444444%&5555555522222222222222222222222266666666": 3679,
      "&'(!!!!!!!!!!!!!!!!!!!!!!!!!!!!!!!!!!!!!!!!!!!!!!!!)!)!!!!!!!!ďĉ!ďĉďĉ!!!!!!!!!!!!!!!!!!!!!!!!!!!!!!!!!!!!!!!!!!!!!!!!!!!!!!!!!!!!!!!!!%!&'(!!!!!!!!!!!!!!!)!)!!!!!!!!!!!!!!!!!!!!!!!!!!!!!!)!)!!!!!!!!!!!!!!!!!!!!!!!!!!!!!!!!!!!!!!!!!!!!!!!!!!!!!!!!!!!!!!!!": 3680,
      "%Ē": 3681,
      "ćĉ!": 3682,
      "ďĉ%&'(%&'(%&'(": 3683,
      "ďĉďĉ!!!!!!!!!!!!!!!!!!!!!!!!!!!!!!!!!!!!!!!!!!!!!!!!!!!!!!!!!!!!!!!!!!!!!!!!!!!!!!!!": 3684,
      "ďĉ!ćććĈ!Ĉ!ćĈ!Ĉ!ĈĈ!Ĉ!ĈćĈĈĈĈĈ!Ĉ!Ĉ!Ĉ!Ĉ!Ĉ!ĈĈĈ!Ĉ!ĈĈĈĈ": 3685,
      "Ĉ!Ĉ%Ĉ&'(": 3686,
      "!!!!!!!!!!!!%&'(": 3687,
      "ďĉďĉ!ďĉďĉďĉďĉ": 3688,
      "ďĉ!ďĉććĈ!Ĉ!Ĉ!Ĉ!Ĉ!Ĉ!Ĉ!ĈĈćĈ": 3689,
      "ďĉďĉ!!ďĉďĉ!": 3690,
      "ď%&'(ĉďĉďĉďĉďĉďĉďĉďĉ": 3691,
      "!!!!!!!!!!%!&'(": 3692,
      "%ď&'(ĉďĉďĉďĉďĉ!!": 3693,
      "Ĉ!ĈĈ!ććĈĈ": 3694,
      ")))))": 3695,
      "ďĉďĉďĉ%&'(!": 3696,
      "ďĉďĉďĉďĉďĉ%&'(ďĉ": 3697,
      "ĈĈĈĈĈĈĈĈĈĈĈĈĈĈ!": 3698,
      "01010011": 3699,
      "ďĉďĉďĉďĉďĉďĉďĉ!ďĉ%&'(": 3700,
      ")!)!!ďĉďĉďĉďĉďĉ!!ďĉ!": 3701,
      "%&'ď(ĉďĉ": 3702,
      "ďĉ!!!!ďĉ!!)ďĉďĉ!": 3703,
      "%&'(ďĉďĉďĉďĉďĉ!ďĉďĉďĉ!": 3704,
      "ď!ĉLK": 3705,
      "ćććććććĈ!Ĉ!ććććććĈ!ćĈĈďĉďĉ!!ďĉ": 3706,
      "ďĉďĉďĉďĉććććĈ!ĈĈ!ćĈ!Ĉ": 3707,
      "&'(!!!!!!!!!!!!!!!!!!!!!!!!!!!!!!!!!!!!!!!!!!!!!!!!!!!!!!!!!!!!!!!!!!!!!!!!!!!!!!!!!!!!!!!!!!!!!!!!!!!!!!!!!!!!!!!!!!!!!!!!!!!!!!!!!!!!%!!!!!!!!!!!!!!!!!!!!!!!": 3708,
      "&'(!!!!!!!!!!!!!!!!!!!!!!!!!!!!!!!!!!!!!!!!!!!!!!!!!!!!!!!!!!!!!!!!!!!!!!!!!!!!!!!!!!!!!!!!!!!!!!!!!!!!!!!!!!!!!!!!!!!!!!!!!!!!!!!!!!%!!!!!!!!!!!!!!!!": 3709,
      "Ĉ!Ĉ!Ĉ!ćĈ!ćĈďĉďĉďĉďĉ!!!!!!!!!ďĉ!!!!!!!!": 3710,
      "ććĈ!Ĉ!ĈćĈĈĈććĈĈĈććĈ!Ĉ!Ĉ!Ĉ!Ĉ!Ĉ!ćĈĈ!Ĉ!Ĉ!ćĈĈĈććĈĈ!ćććĈ!ććĈ!ćĈ!ĈĈĈćć!!!!ďĉ!!": 3711,
      "Ĉ!Ĉ!ćĈ!ĈĈćĈ!ćĈ!Ĉ!Ĉ!ćĈ!ćĈ!Ĉ!ćĈĈćĈ!Ĉ!ććĈ!ĈĈćĈćĈćĈ!Ĉ!ĈćĈĈďĉďĉ!ďĉďĉĈ!": 3712,
      "Ĉ!Ĉ!ĈćĈĈĈĈĈ!Ĉ!Ĉ!Ĉ!Ĉ!Ĉ!ĈĈĈ!Ĉ!ĈĈĈĈďĉ!!ďĉďĉ!!ďĉ!ďĉ!!": 3713,
      "&'(ćďĉ!ďĉćććĈ!ćĈ!ćĈ!ćĈ!ćĈ!ćĈćĈćĈďĉďĉ!ćććććććĈ!Ĉ!Ĉ!Ĉ!Ĉ!ćĈ!Ĉ!ćĈ!ćĈ!ćĈ!ćĈ!ćĈ!Ĉ!Ĉ!Ĉ!ĈĈ!%&'(ďĉ!!!!!!!!!!!!!!!!!!!!!ďĉďĉďĉďĉĈ!ĈĈĈćĈ!ćĈĈĈďĉďĉďĉďĉďĉďĉďĉ%&'(ďĉ": 3714,
      "ćĈ!ćĈ!Ĉ!ććĈ!ĈććĈ!Ĉ!ćĈ!ćĈ!Ĉ!Ĉ!ćĈĈ!ďĉďĉďĉďĉććĈ!Ĉ!ĈĈĈ!!ćĈ!Ĉ!Ĉ!Ĉ!ćďĉďĉ!!": 3715,
      "ćĈ!ćĈ!Ĉ!Ĉ!ćĈ!Ĉ!ćĈ!Ĉ!Ĉ!Ĉ!ćĈ!Ĉ!ćĈ!ćĈ!ćĈ!ćĈ!Ĉ!Ĉ!Ĉ!Ĉ!Ĉ!Ĉ!Ĉ!Ĉ!ĈĈ!ďĉ!!!!!!!!!!!!!!!!!!!!!!!!!!!!!!!!!!!!!!!!!!!!!": 3716,
      "R%&'(TVa!!!SĂĄĆ!!!!R!!!S": 3717,
      "ćďĉ!ďĉďĉďĉďĉďĉďĉďĉďĉ)ďĉďĉďĉďĉďĉďĉďĉ!": 3718,
      "ćććďĉććććććĈ!ććČďĉďĉďĉďĉďĉďĉďĉďĉ!!!ďĉďĉďĉďĉ": 3719,
      "ďĉ!!!!ďĉďĉďĉďĉďĉďĉďĉďĉďĉďĉćććĈ!Ĉ!Ĉ!ćĈ!Ĉ!Ĉ!Ĉ!Ĉ!!%&'(ďĉďĉ!ďĉ!!!!!!!!ďĉďĉďĉďĉďĉććććĈ!ćĈ!ĈćĈĈ!Ĉ!Ĉ!Ĉ!ĈćĈĈćĈĈĈĈĈĈ!%&'(ďĉďĉďĉ!))ďĉ!ďĉďĉďĉďĉ": 3720,
      "ďĉďĉďĉ%ď&'(ĉďĉďĉďĉďĉ": 3721,
      "ďĉďĉďĉ!ďĉďĉ!!ďĉďĉďĉ!ďĉďĉďĉďĉďĉďĉďĉďĉ": 3722,
      "ććććĈćĈććĈ!ćĈ!Ĉ!Ĉ!Ĉ!ćĈ!Ĉ!ćĈ!ćĈ!Ĉ!ćĈ!ĈćĈ!ĈĈ!ĈćĈćĈćĈćććĈćĈćććĈćĈćĈ!ĈćĈćĈćĈćććĈĈĈĈĈććĈĈććĈćććĈćĈćĈćĈćĈĈćĈĈćĈćĈćĈććĈĈćĈĈĈććĈĈććĈćććĈĈĈĈĈćĈĈćĈćĈĈćĈĈćĈĈĈĈĈćĈćĈĈćĈĈćĈćĈćĈććĈćĈćĈćĈćĈ!ćĈćĈćĈćĈćĈćĈćĈćĈćĈćĈćĈćĈćć": 3723,
      "ďĉćććććĈ!Ĉ!Ĉ!ćĈĈćĈďĉďĉććĈ!Ĉ!Ĉ!ćĈ!": 3724,
      "ďĉ!ďĉďĉ!Ĉ!Ĉ!ĈĈ!Ĉ!Ĉ!Ĉ!%&'(ďĉďĉďĉďĉďĉ!ďĉďĉďĉ!": 3725,
      "ćďĉ#$ćĈ!ćć%&'(ďĉďĉ!!!!ďĉ!!)ďĉďĉ!ďĉďĉ%&'(!ďĉďĉďĉ!!ďĉďĉćĈ!Čďĉďĉďĉ!ďĉďĉ!ďĉďĉďĉ!ďĉďĉ!ďĉďĉďĉĈ!Ĉ!Ĉ!Ĉ!!Ĉ!Ĉ!Ĉ!Ĉ!!Ĉ!Ĉ!Ĉ%&'(ďĉďĉďĉ%&'(Ĉ!Ĉ!ĈĈ!Ĉ!ĈĈĈĈ!Ĉ!ĈĈ!Ĉ!Ĉ!!Ĉ!": 3726,
      "ďĉďĉďĉ%&'(ďĉďĉďĉďĉďĉďĉďĉďĉďĉďĉďĉ!ććĈ!ćććĈ!ćććĈ!ćććĈ!Ĉ!Ĉ!ďĉćććĈ!ć%&'(": 3727,
      "&'(!!!!!!!!!!!!!!!!!!!!!!!!!!!!!!!!!!!!!!!!!!!!!!!!!!!!!!)!!!!!!!!!!!!!!!!!!!!!!!!!!!!!!!!%&'(ďĉďĉďĉ!ďĉ!!ďĉďĉďĉďĉďĉďĉ!ďĉďĉ!!ďĉ!!ďĉ!ććĈ!": 3728,
      "ďĉďĉ!ď%&'(ĉ!ďĉ!!!ďĉ!!!ćććĈćĈ!ćĈ!ĈĈ!Ĉ!ćĈĈĈĈĈĈĈĈĈĈĈĈĈ!ćĈ!ćĈĈĈĈ!Ĉ%&'(ďĉććďĉďĉ!!ďĉććĈ!ĈĈĈĈĈ!ćďĉďĉ": 3729,
      "ďĉďĉ!ďĉ!!ďĉććććććĈ!ććĈ!ććĈ!Ĉ!Ĉ!Ĉ!ćććĈ!Ĉ!Ĉ!ććĈćĈ!Ĉ!ĈćĈ!Ĉ!ćĈ!ććĈĈĈĈĈćĈćĈ%&'(ďĉćććććĈ!ĈĈćĈĈćĈďĉććććććććĈ!Ĉ!Ĉ!ĈćĈĈ!Ĉ!ĈćĈĈ!ćĈ!Ĉ!ĈĈĈĈćĈĈĈĈćĈĈćĈĈĈĈĈĈćĈĈĈĈćĈĈćĈĈćĈ!ćććĈ!ćć%&'(ďĉďĉ!!!!ďĉďĉ!!!!!!!!!!!!!!!!!!!!!": 3730,
      ")!)!!!!!!!!!!!!!!!!!!!!!!!!!!!!!!!!!!!!!!!!!!!!!!!!!!!!!!!!!!!!!!!!!!!!!!!!!!!!!!!!!!%&'(!!!!!!!!!!!!!!!!!!!!!!)!!!!!!!!!!!!!!!!!!!!!!!!!!!!!!!!ďĉďĉďĉ!ďĉ!!ďĉďĉďĉďĉ%&'(ďĉďĉ!ďĉďĉ!!ďĉ!!ďĉ!ććĈ!ďĉ!ďĉďĉ!!ďĉďĉ)ďĉďĉ!ďĉďĉ!!ďĉ!!!!ďĉďĉďĉďĉ": 3731,
      "!!!!!!!!!!!%!!!!!!!!!!!!!!!!!!!!!!!!!!!!!!!!!!!!!!!!!!!!!!!!!": 3732,
      "Ĉ!ďĉďĉ!ďĉ%&'(ćććććććććććććććć": 3733,
      "ć%ď&'(ĉ!": 3734,
      "ć%ć&'ć(": 3735,
      "Ĉ)!": 3736,
      "Ĉ)!)": 3737,
      "ďĉ!!!!!!!!!ćććĈ!Ĉ!Ĉ!Ĉ!Ĉ!Ĉ!ĈĈĈĈĈĈĈĈĈĈĈĈďĉ!!!!!!!!!!!!!!!!!!!!!!!!!!!!!!!!!!!!!!!!!!!!!!!!!!!!!!!!!!!!!!)!)!!!!!!!!!ććććĈ!ĈĈ%&'(ďĉ!!!!!!!!!!!!!!!!!!!!!!!!!!!!)!)!!!!!!!!!!!!!!!!!!!!!!!!!!!!!!!!)!)!!": 3738,
      "ćĈĉ!": 3739,
      "!!!!!!!!!!!!!!!!!!!!!!!!!!!!!!!!!!!!!!!!!!!!!!!!!!!!!!!!!!!!!!!!!!!!!!!!!!!!!!!!!!!!!!!!!!!!!!!!!!!!!!!!!!!!!!!!": 3740,
      "ćĈ!ćĈ!ďĉďĉďĉďĉďĉďĉ": 3741,
      "ďĉ!ďĉ!!!!!!!!!!!!!!": 3742,
      "!!!!!!!!!!!ďĉ!!!!!!!!!!!!!!!!!!!!!!!!!!!!!!!!!!!!!!!!!!!!!!!!!!!!!!!!!!!!!!!": 3743,
      "%!&'(!!!!!!!!!!!!!!!!!!!!!!!!!!!!!!!!!!!!!!!!!!!!!!!!!!!!!!!!!!!!!!!!!!!!!!!!!!!!!!!!!!!!!!!!!!!!!!!!!!!!!!!!!!!!!!!!!!!!!!!!!!!!": 3744,
      "ďĉ%&'(ďĉďĉďĉ!": 3745,
      "ď%&'(ĉďĉďĉďĉďĉďĉďĉďĉďĉ": 3746,
      "%Ĉ&'(ĈĈĈĈĈĈĈĈ": 3747,
      "ďĉďĉ%&'(ććĈ!Ĉ!Ĉ!ćĈ!ďĉďĉďĉďĉďĉďĉćććććććĈ!Ĉ!ććććććĈ!ćĈĈ%&'(ďĉďĉ!!ďĉćććĈ!Ĉ!Ĉ!ćĈ!Ĉ!Ĉ": 3748,
      "%!&'(!!!!!!!!!!!!!!": 3749,
      "ćĈ!Ĉ!Ĉ!Ĉ!Ĉ!Ĉ!ĈĈĈ!ĈĈĈĈ!ĈĈ!Ĉ!Ĉ!Ĉ!ĈĈ": 3750,
      "%Ĉ&'(!Ĉ!Ĉ!Ĉ!": 3751,
      "ďĉ!!!!!!!!!!!!!!!!!!!!!!!!!!!!!!!!!!!!!!!!!!!!!!!!!!!!!!": 3752,
      "ďĉ!!!!!!!!!!!!!!!!!!!!!!!!!!!!!!!!!!!!!!!!!!!!!!!!!!!!!!!%!&'(": 3753,
      "ďĉďĉćććććĈ!Ĉ!ćĈĈćďĉćĈ!ććĈ!ćĈ!Ĉ": 3754,
      "ćĈĈĈćĈĈďĉ": 3755,
      "ďĉ!ďĉďĉďĉĥ": 3756,
      "%!!!!!!!!!!!!!&'(!!!!!!!!!!!!!!!!!!!!!!!!!!!!!!!!!!!!!!!!!!!!!!!!!!!!!!!!!!!!!!!!!!!!!!!!!!!!!!!!!!!!!!!!!!!!!!!!!!!!!!!!!!!!!!!!!!!!!!!!!!!!!!!!": 3757,
      "ďĉ!!!!!!!!!!!%!&'(!!!!!!!!!!!!!!!!!!!!!!!!!!!!!!!!!!!!!!!!!!!": 3758,
      "ćććĈćĈćĈ!ĈćĈćĈćĈćććĈĈĈĈĈććĈĈććĈćććĈćĈćĈćĈćĈĈćĈĈćĈćĈćĈ": 3759,
      "ďĉ!ďĉďĉďĉďĉ!!ďĉďĉďĉ!": 3760,
      "ďĉďĉďĉďĉďĉ%&'(ďĉďĉ": 3761,
      "ďĉďďĉĉďďĉĉ": 3762,
      "ďĉďĉďĉďĉďĉďĉďĉďĉďĉďĉćććĈ!Ĉ!Ĉ!ćĈ!Ĉ!Ĉ!Ĉ!Ĉ!!%&'(ďĉďĉ!ďĉ!!!!!!!!ďĉďĉďĉďĉďĉććććĈ!ćĈ!ĈćĈĈ!Ĉ!Ĉ!Ĉ!ĈćĈĈćĈĈĈĈĈĈ!%&'(ďĉďĉďĉ!))ďĉ!ďĉďĉďĉďĉćďĉ!ďĉďĉďĉ": 3763,
      "00011101000111": 3764,
      "Ĉ!ćĈ!Ĉ!Ĉ!ćĈ!Ĉ!Ĉ!ĈĈ!ćĈ!ďĉ!": 3765,
      "ćĈ!Ĉ!ććĈćĈ!ĈĈĈĈĈĈćĈ!ććĈććĈ!ćĈ!ĈććĈĈ!Ĉ!ĈĈĈ!ććĈ!Ĉ!ĈćĈ!ććĈ!Ĉ!ĈćĈ!ĈććĈĈĈćĈĈĈćĈ!ĈććĈĈĈćĈĈććĈĈĈćĈ!ĈćĈ!ććĈĈ!Ĉ!ĈĈćĈ!Ĉ!ćććĈ!Ĉ!ćććĈĈćĈ!ĈĈĈ!!ćććć!!!!!!!!!!!!!!!!!!!!%&'(%&'(ďĉďĉďĉ%&'(ćććĈ!Ĉ!Ĉ!Ĉ!Ĉ!Ĉ!Ĉ!Ĉ!Ĉ!Ĉ!ćĈ!ćĈ!Ĉ!ćĈ!Ĉ!Ĉ!ćĈ!Ĉ!": 3766,
      "ćććććććććććĈ!ĈćĈ!Ĉ!ĈćĈ!ćďĉďĉ!!ćććĈ!Ĉ!ćĈ!Ĉ!ĈĈĈĈ!ććĈďĉďĉćććć": 3767,
      "ďĉďĉ%&'(!ďĉďĉďĉ!!ďĉďĉćĈ!Čďĉďĉďĉ!ďĉďĉ!ďĉďĉďĉ!ďĉďĉ!ďĉďĉďĉĈ!Ĉ!Ĉ!Ĉ!!Ĉ!Ĉ!Ĉ!Ĉ!!Ĉ!Ĉ!Ĉ": 3768,
      "!!!!!!!!!!!!ďĉ!!ďĉ!!!!": 3769,
      "Ē!!!ė": 3770,
      "ććĈ!ćďĉďĉďĉďĉďĉďĉďĉ!!ďĉ%&'(ďĉďĉ": 3771,
      "!!!!!!!!!ďĉ!!!!!!!!ďĉďĉďĉ!ďĉ!%&'(!!!!!!!!!!!!ďĉ!ďĉ!!!!!!ďĉďĉ!!ďĉ!ďĉďĉ!!ďĉďĉďĉďĉďĉďĉďĉ%&'(": 3772,
      "ďĉ!ďĉďĉďĉďĉďĉďĉďĉćďĉ!ďĉďĉďĉďĉ!!%&'(ďĉďĉďĉďĉďĉďĉďĉ!": 3773,
      "ććĈ!ć%&'(ďĉďĉďĉďĉďĉďĉďĉďĉďĉ!!!ďĉ%&'(ďĉďĉ!!ďĉ": 3774,
      "ďĉďĉďĉďĉďĉďĉďĉ!ďĉ!ďĉćććććććĈ!ćČČ%&'(ďĉďĉďĉ!!!!!ďĉďĉďĉ!ďĉďĉćććććĈ!Ĉ!ćĈĈćďĉćĈ!ććĈ!ćĈ!Ĉ": 3775,
      "ćĈ!Ĉ!Ĉ!Ĉ!Ĉ!Ĉ!ĈĈďĉ!!!ďĉ!ďĉďĉ!": 3776,
      "ďĉďĉćććĈ!Ĉ!Ĉ!Ĉ!Ĉ!Ĉ!ćććććĈ!ćĈĈ%&'(ďĉďĉ!!ďĉ!!!!!!!!!ďĉ!!!!!!!!!!!)!!!!!!!!!!!!!!!ďĉďĉ%&'(ďĉ)!)ďĉďĉďĉďĉďĉďĉ!!!ďĉ!!ďĉ!ďĉ!ććĈ!Ĉ!Ĉ!ććĈ!Ĉ!": 3777,
      "ďĉćĈ!ćĈ!Ĉ!ććĈ!Ĉ!Ĉ!Ĉ!ćĈĈĈ!Ĉ!ćĈ!Ĉ!ĈĈĈ!ĈĈĈććĈ!ćĈćĈĈĈ!ĈćĈĈĈĈĈĈĈĈććĈćĈĈ!ććĈĈĈĈćĈĈĈĈćĈĈĈĈĈĈĈĈććĈć%&'(ďĉ!ććĈ!ćĈ!Ĉ!ĈĈĈ!ĈĈĈććĈ!ĈĈ!ĈĈĈĈ!ĈĈ!ĈĈĈĈďĉďĉďĉ!!!!!!!!!!ďĉďĉďĉ%&'(ďĉďĉďĉĈ!Ĉ!Ĉ!Ĉ!Ĉ!Ĉ!": 3778,
      "00110101001101'(3": 3779,
      "Ĉ!Ĉ!Ĉ!!ĈĈ!ĈććĈ!Ĉ!ĈĈ!ĈĈ!Ĉ!ćĈ!ďĉ": 3780,
      "ďĉ!ďĉ!ďĉ%&'(ďĉďĉćďĉ!ďĉďĉďĉďĉďĉďĉďĉ%&'(ďĉĈ!ĈććĈĈ!Ĉ!ććĈ!Ĉ!ĈĈ!ĈĈĈďĉďĉďĉďĉďĉďĉďĉ": 3781,
      "!!!!!!%!!!!!!!!!!&'(!!!!!!!!!!!!!!!!!!!!!!!!!!!!!!!ććććĈ!ĈĈďĉ!!!!!!!!!!!": 3782,
      "ććĈĈćĈĈĈććĈĈććĈćććĈĈĈĈĈćĈĈćĈćĈĈćĈĈćĈĈĈĈĈćĈćĈĈćĈĈćĈćĈćĈććĈćĈćĈćĈćĈ!ćĈćĈćĈćĈćĈćĈćĈćĈćĈćĈćĈćĈććĈ!Ĉ!ććĈ!ććććĈćĈćĈćĈććććĈ!Ĉ!ććĈ!ĈććććĈćĈćĈćĈćĈćĈćĈćĈćĈćĈć%&'(!!!!!!!!!!!!!!!!!!!!!!!!!!!!!!!!!!!!!!!!!!!!!!!!!!!!!!!%&'(%&'(ďĉ!!ććććććĈććĈ!ďĉćĈ!Ĉ!Č%&'(ďĉďĉďĉ!ććĈ!ćďĉďĉďĉďĉďĉďĉďĉďĉ": 3783,
      "&'(!!!!!!!!!!!!!!!!!!!!!!!!!!!!!!!!!!!!!!!!!!!!!!!!!!!!!!!!!!!!ďĉďĉććććććĈ!ćććĈ!ćććĈ!ćĈ!": 3784,
      "ććććććĈććĈ!ďĉćĈ!Ĉ!Čďĉďĉďĉ!ććĈ!ć": 3785,
      "ďĉ!!!!!!!!!!!!!!!!!!!!!!!!!!!!!!!!!!!!!!!!!!!!!!!!!!!!ďĉ!!!!!!!!!!!!ďĉďĉ%&'(ďĉďĉďĉ!!ďĉ!!!!!!!ďĉ!!ďĉďĉ!!!ďĉďĉďĉďĉďĉ!ďĉććĈ!Ĉ!Ĉ!Ĉ!Ĉ!Ĉ!Ĉ!ĈĈćĈ%&'(ďĉďĉćććĈ!Ĉ!Ĉ!Ĉ!Ĉ!Ĉ!ćććććĈ!ćĈĈ": 3786,
      "!!!ďĉďĉďĉďĉććĈ!Ĉ!Ĉ!Ĉ!Ĉ!Ĉ!ććĈ!ćďĉ!ďĉććććĈ!ćĈ!ĈĈ!ććĈ!ćĈ!ĈĈ!ćĈ!Ĉ!ćĈ!%&'(ďĉ!)ććććććććććććĈ!ććĈ!ćĈ!ćĈ!Ĉ!Ĉ!ćĈ!Ĉ!": 3787,
      "ćďĉ!ććććĈ!ćĈ!Ĉ!Ĉ!ćĈ!Ĉ!Ĉ!Ĉ!ćĈ!Ĉ!Ĉ!Ĉ!ćĈ!Ĉ!ćĈ!ĈćĈ!Ĉ!ćĈ!ćĈ!ćĈ!ćĈ!ćĈ!Ĉ!ćĈ!ćĈ!Ĉ!Ĉ!ćĈ!Ĉ!Ĉ!ććĈ!Ĉ!Ĉ!ĈćĈ!Ĉ!ććĈ!ććĈ!ćĈ!Ĉ!ćĈććĈ!Ĉ!%&'(ďĉĈ!Ĉ!Ĉ!Ĉ!Ĉ!Ĉ!": 3788,
      "%K&'(": 3789,
      "ććĈ!ćććĈ!ćććĈ!ćććĈ!Ĉ!Ĉ!%&'(ďĉćććĈ!ćďĉďĉďĉďĉďĉ!!ďĉ!!!!ďĉďĉďĉ!ďĉďĉ!": 3790,
      "ććĈ!Ĉ!Ĉ!ĈćĈ!%&'(Ĉ!Ĉ!Ĉ!Ĉ!Ĉ!Ĉ!Ĉ!Ĉ!": 3791,
      "ďĉćććććććĈĈććććććĈ!ćĈĈďĉďĉ!!ďĉ": 3792,
      "Ĉ!ćĈ!Ĉ!Ĉ!Ĉ!Ĉ!ćĈ!Ĉ!ćĈ!ćĈ!ćĈ!ćĈ!ĈĈĈ!Ĉ!Ĉ!Ĉ!ĈĈ!ćĈ!Ĉ": 3793,
      "M!!!!!!!!!!!!!!!!!!": 3794,
      "ďćĈ!Ĉ": 3795,
      "!!ććĈ!Ĉ!ĈćĈĈĈććĈĈĈććĈ!Ĉ!Ĉ!Ĉ!Ĉ!Ĉ!ćĈĈ!Ĉ!Ĉ!ćĈĈĈććĈĈ!ćććĈ!ććĈ!ćĈ!ĈĈĈćć!!!!ďĉ!!": 3796,
      "ďĉ%!!&'(": 3797,
      "ďĉďĉ!!!!!!!!!!!!!!!!!!!!!!!!!!!!!!!!": 3798,
      "%&'(Ĉ": 3799,
      "ćĈ%!Ĉ&'(!": 3800,
      "ćĈ'(!": 3801,
      "!!!ďĉ!!!ćććĈćĈ!ćĈ!ĈĈ!Ĉ!ćĈĈĈĈĈĈĈĈĈĈĈĈĈ!ćĈ!ćĈĈĈĈ!Ĉ%&'(ďĉććďĉďĉ!!ďĉććĈ!ĈĈĈĈĈ!ćďĉďĉ": 3802,
      "Ĉ!Ĉ!Ĉ!Ĉ!Ĉ!ĈĈĈ!ĈĈ": 3803,
      "Ĉ!ĈĈĈ!Ĉ!": 3804,
      "%!&'(!!!!!!!!!!!!!!!!!!!!!!!!!!!!!!!!!!!!!!!!!!!!!!!!!!!!!!!!!!!!!!!!!!!!!!!!!!!!!!!!!!!!!!!!!!!!!!!!!!!!!!!!!!!!!!!!!!!!!!!!!!!": 3805,
      "ďĉ%&'(ďĉďĉďĉďĉďĉďĉďĉďĉ": 3806,
      "ďĉ%&'(ćććććĈ!ĈĈćĈĈćĈďĉććććććććĈ!Ĉ!Ĉ!ĈćĈĈ!Ĉ!ĈćĈĈ!ćĈ!Ĉ!ĈĈĈĈćĈĈĈĈćĈĈćĈĈĈĈĈĈćĈĈĈĈćĈĈćĈĈćĈ!ćććĈ!ćć%&'(ďĉďĉ!!!!ďĉďĉ!!!!!!!!!!!!!!!!!!!!!": 3807,
      "ď%&'(ĉďĉďĉďĉďĉďĉďĉ!": 3808,
      "%ďď&'(ĉ": 3809,
      "ćďĉ!ćććććďĉ!ććććĈćććĈ!Ĉ!ĈćĈ!ć": 3810,
      "ćĈ!Ĉ!Ĉ!Ĉ!Ĉ!Ĉ!ĈĈĈ!ĈĈĈĈ!ĈĈ!Ĉ!Ĉ!Ĉ!ĈĈĈ!Ĉ!ĈĈ!Ĉ": 3811,
      "Ĉ!Ĉ!ĈĈĈ!ĈĈ": 3812,
      "ď!ďĉĉ": 3813,
      "ďĉ!!!!!!!!!!!!!!!!!!!!!!!!!!!!!!!!!!!!!!!!!!!!!!!!!!!!!": 3814,
      "ďĉ!ďĉďĉ!ďĉďĉ!!!ďĉćĈ!Ĉ!ććĈ!ććĈ!ĈĈ!ććĈ!Ĉ!Ĉ": 3815,
      "ććĈććďĉďĉďĉ!!ďĉ!!ďĉ!!!!!!!!)!!!!!!!!)!)!)!!!!!!!!!!!!!!!!!!!!!!!!!!!!!!!!!!!!!!!!!!!!!!!!!!!!!!!!!!!!!!!!!!!!!!!!!!!!!!!!!!!!!!!!!!!!!!!!": 3816,
      "%&'(!ĥĤ": 3817,
      "ďĉĈ!Ĉ!Ĉ!Ĉ!Ĉ!ćĈĈĈ!ĈĈĈ": 3818,
      "ďĉďĉďĉďĉďĉ%&'(ćććć": 3819,
      "&'(!!!!!!!!!!!!!!!!!!!!!!!!!!!!!!!!!!!!!!!!!!!!!!!!!!!!!!!!!!!!!!!!!!!!!!!!!!!!!!!!!!!!!!!!!!!!!!!!!!!!!!!!!!!!!!!!!!!!!!!!!!!!!!!!!!!!!%!!!!!!!!!!!!!!!": 3820,
      "&'(!!!!!!!!!!!!!!!!!!!!!!!!!!!!!!!!!!!!!!!!!!!!!!!!!!!!!!!!!!!!!!!!!!!!!!!!!!!!!!!!!!": 3821,
      "ćĈĈćĈĈćĈ!ćććĈ!ććďĉďĉ!!!!ďĉďĉ": 3822,
      "&'(!!!!!!!!!!!!!!!!!!!!!!!!!!!!!!!!!!!!!!!!!!!!!!!!!!!!!!!!!!!!!!!!!!!!!!!!!!!!!!!!!!!!!!!!!!!!!!!!!!!!!!!!!!!!!!!!!!!!!!!!!!!!!!!!!!!!!!!!%!!!!!!!!!!!!!!!!!!!!!!!!!!!!!!!!!!!!!!": 3823,
      "ćććĈ!Ĉ!Ĉ!Ĉ!ĈĈĈĈĈĈĈĈĈĈ!ćĈ!Ĉ!ĈćĈĈćĈćĈĈĈćĈĈďĉĈ!Ĉ!ĈĈĈ": 3824,
      "ćĈĈĈĈ!ĈććĈ!ććććĈć!!ďĉ!ďĉďĉďĉďĉďĉďĉ!!": 3825,
      "ĈĈĈĈĈĈĈĈĈĈĈĈĈĈ!Ĉ!Ĉ!Ĉ!Ĉ!ĈĈĈ!ĈĈďĉ!ďĉďĉďĉćĈ!Ĉ!Ĉ!Ĉ!ĈĈ!Ĉ!Ĉ!Ĉ!ĈĈĈĈĈĈĈĈĈĈĈĈĈĈ!Ĉ!Ĉ!Ĉ!ĈĈĈĈ": 3826,
      "%&'(Ĉ!Ĉ!ććĈ!ććććĈćĈćĈćĈććććĈ!Ĉ!ććĈ!ĈććććĈćĈćĈćĈćĈćĈćĈćĈćĈćĈ": 3827,
      "ďĉďĉ!!ďĉ!!ďĉďĉćććĈ!Ĉ!Ĉ!Ĉ!Ĉ!ĈćĈĈ!Ĉ!ĈĈĈćĈćĈ!ććĈ!!": 3828,
      "ćććĈ!Ĉ!ććĈ!ćĈ!ćČďĉ!!!ďĉĈ!Ĉ!Ĉ!Ĉ!ĈćĈĈĈ!ĈĈĈ": 3829,
      "ďĉ!!!!!!!!!!!!!!!!!!!!!!!!ďĉ!!ďĉďĉďĉďĉďĉ!!ďĉ!ďĉ!ďĉďĉďĉ!": 3830,
      "ďĉ!ďĉ!ďĉ!ďĉ!ďĉ!ďĉćććĈ!Ĉ!Ĉ!Ĉ!Ĉ!Ĉ!ćĈ!Ĉ!Ĉ!Ĉ!ćĈ!Ĉ!Ĉ!Ĉććďĉ!ćĈ!ćĈ": 3831,
      "ććĈĈćĈĈĈććĈĈććĈćććĈĈĈĈĈćĈĈćĈćĈĈćĈĈćĈĈĈĈĈćĈćĈĈćĈĈćĈćĈćĈććĈćĈćĈćĈćĈ!ćĈćĈćĈćĈćĈćĈćĈćĈćĈćĈćĈćĈććĈ!Ĉ!ććĈ!ććććĈćĈćĈćĈććććĈ!Ĉ!ććĈ!ĈććććĈćĈćĈćĈćĈćĈćĈćĈćĈćĈć!": 3832,
      "ďĉďĉ!%&'(ďĉ!ďĉ!!Ĉ": 3833,
      "ďĉ!ďĉďĉ%&'(ďĉ!ďĉ!": 3834,
      "ďĉďĉďĉ%&'(ďĉďĉďĉďĉďĉďĉďĉďĉďĉďĉďĉ!ććĈ!ćććĈ!ćććĈ!ćććĈ!Ĉ!Ĉ!ďĉćććĈ!ć": 3835,
      "ďĉďĉďĉďĉďĉďĉďĉ!!ćććďĉććććććĈ!ććČ": 3836,
      ")ďĉćďĉďĉ!": 3837,
      "ćĈ!ćĈ!Ĉ!ĈćĈ!Ĉ!ććĈ!Ĉ!Ĉ!Ĉ!Ĉ!ĈĈ!ćĈ!ćĈ!ćĈćĈ!ćĈ!ćĈćĈ!ćĈćĈ!ććĈćĈ!ćĈćĈ!Ĉ!ććĈćĈ!ĈĈĈĈĈĈćĈ!ććĈććĈ!ćĈ!ĈććĈĈ!Ĉ!ĈĈĈ!ććĈ!Ĉ!ĈćĈ!ććĈ!Ĉ!ĈćĈ!ĈććĈĈĈćĈĈĈćĈ!ĈććĈĈĈćĈĈććĈĈĈćĈ!ĈćĈ!ććĈĈ!Ĉ!ĈĈćĈ!Ĉ!": 3838,
      "ďĉ%&'(Ĉ!Ĉ!Ĉ!Ĉ!Ĉ!ĈĈĈ!ĈĈĈćďĉďĉ!ďĉďĉć%&'(Ĉ!Ĉ!Ĉ!Ĉ!Ĉ!Ĉ!ĈĈĈ!ĈĈĈĈ!ĈĈ!Ĉ!Ĉ!Ĉ!ĈĈĈ!Ĉ!ĈĈ!ĈĈ!Ĉ!Ĉ!Ĉ!Ĉ!Ĉ!ĈĈĈĈ!ĈĈĈĈĈĈĈ!Ĉ!Ĉ!ĈĈ!Ĉ%&'(ďĉĈ!Ĉ!Ĉ!Ĉ!ĈĈĈ!Ĉ!Ĉ!ĈĈĈĈ!Ĉ!ĈĈ!Ĉ!Ĉ!ĈĈĈĈ": 3839,
      "Ĉ!ĈĈĈ!ĈĈĈćďĉďĉ!ďĉďĉć%&'(Ĉ!Ĉ!Ĉ!Ĉ!Ĉ!Ĉ!ĈĈĈ!ĈĈĈĈ!ĈĈ!Ĉ!Ĉ!Ĉ!ĈĈĈ!Ĉ!ĈĈ!ĈĈ!Ĉ!Ĉ!Ĉ!Ĉ!Ĉ!ĈĈĈĈ!ĈĈĈĈĈĈĈ!Ĉ!Ĉ!ĈĈ!Ĉ%&'(ďĉĈ!Ĉ!Ĉ!Ĉ!ĈĈĈ!Ĉ!Ĉ!ĈĈĈĈ!Ĉ!ĈĈ!Ĉ!Ĉ!ĈĈĈĈćďĉďĉ": 3840,
      "ĈĈĈĈĈĈĈĈĈĈĈĈĈĈ!Ĉ!Ĉ!Ĉ!ĈĈĈĈĈ!Ĉ!Ĉ!Ĉ!Ĉ!Ĉ!ĈĈ!ĈĈ!ĈĈ!ĈĈĈ!ĈĈĈĈĈ!ĈĈĈĈĈĈ!Ĉ!ĈĈ!ĈĈĈĈ!ĈĈĈĈĈĈĈĈ%&'(ďĉćĈ!Ĉ!Ĉ!Ĉ!Ĉ!Ĉ!ĈĈďĉ%&'(!!!ďĉ!ďĉďĉ!ďĉćććĈ!Ĉ!Ĉ!Ĉ!Ĉ!Ĉ!ćććććĈ!ćĈĈ%&'(ďĉďĉ!!!!!!!!!!!ďĉćććĈ!Ĉ!Ĉ!Ĉ": 3841,
      "ďĉďĉďĉ!!ďĉďĉ!ďĉ!!ďĉććććććĈ!ććĈ!ććĈ!Ĉ!Ĉ!Ĉ!ćććĈ!Ĉ!Ĉ!ććĈćĈ!Ĉ!ĈćĈ!Ĉ!ćĈ!ććĈĈĈĈĈćĈćĈ%&'(ďĉćććććĈ!ĈĈćĈĈćĈďĉććććććććĈ!Ĉ!Ĉ!Ĉ": 3842,
      "ďĉ%&'(ďĉ!ďĉďĉďĉďĉďĉďĉďĉďĉ!ďĉďĉďĉďĉďĉćććććĈ!Ĉ!ćĈ!Ĉ!ćĈ!Ĉ!Ĉ!Ĉ!Ĉ!ćĈ!ćĈ!ćĈ!ćĈ!ćĈ!Ĉ!ćĈ!ćĈ!Ĉ!ćĈĈćĈ!ĈććĈ!ĈćĈćĈćĈ!ĈćĈĈ%&'(ďĉďĉďĉ%&'(Ĉ!Ĉ!Ĉ!Ĉ!ćććĈ!ďĉ!!ďĉ!!!!!!!!!!!ďĉ!!ćććććććĈ!Ĉ!Ĉ!ććĈĈććĈ!ćĈĈ%&'(ďĉďĉ!!!ćććććĈ!ćĈ!ććććĈ!ććĈ!ćććĈ!ćććĈ": 3843,
      "ďĉ!ďĉďĉďĉďĉďĉďĉďĉďĉććććĈ!ćĈ!Ĉ!Ĉ!ĈĈ!Ĉ!Ĉ!ĈććĈ!ć%&'(ďĉććććććććĈ!Ĉ!Ĉ!Ĉ!ćĈĈĈĈ!Ĉ!ćĈ!ďĉďĉćďĉ": 3844,
      "&'(!!!!!!!!!!!!!!!!!!!!!!!!!!!!!!!!!!!!!!!!!!!!!!!!!!!!!!!!!!!!!!!!!!!!!)!)!!!!!!!!!!!!!!!!!!!!!!!!!!!!!!!!!!!!!!!!!!!!!!!!!!!!!!!!!!!!!!!!": 3845,
      "&'(!!!!!!!!!!!!!!!!!!!!!!!!!!!!!!!!!!!!!!!!!!!!!!!!!!!!!!!!!!!!!!!!!!!!!!!!!!!!!!!!!!!!!!!!!!!!!!!!!!!!!!!!!!!!!!!!!!!!!!!!!!!!!!!!!!!!!!!%!!!!!!!!!!!&'(!!!!!!!!!!!!!!!!!!!!!!!!!!!!!!!!!!!!!!!!!!!!!!!!!!!!!!!!!!!!!!)!)!!!!!!!!!!!!!!!!!!!!!!!!!!!!!!!!!!!!!!!!!!!!!!!!!!!!!!!!!!!!!!!!": 3846,
      "ćĈćĈćĈćććĈćĈćććĈćĈćĈ!ĈćĈćĈćĈćććĈĈĈĈĈććĈĈććĈćććĈćĈćĈćĈćĈĈćĈĈćĈćĈćĈććĈĈćĈĈĈććĈĈććĈćććĈĈĈĈĈćĈĈćĈćĈĈćĈĈćĈĈĈĈĈćĈćĈĈćĈĈćĈćĈćĈććĈćĈćĈćĈćĈ!ćĈćĈćĈćĈćĈćĈćĈćĈćĈćĈćĈćĈććĈ!Ĉ!": 3847,
      "ďĉďĉ!ďĉďĉ%&'(ďĉďĉ!ďĉ!!ďĉďĉďĉďĉďĉďĉ!ďĉďĉďĉďĉďĉďĉ!!ććććĈ!Ĉ!Ĉ!Ĉ!Ĉ!ĈĈ!Ĉ!ćďĉ!!%&'(ďĉďĉćĈ!ćďĉďĉ!ďĉďĉćććććĈ!ćČ": 3848,
      "7777'777(788888888,-%&+01": 3849,
[...]
