{
  "version": "1.0",
  "truncation": null,
  "padding": null,
  "added_tokens": [
    {
      "id": 0,
      "content": "[CLS]",
      "single_word": false,
      "lstrip": false,
      "rstrip": false,
      "normalized": false,
      "special": true
    },
    {
      "id": 1,
      "content": "[MASK]",
      "single_word": false,
      "lstrip": false,
      "rstrip": false,
      "normalized": false,
      "special": true
    },
    {
      "id": 2,
      "content": "[SEP]",
      "single_word": false,
      "lstrip": false,
      "rstrip": false,
      "normalized": false,
      "special": true
    },
    {
      "id": 3,
      "content": "[PAD]",
      "single_word": false,
      "lstrip": false,
      "rstrip": false,
      "normalized": false,
      "special": true
    }
  ],
  "normalizer": null,
  "pre_tokenizer": null,
  "post_processor": null,
  "decoder": null,
  "model": {
    "type": "BPE",
    "dropout": null,
    "unk_token": null,
    "continuing_subword_prefix": null,
    "end_of_word_suffix": null,
    "fuse_unk": false,
    "byte_fallback": false,
    "vocab": {
      "[CLS]": 0,
      "[MASK]": 1,
      "[SEP]": 2,
      "[PAD]": 3,
      "!": 4,
      "\"": 5,
      "#": 6,
      "$": 7,
      "%": 8,
      "&": 9,
      "'": 10,
      "(": 11,
      ")": 12,
      "*": 13,
      "+": 14,
      ",": 15,
      "-": 16,
      ".": 17,
      "/": 18,
      "0": 19,
      "1": 20,
      "2": 21,
      "3": 22,
      "4": 23,
      "5": 24,
      "6": 25,
      "7": 26,
      "8": 27,
      "9": 28,
      ":": 29,
      ";": 30,
      "<": 31,
      "=": 32,
      ">": 33,
      "?": 34,
      "@": 35,
      "A": 36,
      "B": 37,
      "C": 38,
      "D": 39,
      "E": 40,
      "F": 41,
      "G": 42,
      "H": 43,
      "I": 44,
      "J": 45,
      "K": 46,
      "L": 47,
      "M": 48,
      "N": 49,
      "O": 50,
      "P": 51,
      "Q": 52,
      "R": 53,
      "S": 54,
      "T": 55,
      "U": 56,
      "V": 57,
      "W": 58,
      "X": 59,
      "Y": 60,
      "Z": 61,
      "[": 62,
      "\\": 63,
      "]": 64,
      "^": 65,
      "_": 66,
      "`": 67,
      "a": 68,
      "b": 69,
      "c": 70,
      "d": 71,
      "e": 72,
      "f": 73,
      "g": 74,
      "h": 75,
      "i": 76,
      "j": 77,
      "k": 78,
      "l": 79,
      "m": 80,
      "n": 81,
      "o": 82,
      "p": 83,
      "q": 84,
      "r": 85,
      "s": 86,
      "t": 87,
      "u": 88,
      "v": 89,
      "w": 90,
      "x": 91,
      "y": 92,
      "z": 93,
      "{": 94,
      "|": 95,
      "}": 96,
      "~": 97,
      "Ā": 98,
      "ā": 99,
      "Ă": 100,
      "ă": 101,
      "Ą": 102,
      "ą": 103,
      "Ć": 104,
      "ć": 105,
      "Ĉ": 106,
      "ĉ": 107,
      "Ċ": 108,
      "ċ": 109,
      "Č": 110,
      "č": 111,
      "Ď": 112,
      "ď": 113,
      "Đ": 114,
      "đ": 115,
      "Ē": 116,
      "ē": 117,
      "Ĕ": 118,
      "ĕ": 119,
      "Ė": 120,
      "ė": 121,
      "Ę": 122,
      "ę": 123,
      "Ě": 124,
      "ě": 125,
      "Ĝ": 126,
      "ĝ": 127,
      "Ğ": 128,
      "ğ": 129,
      "Ġ": 130,
      "ġ": 131,
      "Ģ": 132,
      "ģ": 133,
      "Ĥ": 134,
      "ĥ": 135,
      "Ħ": 136,
      "ħ": 137,
      "Ĩ": 138,
      "ĩ": 139,
      "Ī": 140,
      "ī": 141,
      "Ĭ": 142,
      "ĭ": 143,
      "Į": 144,
      "į": 145,
      "İ": 146,
      "ı": 147,
      "Ĳ": 148,
      "ĳ": 149,
      "Ĵ": 150,
      "ĵ": 151,
      "Ķ": 152,
      "ķ": 153,
      "ĸ": 154,
      "Ĺ": 155,
      "ĺ": 156,
      "Ļ": 157,
      "!!": 158,
      "!!!!": 159,
      "!!!!!!!!": 160,
      "Ĉ!": 161,
      "ďĉ": 162,
      "!!!!!!!!!!!!!!!!": 163,
      "ćć": 164,
      "ďĉďĉ": 165,
      "ĈĈ": 166,
      "Ĉ!Ĉ!": 167,
      "'(": 168,
      "&'(": 169,
      "!!!!!!!!!!!!!!!!!!!!!!!!!!!!!!!!": 170,
      "%&'(": 171,
      "ćĈ!": 172,
      "22": 173,
      "ĈĈĈĈ": 174,
      "ćććć": 175,
      "ćĈ!Ĉ!": 176,
      "ďĉďĉďĉďĉ": 177,
      "ďĉ!": 178,
      "ćĈ": 179,
      "!!!!!!!!!!!!!!!!!!!!!!!!!!!!!!!!!!!!!!!!!!!!!!!!!!!!!!!!!!!!!!!!": 180,
      "2222": 181,
      "%&'(%&'(": 182,
      "!!!": 183,
      "Ĉ!Ĉ!Ĉ!Ĉ!": 184,
      "Ĉ!Ĉ": 185,
      "ćĈĈ": 186,
      "ććĈ!": 187,
      "ďĉ!!": 188,
      "ĈĈĈĈĈĈĈĈ": 189,
      "ćĈćĈ": 190,
      "MM": 191,
      "ĈĈĈ": 192,
      "!!!!!!!!!!!!": 193,
      "ćĈ!ćĈ!": 194,
      "%&": 195,
      "ďĉďĉ!": 196,
      "ćććććććć": 197,
      ")!": 198,
      "%&'(%&'(%&'(%&'(": 199,
      "ďĉďĉďĉ": 200,
      "Ĉ!ćĈ!Ĉ!": 201,
      "22222222": 202,
      "ććĈ": 203,
      "LL": 204,
      ")!)": 205,
      "&'(!!!!!!!!!!!!!!!!!!!!!!!!!!!!!!!!!!!!!!!!!!!!!!!!!!!!!!!!!!!!!!!!": 206,
      "ćĈ!Ĉ": 207,
      "Ĉ!Ĉ!Ĉ": 208,
      "ćććĈ!Ĉ!": 209,
      "ďĉďĉďĉ!": 210,
      "MMMM": 211,
      "!!!!!!!!!!!!!!!!!!!!!!!!!!!!!!!!!!!!!!!!!!!!!!!!": 212,
      "ďĉ!ďĉ": 213,
      "%&'(ďĉ": 214,
      "ćĈ!ćĈ!Ĉ!": 215,
      "ďĉďĉ!!": 216,
      "01": 217,
      "Ĉ!ĈĈĈ": 218,
      "ćĈĈĈ": 219,
      "%&'(%&'(%&'(%&'(%&'(%&'(%&'(%&'(": 220,
      "ďĉďĉďĉďĉďĉďĉďĉďĉ": 221,
      "Ĉ!ĈĈ": 222,
      "!!!!!!": 223,
      "!!!!!": 224,
      "44": 225,
      "55": 226,
      "66": 227,
      "88": 228,
      "ćĈĈĈĈ": 229,
      "ććĈ!Ĉ!": 230,
      "!!!!!!!!!!!": 231,
      "+/": 232,
      "+/,": 233,
      "+/,'(": 234,
      "%&'(ĉ": 235,
      "2222222222222222": 236,
      "!!!!!!!!!": 237,
      "%&-": 238,
      "!L": 239,
      "%!": 240,
      "!LK": 241,
      "ďĉ%&'(": 242,
      "ď%&'(ĉ": 243,
      "!!!!!!!": 244,
      "%!!!!!!!!!!!!!!!!": 245,
      "ďĉ!ďĉďĉďĉďĉ": 246,
      "Ĉ!ĈĈĈĈ": 247,
      "77": 248,
      "LLLL": 249,
      "ĈĈĈĈĈĈĈĈĈĈĈĈĈĈĈĈ": 250,
      "ďĉďĉďĉ!!": 251,
      "ćďĉ": 252,
      "ćĈ!ćć": 253,
      "!!!!!!!!!!!!!!": 254,
      "ćĈćĈćĈ": 255,
      "ďĉ!ďĉ!": 256,
      "Ĉ!Ĉ!Ĉ!Ĉ!Ĉ!Ĉ!": 257,
      "!!!!!!!!!!": 258,
      "!!!!!!!!!!!!!!!": 259,
      "Ĉ!Ĉ!ćĈ!Ĉ!": 260,
      "&'(ĉ": 261,
      "!!!!!!!!!!!!!": 262,
      "%ď": 263,
      "MMMMMMMM": 264,
      "Ĉ&'(": 265,
      "ćĈ!ććĈ": 266,
      "ćĈ!ćĈ": 267,
      "%ď&'(ĉ": 268,
      "-%&": 269,
      "ďĉďĉďĉďĉ!": 270,
      "%Ĉ&'(": 271,
      "%&'(%&'(%&'(%&'(%&'(%&'(%&'(%&'(%&'(%&'(%&'(%&'(%&'(%&'(%&'(%&'(": 272,
      "23": 273,
      "!!!S": 274,
      "ĉĉ": 275,
      "ćďĉ!": 276,
      "ďĉďĉ%&'(": 277,
      "ćĈćĈćĈćĈ": 278,
      "ďĉćććć": 279,
      "ćććĈ": 280,
      "%!&'(": 281,
      "Ĉ!Ĉ!Ĉ!": 282,
      "%&-+/,'(": 283,
      "ĈćĈĈ": 284,
      "ćććććććććććććććć": 285,
      "'(3": 286,
      "ć%&'(": 287,
      "!LK!LK": 288,
      "Ĉ!ĈĈ!": 289,
      "ďď": 290,
      "Ĉ!Ĉ!Ĉ!Ĉ": 291,
      "ććććććĈ!": 292,
      "))": 293,
      "+01": 294,
      "4444": 295,
      "5555": 296,
      "6666": 297,
      "8888": 298,
      "ćĈ!Ĉ!Ĉ!": 299,
      "-%&+/,'(": 300,
      "ďĉďĉďĉ%&'(": 301,
      "-%&+/,'(-%&+/,'(": 302,
      "ćĈ!Ĉ!Ĉ": 303,
      "ćĈ!ććĈ!": 304,
      "ďĉ!!!!!!!!!!!!!!!!": 305,
      "ćĈ!ć": 306,
      "ććććĈ": 307,
      "ćĈ!Ĉ!Ĉ!Ĉ!Ĉ!Ĉ!": 308,
      "ďĉĉ": 309,
      ")!)!!!!!!!!!!!!!!!!!!!!!!!!!!!!!!!!!!!!!!!!!!!!!!!!!!!!!!!!!!!!!!!!": 310,
      "ďĉďĉ!!!": 311,
      "ďĉ!!ďĉ": 312,
      "ćĈĈĈĈĈ": 313,
      "ććĈ!Ĉ!Ĉ!Ĉ!": 314,
      "ćććććććĈ!Ĉ!": 315,
      "222222": 316,
      "'(7": 317,
      "ćĈ!ĈĈĈ": 318,
      "ďĉďĉďĉďĉďĉďĉ!": 319,
      "ĄĆ": 320,
      "ĂĄĆ": 321,
      "222": 322,
      "4%&": 323,
      "5222": 324,
      "6'(7": 325,
      "4%&5222": 326,
      "4%&52226'(7": 327,
      "2222224%&52226'(7": 328,
      "8,": 329,
      "2222224%&52226'(78,": 330,
      "%&-+01": 331,
      "ďĉďĉďĉďĉďĉ": 332,
      "ďďĉĉ": 333,
      "TV": 334,
      "ćĈĈćĈĈ": 335,
      "'(32222224%&52226'(78,": 336,
      "TVa": 337,
      "%&-+01'(32222224%&52226'(78,": 338,
      "ďĉ!!!": 339,
      "%&-+01'(32222224%&52226'(78,%&-+01'(32222224%&52226'(78,": 340,
      "Ĉ!ĈĈ!Ĉ": 341,
      "%Ĉ&'(!": 342,
      "ĈĈĈĈĈĈĈĈĈĈĈĈ": 343,
      "ććććĈ!": 344,
      "ďĉďĉďĉďĉďĉďĉ": 345,
      "%!!": 346,
      "!!!!R": 347,
      "Ĉ!Ĉ!ĈĈ": 348,
      "0101": 349,
      "ććĈ!Ĉ": 350,
      "%&-+/,'(%&-+/,'(": 351,
      "ćĈ!Ĉ!Ĉ!ćĈ!Ĉ!": 352,
      "ććć": 353,
      "LLLLLLLL": 354,
      "ďĉďĉ!!ďĉ": 355,
      "Ĉ!ćĈ!": 356,
      "ććĈ!Ĉ!Ĉ": 357,
      "ćĈ!Ĉ!Ĉ!Ĉ!": 358,
      "2323": 359,
      "!!!SĂĄĆ": 360,
      "ććĈ!ć": 361,
      "Ĉ!Ĉ!Ĉ!ćĈ!Ĉ!": 362,
      "ćĈ!ćĈ!ćĈ!ćĈ!": 363,
      "%&'(ďĉďĉ": 364,
      "222222222222222222222222": 365,
      "ď!": 366,
      ")!)!!!!!!!!!!!!!!!!": 367,
      "ććĈĈ": 368,
      "ćĈĈćĈ": 369,
      "ďĉ!!ďĉ!": 370,
      "MMMMMMMMMMMMMMMM": 371,
      "#$": 372,
      "ĈĈĈĈĈĈ": 373,
      "ďĉ!!!!!!!!!!!!!!!!!!!!!!!!!!!!!!!!!!!!!!!!!!!!!!!!": 374,
      "ĈĈ!": 375,
      "%ć": 376,
      "ďĉ!ďĉďĉ": 377,
      "ććĈĈĈ": 378,
      "ćĈ!ĈĈ": 379,
      "ďĉ!!!!!!!!!!!!!!!!!!!!!!!!!!!!!!!!": 380,
      "ďĉćć": 381,
      "ććĈ!ćć": 382,
      "ďĉďĉďĉďĉďĉďĉďĉ": 383,
      "%ĉ": 384,
      "ĈĈĈ!ĈĈĈ": 385,
      "ďĉďĉďĉďĉďĉďĉďĉ!": 386,
      "ĈĈĈĈĈĈĈĈĈ": 387,
      "ďĉ!!!!!!!!": 388,
      "%&'": 389,
      "Ĉ!ĈćĈ!Ĉ!": 390,
      "ďĉ!ďĉ!!": 391,
      "ćććĈ!Ĉ!Ĉ!Ĉ!Ĉ!Ĉ!": 392,
      "ĉ!": 393,
      "ď%ĉ": 394,
      ")!)!!": 395,
      "7777": 396,
      "!!!!!!!!!!!!!!!!!!!!!!!!!!!!!!!!!!!!!!!!!!!!!!!!!!!!!!!!!!!!!!!!!!!!!!!!!!!!!!!!": 397,
      "ććććĈ!ćĈ!Ĉ!": 398,
      "%!!!": 399,
      "&'(!!!!!!!!!!!!!!!!": 400,
      "TVa!!!SĂĄĆ": 401,
      "ćďĉďĉ": 402,
      "ďĉ!%&'(": 403,
      "ćĈ!ćĈ!Ĉ!Ĉ!": 404,
      "ď%ĉ&'(": 405,
      "011": 406,
      "Ĉ!Ĉ!Ĉ!!": 407,
      ")!)!!!!!!!!!!!!!!!!!!!!!!!!!!!!!!!!": 408,
      "-%&+/,'(-%&+/,'(-%&+/,'(-%&+/,'(": 409,
      "ććĈ!Ĉ!Ĉ!Ĉ!Ĉ!Ĉ!": 410,
      "ďĉďĉćććć": 411,
      "ćĈ!ćĈ!Ĉ!Ĉ!ćĈ!Ĉ!": 412,
      "0011": 413,
      "ďĉ!ďĉďĉďĉ!": 414,
      "ćĈĈ!": 415,
      "!ďĉ": 416,
      "ćććĈ!Ĉ!Ĉ!Ĉ!": 417,
      "ď'(": 418,
      "&'(!!!!!!!!!!!!!!!!!!!!!!!!!!!!!!!!!!!!!!!!!!!!!!!!": 419,
      "ďĉ!!!!!": 420,
      "&'(!!!!!!!!!!!!!!!!!!!!!!!!!!!!!!!!!!!!!!!!!!!!!!!!!!!!!!!!!!!!!!!!!!!!!!!!!!!!!!!!!!!!!!!!!!!!!!!!": 421,
      "ćĈ!ćĈ!Ĉ": 422,
      "33": 423,
      "ćĈĈĈĈĈĈ": 424,
      "ćĈ!ćĈĈ": 425,
      "ďĉ!ďĉďĉ!": 426,
      "!!)!": 427,
      "%!!!!!!!!!!!!!!!!!!!!!!!!!!!!!!!!": 428,
      "ĈĈĈĈ!": 429,
      "!LK!LK!LK!LK": 430,
      "%&ď'(": 431,
      "ćĈĈĈćĈĈ": 432,
      "ďĉďĉďĉ!ďĉďĉ!": 433,
      "#.": 434,
      "$#$": 435,
      "ď(": 436,
      "Ĉ!ćĈ!Ĉ!Ĉ": 437,
      "ćĈ!ĈĈ!": 438,
      "ććĈ!ćĈ!ćĈ!": 439,
      "#..": 440,
      "!!!!R!!!S": 441,
      "Ĉ!ĈĈĈĈĈĈĈ": 442,
      "!!!!!!!!!!!!!!!!!!!!!": 443,
      "ććĈćć": 444,
      "ĈćĈĈćĈ": 445,
      "ććĈ!ććĈ!": 446,
      "$#$!!)!": 447,
      "%&-+/,'(#..": 448,
      "Ĉ!Ĉ!ĈĈĈ": 449,
      "%&'ď(": 450,
      "Ĉ!Ĉ!ĈĈ!Ĉ": 451,
      "ćĈĈćĈĈćĈćĈćĈ": 452,
      "ďĉ!ďĉďĉďĉ": 453,
      "ĈĈĈ!Ĉ!": 454,
      "ďĉ!!!!!!!!!!!!!!!!!!!!!!!!!!!!!!!!!!!!!!!!!!!!!!!!!!!!!!!!!!!!!!!!": 455,
      "ćććĈ!Ĉ!Ĉ!": 456,
      "ććććććĈ!ćĈĈ": 457,
      "ćĈ!ćĈ!ćĈ!ćĈ!ćĈ!Ĉ!": 458,
      "ĉĉĉĉ": 459,
      "ĈĈĈĈĈ": 460,
      "Ĉ!ĈĈćĈ": 461,
      "%&-+/,'(#..$#$!!)!": 462,
      "Ĉ!ĈćĈ!Ĉ!Ĉ!Ĉ": 463,
      "ćĈ!Ĉ!Ĉ!Ĉ!ćĈ!Ĉ!": 464,
      "ďĉďĉďĉďĉďĉďĉďĉďĉ!": 465,
      "Ĉ!ĈĈ!ĈĈĈ": 466,
      "ćććĈ!Ĉ!Ĉ!Ĉ": 467,
      "%ć&'(": 468,
      "Ĉ!Ĉ!Ĉ!Ĉ!Ĉ!Ĉ!Ĉ!Ĉ!": 469,
      "ćććććć": 470,
      "ćććććććććć": 471,
      "ďĉ!ďĉ!ďĉ": 472,
      "%&-+/,'(#..$#$!!)!%&-+/,'(#..$#$!!)!": 473,
      "%!&'(!!!!!!!!!!!!!!!!!!!!!!!!!!!!!!!!!!!!!!!!!!!!!!!!!!!!!!!!!!!!!!!!": 474,
      "ćĉ": 475,
      "ďĉďĉďĉďĉďĉćććć": 476,
      "%&5555": 477,
      "44444444": 478,
      "5555222222222222222222222222": 479,
      "66666666": 480,
      "8888,": 481,
      "88888888,": 482,
      "%&55555555222222222222222222222222": 483,
      "44444444%&55555555222222222222222222222222": 484,
      "44444444%&5555555522222222222222222222222266666666": 485,
      "%&ď'(ĉ": 486,
      "%&'(ďĉ!!": 487,
      "ćĈ!ďĉ!": 488,
      "ćďĉďĉďĉ": 489,
      "%&-+/,'(%&-+/,'(%&-+/,'(%&-+/,'(": 490,
      "ďĉ!ďĉďĉ!!": 491,
      "&'(!": 492,
      "ďĉďĉďĉďĉďĉ!!": 493,
      "(7": 494,
      "(788888888,": 495,
      "%&'(!!!!!!!!!!!!!!!!!!!!!!!!!!!!!!!!!!!!!!!!!!!!!!!!!!!!!!!!!!!!!!!!": 496,
      "%!!!!!!!": 497,
      ")!!!!!!!!": 498,
      "%&'ď(ĉ": 499,
      "%&'(ďĉďĉďĉ!": 500,
      "%!!&'(": 501,
      "2222222222222222222222222222222222222222": 502,
      "244444444%&5555555522222222222222222222222266666666": 503,
      "2222222222222222222222222222222222222222244444444%&5555555522222222222222222222222266666666": 504,
      "ďĉ!!!!!!": 505,
      "ćďĉ!ďĉ": 506,
      "(788888888,-%&": 507,
      "ďĉ!!!!": 508,
      "!!!!!!&'(!!!!!!!!!!!!!!!!!!!!!!!!!!!!!!!!!!!!!!!!!!!!!!!!!!!!!!!!!!!!!!!!": 509,
      "ćĈĈĈĈĈĈĈĈ": 510,
      "ćĈćĈĈ": 511,
      "%!!!!!!!!": 512,
      "Ĉ!Ĉ!ćĈ!": 513,
      "Ĉ!ĈĈĈĈĈ": 514,
      "Ĉ!Ĉ!Ĉ!Ĉ!ĈćĈĈ": 515,
      "ćĈ!Č": 516,
      "ć!": 517,
      "ďĉďĉ!!!!": 518,
      "ćĈććĈ": 519,
      "Ĉ!ĈĈĈ!": 520,
      "ĈĈ!Ĉ!Ĉ!Ĉ!": 521,
      "ćĈĈĈĈĈĈĈĈĈĈĈĈ": 522,
      "ćĈ!ćČ": 523,
      "Ĉ!ćĈ!ćĈ!": 524,
      "L!LK": 525,
      "ďĉ!ďĉďĉďĉďĉďĉďĉďĉďĉ": 526,
      "ćĈ!ĈćĈ": 527,
      "ďĉďĉďĉć": 528,
      "ĈĈĈĈĈĈĈĈĈĈĈ": 529,
      "%!!!!!!!!!!!!!": 530,
      "TVa!!!SĂĄĆ!!!!R!!!S": 531,
      ")ďĉďĉ!": 532,
      "%!!!!": 533,
      "%!!!!!": 534,
      "Ĉ!ććĈ!Ĉ!": 535,
      "ćĈ!ćĈ!ćĈ": 536,
      "ćĈ!ĈĈ!Ĉ!": 537,
      "%!!!!!!!!!!!!": 538,
      "%&'(!": 539,
      "ćććććĈ!ćĈĈ": 540,
      "'7777": 541,
      "!!!!!!!!!!!!!!!!!!!!!!!!!!!!": 542,
      "ćĈ!Ĉ!ćĈ!Ĉ!": 543,
      "ćĈ!Ĉ!ĈćĈ!Ĉ!": 544,
      "ććććĈ!Ĉ!": 545,
      "!!Č": 546,
      "ććććĈććĈ": 547,
      "%!!!!!!!!!!!": 548,
      "ćĈćĈćĈćĈćĈćĈćĈćĈ": 549,
      "ćĈ!ćĈćĈćĈ": 550,
      "ćĈĈ!Ĉ!Ĉ": 551,
      "ćĈĈĈĈĈĈĈĈććĈ": 552,
      "ďĉ!!!!!!!!!!!": 553,
      "ćĈ!ćĈ!ćĈ!ćĈ": 554,
      "ććĈ!ćććĈ!ćć": 555,
      "ććĈ!ćĈ!Ĉ": 556,
      "LLLLLLLLLLLLLLLL": 557,
      "ćĈ!ćĈ!Ĉ!ćĈĈ": 558,
      "%&'(ďĉďĉďĉďĉ": 559,
      "%&'(ďĉďĉ!": 560,
      "%!!!&'(": 561,
      "ď%&'(ĉ!": 562,
      "ććĈ!ććććĈ": 563,
      "Ĉ!ĈĈĈĈ!": 564,
      "ďĉ!!!!!!!!!!!!!!!!!!!": 565,
      "ćĈĈ!ćĈ!Ĉ!": 566,
      "ĈĈĈ!ĈĈĈććĈ!": 567,
      "ććććĈ!ĈĈ": 568,
      "ćĈĈĈĈ!Ĉ": 569,
      "ĈĈĈĈćĈĈĈĈ": 570,
      "ććĈććĈ!": 571,
      "ĈĈĈĈĈĈĈĈĈĈĈĈĈĈĈĈĈĈĈĈ": 572,
      "ćĈ!Ĉ!ććĈ!": 573,
      "ćĈćĈĈĈĈ": 574,
      "ć%&'(ďĉ": 575,
      "ďĉ!!ďĉďĉďĉďĉďĉďĉ!": 576,
      "ćććĈćĈ": 577,
      "ćĈ!ĈććĈĈĈ": 578,
      "Ĉ!ĈĈĈĈĈĈ": 579,
      "ćĈćĈćĈćĈćĈĈćĈĈćĈćĈćĈ": 580,
      "ĈćĈ!Ĉ!": 581,
      "ĈĈĈĈĈĈĈĈĈĈĈĈĈĈĈĈĈĈĈĈĈĈĈĈĈĈĈĈĈĈĈĈ": 582,
      "ćĈ!ĈĈ!Ĉ": 583,
      "ćĈ!ććĈćĈ!ćĈ": 584,
      "!!ćĈ!Ĉ!Ĉ!Ĉ!": 585,
      "ććĈĈććĈćć": 586,
      "Ĉ!ĈćĈ!Ĉ!Ĉ!ĈćĈ!ćć": 587,
      "ćĈ!ćĈ!ćĈ!ćĈ!Ĉ!": 588,
      "ćććĈ!Ĉ!ćĈ!Ĉ!": 589,
      "ďĉďĉďĉ!ďĉ": 590,
      "ććĈ!ćĈ!ććĈ!": 591,
      "ďĉ!)!)": 592,
      "Ĉ!Ĉ!Ĉ!Ĉ!!": 593,
      "ĈĈĈĈĈĈćĈ!ććĈ": 594,
      "ćďĉďĉďĉďĉ!": 595,
      "ĈĈĈĈĈĈĈĈĈĈĈĈĈĈ!Ĉ!Ĉ!Ĉ!": 596,
      "ďĉ!ďĉďĉďĉďĉ!!": 597,
      "ĈćĈĈćĈćĈĈĈćĈĈ": 598,
      "ććććććĈ!ćć": 599,
      "ĈĈĈĈĈĈĈĈĈĈ!ćĈ!Ĉ!": 600,
      "ćććĈĈ": 601,
      "ďĉćĈ!Ĉ!": 602,
      "ćĈ!ĈćĈćĈćĈ": 603,
      "ďďďď": 604,
      "ďĉ!ďĉ!!!!!!!!!!!": 605,
      "ďĉďĉďĉďĉďĉ!": 606,
      "Ĉ!ĈĈ!ĈĈĈĈ!ĈĈ!Ĉ": 607,
      "ćĈ!Ĉ!Ĉ!ćĈĈćĈ": 608,
      "!!!!ďĉ!!": 609,
      "ďĉ!ďĉ!!!!!!": 610,
      "ććĈ!Ĉ!Ĉ!Ĉ!Ĉ!Ĉ!ćĈ": 611,
      "%ćĈ": 612,
      ")!)!!!!!!!!!!!!!!!!!!!!!!!!!!!!!!!!!!!!!!!!!!!!!!!!!!!!!!!!!!!!!!!!!!!!!!!!!!!!!!!!!!!!!!!!!!!!!!!!": 613,
      "ďĉ!!ďĉďĉ": 614,
      "-%&+/,'(-%&+/,'(-%&+/,'(-%&+/,'(-%&+/,'(-%&+/,'(-%&+/,'(-%&+/,'(": 615,
      "!!!!!!!!!!!!!!!!!!!!!!!!!!!!!!!!!!!!!!!!!!!!!!!!!!!!!!!!!!!!!!!!!!!!!!": 616,
      "ĈĈĈĈĈĈĈĈĈĈ!ĈĈ": 617,
      "Ĉ!ćĈ!Ĉ!ĈćĈĈĈ": 618,
      "ď!ĉ": 619,
      "ćććĈ!Ĉ!Ĉ!Ĉ!ĈĈĈĈĈĈĈĈĈĈ!ćĈ!Ĉ!": 620,
      "%!!!!!!!!!!!!!!": 621,
      "ććććććĈććĈ!": 622,
      "ćď": 623,
      "!!!!!!!!!!!!!!!!!!!!!!!!!!!!!!!!!!!!!!!!!!!!!": 624,
      "ćććććććććććććććććććććććć": 625,
      "%ć&": 626,
      "%!!!!!!!!!!": 627,
      "ďĉďĉ!ďĉ": 628,
      "ďĉďĉ!ďĉďĉďĉ!!": 629,
      "(788888888,-%&+01": 630,
      "!!!!!!!!!!!!!!!!!!!!!!!!!!!!!!!!!!!!!!!!!!!!!!!!!!!!!!!!!!!!!!!!!!!!!": 631,
      "Ĉ!Ĉ!Ĉ!ĈĈĈĈĈĈĈĈĈĈ!ĈĈ": 632,
      "ďĉ!!ďĉďĉ!!!": 633,
      "&'(ďĉ": 634,
      "ćććććććĈ!Ĉ!Ĉ!ćĈ!Ĉ!": 635,
      "ĥĤ": 636,
      "%!!&'(!!!!!!!!!!!!!!!!!!!!!!!!!!!!!!!!!!!!!!!!!!!!!!!!!!!!!!!!!!!!!!!!": 637,
      "Ĉ!Ĉ!ĈĈ!Ĉ!Ĉ!Ĉ!": 638,
      "ćććććććĈ!Ĉ!ććććććĈ!ćĈĈ": 639,
      "!!!!!!!!!!!!!!!!!!!!!!!!!!!!!!!!!!!!!!!!!!!!!!!!!!!!!!!!!!!!!!!": 640,
      "ćććĈ!Ĉ!Ĉ!Ĉ!ĈĈĈĈĈĈĈĈĈĈ!ćĈ!Ĉ!ĈćĈĈćĈćĈĈĈćĈĈ": 641,
      ")!)!!!!!!!!!!!!!!!!!!!!!!!!!!!!!!!!!!!!!!!!!!!!!!!!!!!!!!!!!!!!!!!!!!!!!!!!!!!!!!!!": 642,
      "ďĉ!!ďĉďĉďĉ": 643,
      "!!!!!!!!!!!!!!!!!!!!!!!!!!!!!!!!!!!!!!!": 644,
      "Ĉ!!": 645,
      "!!!!!!!!!!!!!!!!!!!!!!!!!!!!!!!!!!!!!!!!!!!!!!!!!!!!!!!!!!": 646,
      "MMMMMMMMMMMMMMMMMMMMMMMMMMMMMMMM": 647,
      "Ĉ!ĈćĈ!": 648,
      "%!!!!!!!!!!!!!!!": 649,
      "Ē!!": 650,
      "ďĉďĉďĉďĉ!!": 651,
      "ćĈ!ĈćĈĈ": 652,
      "!!!!!!!!!!!!!!!!!!!!!!!!!!!!!!!!!!!!!!!!!!!!!!!!!!!!!!!!!!!!!": 653,
      "ććĈ!ćďĉ": 654,
      "ďĉćććććććć": 655,
      "ďĉďĉ!ďĉďĉ": 656,
      "ďĉĈ!ĈĈĈĈĈĈĈ": 657,
      "Ĉ!Ĉ!Ĉ!ĈĈĈĈĈĈĈĈĈĈ!ĈĈĈ!ĈĈ!ĈĈĈĈ!ĈĈ!Ĉ": 658,
      "%!!!!!!!!!": 659,
      "Ĉ(": 660,
      "Ĉ!ĉ": 661,
      "ćććĈ!": 662,
      "%ď&'(ĉ!": 663,
      "%!!!!!!!!!!!!!&'(!!!!!!!!!!!!!!!!!!!!!!!!!!!!!!!!!!!!!!!!!!!!!!!!!!!!!!!!!!!!!!!!": 664,
      "ĖĖ": 665,
      "%&'(ďĉĈ!Ĉ!Ĉ!Ĉ!": 666,
      ")!!!!!!!!)!": 667,
      "ĈĈ!Ĉ": 668,
      "ďĉďĉ!ďĉ!": 669,
      "ďĉĈ!Ĉ!Ĉ!Ĉ!": 670,
      "ďĉďĉďĉďĉ!ďĉďĉ": 671,
      "ďĉďĉďĉďĉďĉ%&'(": 672,
      "Ĉ'(": 673,
      "%&'(ďĉ!": 674,
      "!!!!!!!!!!!!!!!!!!!!!!!!!!!!!!!!!!!!!!!!!!!!!!!!!!!!!!!": 675,
      "322": 676,
      "ćĈĈĈĈĈćĈĈĈĈĈ": 677,
      "ććĈ!Ĉ!Ĉ!Ĉ": 678,
      "!!!!!!!!!!!!!!!!!!!!!!!!!!!!!!!!!!!!!!!!!!!!!!!!!!!!!!!!!!!!": 679,
      "ďĉ!ďĉďĉďĉďĉ!": 680,
      "ćććććććććććć": 681,
      "ďĉďĉ!ďĉ!!": 682,
      "01'(3": 683,
      "ćććĈ!Ĉ!Ĉ!Ĉ!Ĉ!Ĉ!ćććććĈ!ćĈĈ": 684,
      "ďĉďĉďĉďĉďĉ)!)": 685,
      "ďĉď%&'(ĉ": 686,
      "%!!!!!!!!!!!!!!!!!": 687,
      "%!!!!!!!!!!!!!!!!!!": 688,
      "ďĉďďĉĉ": 689,
      "ćććććĈ!Ĉ!Ĉ!ćĈĈćĈ": 690,
      "%&'(ďĉćć": 691,
      ")!)!": 692,
      "%!!!!!!": 693,
      "!LK!LK!LK!LK!LK!LK!LK!LK": 694,
      "ćĈ!ĈĈ!ĈĈĈ": 695,
      "AA": 696,
      "232222222222222222222222222222222222222222244444444%&5555555522222222222222222222222266666666": 697,
      "ďĉďĉďĉďĉďĉďĉďĉďĉďĉďĉ": 698,
      "Ĉ!Ĉ!ĈĈ!Ĉ!": 699,
      "%&'(ďĉďĉďĉ": 700,
      "Ĉ!ĈĈ!Ĉ!Ĉ!Ĉ!": 701,
      "!!!!!!!!!!!!!!!!!!!!!!!!!!!!!!!!!!!!!!!!!!!!!!!!!!!!!!!!!!!!!!!!!!!": 702,
      "ďĉ!!!!!!!!!!!!!!!!!!!!!!!!!!!!!!!!!!!!!!!!!!!!!!!!!!!!": 703,
      "ďĉďĉďĉďĉďĉďĉ%&'(": 704,
      "%!!!!!!!!!!!!!!!!!!!": 705,
      "Ĉ!ćć": 706,
      "ďĉ!!!!!!!!!!!!": 707,
      "ďĉďĉďĉ!!ďĉďĉ": 708,
      "32323": 709,
      "ć(": 710,
      "ćĈ!ďĉ": 711,
      "!!!!!!!!!!!!!!!!!!!!!!!!!!!!!!!!!!!!!!!!!!!!!!!!!!!!!!!!!!!!!!!!!!": 712,
      "ćĈ!ćĈ!Ĉ!ĈćĈ!Ĉ!": 713,
      "Ĉ!Ĉ!ĈĈ!": 714,
      "%&'(ďĉďĉďĉďĉďĉďĉďĉďĉ": 715,
      "ďĉ!ďĉ!!!": 716,
      "&'(!!!!": 717,
      "ćĈ!ĈĈĈĈ": 718,
      "!!!!!!!!!!!!!!!!!!!!!!!!!!!!!!!!!!!!!!!!!!!!!!!!!!!!!!!!!!!!!!!!!!!!!!!!!!!!!!!!!!!!!!!!!!!!!!!!": 719,
      "%&'(ďĉ!!!": 720,
      "Ĉ!Ĉ!Ĉ!Ĉ!ĈćĈĈĈ!ĈĈĈ": 721,
      "!!!!!!!!!!!!!!!!!!!!!!!!!!!!!!!!!!!!!!!!!!!!!!!!!!!!!!!!!!!!!!": 722,
      "%!!!!!!!!!!!&'(!!!!!!!!!!!!!!!!!!!!!!!!!!!!!!!!!!!!!!!!!!!!!!!!!!!!!!!!!!!!!!!!": 723,
      "ďĉ!!!!!!!!!!!!!!!!!!": 724,
      "!!!!!!!!!!!!!!!!!!!!": 725,
      "!!!!!!!!!!!!!!!!!!!!!!!!!!!!!!!!!!!!!!!!!!!!!!!!!!!!": 726,
      "ć!!": 727,
      "Ĉ!ĈĈĈ!Ĉ!Ĉ": 728,
      ")!)!!!!!!!!!!!!!!!!!!!!": 729,
      "ďĉďĉ!ďĉďĉćććć": 730,
      "ććććĈćĈ": 731,
      "!!!!!!!!!!!!!!!!!!!!!!!!!!!!!!!!!!!!!!!!!!!!!!!!!!!!!!!!!!!!!!!!!!!!": 732,
      "%!!!!!!!!!!!!!!!!!!!!!!&'(!!!!!!!!!!!!!!!!!!!!!!!!!!!!!!!!!!!!!!!!!!!!!!!!!!!!!!!!!!!!!!!!": 733,
      "Čďĉ": 734,
      "ďĉďĉ!ďĉďĉ%&'(": 735,
      "ććĈ!Ĉ!Ĉ!ćĈ!": 736,
      "777": 737,
      "!!!!!!!!!!!!!!!!!!!!!!!!!!!!!!!!!!!!!!!!!!!!!!!!!!!!!!!!!!!!!!!!!!!!!!!!": 738,
      "ďĉ!!ďĉ!!!!!!!!!!!": 739,
      "ćĈ!Ĉ!Ĉ!Ĉ!Ĉ!": 740,
      "Ĉ!ćĈ!Ĉ!Ĉ!ćĈ!Ĉ!": 741,
      "ďĉď": 742,
      "!!!!!!!!!ććććĈ!ĈĈ": 743,
      "ďĉďĉďĉďĉćććć": 744,
      "Čďĉďĉ": 745,
      "%!!!!!!!!!!!!&'(!!!!!!!!!!!!!!!!!!!!!!!!!!!!!!!!!!!!!!!!!!!!!!!!!!!!!!!!!!!!!!!!": 746,
      "Ĉ!Ĉ!Ĉ!ĈĈĈ": 747,
      "%!!!!!!!!&'(!!!!!!!!!!!!!!!!!!!!!!!!!!!!!!!!!!!!!!!!!!!!!!!!!!!!!!!!!!!!!!!!": 748,
      "Ĉ!Ĉ!Ĉ!Ĉ!Ĉ!Ĉ": 749,
      "ćĈĈĈćĈ": 750,
      "ćĈ!ĈćĈ!Ĉ!": 751,
      "%&-+/,'(#..$#$!!)!%&-+/,'(#..$#$!!)!%&-+/,'(#..$#$!!)!%&-+/,'(#..$#$!!)!": 752,
      "%!Ĉ&'(": 753,
      "%&-+/,'(%&-+/,'(%&-+/,'(%&-+/,'(%&-+/,'(%&-+/,'(%&-+/,'(%&-+/,'(": 754,
      "Ĉ!ďĉďĉ!": 755,
      "RTVa": 756,
      "ććĈ!ĈĈ!": 757,
      "%&'(%&'(%&'(": 758,
      "ďĉďĉ)": 759,
      "ćĈ!Ĉ!ĈĈ": 760,
      "!!!ďĉďĉďĉďĉ": 761,
      ")!)!!!!!!!!": 762,
      "ďĉććĈ!": 763,
      "ćĈ!Ĉ!ĈćĈ!": 764,
      "Ĉ(!": 765,
      "!!!!!!!!!!!!!!!!!!!!!!!!!!!!!!!!!!!!!!!!!!!!!!!!!!!!!!!!!!!!!!!!!!!!!!!": 766,
      "ćĈ!Ĉ!!": 767,
      "Ĉ!Ĉ!ĈĈĈ!": 768,
      "%!!!&'(!!!!!!!!!!!!!!!!!!!!!!!!!!!!!!!!!!!!!!!!!!!!!!!!!!!!!!!!!!!!!!!!": 769,
      "%&'(!!!!!!!!!!!!!!!!": 770,
      "ďĉ!!ďĉ!ďĉďĉ!": 771,
      "ććććććććććććĈ!": 772,
      "ĈĈĈĈĈ!": 773,
      "ćďĉ%&'(": 774,
      "Ĉ!Ĉ!Ĉ!Ĉ!ĈĈĈĈ": 775,
      "ćĈćĈćĈ!Ĉ!": 776,
      "ćĈ!ćĈ!ćďĉďĉďĉďĉ!": 777,
      "ćććĈćć": 778,
      "Ĉ!ćĈ!Ĉ!Ĉ!Ĉ!Ĉ!!": 779,
      "ććĈ!ćďĉďĉďĉďĉďĉďĉďĉďĉ": 780,
      "Ĉ!ćĈ!ĈćĈ": 781,
      "00011": 782,
      "Ĉ!Ĉ!Ĉ!Ĉ!Ĉ!Ĉ!Ĉ": 783,
      "Ĉ!ĈĈ!Ĉ!Ĉ!Ĉ": 784,
      "Ĉ!ććĈĈ": 785,
      "Ĉ!Ĉ!ćĈĈ": 786,
      "Ē!": 787,
      "ČČ": 788,
      "ćĈćĈ!ćĈ": 789,
      "ďĉ!!!!!!!!!!!!!!!!!!!!!!!!!!!!!!!!!!!": 790,
      "Ĉ!ďĉďĉ": 791,
      "ćĈ!Ĉ!ćĈ": 792,
      ")!)!!!!!!!!!!!!!!!!!!!!!!!!!!!!!!": 793,
      "Ĉ'(!": 794,
      "%!!!!!!!!!!!!!!!&'(!!!!!!!!!!!!!!!!!!!!!!!!!!!!!!!!!!!!!!!!!!!!!!!!!!!!!!!!!!!!!!!!": 795,
      "ďĉďĉďĉ!!ďĉ!": 796,
      "ďĉ!!ďĉ!!!!!!!!": 797,
      "%!!!!!!!!!!!!!!!!!!!!": 798,
      "&'(!!!!!!!!!!!!!!!!!!!!!!!!!!!!!!!!": 799,
      "ďĉ%ď&'(ĉ": 800,
      "Ĉ!Ĉ!ćĈ!ĈĈ!": 801,
      "!!!!!!!!!!!!!!!!!!!!!!!!!!!!!!!!!!!!!!!!!!!!!!!!!!!!!!!!!": 802,
      "Ĉ!ĈĈĈ!ĈĈ": 803,
      "ďĉďĉ!!ďĉ!!!!": 804,
      "Ĉ!%&'(ďĉďĉďĉ!": 805,
      "ćĈĈĈććĈ": 806,
      "!!!!!!!!!!!!!!!!!!!!!!!!!!!!!!!!!!!!!!!!!!!!!!!!!!!!!!!!!!!": 807,
      "ćĈĈĈĈĈćĈ": 808,
      "%ćĈ&'(!": 809,
      "Ĉ!ďĉ!ďĉďĉďĉďĉ": 810,
      "ďĉ!!!ćććć": 811,
      "ćĈććć": 812,
      "Ĉ!ĈććĈ": 813,
      "RTVa!!!SĂĄĆ!!!!R!!!S": 814,
      "Ĉ!Ĉ!ĈĈĈĈĈĈ": 815,
      "ćĈ!ćĈĈĈ": 816,
      "Ĉ!Ĉ!Ĉ!ĈĈ!Ĉ": 817,
      "%!!!!!!!!!!!!!!!!!!&'(!!!!!!!!!!!!!!!!!!!!!!!!!!!!!!!!!!!!!!!!!!!!!!!!!!!!!!!!!!!!!!!!": 818,
      "!!ćććć": 819,
      "ďĉďĉ!!ďĉ!ďĉ!!": 820,
      "ć%Ĉ&'(!": 821,
      "Ĉ!Č": 822,
      "ćĈ!ćĈ!ćĈ!Ĉ!": 823,
      "%!!!!!!!!!!!!!!!!!!!&'(!!!!!!!!!!!!!!!!!!!!!!!!!!!!!!!!!!!!!!!!!!!!!!!!!!!!!!!!!!!!!!!!": 824,
      "ćĈĈććĈĈĈ": 825,
      "ććĈ!ćĈĈ": 826,
      "ćĈćĈćĈćĈćĈ": 827,
      "Ĉ!ďĉďĉ!ďĉćććć": 828,
      "ćĈĈĈććĈĈĈ": 829,
      "ćććĈććĈ": 830,
      "ĈĈ!ććĈ!Ĉ!": 831,
      "ćććĈ!ćĈ!": 832,
      "ďĉććććĈ!ćĈ!ćĈ!": 833,
      "ććĈ!Ĉ!Ĉ!Ĉ!Ĉ!ďĉďĉ!ďĉćććć": 834,
      "ćĈ!ćĈ!ćĈ!ćĈ!ćĈ!ćĈćĈćĈ": 835,
      "ćĈ!ćĈ!ĈĈ!Ĉ!": 836,
      "ćĈ!ćĈ!ćĈ!ćĈćĈ!ćĈ!Ĉ!": 837,
      "ČďĉćĈ!ćĈ!ćĈ!ćĈćĈ!ćĈ!Ĉ!": 838,
      "ĈĈ!ććĈ!Ĉ!ČďĉćĈ!ćĈ!ćĈ!ćĈćĈ!ćĈ!Ĉ!": 839,
      "ďĉććććĈ!ćĈ!ćĈ!ĈĈ!ććĈ!Ĉ!ČďĉćĈ!ćĈ!ćĈ!ćĈćĈ!ćĈ!Ĉ!": 840,
      "ććĈ!Ĉ!Ĉ!Ĉ!Ĉ!ďĉďĉ!ďĉćććććĈ!Ĉ!Ĉ!Ĉ!Ĉ!Ĉ!": 841,
      "ćĈ!ćĈ!ćĈ!ćĈ!ćĈ!ćĈćĈćĈďĉďĉ!": 842,
      "ćććĈ!ćĈ!ćĈ!ćĈ!ćĈ!ćĈćĈćĈďĉďĉ!": 843,
      "Ĉ!ĈĈĈćĈ!ćĈĈĈ": 844,
      "ďĉďĉďĉďĉďĉććććĈ!ćĈ!ĈćĈ": 845,
      "Ĉ!Ĉ!Ĉ!Ĉ!ĈćĈĈćĈĈĈĈĈ": 846,
      "ďĉććććĈ!ćĈ!ćĈ!ĈĈ!ććĈ!Ĉ!ČďĉćĈ!ćĈ!ćĈ!ćĈćĈ!ćĈ!Ĉ!ććĈ!ĈĈ!": 847,
      "ćĈ!Ĉ!ĈĈĈĈĈĈ": 848,
      "ďĉďĉďĉďĉĈ!ĈĈĈćĈ!ćĈĈĈ": 849,
      "Ĉ!ćĈ!Ĉ!ĈĈĈ!ĈĈĈććĈ!": 850,
      "ććĈćĈćĈćĈ": 851,
      "ćĈ!ćććĈ!ćć": 852,
      "Ĉ!ĈĈ!ććĈ!Ĉ!Ĉ": 853,
      "ćĈ!ććĈ!ćĈ!ććĈ!": 854,
      "ćććććććĈ!Ĉ!Ĉ!Ĉ!Ĉ!ćĈ!Ĉ!": 855,
      "ćďĉ!ďĉćććĈ!ćĈ!ćĈ!ćĈ!ćĈ!ćĈćĈćĈďĉďĉ!": 856,
      "ďĉďĉďĉďĉďĉććććĈ!ćĈ!ĈćĈĈ!Ĉ!Ĉ!Ĉ!ĈćĈĈćĈĈĈĈĈ": 857,
      "ĈĈćĈćĈćĈ!Ĉ!": 858,
      "Ĉ!Ĉ!ĈĈĈĈ": 859,
      "ććĈ!Ĉ!ĈĈĈ!Ĉ!": 860,
      "%!!!!!!!!!!!!!!!!&'(!!!!!!!!!!!!!!!!!!!!!!!!!!!!!!!!!!!!!!!!!!!!!!!!!!!!!!!!!!!!!!!!": 861,
      "ććĈ!Ĉ!ĈćĈĈĈććĈĈĈ": 862,
      "ćććććććĈ!ćĈ!Ĉ!": 863,
      "ćĈ!Ĉ!ććĈ!ĈĈćĈćĈćĈ!Ĉ!": 864,
      "ćĈĈĈĈĈćĈĈĈĈĈćĈ!ĈĈĈ": 865,
      "Ĉ!Ĉ!ĈĈĈĈĈĈćĈ!ĈĈĈ": 866,
      "ďĉććććĈ!ćĈ!ćĈ!ĈĈ!ććĈ!Ĉ!ČďĉćĈ!ćĈ!ćĈ!ćĈćĈ!ćĈ!Ĉ!ććĈ!ĈĈ!ćĈĈ!Ĉ!Ĉ": 867,
      "ććĈ!Ĉ!ĈĈĈ!Ĉ!Ĉ!ĈĈćĈ": 868,
      "ćĈ!Ĉ!ććĈ!ĈĈćĈćĈćĈ!Ĉ!ĈćĈĈ": 869,
      "ĈĈĈĈĈĈĈĈĈĈĈĈĈĈĈĈĈĈĈĈĈĈĈĈĈĈĈ": 870,
      "!!!!!!!!!!ďĉ!!!!!!": 871,
      "ććĈ!ćĈ!ćĈ!ćĈ!ćĈćĈćĈ": 872,
      "ćĈ!ćĈ!Ĉ!ćĈĈćĈ!Ĉ!ććĈ!ĈĈćĈćĈćĈ!Ĉ!ĈćĈĈ": 873,
      "ďĉďĉďĉ!!ďĉ!ććĈ!Ĉ!Ĉ!Ĉ!Ĉ!ďĉďĉ!ďĉćććććĈ!Ĉ!Ĉ!Ĉ!Ĉ!Ĉ!": 874,
      "ćďĉ!ďĉćććĈ!ćĈ!ćĈ!ćĈ!ćĈ!ćĈćĈćĈďĉďĉ!ćććććććĈ!Ĉ!Ĉ!Ĉ!Ĉ!ćĈ!Ĉ!": 875,
      "!!ďĉ!!!!!!": 876,
      "ĈĈĈĈĈĈĈĈĈ!Č": 877,
      "ćĈĈĈććĈ!Ĉ!": 878,
      "ĈĈĈĈĈĈĈĈĈĈĈĈĈĈĈĈĈĈ!": 879,
      "ćĈ!ĈĈĈĈ!ĈĈ!Ĉ": 880,
      "ććĈ!ććĈ!ĈĈ!ććĈ!Ĉ!Ĉ": 881,
      "ďĉ!)!)!!!!!!!!!!!!!!": 882,
      "ćĈ!Ĉ!ĈĈĈĈĈĈććĈ!ćďĉ": 883,
      ")!!!!!!!!!!!!!!!": 884,
      "ćĈ!ćććĈ!Ĉ!Ĉ!": 885,
      "ćĈ!Ĉ!ćĈĈ": 886,
      "ćĈ!ćĈ!ćĈ!Ĉ!Ĉ!": 887,
      "ććććĈ!ććĈ!ć": 888,
      "ććĈĈćĈĈĈ": 889,
      "ćĈ!ćĈ!Ĉ!Ĉ!ćĈ!ćĈ!Ĉ!ćĈĈćĈ!Ĉ!ććĈ!ĈĈćĈćĈćĈ!Ĉ!ĈćĈĈ": 890,
      "!!Č!": 891,
      "ĈĈĈĈĈĈĈĈĈĈĈĈĈĈĈĈĈĈĈĈĈĈĈ": 892,
      "Ĉ!ćććĈ!ććĈ!": 893,
      "ćććĈćććĈĈćĈ": 894,
      "ććĈćĈćĈćĈćĈ!": 895,
      "ćććććććĈ!ćĈ!Ĉ!Ĉ!Ĉ!Ĉ!ćĈ!Ĉ!": 896,
      "ććĈ!ćĈ!ććĈ": 897,
      "ććĈ!ĈĈĈĈĈ!": 898,
      "!!!!!!!!!!!!!!!!!!!!!!!!!!!!!!!!!!!!!!!!!!!!!!!!!!!!!!!!": 899,
      "ćććĈĈ!Ĉ!": 900,
      "Ĉ!Ĉ!Ĉ!ćĈĈĈććĈ": 901,
      "ćĈ!ĈĈĈćć": 902,
      "&'(!!!!ďĉććććĈ!ćĈ!ćĈ!ĈĈ!ććĈ!Ĉ!ČďĉćĈ!ćĈ!ćĈ!ćĈćĈ!ćĈ!Ĉ!ććĈ!ĈĈ!ćĈĈ!Ĉ!Ĉ": 903,
      "ēē": 904,
      "ćĈ!ććććććĈ!": 905,
      "ćĈ!Ĉ!Ĉ!Ĉ!Ĉ!Ĉ!Ĉ!Ĉ!": 906,
      "ćĈ!ćĈ!ććĈ": 907,
      "Ĉ!ćĈ!ćĈĈĈĈ!Ĉ": 908,
      ")!)!!ďĉďĉ": 909,
      "ćĈ!ćĈ!ĈĈ!ćĈ!Ĉ!ĈĈĈ!ĈĈĈććĈ!": 910,
      "ĈĈĈĈ!ććĈ": 911,
      "Ĉ!%&'(ďĉďĉďĉ!))": 912,
      "ďĉďĉďĉďĉďĉććććĈ!ćĈ!ĈćĈĈ!Ĉ!Ĉ!Ĉ!ĈćĈĈćĈĈĈĈĈĈ!%&'(ďĉďĉďĉ!))": 913,
      "Ĉ!ćććĈ!ććĈ!ćĈ!ĈĈĈćć": 914,
      "Ĉ!Ĉ!Ĉ!Ĉ!ĈĈĈĈĈĈĈĈĈ!Č": 915,
      "Ĉ!Ĉ!Ĉ!Ĉ!Ĉ!Ĉ!ĈĈĈ!Ĉ!": 916,
      "ďĉ!!!ćććĈ": 917,
      "Ĉ!ĈĈĈ!ĈĈĈĈĈĈĈĈĈĈĈĈĈĈĈĈĈĈ!": 918,
      "ććććĈćĈććĈ!": 919,
      "ďĉ!!ďĉ!!!!!!!!)!!!!!!!!)!": 920,
      "ďĉďĉďĉďĉďĉ!!ďĉ": 921,
      "Ĉ!Ĉćć": 922,
      "ććććććććĈ!": 923,
      "Ĉ!ĈĈĈĈ!Ĉ": 924,
      "ććĈ!Ĉ!Ĉ!Ĉ!Ĉ": 925,
      "ććĈ!ćďĉďĉďĉďĉ": 926,
      "ďĉ!!ďĉ!ććĈ!": 927,
      "ďĉććĈĈĈĈĈ": 928,
      "&'(!!!!!!!!!!!!!!!!!!!!!!": 929,
      "ććĈ!ćććĈ!ćććĈ!ćććĈ!Ĉ!Ĉ!": 930,
      "%!!!!!!!!!!!!!!&'(!!!!!!!!!!!!!!!!!!!!!!!!!!!!!!!!!!!!!!!!!!!!!!!!!!!!!!!!!!!!!!!!": 931,
      "ćĈ!Ĉ!!Ĉ!ćĈ!ćĈ!": 932,
      "ćĈĈĈććĈ!Ĉ!ććĈ!ćć": 933,
      "&'(!!!!ďĉććććĈ!ćĈ!ćĈ!ĈĈ!ććĈ!Ĉ!ČďĉćĈ!ćĈ!ćĈ!ćĈćĈ!ćĈ!Ĉ!ććĈ!ĈĈ!ćĈĈ!Ĉ!ĈćĈ!Ĉ!ĈĈĈĈĈĈććĈ!ćďĉ": 934,
      "ćĈćĈćĈĈĈćĈ": 935,
      "ćććĈ!Ĉ!Ĉ": 936,
      "ćĈ!ćĈ!!": 937,
      "Ĉ!ĈĈ!ĈĈĈĈĈĈĈĈĈĈĈĈĈĈĈĈĈĈĈĈĈĈĈĈĈĈĈ": 938,
      "ćććććććĈ!ćĈ!Ĉ!Ĉ!Ĉ!Ĉ!ćĈ!Ĉ!ćĈććĈ": 939,
      "ćĈ!Ĉ!ććĈ": 940,
      "ćĈćĈ!ććĈ": 941,
      "ćĈ!ĈćĈ!ćĈ!ĈĈ!ćĈ!Ĉ!ĈĈĈ!ĈĈĈććĈ!": 942,
      "Ĉ!ĈĈĈ!ĈĈĈĈ": 943,
      "ćĈćĈĈĈ!Ĉ": 944,
      "ćĈ!ćĈ!Ĉ!ćĈĈćĈ!Ĉ": 945,
      "Ĉ!ĈĈĈĈ!ĈĈĈĈĈĈĈĈ": 946,
      "ćĈćĈĈĈĈĈĈĈ": 947,
      "Ĉ!Ĉ!Ĉ!ĈĈĈĈĈĈĈĈĈĈ!ĈĈĈ!ĈĈ!ĈĈĈĈ!ĈĈ!ĈďĉĈ!ĈĈĈĈĈĈĈ": 948,
      "Ĉ!Ĉ!Ĉ!ćĈĈĈććĈĈ!ćććĈ!ććĈ!ćĈ!ĈĈĈćć": 949,
      "ćĈ!ććććććĈ!ćĈ!ććĈ": 950,
      "Ĉ!Ĉ!Ĉ!Ĉ!ćĈ!": 951,
      "ćĈĈĈ!Ĉ!ćĈ!Ĉ!": 952,
      "ĈĈĈĈĈĈĈĈĈĈĈĈĈĈĈĈĈĈĈĈĈĈĈĈ": 953,
      "ćććĈććććĈććĈ": 954,
      "ćĈĈćĈĈćĈĈĈĈĈćĈ": 955,
      "ďĉ!ďĉďĉ!!!!!!!!!!!!!!!!!!!!!!!!!!!!": 956,
      "ććĈ!ććććĈćĈćĈćĈ": 957,
      "ĈĈ!ĈććĈ!Ĉ!Ĉ": 958,
      "Ĉ!Ĉ!ĈĈ!Ĉ!Ĉ!ĈĈĈĈ": 959,
      "ČďĉďĉććĈ!ćĈ!ćĈ!ćĈ!ćĈćĈćĈ": 960,
      "ćĈ!Ĉ!!Ĉ!ćĈ!ćĈ!ććĈ!Ĉ!": 961,
      "!!!!!!!!!!!!!!!!!!!!!!!!!!!": 962,
      "ćććďĉ": 963,
      "ďĉďĉ!ďĉ%&'(": 964,
      "Ĉ!Ĉ!ĈĈ!Ĉ!ĈĈĈ": 965,
      "Ĉ!Ĉ!ĈĈ!Ĉ!ĈĈ!Ĉ": 966,
      "Ĉ!ĈĈĈĈ!ĈĈĈĈ": 967,
      "ďĉ!ďĉďĉďĉďĉďĉďĉďĉ": 968,
      "ććććĈ!ćććĈććĈ": 969,
      "ćććĈćććĈĈćĈćĈ!Ĉ!": 970,
      "Ĉ!Ĉ!Ĉ!Ĉ!ĈĈĈĈĈĈĈĈĈ!Čďĉ!": 971,
      "ďćĉ": 972,
      "Ĉ!ĈĈ!Ĉ!ćĈ!": 973,
      "ďĉďĉďĉ!!ďĉ": 974,
      "ććĈ!Ĉ!Ĉ!Ĉ!Ĉ!ĈĈ!": 975,
      "ćĈ!ĈĈĈ!!ćććć": 976,
      "ććĈ!ĈććććĈ": 977,
      "ďĉ!!!!!!!!ďĉ!!!!!": 978,
      "ćĈĈĈćĈĈćććć": 979,
      "ćććĈ!Ĉ!Ĉ!ććĈ": 980,
      "ććĈĈĈĈćĈĈĈĈ": 981,
      "&'(ćďĉ!ďĉćććĈ!ćĈ!ćĈ!ćĈ!ćĈ!ćĈćĈćĈďĉďĉ!ćććććććĈ!Ĉ!Ĉ!Ĉ!Ĉ!ćĈ!Ĉ!": 982,
      "ćĈĈ!Ĉ!Ĉ!Ĉ!": 983,
      "ćĈ!ĈćĈ!ććĈ": 984,
      "Ĉ!Ĉ!ćĈ!Ĉ!ĈĈĈ": 985,
      "ćĈĈćĈĈćĈ!ćććĈ!ćć": 986,
      "!!Č!!Č!": 987,
      "ćĈćĈćĈćĈćĈćĈćĈćĈćĈćĈćĈćĈ": 988,
      "ććĈ!ćĈ!ĈĈ!ćĈ!Ĉ!": 989,
      "&'(ďĉ))": 990,
      "Ĉ!ććĈĈććĈ!ćĈĈ": 991,
      "Ĉ!ĈĈĈĈ!ĈĈ!ĈĈĈĈ": 992,
      ")!!!!!!!!!!!!!!!!!!!!!!!!!!!!!!!!": 993,
      "Ĉ!ćĈ!Ĉ!Ĉ!Ĉ!Ĉ!Ĉ!": 994,
      "ćĈĈĈĈ!Ĉ!ćĈ!Ĉ!": 995,
      "ćĈĈĈĈ!Ĉ!ćĈ!": 996,
      "ćĈĈĈćĈ!ĈĈĈĈ": 997,
      "ćĈćĈćĈćĈĈĈ": 998,
      "ďĉ!!!!!!!!!!!!!!!!!!!!!!!!!!!!!!!!!!!!!!!!!!!!!!!!!!!!!!!!!": 999,
      "ćĈ!ĈĈćĈ!ćĈ!Ĉ!Ĉ!ćĈ!ćĈ!Ĉ!ćĈĈćĈ!Ĉ!ććĈ!ĈĈćĈćĈćĈ!Ĉ!ĈćĈĈ": 1000,
      "ććĈ!ćĈ!ćĈ!ĈćĈĈ": 1001,
      "ćĈĈćĈĈćĈćĈćĈććĈćĈćĈćĈćĈ!": 1002,
      "ćĈ!ćĈ!ćĈ!ćĈ!ćĈ!Ĉ!ćĈ!ćĈ!Ĉ!ćĈĈćĈ!Ĉ": 1003,
      "ćĈ!ĈĈ!Ĉ!ďĉ!ďĉ!": 1004,
      "ćĈććĈ!ćĈ!ćĈ!ĈćĈĈ": 1005,
      "ććĈ!Ĉ!Ĉ!ććĈ!Ĉ!": 1006,
      "ďĉ!!!!!ďĉ!)!)!!!!!!!!!!!!!!": 1007,
      "Ĉ!Ĉ!ĈĈ!ĈĈ!Ĉ!ĈĈ": 1008,
      "ććĈ!ćććĈ!ćććĈ": 1009,
      "ćććĈ!Ĉ!ćĈ!Ĉ!ĈĈĈĈ!ććĈ": 1010,
      "%!!!!!!!!!!!!!!!!!&'(!!!!!!!!!!!!!!!!!!!!!!!!!!!!!!!!!!!!!!!!!!!!!!!!!!!!!!!!!!!!!!!!": 1011,
      "!!!!!!!!!ććććĈ!ĈĈ%&'(ďĉ": 1012,
      "ćĈććć!!": 1013,
      "ćććĈććććĈććĈććććĈććĈ": 1014,
      "ćĈ!Ĉ!Ĉ!Ĉ!Ĉ!Ĉ": 1015,
      "Ĉ!ĈĈĈ!Ĉ!Ĉ!Ĉ!Ĉ!Ĉ!Ĉ!Ĉ!": 1016,
      "ćĈćĈćĈćĈćĈćĈćĈćĈćĈ": 1017,
      "ććĈ!ĈććĈ!Ĉ!": 1018,
      "Ĉ!ĈĈĈĈĈĈĈĈ!ĈĈĈĈĈ": 1019,
      "ĈĈĈĈĈćĈćĈ": 1020,
      "Ĉ!ĈĈ!ĈĈĈĈĈĈĈĈĈĈĈĈĈĈĈĈĈĈĈĈĈĈĈĈĈĈĈĈ!Ĉ!Ĉ!Ĉ!ĈĈĈĈĈĈĈĈĈ!Čďĉ!": 1021,
      "!!!!!!!!!!!!!!!!!!": 1022,
      "ďĉďĉďĉďĉďĉ!ďĉ": 1023,
      "ććĈ!ćĈ!Ĉ!Ĉ!ćĈ!Ĉ!": 1024,
      "ćććĈ!Ĉ!ćććĈĈ": 1025,
      "ćĈ!ćććĈ!ććĈ": 1026,
      "Ĉ!Ĉ!ĈĈćĈ!Ĉ!": 1027,
      "ććĈ!ĈćĈćĈ": 1028,
      ")!!!!!!!!)": 1029,
      "Ĉ!ĈĈĈĈĈĈĈ!Ĉ!Ĉ!ĈĈ!Ĉ": 1030,
      "&'(!!!!ďĉććććĈ!ćĈ!ćĈ!ĈĈ!ććĈ!Ĉ!ČďĉćĈ!ćĈ!ćĈ!ćĈćĈ!ćĈ!Ĉ!ććĈ!ĈĈ!ćĈĈ!Ĉ!ĈćĈ!Ĉ!ĈĈĈĈĈĈććĈ!ćďĉ!!!!!!!!": 1031,
      "!&'(ďĉ))": 1032,
      "Ĉ!Ĉ!ĈĈ!Ĉ!Ĉ!!": 1033,
      "ćĈĈĈĈĈćĈĈćĈ": 1034,
      "Ĉ!ĈĈ!ĈĈ!ĈĈĈ!ĈĈĈĈ": 1035,
      "ćĈ!Ĉ!Ĉ!Ĉ!ćĈ!ćć": 1036,
      "ĈĈĈĈĈĈĈĈĈĈĈĈ!Ĉ!": 1037,
      "ćććĈĈĈĈĈ": 1038,
      "ćĈ!ćĈ!Ĉ!ćĈ!Ĉ": 1039,
      "ććĈ!Ĉ!Ĉ!Ĉ!ćĈĈĈ!Ĉ!ćĈ!Ĉ!": 1040,
      "ććććĈ!ććĈ!ćććĈ!ćććĈ": 1041,
      "ćĈ!ĈĈĈ!ĈĈ": 1042,
      "ćĈ!ĈĈćĈĈćĈ": 1043,
      "ćććĈ!Ĉ!Ĉ!ĈĈ!Ĉ!ćĈ!Ĉ!": 1044,
      "Ĉ!ĈĈĈĈĈĈ!Ĉ!Ĉ": 1045,
      "ćĈććĈĈ!ĈĈĈ": 1046,
      "ććććĈ!Ĉ!ććĈ!ĈććććĈ": 1047,
      "ćććĈĈ!Ĉ!ćĈ!ććĈćĈ!ćĈ": 1048,
      "ććĈ!Ĉ!ĈĈĈ": 1049,
      "Ĉ!Ĉ!ćĈ!Ĉ!Ĉ!Ĉ!ćĈ!Ĉ!": 1050,
      "ćĈ!ććĈććĈ": 1051,
      ")))": 1052,
      "ćĈ!Ĉ!Ĉ!Ĉ!Ĉ!Ĉ!ĈĈ": 1053,
      "ćĈ!Ĉ!Ĉ!Ĉ!Ĉ!Ĉ!Ĉ!ćĈ!": 1054,
      "ćĈ!ĈĈĈćĈćĈćĈĈĈćĈ": 1055,
      "Ĉ!ćĈ!ĈĈĈĈ": 1056,
      "ćĈ!ĈĈćĈ!ćĈĈ": 1057,
      "ćĈ!ćĈ!ćĈ!ćĈ!ćĈ!Ĉ!Ĉ!Ĉ!ĈĈ!": 1058,
      "ćććććććććććĈ!Ĉ": 1059,
      "Ĉ!ćĈ!Ĉ!ĈćĈĈĈćĈĈĈćĈĈćććć": 1060,
      "000111": 1061,
      "ććććĈćĈććĈ!ćĈ!Ĉ!Ĉ!Ĉ!ćĈ!Ĉ!": 1062,
      "ććĈ!Ĉ!Ĉ!Ĉ!Ĉ!ĈĈ!ćĈ!ćĈ!ćĈ": 1063,
      "ďĉďĉďĉďĉďĉďĉ!!!": 1064,
      "ććĈĈ!Ĉ!ĈĈĈ!": 1065,
      "ćĈĈĈćĈ!ĈććĈĈĈ": 1066,
      "Ĉ!Ĉ!Ĉ!Ĉ!Ĉ!Ĉ!Ĉ!ĈĈ!": 1067,
      "01010101": 1068,
      "ćĈ!ĈćĈĈ!Ĉ!ćĈ!ĈĈ!": 1069,
      "ćĈĈĈĈĈĈĈĈććĈćĈĈ!": 1070,
      "ćĈ!ćĈ!ćĈ!Ĉ!ććććĈ!ććĈ!ć": 1071,
      "ďĉ!!!ćććĈćĈ!ćĈ!ĈĈ!Ĉ!": 1072,
      "ćĈĈĈĈĈĈćĈĈĈĈ": 1073,
      "ććĈ!Ĉ!ĈćĈĈĈććĈĈĈććĈ!Ĉ!Ĉ!Ĉ!Ĉ!Ĉ!ćĈ": 1074,
      "ćĈ!ććććććĈ!ćĈ!ććĈćććĈćććĈĈćĈćĈ!Ĉ!": 1075,
      "ďĉ!!!!!!!!ďĉ!!!!!ćĈ!ĈćĈ!ćĈ!ĈĈ!ćĈ!Ĉ!ĈĈĈ!ĈĈĈććĈ!": 1076,
      "Ĉ!Ĉ!Ĉ!ĈĈĈĈĈĈĈĈ!ĈĈĈĈĈ": 1077,
      "ćććććććĈ!Ĉ!Ĉ!ććĈĈććĈ!ćĈĈ": 1078,
      "ććĈ!ĈĈ!ĈĈĈĈ!ĈĈ!ĈĈĈĈ": 1079,
      "Ĉ!Ĉ!Ĉ!ćĈ!Ĉ!ćĈ!ćĈ!ćĈ!ćĈ!": 1080,
      "ćććĈ!Ĉ!Ĉ!Ĉ!Ĉ!Ĉ!ĈĈĈĈĈĈĈĈĈĈĈĈ": 1081,
      "ćĈ!ćĈ!ćĈćĈ!ćĈ": 1082,
      "ďĉćĈ!Ĉ!ććĈ!ććĈ!ĈĈ!ććĈ!Ĉ!Ĉ": 1083,
      "Ĉ!Ĉ!ĈĈ!Ĉ!ĈĈĈĈ!Ĉ!ĈĈ!Ĉ!Ĉ!!": 1084,
      "ćĈ!ćććĈ!ććĈćĈ!ććĈ": 1085,
      "Ĉ!Ĉ!ĈĈĈĈĈĈĈĈĈĈĈĈĈĈĈĈĈĈĈĈĈĈĈĈ": 1086,
      "ćĈĈ!Ĉ!ĈĈĈ": 1087,
      "ććĈ!Ĉ!Ĉ!Ĉ!ćĈ!Ĉ!!Ĉ!ćĈ!ćĈ!ććĈ!Ĉ!": 1088,
      "Ĉ!ĈĈ!Ĉ!Ĉ!Ĉ!ĈĈ": 1089,
      "ććĈĈćĈĈĈććĈĈććĈćć": 1090,
      "ćĈ!Ĉ!ććĈćĈ!": 1091,
      "ććĈĈĈĈćĈĈĈĈćĈĈĈĈĈĈĈĈććĈ": 1092,
      "Ĉ!Ĉ!ĈĈ!ĈĈ!Ĉ!ĈĈĈ!ĈĈĈĈ!ĈĈĈĈ": 1093,
      "ďĉďĉ!!ćććĈ!Ĉ!ćĈ!Ĉ!ĈĈĈĈ!ććĈ": 1094,
      "ćĈ!Ĉ!ćĈ!Ĉ!ćĈ!Ĉ!Ĉ!Ĉ!Ĉ!": 1095,
      "Ĉ!ĈĈĈĈ!ĈĈĈĈĈĈĈĈĈĈĈĈ!Ĉ!": 1096,
      "ćĈĈĈĈĈĈĈĈĈĈĈĈĈ!ćĈ!ćĈĈĈĈ!Ĉ": 1097,
      "ććĈ!ććććĈć!!": 1098,
      "ćĈ!Ĉ!ĈĈćĈ": 1099,
      "Ĉ!Ĉ!Ĉ!Ĉ!Ĉ!Ĉ!ĈĈ!ĈĈ!ĈĈ!ĈĈĈ!ĈĈĈĈ": 1100,
      "ćĈĈććĈĈĈćĈ!ĈćĈ!ććĈ": 1101,
      "ćĈĈĈĈ!Ĉ!ćĈ!Ĉ!ćĈĈĈćĈ!ĈĈĈĈ": 1102,
      "ćĈ!ćĈ!Ĉ!ććĈ!ĈććĈ!Ĉ!": 1103,
      "ćĈĈĈĈĈćĈĈĈĈĈćĈ!ĈĈĈćĈ": 1104,
      "ćĈĈĈććĈ!Ĉ!ććĈ!ćććĈćĈćĈćĈćĈĈćĈĈćĈćĈćĈ": 1105,
      "ćĈĈćĈĈćĈĈĈĈĈćĈćĈĈćĈĈćĈćĈćĈććĈćĈćĈćĈćĈ!": 1106,
      "ĈĈ!ĈććĈ!Ĉ!ĈĈ!ĈĈ!Ĉ!ćĈ!": 1107,
      "ćććĈ!Ĉ!ćććĈĈćĈ!ĈĈĈ!!ćććć": 1108,
      "ćďĉďĉďĉďĉďĉďĉďĉ!": 1109,
      "ćĈ!ĈĈ!ĈĈĈ!Ĉ!Ĉ!Ĉ!Ĉ!Ĉ!Ĉ!Ĉ!": 1110,
      "%!!!!!!!!!!!!!!!!!!!!!": 1111,
      "ćĈ!Čďĉďĉďĉ!ďĉďĉ!": 1112,
      "ććĈ!ćĈ!ććĈćĈććć!!": 1113,
      "ćĈćĈćĈćĈĈĈćĈĈĈĈĈĈ": 1114,
      "ććĈ!ĈćĈćĈćĈ!ĈćĈĈ": 1115,
      "ćĈ!ćĈ!ćĈ!ĈĈ!Ĉ!": 1116,
      "ćććĈ!Ĉ!Ĉ!ćĈ!Ĉ!Ĉ": 1117,
      "!!!!!!)!!!!!!!!)": 1118,
      "Ĉ!Ĉ!Ĉ!Ĉ!Ĉ!Ĉ!ĈĈĈ": 1119,
      "Ĉ!Ĉ!ĈĈĈ!Ĉ!Ĉ!Ĉ!ĈĈĈĈ": 1120,
      "ććĈ!Ĉ!ĈĈ!ĈĈĈ": 1121,
      "ćĈ!ĈĈ!ććĈ!ćĈ!ĈĈ!ćĈ!Ĉ!": 1122,
      "ćĈĈ!ćĈ!Ĉ!ĈĈĈĈćĈĈĈĈ": 1123,
      "ććććććĈ!ćććĈ!ćć": 1124,
      "ćĈ!ćĈ!ććĈćĈ!Ĉ!Ĉ!Ĉ!ćĈ!ćć": 1125,
      "ćĈ!ćĈ!Ĉ!ćĈ!ĈćĈ!ĈĈ!Ĉ": 1126,
      "Ĉ!Ĉ!Ĉ!Ĉ!Ĉ!ćĈ!ĈĈĈĈ": 1127,
      "ćĈ!ććĈĈĈĈĈćĈćĈ": 1128,
      "Ĉ!Ĉ!Ĉ!ćĈ!ćĈ": 1129,
      "ććĈ!Ĉ!Ĉ!Ĉ!ćććĈ!Ĉ!Ĉ!ććĈ": 1130,
      "%!!!!!!!&'(": 1131,
      "ĈĈĈ!ĈĈĈććĈ!ćĈćĈĈĈ!Ĉ": 1132,
      "ćĈćĈĈĈĈĈćĈĈ": 1133,
      "Ĉ!Ĉ!Ĉ!Ĉ!Ĉ!Ĉ!ĈĈĈ!Ĉ!ĈĈĈĈ": 1134,
      "ććććĈ!ćććĈććĈćććĈććććĈććĈććććĈććĈ": 1135,
      "ćĈĈ!Ĉ!Ĉ!Ĉ!ćĈćĈĈ": 1136,
      "Ĉ!ĈĈĈĈĈĈ!Ĉ!ĈĈ!ĈĈĈĈ!ĈĈĈĈĈĈĈĈ": 1137,
      "%!!!!!!&'(!!!!!!!!!!!!!!!!!!!!!!!!!!!!!!!!!!!!!!!!!!!!!!!!!!!!!!!!!!!!!!!!": 1138,
      "ćććććďĉ!": 1139,
      "ďĉďĉ!ďĉ!)": 1140,
      "ćĈćĈĈĈĈĈĈĈćĈĈĈĈĈĈ": 1141,
      "Ĉ!ĈĈ!ĈĈĈĈĈĈĈĈĈĈĈĈĈĈĈĈĈĈĈĈĈĈĈĈĈĈĈĈ!Ĉ!Ĉ!Ĉ!ĈĈĈĈĈĈĈĈĈ!Čďĉ!ćććććććĈ!Ĉ!ććććććĈ!ćĈĈ": 1142,
      "ććĈ!Ĉ!ĈćĈĈĈććĈĈĈććĈ!Ĉ!Ĉ!Ĉ!Ĉ!Ĉ!ćĈĈ!Ĉ!Ĉ!ćĈĈĈććĈĈ!ćććĈ!ććĈ!ćĈ!ĈĈĈćć": 1143,
      "ććććććććĈ!Ĉ!Ĉ!Ĉ!": 1144,
      "Ĉ!Ĉ!ĈćĈĈĈĈ": 1145,
      "ćĈĈĈćĈ!ĈĈĈĈ!ĈĈ!Ĉ": 1146,
      "ďĉ%&'(ďĉďĉ": 1147,
      "ĈĈĈĈĈĈĈĈĈĈĈĈĈĈĈĈĈĈĈĈĈĈĈĈ!": 1148,
      "ćĈ!ćĈ!ćĈ!ćĈ!Ĉ!Ĉ!Ĉ": 1149,
      "ćĈ!ĈćĈćĈćĈćĈ!Ĉ!ĈćĈ!Ĉ!": 1150,
      "ććĈ!ććććĈćĈćĈćĈććććĈ!Ĉ!ććĈ!ĈććććĈ": 1151,
      "&'(ćďĉ!ďĉćććĈ!ćĈ!ćĈ!ćĈ!ćĈ!ćĈćĈćĈďĉďĉ!ćććććććĈ!Ĉ!Ĉ!Ĉ!Ĉ!ćĈ!Ĉ!ćĈ!ćĈ!ćĈ!ćĈ!ćĈ!Ĉ!Ĉ!Ĉ!ĈĈ!": 1152,
      "ćĈ!ććĈććĈ!!!!!!": 1153,
      "Ĉ!ĈĈďĉ!!": 1154,
      "!!!!!!!!!!!!!!ďĉďĉďĉďĉ": 1155,
      "ďĉ!!!!!!!!ďĉďĉďĉďĉďĉććććĈ!ćĈ!ĈćĈĈ!Ĉ!Ĉ!Ĉ!ĈćĈĈćĈĈĈĈĈĈ!%&'(ďĉďĉďĉ!))": 1156,
      "ćĈ!ććĈ!ćĈ!ććĈ!ćĈććĈ!ćĈ!ćĈ!ĈćĈĈ": 1157,
      "ććĈ!Ĉ!ĈĈĈ!!ćĈ!Ĉ!Ĉ!Ĉ!": 1158,
      "ćććĈćććĈĈ!Ĉ!ćĈ!ććĈćĈ!ćĈ": 1159,
      "ćĈ!Ĉ!ĈćĈććĈĈ!ĈĈĈ": 1160,
      "ĈĈĈ!ĈĈĈććĈ!ĈĈ!ĈĈĈĈ!ĈĈ!ĈĈĈĈ": 1161,
      "Ĉ!ĈĈćĈĈ!Ĉ": 1162,
      "Ĉ!ĈććĈĈ!Ĉ!": 1163,
      "Ĉ!Ĉ!ĈĈ!Ĉ!ĈĈ!ĈĈ!Ĉ!ĈĈ!ĈĈ!Ĉ!ĈĈĈ!ĈĈĈĈ!ĈĈĈĈ": 1164,
      "ćĈ!ĈĈćĈ!ćĈĈćĈ!Ĉ!": 1165,
      "ćĈ!Ĉ!ćĈ!ćĈ!ćĈ!Ĉ!ććććĈ!ććĈ!ć": 1166,
      "ććććććććććććććććććććććĈ!": 1167,
      "!!!SĂĄĆ!!ďĉ!!!!!!": 1168,
      "ćĈĈ!ćĈ!Ĉ!Ĉ!Ĉ!Ĉ!ĈĈĈ": 1169,
      "!!ćĈ!Ĉ!Ĉ!Ĉ!ćĈ!ććĈ!": 1170,
      "ćĈ!ĈĈĈ!ĈĈćĈ!Ĉ!Ĉ!": 1171,
      "!!!!!!!!!!!!!!!!!!!!!!!!!!!!!!!!!!!!!!!!!!!!!!!!!!!!!!!!!!!!!!!!!": 1172,
      "ćĈćĈćĈćććĈćĈ": 1173,
      "ćććĈćĈ!ćĈ": 1174,
      "ćĈ!ćĈ!ćĈ!ćĈ!ćĈ!Ĉ!ćĈ!ćĈ!Ĉ!Ĉ!ćĈ!Ĉ!": 1175,
      "ćĈ!ĈććĈĈĈćĈĈĈćĈ!ĈććĈĈĈ": 1176,
      "Ĉ!ćĈ!Ĉ!Ĉ!ćĈ!Ĉ!Ĉ!ĈĈ!": 1177,
      "ććĈ!ĈĈĈĈĈ!ćďĉďĉ": 1178,
      "ććĈĈćĈĈĈććĈĈććĈćććĈĈĈĈĈćĈĈćĈ": 1179,
      "ćĈ!Ĉ!ćĈ!Ĉ!ćĈ!Ĉ!Ĉ!Ĉ!Ĉ!ćĈ!ćĈ!ćĈ!ćĈ!ćĈ!Ĉ!ćĈ!ćĈ!Ĉ!ćĈĈćĈ!Ĉ": 1180,
      "ĈĈĈĈĈĈĈĈĈĈĈĈĈĈĈĈĈĈĈĈ!": 1181,
      "ďĉďĉďĉ!!)!)!!!!!!!!!!!!!!!!!!!!": 1182,
      "ćĈ!Ĉ!Ĉ!ććĈ!ćĈ!Ĉ!Ĉ!ćĈ!Ĉ!": 1183,
      "ćĈ!Ĉ!ćĈććĈ!Ĉ!": 1184,
      "ďĉ!ďĉ!!!!!!!!!!!!!!!!": 1185,
      "Ĉ!Ĉ!ćĈ!Ĉ!ĈĈ!": 1186,
      "Ĉ!Ĉ!Ĉ!!ćĈĈĈĈ!Ĉ!ćĈ!Ĉ!ćĈĈĈćĈ!ĈĈĈĈ": 1187,
      ")!)!!!!!!!!ďĉ!ďĉďĉ": 1188,
      "ćĈ!Ĉ!ććĈćĈ!ĈĈĈĈĈĈćĈ!ććĈ": 1189,
      "LL!LK": 1190,
      "!!!!!!!!!ćććĈ!Ĉ!Ĉ!Ĉ!Ĉ!Ĉ!ĈĈĈĈĈĈĈĈĈĈĈĈ": 1191,
      "ďĉ!ďĉ!ďĉ!ďĉ!": 1192,
      "ĈĈĈ!ĈĈĈĈ!ĈĈ!Ĉ!Ĉ!Ĉ!ĈĈ": 1193,
      "ďĉďĉďĉďĉďĉ!!ďĉ!ďĉ!": 1194,
      "ćććĈ!Ĉ!Ĉ!Ĉ!ĈĈĈĈĈĈĈĈĈĈ!ćĈ!Ĉ!ĈćĈĈćĈćĈĈĈćĈĈďĉ": 1195,
      "ćĈćĈ!ććĈ!!": 1196,
      "ććĈ!Ĉ!Ĉ!Ĉ!Ĉ!ĈĈ!ćĈ!ćĈ!ćĈćĈ!ćĈ!ćĈćĈ!ćĈ": 1197,
      "ćĈĈćĈĈćĈĈĈĈĈćĈćĈĈćĈĈćĈćĈćĈććĈćĈćĈćĈćĈ!ćĈćĈćĈćĈćĈćĈćĈćĈćĈćĈćĈćĈ": 1198,
      "%!&'(!!!!!!!!!!!!!!!!!!!!!!!!!!!!!!!!": 1199,
      "ć%&'(ďĉ!": 1200,
      "ćĈ!ććĈ!ćĈ!Ĉ": 1201,
      "ććĈĈććĈćććĈćĈćĈćĈćĈĈćĈĈćĈćĈćĈ": 1202,
      "ććććććććććććČďĉďĉććĈ!ćĈ!ćĈ!ćĈ!ćĈćĈćĈ": 1203,
      "ććĈĈ!Ĉ!ĈĈĈ!ććĈ!Ĉ!Ĉ": 1204,
      "ćĈ!Ĉ!ĈĈćĈćĈĈĈĈĈĈĈĈĈĈĈĈ": 1205,
      "ććĈ!ćĈ!ćĈ!ćďĉ": 1206,
      ")!)!ďĉďĉ!!!": 1207,
      "Ĉ!Ĉ!ĈĈĈĈĈ!Ĉ!Ĉ!": 1208,
      "ćĈĈććĈĈĈćĈ!ĈćĈ!ććĈĈ!Ĉ!ĈĈćĈ!Ĉ!": 1209,
      "ćĈ!ĈĈ!ĈĈĈ!Ĉ!Ĉ!Ĉ!Ĉ!Ĉ!Ĉ!Ĉ!Ĉ!Ĉ!Ĉ!Ĉ!ćĈ!": 1210,
      "Ĉ!Ĉ!ćĈ!ĈĈćĈ!ćĈ!Ĉ!Ĉ!ćĈ!ćĈ!Ĉ!ćĈĈćĈ!Ĉ!ććĈ!ĈĈćĈćĈćĈ!Ĉ!ĈćĈĈ": 1211,
      "ćĈĈćĈĈĈĈĈĈćĈĈĈĈ": 1212,
      "ćććĈ!Ĉ!Ĉ!Ĉ!Ĉ!Ĉ": 1213,
      "ćĈ!Ĉ!Ĉ!Ĉ!Ĉ!Ĉ!Ĉ": 1214,
      "!!!!RTVa!!!SĂĄĆ": 1215,
      "ĈĈĈĈĈĈĈĈĈĈĈĈĈĈ!Ĉ!Ĉ!Ĉ!ĈĈĈĈ": 1216,
      "Ĉ!ĈćĈ!ćĈĈĈĈĈćĈĈĈĈĈćĈ!ĈĈĈćĈ": 1217,
      "ćĈ!ĈĈ!ĈĈĈĈ!Ĉ!Ĉ!ĈĈĈĈĈĈĈĈ!ĈĈĈĈĈ": 1218,
      "Ĉ!Ĉ!ĈĈĈĈĈĈćĈ!ĈĈĈ%&'(ďĉ": 1219,
      "ćĈ!ĈĈ!Ĉ!ďĉ!ďĉ!ďĉďĉďĉ!!": 1220,
      "ćĈ!Ĉ!Ĉ!Ĉ!Ĉ!Ĉ!Ĉ!ćĈ!ďĉ!!!!!!!!ďĉ!!!!!ćĈ!ĈćĈ!ćĈ!ĈĈ!ćĈ!Ĉ!ĈĈĈ!ĈĈĈććĈ!": 1221,
      "ćĈĈĈĈĈĈĈĈĈĈĈĈĈ!ćĈ!ćĈĈĈĈ!Ĉ%&'(ďĉćć": 1222,
      "ĈĈĈĈĈĈĈĈĈĈĈĈĈĈĈĈĈĈĈĈĈĈĈĈ!ĈĈĈĈĈĈĈĈĈĈĈĈĈĈĈĈĈĈĈĈĈĈĈ": 1223,
      "ď!!": 1224,
      "!!!!!!!!!!!!!!!!!!!!!!!!!!!!!!!!!!!!!!!!!!!!!!!!!!!!!!!!!!!!!!!!!!!!!!!!!": 1225,
      "ććĈ!ćĈ!Ĉ!": 1226,
      "ćĈ!ćĈ!Ĉ!ććĈ!Ĉ!Ĉ!Ĉ!ćĈĈĈ!Ĉ!ćĈ!Ĉ!": 1227,
      "ćĈ!ćĈ!ćĈ!ćĈ!Ĉ!Ĉ!Ĉ!Ĉ!Ĉ!Ĉ!Ĉ!Ĉ!ĈĈ!": 1228,
      "ďĉ!!!!!!!!!!!!!!!!!!ďĉ!!!!!!!!!!!!!!!!!!!": 1229,
      "ćĈćĈ!ćĈĈ!": 1230,
      "Ĉ!ćĈ!Ĉ!Ĉ!Ĉ!Ĉ!Ĉ!ćĈ!ćĈ!ćĈ!Ĉ!Ĉ!": 1231,
      "ććććććććĈ!Ĉ!Ĉ!Ĉ!ćĈĈĈĈ!Ĉ!ćĈ!": 1232,
      "Ĉ!Ĉ!ĈĈĈĈĈĈćĈ!ĈĈĈ%&'(ďĉ%&'(%&'(%&'(": 1233,
      "ćĈĈĈĈĈĈĈĈĈĈĈĈĈ!ćĈ!ćĈĈĈĈ!Ĉ%&'(ďĉććďĉďĉ!!ďĉ": 1234,
      "ćĈ!ćĈ!Ĉ!ćĈĈ!Ĉ!Ĉ!Ĉ!ćĈćĈĈ": 1235,
      "ďĉććććććĈ!ććĈ!": 1236,
      "Ĉ!ĈĈĈĈĈĈ!Ĉ!ĈĈ!ĈĈĈĈ!ĈĈĈĈĈĈĈĈ%&'(ďĉ": 1237,
      "ďĉďĉ!!!ďĉćĈ!Ĉ!ććĈ!ććĈ!ĈĈ!ććĈ!Ĉ!Ĉ": 1238,
      "ćĈ!Ĉ!Ĉ!ćĈ!Ĉ!ćĈ!ćĈ!ćĈ!ćĈ!Ĉ!Ĉ!Ĉ": 1239,
      "ćĈ!ćĈ!Ĉ!Ĉ!ćĈĈ!": 1240,
      ")!)!!!!!!!!!!!!!!!!!!!!!!!!!!!!!!!!!!!!!!": 1241,
      "ĈĈĈĈĈĈćĈ!ććĈćĈ!ćĈ!Ĉ!": 1242,
      "ćĈ!Čďĉďĉďĉ!ďĉďĉ!ďĉďĉďĉ!ďĉďĉ!": 1243,
      "Ĉ!Ĉ!Ĉ!Ĉ!Ĉ!Ĉ!ĈĈĈĈ!ĈĈĈĈĈĈĈ!Ĉ!Ĉ!ĈĈ!Ĉ": 1244,
      "%&'(ďĉ!!!!!!!!!!!!!!!!!!!!!": 1245,
      "ćĈ!ćĈ!Ĉ!ćĈ!Ĉ!Ĉ!ćĈ!Ĉ!": 1246,
      "ćĈĈ!Ĉ!ĈćĈĈ!ćĈ!Ĉ!ĈĈĈĈćĈĈĈĈ": 1247,
      "ćććĈ!Ĉ!Ĉ!Ĉ!Ĉ!ćĈ!Ĉ!": 1248,
      "!!!!RTVa!!!SĂĄĆ!!!!R!!!S": 1249,
      "ćĈ!Ĉ!ĈćĈ!Ĉ!ćĈ!ććĈĈĈĈĈćĈćĈ": 1250,
      "%&'(%&'(ďĉ!!": 1251,
      "%!!!!!!!!!!!!!!!!!!!!!!!": 1252,
      "ćĈĈĈĈ!ĈććĈ!ććććĈć!!": 1253,
      "ďĉďĉďĉ!!ďĉ!ććĈ!Ĉ!Ĉ!Ĉ!Ĉ!ďĉďĉ!ďĉćććććĈ!Ĉ!Ĉ!Ĉ!Ĉ!Ĉ!ďĉ!%&'(": 1254,
      "%ćć": 1255,
      "ďĉ!!!!!!!!!!!!!!!": 1256,
      "ćĈ!Ĉ!ĈćĈ!Ĉ!Ĉ!": 1257,
      "ćĈĈ!ćĈ!ćĈ!Ĉ": 1258,
      "Ĉ!ććĈ!Ĉ!Ĉ!ĈćĈ!Ĉ!": 1259,
      "Ĉ!Ĉ!Ĉ!Ĉ!Ĉ!ĈĈ!Ĉ!": 1260,
      "Ĉ!Ĉ!ćĈ!Ĉ!Ĉ!Ĉ!ćĈ!Ĉ!ćĈ!ĈćĈ!Ĉ!": 1261,
      "ćĈĈĈĈĈĈĈĈććĈćĈĈ!ććĈĈĈĈćĈĈĈĈćĈĈĈĈĈĈĈĈććĈ": 1262,
      "ďĉ!!!ćććĈćĈ!ćĈ!ĈĈ!Ĉ!ćĈĈĈĈĈĈĈĈĈĈĈĈĈ!ćĈ!ćĈĈĈĈ!Ĉ%&'(ďĉććďĉďĉ!!ďĉ": 1263,
      "ćĈ!ćććĈ!ććĈćĈ!ććĈćććĈ!Ĉ!Ĉ!Ĉ!": 1264,
      "Ĉ!Ĉ!Ĉ!Ĉ!ćććĈ!": 1265,
      "ćďĉ#$": 1266,
      ")!)!!!!!!!!!!!!!!!!!!!!!!!!!!!!!!!!)!)!!": 1267,
      "ćĈ!ćĈ!!ććĈ!ććĈ!": 1268,
      "ććććĈćĈććĈ!ćĈ!Ĉ!Ĉ!Ĉ!ćĈ!Ĉ!ćĈ!ćĈ!Ĉ!ćĈ!ĈćĈ!ĈĈ!Ĉ": 1269,
      "ććććććććććććććććććććććĈ!ććĈ!ćĈ!ććĈ!": 1270,
      "ďĉďĉď%&'(ĉ": 1271,
      "ććććććććććććććććĈ!Ĉ!ćĈ!Ĉ!ĈĈ!": 1272,
      "ďĉ!!ďĉďĉďĉ)!)": 1273,
      ")ććććććććććććĈ!": 1274,
      "Ĉ!Ĉ!ćĈ!ććĈ!ćĈ!ććĈ!ćĈććĈ!ćĈ!ćĈ!ĈćĈĈ": 1275,
      "ćććććĈ!Ĉ!Ĉ!Ĉ!Ĉ!Ĉ!": 1276,
      "ććĈ!ćĈ!ćĈ!Ĉ!Ĉ!ćĈ!Ĉ!": 1277,
      "ďĉćććććććĈ!ćĈ!": 1278,
      "Ĉ!ĈĈ!Ĉ!!ćĈ!Ĉ!Ĉ!Ĉ!ćĈ!ććĈ!": 1279,
      "ćĈ!Ĉ!Ĉ!Ĉ!Ĉ!ĈĈĈ!Ĉ!Ĉ": 1280,
      "Ĉ!ĈĈĈĈĈĈĈĈĈĈĈĈĈĈĈĈĈĈĈĈ!": 1281,
      "ďĉ!!!!!!!!!!!!!!!!!!!!!!!!!!!!!!!!!!!!!!!!!!!!!!!!!!!!!!!!!!!!!!": 1282,
      "ćĈ!ĈćĈĈ!Ĉ!ćĈ!ĈĈ!ććĈ!ćĈ!ććĈćĈććć!!": 1283,
      "ďĉďĉďĉďĉ!ďĉďĉ!!": 1284,
      "%ć&'": 1285,
      "ćĈ!ććććććĈ!ćĈ!ććĈćććĈćććĈĈćĈćĈ!Ĉ!ćĈ!ĈćĈćĈćĈćĈ!Ĉ!ĈćĈ!Ĉ!": 1286,
      "Ĉ!Ĉ!ĈĈĈ!Ĉ!Ĉ!Ĉ!ĈĈĈĈĈ!ĈĈĈĈ!ĈĈĈĈĈĈĈĈĈĈĈĈ!Ĉ!": 1287,
      "ćĈ!ććĈććĈ!!!!!!ďĉćć": 1288,
      "%&'(ďĉďĉ!!ďĉ": 1289,
      "ĈĈĈĈĈĈĈĈĈĈĈĈĈĈĈĈĈĈĈĈĈĈĈĈĈĈĈĈĈĈĈĈĈĈĈĈĈĈĈĈĈĈĈĈĈĈĈĈ": 1290,
      "Ĉ!ĈĈĈ!ĈĈĈĈĈĈĈĈĈĈĈĈĈĈĈĈĈĈ!ďĉ!!": 1291,
      "ćććĈćććĈĈ!Ĉ!ćĈ!ććĈćĈ!ćĈ!!Č!!Č!": 1292,
      "ćĈ!ćĈ!ććććĈ!ććĈ!ćććĈ!ćććĈ": 1293,
      "ćććĈĈ!ćĈ!Ĉ!ĈćĈĈĈćĈĈĈćĈĈćććć": 1294,
      "ććććććĈ!ććČ": 1295,
      "ćććĈ!Ĉ!Ĉ!ĈĈ!Ĉ!ćĈ!Ĉ!Ĉ!ĈćĈ!Ĉ!Ĉ!Ĉ": 1296,
      "ććĈ!ććććĈćĈćĈćĈććććĈ!Ĉ!ććĈ!ĈććććĈćĈćĈćĈćĈćĈćĈćĈćĈćĈ": 1297,
      "ććććććććĈ!Ĉ!ćĈĈ": 1298,
      "ďĉ%&'(!": 1299,
      "ćĈ!ćĈ!Ĉ!Ĉ!ćĈ!Ĉ!ćĈ!Ĉ!Ĉ!Ĉ!ćĈ!Ĉ!": 1300,
      "ććĈ!ćĈ!ććĈ!ćĈ!ćĈ!ććĈćĈ!Ĉ!Ĉ!Ĉ!ćĈ!ćć": 1301,
      "ďĉďĉďĉ!ďĉďĉćććć": 1302,
      "ďĉ!ďĉĈ!Ĉ!ćĈ!Ĉ!ĈĈĈ": 1303,
      "ććććĈ!ćĈ!Ĉ!Ĉ!ćĈ!Ĉ!": 1304,
      "Ĉ!Ĉ!ĈćĈĈĈĈĈ!Ĉ!Ĉ!Ĉ!Ĉ!Ĉ!ĈĈĈ!Ĉ!ĈĈĈĈ": 1305,
      "!!!!!!!!!!!!!!!!!!!": 1306,
      "ććććĈ!ćĈ!ĈĈ!ććĈ!ćĈ!ĈĈ!ćĈ!Ĉ!": 1307,
      "ćĈ!Ĉ!Ĉ!Ĉ!Ĉ!Ĉ!Ĉ!Ĉ!ćĈ!ćĈ!Ĉ!ĈćĈ!Ĉ!": 1308,
      "ćĈćĈĈĈĈĈćĈĈćĈćĈćĈćĈĈĈćĈĈĈĈĈĈ": 1309,
      "ćĈ!Ĉ!ććĈćĈ!ĈĈĈĈĈĈćĈ!ććĈććĈ!ćĈ!Ĉ": 1310,
      "ćĈ!ććĈ!Ĉ!Ĉ": 1311,
      "ćďĉďĉďĉĈ!ĈĈĈĈ": 1312,
      "ĈĈĈĈĈĈĈĈĈĈĈĈĈĈ!Ĉ!Ĉ!Ĉ!Ĉ!ĈĈĈ!ĈĈ": 1313,
      "ďĉ!ďĉďĉ!!!!!!!!!!!!!!!!!!!!!!!!!!!!ďĉ!!!!!!!!!!!!!!!!!!!!!!!!!!!!!!!!!!!!!!!!!!!!!!!!!!!!!!!!!": 1314,
      "Ĉ!ĈĈ!ĈĈĈĈĈĈĈĈĈĈĈĈĈĈĈĈĈĈĈĈĈĈĈĈĈĈĈĈ!Ĉ!Ĉ!Ĉ!ĈĈĈĈĈĈĈĈĈ!Čďĉ!ćććććććĈ!Ĉ!ććććććĈ!ćĈĈ%&'(ďĉďĉ": 1315,
      "ćĈĈćĈĈĈĈĈĈćĈĈĈĈćĈĈćĈĈćĈ!ćććĈ!ćć": 1316,
      "ćććĈ!Ĉ!ćĈ!Ĉ!Ĉ": 1317,
      "Ĉ!ĈĈ!ćĈ!Ĉ": 1318,
      "%&'(ďĉ!!ďĉ!!": 1319,
      "ććććććććĈ!ćććĈ!Ĉ!": 1320,
      "Ĉ!Ĉ!Ĉ!Ĉ!Ĉ!Ĉ!ĈĈ!ĈĈ!ĈĈ!ĈĈĈ!ĈĈĈĈĈ!ĈĈĈĈĈĈ!Ĉ!ĈĈ!ĈĈĈĈ!ĈĈĈĈĈĈĈĈ%&'(ďĉ": 1321,
      "ďĉ!!!!!!!!ďĉďĉďĉďĉďĉććććĈ!ćĈ!ĈćĈĈ!Ĉ!Ĉ!Ĉ!ĈćĈĈćĈĈĈĈĈĈ!%&'(ďĉďĉďĉ!))ďĉ!ďĉďĉďĉďĉ": 1322,
      "%&'(ďĉ!!!!!!!!!!!!!!!!!!!!!ďĉďĉďĉďĉĈ!ĈĈĈćĈ!ćĈĈĈ": 1323,
      "Ĉ!ćĈ!Ĉ!Ĉ!Ĉ!Ĉ!Ĉ!ćĈ!ćĈ!ćĈ!Ĉ!Ĉ!ćĈ!ĈĈĈćĈćĈćĈĈĈćĈ": 1324,
      "Ĉ!ď": 1325,
      "ďĉďĉ!!ďĉ!!ďĉďĉ": 1326,
      "!!!!!!!ďĉ!!ďĉďĉ!!!": 1327,
      "ćĈ!Ĉ!Ĉ!Ĉ!Ĉ!Ĉ!Ĉ!Ĉ!Ĉ!Ĉ!": 1328,
      "ďĉ!!!ćććććĈ!ĈĈ!ĈĈĈ!Ĉ!Ĉ!Ĉ!Ĉ!Ĉ!Ĉ!Ĉ!Ĉ!Ĉ!Ĉ!Ĉ!ćĈ!": 1329,
      "ćććĈ!Ĉ!ćććĈĈćĈ!ĈĈĈ!!ćććć!!!!!!!!!!!!!!!!!!!!": 1330,
      "Ĉ!ĈććĈĈ!Ĉ!ććĈ!Ĉ!ĈĈ!ĈĈĈ": 1331,
      "ćĈ!Ĉ!ćĈ!Ĉ!ćĈ!Ĉ!Ĉ!Ĉ!Ĉ!ćĈ!ćĈ!ćĈ!ćĈ!ćĈ!Ĉ!ćĈ!ćĈ!Ĉ!ćĈĈćĈ!ĈććĈ!ĈćĈćĈćĈ!ĈćĈĈ": 1332,
      "ćĈ!Ĉ!Ĉ!ććĈ!ćĈ!Ĉ!Ĉ!ćĈ!Ĉ!ćĈ!ćĈ!ćĈ!ćĈ": 1333,
      "Ĉ!Ĉ!Ĉ!Ĉ!!Ĉ!Ĉ!Ĉ": 1334,
      "ćĈĈ!ćĈ!Ĉ!Ĉ!Ĉ!Ĉ!ĈĈĈćĈ!Ĉ!Ĉ!": 1335,
      "ďĉďĉďĉ!ďĉďĉďĉ!!": 1336,
      "ďĉ!ďĉ!!!SĂĄĆ!!ďĉ!!!!!!": 1337,
      "ćďĉ!!!!!!!!!": 1338,
      "%!!!!!!!!!!&'(!!!!!!!!!!!!!!!!!!!!!!!!!!!!!!!!!!!!!!!!!!!!!!!!!!!!!!!!!!!!!!!!": 1339,
      "ććĈ!Ĉ!ĈĈĈ!Ĉ!Ĉ!ĈĈćĈďĉ!!ďĉďĉ!!!": 1340,
      "ććĈ!Ĉ!Ĉ!Ĉ!Ĉ!ĈĈ!ćĈ!ćĈ!ćĈćĈ!ćĈ!ćĈćĈ!ćĈćĈ!ććĈćĈ!ćĈ": 1341,
      ")!)!ďĉďĉ!!!)!)!!": 1342,
      "ďĉ!Ĉ!ĈćĈ!Ĉ!Ĉ!ĈćĈ!ćć": 1343,
      "ćďĉććć": 1344,
      "ćĈĈ!Ĉ!ĈĈĈćĈćĈ!ććĈ!!": 1345,
      "ćĈ!ćĈ!Ĉ!ćĈĈ!Ĉ!Ĉ!Ĉ!ćĈćĈĈćĈ!Ĉ!Ĉ!ćĈ!Ĉ!": 1346,
      "Ĉ!ĈĈćďĉďĉďĉďĉďĉďĉďĉ!": 1347,
      "Ĉ!Ĉ!Ĉ!Ĉ!Ĉ!Ĉ!Ĉ!ĈĈĈĈĈĈ": 1348,
      "))))": 1349,
      "ćććććĈ!Ĉ!Ĉ!Ĉ!Ĉ!Ĉ!ćĈ!Ĉ!Ĉ!ćĈ!Ĉ!": 1350,
      "ďĉ!!!!!!!!!!!!!": 1351,
      "ďĉďĉććććććĈ!ćććĈ!ćć": 1352,
      "Ĉ!Ĉďĉ!ďĉ!ďĉ": 1353,
      "ďĉďĉ!!ďĉ!!!!!!)!!!!!!!!)": 1354,
      "ććććĈ!ćĈ!Ĉ!Ĉ!Ĉ!Ĉ!Ĉ!": 1355,
      "ććĈ!ććĈ!ćĈ!Ĉ!ćĈććĈ!Ĉ!": 1356,
      "ćĈ!ćĈ!Ĉ!ććĈ!Ĉ!Ĉ!Ĉ!ćĈĈĈ!Ĉ!ćĈ!Ĉ!ĈĈĈ!ĈĈĈććĈ!ćĈćĈĈĈ!Ĉ": 1357,
      "&'": 1358,
      "ćććĈ!Ĉ!Ĉ!Ĉ!Ĉ!Ĉ!ćĈ!Ĉ!Ĉ!Ĉ!ćĈ!Ĉ!": 1359,
      "ďĉ!)!)!!!!!!!!!!ďĉ!!!!!!": 1360,
      "ćććććććĈ!Ĉ!Ĉ!ćĈ!Ĉ!Ĉ!": 1361,
      "ćĈ!ćĈ!Ĉ!ććĈ!ĈććĈ!Ĉ!ćĈ!ćĈ!Ĉ!Ĉ!ćĈĈ!": 1362,
      "Ĉ!ĈĈćĈĈ!Ĉďĉ!!!!!!!!!!!!!!!!!!!!!!!!!!!!!!!!": 1363,
      "%&'(%&'(ďĉ!!ććććććĈććĈ!": 1364,
      "ďĉďĉďĉ!!ďĉ!!ďĉ!!!!!!!!)!!!!!!!!)!": 1365,
      "ďĉďĉďĉďĉďĉďĉďĉ!ďĉ!ďĉ": 1366,
      "ććććĈ!ćĈ!Ĉ!Ĉ!ĈĈ!Ĉ!Ĉ!Ĉ": 1367,
      "ďĉďĉďĉďĉ!ďĉďĉ%!!!&'(": 1368,
      "ďĉďĉďĉ!!ďĉďĉćĈ!Čďĉďĉďĉ!ďĉďĉ!ďĉďĉďĉ!ďĉďĉ!": 1369,
      "ćĈćĈćĈćććĈćĈćććĈćĈ": 1370,
      "ďĉććććććĈ!ććĈ!ććĈ!Ĉ!Ĉ!Ĉ!ćććĈ!Ĉ!Ĉ!ććĈ": 1371,
      "ćĈ!Ĉ!Ĉ!Ĉ!Ĉ!Ĉ!ćĈ!Ĉ!ććĈ!": 1372,
      "ĈĈĈ!Ĉ!Ĉ!ĈĈĈ": 1373,
      "ććĈ!Ĉ!Ĉ!ĈćĈ!Ĉ!ĈćĈććĈĈ!ĈĈĈ": 1374,
      "ďĉďĉ%&'(!": 1375,
      "ćććććććććććĈ!ćĈ!!ććĈ!ććĈ!": 1376,
      "ćććĈĈĈĈĈććĈĈććĈćććĈćĈćĈćĈćĈĈćĈĈćĈćĈćĈ": 1377,
      "ďĉďĉ)ďĉďĉ!": 1378,
      "ďĉ!!ďĉ!ďĉ!": 1379,
      ")!)ďĉďĉďĉďĉďĉďĉ!!!": 1380,
      "ććĈ!Ĉ!ĈćĈĈĈććĈĈĈććĈ!Ĉ!Ĉ!Ĉ!Ĉ!Ĉ!ćĈĈ!Ĉ!Ĉ!ćĈĈĈććĈĈ!ćććĈ!ććĈ!ćĈ!ĈĈĈćć!!!!": 1381,
      "ćĈ!ĈććĈĈĈćĈĈĈćĈ!ĈććĈĈĈćĈĈććĈĈĈćĈ!ĈćĈ!ććĈĈ!Ĉ!ĈĈćĈ!Ĉ!": 1382,
      "ćććććććććććććććĈ!Ĉ!Ĉ!ćĈ!Ĉ!": 1383,
      "ďĉďĉ!!ďĉďĉďĉ!": 1384,
      "!!!!!!!!!ďĉ!!!!!!!!": 1385,
      "ďĉ!!ďĉďĉďĉďĉďĉ!!ďĉ!ďĉ!": 1386,
      "%!!!!!!!&'(!!!!!!!!!!!!!!!!!!!!!!!!!!!!!!!!!!!!!!!!!!!!!!!!!!!!!!!!!!!!!!!!": 1387,
      "!!!!!!!!!!!!!!!!!!!!!!!!!!!!!!!!!!!!!!!!!!!!!!!!!!!!!!!!!!!!!!!!!!!!!!!!!!!": 1388,
      "ďĉ!!ćććććććĈ!Ĉ!Ĉ!ććĈĈććĈ!ćĈĈ": 1389,
      "ćďĉććććććććććććććććĈ!Ĉ!ćĈ!Ĉ!ĈĈ!": 1390,
      "ćĈ!ćĈ!ćĈ!ćĈ!ćĈ!Ĉ!ćĈ!ćĈ!Ĉ!Ĉ!ćĈ!Ĉ!Ĉ!ććĈ!Ĉ!Ĉ!ĈćĈ!Ĉ!": 1391,
      "ďĉ!!!!!!!!!!!!!!!!!!!!!!!!!!!!!!!!!!!!!!!!!!!!!!!!!!!!!!!!!!!!!!)!)": 1392,
      "ćďĉďĉ!!": 1393,
      "%&'(Ĉ!Ĉ!": 1394,
      "ďĉďĉďĉďĉ!ďĉ!!": 1395,
      "ćĈĈĈććĈ!Ĉ!ććĈ!ćććĈćĈćĈćĈćĈĈćĈĈćĈćĈćĈćĈ!Ĉ!ĈćĈ!Ĉ!Ĉ!": 1396,
      "ćććććĈ!ćĈ!ććććĈ!ććĈ!ćććĈ!ćććĈ": 1397,
      "ćĈĈĈĈ!": 1398,
      "3322": 1399,
      "ćĈćĈĈĈĈĈĈĈćĈĈĈĈĈĈćĈćĈ!ćĈĈ!": 1400,
      "ďĉďĉďĉ!!)!)!!!!!!!!!!!!!!!!!!!!ďĉ!!!!!!!!!!!!!!!!!!!!!!!!!!!!!!!!!!!": 1401,
      "ććććććććććććććććććććććĈ!ććĈ!ćĈ!ććĈ!ććććĈ!ćććĈććĈćććĈććććĈććĈććććĈććĈ": 1402,
      "ćĈ!ďĉ!%&'(": 1403,
      "!!!!!!!!!!!!!!!!!!!!!!!!!!!!!!!!!!!!!!!!!!!!!!!!!!!!!!!!!!!!!!!!!!!!!!!!!!": 1404,
      "ćććććĈ!Ĉ!Ĉ!ćĈĈćĈďĉďĉ": 1405,
      "ććĈĈćĈĈĈććĈĈććĈćććĈĈĈĈĈćĈĈćĈćĈĈćĈĈćĈĈĈĈĈćĈćĈĈćĈĈćĈćĈćĈććĈćĈćĈćĈćĈ!ćĈćĈćĈćĈćĈćĈćĈćĈćĈćĈćĈćĈ": 1406,
      "ĈĈĈ!ĈĈĈĈ!ĈĈ!Ĉ!Ĉ!Ĉ!ĈĈĈ!Ĉ!ĈĈ!Ĉ": 1407,
      "ććĈ!ćĈ!Ĉ!ĈĈĈ!ĈĈĈććĈ!ĈĈ!ĈĈĈĈ!ĈĈ!ĈĈĈĈ": 1408,
      "ďĉ!!!ćććĈćĈ!ćĈ!ĈĈ!Ĉ!ćĈĈĈĈĈĈĈĈĈĈĈĈĈ!ćĈ!ćĈĈĈĈ!Ĉ%&'(ďĉććďĉďĉ!!ďĉććĈ!ĈĈĈĈĈ!ćďĉďĉ": 1409,
      "!!!!!!!!!!!!!!!!!!!!!!!!!!!!)!)!!!!!!!!!!!!!!!!!!!!!!!!!!!!!!!!)!)!!": 1410,
      "ćććĈ!Ĉ!Ĉ!Ĉ!Ĉ!ćĈ!Ĉ!Ĉ!ĈćĈ!ćĈĈĈĈĈćĈĈĈĈĈćĈ!ĈĈĈćĈ": 1411,
      "Ĉ!ĈĈ!ĈĈĈĈĈĈĈĈĈĈĈĈĈĈĈĈĈĈĈĈĈĈĈĈĈĈĈĈ!Ĉ!Ĉ!Ĉ!ĈĈĈĈĈĈĈĈĈ!Čďĉ!ćććććććĈ!Ĉ!ććććććĈ!ćĈĈ%&'(ďĉďĉĈ!ĈĈďĉ!!": 1412,
      "L!LK!LK": 1413,
      "ďĉ%&'(ďĉ": 1414,
      "!!!!!!!!!!!ďĉ": 1415,
      "ććĈ!ćĈ!ćĈ!ćďĉ!!!!!!!!!!!!!!!": 1416,
      "ĈĈĈ!Ĉ!Ĉ!ĈĈĈĈ!Ĉ!ĈĈ!Ĉ!Ĉ!ĈĈĈĈ": 1417,
      "ććĈ!Ĉ!ĈćĈĈĈććĈĈĈććĈ!Ĉ!Ĉ!Ĉ!Ĉ!Ĉ!ćĈĈ!Ĉ!Ĉ!ćĈĈĈććĈĈ!ćććĈ!ććĈ!ćĈ!ĈĈĈćć!!!!%&'(ďĉ!!ďĉ!!": 1418,
      "ďĉ!ďĉ!!ćĈ!": 1419,
      "Ĉ!%&'(": 1420,
      "ďĉ!ďĉććććĈ!ćĈ!ĈĈ!ććĈ!ćĈ!ĈĈ!ćĈ!Ĉ!": 1421,
      "Ĉ!ĈĈĈ!ĈĈĈ": 1422,
      "ćĈ!ćććĈ!ććĈćĈ!ććĈćććĈ!Ĉ!Ĉ!Ĉ!ćććĈćĈ!ćĈ": 1423,
      "ćĈ!Ĉ!Ĉ!Ĉ!Ĉ!ĈĈĈ!Ĉ!ĈĈ!Ĉ!ĈĈ!Ĉ!ĈĈ!ĈĈ!Ĉ!ĈĈ!ĈĈ!Ĉ!ĈĈĈ!ĈĈĈĈ!ĈĈĈĈ": 1424,
      "ććĈ!ćĈ!ćČ": 1425,
      "ďĉ!ďĉďĉďĉďĉďĉďĉ!!": 1426,
      "ććĈ!Ĉ!Ĉ!ććĈ!Ĉ!Ĉ!ĈĈ!Ĉ!!ćĈ!Ĉ!Ĉ!Ĉ!ćĈ!ććĈ!": 1427,
      "!!!!!!!!!ććććĈ!ĈĈ%&'(ďĉ!!!!!!!!!!!!!!!!!!!!!!!!!!!!)!)!!!!!!!!!!!!!!!!!!!!!!!!!!!!!!!!)!)!!": 1428,
      "ďĉďĉďĉď%&'(ĉ": 1429,
      "ćććĈ!Ĉ!ćĈ!Ĉ!ćĈ!ćĈ!ćĈ!ĈĈ!Ĉ!": 1430,
      "ďĉ!!!!!!!!!!!!!!!!!!ďĉ!!!!!!!!!!!!!!!!!!!ďĉ!!!!!!!!": 1431,
      ")ććććććććććććĈ!ććĈ!ćĈ!ćĈ!Ĉ!Ĉ!ćĈ!Ĉ!": 1432,
      "ćďĉďĉďĉćĈ!Ĉ!Ĉ!Ĉ!": 1433,
      "ďĉ!!ďĉ!ććĈ!ďĉ!ďĉďĉ!!": 1434,
      "ćĈ!%&'(ďĉ": 1435,
      "ććććĈ!Ĉ!Ĉ!Ĉ!Ĉ!ĈĈ!Ĉ!": 1436,
      "!!!!!!!!!!!!!!!!!!!!!!!!!!!!!!!!!!!!!!!ďĉ!ďĉ!!!!!!!!!!!": 1437,
      "ććĈ!ćććĈ!ćććĈ!ćććĈ!Ĉ!Ĉ!ďĉćć": 1438,
      "Ĉ!Ĉ!Ĉ!!ćĈĈĈĈ!Ĉ!ćĈ!Ĉ!ćĈĈĈćĈ!ĈĈĈĈĈ!Ĉ!ćĈ!ććĈ!ćĈ!ććĈ!ćĈććĈ!ćĈ!ćĈ!ĈćĈĈ": 1439,
      "ććććććććĈ!Ĉ!ćĈĈćĈ!ĈĈćĈ!ćĈĈćĈ!Ĉ!": 1440,
      "Ĉ!Ĉ!Ĉ!ĈćĈĈ!Ĉ!ĈćĈĈ!ćĈ!Ĉ!ĈĈĈĈćĈĈĈĈ": 1441,
      "%&'(ďĉĈ!Ĉ!Ĉ!Ĉ!Ĉ!Ĉ!": 1442,
      "ćĈ!Ĉ!ĈćĈ!ć": 1443,
      "ĉĉĉĉĉĉĉĉ": 1444,
      "%!!!!&'(!!!!!!!!!!!!!!!!!!!!!!!!!!!!!!!!!!!!!!!!!!!!!!!!!!!!!!!!!!!!!!!!": 1445,
      "Ĉ!ĈćĈ!Ĉ!Ĉ!ĈćĈ!ććďĉ!Ĉ!ĈćĈ!Ĉ!Ĉ!ĈćĈ!ćć": 1446,
      "ďĉććĈ!ćććĈćććĈĈ!Ĉ!ćĈ!ććĈćĈ!ćĈ!!Č!!Č!": 1447,
      "Ĉ!Ĉ!ĈĈĈ!Ĉ!Ĉ!Ĉ!ĈĈĈĈĈ!ĈĈĈĈ!ĈĈĈĈĈĈĈĈĈĈĈĈ!Ĉ!ĈĈĈĈĈĈĈĈĈĈĈĈĈĈĈĈĈĈĈĈĈĈĈĈ!ĈĈĈĈĈĈĈĈĈĈĈĈĈĈĈĈĈĈĈĈĈĈĈ": 1448,
      "ććććĈ!ćĈ!Ĉ!Ĉ!ćĈ!Ĉ!Ĉ!Ĉ!ćĈ!Ĉ!Ĉ!Ĉ!ćĈ!Ĉ!ćĈ!ĈćĈ!Ĉ!": 1449,
      "ćĈ!Ĉ!Ĉ!Ĉ!ĈĈ!Ĉ!Ĉ!Ĉ!": 1450,
      "%!!!!!!!!!!!!!!!!!!!!!!!!": 1451,
      "ďĉďĉďĉďĉďĉďĉ!%&'(%&'(": 1452,
      "2323232222222222222222222222222222222222222222244444444%&5555555522222222222222222222222266666666": 1453,
      "ććććĈ!ćĈ!Ĉ!Ĉ!Ĉ!ćĈ!ĈĈćĈ!ćĈ!Ĉ!Ĉ!ćĈ!ćĈ!Ĉ!ćĈĈćĈ!Ĉ!ććĈ!ĈĈćĈćĈćĈ!Ĉ!ĈćĈĈ": 1454,
      "ďĉďĉ!ďĉ!)ďĉďĉďĉć": 1455,
      "ććĈ!Ĉ!ĈĈĈ!Ĉ!Ĉ!ĈĈćĈďĉ!!ďĉďĉ!!!)!)": 1456,
      "ďĉćĈ!": 1457,
      "ďĉ!ćĈ!ćĈ": 1458,
      "ďĉďĉďĉďĉďĉďĉćďĉ!ďĉ": 1459,
      "ć%&'(ďĉ!!!!!!!!!": 1460,
      "ĈĈĈĈĈĈĈĈĈĈĈĈĈĈĈĈĈĈĈĈĈĈĈĈĈĈĈĈĈĈĈĈĈĈĈĈĈĈĈĈĈĈĈĈĈĈĈĈĈ!Ĉ!ĈĈĈĈĈ!Ĉ!Ĉ!": 1461,
      "ćĈ!ćĈ!Ĉ!Ĉ!ćĈ!Ĉ!ćĈ!Ĉ!Ĉ!Ĉ!ćĈ!Ĉ!ćĈ!ćĈ!ćĈ!ćĈ!Ĉ!Ĉ!Ĉ!Ĉ!Ĉ!Ĉ!Ĉ!Ĉ!ĈĈ!": 1462,
      "ćććĈ!Ĉ!ććĈ!ćĈ!ćČ": 1463,
      "ďĉ!!ďĉ!ďĉďĉďĉ!": 1464,
      "ćććĈ!Ĉ!Ĉ!Ĉďĉ!!!!!ďĉ!)!)!!!!!!!!!!!!!!": 1465,
      "ćĈ!ĈĈĈ!ĈĈćĈ!Ĉ!Ĉ!ćĈćĈĈĈĈĈćĈĈćĈćĈćĈćĈĈĈćĈĈĈĈĈĈ": 1466,
      "ććĈ!ćĈ!ććĈ!ćĈ!ćĈ!ććĈćĈ!Ĉ!Ĉ!Ĉ!ćĈ!ććĈĈĈĈĈĈćĈ!ććĈćĈ!ćĈ!Ĉ!": 1467,
      "ćďĉďĉďĉďĉ": 1468,
      "ďĉďĉďĉ%&'(Ĉ!Ĉ!ĈĈ!Ĉ!ĈĈĈĈ!Ĉ!ĈĈ!Ĉ!Ĉ!!": 1469,
      "ćććććććĈ!Ĉ!ćĈ!ĈćĈĈ!Ĉ!ćĈ!ĈĈ!ććĈ!ćĈ!ććĈćĈććć!!": 1470,
      "ćććĈ!Ĉ!Ĉ!Ĉ!Ĉ!Ĉ!ćĈ!Ĉ!Ĉ!Ĉ!ćĈ!Ĉ!Ĉ!Ĉćć": 1471,
      "L!": 1472,
      "ďĉďĉďĉďĉ!!!!ďĉ!!": 1473,
      "Ĉ!Ĉ!ĈĈĈĈĈĈĈĈĈĈĈĈĈĈĈĈĈĈĈĈĈĈĈĈďĉ!": 1474,
      "ćĈ!Ĉ!Ĉ!Ĉ!Ĉ!Ĉ!ĈćĈĈĈĈ!ĈććĈ!ććććĈć!!": 1475,
      "ćććĈ!Ĉ!ćććĈĈćĈ!ĈĈĈ!!ćććć!!!!!!!!!!!!!!!!!!!!%&'(%&'(": 1476,
      "Ĉ!ĈĈćďĉďĉďĉďĉďĉďĉďĉ!ďĉ!ďĉďĉďĉ!": 1477,
      "ĈĈĈĈĈĈĈĈĈĈĈĈĈĈ!Ĉ!Ĉ!Ĉ!ĈĈĈĈĈ!Ĉ!Ĉ!Ĉ!Ĉ!Ĉ!ĈĈ!ĈĈ!ĈĈ!ĈĈĈ!ĈĈĈĈĈ!ĈĈĈĈĈĈ!Ĉ!ĈĈ!ĈĈĈĈ!ĈĈĈĈĈĈĈĈ%&'(ďĉ": 1478,
      "LK": 1479,
      "Ĉ!Ĉ!Ĉ!Ĉ!Ĉ": 1480,
      "ďĉďĉďĉďĉďĉďĉďĉ)!": 1481,
      "ďĉ!!!!!!!!!!!)!!!!!!!!!!!!!!!": 1482,
      "ďĉďĉďĉ!ďĉďĉćććććĈ!Ĉ!ćĈĈ": 1483,
      "ćĈ!Ĉ!ććĈćĈ!ĈĈĈĈĈĈćĈ!ććĈććĈ!ćĈ!ĈććĈĈ!Ĉ!ĈĈĈ!ććĈ!Ĉ!Ĉ": 1484,
      "ććĈ!Ĉ!ćĈĈ!ćĈ!Ĉ!Ĉ!Ĉ!Ĉ!ĈĈĈćĈ!Ĉ!Ĉ!": 1485,
      "ďĉďĉďĉ!!ďĉ!ććĈ!Ĉ!Ĉ!Ĉ!Ĉ!ďĉďĉ!ďĉćććććĈ!Ĉ!Ĉ!Ĉ!Ĉ!Ĉ!ďĉ!%&'(ďĉ!!ďĉ!ďĉďĉ!": 1486,
      "Ĉ!ĈĈĈ!ĈĈĈĈĈĈĈĈĈĈĈĈĈĈĈĈĈĈ!ďĉ!!ďĉ!ďĉ!!!": 1487,
      "ďĉďĉ%ď&'(ĉ": 1488,
      "ććĈ!%&'(": 1489,
      "ććĈ!Ĉ!ććĈ!ććććĈćĈćĈćĈććććĈ!Ĉ!ććĈ!ĈććććĈćĈćĈćĈćĈćĈćĈćĈćĈćĈ": 1490,
      "RTVa!!!SĂĄĆ": 1491,
      "ďĉďĉďĉćććĈ!Ĉ!Ĉ!ĈĈ!Ĉ!ćĈ!Ĉ!Ĉ!ĈćĈ!Ĉ!Ĉ!Ĉ": 1492,
      "ććććĈćććĈ!Ĉ!Ĉ": 1493,
      "%&'(ďĉďĉ!!!": 1494,
      "Ĉ!Ĉ!Ĉ!Ĉ!ććĈćć": 1495,
      "ćĈ!ĈĈ!ĈĈ!ĈĈ!ĈĈĈĈĈĈĈĈĈĈĈĈĈĈĈĈĈĈĈĈĈĈĈĈĈĈĈĈ!Ĉ!Ĉ!Ĉ!ĈĈĈĈĈĈĈĈĈ!Čďĉ!ćććććććĈ!Ĉ!ććććććĈ!ćĈĈ%&'(ďĉďĉĈ!ĈĈďĉ!!": 1496,
      "ďĉ!!!ćććććĈ!ĈĈ!ĈĈĈ!Ĉ!Ĉ!Ĉ!Ĉ!Ĉ!Ĉ!Ĉ!Ĉ!Ĉ!Ĉ!Ĉ!ćĈ!ďĉ!ďĉ!!!!!!!!!!!!!!!!": 1497,
      "ćĈ!Ĉ!Ĉ!ććĈ!ćĈ!Ĉ!Ĉ!ćĈ!Ĉ!ćĈ!ćĈ!ćĈ!ćĈćĈ!Ĉ!ĈĈćĈćĈĈĈĈĈĈĈĈĈĈĈĈ": 1498,
      "ďĉ!ďĉ!!!!!!ďĉďĉ!!": 1499,
      "ćĈ!Ĉ!ćĈĈ!ćĈ!ćĈ!Ĉ": 1500,
      "%!!!!!&'(!!!!!!!!!!!!!!!!!!!!!!!!!!!!!!!!!!!!!!!!!!!!!!!!!!!!!!!!!!!!!!!!": 1501,
      "Ĉ!Ĉ!Ĉ!Ĉ!!Ĉ!Ĉ!Ĉ!Ĉ!!Ĉ!Ĉ!Ĉ": 1502,
      "ćććĈĈććććććĈ!ćĈĈ": 1503,
      "%!!!!!!!!!!!!!!!!!!!!&'(!!!!!!!!!!!!!!!!!!!!!!!!!!!!!!!!!!!!!!!!!!!!!!!!!!!!!!!!!!!!!!!!": 1504,
      "ďĉďĉďĉ!!!!!": 1505,
      "ďĉ!ďĉďĉ!ďĉ": 1506,
      "Ĉ!ĈĈ!ćĈ!ĈĈ!Ĉ!Ĉ!ćĈ!ćĈ": 1507,
      "Ĉ!Ĉ!Ĉ!Ĉ!Ĉ!Ĉ!Ĉ!ĈĈĈĈĈĈĈ!ĈĈĈĈĈĈĈĈĈĈĈĈĈĈĈĈĈĈĈĈ!": 1508,
      "ććďĉďĉ)": 1509,
      "!!!!ďĉ!!)ďĉďĉ!": 1510,
      "ćďĉ#$ćĈ!ćć": 1511,
      "ććććććććććććććććććććććććććĈ!": 1512,
      "ćĈ!Ĉ!ĈćĈ!ďĉćććććććĈ!ćĈ!": 1513,
      "Ĉ!ďĉďĉćĈ!ďĉ!": 1514,
      "ďĉďĉ!!ďĉ!!!!ďĉďĉďĉďĉ": 1515,
      "Ĉ!Ĉ!ĈĈĈĈĈĈćĈ!ĈĈĈ%&'(ďĉ%&'(%&'(%&'(ďĉďĉďĉďĉ!ďĉďĉ%!!!&'(": 1516,
      "ćććććĈ!Ĉ!Ĉ!Ĉ!Ĉ!Ĉ!ćĈ!Ĉ!Ĉ!ćĈ!Ĉ!ćĈ!Ĉ!Ĉ!ćĈ!Ĉ!ćĈ!ćĈ!ćĈ!ćĈ!Ĉ!Ĉ!Ĉ": 1517,
      "ĂĄĆ!!!!R!!!S": 1518,
      "ćĈ!Čďĉďĉ!": 1519,
      "ďĉďĉďĉ!!!!!!!!!!": 1520,
      ")!)!!!!!!!!!!!!!!!!!!!!!!!!!!!!!!!!!!!!": 1521,
      "ďĉďĉ!ďĉďĉďĉ!!ďĉ!!!!": 1522,
      "ćććććććććććĈ!ĈćĈ!Ĉ!ĈćĈ!ć": 1523,
      "ďĉďĉ!!ďĉ!!ďĉďĉćććĈ!Ĉ!Ĉ!Ĉ!Ĉ!Ĉ": 1524,
      "R%&'(": 1525,
      "Ĉ!Ĉ!ĉ": 1526,
      "!!!!!!!!!ďĉ!!!!!!!!!!!)!!!!!!!!!!!!!!!": 1527,
      "ďĉ!ďĉ!!ďĉďĉ!!ďĉ!!!!!!)!!!!!!!!)": 1528,
      "ďĉ!!!!!!!!!!!!!!!!!!!!!": 1529,
      "ććĈ!Ĉ!Ĉ!Ĉ!Ĉ!Ĉ!ćĈćĈ!ććććććĈ!ćĈ!ććĈćććĈćććĈĈćĈćĈ!Ĉ!ćĈ!ĈćĈćĈćĈćĈ!Ĉ!ĈćĈ!Ĉ!": 1530,
      "ćććĈĈ!ćĈ!Ĉ!ĈćĈĈĈćĈĈĈćĈĈćććććďĉďĉďĉĈ!ĈĈĈĈ": 1531,
      "!!!!!!!!!!!!!!!!!!!!!!!!!!!!!!!!!!!!!!!!!!!!!!!!!!": 1532,
      "Ĉ!ďĉ!ďĉďĉďĉďĉďĉ!": 1533,
      "ćććććććĈ!ćĈ!Ĉ!Ĉ!Ĉ!Ĉ!ćĈ!Ĉ!ćĈććĈćďĉ": 1534,
      "ďĉďĉ!ďĉ%&'(ćććććććććććććććć": 1535,
      "ďĈ": 1536,
      "ďĉ!ďĉ!!ďĉ": 1537,
      "ććĈ!Ĉ!Ĉ!Ĉ!Ĉ!Ĉ!Ĉ!ĈĈćĈ": 1538,
      "ćĈ!ćĈ!Ĉ!Ĉ!ćĈ!Ĉ!Ĉ!ćĈ!Ĉ!": 1539,
      "ďĉ!ďĉ!!!!!!ďĉďĉ!!!!": 1540,
      "ćććĈ!Ĉ!ćĈ!Ĉ!ĈĈ!Ĉ!ĈćĈĈĈĈĈ!Ĉ!Ĉ!Ĉ!Ĉ!Ĉ!ĈĈĈ!Ĉ!ĈĈĈĈ": 1541,
      ")!)!!Ĉ!Ĉ!ĈĈ": 1542,
      "Ĉ!ĈĈ!ĈĈĈćĈĈĈćĈ!ĈĈĈĈ!ĈĈ!Ĉ": 1543,
      "ććććĈ!Ĉ!ćĈ!ćĈ!Ĉ!ććĈ!ĈććĈ!Ĉ!ćĈ!ćĈ!Ĉ!Ĉ!ćĈĈ!": 1544,
      "Ĉ!Ĉ!Ĉ!ćĈ!Ĉ!ćĈ!ćĈ!ćĈ!ćĈ!ćĈ!Ĉ!Ĉ!Ĉ!Ĉ!Ĉ!ćĈ!Ĉ!ććĈ!": 1545,
      "ććĈ!Ĉ!ĈĈĈ!!ćĈ!Ĉ!Ĉ!Ĉ!ćďĉďĉ!!": 1546,
      "ćĈ!Ĉ!ćĈ!ćĈ!ćĈ!Ĉ!ććććĈ!ććĈ!ć!ďĉ": 1547,
      "ćĈ!ćĈ!Ĉ!ććĈ!Ĉ!Ĉ!Ĉ!ćĈĈĈ!Ĉ!ćĈ!Ĉ!ĈĈĈ!ĈĈĈććĈ!ćĈćĈĈĈ!ĈćĈĈĈĈĈĈĈĈććĈćĈĈ!ććĈĈĈĈćĈĈĈĈćĈĈĈĈĈĈĈĈććĈ": 1548,
      "ďĉďĉďĉďĉďĉďĉďĉ%&'(": 1549,
      "!!!!!!!!!!!!!!!!!!!!!!!!!!!!!!!!!!!!!!!!!!!!!!!!!!!!!!!!!!!!!!!!!!!!!!!!!!!!!!!!!": 1550,
      "%!Ĉ&'(!": 1551,
      "323": 1552,
      "ďĈ!ĉ": 1553,
      "ďĉďĉďĉ!ďĉ!ďĉ!": 1554,
      "ďĉ!!ďĉ!!!!!!!!!!!ďĉ!!ćććććććĈ!Ĉ!Ĉ!ććĈĈććĈ!ćĈĈ": 1555,
      "ĈĈĈ!ĈĈĈĈ!ĈĈ!Ĉ!Ĉ!Ĉ!ĈĈĈ!Ĉ!ĈĈ!ĈĈ!Ĉ!Ĉ!Ĉ!Ĉ!Ĉ!ĈĈĈĈ!ĈĈĈĈĈĈĈ!Ĉ!Ĉ!ĈĈ!Ĉ": 1556,
      "ććććććĈ!Ĉ!": 1557,
      "%!!!!!!!!!!!!!!!!!!!!!!!!!": 1558,
      "ďĉćĈ!Ĉ!Č": 1559,
      "ćĈ!Ĉ!Ĉ!Ĉ!Ĉ!Ĉ!Ĉ!Ĉ!Ĉ!Ĉ!ďĉďĉ!ďĉ%&'(ćććććććććććććććć": 1560,
      "ďĉććććććĈ!ććĈ!ććĈ!Ĉ!Ĉ!Ĉ!ćććĈ!Ĉ!Ĉ!ććĈćĈ!Ĉ!ĈćĈ!Ĉ!ćĈ!ććĈĈĈĈĈćĈćĈ": 1561,
      "ćďĉďĉďĉďĉ!ććĈ!Ĉ!Ĉ!Ĉ!Ĉ": 1562,
      "!!!!!!!!!!!!!!ďĉďĉďĉďĉććććĈ!ćĈ!Ĉ!Ĉ!Ĉ!ćĈ!ĈĈćĈ!ćĈ!Ĉ!Ĉ!ćĈ!ćĈ!Ĉ!ćĈĈćĈ!Ĉ!ććĈ!ĈĈćĈćĈćĈ!Ĉ!ĈćĈĈ": 1563,
      "ććĈ!ććĈ!ćĈ!Ĉ!ćĈććĈ!Ĉ!%&'(ďĉĈ!Ĉ!Ĉ!Ĉ!Ĉ!Ĉ!": 1564,
      "Ĉ!ćĈ!ćĈ!Ĉ!Ĉ!": 1565,
      "ďĉďĉ%&'(ďĉ": 1566,
      "!!!!!!!!!!!ďĉ!!!!!!!!!!!!!!!!!!!!!!!!!!!!!!!!!!!!!!!!!!!!!!!!!!!!!!!!!!!!!!!!": 1567,
      "00110101": 1568,
      "!!!!!!!!!!!!!!!!!!!!!Ĉ!Ĉ!Ĉ": 1569,
      "ććććĈćĈććĈ!ćĈ!Ĉ!Ĉ!Ĉ!ćĈ!Ĉ!ćĈ!ćĈ!Ĉ!ćĈ!ĈćĈ!ĈĈ!ĈćĈćĈćĈćććĈćĈćććĈćĈ": 1570,
      "ďĉďĉďĉ!ďĉďĉďĉ!!ďĉďĉďĉďĉ!": 1571,
      "ććĉ": 1572,
      "ćĈ!ĉ": 1573,
      "ďĉďĉďĉďĉďĉ!!ďĉ!!ďĉďĉďĉ)!)": 1574,
      "LLLLLLLLLLLLLLLLLLLLLLLLLLLLLLLL": 1575,
      "%ćĈ&'(": 1576,
      "ćďĉ!!!!": 1577,
      "%!!!!!!!!!!!!!!!!!!!!!&'(!!!!!!!!!!!!!!!!!!!!!!!!!!!!!!!!!!!!!!!!!!!!!!!!!!!!!!!!!!!!!!!!": 1578,
      "ćďĉďĉ%&'(": 1579,
      "ćććććććććććććććććććććććććććććććććććććććć": 1580,
      "Ĉ!Ĉ!Ĉ!ćĈ!Ĉ!Ĉ!": 1581,
      "!!!!!!!!!!!!!!!!!!!!!!!!!!!!!!!!!!!!!!!!!!!!!!!!!!!!!!!!!!!!!!!!!!!!!!!!!!!!!": 1582,
      "ćććĈ!Ĉ!Ĉ!ćĈĈĈĈ!": 1583,
      "ďĉďĉďĉ!ďĉ!%&'(": 1584,
      "&'(!!!!!!!!!!!!!!!!!!!!!!!!!!!!!!!!!!!!!!!!!!!!!!!!!!!!!!!!!!!!!!": 1585,
      "(788888888,-%&+": 1586,
      ")!)!!Ĉ!Ĉ!ĈĈ!!!!!": 1587,
      "%!!&'(!!!!!!!!!!!!!!!!": 1588,
      "!!!!!!!!!!!ďĉćććĈ!Ĉ!Ĉ!Ĉ": 1589,
      "ćĈ!ĈĈĈ!ĈĈćĈ!Ĉ!Ĉ!ćĈćĈĈĈĈĈćĈĈćĈćĈćĈćĈĈĈćĈĈĈĈĈĈćĈ!Ĉ!": 1590,
      "ĈĈĈ!ĈĈĈĈ!ĈĈ!Ĉ!Ĉ!Ĉ!ĈĈĈ!Ĉ!ĈĈ!ĈĈ!Ĉ!Ĉ!Ĉ!Ĉ!Ĉ!ĈĈĈĈ!ĈĈĈĈĈĈĈ!Ĉ!Ĉ!ĈĈ!Ĉ%&'(ďĉĈ!Ĉ!Ĉ!Ĉ!": 1591,
      "ďĉďĉćĈ!ĈĈ!ĈĈĈĈ!Ĉ!Ĉ!ĈĈĈĈĈĈĈĈ!ĈĈĈĈĈ": 1592,
      "Ĉ!Ĉ!Ĉ!Ĉ!Ĉ!Ĉ!ćďĉďĉďĉćĈ!Ĉ!Ĉ!Ĉ!": 1593,
      "ď%ĉ&'(!": 1594,
      "ćććććďĉ!ććććĈćććĈ!Ĉ!Ĉ": 1595,
      "ďĉďĉ%&'(!ďĉďĉďĉ!!ďĉďĉćĈ!Čďĉďĉďĉ!ďĉďĉ!ďĉďĉďĉ!ďĉďĉ!": 1596,
      "ćććććććććććĈ!ĈćĈ!Ĉ!ĈćĈ!ćďĉďĉ!!ćććĈ!Ĉ!ćĈ!Ĉ!ĈĈĈĈ!ććĈ": 1597,
      "ďĉďĉďĉĈ!Ĉ!Ĉ!Ĉ!Ĉ!ćĈ!ĈĈĈĈ": 1598,
      "ćĈ!ĈćĈćĈćĈćććĈĈĈĈĈććĈĈććĈćććĈćĈćĈćĈćĈĈćĈĈćĈćĈćĈ": 1599,
      "ďĉďĉ!ďĉďĉ%&'(ćĈ!Ĉ!Ĉ!Ĉ!Ĉ!Ĉ": 1600,
      ")ďĉďĉďĉďĉďĉďĉďĉ!": 1601,
      "MMM": 1602,
      "LLL!LK": 1603,
      "ďĉďĉďĉćďĉ!ďĉďĉďĉďĉ!!": 1604,
      "Ĉ!Ĉ!Ĉ!Ĉ!ĈćĈĈĈ!ĈĈĈćĈćĈĈĈĈĈĈĈćĈĈĈĈĈĈćĈćĈ!ćĈĈ!": 1605,
      "ďĉďĉďĉďĉďĉďĉ!!": 1606,
      "ďĉ!ďĉďĉďĉďĉďĉ": 1607,
      "ćďĉ!ďĉďĉďĉďĉďĉďĉďĉďĉ": 1608,
      "%!!!!!&'(": 1609,
      "ćĈ!ććĈ!Ĉ!ĈćĈ!ĈććĈĈĈćĈĈĈćĈ!ĈććĈĈĈćĈĈććĈĈĈćĈ!ĈćĈ!ććĈĈ!Ĉ!ĈĈćĈ!Ĉ!": 1610,
      "ćĈ!ćĈ!Ĉ!ćĈĈ!Ĉ!Ĉ!Ĉ!ćĈćĈĈćĈ!Ĉ!Ĉ!ćĈ!Ĉ!Ĉ!Ĉ!ćĈ!Ĉ!": 1611,
      "ćććĈ!Ĉ!ććĈ!ćĈ!ćČďĉ!!!": 1612,
      "!!!!!!!!!!!!!!!!!!!!!!!!!!!!!!!!!!!!!!!!!!!!!!!!!": 1613,
      "ďĉ%&'(ďĉďĉďĉďĉďĉďĉ!": 1614,
      "ďĉďĉ!ďĉ%&'(ďĉ": 1615,
      "ć'(": 1616,
      "!!!!!!!!ććĈ!Ĉ!ĈćĈĈĈććĈĈĈććĈ!Ĉ!Ĉ!Ĉ!Ĉ!Ĉ!ćĈĈ!Ĉ!Ĉ!ćĈĈĈććĈĈ!ćććĈ!ććĈ!ćĈ!ĈĈĈćć!!!!%&'(ďĉ!!ďĉ!!": 1617,
      "ćććĈ!ćĈ!Ĉ!Ĉ!ćĈ!Ĉ!ćĈ!Ĉ!Ĉ!Ĉ!ćĈ!Ĉ!ćĈ!ćĈ!ćĈ!ćĈ!Ĉ!Ĉ!Ĉ!Ĉ!Ĉ!Ĉ!Ĉ!Ĉ!ĈĈ!": 1618,
      "%!!!!!!!!!!!!!!!!!!!!!!!!!!": 1619,
      "ďĉ!!!!!!!!!!!!!!!!!!!!!!!!": 1620,
      "ďĉďĉďĉ%&'(ďĉďĉďĉ": 1621,
      "ććĈ!Ĉ!Ĉ!Ĉ!Ĉ!Ĉ!ććĈ!ć": 1622,
      "ćććććććĈ!ćČ": 1623,
      "ćććďĉććććććĈ!ććČ": 1624,
      "ććććĈ!ćĈ!Ĉ!Ĉ!Ĉ!Ĉ!Ĉ!Ĉ!Ĉ!Ĉ!!ćĈĈĈĈ!Ĉ!ćĈ!Ĉ!ćĈĈĈćĈ!ĈĈĈĈĈ!Ĉ!ćĈ!ććĈ!ćĈ!ććĈ!ćĈććĈ!ćĈ!ćĈ!ĈćĈĈ": 1625,
      ")!)!!!!!!!!!!!!!!!!!!!!!!!!!!!!!!!!!!!!!!!!!!!!!!!!!!!!!!!!!!!!!!!": 1626,
      "ćććĈ!Ĉ!Ĉ!ćĈ!Ĉ!Ĉ!Ĉ!Ĉ!!": 1627,
      "ďĉ%&'(ďĉďĉďĉ": 1628,
      "ďĉ!!ďĉ!ććĈ!ďĉ!ďĉďĉ!!ďĉďĉ)ďĉďĉ!": 1629,
      "ćććććĈ!ĈĈćĈĈćĈ": 1630,
      "!!!!!!!!!!!!!!!!!!!!!!!!!!!!!!!!!!!!!!!!!!!!!!!!!!!": 1631,
      "ććććććĈ!ććĈ!Ĉ!Ĉ!ĈćĈ!Ĉ!ĈćĈććĈĈ!ĈĈĈ": 1632,
      "ďĉćććďĉ!": 1633,
      "ćĈ!ćĈ!ćĈ!ćĈ!ćĈ!Ĉ!ćĈ!ćĈ!Ĉ!Ĉ!ćĈ!Ĉ!Ĉ!ććĈ!Ĉ!Ĉ!ĈćĈ!Ĉ!ććĈ!ććĈ!ćĈ!Ĉ!ćĈććĈ!Ĉ!%&'(ďĉĈ!Ĉ!Ĉ!Ĉ!Ĉ!Ĉ!": 1634,
      "ďĉ!ďĉććććĈ!ćĈ!ĈĈ!ććĈ!ćĈ!ĈĈ!ćĈ!Ĉ!ćĈ!ďĉ!": 1635,
      "ćć%&'(": 1636,
      "ć%&'(ďĉďĉ": 1637,
      "ćććććććĈ!Ĉ!Ĉ!ćĈ!Ĉ!Ĉ!ćďĉ!": 1638,
      "ććĈ!ćĈ!ććĈ!ćĈ!ćĈ!ććĈćĈ!Ĉ!Ĉ!Ĉ!ćĈ!ććĈĈĈĈĈĈćĈ!ććĈćĈ!ćĈ!Ĉ!ćĈ!ććĈććĈ!!!!!!ďĉćć": 1639,
      "!!!!!!!!!!!!!!!!!!!!!!!!!!!!!!!!!!!!!!!!!!!!!!!!!!!!!!": 1640,
      "ďĉďĉďĉ!!ďĉďĉ!ďĉ!!": 1641,
      "ďĉ!ďĉďĉďĉćĈ!Ĉ!Ĉ!Ĉ!ĈĈ!Ĉ!Ĉ!Ĉ!": 1642,
      "ďĉ!ďĉĈ!Ĉ!ćĈ!Ĉ!ĈĈĈďĉ!ďĉ!!!SĂĄĆ!!ďĉ!!!!!!": 1643,
      "ďĉ!!ďĉ!ďĉďĉďĉ!ďĉ!!!!!": 1644,
      "ďĉ!!ďĉďĉďĉ!": 1645,
      "ćďĉćĈ!ććĈ!ćĈ!Ĉ": 1646,
      "%!!!!!!!!!!!!!!!!!!!!!!!&'(!!!!!!!!!!!!!!!!!!!!!!!!!!!!!!!!!!!!!!!!!!!!!!!!!!!!!!!!!!!!!!!!": 1647,
      "ććććććććĈ!ćććĈ!Ĉ!ćĈ!ďĉ": 1648,
      "Ĉ!Ĉ!Ĉ!ĈćĈĈ!Ĉ!ĈćĈĈ!ćĈ!Ĉ!ĈĈĈĈćĈĈĈĈćĈĈćĈĈĈĈĈĈćĈĈĈĈćĈĈćĈĈćĈ!ćććĈ!ćć": 1649,
      "ćďĉ!ďĉďĉ!!": 1650,
      "!!!!!!!!!!!!!!!!!!!!!!!!!!!!!!!!!!!!!!!!!!!!!!!!!!!!!!!!!!!!!!!!!!!!!!!!!!!!!!": 1651,
      "%&'(ďĉďĉ!!!ćććććĈ!ćĈ!ććććĈ!ććĈ!ćććĈ!ćććĈ": 1652,
      "ďĉ!!ďĉ!!!!!!!!!!!ďĉ!!ćććććććĈ!Ĉ!Ĉ!ććĈĈććĈ!ćĈĈ%&'(ďĉďĉ!!!ćććććĈ!ćĈ!ććććĈ!ććĈ!ćććĈ!ćććĈ": 1653,
      "!!!!!!!!!!!!ďĉ!ďĉ!!!!!!ďĉďĉ!!": 1654,
      "ďĉ!ďĉďĉćĈ!Ĉ!Ĉ!ććĈ!ćĈ!Ĉ!Ĉ!ćĈ!Ĉ!ćĈ!ćĈ!ćĈ!ćĈćĈ!Ĉ!ĈĈćĈćĈĈĈĈĈĈĈĈĈĈĈĈ": 1655,
      "ďĉ!!!!!!!!!!!!!!!!!!!!!!!!!!!!!!!!!!!!!!!!!!!!!": 1656,
      "%!!!!!!&'(": 1657,
      "ďĉ!ďĉ!ďĉ!ďĉ!ďĉ!ďĉ": 1658,
      "ďĉďĉďĉ!ďĉ!%&'(!!!!!!!!!!!!ďĉ!ďĉ!!!!!!ďĉďĉ!!": 1659,
      "ććććĈ!Ĉ!Ĉ!Ĉ!Ĉ!ĈĈ!Ĉ!ć": 1660,
      "ćĈ!ĈĈĈ!ĈĈćĈ!Ĉ!Ĉ!ćĈćĈĈĈĈĈćĈĈćĈćĈćĈćĈĈĈćĈĈĈĈĈĈćĈ!Ĉ!ć%&'(": 1661,
      "%!&'(!!!!!!!!!!!!!!!!": 1662,
      "ďĉďĉ!!ďĉ!ďĉ!!ďĉďĉďĉ!ďĉ": 1663,
      "00101": 1664,
      "ďĉ!ďĉććććććĈććĈ!": 1665,
      "ďĉ!!!!ďĉďĉďĉďĉďĉďĉďĉďĉďĉďĉ": 1666,
      "Ĉ!ĈĈćĈĈ!Ĉďĉ!!!!!!!!!!!!!!!!!!!!!!!!!!!!!!!!ďĉ!!!!!!!!!!!!!!!!!!ďĉ!!!!!!!!!!!!!!!!!!!ďĉ!!!!!!!!": 1667,
      "ďďĉĉ!": 1668,
      "RTVa!!!S": 1669,
      "ćďĉććććććććććććććććĈ!Ĉ!ćĈ!Ĉ!ĈĈ!ćĈ!ćććĈ!ććĈćĈ!ććĈćććĈ!Ĉ!Ĉ!Ĉ!ćććĈćĈ!ćĈ": 1670,
      "ďĉďĉďĉďĉ%&'(ďĉďĉďĉďĉ": 1671,
      "ďĉďĉ!ďĉďĉďĉ": 1672,
      "!!!!!!!!!ďĉ!!!!!!!!ďĉďĉďĉ!ďĉ!%&'(!!!!!!!!!!!!ďĉ!ďĉ!!!!!!ďĉďĉ!!": 1673,
      "ďĉ!!ďĉďĉďĉďĉďĉ!!ďĉ!ďĉ!ďĉďĉďĉ!": 1674,
      "ćĈ!ĈĈĈ!ĈĈćĈ!Ĉ!Ĉ!ćĈćĈĈĈĈĈćĈĈćĈćĈćĈćĈĈĈćĈĈĈĈĈĈćĈ!Ĉ!ć%&'(ďĉ!!ďĉ!ďĉďĉďĉ!ďĉ!!!!!": 1675,
      "ć%&'(ďĉĈ!ćĈ!Ĉ!Ĉ!ćĈ!Ĉ!Ĉ!ĈĈ!": 1676,
      "ććĈ!Ĉ!Ĉ!Ĉ!Ĉ!ĈĈ!ćĈ!ćĈ!ćĈćĈ!ćĈ!ćĈćĈ!ćĈćĈ!ććĈćĈ!ćĈćĈ!Ĉ!ććĈćĈ!ĈĈĈĈĈĈćĈ!ććĈććĈ!ćĈ!ĈććĈĈ!Ĉ!ĈĈĈ!ććĈ!Ĉ!Ĉ": 1677,
      "Ĉ!ďĉ!ďĉďĉďĉďĉďĉ!ďĉďĉďĉ!!)!)!!!!!!!!!!!!!!!!!!!!ďĉ!!!!!!!!!!!!!!!!!!!!!!!!!!!!!!!!!!!": 1678,
      "ćď%&'(ĉ": 1679,
      "ďĉďĉďĉďĉďĉćććććĈ!Ĉ!ćĈ!Ĉ!ćĈ!Ĉ!Ĉ!Ĉ!Ĉ!ćĈ!ćĈ!ćĈ!ćĈ!ćĈ!Ĉ!ćĈ!ćĈ!Ĉ!ćĈĈćĈ!ĈććĈ!ĈćĈćĈćĈ!ĈćĈĈ": 1680,
      "ćććććććććććĈ!ćĈ!!ććĈ!ććĈ!ćĈ!Ĉ!Ĉ!Ĉ!Ĉ!Ĉ!ĈćĈĈĈĈ!ĈććĈ!ććććĈć!!": 1681,
      "ē!": 1682,
      "ććĈ!ďĉ!ďĉ!!ćĈ!": 1683,
      "ćććĈ!Ĉ!Ĉ!Ĉ!Ĉ!Ĉ!Ĉ!Ĉ!Ĉ!Ĉ!": 1684,
      "ďĉďĉďĉ!ďĉďĉ!ďĉďĉ!!ďĉ!!ďĉďĉćććĈ!Ĉ!Ĉ!Ĉ!Ĉ!Ĉ": 1685,
      "ďĉďĉďĉďĉďĉ!!ďĉ!!!!": 1686,
      "ďĉďĉćććććććć": 1687,
      "!!!!!!!ďĉ!!ďĉďĉ!!!ďĉďĉďĉďĉďĉ!ďĉ": 1688,
      "ďĉďĉ%&'(!ďĉďĉďĉ!!ďĉďĉćĈ!Čďĉďĉďĉ!ďĉďĉ!ďĉďĉďĉ!ďĉďĉ!ďĉďĉďĉ": 1689,
      "ćććććĈ!ĈĈćĈĈćĈďĉćććććććć": 1690,
      "!!!!!!!!!!!!!!!!!!!!!!!!!!!!!!!!!!!!!!!!!!!!!!!!!!!!!!!!!!!!!!!!!!!!!!!!!!!!": 1691,
      "ďĉďĉďĉ!ććĈ!ć": 1692,
      "&'(!!!!!!!!!!!!!!!!!!!!!!!!!!!!!!!!!!!!!!!!!!!!!!!!)!)!!!!!!!!ďĉ!ďĉďĉ": 1693,
      "ďĉ!)!)!!!!!!!!!!ďĉ!!!!!!ćććĈ!Ĉ!Ĉ!Ĉďĉ!!!!!ďĉ!)!)!!!!!!!!!!!!!!": 1694,
      "7'7777": 1695,
      "ďĉďĉďĉ%ď&'(ĉ": 1696,
      "7'777777": 1697,
      "ć%Ĉ&'(": 1698,
      "ħ)": 1699,
      "%&'(ďĉďĉ!!!!ďĉ!!)ďĉďĉ!": 1700,
      "ćĈ!Ĉ!Ĉ!Ĉ!Ĉ!Ĉ!ĈĈďĉ!!!": 1701,
      "R%&'(TVa": 1702,
      "ć)": 1703,
      "%&'(ďĉďĉ!!": 1704,
      ")!)ďĉďĉďĉďĉďĉďĉ!!!ďĉ!!ďĉ!ďĉ!": 1705,
      "ćĈ!!": 1706,
      "Ĉ!)": 1707,
      "!!!!!!!!!!!!!!!!!!!!!!!!!!!!!!!!!!!!!!!!!!!!!!!!!!!!!!!!!!!!!!!!!!!!!!!!!!!!!!!": 1708,
      "ďĉ!ďĉďĉ!ďĉ!ďĉďĉďĉ!": 1709,
      "ćććĈ!Ĉ!Ĉ!Ĉ!ĈĈĈĈĈĈĈĈĈĈ!ćĈ!Ĉ!ĈćĈĈćĈćĈĈĈćĈĈďĉĈ!ĈĈĈĈ": 1710,
      "ććĈ!ćććĈ!ćććĈ!ćććĈ!Ĉ!Ĉ!ďĉćććĈ!ć": 1711,
      "ćććććććĈ!ćČČ": 1712,
      "ďĉďĉćććĈ!Ĉ!Ĉ!Ĉ!Ĉ!Ĉ!ćććććĈ!ćĈĈ": 1713,
      "ďĉ%&'(Ĉ!Ĉ!ĈĈĈĈĈĈĈĈĈĈĈĈĈĈĈĈĈĈĈĈĈĈĈĈďĉ!": 1714,
      "ďĉďĉďĉďĉďĉďĉ!ďĉďĉ!ďĉďĉďĉ!!": 1715,
      "ććĈ!Ĉďĉ%&'(Ĉ!Ĉ!ĈĈĈĈĈĈĈĈĈĈĈĈĈĈĈĈĈĈĈĈĈĈĈĈďĉ!": 1716,
      "ćććććććććććććććĈ!Ĉ!Ĉ!ćĈ!Ĉ!Ĉ!Ĉ!Ĉ!ćĈ!Ĉ!ćĈ!ćĈ!ćĈ!ćĈ!ćĈ!Ĉ!Ĉ!Ĉ!Ĉ!Ĉ!ćĈ!Ĉ!ććĈ!": 1717,
      "ćććĈ!Ĉ!ćććĈĈćĈ!ĈĈĈ!!ćććć!!!!!!!!!!!!!!!!!!!!%&'(%&'(ďĉďĉďĉ": 1718,
      "ďĉďĉďĉďĉďĉďĉR%&'(TVa": 1719,
      "ďĉ!ďĉ!!!!!!!!!!!ďĉ!!ďĉďĉďĉďĉďĉďĉ!": 1720,
      "%&'(ďĉĈ!Ĉ!Ĉ!Ĉ!ĈĈĈĈĈĈĈĈĈĈĈĈĈĈ!Ĉ!Ĉ!Ĉ!Ĉ!ĈĈĈ!ĈĈ": 1721,
      "ćĈ!Ĉ!Ĉ!Ĉ!Ĉ!ĈĈĈ!Ĉ!ĈĈ!Ĉ!ĈĈ!Ĉ!ĈĈ!ĈĈ!Ĉ!ĈĈ!ĈĈ!Ĉ!ĈĈĈ!ĈĈĈĈ!ĈĈĈĈ%&'(ďĉĈ!Ĉ!Ĉ!Ĉ!ĈĈĈĈĈĈĈĈĈĈĈĈĈĈ!Ĉ!Ĉ!Ĉ!Ĉ!ĈĈĈ!ĈĈ": 1722,
      "ďĉ!ďĉ!!ďĉďĉ!!ďĉ!!!!!!)!!!!!!!!)ďĉďĉďĉ!!": 1723,
      "ĥ!": 1724,
      "77'7777": 1725,
      "ćďĉ!ććććććććĈ!Ĉ!ćĈĈćĈ!ĈĈćĈ!ćĈĈćĈ!Ĉ!": 1726,
      "ďĉ!!!!!!!!!!!!!!!!!!!!!!!!!!!!!!!!!!!!!!!!!!!!!!!!!!!!!!!!!!!!!!!!!!!!!": 1727,
      "ďĉďĉďĉďĉććććĈ!ĈĈ!ćĈ!ĈĈ!Ĉ!Ĉ!ćĈ!ćĈ": 1728,
      "77'77777": 1729,
      "ďĉďĉ!ďĉ!!!!!!!!ďĉďĉďĉďĉďĉććććĈ!ćĈ!ĈćĈĈ!Ĉ!Ĉ!Ĉ!ĈćĈĈćĈĈĈĈĈĈ!%&'(ďĉďĉďĉ!))ďĉ!ďĉďĉďĉďĉ": 1730,
      "%!!!!&'(": 1731,
      "ďĉďĉďĉďĉďĉ!)!)!ďĉďĉ!!!)!)!!": 1732,
      "Ĉ!ĈćĈ!Ĉ!Ĉ!ĈćĈ!ććďĉ!Ĉ!ĈćĈ!Ĉ!Ĉ!ĈćĈ!ććďĉďĉ!ďĉďĉ%&'(ćĈ!Ĉ!Ĉ!Ĉ!Ĉ!Ĉ": 1733,
      "FD": 1734,
      "!!!!!!!!!!!!ďĉ!!ďĉ": 1735,
      "ď%&'(ĉďĉďĉ": 1736,
      "ćďĉ!!!!ćďĉ!": 1737,
      "ďĉ!ďĉďĉďĉ%&'(": 1738,
      "ćĈ!Ĉ!Ĉ!Ĉ!Ĉ!Ĉ!Ĉ!Ĉ!ćĈ!ćĈ!Ĉ!ĈćĈ!Ĉ!ďĉćĈ!": 1739,
      "ďĉďĉďĉďĉďĉďĉR%&'(TVaďĉććĈ!ćććĈćććĈĈ!Ĉ!ćĈ!ććĈćĈ!ćĈ!!Č!!Č!": 1740,
      "ć%&'(Ĉ!Ĉ!Ĉ!Ĉ!Ĉ!Ĉ!": 1741,
      "!LK!LK!LK!LK!LK!LK!LK!LK!LK!LK!LK!LK!LK!LK!LK!LK": 1742,
      "ďĉďĉ!ďĉďĉ!!!ďĉćĈ!Ĉ!ććĈ!ććĈ!ĈĈ!ććĈ!Ĉ!Ĉ": 1743,
      "%!!!!!!!!!!!!!!!!!!!!!!!!!!!": 1744,
      "ďĉďĉ!ďĉ!)ďĉďĉďĉćďĉďĉ!ďĉďĉďĉ!!ďĉ!!!!": 1745,
      "ďĉďĉ!ďĉ%&'(ďĉĈ!ďĉ!ďĉďĉďĉďĉďĉ!ďĉďĉďĉ!!)!)!!!!!!!!!!!!!!!!!!!!ďĉ!!!!!!!!!!!!!!!!!!!!!!!!!!!!!!!!!!!": 1746,
      ")!!!": 1747,
      "ćďĉďĉ!ďĉďĉ": 1748,
      "ďĉ!!!!!!!!!": 1749,
      "%!!!!!!!!!&'(!!!!!!!!!!!!!!!!!!!!!!!!!!!!!!!!!!!!!!!!!!!!!!!!!!!!!!!!!!!!!!!!": 1750,
      "ćććććďĉ!ććććĈćććĈ!Ĉ!ĈćĈ!ć": 1751,
      "ďĉďĉďďĉĉ": 1752,
      "%&'(ďĉĈ!ćĈ!Ĉ!Ĉ!Ĉ!Ĉ!Ĉ!ćĈ!ćĈ!ćĈ!Ĉ!Ĉ!ćĈ!ĈĈĈćĈćĈćĈĈĈćĈ": 1753,
      "&'(!ďĉ!)!)!!!!!!!!!!ďĉ!!!!!!ćććĈ!Ĉ!Ĉ!Ĉďĉ!!!!!ďĉ!)!)!!!!!!!!!!!!!!": 1754,
      "ĈĈ!ĈććĈ!Ĉ!ĈĈ!ĈĈ!Ĉ!ćĈ!%&'(ďĉĈ!ćĈ!Ĉ!Ĉ!Ĉ!Ĉ!Ĉ!ćĈ!ćĈ!ćĈ!Ĉ!Ĉ!ćĈ!ĈĈĈćĈćĈćĈĈĈćĈ": 1755,
      "&'(!!!!!!!!!!!!!!!": 1756,
      "ďĉďĉďĉďĉďĉ!ďĉďĉďĉ!": 1757,
      ")ććććććććććććĈ!ććĈ!ćĈ!ćĈ!Ĉ!Ĉ!ćĈ!Ĉ!ćĈ!%&'(ďĉ": 1758,
      "ďĉďĉďĉďĉďĉďĉ!%&'(%&'(Ĉ!Ĉ!ĈĈĈĈĈĈćĈ!ĈĈĈ%&'(ďĉ%&'(%&'(%&'(ďĉďĉďĉďĉ!ďĉďĉ%!!!&'(": 1759,
      ")ććććććććććććĈ!ććĈ!ćĈ!ćĈ!Ĉ!Ĉ!ćĈ!Ĉ!ćĈ!%&'(ďĉććĈ!Ĉ!Ĉ!Ĉ!ćĈ!Ĉ!!Ĉ!ćĈ!ćĈ!ććĈ!Ĉ!": 1760,
      "ć%ć&'(": 1761,
      "!!!!!!!!!!!!!!!!!!!!!!!!!!!!!!!!!!!": 1762,
      "'7777777": 1763,
      "ććććĈ!ĈĈďĉ!!!!!!!!!!!": 1764,
      "Ē!!!": 1765,
      "ďĉ%&'(ďĉďĉďĉďĉďĉďĉ!ďĉďĉďĉďĉ!!": 1766,
      "ď%&'(ĉ!!": 1767,
      "&'(!!!!!!!!!!!!!!!!!!!!!!Ĉ!ďĉďĉćĈ!ďĉ!": 1768,
      "%&'(ćďĉ!": 1769,
      "Ĉ!Ĉ!ĈćĈ!Ĉ!Ĉ!Ĉ!Ĉ!Ĉ!Ĉ!Ĉ!Ĉ!Ĉ!ďĉďĉ!ďĉ%&'(ćććććććććććććććć": 1770,
      "010011": 1771,
      "!ďĉ!!!!!!!!!!!!!!ďĉďĉďĉďĉććććĈ!ćĈ!Ĉ!Ĉ!Ĉ!ćĈ!ĈĈćĈ!ćĈ!Ĉ!Ĉ!ćĈ!ćĈ!Ĉ!ćĈĈćĈ!Ĉ!ććĈ!ĈĈćĈćĈćĈ!Ĉ!ĈćĈĈ": 1772,
      "%&'ď(ĉ!": 1773,
      "!!!!!!!!!!!!!!!!!!!!!!!!!!!!!!!!!!!!!!!!!!!!!!!!!!!!!!!!!!ďĉććĈĈĈĈĈ": 1774,
      "M&'(": 1775,
      "ďĉďĉ!!!!!!!!!!!!!!!!!!!!!": 1776,
      "ćĈ!ĈĈ!ćĈ!ć": 1777,
      "323232222222222222222222222222222222222222222244444444%&5555555522222222222222222222222266666666": 1778,
      "Ĉ!Ĉ!Ĉ!ĈĈĈĈĈĈĈĈĈĈ!ĈĈĈ!ĈĈ!ĈĈĈĈ!ĈĈ!ĈďĉĈ!ĈĈĈĈĈĈĈĈ!ĈĈĈ!": 1779,
      "001011": 1780,
      "%&'(%&'(ďĉ!!ććććććĈććĈ!ďĉćĈ!Ĉ!Č": 1781,
      "ćććĈ!Ĉ!Ĉ!Ĉ!Ĉ!Ĉ!ćĈ!Ĉ!Ĉ!Ĉ!ćĈ!Ĉ!Ĉ!Ĉććďĉ!ćĈ!ćĈ": 1782,
      "ďĉĦ": 1783,
      "ćďĉďĉććĈ!": 1784,
      "ďĉďĉ!!!!ďĉ!!!ćććććĈ!ĈĈ!ĈĈĈ!Ĉ!Ĉ!Ĉ!Ĉ!Ĉ!Ĉ!Ĉ!Ĉ!Ĉ!Ĉ!Ĉ!ćĈ!ďĉ!ďĉ!!!!!!!!!!!!!!!!": 1785,
      "ććĈ!Ĉ!ćĈĈ!ćĈ!Ĉ!Ĉ!Ĉ!Ĉ!ĈĈĈćĈ!Ĉ!Ĉ!ćďĉććć": 1786,
      "ďĉďĉďĉďĉďĉ!!ďĉ!": 1787,
      "ďĉďĉ!%&'(": 1788,
      "ďĉďĉ%&'(ďĉďĉ": 1789,
      "ććĈ!ćĈ!Ĉ!ĈĈĈ!ĈĈĈććĈ!ĈĈ!ĈĈĈĈ!ĈĈ!ĈĈĈĈďĉďĉďĉ!!!!!!!!!!": 1790,
      "ććĈ!%&'(Ĉ!Ĉ!ĈćĈ!Ĉ!Ĉ!Ĉ!Ĉ!Ĉ!Ĉ!Ĉ!Ĉ!Ĉ!ďĉďĉ!ďĉ%&'(ćććććććććććććććć": 1791,
      "ćďĉďĉ!ďĉďĉć%&'(Ĉ!Ĉ!Ĉ!Ĉ!Ĉ!Ĉ!": 1792,
      "%&'(ĂĄĆ!!!!R!!!S": 1793,
      "ććććĈ!ćĈ!Ĉ!ĈćĈ!Ĉ!": 1794,
      "Lĉ": 1795,
      "ďĉďĉ!ďĉďĉćććććĈ!ćČ": 1796,
      "ďĉďĉďĉďĉ%&'(": 1797,
      "ďĉ!ďĉ%&'(": 1798,
      "ďĉďĉďĉďĉďĉďĉďĉďĉ!!!ďĉďĉďĉďĉ": 1799,
      "%!!!!!!!!!!!!!!!!!!!!!!!!!!!!": 1800,
      "ďĉ!ďĉďĉďĉďĉ!!!!!!!!!!!!!!!!!!!!!Ĉ!Ĉ!Ĉ": 1801,
      "Ĉ!ćĈ!Ĉ!ĈćĈĈĈćĈĈĈĈĈ": 1802,
      "ďĉďĉďĉďĉďĉ)!)ďĉďĉďĉćććĈ!Ĉ!Ĉ!ĈĈ!Ĉ!ćĈ!Ĉ!Ĉ!ĈćĈ!Ĉ!Ĉ!Ĉ": 1803,
      "ćĈćďĉďĉďĉ": 1804,
      "ĉĉĉ": 1805,
      "ďĉ!!!!!!!!!!!!!!!!!": 1806,
      "&'(!!!!!!!!!!!!!!!!!!!!!!!!!!": 1807,
      "ćďĉ#$ćĈ!ćć%&'(ďĉďĉ!!!!ďĉ!!)ďĉďĉ!": 1808,
      "!!!!!!!!!!!!!!!!!!!!!!!!!!!!!!!!!!!!!!!!!!!!!!!!!!!!!": 1809,
      "ďĉďĉďĉďĉďĉ!ďĉ!ďĉďĉďĉďĉ": 1810,
      "Mĉ": 1811,
      "ćĈ!)!)!!Ĉ!Ĉ!ĈĈ!!!!!": 1812,
      "ććććććććććććććććććććććććććĈ!ćććĈ!Ĉ!ćĈ!Ĉ!ćĈ!ćĈ!ćĈ!ĈĈ!Ĉ!": 1813,
      "ććććććććććććććććććććććććććććććććććććććććććććĈ!ćĈ!Ĉ!ĈćĈ!Ĉ!": 1814,
      "Ĉ!ćĈ": 1815,
      "Ĉ!Ĉ!ĈĈĈĈ!Ĉ!Ĉ!ĈĈĈĈĈĈĈĈĈĈ!ĈĈĈ!ĈĈ!ĈĈĈĈ!ĈĈ!ĈďĉĈ!ĈĈĈĈĈĈĈĈ!ĈĈĈ!": 1816,
      "%&'(ďĉ!ćććĈ!Ĉ!ćĈ!Ĉ!ĈĈ!Ĉ!ĈćĈĈĈĈĈ!Ĉ!Ĉ!Ĉ!Ĉ!Ĉ!ĈĈĈ!Ĉ!ĈĈĈĈ": 1817,
      "ćććĈ!Ĉ!Ĉ!Ĉ!Ĉ!ćĈ!Ĉ!Ĉ!ĈćĈ!ćĈĈĈĈĈćĈĈĈĈĈćĈ!ĈĈĈćĈ%&'(ďĉ!ćććĈ!Ĉ!ćĈ!Ĉ!ĈĈ!Ĉ!ĈćĈĈĈĈĈ!Ĉ!Ĉ!Ĉ!Ĉ!Ĉ!ĈĈĈ!Ĉ!ĈĈĈĈ": 1818,
      "ďĉ!ďĉďĉćĈ!Ĉ!Ĉ!ććĈ!ćĈ!Ĉ!Ĉ!ćĈ!Ĉ!ćĈ!ćĈ!ćĈ!ćĈćĈ!Ĉ!ĈĈćĈćĈĈĈĈĈĈĈĈĈĈĈĈ%&'(ďĉ!!": 1819,
      "ďĉďĉ!!ďĉ!!!!ďĉďĉďĉďĉ!!!!!!!!!!!!!!!!!!!!!!!!!!!!!!!!!!!!!!!!!!!!!": 1820,
      "ďĉďĉďĉďĉ%ď&'(ĉ": 1821,
      "ďĉďĉďĉďĉ!ďĉďĉ!!!!!!!!!!!!!!!!!!!!!!!!!!!": 1822,
      "ďĉ!!!!!!!!!!!!!!!!!!!!!!!!!!!!!!!!!!!!!!!!!!!!!!!!!!!!ďĉ!!!!!!!!!!!!": 1823,
      "ďĉ!ďĉďĉćĈ!Ĉ!Ĉ!ććĈ!ćĈ!Ĉ!Ĉ!ćĈ!Ĉ!ćĈ!ćĈ!ćĈ!ćĈćĈ!Ĉ!ĈĈćĈćĈĈĈĈĈĈĈĈĈĈĈĈ%&'(ďĉ!!ďĉďĉďĉďĉďĉďĉ!ďĉďĉ!ďĉďĉďĉ!!": 1824,
      "ćĈ!Ĉ!ćĈ!ćĈ!Ĉ!": 1825,
      "!!!!!!)!!!!!!!!!!!!!!!!!!!!!!!!!!!!!!!!": 1826,
      "%!!!!!!!!!!!!!!!!!!!!!!!!!!!!!!": 1827,
      "ććććććććĈ!Ĉ!Ĉ!Ĉ!ćĈĈĈĈ!Ĉ!ćĈ!ďĉďĉ": 1828,
      "ćĈ!ćďĉďĉ!ďĉďĉćććććĈ!ćČ": 1829,
      "ďĈĈ": 1830,
      "Ĉ!Ĉ!!": 1831,
      ")!)!!!!!!!!!!!!!!!!!!!!!!!!!!!!!!!!!!!!!!!!!!!!!!!!!!!!!!!!!!!!!!!!!!!!!!!!!!!!!!!!!!!!!": 1832,
      "%&'ć(": 1833,
      "%&ď'(ĉ!": 1834,
      "Ĉ!Ĉ!Ĉ!Ĉ!ćććĈ!ďĉ!!ďĉ!!!!!!!!!!!ďĉ!!ćććććććĈ!Ĉ!Ĉ!ććĈĈććĈ!ćĈĈ%&'(ďĉďĉ!!!ćććććĈ!ćĈ!ććććĈ!ććĈ!ćććĈ!ćććĈ": 1835,
      "ććććĈ!ćĈ!Ĉ!Ĉ!ĈĈ!Ĉ!Ĉ!ĈććĈ!ć": 1836,
      "ďď!": 1837,
      "&'(ďĉ!!!!!!!!!ćććĈ!Ĉ!Ĉ!Ĉ!Ĉ!Ĉ!ĈĈĈĈĈĈĈĈĈĈĈĈ": 1838,
      "ďĉďĉĉ": 1839,
      "ďĉďĉďĉďĉćĈ!ĈĈ!Ĉ!ďĉ!ďĉ!ďĉďĉďĉ!!": 1840,
      "ďĉďĉćććććććĈĈććććććĈ!ćĈĈ": 1841,
      "ćććĈ!Ĉ!Ĉ!Ĉ!Ĉ!Ĉ!Ĉ!Ĉ!Ĉ!Ĉ!ćĈ!ćĈ!Ĉ!ćĈ!Ĉ!Ĉ!ćĈ!Ĉ!": 1842,
      "Ĉ!ć": 1843,
      "%&'(ďĉďĉďĉďĉďĉďĉďĉ": 1844,
      "ććĈ!Ĉ!Ĉ!ćĈ!ďĉďĉďĉďĉďĉďĉ": 1845,
      "ď)": 1846,
      "%ćć&'(": 1847,
      "ćććĈ!Ĉ!ććĈ!ćĈ!ćČďĉ!!!ďĉ!": 1848,
      "RTVa!!!S%&'(ĂĄĆ!!!!R!!!S": 1849,
      "ďĉďĉ)!)!!ďĉďĉ": 1850,
      ")!)!!!!!!!!!!!!!!!": 1851,
      "ććĈ!ćďĉďĉďĉďĉďĉďĉďĉ!!": 1852,
      "ćĈ!Ĉ!ćĈ!ćĈ!ćĈ!Ĉ!ććććĈ!ććĈ!ć!ďĉććĈ!Ĉ!ĈĈĈ!Ĉ!Ĉ!ĈĈćĈďĉ!!ďĉďĉ!!!)!)": 1853,
      "ďĉććććććĈ!ććĈ!ććĈ!Ĉ!Ĉ!Ĉ!ćććĈ!Ĉ!Ĉ!ććĈćĈ!Ĉ!ĈćĈ!Ĉ!ćĈ!ććĈĈĈĈĈćĈćĈ%&'(ďĉ": 1854,
      "!!!!!!!!!ďĉ!!!!!!!!ďĉďĉďĉ!ďĉ!%&'(!!!!!!!!!!!!ďĉ!ďĉ!!!!!!ďĉďĉ!!ďĉ!ďĉďĉ!!": 1855,
      "ę!": 1856,
      "ďĉ!ďĉďĉ%&'(": 1857,
      "ďĉ!ďĉ!!!!!!!!ććĈ!Ĉ!ĈćĈĈĈććĈĈĈććĈ!Ĉ!Ĉ!Ĉ!Ĉ!Ĉ!ćĈĈ!Ĉ!Ĉ!ćĈĈĈććĈĈ!ćććĈ!ććĈ!ćĈ!ĈĈĈćć!!!!%&'(ďĉ!!ďĉ!!": 1858,
      "!!!!!!!%!&'(": 1859,
      "ďĉ!!ďĉďĉďĉďĉďĉďĉ!ďĉďĉ!!": 1860,
      "%!!!!!!!!!!!!!!!!!!!!!!!!!&'(!!!!!!!!!!!!!!!!!!!!!!!!!!!!!!!!!!!!!!!!!!!!!!!!!!!!!!!!!!!!!!!!": 1861,
      "ďĉ%!&'(": 1862,
      "%&'(ďĉďĉ!!ďĉćććĈ!Ĉ!Ĉ!ćĈ!Ĉ!Ĉ": 1863,
      "ďĉďĉďĉďĉďĉ!ďĉďĉďĉďĉ": 1864,
      "ď%&'(ĉďĉ": 1865,
      "%Ĉ&'(Ĉ": 1866,
      "ďĉďĉ!ďĉďĉćććććďĉ!": 1867,
      "ćććĈ!Ĉ!Ĉ!ćĈĈĈĈ!ćĈ!ĈĈ!ćĈ!ć": 1868,
      "%&'(ďĉďĉ!!ďĉ!!!!!!!!!!!!!!!!!!!": 1869,
      "%M&'(": 1870,
      "AB": 1871,
      "ďĉďĉ!!!!!!!": 1872,
      "ďĉďĉďĉďĉ!ďĉďĉďĉďĉ!ďĉ!!": 1873,
      "ďĉďĉďĉ%&'(ďĉďĉďĉďĉďĉ": 1874,
      "%&'(ďĉďĉďĉ!ććĈ!ćďĉďĉďĉďĉďĉďĉďĉďĉ": 1875,
      "Ē!!Ė": 1876,
      "ďĉĈ!Ĉ!ĈĈĈ!Ĉ!Ĉ!Ĉ!ĈĈĈĈĈ!ĈĈĈĈ!ĈĈĈĈĈĈĈĈĈĈĈĈ!Ĉ!ĈĈĈĈĈĈĈĈĈĈĈĈĈĈĈĈĈĈĈĈĈĈĈĈ!ĈĈĈĈĈĈĈĈĈĈĈĈĈĈĈĈĈĈĈĈĈĈĈ": 1877,
      "ďĉďĉďĉ%&'(ďĉďĉďĉďĉďĉďĉďĉďĉ": 1878,
      "ďĉ!!ďĉ!!!!!!": 1879,
      "&'(!!!!!!!!!!!!!!!!!!!!!!!!!!!!!!!": 1880,
      "ďĉ!!!!!!!!!!!!!!!!!!!!!!!!!!!!!!!!!!!!!!!!!!!!!!!!!!!!!!!!!!!!!!!!!!!!!!!!!!!!!!!!!!!!!!!!!!!!!!!!": 1881,
      "ćĈ!ďĉ!%&'(ććććććććććććććććććććććććććććććććććććććććććććĈ!ćĈ!Ĉ!ĈćĈ!Ĉ!": 1882,
      "KK": 1883,
      "ďĉďĉďĉďĉďĉďĉ%&'(ďĉďĉ!ďĉďĉďĉ": 1884,
      "ććććććććććććććććććććććĈ!ććĈ!ćĈ!ććĈ!ććććĈ!ćććĈććĈćććĈććććĈććĈććććĈććĈć%&'(ďĉ!!!!!!!!!": 1885,
      ">>": 1886,
      "ďLĉ": 1887,
      "23232222222222222222222222222222222222222222244444444%&5555555522222222222222222222222266666666": 1888,
      "ďĉ!ďĉ!!!!!!ďĉďĉ!!!!ďĉďĉďĉ": 1889,
      "&'(!!!!!!!!!!!!!!!!!!!!!!Ĉ!ďĉďĉćĈ!ďĉ!ććĈ!%&'(Ĉ!Ĉ!ĈćĈ!Ĉ!Ĉ!Ĉ!Ĉ!Ĉ!Ĉ!Ĉ!Ĉ!Ĉ!ďĉďĉ!ďĉ%&'(ćććććććććććććććć": 1890,
      "ħ!": 1891,
      "%&'(Ĉ!Ĉ!ćććććĈ!ćĈĈ": 1892,
      "ďĉďĉďĉďĉ!!!!ďĉ!!ďĉďĉďĉďĉďĉďĉďĉďĉ!": 1893,
      "ďĉććĈĈĈĈĈďĉďĉ)!)!!ďĉďĉ": 1894,
      "ďĉďĉďĉĈ!Ĉ!Ĉ!Ĉ!Ĉ!ćĈ!ĈĈĈĈćĈ!ćĈ!": 1895,
      "%&'(!!!!!!!!!!!!!!!!!!!!!!!!!!!!!!!!": 1896,
      "%!!!!!!!!!!!!!!!!!!!!!!!!&'(!!!!!!!!!!!!!!!!!!!!!!!!!!!!!!!!!!!!!!!!!!!!!!!!!!!!!!!!!!!!!!!!": 1897,
      "!!!!ďĉďĉ!!!!!!!!!!!!!!!!!!!!!": 1898,
      "ďĉ!!!!!!!!!!!!!!": 1899,
      "Ĉ!Ĉ!Ĉ!ĈĈĈĈĈĈĈĈĈĈ!ĈĈĈ!ĈĈ!ĈĈĈĈ!ĈĈ!ĈďĉĈ!ĈĈĈĈĈĈĈĈ!ĈĈĈ": 1900,
      "ćďĉďĉ!": 1901,
      "ĉ!!": 1902,
      "ďĉďĉďĉ!ďĉ!ďĉ!ďĉ": 1903,
      "ďĉďĉďĉ!ďĉďĉ!!ďĉďĉďĉ!": 1904,
      "ďĉ!ďĉďĉďĉĈ!Ĉ!Ĉ!Ĉ!ććĈćć": 1905,
      "%!!&'(!!!!!!!!!!!!!!!!!!!!!!!!!!!!!!!!": 1906,
      "ďĉ!!!!!!!!!!!!!%!!!!!!!&'(": 1907,
      "ćĈ!Ĉ!ćĈĈ!ćĈ!ćĈ!ĈĈ!Ĉ!Ĉ!ćĈ!Ĉ!Ĉ!": 1908,
      "ć!!!!!!!!!!!!!!!!!!!!!!!!!!!!!!!!!!!!!!!!!!!!!!!!!!!!!!!": 1909,
      "ĉĈ": 1910,
      "ďĉďĉďĉďĉďĉďĉďĉďĉ!!": 1911,
      "ďĉ!ďĉďĉďĉďĉďĉďĉďĉćďĉ!ďĉďĉďĉďĉ!!": 1912,
      "!!!!!!!!!!!!!!!!!!!!!!!!!!!!!!!!!!!!!!!!!!!!!!!!!!!!!!!!!!!!!!!!!!!!!!!!!!!!!!!!!!!!": 1913,
      "01'(333": 1914,
      "ď!ĉ!": 1915,
      "ććććććććććććČďĉďĉććĈ!ćĈ!ćĈ!ćĈ!ćĈćĈćĈćďĉďĉ": 1916,
      "7'777777(788888888,-%&+01": 1917,
      ")!)!!!!!!!!!!!!!!!!!!!!!!!!!!!!!!!!!!!!!!)!)!!!!!!!!!!!!!!!!!!!!!!!!!!!!!!!!!!!!": 1918,
      "ďĉďĉďĉďĉ!ďĉďĉ!!ďĉďĉďĉďĉďĉďĉďĉ!ďĉ!ďĉ": 1919,
      ")ďĉďĉďĉďĉďĉďĉďĉ!ďĉ!!": 1920,
      "ďĈ!Ĉ": 1921,
      "ďMĉ": 1922,
      "ĈĈĈĈĈĈĈ": 1923,
      "ďĉďĉďĉ!!!!!ďĉďĉďĉ!ďĉďĉćććććĈ!Ĉ!ćĈĈ": 1924,
      "ćĈ!%Ĉ&'(!": 1925,
      "%!!!!!!!!!!!!!!!!!!!!!!!!!!!!!": 1926,
      "&'(!!!!ďĉććććĈ!ćĈ!ćĈ!ĈĈ!ććĈ!Ĉ!ČďĉćĈ!ćĈ!ćĈ!ćĈćĈ!ćĈ!Ĉ!ććĈ!ĈĈ!ćĈĈ!Ĉ!ĈćĈ!Ĉ!ĈĈĈĈĈĈććĈ!ćďĉ!!!!!!!!ďĉ!ďĉ!": 1927,
      "ďĉ!ďĉďĉ!ďĉćććĈ!Ĉ!Ĉ!Ĉ!": 1928,
      "ďĉććććććĈ!ććĈ!ććĈ!Ĉ!Ĉ!Ĉ!ćććĈ!Ĉ!Ĉ!ććĈćĈ!Ĉ!ĈćĈ!Ĉ!ćĈ!ććĈĈĈĈĈćĈćĈ%&'(ďĉćććććĈ!ĈĈćĈĈćĈďĉćććććććć": 1929,
      "ćĈ!Ĉ!Ĉ!Ĉ": 1930,
      "ďĉďĉďĉďĉďĉďĉ%&'(ďĉďĉ!ďĉďĉďĉćććććĈ!Ĉ!Ĉ!ćĈĈćĈ": 1931,
      "%&Ĉ'(!": 1932,
      "ďĉďĉ!ďĉ!ďĉďĉďĉ!": 1933,
      "ďĉďĉďĉ!ďĉ!!": 1934,
      "%ď&'(ĉ!!": 1935,
      ")!)!!!!!!!!!!!!!!!!!": 1936,
      "ĥĤ!": 1937,
      "ďĉ!ďĉďĉ!ďĉćććĈ!Ĉ!Ĉ!Ĉ!%&'(Ĉ!Ĉ!ćććććĈ!ćĈĈ": 1938,
      "Ħ!": 1939,
      "ďĉďĉďĉďĉďĉďĉďĉďĉďĉ": 1940,
      "ďĉ!ďĉ!ďĉďĉďĉ": 1941,
      "32222": 1942,
      "Ĉ!%Ĉ&'(!": 1943,
      "ďĉ!ďĉ!ďĉďĉ!!": 1944,
      "ďĉ!ďĉďĉ!!ďĉďĉďĉďĉ": 1945,
      "ćďĉ#$ćĈ!ćć%&'(ďĉďĉ!!!!ďĉ!!)ďĉďĉ!ďĉďĉ%&'(!ďĉďĉďĉ!!ďĉďĉćĈ!Čďĉďĉďĉ!ďĉďĉ!ďĉďĉďĉ!ďĉďĉ!ďĉďĉďĉ": 1946,
      "ďĉďĉćććććććĈĈććććććĈ!ćĈĈ%&'(ďĉďĉ!!ďĉ!!!!!!!!!!!!!!!!!!!": 1947,
      ")ħ": 1948,
      "ďĈ!Ĉ!ĉ": 1949,
      "ĒĒ": 1950,
      "%&'(ďĉďĉ)!)!!ďĉďĉ": 1951,
      "777'7777": 1952,
      "ććďĉďĉ)ćďĉ": 1953,
      "ďĉďĉďĉ!ďĉďĉ!ďĉďĉ!!ďĉ!!ďĉďĉćććĈ!Ĉ!Ĉ!Ĉ!Ĉ!ĈćĈĈ!Ĉ!ĈĈĈćĈćĈ!ććĈ!!": 1954,
      "ďĉ!!ďĉ!!!!!!)!!!!!!!!)!": 1955,
      "%&'(ďĉďĉ!!!!!!!!!!!ďĉćććĈ!Ĉ!Ĉ!Ĉ": 1956,
      "%&'Ĉ(!": 1957,
      "&'(!!!!!!!!!!!!!!!!!!!!!!!!!!!!!": 1958,
      "%!!!!!!!!&'(": 1959,
      "ďĉĈ!ĈĈĈĈĈĈĈĈ!ĈĈĈ": 1960,
      "ćććĈ!Ĉ!Ĉ!Ĉ!Ĉ!Ĉ!ćććććĈ!ćĈĈ%&'(ďĉďĉ!!!!!!!!!!!ďĉćććĈ!Ĉ!Ĉ!Ĉ": 1961,
      "ĈĈĈ!Ĉ": 1962,
      "!!!!!!!!!!!!!!ďĉďĉ!ďĉ!)ďĉďĉďĉćďĉďĉ!ďĉďĉďĉ!!ďĉ!!!!": 1963,
      "ć%&'(ďĉďĉďĉďĉ!": 1964,
      "ďĉ!!!!!!!!!!!!!!!!!!!!!!!!!!!!!!!!!!!!!!!!!!!!!!!!!!!!!!!!!!!!!!!": 1965,
      "ďĉ!ďĉďĉďĉďĉďĉďĉďĉďĉďĉďĉ!!": 1966,
      "ććĈ!ćďĉććććććććĈ!Ĉ!Ĉ!Ĉ!ćĈĈĈĈ!Ĉ!ćĈ!": 1967,
      "ďĉďĉććććććĈ!ćććĈ!ćććĈ!ćĈ!ćďĉďĉďĉďĉ!": 1968,
      "ćććććĈ!Ĉ!Ĉ!ćĈĈćĈďĉďĉĈ!Ĉďĉ!ďĉ!ďĉ": 1969,
      "ććĈ!Ĉ!Ĉ!ććĈ!Ĉ!Ĉ!ĈĈ!Ĉ!!ćĈ!Ĉ!Ĉ!Ĉ!ćĈ!ććĈ!ćďĉ!ďĉďĉ!!": 1970,
      "%&'(Ĉ!": 1971,
      "!!!!!!!!!!!!!!!!!!!!!!!!!!!!!!!!!!!!!!!!!!!!!!!!!!!!!!!!!!ďĉććĈĈĈĈĈ%&'(ďĉďĉ)!)!!ďĉďĉ": 1972,
      "ćL": 1973,
      "&'(ććććććććĈ!ćććĈ!Ĉ!ćĈ!ďĉ": 1974,
      "ď%&'(ĉďĉďĉďĉ": 1975,
      "Ĉ!ĈĈĈ!ĈĈĈĈĈĈĈĈĈĈĈĈĈĈĈĈĈĈ!ďĉ!!ďĉ!ďĉ!!!ďĉďĉćĈ!ĈĈ!ĈĈĈĈ!Ĉ!Ĉ!ĈĈĈĈĈĈĈĈ!ĈĈĈĈĈ": 1976,
      "!!!!!!!!!ďĉ!!!!!!!!!!!)!!!!!!!!!!!!!!!ďĉďĉ%&'(ďĉ": 1977,
      "&'(!ďĉ!)!)!!!!!!!!!!ďĉ!!!!!!ćććĈ!Ĉ!Ĉ!Ĉďĉ!!!!!ďĉ!)!)!!!!!!!!!!!!!!ďĉ!!!!!!!!!!!!!%!!!!!!!&'(": 1978,
      "!!!!!!!!!ďĉ!!!!!!!!!!!)!!!!!!!!!!!!!!!ďĉďĉ%&'(ďĉ)!)ďĉďĉďĉďĉďĉďĉ!!!ďĉ!!ďĉ!ďĉ!": 1979,
      "đđ": 1980,
      "ďĉďĉććććććĈ!ćććĈ!ćććĈ!ćĈ!": 1981,
      "%L": 1982,
      "%!ć": 1983,
      "Ĉ!ĈććĈĈ!Ĉ!ććĈ!Ĉ!ĈĈ!ĈĈĈďĉďĉďĉďĉďĉďĉďĉ": 1984,
      "RTVa!!!SĂĄĆďĉćććďĉ!": 1985,
      "ććĈ!ćĈ!Ĉ!ĈĈĈ!ĈĈĈććĈ!ĈĈ!ĈĈĈĈ!ĈĈ!ĈĈĈĈďĉďĉďĉ!!!!!!!!!!ďĉďĉďĉ%&'(ďĉďĉďĉ": 1986,
      "ćććĈ!Ĉ!Ĉ!Ĉ!ĈĈĈĈĈĈĈĈĈĈ!ćĈ!Ĉ!ĈćĈĈćĈćĈĈĈćĈĈ%&'(ďĉ": 1987,
      "%&'(ďĉďĉďĉ%&'(": 1988,
      "ďĉďĉ%&'(ďĉďĉďĉ!!ďĉ": 1989,
      "ćććććććĈ!Ĉ!ććććććĈ!ćĈĈ%&'(ďĉďĉ!!ďĉćććĈ!Ĉ!Ĉ!ćĈ!Ĉ!Ĉ": 1990,
      "%ć&'ć(": 1991,
      "ďĉďĉćććĈ!Ĉ!Ĉ!Ĉ!Ĉ!Ĉ!ćććććĈ!ćĈĈ%&'(ďĉďĉ!!ďĉ": 1992,
      "ďĉ!!!!!!!!!!!!!!!!!!!!!!!!!!!!!!!!!!!!!!!!!!!!!!!!!!!!ďĉ!!!!!!!!!!!!ďĉďĉ%&'(ďĉďĉďĉ!!ďĉ": 1993,
      "B!": 1994,
      "ďĉďĉďĉ%&'(Ĉ!Ĉ!ĈĈ!Ĉ!ĈĈĈĈ!Ĉ!ĈĈ!Ĉ!Ĉ!!Ĉ!": 1995,
      "Ĉ!Ĉ!Ĉ!Ĉ!Ĉ!Ĉ!Ĉ!ĈĈĈĈĈĈĈ!ĈĈĈĈĈĈĈĈĈĈĈĈĈĈĈĈĈĈĈĈ!ďĉďĉďĉďĉďĉďĉćďĉ!ďĉ": 1996,
      "ćććććććĈ!Ĉ!Ĉ!ćĈ!Ĉ!Ĉ!ćďĉ!ććććĈ!ćĈ!Ĉ!Ĉ!ćĈ!Ĉ!Ĉ!Ĉ!ćĈ!Ĉ!Ĉ!Ĉ!ćĈ!Ĉ!ćĈ!ĈćĈ!Ĉ!": 1997,
      "ććććĈ!ćĈ!Ĉ!Ĉ!ĈĈ!Ĉ!Ĉ!ĈććĈ!ć%&'(ďĉ": 1998,
      "ćććććĈ!ćĈ!Ĉ!ćĈĈ!Ĉ!Ĉ!Ĉ!ćĈćĈĈćĈ!Ĉ!Ĉ!ćĈ!Ĉ!Ĉ!Ĉ!ćĈ!Ĉ!": 1999,
      "ď%&'(ĉďĉďĉ!": 2000,
      "77'77777(788888888,-%&+01": 2001,
      "ďĉďĉďĉ!ďĉ!ďĉ!ďĉ%&'(": 2002,
      "ĥďĉ": 2003,
      "Ĉ!ćĈĈ": 2004,
      "ććĈ!Ĉ!ćĈ!Ĉ!": 2005,
      ")!)!!!!!!!!!!!!!!!!!!!!!!!!!!!!!!!!!!!!!!!!!!!!!!!!!!!!!!!!!!!!!!!!!!!!!!!!!!!!!!!!!!": 2006,
      "ďććĉ": 2007,
      "Ħ%&'(%&'(%&'(%&'(%&'(%&'(%&'(%&'(%&'(%&'(%&'(%&'(%&'(%&'(%&'(%&'(": 2008,
      ")!)ďĉďĉďĉ!ďĉďĉďĉ!!ďĉďĉďĉďĉ!": 2009,
      "%!!!!!!!!!!!!!!!!!!!!!!!!!!!!!!!": 2010,
      "ďĉďĉďĉ!ďĉćďĉ!!!!ćďĉ!": 2011,
      "Ĉ!ĈĈĈĈĈ!Ĉ!Ĉ!ĈĈĈĈĈĈĈĈĈĈ!ĈĈĈ!ĈĈ!ĈĈĈĈ!ĈĈ!ĈďĉĈ!ĈĈĈĈĈĈĈĈ!ĈĈĈ": 2012,
      "ďĉďĉďĉďĉďĉ%ď&'(ĉ": 2013,
      ")!!!)": 2014,
      "ććććĈ!ćĈ!Ĉ!Ĉ!ĈĈ!Ĉ!Ĉ!ĈććĈ!ć%&'(ďĉććććććććĈ!Ĉ!Ĉ!Ĉ!ćĈĈĈĈ!Ĉ!ćĈ!ďĉďĉ": 2015,
      "ďĉ!%ď&'(ĉ": 2016,
      "ďĉ%&'(ďĉďĉ!!!!ďĉ!!!ćććććĈ!ĈĈ!ĈĈĈ!Ĉ!Ĉ!Ĉ!Ĉ!Ĉ!Ĉ!Ĉ!Ĉ!Ĉ!Ĉ!Ĉ!ćĈ!ďĉ!ďĉ!!!!!!!!!!!!!!!!": 2017,
      ")!)!!!!!!!!!!!!!!!!!!!!!!!!!!!!!!!!!!!!!!!!!!!!!!!!!!!!!!!!!!!!!!!!!!!!!!!!!!!!!!!!!!!!!!!!!": 2018,
      "ććććĈ!Ĉ!Ĉ!Ĉ!Ĉ!ĈĈ!Ĉ!ćďĉ!!ďĉďĉ": 2019,
      "ďĉďĉďĉďĉ%&'(ďĉďĉďĉďĉćććććććććććććććĈ!Ĉ!Ĉ!ćĈ!Ĉ!Ĉ!Ĉ!Ĉ!ćĈ!Ĉ!ćĈ!ćĈ!ćĈ!ćĈ!ćĈ!Ĉ!Ĉ!Ĉ!Ĉ!Ĉ!ćĈ!Ĉ!ććĈ!": 2020,
      "Ĉ!Ĉ!Ĉ!ĈćĈĈ!Ĉ!ĈćĈĈ!ćĈ!Ĉ!ĈĈĈĈćĈĈĈĈćĈĈćĈĈĈĈĈĈćĈĈĈĈćĈĈćĈĈćĈ!ćććĈ!ćć%&'(ďĉďĉ": 2021,
      "M!": 2022,
      "ďĉ!ďĉďĉďĉďĉ%&'(": 2023,
      "ćďĉ!ďĉďĉďĉ": 2024,
      "!!!!!!!ďĉ!!ďĉďĉ!!!ďĉďĉďĉďĉďĉ!ďĉććĈ!Ĉ!Ĉ!Ĉ!Ĉ!Ĉ!Ĉ!ĈĈćĈ": 2025,
      "ďĉ!ďĉďĉ!ďĉćććĈ!Ĉ!Ĉ!Ĉ!%&'(Ĉ!Ĉ!ćććććĈ!ćĈĈďĉďĉ": 2026,
      "Ĉ)": 2027,
      "ĉďĉ": 2028,
      "ďďĉ": 2029,
      "ēĖ": 2030,
      "&'(!!!!!!!": 2031,
      "ćĈćć": 2032,
      "Ĉ!Ĉ!Ĉ!Ĉ!ĈćĈ!ĈĈ!ĈĈĈ": 2033,
      "ďĉ%&'(ďĉďĉ!!ďĉ": 2034,
      "ĈĈĈ!Ĉ!Ĉ!ĈĈĈĈ!Ĉ!ĈĈ!Ĉ!Ĉ!ĈĈĈĈćďĉďĉ": 2035,
      "ććććććĈ!ććĈ!Ĉ!Ĉ!ĈćĈ!Ĉ!ĈćĈććĈĈ!ĈĈĈďĉ!!!": 2036,
      "ćďĉ!!": 2037,
      "ććĈ!ć%&'(": 2038,
      "ćććĈ!Ĉ!Ĉ!Ĉ!Ĉ": 2039,
      "ďĉďĉ!!ďĉ!!ďĉ!ććĈ!ďĉ!ďĉďĉ!!ďĉďĉ)ďĉďĉ!": 2040,
      "MMMMMMMMMMMM": 2041,
      "&Ĉ'(!": 2042,
      "BB": 2043,
      "%!!!!!!!!!!!!!!!!!!!!!!!!!!&'(!!!!!!!!!!!!!!!!!!!!!!!!!!!!!!!!!!!!!!!!!!!!!!!!!!!!!!!!!!!!!!!!": 2044,
      "ďĉďĉďĉďĉďĉćććććĈ!Ĉ!ćĈ!Ĉ!ćĈ!Ĉ!Ĉ!Ĉ!Ĉ!ćĈ!ćĈ!ćĈ!ćĈ!ćĈ!Ĉ!ćĈ!ćĈ!Ĉ!ćĈĈćĈ!ĈććĈ!ĈćĈćĈćĈ!ĈćĈĈ%&'(ďĉďĉďĉ%&'(": 2045,
      "ďĉďĉďĉ%&'(ďĉďĉďĉďĉďĉďĉďĉďĉďĉďĉďĉ!": 2046,
      "ĈĈ!Ĉ!": 2047,
      "ďćĈ": 2048,
      "ďĉďĉďĉďĉććĈ!Ĉ!ĈĈĈ!!ćĈ!Ĉ!Ĉ!Ĉ!ćďĉďĉ!!": 2049,
      "ďĉ!ďĉ!!!!": 2050,
      "'(333": 2051,
      ")!)!!!!!!!!!!!!!!!!ďĉďĉďĉ!": 2052,
      "%&'(!ďĉďĉďĉ!ďĉ!ďĉ!": 2053,
      "ćĈ!ćĈ!Ĉ!ććĈ!Ĉ!Ĉ!Ĉ!ćĈĈĈ!Ĉ!ćĈ!Ĉ!ĈĈĈ!ĈĈĈććĈ!ćĈćĈĈĈ!ĈćĈĈĈĈĈĈĈĈććĈćĈĈ!ććĈĈĈĈćĈĈĈĈćĈĈĈĈĈĈĈĈććĈćďĉ!": 2054,
      "ććććććĈ!Ĉ!Ĉ!ćĈ!Ĉ!Ĉ!Ĉ!Ĉ!!": 2055,
      "ďĉ!ďĉ!!Ĉ": 2056,
      "ďĖ": 2057,
      "!!!!!!!!!!ććććććććććććČďĉďĉććĈ!ćĈ!ćĈ!ćĈ!ćĈćĈćĈ": 2058,
      "ďďĉ!": 2059,
      "ďĉďĉďĉďĉďĉďĉďĉďĉďĉďĉďĉďĉ": 2060,
      "ďďď": 2061,
      "ćĈ!ć!": 2062,
      "ďďĉĉďďĉĉ": 2063,
      "Ĉ!Ĉ!ĈĈĈĈ!Ĉ!Ĉ!ĈĈĈĈĈĈĈĈĈĈ!ĈĈĈ!ĈĈ!ĈĈĈĈ!ĈĈ!Ĉ": 2064,
      "!!!!!!!!!!!!!!!!!!!!!!!!!!!!!!!!!!!!!!!ďĉ!ďĉ!!!!!!!!!!!ďĉ!ďĉććććććĈććĈ!": 2065,
      "Ĉ!Ĉ!Ĉ!Ĉ!ĈćĈĈĈ!ĈĈĈćĈćĈĈĈĈĈĈĈćĈĈĈĈĈĈćĈćĈ!ćĈĈ!ďĉ": 2066,
      "'7777777(788888888,-%&+01": 2067,
      "ďĉďĉďĉ!ďĉ!ďĉ!ďĉ%&'(ććďĉďĉ)ćďĉ": 2068,
      "ććććććĈ!ć": 2069,
      "ďĉ!ďĉ!!ďĉććććććććććććććććććććććĈ!ććĈ!ćĈ!ććĈ!ććććĈ!ćććĈććĈćććĈććććĈććĈććććĈććĈć%&'(ďĉ!!!!!!!!!": 2070,
      "ďĉ!ďĉ!ďĉďĉ!": 2071,
      "ĥĤē": 2072,
      "%L&'(": 2073,
      "%&'(!ďĉďĉďĉ!ďĉ!ďĉ!ďĉ!ďĉďĉ!!ďĉďĉďĉďĉ": 2074,
      "%&'(ďĉ!!!!!!!!!!!!!!!!!!!!!!!!!!!!!!!!!!!!!!!!!!!!!": 2075,
      "ć%&'(ćććć": 2076,
      "%&'(!!!!!!!!!!!!!!!!!!!!!!)!!!!!!!!!!!!!!!!!!!!!!!!!!!!!!!!": 2077,
      "ďćĈ!ĉ": 2078,
      "ďďĉďĉĉ": 2079,
      "ďĉ!ď%&'(ĉ": 2080,
      "ďĉďĉďĉďĉďĉďĉďĉďĉďĉďĉ%&'(": 2081,
      "%&'(%&'(%&'(%&'(%&'(%&'(%&'(%&'(%&'(%&'(%&'(%&'(%&'(%&'(%&'(%&'(%&'(%&'(%&'(%&'(%&'(%&'(%&'(%&'(": 2082,
      "ďĉďĉďĉďĉďĉďĉďĉ!ďĉ!ďĉćććććććĈ!ćČČ": 2083,
      "ć'": 2084,
      "ďĉćĈ!ćĈ!Ĉ!ććĈ!Ĉ!Ĉ!Ĉ!ćĈĈĈ!Ĉ!ćĈ!Ĉ!ĈĈĈ!ĈĈĈććĈ!ćĈćĈĈĈ!ĈćĈĈĈĈĈĈĈĈććĈćĈĈ!ććĈĈĈĈćĈĈĈĈćĈĈĈĈĈĈĈĈććĈ": 2085,
      "ćĈ!ć%&'(": 2086,
      "ďĉďĉďĉďĉďĉďĉďĉ!!": 2087,
      "ćĈ!Ĉćććć": 2088,
      "!!!!!!!!!!!%!&'(": 2089,
      "ďĉ!ďĉďĉďĉďĉćććĈ!Ĉ!ććĈ!ćĈ!ćČďĉ!!!ďĉ!": 2090,
      "ďĉćććććĈ!Ĉ!Ĉ!ćĈĈćĈ": 2091,
      "%&'(ďĉďĉďĉ!ďĉ!!ďĉďĉďĉďĉďĉďĉ!ďĉďĉ!!": 2092,
      "&'(!!!!!!!!!!!!!!!!!!!!!!!!!!!!!!!ććććĈ!ĈĈďĉ!!!!!!!!!!!": 2093,
      "LL!LK!LK": 2094,
      "ďĉćććććĈ!ĈĈćĈĈćĈ": 2095,
      "ďďďďďďďď": 2096,
      "!&'(ďĉ))ħ": 2097,
      "ćĈĈ!Ĉ!ĈĈĈćĈćĈ!ććĈ!!ďĉ!!ďĉďĉďĉ": 2098,
      "ćĈ!Ĉ!ĈćĈ!ďĉćććććććĈ!ćĈ!%&'(ćďĉ!": 2099,
      "ćĈ!Ĉ!ĈćĈ!ďĉćććććććĈ!ćĈ!%&'(ćďĉ!ďĉďĉ!!!": 2100,
      "332222": 2101,
      "AAAA": 2102,
      "%ć&'Ĉ(!": 2103,
      "Ĉ!ĈĈ!ĈĈĈćĈĈĈćĈ!ĈĈĈĈ!ĈĈ!Ĉďĉďĉďĉďĉďĉďĉ!%&'(%&'(Ĉ!Ĉ!ĈĈĈĈĈĈćĈ!ĈĈĈ%&'(ďĉ%&'(%&'(%&'(ďĉďĉďĉďĉ!ďĉďĉ%!!!&'(": 2104,
      "ďĉ!!!!!!!!!!": 2105,
      "ćććďĉ!": 2106,
      "%&'(ďĉćććććććć": 2107,
      "%&'(ďĉĈ!ĈĈĈĈĈĈĈ": 2108,
      "LLLL!LK": 2109,
      "ďĉ!!!ďĉ!!!ćććĈćĈ!ćĈ!ĈĈ!Ĉ!ćĈĈĈĈĈĈĈĈĈĈĈĈĈ!ćĈ!ćĈĈĈĈ!Ĉ%&'(ďĉććďĉďĉ!!ďĉććĈ!ĈĈĈĈĈ!ćďĉďĉ": 2110,
      "ćĈ!Ĉ!Ĉ!ćĈ!Ĉ!Ĉ!Ĉ!Ĉ!!": 2111,
      "ćďĉďĉćććĈ!ćĈ!Ĉ!Ĉ!ćĈ!Ĉ!ćĈ!Ĉ!Ĉ!Ĉ!ćĈ!Ĉ!ćĈ!ćĈ!ćĈ!ćĈ!Ĉ!Ĉ!Ĉ!Ĉ!Ĉ!Ĉ!Ĉ!Ĉ!ĈĈ!": 2112,
      "%!!!!!!!!!!!!!!!!!!!!!!!!!!!!!!!!!!!!": 2113,
      "ďĉććććććććććććĈ!ćĈ!Ĉ!Ĉ!Ĉ!Ĉ!Ĉ!Ĉ!Ĉ!Ĉ!!ćĈĈĈĈ!Ĉ!ćĈ!Ĉ!ćĈĈĈćĈ!ĈĈĈĈĈ!Ĉ!ćĈ!ććĈ!ćĈ!ććĈ!ćĈććĈ!ćĈ!ćĈ!ĈćĈĈ": 2114,
      "ĈćĈ": 2115,
      "ďĦ": 2116,
      "ććĈĈĈĈ": 2117,
      "%&'(ďĉ!ďĉďĉďĉďĉ!!": 2118,
      "LLL": 2119,
      "ďĉďĉďĉ!!)!)!!!!!!!!!!!!!!!!!!!!!!!!!!!!!!!!!!!!!!!!!!!!!!!!!!!!!!!!!!!!!!!!": 2120,
      "ćććĉ": 2121,
      "MMMMMMMMMMMMMMMMMMMMMMMMMMMMMMMMMMMMMMMMMMMMMMMMMMMMMMMMMMMMMMMM": 2122,
      "ďĉ!ďĉďĉďĉďĉďĉďĉ!!%&'(ďĉ!ďĉďĉďĉďĉ!!": 2123,
      "Ĥ))))": 2124,
      "ħĉ": 2125,
      "Ĉ!ćĉ": 2126,
      "ćĈ!Ĉ!ćĈ!Ĉ": 2127,
      "ďĉ!%&'(ďĉ": 2128,
      "Ĉ!Ĉ!Ĉ!Ĉ!Ĉ!": 2129,
      "ďĉ!!ďĉ!ďĉďĉďĉďĉ!": 2130,
      "ćďĉ)ħ": 2131,
      "Ĉ!Ĉ!Ĉ!%&'(": 2132,
      "ćďĉ%&'(ććććććĈ!Ĉ!Ĉ!ćĈ!Ĉ!Ĉ!Ĉ!Ĉ!!": 2133,
      "ďĉďĉďĉ!ďĉďĉćććććĈ!Ĉ!ćĈĈćďĉćĈ!ććĈ!ćĈ!Ĉ": 2134,
      "ćććććĈ!Ĉ!Ĉ!Ĉ!Ĉ!Ĉ!ćĈ!Ĉ!Ĉ!ćĈ!Ĉ!ćĈ!Ĉ!Ĉ!ćĈ!Ĉ!ćĈ!ćĈ!ćĈ!ćĈ!Ĉ!Ĉ!Ĉć%&'(ďĉ!!!!!!!!!": 2135,
      "ďĉ!ďĉ!!!!!!!!!!!ďĉ!!ďĉďĉďĉďĉďĉďĉ!ďĉďĉďĉďĉďĉďĉ%&'(ďĉďĉ!ďĉďĉďĉćććććĈ!Ĉ!Ĉ!ćĈĈćĈ": 2136,
      "ćĈćďĉďĉďĉ!!!": 2137,
      "ďĉďĉ!ďĉďĉďĉďĉ!": 2138,
      "%Ĉ&'(ĈĈ": 2139,
      "ćććććććććććĈ!": 2140,
      "Ĉ!ĈĈĈ!ďĉ!!!!!!!!!!!!!!!!!!!!!!!!!!!!!!!!": 2141,
      ")!)!!!!!!!!!!!!!!!%&'(!ďĉďĉďĉ!ďĉ!ďĉ!ďĉ!ďĉďĉ!!ďĉďĉďĉďĉ": 2142,
      "Ĉ!ććĈ!": 2143,
      "ďĉĉĉ": 2144,
      "ďĉďĉďĉďĉďĉďĉďĉďĉďĉ!ďĉďĉďĉďĉ": 2145,
      "!!!!!!!!!!!)!)!!!!!!!!!!!!!!!!!!!!!!!!!!!!!!!!!!!!!!": 2146,
      "&'(!!!!!!!!!!!!!!!!!!!!!!!!!!!!!!!!!!!!!!!!!!!!!!!!!!!!!!!!!!!": 2147,
      "ďĉďĉďĉďĉďĉćććććĈ!)!)!!Ĉ!Ĉ!ĈĈ!!!!!": 2148,
      "ČČďĉďĉďĉ!!!!!ďĉďĉďĉ!ďĉďĉćććććĈ!Ĉ!ćĈĈ": 2149,
      "ćĈ!ćĈ!Ĉ!ćĈ!Ĉ!Ĉ!ćĈ!Ĉ!ćďĉ!ďĉďĉďĉďĉďĉďĉďĉďĉ": 2150,
      "Ĉ!Ĉ!Ĉ!Ĉ!ććĈććďĉďĉďĉ!!ďĉ!!ďĉ!!!!!!!!)!!!!!!!!)!": 2151,
      "ććĈ!Ĉ!Ĉ!Ĉ!Ĉ!Ĉ!ććĈ!ćďĉ!ďĉććććĈ!ćĈ!ĈĈ!ććĈ!ćĈ!ĈĈ!ćĈ!Ĉ!ćĈ!ďĉ!": 2152,
      "%&'(ďĉďĉďĉďĉďĉďĉďĉ!!!!!!!!!!!ďĉ!!!!!!!!!!!!!!!!!!!!!!!!!!!!!!!!!!!!!!!!!!!!!!!!!!!!!!!!!!!!!!!!": 2153,
      "ďĉ!ďĉďĉďĉďĉďĉďĉďĉďĉ!": 2154,
      "ďĉ!!!!!!!!!!!!!!!!!!!!!!!!!!!!": 2155,
      "ďĉďĉďĉďĉďĉďĉ!ďĉďĉ!ďĉďĉ!!!ďĉćĈ!Ĉ!ććĈ!ććĈ!ĈĈ!ććĈ!Ĉ!Ĉ": 2156,
      "ďĉďĉďĉďĉďĉ)!)ďĉďĉďĉ!ďĉďĉďĉ!!ďĉďĉďĉďĉ!": 2157,
      "32323232222222222222222222222222222222222222222244444444%&5555555522222222222222222222222266666666": 2158,
      "Ĉ!ĈĈĈ!Ĉ!ĈĈ!Ĉ!Ĉ!": 2159,
      "ććĈ!ćďĉďĉďĉďĉďĉďĉďĉ!!ďĉďĉ": 2160,
      "ďĉ%&'(!ďĉ!ďĉ!ďĉďĉ!!": 2161,
      "%ĈĈ": 2162,
      "ćć!": 2163,
      "ďĉďĉďĉďĉďĉďĉďĉďĉďĉ%&'(": 2164,
      "%!!!!!!!!!!!!!!!!!!!!!!": 2165,
      "Ĉ!Ĉ!Ĉ!Ĉ!Ĉ!Ĉ!Ĉ!Ĉ!ĈĈĈ!Ĉ": 2166,
      "ďĉ%&'(ďĉďĉĈ!Ĉ!Ĉ!Ĉ!ćććĈ!": 2167,
      "ďĈĈĈ": 2168,
      "Ĕĥ": 2169,
      "!!!!!!!!!!!!!!!!!!!!!!!!": 2170,
      "&'(ďĉ!!!!!!!!!!!!!!!!!!!!!!!!!!!!!!!!": 2171,
      "ćććććććĈ!ćĈ!Ĉ!Ĉ!Ĉ!Ĉ!ćĈ!Ĉ!ćĈććĈćďĉćĈ!Ĉ!Ĉ!Ĉ!Ĉ!Ĉ!Ĉ!Ĉ!ćĈ!ćĈ!Ĉ!ĈćĈ!Ĉ!": 2172,
      ")!)ďĉďĉďĉ!ďĉďĉďĉ!!ďĉďĉďĉďĉ!ďĉ!ďĉ!ďĉ!ďĉ!ďĉ!ďĉ": 2173,
      ")ďĉ": 2174,
      "%&'(ďĉćĈ!ćĈ!Ĉ!ććĈ!Ĉ!Ĉ!Ĉ!ćĈĈĈ!Ĉ!ćĈ!Ĉ!ĈĈĈ!ĈĈĈććĈ!ćĈćĈĈĈ!ĈćĈĈĈĈĈĈĈĈććĈćĈĈ!ććĈĈĈĈćĈĈĈĈćĈĈĈĈĈĈĈĈććĈćďĉ!": 2175,
      "ćĈ!ćĈ!Ĉ!Ĉ!ďĉďĉ!": 2176,
      "ććććććĈ!ćĈĈďĉďĉ!!ďĉ": 2177,
      "%&'(ďĉ!!!ďĉďĉďĉ!!ďĉ": 2178,
      "ČČČČ": 2179,
      "ďĉ!ďĉ!ďĉ!": 2180,
      "ććć%Ĉ&'(!": 2181,
      "%ć&Ĉ'(!": 2182,
      "Ĉ!%&'(ďĉ!ďĉďĉďĉďĉďĉ": 2183,
      "ććĈ!Ĉ!ĈĈĈ!Ĉ!Ĉ!ĈĈćĈďĉ!!ďĉďĉ!!!)!)!!!!!!!!!!!!": 2184,
      "ćććććććććććĈ!ććĈ!Ĉ!ćĈ!Ĉ!": 2185,
      "ĦĦ": 2186,
      "ćĈ!%&'(": 2187,
      "&'(!!!!!!!!!!!!!!!!!!!!!!!!!!!!!!!!!!!!!!!!!!ććććććććććććČďĉďĉććĈ!ćĈ!ćĈ!ćĈ!ćĈćĈćĈ": 2188,
      "ďĉďĉďĉ%&'(Ĉ!Ĉ!ĈĈ!Ĉ!ĈĈĈĈ!Ĉ!ĈĈ!Ĉ!Ĉ!!Ĉ!%&'(ďĉ!ďĉďĉďĉďĉďĉ": 2189,
      "ććććććććććććććććććććććććććĈ!ćććĈ!Ĉ!ćĈ!Ĉ!ćĈ!ćĈ!ćĈ!ĈĈ!Ĉ!%&'(": 2190,
      "ćK": 2191,
      "Ĉ!Ĉ!ćĈ!Ĉ": 2192,
      "%&'(!!!!!!!": 2193,
      "ďĉ!!ďĉ!ďĉďĉ!ďĉ!ďĉďĉďĉ!": 2194,
      "ććĈ!ćĈ!ćĈ!ćďĉ!!!!!!!!!!!!!!!ďĉ!!!!!!!!!!!!!!!!!!!!!!!!!!!!!!!!!!!!!!!!!!!!!!!!!!!!!!!!!!!!!!!!": 2195,
      "Ĉ!ćĈ!ćĈ!Ĉ!Ĉ!ďĉďĉ!!!!!!!": 2196,
      ")!)!!!!!!!!!!!!!!!!ďĉďĉďĉ!ďĉ%&'(!ďĉ!ďĉ!ďĉďĉ!!": 2197,
      "Ĉ!Ĉ!Ĉ!Ĉ!Ĉ!Ĉ!Ĉ!Ĉ!ĈĈĈ!ĈĈ!ĈĈĈ!Ĉ!ĈĈ!Ĉ!Ĉ!": 2198,
      "Ĕ!": 2199,
      "!!ďĉ": 2200,
      "%&'(ďĉ!ďĉ!!ďĉďĉ!!ďĉ!!!!!!)!!!!!!!!)ďĉďĉďĉ!!": 2201,
      "ďĉďĉďĉ!ďĉďĉďĉďĉ": 2202,
      "ďĉ%&'(ďĉ!!": 2203,
      "ććĈ!Ĉďĉ": 2204,
      "%!!!!!!!!!!!!!!!!!!!!!!!!!!!!!!!!!!": 2205,
      "ćććććććĈ!Ĉ!ćĈ!ĈćĈĈ!Ĉ!ćĈ!ĈĈ!ććĈ!ćĈ!ććĈćĈććć!!%&'(ďĉ!ďĉ!!ďĉďĉ!!ďĉ!!!!!!)!!!!!!!!)ďĉďĉďĉ!!": 2206,
      "ďĉćĈ!ćĈ!Ĉ!ććĈ!Ĉ!Ĉ!Ĉ!ćĈĈĈ!Ĉ!ćĈ!Ĉ!ĈĈĈ!ĈĈĈććĈ!ćĈćĈĈĈ!ĈćĈĈĈĈĈĈĈĈććĈćĈĈ!ććĈĈĈĈćĈĈĈĈćĈĈĈĈĈĈĈĈććĈć%&'(ďĉ!": 2207,
      "ćććććććććććĈ!ććĈ!Ĉ!ćĈ!Ĉ!ćĈ!ć!": 2208,
      "ďĉćĈ!Č": 2209,
      "%&ć'(": 2210,
      "%ď&'(ĉďĉ": 2211,
      "ďĉďĉ!!ćććĈ!Ĉ!ćĈ!Ĉ!ĈĈĈĈ!ććĈďĉďĉćććććććć": 2212,
      "ďĉ!!ďĉ%&'(ďĉďĉ": 2213,
      "ďĉďĉďĉ!ććĈ!ćďĉďĉďĉďĉďĉďĉďĉďĉ": 2214,
      "ďĉďĉďĉďĉďĉďĉďĉďĉďĉ%&'(ďĉďĉďĉ": 2215,
      "ďĉ%&'(!!!": 2216,
      "ďĉďĉďĉ%&'(ďĉďĉ!!": 2217,
      "ďĉĈ!Ĉ!Ĉ!Ĉ!Ĉ!ĈĈĈ!ĈĈĈ": 2218,
      "ćććĈ!ćć": 2219,
      "ććććć": 2220,
      "%&'(ĉĉĉĉĉĉĉĉĉ": 2221,
      "ďĉ!!ďĉ)!!!)": 2222,
      "ďĉďĉďĉďĉďĉďĉďĉ!!!!!!!!!!!": 2223,
      "%!!!!!!!!!!!!!!!!!!!!!!!!!!!!!!!!!!!!!": 2224,
      "L!M": 2225,
      "ććććĈ!Ĉ!ćĈ!ćĈ!Ĉ!ććĈ!ĈććĈ!Ĉ!ćĈ!ćĈ!Ĉ!Ĉ!ćĈĈ!ďĉďĉďĉďĉ": 2226,
      "%Ĉ!": 2227,
      "BM": 2228,
      "ďĤ": 2229,
      "Ė!": 2230,
      "ďĉďĉď%ĉ&'(": 2231,
      "%&'(ďĉ!!!!!!!!!!!": 2232,
      ")!)!!!!!!!!!!!!!!!!!!": 2233,
      "%&'(ďĉ!!ďĉďĉďĉ": 2234,
      "%&'(ďĉ!!ďĉďĉ!!ďĉ!ďĉ!!ďĉďĉďĉ!ďĉ": 2235,
      "L!LKL!LK": 2236,
      "%&'(ďĉďĉ!ďĉ!!!!!!!!ďĉďĉďĉďĉďĉććććĈ!ćĈ!ĈćĈĈ!Ĉ!Ĉ!Ĉ!ĈćĈĈćĈĈĈĈĈĈ!%&'(ďĉďĉďĉ!))ďĉ!ďĉďĉďĉďĉ": 2237,
      "ďĉďĉďĉďĉďĉ!!ďĉ!!!!ďĉďĉďĉ!ďĉďĉ!": 2238,
      "%&'(ďĉ!!!!!!!!!!!!!!!!!!!!!!!!!!!!!!!!!!!!!!!!!!!!!ďĉďĉďĉďĉďĉ!!ďĉ!!ďĉďĉďĉ)!)": 2239,
      "ćĈ!%&'(ďĉ!": 2240,
      ")!)!!!!!!!!!!!!": 2241,
      ")!)!!!!!!!!!!!": 2242,
      "ćĈĈĈĈĈĈĈ": 2243,
      "ďĉďĉ%&'(ďĉ!ďĉ": 2244,
      "%Ĉ&'(!Ĉ": 2245,
      "ďĉ!ďĉďĉ!Ĉ!Ĉ!ĈĈ!Ĉ!Ĉ!Ĉ!": 2246,
      "Ĉ!Ĉ!Ĉ!Ĉ!Ĉ!ćĈ!ĈĈĈĈćĈ!ćĈ!ćďĉďĉďĉďĉ!": 2247,
      "ďĉ%&'(Ĉ!Ĉ!Ĉ!Ĉ!": 2248,
      "ďĉďĉďĉďĉ!ďĉďĉďĉďĉ": 2249,
      "%!&'(!": 2250,
      "!!!!R%&'(": 2251,
      "010101'(3": 2252,
      "&'(!!!!!!!!!!!!!!!!!!!!!!!!!!!": 2253,
      "ďĉ!%&'(ďĉďĉ!ďĉ!ďĉďĉďĉ!": 2254,
      "ďĉďĉ!!ďĉ!!!!ďĉďĉďĉďĉ!!!!!!!!!!!!!!!!!!!!!!!!!!!!!!!!!!!!!!!!!!!!!ćććććććĈ!ćĈ!Ĉ!Ĉ!Ĉ!Ĉ!ćĈ!Ĉ!ćĈććĈ": 2255,
      "ććĈ!Ĉ!Ĉ!ćĈ!ďĉďĉďĉďĉďĉďĉćććććććĈ!Ĉ!ććććććĈ!ćĈĈ%&'(ďĉďĉ!!ďĉćććĈ!Ĉ!Ĉ!ćĈ!Ĉ!Ĉ": 2256,
      "ĥďĉĈ!ĈĈ!": 2257,
      ")!!": 2258,
      "&'(!!": 2259,
      "ć%&'(ććććććĈ!ć": 2260,
      "ćĈĈćĈćĈĈćĈĈ": 2261,
      "00110011": 2262,
      "%&'(ďĉďĉ!ďĉ!!ďĉ!ďĉďĉďĉďĉ!": 2263,
      "ćććĈ!Ĉ!ćĈ!Ĉ!ćĈ!ćĈ!ćĈ!ĈĈ!Ĉ!ćĈ!ćĈ!Ĉ!Ĉ!": 2264,
      "ć%&'(ďĉĈ!ćĈ!Ĉ!Ĉ!ćĈ!Ĉ!Ĉ!ĈĈ!ćĈ!ďĉ!": 2265,
      "ďĉďĉďĉďĉ!ďĉďĉ!!ďĉďĉďĉďĉďĉďĉďĉ!ďĉ!ďĉć%&'(ććććććĈ!ć": 2266,
      "ďĉďĉďĉďĉ!ďĉďĉ!!ďĉďĉďĉďĉďĉďĉďĉ!ďĉ!ďĉć%&'(ććććććĈ!ćČČďĉďĉďĉ!!!!!ďĉďĉďĉ!ďĉďĉćććććĈ!Ĉ!ćĈĈ": 2267,
      "%Ĉ": 2268,
      "ććć%&'(": 2269,
      "!!!!!!!!!!!!ďĉ!!ďĉ!!!!!!!!!!!": 2270,
      "ćďĉ%&'(ďĉ": 2271,
      "Ĉ!ĈĈĈ!ĈĈĈćďĉďĉ!ďĉďĉć%&'(Ĉ!Ĉ!Ĉ!Ĉ!Ĉ!Ĉ!": 2272,
      "ćććĈĈ!ćĈ!Ĉ!ĈćĈĈĈćĈĈĈćĈĈćććććďĉďĉďĉĈ!ĈĈĈĈĈ!ćĈ!Ĉ!ĈćĈĈĈ": 2273,
      "ďĉ!!ďĉďĉďĉ!ďĉ!!!!!!!!!!!!!!!!!!!!!!!!!!!!!!!!!!!!!!!!!!!!!!!!!!!!": 2274,
      "ć%&'(ďĉĈ!ćĈ!Ĉ!Ĉ!ćĈ!Ĉ!Ĉ!ĈĈ!ćĈ!": 2275,
      "Ĉ!ĈćĈ!Ĉ!Ĉ!ĈćĈ!ććďĉ!Ĉ!ĈćĈ!Ĉ!Ĉ!ĈćĈ!ććďĉďĉ!ďĉďĉ%&'(ćĈ!Ĉ!Ĉ!Ĉ!Ĉ!Ĉďĉ": 2276,
      "777'7777(788888888,-%&+01": 2277,
      "ćĈ!ćĈ!Ĉ!ćĈ!Ĉ!Ĉ!ćĈ!Ĉ!ćďĉ!ďĉďĉďĉďĉďĉďĉďĉďĉ)": 2278,
      "ďĉďĉďĉďďĉĉ": 2279,
      "%ď&'(ĉďĉďĉ!": 2280,
      "ďĉďĉ%&'(ďĉďĉďĉďĉďĉďĉ": 2281,
      "ďďďĉĉĉ": 2282,
      "Ĉ!ĈĈ!ĈĈĈĈ!ĈĈ!ĈďĉĈ!ĈĈĈĈĈĈĈĈ!ĈĈĈ": 2283,
      "&'(ććććććććĈ!ćććĈ!Ĉ!ćĈ!ďĉćĈ!Ĉ!ĈćĈ!ďĉćććććććĈ!ćĈ!%&'(ćďĉ!ďĉďĉ!!!": 2284,
      "ďĉ!ďĉ!!!!!!!!!!!ďĉ!!ďĉďĉďĉďĉďĉďĉ!ďĉďĉďĉďĉďĉďĉ%&'(ďĉďĉ!ďĉďĉďĉćććććĈ!Ĉ!Ĉ!ćĈĈćĈ%&'(ďĉďĉ": 2285,
      "ďĉ!ďĉď%&'(ĉ": 2286,
      "ďĉďĉ!!ďĉ!!ďĉ!!!!!!)!!!!!!!!)!": 2287,
      "!!!!!ďĉďĉďĉ!ďĉďĉćććććĈ!Ĉ!ćĈĈćďĉćĈ!ććĈ!ćĈ!Ĉ": 2288,
      "ďĉ%&'(ďĉďĉ!": 2289,
      "%ď&'(ĉďĉďĉ": 2290,
      "%&'(ďĉ!!!ďĉďĉďĉďĉďĉďĉďĉďĉ!": 2291,
      "001101010011": 2292,
      "ććććććĈ!ććĈ!Ĉ!Ĉ!ĈćĈ!Ĉ!ĈćĈććĈĈ!ĈĈĈ%&'(ďĉ!!!ďĉďĉďĉďĉďĉďĉďĉďĉ!": 2293,
      "ďĉ!ďĉĈ!Ĉ!ćĈ!Ĉ!ĈĈĈďĉ!ďĉ!!!SĂĄĆ!!ďĉ!!!!!!RTVa!!!S%&'(ĂĄĆ!!!!R!!!S": 2294,
      "%!!!!!!!!!!!!!!!!!!!!!!!!!!!!&'(!!!!!!!!!!!!!!!!!!!!!!!!!!!!!!!!!!!!!!!!!!!!!!!!!!!!!!!!!!!!!!!!": 2295,
      "ćďĉ!ďĉďĉďĉďĉ": 2296,
      "ďĉď%ĉ&'(": 2297,
      "ćĈ!Ĉ!Ĉ!Ĉ!Ĉ!Ĉ!ĈĈďĉ%&'(!!!": 2298,
      "ć%&'(ďĉďĉćććĈ!ćĈ!Ĉ!Ĉ!ćĈ!Ĉ!ćĈ!Ĉ!Ĉ!Ĉ!ćĈ!Ĉ!ćĈ!ćĈ!ćĈ!ćĈ!Ĉ!Ĉ!Ĉ!Ĉ!Ĉ!Ĉ!Ĉ!Ĉ!ĈĈ!": 2299,
      "ćĈ!ćććć": 2300,
      "ďĉďĉďĉďĉďĉďĉďĉďĉďĉďĉďĉďĉďĉ": 2301,
      "ď!ď!": 2302,
      "ććććĈ!ćĈ!Ĉ!Ĉ!ĈĈ!Ĉ!Ĉ!ĈććĈ!ćďĉććććććććĈ!Ĉ!Ĉ!Ĉ!ćĈĈĈĈ!Ĉ!ćĈ!": 2303,
      "33222323": 2304,
      "ććĈ!Ĉ!ĈĈĈ!!ćĈ!Ĉ!Ĉ!Ĉ!ćďĉďĉ!!ďĉďĉďĉďĉććććĈ!ĈĈ!ćĈ!ĈĈ!Ĉ!Ĉ!ćĈ!ćĈ": 2305,
      "ćĈ!ĈćććććććĈ": 2306,
      "ďĉďĉ%&'(ďĉďĉďĉ!!": 2307,
      "ďĉďĉ!ďĉďĉĈ!": 2308,
      "&'Ĉ(!": 2309,
      "ĈĈĈ!Ĉ!Ĉ!ĈĈĈĈ!Ĉ!ĈĈ!Ĉ!Ĉ!ĈĈĈĈćďĉďĉ%&'(": 2310,
      "%!!!!!!!!!!!!!!!!!!!!!!!!!!!&'(!!!!!!!!!!!!!!!!!!!!!!!!!!!!!!!!!!!!!!!!!!!!!!!!!!!!!!!!!!!!!!!!": 2311,
      "ććććććććććććććććććććććććććĈ!ćććĈ!Ĉ!ćĈ!Ĉ!ćĈ!ćĈ!ćĈ!ĈĈ!Ĉ!%&'(ćĈ!ćĈ!Ĉ!Ĉ!ďĉďĉ!": 2312,
      "%&'(!!!!!!": 2313,
      "ďĉ!!ďĉďĉ!!ďĉ!ďĉ!!": 2314,
      "ďĉďĉďĉććĈ!Ĉ!ćĈĈ!ćĈ!Ĉ!Ĉ!Ĉ!Ĉ!ĈĈĈćĈ!Ĉ!Ĉ!ćďĉććć": 2315,
      "ďĉďĉďĉďĉďĉďĉRTVa": 2316,
      "ďĉďĉ!!!!ďĉďĉ": 2317,
      "ďĈĈĉ": 2318,
      "ď&'(ĉ": 2319,
      "ďĉ!ďĉ!ďĉďĉďĉďĉ!": 2320,
      "!!!!!!!!!!ćććććććććććĈ!ĈćĈ!Ĉ!ĈćĈ!ćďĉďĉ!!ćććĈ!Ĉ!ćĈ!Ĉ!ĈĈĈĈ!ććĈ": 2321,
      "!!!!!!!!!!!!!!!!!!!!!!!!!!!!!!!!!!!!!!!!!!!!!!!!!!!!!!!!!!!!!!!!!!!!!!!!!!!!!!!!!!": 2322,
      "%!!!!!!!!!!!!!!!!!!!!!!!!!!!!!!!!!!!!!!!": 2323,
      "%&'(ďĉďĉ!ďĉďĉďĉďĉďĉďĉďĉďĉ!": 2324,
      "ďĉďĉďĉ!!ďĉ!ććĈ!Ĉ!Ĉ!Ĉ!Ĉ!ďĉďĉ!ďĉćććććĈ!Ĉ!Ĉ!Ĉ!Ĉ!Ĉ!ďĉ!%&'(ďĉ!!ďĉ!ďĉďĉ!ďĉďĉ!ďĉ!": 2325,
      "ďĉ!!!!!!!!!!!!!!!!!!!!!ďĉ": 2326,
      "ďĉďĉďĉďĉďĉďĉďĉďĉ!!!ďĉďĉďĉďĉććĈ!Ĉ!Ĉ!Ĉ!Ĉ!Ĉ!": 2327,
      "ďĉďĉďĉďĉďĉ)!)ďĉďĉďĉćććĈ!Ĉ!Ĉ!ĈĈ!Ĉ!ćĈ!Ĉ!Ĉ!ĈćĈ!Ĉ!Ĉ!Ĉćďĉ!": 2328,
      "ďĉďĉďĉĈ!Ĉ!Ĉ!Ĉ!Ĉ!ćĈ!ĈĈĈĈćĈ!ćĈ!ć%&'(ďĉďĉďĉďĉ!": 2329,
      "Ĥ!": 2330,
      "%!&'(!!!": 2331,
      "ďďďĉĉ": 2332,
      "ďĉďĉ!!ďĉ!!!!!!!!!": 2333,
      "%!!!!!!!!!!!!&'(": 2334,
      "ććĈ!ćĈ!Ĉ!ĈĈĈ!ĈĈĈććĈ!ĈĈ!ĈĈĈĈ!ĈĈ!ĈĈĈĈďĉďĉďĉ!!!!!!!!!!ďĉďĉďĉ%&'(ďĉďĉďĉĈ!Ĉ!Ĉ!Ĉ!Ĉ!Ĉ!ćďĉďĉďĉćĈ!Ĉ!Ĉ!Ĉ!": 2335,
      "ďĉ!!ďĉ%&'(ďĉďĉćććĈ!Ĉ!Ĉ!Ĉ!ĈĈĈĈĈĈĈĈĈĈ!ćĈ!Ĉ!ĈćĈĈćĈćĈĈĈćĈĈďĉĈ!ĈĈĈĈ": 2336,
      "ďĉ!!!!!!!": 2337,
      "ďĉďĉććĈ!Ĉ!Ĉ!ćĈ!": 2338,
      "!!!!!!!!!!!!!!!)!)!!!!!!!!!!!!!!!!!!!!!!!!!!!!!!": 2339,
      "ďĉ!ďĉ!ďĉ%&'(ďĉďĉďĉďĉ": 2340,
      "ďĉďĉďĉćďĉ!ďĉďĉďĉďĉ": 2341,
      "ďĉďĉďĉ!!ďĉ!ććĈ!Ĉ!Ĉ!Ĉ!Ĉ!ďĉďĉ!ďĉćććććĈ!Ĉ!Ĉ!Ĉ!Ĉ!Ĉ!ďĉ!%&'(ďĉ!!ďĉ!ďĉďĉ!ďĉďĉ!": 2342,
      "ćĈ!Ĉ!ćĈ!ćĈ!Ĉ!ćĈ!Ĉ!ćĈ!Ĉ": 2343,
      "ďĉ!ďĉďĉďĉďĉďĉďĉďĉćďĉ!ďĉďĉďĉďĉ!!ďĉ%&'(ďĉďĉďĉďĉďĉďĉ!ďĉďĉďĉďĉ!!": 2344,
      "!!!!!!!!!!!!!!!!!!!!!!!!!": 2345,
      "01000111": 2346,
      ")!)!!!!!!!!!!!!!!!!!!!!!!!!!!!!!!!!!!!!!!!!!!!!!!!!!!!!!!!!!!!!!!!!!!!!!!!!!!!!!!": 2347,
      "%Ĉ&'(!Ĉ!": 2348,
      "ć%&'(ďĉ!ďĉďĉ!!!": 2349,
      "ďĉďĉďĉćććĈ!Ĉ!Ĉ!ĈĈ!Ĉ!ćĈ!Ĉ!Ĉ!ĈćĈ!Ĉ!Ĉ!Ĉćďĉ!ććććććććĈ!Ĉ!ćĈĈćĈ!ĈĈćĈ!ćĈĈćĈ!Ĉ!": 2350,
      "ćĈ!Ĉ!ĈćĈ!ďĉćććććććĈ!ćĈ!ć%&'(ďĉ!ďĉďĉ!!!": 2351,
      "ĥďĉĈ!ĈĈ!ďĉćĈ!Č": 2352,
      "C!": 2353,
      "ćĈĈ!Ĉ!": 2354,
      "ćĈĈćĈĈćĈĈćĈćĈĈćĈĈ": 2355,
      "ćĈ!ĈĈ!ćĈ!ĈćććććććĈ": 2356,
      "ďĉ!ďĉďĉďĉďĉďĉďĉďĉďĉ!!": 2357,
      "32232323": 2358,
      "ććĈ!Ĉ!ććĈ!ććććĈćĈćĈćĈććććĈ!Ĉ!ććĈ!ĈććććĈćĈćĈćĈćĈćĈćĈćĈćĈćĈć": 2359,
      "ďĉďĉďĉ)!)ďĉďĉďĉďĉďĉďĉ!!!": 2360,
      "ďĉďĉďĉďĉďĉď%&'(ĉ": 2361,
      "%!!!!!!!!!!!!!!!!!!!!!!!!!!!!!!!!!!!": 2362,
      "ćććĈ!Ĉ!Ĉ!ćĈ!Ĉ!Ĉćďĉďĉďĉďĉ": 2363,
      "ćććććććĈ!ćĈ!Ĉ!Ĉ!Ĉ!Ĉ!ćĈ!Ĉ!ćĈććĈćďĉćĈ!Ĉ!Ĉ!Ĉ!Ĉ!Ĉ!Ĉ!Ĉ!ćĈ!ćĈ!Ĉ!ĈćĈ!Ĉ!ďĉćĈ!": 2364,
      "ć%&'(ćććććĈ!Ĉ!Ĉ!ćĈ!Ĉ!Ĉ!Ĉ!Ĉ!!": 2365,
      "ďĈĈĈĉ": 2366,
      "3232222222222222222222222222222222222222222244444444%&5555555522222222222222222222222266666666": 2367,
      "ďĉ!!!!!!!!!!!!!!!!!ďĉ": 2368,
      "%!!&'(!!!!!!!!!!!!!!!!!!!!!!!!!!!!!!!!!!!!!!!!!!!!!!!!": 2369,
      "ďĉ!ďĉďĉďĉďĉďĉďĉďĉďĉďĉďĉďĉďĉďĉďĉďĉ": 2370,
      "Ĉ!ďĉ!ďĉďĉďĉďĉďĉ": 2371,
      "ďĉďĉ%&'(ďĉďĉćĈ!ĈĈ!Ĉ!ďĉ!ďĉ!ďĉďĉďĉ!!": 2372,
      "&'(!!!!!!!!!!!!!!!!!!!!!!!!!!!!!!!!!!!!!!!!!!!!!!!!!!!!!!!!!!!ďĉ!)!)!!!!!!!!!!ďĉ!!!!!!": 2373,
      "A!": 2374,
      "ĉďĉďĉ": 2375,
      "%&'(ćĈ!Ĉ!": 2376,
      "ćĈ!ćĈďĉďĉďĉďĉ!ďĉďĉďĉďĉ!ďĉ!!": 2377,
      "ć%&'(ďĉďĉďĉ": 2378,
      "ďĉ!!!!!ďĉ!ďĉďĉďĉďĉďĉďĉďĉ": 2379,
      "ĈĈĈĈĈĈĈĈĈĈĈĈĈĈĈĈĈĈĈĈĈĈĈĈĈĈĈĈĈĈĈĈĈĈĈĈĈĈĈĈĈĈĈĈĈĈĈĈĈ!Ĉ!ĈĈĈĈĈ!Ĉ!Ĉ!ďĉ": 2380,
      "ďĈ!Ĉĉ": 2381,
      "ćĈ!ď": 2382,
      "ďĉďĉďĉďĉď%&'(ĉ": 2383,
      "ć%&'(!!!!!!!!!!!!!!!!!!!!!!!!!!!!!!!!!!!!!!!!!!!!!!!!!!!!!!!": 2384,
      "ď!ď": 2385,
      "%ć&ć'(": 2386,
      "%&'(ďĉďĉďĉďĉďĉďĉďĉďĉďĉďĉďĉďĉ": 2387,
      "!!!!!!!!!!!!!!!!!!!!!!!!!!!!!!!!!!!ćććććććććććĈ!Ĉ": 2388,
      "ĈĈĈ!": 2389,
      "Ĉ!Ĉ!Ĉ!Ĉ!ĈĈĈ!ĈĈĈ": 2390,
      "ďĉ!!)ďĉďĉ!": 2391,
      "Ĉ!Ĉ!ĈĈ!Ĉ!Ĉ!": 2392,
      "ďĉ!ďĉ%ď&'(ĉ": 2393,
      "ćććććććććććććććććććććććććć": 2394,
      "ććć%ć&'(": 2395,
      "%!!!!!!!!!!!!!!!!!!!!!!!!!!!!!!!!!!!!!!!!!": 2396,
      "ĈćĈĈćĈćĈĈĈćĈĈďĉ": 2397,
      "ďĉďĉďĉďĉ!!!!ďĉ!!ďĉďĉďĉďĉďĉďĉďĉďĉ!ćĈ!Čďĉďĉ!": 2398,
      "%&'(!!!!!!!!!!!!!!!!!!!!!!)!!!!!!!!!!!!!!!!!!!!!!!!!!!!!!!!ďĉďĉďĉ!ďĉ!!": 2399,
      ")!)!!!!!!!!!!!!!!!!ďĉďĉďĉ!ďĉ%&'(!ďĉ!ďĉ!ďĉďĉ!!ďĉďĉďĉďĉďĉ!ďĉ!ďĉďĉďĉďĉ": 2400,
      "ćĈ!Ĉ!ćĈ!ćĈ!Ĉ!ćĈ!Ĉ!ćĈ!ĈćĈĈćĈĈćĈĈćĈćĈĈćĈĈ": 2401,
      "Ėē": 2402,
      "ćĈ!ćĈ!ćĈĈ": 2403,
      "%&'(%&'(%&'(%&'(%&'(%&'(": 2404,
      "ďĉďĉďĉ)!)": 2405,
      "ďĉ!!!!!!!!!!!!!!!!!!!!!!!": 2406,
      "!!!!!!!!!!!!!!!!!!!!!!!!!!!!!!!!!!!!!!!!!!!!!!!!!!!!!!!!!!!!!!!!!!!!!!!!!!!!!!!!!!!": 2407,
      "L!LK!LK!LK": 2408,
      "ďĉďĉďĉďĉďĉ!!ďĉ!!ďĉďĉďĉ)!)ďĉďĉďĉďĉďĉ!)!)!ďĉďĉ!!!)!)!!": 2409,
      "ē!Ħ": 2410,
      "ďĉďĉćććććććĈĈććććććĈ!ćĈĈ%&'(ďĉďĉ!!ďĉ!!!!!!!!!!!!!!!!!!!ććĈ!ćĈ!ćĈ!ćďĉ!!!!!!!!!!!!!!!": 2411,
      "ďĉ!!ďĉ)!!!)!!!!!": 2412,
      "Ĉ!Ĉ!Ĉ!Ĉ!ĈĈĈ!ĈĈĈćďĉďĉ!ďĉďĉć%&'(Ĉ!Ĉ!Ĉ!Ĉ!Ĉ!Ĉ!": 2413,
      "!%&'(ďĉ": 2414,
      "%&'(ďĉ!ďĉďĉďĉćĈ!Ĉ!Ĉ!Ĉ!ĈĈ!Ĉ!Ĉ!Ĉ!": 2415,
      "%&'(ćććććććććććĈ!ćĈ!!ććĈ!ććĈ!ćĈ!Ĉ!Ĉ!Ĉ!Ĉ!Ĉ!ĈćĈĈĈĈ!ĈććĈ!ććććĈć!!": 2416,
      "%&'(ďĉ!ďĉ!!!!!!!!ććĈ!Ĉ!ĈćĈĈĈććĈĈĈććĈ!Ĉ!Ĉ!Ĉ!Ĉ!Ĉ!ćĈĈ!Ĉ!Ĉ!ćĈĈĈććĈĈ!ćććĈ!ććĈ!ćĈ!ĈĈĈćć!!!!%&'(ďĉ!!ďĉ!!": 2417,
      "ćĈĈ!Ĉ": 2418,
      "Ĉ!ĈĈ!Ĉ!": 2419,
      "ďĉďĉďĉďĉďĉďĉďĉďĉ!!!": 2420,
      "ď!Ĉ!ĉ": 2421,
      "ć!Ĉ": 2422,
      "ďĉ!!ďĉďĉďĉďĉďĉďĉ!ďĉďĉďĉďĉďĉďĉ!!": 2423,
      "ćććĈ!Ĉ!Ĉ!Ĉ!ĈĈĈĈĈĈĈĈĈĈ!ćĈ!Ĉ!ĈćĈĈćĈćĈĈĈćĈĈďĉ%&'(": 2424,
      "ćĈ!ďĉććĈ!Ĉ!Ĉ!Ĉ!ćĈ!Ĉ!!Ĉ!ćĈ!ćĈ!ććĈ!Ĉ!": 2425,
      "ćĈ!ćĈ!Ĉ!Ĉ!ćĈ!Ĉ!Ĉ!ćĈ!Ĉ!Ĉ!ĈĈćĈĈ!Ĉďĉ!!!!!!!!!!!!!!!!!!!!!!!!!!!!!!!!": 2426,
      "ďĉďĉ!!ćććĈ!Ĉ!ćĈ!Ĉ!ĈĈĈĈ!ććĈďĉďĉććććććććććććććĈ!ććĈ!Ĉ!Ĉ!ĈćĈ!Ĉ!ĈćĈććĈĈ!ĈĈĈ%&'(ďĉ!!!ďĉďĉďĉďĉďĉďĉďĉďĉ!": 2427,
      "&'(!!!!!!!!!!!!!!!!!!!!!!!!!!!ććććććććććććČďĉďĉććĈ!ćĈ!ćĈ!ćĈ!ćĈćĈćĈćďĉďĉ": 2428,
      "ćďĉ!ďĉďĉďĉďĉ!!": 2429,
      "ďK": 2430,
      "%&'(ĉĉĉĉĉ": 2431,
      "ćďĉ!ďĉďĉďĉ%&'(ďĉďĉďĉďĉďĉ": 2432,
      "ďď!!": 2433,
      "!!!!RTVa": 2434,
      "ććććĈ!Ĉ!ćĈ!ćĈ!Ĉ!ććĈ!ĈććĈ!Ĉ!ćĈ!ćĈ!Ĉ!Ĉ!ćĈĈ!%&'(ďĉďĉďĉďĉ": 2435,
      "Ĉ!Ĉ!Ĉ!ćĈ!Ĉ!Ĉ!ććĈ!Ĉ!Ĉ!Ĉ!Ĉ!Ĉ!ćĈćĈ!ććććććĈ!ćĈ!ććĈćććĈćććĈĈćĈćĈ!Ĉ!ćĈ!ĈćĈćĈćĈćĈ!Ĉ!ĈćĈ!Ĉ!": 2436,
      "ďĉćććďĉ!ďĉďĉ!ďĉďĉćććććďĉ!": 2437,
      "ĈĈ!ĈććĈ!Ĉ!ĈĈ!ĈĈ!Ĉ!ćĈ!%&'(ďĉĈ!ćĈ!Ĉ!Ĉ!Ĉ!Ĉ!Ĉ!ćĈ!ćĈ!ćĈ!Ĉ!Ĉ!ćĈ!ĈĈĈćĈćĈćĈĈĈćĈ%&'(ďĉďĉ!ďĉ!!ďĉ!ďĉďĉďĉďĉ!": 2438,
      "ďĖĉ": 2439,
      "ďĉďĉďĉďĉ%&'(ďĉďĉ!": 2440,
      "ćĈć": 2441,
      "ďĉ!ďĉ%!&'(": 2442,
      "LLLLLLLLLLLL": 2443,
      "%!!!!!!!!!!!!!!!!!!!!!!!!!!!!!!!!!": 2444,
      "!!!!!!!!!!!!!!!!!!!!!!!!!!!!!!!!!!!!!!!!!!!!!!!!!!!!ďĉ!!!!!!!!!!!!": 2445,
      "!!!!!!!!!!!!!!!!!!!!!!!!!!!!!!!!!!!!!!!!!!!!!!!!!!!!!!!!!!!!!!!!!!!!!!!!%!!!!!!!!!!": 2446,
      "Ĉ!Ĉććďĉ!ćĈ!ćĈ": 2447,
      "&'(!!!!ďĉććććĈ!ćĈ!ćĈ!ĈĈ!ććĈ!Ĉ!ČďĉćĈ!ćĈ!ćĈ!ćĈćĈ!ćĈ!Ĉ!ććĈ!ĈĈ!ćĈĈ!Ĉ!ĈćĈ!Ĉ!ĈĈĈĈĈĈććĈ!ćďĉ!!!!!!!!ďĉ!": 2448,
      "ďĉ!ďĉ!!!SĂĄĆ!!ďĉ!!!!!!RTVa!!!SĂĄĆ!!!!R!!!S": 2449,
      "%&'(ďĉďĉďĉ!ććĈ!ćďĉďĉďĉďĉďĉďĉďĉďĉďĉ!!ďĉ%&'(ďĉďĉćććĈ!Ĉ!Ĉ!Ĉ!ĈĈĈĈĈĈĈĈĈĈ!ćĈ!Ĉ!ĈćĈĈćĈćĈĈĈćĈĈďĉĈ!ĈĈĈĈ": 2450,
      "%!!!!!!!!!!!!!!!!!!!!!!!!!!!!!!!&'(!!!!!!!!!!!!!!!!!!!!!!!!!!!!!!!!!!!!!!!!!!!!!!!!!!!!!!!!!!!!!!!!": 2451,
      "ďĉ!ďĉďĉďĉďĉďĉďĉ!!%&'(ďĉ!ďĉďĉďĉďĉ!!ďĉďĉďĉ!ďĉ!ďĉ!ďĉ%&'(ććďĉďĉ)ćďĉ": 2452,
      "%ĈĈ&'(": 2453,
      "ďĉ!ďĉ!ďĉ!Ĉ!Ĉ!Ĉ!Ĉ!Ĉ!Ĉ!Ĉ!Ĉ!ĈĈĈ!ĈĈ!ĈĈĈ!Ĉ!ĈĈ!Ĉ!Ĉ!": 2454,
      "ďĉ!!!!!!!!!!!!!!!!!!!!!ďĉ!!!!!!!!!!!!!!ďĉďĉďĉďĉ": 2455,
      "!!!!!!!!!!!!!!!!!": 2456,
      "ďĉďĉĈ!Ĉďĉ!ďĉ!ďĉ": 2457,
      "&'(!!!!!!!!!!!!!!ďĉďĉ!ďĉ!)ďĉďĉďĉćďĉďĉ!ďĉďĉďĉ!!ďĉ!!!!": 2458,
      "ććĈććďĉďĉďĉ!!ďĉ!!ďĉ!!!!!!!!)!!!!!!!!)!": 2459,
      "ććďĉďĉ)ćďĉ%&'(ććććććĈ!Ĉ!Ĉ!ćĈ!Ĉ!Ĉ!Ĉ!Ĉ!!": 2460,
      "ħ)ę": 2461,
      ")ććććććććććććĈ!ććĈ!ćĈ!ćĈ!Ĉ!Ĉ!ćĈ!Ĉ!ćĈ!%&'(ďĉććĈ!Ĉ!Ĉ!Ĉ!ćĈ!Ĉ!!Ĉ!ćĈ!ćĈ!ććĈ!Ĉ!ćĈ!ďĉ!": 2462,
      "ď)ĉ": 2463,
      "ćććććĈ!ćĈ!Ĉ!ćĈĈ!Ĉ!Ĉ!Ĉ!ćĈćĈĈćĈ!Ĉ!Ĉ!ćĈ!Ĉ!Ĉ!Ĉ!ćĈ!Ĉ!ďĉ": 2464,
      "L!L": 2465,
      "ďħĉ": 2466,
      "%&'(ďĉĈ!Ĉ!ĈĈĈ!Ĉ!Ĉ!Ĉ!ĈĈĈĈĈ!ĈĈĈĈ!ĈĈĈĈĈĈĈĈĈĈĈĈ!Ĉ!ĈĈĈĈĈĈĈĈĈĈĈĈĈĈĈĈĈĈĈĈĈĈĈĈ!ĈĈĈĈĈĈĈĈĈĈĈĈĈĈĈĈĈĈĈĈĈĈĈ": 2467,
      "ćććććććĈĈ": 2468,
      "ďĉ!ďĉďĉďĉďĉďĉďĉďĉďĉććććĈ!ćĈ!Ĉ!Ĉ!ĈĈ!Ĉ!Ĉ!ĈććĈ!ć%&'(ďĉććććććććĈ!Ĉ!Ĉ!Ĉ!ćĈĈĈĈ!Ĉ!ćĈ!ďĉďĉ": 2469,
      "Ĉ!Ĉ!ĈĈ!Ĉ!Ĉ!Ĉ!ďĉďĉďĉďĉďĉ!ďĉďĉďĉ!": 2470,
      "&'(!!!!!!!!!!!!!!!!!!!!!!!!!!!!!!!!!!!!!!!!!!!!!!": 2471,
      "RTVa!!!SĂĄĆ!!!!R!!!SĈ!ćĈ!ćĈ!Ĉ!Ĉ!": 2472,
      "ďĉďĉďĉďĉďĉ!!ďĉ!!!!!!!ďĉ!!ďĉďĉ!!!": 2473,
      "&'ć(": 2474,
      ")!)!!!!!!!!!!!!!!!%&'(!ďĉďĉďĉ!ďĉ!ďĉ!ďĉ!ďĉďĉ!!ďĉďĉďĉďĉďĉ!ďĉ!ďĉ%&'(ďĉďĉďĉďĉ": 2475,
      "%&'(!!": 2476,
      "%&'(ďĉ!ďĉďĉďĉďĉ!!!!!!!!!!!!!!!!!!!!!Ĉ!Ĉ!Ĉ": 2477,
      "ďĉ!)": 2478,
      "ćďĉĈ!ćĈ!Ĉ!Ĉ!ćĈ!Ĉ!Ĉ!ĈĈ!": 2479,
      "Ĉ!ćĈ!ć%&'(": 2480,
      "ĈĈ!ĉ": 2481,
      "!!!!!!!!!!!!!!!!!!!!!!!!!!!!!!!!!!!!!!!ďĉďĉććććććĈ!ćććĈ!ćććĈ!ćĈ!ćďĉďĉďĉďĉ!": 2482,
      "ĖĖĖĖ": 2483,
      "ććććććććĈ!ćććĈ!Ĉ!ćĈ!%&'(ďĉ": 2484,
      "ćććĈ!Ĉ!Ĉ!Ĉ!Ĉ!ćĈ!Ĉ!Ĉ!ĈćĈ!ćĈĈĈĈĈćĈĈĈĈĈćĈ!ĈĈĈćĈďĉ!": 2485,
      "Ĉ!%&'(Ĉ!Ĉ!Ĉ!Ĉ!ĈĈĈ!ĈĈĈćďĉďĉ!ďĉďĉć%&'(Ĉ!Ĉ!Ĉ!Ĉ!Ĉ!Ĉ!": 2486,
      "ćĈ!ĈĈ!ćĈ!ĈćććććććĈćĈ!Ĉ!ćĈ!ćĈ!Ĉ!ćĈ!Ĉ!ćĈ!ĈćĈĈćĈĈćĈĈćĈćĈĈćĈĈ": 2487,
      "ďB": 2488,
      "ďćććĉ": 2489,
      "ďĉďĉ%&ď'(ĉ": 2490,
      "ćĈ!Ĉ!Č": 2491,
      "ďĉďĉďĉĈ!ĈĈćďĉďĉďĉďĉďĉďĉďĉ!ďĉ!ďĉďĉďĉ!": 2492,
      "%Ĉ&'(ĈĈĈ": 2493,
      "ďĉďĉďĉ%&'(ďĉďĉďĉďĉ": 2494,
      "Ĉ!ďĉďĉćĈ!ďĉ!%&'(": 2495,
      "ćĈ!Ĉ!ćĈĈćďĉćĈ!ććĈ!ćĈ!Ĉ": 2496,
      "ćďĉ!!!!!!!!!ďĉďĉďĉďĉďĉ)!)": 2497,
      "ďĉ!ďĉďĉďĉďĉďĉďĉďĉďĉďĉďĉ!!ććć": 2498,
      "ććććĈ!Ĉ!Ĉ!Ĉ!Ĉ!ĈĈ!Ĉ!ćďĉ!!ďĉďĉćĈ!ćďĉďĉ!ďĉďĉćććććĈ!ćČ": 2499,
      "!%!!!!!!!!!!!!!!!!!!!!!!&'(!!!!!!!!!!!!!!!!!!!!!!!!!!!!!!!!!!!!!!!!!!!!!!!!!!!!!!!!!!!!!!!!": 2500,
      "ćČ": 2501,
      "!!!!!!!!!!!!!!!!!!!!!!!!!!!!!!!!!!!!!": 2502,
      "22222222222222222222222222222222": 2503,
      "!!!!!!!!!%!&'(": 2504,
      "ďĉďĉďĉďĉďĉďĉď%&'(ĉ": 2505,
      "ćďĉďĉćć": 2506,
      "%&'(!!!!!!!!!!!!!!!!!!!!!!!!!!": 2507,
      "Ĉ!Ĉ!Ĉ!Ĉ!!Ĉ!Ĉ!Ĉ!Ĉ!!Ĉ!Ĉ!Ĉďĉďĉďĉ%&'(Ĉ!Ĉ!ĈĈ!Ĉ!ĈĈĈĈ!Ĉ!ĈĈ!Ĉ!Ĉ!!Ĉ!%&'(ďĉ!ďĉďĉďĉďĉďĉ": 2508,
      "ćććĈĈ!ćĈ!Ĉ!ĈćĈĈĈćĈĈĈćĈĈćććććďĉďĉďĉĈ!ĈĈĈĈĈ!ćĈ!Ĉ!ĈćĈĈĈćĈĈĈĈĈ": 2509,
      "ććĈ!Ĉ!Ĉ!Ĉ!Ĉ!Ĉ!Ĉ!ĈĈćĈďĉďĉćććĈ!Ĉ!Ĉ!Ĉ!Ĉ!Ĉ!ćććććĈ!ćĈĈ%&'(ďĉďĉ!!ďĉ": 2510,
      "&ď'(": 2511,
      "0000111": 2512,
      "%&'(!!!!!": 2513,
      "ćĈ!Ĉ!Ĉ!ĈĈ!Ĉ": 2514,
      "ďĉďĉďĉďĉ!!!!!!!!!ďĉ!!!!!!!!": 2515,
      ")!)ďĉďĉďĉćććĈ!Ĉ!Ĉ!ĈĈ!Ĉ!ćĈ!Ĉ!Ĉ!ĈćĈ!Ĉ!Ĉ!Ĉćďĉ!ććććććććĈ!Ĉ!ćĈĈćĈ!ĈĈćĈ!ćĈĈćĈ!Ĉ!": 2516,
      "ďĉ!!!ďĉ%&'(ďĉďĉ!!ďĉ": 2517,
      "ďĉ!ďĉďĉ!!ďĉďĉďĉďĉďĉďĉďĉďĉ!": 2518,
      "ďĉďĉďĉďĉďĉďĉďĉďĉďĉďĉćďĉďĉďĉďĉ!ććĈ!Ĉ!Ĉ!Ĉ!Ĉ": 2519,
      "%&'(ďĉďĉďĉďĉďĉďĉďĉďĉďĉćććć": 2520,
      "!!!!RTVa!!!SĂĄĆ!": 2521,
      "ďĈĉ": 2522,
      "%!ć&'(": 2523,
      "ďĦĉ": 2524,
      "%&'(!!!!!!!!!!!": 2525,
      "ďĉďĉ!ďĉ!!ďĉ!": 2526,
      "Ĉ!Ĉ!Ĉďĉ!!!!!!!!!!!!!!!!!!!!!!!!!!!!!!!!!!!!!!!!!!!!!!!!!!!!!!!!!!!!!!!!": 2527,
      ")!)!!!!!!!!!!!!!!!!!!!": 2528,
      "Ĉ!Ĉ!Ĉ!!ĈĈ!ĈććĈ!Ĉ!ĈĈ!ĈĈ!Ĉ!ćĈ!": 2529,
      "Ĉ!Ĉ!Ĉ!Ĉ!!Ĉ!Ĉ!Ĉ!Ĉ!!Ĉ!Ĉ!Ĉ%&'(": 2530,
      "ććććĈ!Ĉ!ćĈ!ćĈ!Ĉ!ććĈ!ĈććĈ!Ĉ!ćĈ!ćĈ!Ĉ!Ĉ!ćĈĈ!ďĉďĉďĉďĉććĈ!Ĉ!ĈĈĈ!!ćĈ!Ĉ!Ĉ!Ĉ!": 2531,
      "%)": 2532,
      "ď!!!": 2533,
      "ďĉ!!%&'(": 2534,
      "ďĉďĉ!ďĉďĉďĉďĉďĉďĉ!": 2535,
      "Ĉ!Ĉ!ĈĈ!Ĉ!ćĈ!Ĉ!": 2536,
      "ďĉććććććććććććĈ!ćĈ!Ĉ!Ĉ!Ĉ!Ĉ!Ĉ!": 2537,
      "32233": 2538,
      "ććĈ!Ĉ!Ĉ!Ĉ!Ĉďĉďĉďĉďĉďĉďĉďĉďĉ": 2539,
      "ććććĈćĈććĈ!ćĈ!Ĉ!Ĉ!Ĉ!ćĈ!Ĉ!ćĈ!ćĈ!Ĉ!ćĈ!ĈćĈ!ĈĈ!ĈćĈćĈćĈćććĈćĈćććĈćĈćĈ!ĈćĈćĈćĈ": 2540,
      "!!!!!!!!!!!ďĉćććĈ!Ĉ!Ĉ!Ĉ%&'(ďĉ!ďĉďĉďĉďĉ!!!!!!!!!!!!!!!!!!!!!Ĉ!Ĉ!Ĉ": 2541,
      "ć%&'(ďĉďĉććĈ!": 2542,
      "Ĉ!ćĈ!Ĉ!ĈćĈĈĈćĈĈĈĈĈĈ!ĈĈ!ĈĈĈćĈĈĈćĈ!ĈĈĈĈ!ĈĈ!Ĉ": 2543,
      "Ĕ!ďĉďĉďĉďĉ": 2544,
      "ćććĈ!Ĉ": 2545,
      "%&'(ďĉďĉďĉďĉďĉďĉďĉ!": 2546,
      "ćĈ!Ĉ!Ĉ!Ĉ!Ĉ": 2547,
      "ďĉ!!ďĉďĉďĉ%&'(": 2548,
      "ďĉ!!ďĉďĉďĉďĉďĉďĉďĉ)!": 2549,
      "ďĉďĉďĉ!!!!": 2550,
      "!!!!!!!!!!!!!!!!!!!!!!!!!!!!!!!!!!!!!!!!!!!!!!!!!!!!!!!!!!!!!!!!!!!!!!!!!!!!!!!!!!!!!!!!!!": 2551,
      "ďĉ!ďĉďĉďĉćććĈ!Ĉ!Ĉ!ćĈĈĈĈ!ćĈ!ĈĈ!ćĈ!ć": 2552,
      "%!!!&'(!!!!!!!!!!!!!!!!!!!!!!!!!!!!!!!!": 2553,
      "ĥ!Ĥ": 2554,
      "ďĉ!ďĉ!ďĉďĉďĉďĉ!ďĉďĉ": 2555,
      "ďĉďĉďĉďĉ!!!!ďĉ!!ďĉďĉďĉďĉďĉďĉďĉďĉ!ćĈ!Čďĉďĉ!%&'(ďĉďĉďĉďĉďĉďĉďĉďĉďĉćććć": 2556,
      "Ĉ!ďĉďĉćĈ!ďĉ!%&'(ććĈ!Ĉ!Ĉ!Ĉ": 2557,
      "Ĉ!!!": 2558,
      "ďĉħ": 2559,
      "ćććĈ!ćĈ": 2560,
      "ćć%ć&'(": 2561,
      "ćĈ!ćĈ!ĈĈ!": 2562,
      "ďĉ!ďĉ%&'(!": 2563,
      "ďĉďĉ!!ďĉ%&'(": 2564,
      "Ĉ!Ĉ!Ĉ!Ĉ!Ĉ!Ĉ!Ĉ!ĈĈćĈ": 2565,
      "!!!!!!!!!!!!!!!!!!!!!!!!!!!!!!!!!!!!!!!!!!!!!!!!!!!!!!!!!!!!!!!!!!!!!!!!!!!!!!!!!!!!!!": 2566,
      "%!!!!!!!!!!!!!!!!!!!!!!!!!!!!!!!!!!!!!!!!": 2567,
      "ďĉ!ďĉ!ďĉ%&'(ďĉďĉ": 2568,
      ")!!!!!!!!!!!!!!!ďĉďĉďĉ)!)ďĉďĉďĉďĉďĉďĉ!!!": 2569,
      "ďĉ!!ďĉďĉďĉ)!)ďĉďĉďĉďĉďĉ!)!)!ďĉďĉ!!!)!)!!": 2570,
      "ćĈ!Ĉ!ćĈ!Ĉ!ćĈ!Ĉ!Ĉ!Ĉ!Ĉ!ćĈ!ćĈ!ćĈ!ćĈ!ćĈ!Ĉ!ćĈ!ćĈ!Ĉ!ćĈĈćĈ!ĈććĈ!ĈćĈćĈćĈ!ĈćĈĈďĉ%&'(ďĉďĉĈ!Ĉ!Ĉ!Ĉ!ćććĈ!": 2571,
      "ććĈ!Ĉ!Ĉ!ĈćĈ!Ĉ!ĈćĈććĈĈ!ĈĈĈďĉ!!!": 2572,
      "ćććććĈ!Ĉ!Ĉ!Ĉ!Ĉ!Ĉ!ćĈ!Ĉ!Ĉ!ćĈ!Ĉ!ćĈ!Ĉ!Ĉ!ćĈ!Ĉ!ćĈ!ćĈ!ćĈ!ćĈ!Ĉ!Ĉ!Ĉćďĉ!!!!!!!!!": 2573,
      "ććĈ!ďĉ!ďĉ!!ćĈ!ďĉďĉďĉĈ!Ĉ!Ĉ!Ĉ!Ĉ!ćĈ!ĈĈĈĈćĈ!ćĈ!ć%&'(ďĉďĉďĉďĉ!": 2574,
      "ďďĉ!ĉ": 2575,
      "ďĒ": 2576,
      "!!!!ďĉ!!!ćććććĈ!ĈĈ!ĈĈĈ!Ĉ!Ĉ!Ĉ!Ĉ!Ĉ!Ĉ!Ĉ!Ĉ!Ĉ!Ĉ!Ĉ!ćĈ!ďĉ!ďĉ!!!!!!!!!!!!!!!!": 2577,
      "%&'(!!!": 2578,
      "ĈĈĈĈĈćĈĈ": 2579,
      "ďĉ!ďĉ!ďĉďĉďĉďĉ": 2580,
      "ďĉ!!ďĉďĉ!!ďĉ!ďĉ!!ďĉďĉďĉ!ďĉ": 2581,
      "ďĉďĉ!ďĉďĉďĉďĉ!ďĉ!!": 2582,
      "ďĉďĉďĉ!ďĉďĉ!!": 2583,
      "ďĉ%&'(ďĉďĉďĉďĉ": 2584,
      "ďĉ!!!!!!!!!!!!!!!!!!!!!!!!!!!": 2585,
      "ćĈĈĈććĈ!Ĉ!ććĈ!ćććĈćĈćĈćĈćĈĈćĈĈćĈćĈćĈćĈ!Ĉ!ĈćĈ!Ĉ!Ĉ!ććććĈćĈććĈ!ćĈ!Ĉ!Ĉ!Ĉ!ćĈ!Ĉ!ćĈ!ćĈ!Ĉ!ćĈ!ĈćĈ!ĈĈ!Ĉ": 2586,
      "Ĉ!ĈĈćďĉďĉďĉďĉďĉďĉďĉ!ďĉ!ďĉďĉďĉ!ďĉ!ďĉďĉďĉĈ!Ĉ!Ĉ!Ĉ!ććĈćć": 2587,
      ">>>>": 2588,
      "ć!!!!!!!!!!!!!!!!!!!!!!!!!!!!!!!!!!!!!!!!!!!!!!!!!!!!!!!%&'(%&'(ďĉ!!ććććććĈććĈ!": 2589,
      "ďĉ!ďĉďĉďĉďĉďĉďĉďĉďĉ!!ďĉďĉďĉďĉ!!!!ďĉ!!": 2590,
      "ć%&'(ćććććĈ!Ĉ!Ĉ!ćĈ!Ĉ!Ĉ!Ĉ!Ĉ!!ĈĈ!ĈććĈ!Ĉ!ĈĈ!ĈĈ!Ĉ!ćĈ!%&'(ďĉĈ!ćĈ!Ĉ!Ĉ!Ĉ!Ĉ!Ĉ!ćĈ!ćĈ!ćĈ!Ĉ!Ĉ!ćĈ!ĈĈĈćĈćĈćĈĈĈćĈ": 2591,
      "%ććĈ": 2592,
      ")M": 2593,
      "Lďĉ!": 2594,
      "Ğğ": 2595,
      "ďĉ!!!!RTVa!!!SĂĄĆ!!!!R!!!S": 2596,
      "ďĉďĉďĉďĉďĉďĉďĉďĉ%&'(": 2597,
      "ď%&'(ĉďĉďĉďĉďĉ": 2598,
      "ććććĈ!ĈĈ%&'(ďĉ!!!!!!!!!!!": 2599,
      ")!!!!!!!!!!!!!!!!!!!!!!!!!!!!!!!!%&'(ďĉďĉďĉ!ďĉ!!ďĉďĉďĉďĉďĉďĉ!ďĉďĉ!!": 2600,
      "ćĈ!ĈĈ!ĈĈĈĈ!Ĉ!Ĉ!ĈĈĈĈĈĈĈĈ!ĈĈĈĈĈďĉ!ďĉďĉ!": 2601,
      "ďĉ!ďĉ!!!!!!ďĉďĉ!!!!ďĉďĉďĉććĈ!Ĉ!ćĈĈ!ćĈ!Ĉ!Ĉ!Ĉ!Ĉ!ĈĈĈćĈ!Ĉ!Ĉ!": 2602,
      "ćććććĈ!Ĉ!Ĉ!ćĈĈćĈďĉďĉĈ!Ĉďĉ!ďĉ!ďĉ%&'(ćććććććććććĈ!ćĈ!!ććĈ!ććĈ!ćĈ!Ĉ!Ĉ!Ĉ!Ĉ!Ĉ!ĈćĈĈĈĈ!ĈććĈ!ććććĈć!!": 2603,
      "ćććĈ!Ĉ!Ĉ!Ĉ!Ĉďĉ!ďĉ!ďĉ!Ĉ!Ĉ!Ĉ!Ĉ!Ĉ!Ĉ!Ĉ!Ĉ!ĈĈĈ!ĈĈ!ĈĈĈ!Ĉ!ĈĈ!Ĉ!Ĉ!": 2604,
      "ėĥĤē": 2605,
      "ćĈ!ďĉďĉďĉďĉďĉďĉďĉďĉďĉďĉďĉďĉ": 2606,
      "ććććććĈ": 2607,
      "ďĉďĉďĉďĉďĉďĉďĉďĉďĉćććć": 2608,
      "%ď&'(ĉďĉďĉďĉ": 2609,
      "Ĉ!Ĉ!ĈĈĈ!ĈćĈ!": 2610,
      "ćććďĉ!!ďĉďĉďĉ!ďĉ!!!!!!!!!!!!!!!!!!!!!!!!!!!!!!!!!!!!!!!!!!!!!!!!!!!!": 2611,
      "!!!!!!!!!!!!!!!!!!!!!!!!!!!!!!!!!!!!!!!!!!!!!!!!!!!!!!!!!!!!!!!!!!!!!!!!!!!!!!!!!!!!!!!!!!!!": 2612,
      "!!!!!!!!!!!!!!!!!!!!!!!!!!!!!!!!!!!!!!!!!!!!!!!!!!!!!!!!!!!!!!!!!!!!!!!!!!!!!!!!!!!!!!!!!": 2613,
      "ďĉ!%&'(!": 2614,
      "ďĉďĉďĉďĉďĉ%&'(ďĉďĉďĉ!": 2615,
      "ďĉďĉ!ďĉ!!ďĉ!ďĉďĉďĉďĉ!": 2616,
      "ďĉď%&'(ĉďĉ": 2617,
      "ďĉ!ďĉ!!!ďĉ!!!ćććĈćĈ!ćĈ!ĈĈ!Ĉ!ćĈĈĈĈĈĈĈĈĈĈĈĈĈ!ćĈ!ćĈĈĈĈ!Ĉ%&'(ďĉććďĉďĉ!!ďĉććĈ!ĈĈĈĈĈ!ćďĉďĉ": 2618,
      "Ĉ!Ĉ!ĈĈ!Ĉ!Ĉ!ĈĈĈĈćďĉďĉ": 2619,
      "ďĉ!!!!!ďĉ!)!)!!!!!!!!!!!!!!ďĉ!!!!!!!!!!!!!!!!!!!!!ďĉ!!!!!!!!!!!!!!ďĉďĉďĉďĉ": 2620,
      "ćďĉćććďĉ!!ďĉďĉďĉ!": 2621,
      "ćććććĈ!Ĉ!Ĉ!ćĈĈćĈďĉďĉććĈ!Ĉ!Ĉ!ćĈ!": 2622,
      "ďĉďĉďĉďĉďĉďĉR%&'(TVaďĉććĈ!ćććĈćććĈĈ!Ĉ!ćĈ!ććĈćĈ!ćĈ!!Č!!Č!ďĉ!ďĉĈ!Ĉ!ćĈ!Ĉ!ĈĈĈ": 2623,
      "ďĉ!ďĉďĉďĉďĉćććĈ!Ĉ!ććĈ!ćĈ!ćČďĉ!!!ďĉ!Ĉ!Ĉ!Ĉ!Ĉ!ĈćĈ!ĈĈ!ĈĈĈ": 2624,
      "Ĉ!Ĉ!Ĉ!Ĉ!Ĉ!ćĈ!ĈĈĈĈćĈ!ćĈ!ćďĉďĉďĉďĉ!ďĉ!ďĉďĉ": 2625,
      "Ĉ!Ĉ!ĈĈ!Ĉ!ćĈ!Ĉ!ĈĈĈĈĈ": 2626,
      "!%!!!!!!!!!!!!&'(!!!!!!!!!!!!!!!!!!!!!!!!!!!!!!!!!!!!!!!!!!!!!!!!!!!!!!!!!!!!!!!!": 2627,
      "ćďĉ!ďĉďĉďĉďĉďĉďĉďĉ": 2628,
      "Ē!!!!": 2629,
      "ććććĈ!Ĉ": 2630,
      "ďĉďĉďĉďĉ%&'(ďĉďĉ": 2631,
      "!!!!!!ććććććććĈ!ćććĈ!Ĉ!ćĈ!ďĉ": 2632,
      "ďĉ!ďĉ!ďĉďĉďĉ!": 2633,
      "2322": 2634,
      "ďďĉĉďĉďĉďĉďĉ": 2635,
      "ćććĈ!Ĉ!Ĉ!Ĉďĉ!ďĉďĉďĉďĉ!!!!!!!!!!!!!!!!!!!!!Ĉ!Ĉ!Ĉ": 2636,
      "ćďĉ!ďĉ!!!!!!!!!!!!!!!!!!!!!!!!!!!!!!!!!!!ćććććććććććĈ!Ĉ": 2637,
      "ć%&'(ďĉćĈ!ććĈ!ćĈ!Ĉ": 2638,
      "ćććĈ!Ĉ!Ĉ!Ĉ!Ĉ!Ĉ!ćććććĈ!ćĈĈďĉďĉ!!ďĉ!!!!!!!!!": 2639,
      "ćććĈ!Ĉ!Ĉ!ćĈĈĈĈ!ćĈ!Ĉ": 2640,
      "%!!!!!!!!!!!!!!!!!!!!!!!!!!!!!!&'(!!!!!!!!!!!!!!!!!!!!!!": 2641,
      "ďĉ!ďĉďĉďĉďĉ%&'(ďĉďĉďĉćďĉ!ďĉďĉďĉďĉ!!": 2642,
      "ććĈ!ĈďĉĈ!Ĉ!ĈĈĈĈĈĈĈĈĈĈĈĈĈĈĈĈĈĈĈĈĈĈĈĈ": 2643,
      "ďĉďĉďĉďĉďĉďĉďĉďĉďĉ%&'(ďĉďĉďĉĈ!Ĉ!Ĉ!Ĉ!ĈćĈĈĈ!ĈĈĈćĈćĈĈĈĈĈĈĈćĈĈĈĈĈĈćĈćĈ!ćĈĈ!ďĉ": 2644,
      "%&'(ďĉ!!ďĉďĉ!!ďĉ!ďĉ!!ďĉďĉďĉ!ďĉććĈ!": 2645,
      "Lďĉ!K": 2646,
      "Ĉ!Ĉ!ĈĈĈ!ĈćĈ!ĈĈĈĈĈćĈĈ": 2647,
      "'7": 2648,
      "ĤĤ": 2649,
      "ďĉ%&ď'(ĉ": 2650,
      "ďĉďĉ!ďĉ!ďĉďĉďĉďĉ": 2651,
      "ďĉďĉďĉď%ĉ&'(": 2652,
      "ććĈćĈ!Ĉ!Ĉ!Ĉ!Ĉ!Ĉ!": 2653,
      ")!)!!!!!!!!!!": 2654,
      "ďĉďĉďĉ!ććĈ!ćďĉďĉďĉďĉ": 2655,
      "MMMMM": 2656,
      "ďĉ!ďĉ)))": 2657,
      "77'7": 2658,
      "ďĉďĉďĉ!!ďĉďĉďĉ": 2659,
      "ćďĉ!ććććĈ!ćĈ!Ĉ!Ĉ!ćĈ!Ĉ!Ĉ!Ĉ!ćĈ!Ĉ!Ĉ!Ĉ!ćĈ!Ĉ!ćĈ!ĈćĈ!Ĉ!": 2660,
      "ďĉććććĈ!ćĈ!Ĉ!": 2661,
      "ďĉ!!ďĉ!!!!": 2662,
      "ďĉďĉďĉďĉďĉďĉ%ď&'(ĉ": 2663,
      "777777'7": 2664,
      "ďĉďĉďĉďĉďĉďĉďĉďĉďĉďĉćććĈ!Ĉ!Ĉ!ćĈ!Ĉ!Ĉ!Ĉ!Ĉ!!": 2665,
      "Ĉ!Ĉ!ćĈĈćĈĈĈĈĈĈĈĈ": 2666,
      "ćĈ!Ĉ!ćĈ!ćĈ!ćĈ!Ĉ!ććććĈ!ććĈ!ć!%&'(ďĉ": 2667,
      "ď!!ĉ": 2668,
      ")!)!ďĉďĉ!!!)!)!!ďĉďĉďĉďĉďĉ!!ďĉ!": 2669,
      "Ĉ!Ĉďĉ!ďĉ!ďĉćććććććććććĈ!ćĈ!!ććĈ!ććĈ!ćĈ!Ĉ!Ĉ!Ĉ!Ĉ!Ĉ!ĈćĈĈĈĈ!ĈććĈ!ććććĈć!!": 2670,
      "ďĉďĉďĉďĉ!ďĉďĉ!!!!!!!!!!!!!!!!!!!!!!!!!!!ďĉ!ďĉ!!!!!!": 2671,
      "%!!!!!!!!!!!!!!!!!!!!!!!!!!!!!!&'(!!!!!!!!!!!!!!!!!!!!!!!!!!!!!!!!!!!!!!!!!!!!!!!!!!!!!!!!!!!!!!!!": 2672,
      "ćĈ!Ĉ!ćĈĈ!ćĈ!ćĈ!ĈĈ!Ĉ!Ĉ!ćĈ!Ĉ!Ĉ!ććĈ!Ĉ!Ĉ!Ĉ!Ĉ!Ĉ!ćĈćĈ!ććććććĈ!ćĈ!ććĈćććĈćććĈĈćĈćĈ!Ĉ!ćĈ!ĈćĈćĈćĈćĈ!Ĉ!ĈćĈ!Ĉ!": 2673,
      "Ĉ!ĈĈĈ!ĈĈĈĈĈĈĈĈĈĈĈĈĈĈĈĈĈĈ!ďĉ!!ďĉ!ďĉ!!!ďĉďĉćĈ!ĈĈ!ĈĈĈĈ!Ĉ!Ĉ!ĈĈĈĈĈĈĈĈ!ĈĈĈĈĈďĉ!%&'(ďĉďĉ!ďĉ!ďĉďĉďĉ!": 2674,
      "ďĤĉ": 2675,
      "00001111": 2676,
      "ćĈ!Ĉ!ćĈ!ćĈ!ćĈ!Ĉ!ććććĈ!ććĈ!ć!%&'(ďĉććĈ!Ĉ!ĈĈĈ!Ĉ!Ĉ!ĈĈćĈďĉ!!ďĉďĉ!!!)!)!!!!!!!!!!!!": 2677,
      "ďĉďĉ%!&'(": 2678,
      "ďĉďĉ%&'ď(ĉ": 2679,
      "%&'(ďĉďĉďĉďĉďĉďĉ": 2680,
      "ďĉďĉďĉ!ďĉ%&'(": 2681,
      "%!&Ĉ'(!": 2682,
      "))ħ!": 2683,
      "ďĉ!ďĉďĉĈ!Ĉ!": 2684,
      "!!!!!!!!!ććććĈ!ĈĈ%&'(ďĉ!!!!!!!!!!!": 2685,
      "%!&'(!!!!!!!!!!!!!!!!!!!!!!!!!!!!!!!!!!!!!!!!!!!": 2686,
      "ćĈ!Ĉ!ĈćĈ!Ĉ!ćĈ!ććĈĈĈĈĈćĈćĈďĉćććććĈ!ĈĈćĈĈćĈ": 2687,
      "ďĉ!ďĉ!ďĉ!ďĉ!ďĉ!ďĉćććĈ!Ĉ!Ĉ!Ĉ!Ĉ!Ĉ!ćĈ!Ĉ!Ĉ!Ĉ!ćĈ!Ĉ!Ĉ!Ĉćć": 2688,
      "ććĈ!ćććĈ!ćććĈ!ćććĈ!Ĉ!Ĉ!ďĉćććĈ!ćďĉďĉďĉďĉďĉ!!ďĉ!!!!": 2689,
      "ććĈ!ć%&'(ďĉ!ďĉććććĈ!ćĈ!ĈĈ!ććĈ!ćĈ!ĈĈ!ćĈ!Ĉ!ćĈ!ďĉ!": 2690,
      "ďĉďĉďĉďĉďĉďĉďĉďĉďĉďĉ%&'(ćććĈ!Ĉ!Ĉ!ćĈ!Ĉ!Ĉ!Ĉ!Ĉ!!": 2691,
      "ďĉďĉďĉďĉďĉďĉďĉďĉ!!!ďĉďĉďĉďĉććĈ!Ĉ!Ĉ!Ĉ!Ĉ!Ĉ!ććĈ!ć%&'(ďĉ!ďĉććććĈ!ćĈ!ĈĈ!ććĈ!ćĈ!ĈĈ!ćĈ!Ĉ!ćĈ!ďĉ!": 2692,
      "Ĉ!Ĉ!Ĉ!Ĉ!ĈĈ!Ĉ!Ĉ!Ĉ!": 2693,
      "ććććććććććććĈ!ćĈ!Ĉ!Ĉ!Ĉ!Ĉ!Ĉ!Ĉ!Ĉ!Ĉ!!ćĈĈĈĈ!Ĉ!ćĈ!Ĉ!ćĈĈĈćĈ!ĈĈĈĈĈ!Ĉ!ćĈ!ććĈ!ćĈ!ććĈ!ćĈććĈ!ćĈ!ćĈ!ĈćĈĈ": 2694,
      "ďĉ%&'(Ĉ!ćĈ!Ĉ!Ĉ!Ĉ!Ĉ!Ĉ!ćĈ!ćĈ!ćĈ!Ĉ!Ĉ!ćĈ!ĈĈĈćĈćĈćĈĈĈćĈ": 2695,
      "ďĉĈ!Ĉ!Ĉ!Ĉ!ĈĈĈĈĈĈĈĈĈĈĈĈĈĈ!Ĉ!Ĉ!Ĉ!Ĉ!ĈĈĈ!ĈĈ": 2696,
      "ćĈĈĈĈĈĈĈĈććĈćĈĈ!ććĈĈĈĈćĈĈĈĈćĈĈĈĈĈĈĈĈććĈćďĉ!": 2697,
      "ďĉďĉďĉďĉ!ďĉďĉ!!%!&'(": 2698,
      "ďĉ!ďĉďĉďĉďĉďĉďĉ!!ďĉ!ďĉďĉďĉďĉ!!": 2699,
      "ďĉďĉďĉĈ!Ĉ!Ĉ!Ĉ!Ĉ!ćĈ!ĈĈĈĈćĈ!ćĈ!ćďĉďĉďĉďĉ!": 2700,
      "ďĉďĉďĉ!ďĉďĉ!ďĉďĉ!!ďĉ!!ďĉďĉćććĈ!Ĉ!Ĉ!Ĉ!Ĉ!ĈćĈĈ!Ĉ!ĈĈĈćĈćĈ!ććĈ!!%&'(ďĉ!!ďĉďĉďĉ": 2701,
      "ĈĈĈ!Ĉ!Ĉ!ĈĈĈĈ!Ĉ!ĈĈ!Ĉ!Ĉ!ĈĈĈĈćďĉďĉćććććććĈ!Ĉ!Ĉ!ćĈ!Ĉ!Ĉ!": 2702,
      "ďĉ!ďĉ!!!!ďĉďĉ!!ďĉ!!ďĉ!!!!!!)!!!!!!!!)!": 2703,
      "ć%ď&'(ĉ": 2704,
      "Ĉĉ": 2705,
      "ĐĐ": 2706,
      "!!)": 2707,
      "ďĉ)": 2708,
      "Ĉ!ćĈ!Ĉ!Ĉ!": 2709,
      "ćĈ!ćĈ!Ĉ!ĈĈ!": 2710,
      "ďĉďĉ!!ďĉďĉďĉďĉďĉďĉďĉďĉ!": 2711,
      "ćďĉď%&'(ĉ": 2712,
      "'(3323": 2713,
      "ďĉďĉďĉ%&'(ďĉďĉďĉďĉďĉďĉďĉďĉďĉďĉćďĉďĉďĉďĉ!ććĈ!Ĉ!Ĉ!Ĉ!Ĉ": 2714,
      "ćĈ!ćďĉďĉďĉďĉďĉ!!ďĉ!!!!ďĉďĉďĉ!ďĉďĉ!": 2715,
      "%Ĉ&'(!Ĉ!Ĉ!": 2716,
      "ďĉďĉ!ďĉďĉ%&'(ďĉďĉ!": 2717,
      "ććććććććććććĈ!ćĈ!ĈĈ!ćĈ!ĈćććććććĈćĈ!Ĉ!ćĈ!ćĈ!Ĉ!ćĈ!Ĉ!ćĈ!ĈćĈĈćĈĈćĈĈćĈćĈĈćĈĈ": 2718,
      "!!!!!!!!!!!!!!!!!!!%&'(": 2719,
      "ććĈ!ćĈ!ććĈ!ćĈ!ćĈ!ććĈćĈ!Ĉ!Ĉ!Ĉ!ćĈ!ććĈĈĈĈĈĈćĈ!ććĈćĈ!ćĈ!Ĉ!ćĈ!ććĈććĈ!!!!!!ďĉćć%&'(ďĉďĉďĉ": 2720,
      "ććććĈ!Ĉ!Ĉ!Ĉ!Ĉ!ĈĈ!Ĉ!ćďĉ!!": 2721,
      "ćďĉ!!!!ćďĉ!ćććććďĉ!ććććĈćććĈ!Ĉ!ĈćĈ!ć": 2722,
      "ćĈćďĉďĉďĉ!!!ďĉďĉďĉďĉ": 2723,
      "!!!!!!!ďĉ!!ďĉďĉ!!!ďĉďĉďĉďĉďĉ!ďĉććĈ!Ĉ!Ĉ!Ĉ!Ĉ!Ĉ!Ĉ!ĈĈćĈ%&'(ďĉďĉ": 2724,
      "ć%&'(ďĉĈ!ćĈ!Ĉ!Ĉ!ćĈ!Ĉ!Ĉ!ĈĈ!ćĈ!ďĉ!ďĉďĉďĉ%&'(ďĉďĉďĉďĉďĉďĉďĉďĉďĉďĉćďĉďĉďĉďĉ!ććĈ!Ĉ!Ĉ!Ĉ!Ĉ": 2725,
      "ććĈ!Ĉ!ĈĈĈ!!ćĈ!Ĉ!Ĉ!Ĉ!ćďĉďĉ!!ďĉďĉďĉďĉććććĈ!ĈĈ!ćĈ!ĈĈ!Ĉ!Ĉ!ćĈ!ćĈ%&'(ďĉďĉďĉďĉ": 2726,
      "Ĉ!Ĉ!ćĈĈćĈĈĈĈĈĈĈĈĈ!Ĉ!ĈĈĈ!ĈćĈ!ĈĈĈĈĈćĈĈ": 2727,
      "ćħ": 2728,
      "ćďĉďĉďĉďĉďĉďĉ": 2729,
      "!!!!!!!!!!!!!!!!!!!!!!!!!!": 2730,
      "'(;": 2731,
      "ďĉďĉďĉďĉććĈ!Ĉďĉ%&'(Ĉ!Ĉ!ĈĈĈĈĈĈĈĈĈĈĈĈĈĈĈĈĈĈĈĈĈĈĈĈďĉ!": 2732,
      "ďĉ!!Ĉ!ĈćĈ!Ĉ!Ĉ!ĈćĈ!ććďĉ!Ĉ!ĈćĈ!Ĉ!Ĉ!ĈćĈ!ććďĉďĉ!ďĉďĉ%&'(ćĈ!Ĉ!Ĉ!Ĉ!Ĉ!Ĉ": 2733,
      "ćććĈ!Ĉ!Ĉ!Ĉ!Ĉ!%&'(": 2734,
      "ďĉ!!!!!!!!!!!!!!!!!!!!!!": 2735,
      "%&'(ďĉďĉćďĉććććććććććććććććĈ!Ĉ!ćĈ!Ĉ!ĈĈ!ćĈ!ćććĈ!ććĈćĈ!ććĈćććĈ!Ĉ!Ĉ!Ĉ!ćććĈćĈ!ćĈ": 2736,
      "!!!!!!!!!!!!!!!!!!!!!!!!!!!!!!!!!!!!!!!!!!!!!!!!!!!!!!!!!!!!!!!!!!!!!!!!!!!!!!!!!!!!!!!!!!!!!!": 2737,
      "ďĉ!ďĉďĉďĉ!ďĉ!ďĉďĉďĉĈ!Ĉ!Ĉ!Ĉ!ććĈćć": 2738,
      "ďĉ!!!!!!!!!!!!!!!!!!!ććĈ!ćĈ!ćĈ!ćďĉ!!!!!!!!!!!!!!!": 2739,
      "ćĈ!ĈćĈĈćĈĈĈĈĈĈĈ": 2740,
      "Ĉ!Ĉ!Ĉ!ĈĈĈĈĈĈĈĈĈĈ!ĈĈĈ!ĈĈ!ĈĈĈĈ!ĈĈ!Ĉ%&'(ďĉĈ!ĈĈĈĈĈĈĈ": 2741,
      "ďĉďĉďĉďĉďĉďĉ%&'(Ĉ!Ĉ!Ĉ!Ĉ!Ĉ!Ĉ!ćďĉďĉďĉćĈ!Ĉ!Ĉ!Ĉ!": 2742,
      "ćććććććĈ!Ĉ!ćĈ!ĈćĈĈ!Ĉ!ćĈ!ĈĈ!ććĈ!ćĈ!ććĈćĈććć!!ďĉ!ďĉ!!": 2743,
      "ďĉ!!!!ďĉďĉďĉďĉďĉďĉďĉďĉďĉďĉćććĈ!Ĉ!Ĉ!ćĈ!Ĉ!Ĉ!Ĉ!Ĉ!!": 2744,
      "!LK!LK!LK!LK!LK!LK!LK!LK!LK!LK!LK!LK!LK!LK!LK!LK!LK!LK!LK!LK!LK!LK!LK!LK!LK!LK!LK!LK!LK!LK!LK!LK": 2745,
      "ďĉďĉďĉďĉ!!!!ďĉ!!ďĉďĉďĉďĉďĉďĉďĉďĉ!ćĈ!Č": 2746,
      "ĈćĈĈćĈćĈĈĈćĈĈďĉĈ!Ĉ!ĈĈĈĈ!Ĉ!Ĉ!ĈĈĈĈĈĈĈĈĈĈ!ĈĈĈ!ĈĈ!ĈĈĈĈ!ĈĈ!Ĉ": 2747,
      "Ĉ!Ĉ!Ĉ!ĈĈĈĈĈĈĈĈĈĈ!ĈĈĈ!ĈĈ!ĈĈĈĈ!ĈĈ!Ĉ%&'(ďĉĈ!ĈĈĈĈĈĈĈĈ!ĈĈĈ": 2748,
      "ďĉďĉďĉ!!ďĉďĉ!": 2749,
      "ďĉďĉďĉ%&'(ďĉ!ďĉďĉ": 2750,
      "ďĉďĉďĉ%&'(ćććĈ!Ĉ!Ĉ!Ĉ!Ĉ!Ĉ!Ĉ!Ĉ!Ĉ!Ĉ!ćĈ!ćĈ!Ĉ!ćĈ!Ĉ!Ĉ!ćĈ!Ĉ!": 2751,
      "ďĉ!!!!!!!!!!!!!!!!!!!!": 2752,
      "ďĉďĉďĉďĉďĉďĉ!!!!!!!!!!!ďĉ!!!!!!!!!!!!!!!!!!!!!!!!!!!!!!!!!!!!!!!!!!!!!!!!!!!!!!!!!!!!!!!!": 2753,
      "ďĉďĉďĉďĉďĉďĉďĉĈ!Ĉ!Ĉ!Ĉ!Ĉ!Ĉ!Ĉ!ĈĈĈĈĈĈĈ!ĈĈĈĈĈĈĈĈĈĈĈĈĈĈĈĈĈĈĈĈ!": 2754,
      "ďĉďĉďĉďĉďĉďĉďĉ!ďĉ!ďĉďĉďĉďĉ": 2755,
      "ďĉďĉćććććďĉ!": 2756,
      "!ďĉ!!!!": 2757,
      "ďĉďĉďĉďĉďĉďĉďĉďĉ!ćĈ!Čďĉďĉ!": 2758,
      "ďĉďĉďĉ!ďĉ!!!!!!!!!!!!!": 2759,
      "Ĉ!!Ĉ!!": 2760,
      "ćććĈ!Ĉ!Ĉ!Ĉ!Ĉ!ĈćĈĈ!Ĉ!ĈĈĈćĈćĈ!ććĈ!!ďĉ!!ďĉďĉďĉ": 2761,
      "ćĈ!Ĉ!ćĈ!ćĈ!ćĈ!Ĉ!ććććĈ!ććĈ!ć!ďĉććĈ!Ĉ!ĈĈĈ!Ĉ!Ĉ!ĈĈćĈ": 2762,
      "ćďĉďĉďĉďĉ!ććĈ!Ĉ!Ĉ!Ĉ!Ĉďĉďĉďĉďĉďĉďĉďĉďĉ": 2763,
      "ććĈ!ďĉ!ďĉ!!ćĈ!%&'(ďĉďĉďĉ": 2764,
      "ďĉ%&'(ďĉďĉďĉďĉďĉďĉ!ďĉďĉďĉďĉ!!ďĉďĉďĉďĉďĉďĉ!": 2765,
      "ććććććććććććććććććććććććććĈ!ćććĈ!Ĉ!ćĈ!Ĉ!ćĈ!ćĈ!ćĈ!ĈĈ!Ĉ!ćĈ!ćĈ!Ĉ!Ĉ!": 2766,
      "ďĉ!!!!!!!!!!!!!!!!!!!!!!!!!!!!!!!!!!!!!!!!!!!!!!!!!!!!!!!!!!!!!!!%&'(%&'(": 2767,
      "!!!!!!!!!!!!ďĉ!!ďĉ!!!!!!!!!!!ďĉďĉ%&'(ďĉďĉćĈ!ĈĈ!Ĉ!ďĉ!ďĉ!ďĉďĉďĉ!!": 2768,
      "ďKĉ": 2769,
      "ďĉĈ!Ĉ!Ĉ!Ĉ!ĈĈĈĈĈĈĈĈĈĈĈĈĈĈ!Ĉ!Ĉ!Ĉ!Ĉ!ĈĈĈ!ĈĈ%&'(ďĉ!ďĉďĉďĉćĈ!Ĉ!Ĉ!Ĉ!ĈĈ!Ĉ!Ĉ!Ĉ!": 2770,
      "ďē": 2771,
      "ďĉ%&'ď(ĉ": 2772,
      "%&'(!!!!": 2773,
      "%&'(ććććĈ!ćĈ!Ĉ!Ĉ!ĈĈ!Ĉ!Ĉ!ĈććĈ!ćďĉććććććććĈ!Ĉ!Ĉ!Ĉ!ćĈĈĈĈ!Ĉ!ćĈ!": 2774,
      "ć%&'(ďĉďĉďĉďĉććĈ!Ĉďĉ%&'(Ĉ!Ĉ!ĈĈĈĈĈĈĈĈĈĈĈĈĈĈĈĈĈĈĈĈĈĈĈĈďĉ!": 2775,
      "ćĈ!Ĉ!Ĉ!Ĉ!ďĉ!!!!!!!!!!!!!!!!!!!!!!!!!!!!!!!!!!!!!!!!!!!!!!!!!!!!ďĉ!!!!!!!!!!!!ďĉďĉ%&'(ďĉďĉďĉ!!ďĉ": 2776,
      "MMMMMMMMMMMMMMMMMMMMMMMM": 2777,
      "MMMMMMMMMMMMMMMMMMMMMMMMMMMM": 2778,
      "ďĉ!!!!!!!!!!!!!!!!!!!!!!!!!!!!!!!!!!!!": 2779,
      "!!!!!!!!!!!!!!!!!!!!!!!!!!!!!!!!!!!!!!!!!!!!!!!!!!!!!!!!!!!!!!!!!!!!!!!!!!!!!!!!!!!!!!!!": 2780,
      "&'(!!!!!!!!!!!!!!!!!!!!!!!!!!!!!!!!!!!!!!!!!!!!!!!!!!": 2781,
      "ďĉ!ďĉďĉďĉĈ!ĈĈćďĉďĉďĉďĉďĉďĉďĉ!ďĉ!ďĉďĉďĉ!": 2782,
      "ďĉ!ďĉďĉďĉďĉďĉďĉďĉďĉ%&'(ććććĈ!ćĈ!Ĉ!Ĉ!ĈĈ!Ĉ!Ĉ!ĈććĈ!ćďĉććććććććĈ!Ĉ!Ĉ!Ĉ!ćĈĈĈĈ!Ĉ!ćĈ!": 2783,
      "!!!ďĉďĉďĉďĉććĈ!Ĉ!Ĉ!Ĉ!Ĉ!Ĉ!ććĈ!ć": 2784,
      "ćĈ!Ĉ!ĈćĈ!ć%&'(": 2785,
      "&'(!!!!!!!!!!!!!!!!!!!!!!!!!!!!!!!!!!": 2786,
      "ćććĈ!Ĉ!Ĉ!ćĈ!Ĉ!Ĉć%&'(ďĉďĉďĉďĉććĈ!Ĉďĉ%&'(Ĉ!Ĉ!ĈĈĈĈĈĈĈĈĈĈĈĈĈĈĈĈĈĈĈĈĈĈĈĈďĉ!": 2787,
      "!!!!!!!!!!!!!!!!!!!!!!!!!!!!!!!!!!!!!!!ďĉ!ďĉ!!!!!!!!!!!ďĉ!ďĉ": 2788,
      "ďĉ!ďĉĈ!Ĉ!ćĈ!Ĉ!ĈĈĈďĉ!ďĉ!!!SĂĄĆ!!ďĉ!!!!!!RTVa!!!SĂĄĆ!!!!R!!!S": 2789,
      "'7777777(788888888,-%&+": 2790,
      "ćďĉďĉććĈ!ďĉďĉďĉďĉ!": 2791,
      ")ďĉďĉďĉďĉďĉďĉďĉ!ďĉ!!ďĉďĉďĉďĉďĉďĉďĉ)!": 2792,
      "Ĉ!Ĉ!ćĈ!Ĉďĉ!!!!!!!!!": 2793,
      "ć%&'(!!!!!!!!!!!!!!!!!!!!!!!!!!!!!!!!!!!!!!!!!!!!!!!!!!!!!!!%&'(%&'(ďĉ!!ććććććĈććĈ!ďĉćĈ!Ĉ!Č": 2794,
      "ććććććććććććććććććććććććććĈ!ćććĈ!Ĉ!ćĈ!Ĉ!ćĈ!ćĈ!ćĈ!ĈĈ!Ĉ!ćĈ!ćĈ!Ĉ!Ĉ!%&'(ďĉďĉ!ďĉďĉďĉďĉďĉďĉďĉďĉ!": 2795,
      "%Ĉ!Ĉ": 2796,
      "%!!!!!!!!!!!!!!!!!!!!!!!!!!!!!!!!!!!!!!!!!!!!!!!!": 2797,
      ")ĉ": 2798,
      "EFD": 2799,
      "ďĈ!ćĉ": 2800,
      "Ħē": 2801,
      "!!!!!!!!!!!!!!!!!!!!!!!!!!!!!!": 2802,
      "ďĉďĉććć": 2803,
      "%&'(ćĈ!Ĉ!ćĈ!ćĈ!ćĈ!Ĉ!ććććĈ!ććĈ!ć!ďĉććĈ!Ĉ!ĈĈĈ!Ĉ!Ĉ!ĈĈćĈďĉ!!ďĉďĉ!!!)!)": 2804,
      "%&'(ďĉ!!ďĉ!ďĉďĉ!ďĉ!ďĉďĉďĉ!": 2805,
      "ćĈ!ćĈ!ćĈ!": 2806,
      ")!)!!!!!!!!!ććććĈ!ĈĈ": 2807,
      "ďĉ!ďĉ%&'(ďĉďĉ": 2808,
      "%&'(ĉĉ": 2809,
      "ďĉ!ďĉ!ďĉďĉ!!ďĉ!ďĉ!!": 2810,
      "ć%&'(ďĉ!ďĉďĉ!!": 2811,
      "Ĉ!ĈĈ!ćĈ!ćĈ!": 2812,
      "ćĈ!Ĉ!Ĉ!Ĉ!Ĉ!Ĉ!ĈĈĈ!ĈĈĈĈ!ĈĈ!Ĉ!Ĉ!Ĉ!ĈĈĈ!Ĉ!ĈĈ!ĈĈ!Ĉ!Ĉ!Ĉ!Ĉ!Ĉ!ĈĈĈĈ!ĈĈĈĈĈĈĈ!Ĉ!Ĉ!ĈĈ!Ĉ%&'(ďĉĈ!Ĉ!Ĉ!Ĉ!": 2813,
      "ĈĈĈĈĈĈĈĈĈĈĈĈĈ": 2814,
      "ďĉ!!!!!!!!!!!!!!!!!!!!!!!!!!!!!!!!!!!!!!!": 2815,
      "!!!!!!!!!!!!!!!!!!!!!!!!!!!!!!!!!!!!!!!!!!!!!!!!!!!!!!!!!!!!!!!!!!!!!!!!!!!!!!!!!!!!!": 2816,
      "!!!!!!!!!!!!!!!!!!!!!!!!!!!!!!!!!!!!!!!!!!!!!!!!!!!!!!!!!!!!!!!!!!!!!!!!!!!!!!!!!!!!!!!": 2817,
      "ďĉ!ďĉďĉďĉ!!!": 2818,
      "%&'(ďĉďĉďĉ!ďĉ!ďĉ!ďĉ": 2819,
      "L!LKLLLL": 2820,
      "ććĈ!Ĉ!Ĉ!ććĈ!Ĉ!Ĉ!ĈĈ!Ĉ!!ćĈ!Ĉ!Ĉ!Ĉ!ćĈ!ććĈ!ć%&'(ďĉ!ďĉďĉ!!": 2821,
      "0011010101'(3": 2822,
      "ćććďĉććććććĈ!ććČďĉďĉďĉďĉďĉďĉďĉďĉ!!!": 2823,
      "ćććććĈ!ĈĈćĈĈćĈďĉććććććććĈ!Ĉ!Ĉ!ĈćĈĈ!Ĉ!ĈćĈĈ!ćĈ!Ĉ!ĈĈĈĈćĈĈĈĈćĈĈćĈĈĈĈĈĈćĈĈĈĈćĈĈćĈĈćĈ!ćććĈ!ćć%&'(ďĉďĉ": 2824,
      "ďĉćććććĈ!Ĉ!Ĉ!ćĈĈćĈ%&'(ďĉďĉ": 2825,
      "ďĉ!!!!!!!!!!!!!!!!!ďĉ!!!!!!!!!ćććĈ!Ĉ!Ĉ!Ĉ!Ĉ!Ĉ!ĈĈĈĈĈĈĈĈĈĈĈĈ": 2826,
      "!!!!RTVa!!!S": 2827,
      "Ĉ!Ĉ!Ĉ!Ĉ!Ĉ!Ĉ!Ĉ!ĈĈćĈďĉďĉćććĈ!Ĉ!Ĉ!Ĉ!Ĉ!Ĉ!ćććććĈ!ćĈĈ%&'(ďĉďĉ!!ďĉ": 2828,
      "ćďĉ!ďĉ!!!!!!!!!!!!!!!!!!!!!!!!!!!!!!!!!!!ćććććććććććĈ!ĈćĈ!Ĉ!ĈćĈ!ć%&'(": 2829,
      "322222222222222222222222222222222": 2830,
      "Ėďĉ": 2831,
      "&'(!!!!!!!!!!!!!!!!!!!!!!!!!!!!!!!!!!!!!!!!!!!!!": 2832,
      "ďĉ!Ħ": 2833,
      "ďĉďĉďĉ!!!": 2834,
      "LLL!LK!LK": 2835,
      "ć%&'(ďĉ!ďĉďĉďĉďĉďĉďĉďĉďĉ": 2836,
      "ď!ďď": 2837,
      "ď%ĉ&'(!!": 2838,
      "%&'(ďĉ!ćĈ!ćĈďĉďĉďĉďĉ!ďĉďĉďĉďĉ!ďĉ!!": 2839,
      "ďĉ!ďĉďĉ!ďĉćććĈ!Ĉ!Ĉ!Ĉ!Ĉ!Ĉ!ćććććĈ!ćĈĈ%&'(ďĉďĉ!!!!!!!!!!!ďĉćććĈ!Ĉ!Ĉ!Ĉ": 2840,
      "%&'(%&'(ďĉ!!ććććććĈććĈ!ďĉćĈ!Ĉ!Čďĉďĉďĉ!": 2841,
      "ććĈ!ćďĉďĉďĉďĉďĉďĉďĉ!!ďĉď%&'(ĉďĉ": 2842,
      "ďĉďĉďĉ%&'(ďĉďĉďĉďĉďĉďĉďĉďĉďĉďĉďĉ!ććĈ!ćććĈ!ćććĈ!ćććĈ!Ĉ!Ĉ!ďĉćć": 2843,
      "%&'(ďĉććććććććĈ!Ĉ!Ĉ!ĈćĈĈ!Ĉ!ĈćĈĈ!ćĈ!Ĉ!ĈĈĈĈćĈĈĈĈćĈĈćĈĈĈĈĈĈćĈĈĈĈćĈĈćĈĈćĈ!ćććĈ!ćć": 2844,
      "ďĉďĉďĉ!!ďĉ!ććĈ!Ĉ!Ĉ!Ĉ!Ĉ!ďĉďĉ!ďĉćććććĈ!Ĉ!Ĉ!Ĉ!Ĉ!Ĉ!ďĉ!%&'(ďĉ!!ďĉ!ďĉďĉ!ďĉďĉ!ďĉ!%&'(ďĉ!!!": 2845,
      "ćććććććććććććććććććććććććć%&'(Ĉ!": 2846,
      "ćďĉ!ďĉďĉďĉ%&'(ďĉďĉďĉďĉďĉĈ!ĈććĈĈ!Ĉ!ććĈ!Ĉ!ĈĈ!ĈĈĈ": 2847,
      "Ĉ!Ĉ!ĈĈ!Ĉ!Ĉ!ĈĈĈĈćďĉďĉćććććććĈ!Ĉ!Ĉ!ćĈ!Ĉ!Ĉ!ćďĉ!": 2848,
      "ćććĈ!Ĉ!Ĉ!ćĈĈĈĈ!ćĈ!ĈĈ!ćĈ!ć%&'(": 2849,
      "!ĉ": 2850,
      "ďĈĈĈĈ": 2851,
      "!!!!!!!!!!!!!!!!!!!!!!!!!!!!!!!!!!!!!!": 2852,
      "ďĉ%&'(ďĉďĉďĉďĉďĉ": 2853,
      "ćććććććććććććććććććććććććććććććć": 2854,
      "ďĉ!!!!!!!!!!!!!!!!!!!!!!!!!": 2855,
      "ďďĉĉďĉďĉ": 2856,
      "ćĈĈĈĈĈĈĈĈĈĈĈĈĈĈ": 2857,
      "ďĉććććććććććććććĈ!ććĈ!Ĉ!Ĉ!ĈćĈ!Ĉ!ĈćĈććĈĈ!ĈĈĈďĉ!!!": 2858,
      "%&'(ďĉďĉďĉ!!!!!ďĉďĉďĉ!ďĉďĉćććććĈ!Ĉ!ćĈĈćďĉćĈ!ććĈ!ćĈ!Ĉ": 2859,
      "ćĈ!Ĉ!Ĉ!Ĉ!Ĉ!Ĉ%&'(ďĉĈ!Ĉ!Ĉ!Ĉ!": 2860,
      "Ĉ!Ĉ!ĈĈĈĈĈĈćĈ!ĈĈĈ%&'(ďĉ%&'(%&'(%&'(ďĉďĉďĉďĉ!ďĉďĉ!!%!&'(": 2861,
      "%ćć&": 2862,
      "Ĉ!ĈĈĈ!ĈĈĈć": 2863,
      "ćććĈ!Ĉ!Ĉ!Ĉ!Ĉ!Ĉ!ćĈ!Ĉ!Ĉ!Ĉ!ćĈ!Ĉ!Ĉ!Ĉććďĉ!ćĈ!ćĈďĉďĉďĉďĉ!": 2864,
      "ďĉďĉ!!ďĉ!!ďĉ!ććĈ!ďĉ!ďĉďĉ!!ďĉďĉ)ďĉďĉ!ďĉďĉ!!ďĉ!!!!ďĉďĉďĉďĉ": 2865,
      "ďĉ!ďĉ!ďĉďĉ!ďĉ!ďĉďĉďĉďĉ!": 2866,
      "ďĉďĉďĉďĉ!ďĉďĉďĉďĉ%&'(!": 2867,
      "Ĉ!Ĉ!ĈĈ!Ĉ!Ĉ!Ĉ!ďĉďĉďĉďĉďĉ!ďĉďĉďĉ!%&'(ćĈ!Ĉ!ćĈ!ćĈ!ćĈ!Ĉ!ććććĈ!ććĈ!ć!ďĉććĈ!Ĉ!ĈĈĈ!Ĉ!Ĉ!ĈĈćĈďĉ!!ďĉďĉ!!!)!)": 2868,
      "Ĕ!ďĉďĉďĉďĉćććďĉ!": 2869,
      "ććĈćĈ!Ĉ!Ĉ!Ĉ!Ĉ!Ĉ!ććĈ!Ĉ!Ĉ!ćĈ!": 2870,
      "Ħ!!": 2871,
      "ćĈ!ĈĈ!Ĉ!Ĉ!Ĉ!": 2872,
      "ďĉ%&'(ďĉďĉďĉďĉďĉďĉďĉ!": 2873,
      "%Ĉ&'(!Ĉ!Ĉ": 2874,
      "&'(!!!!!!!!!!!!!!!!!!!!!!!!!!!!!!!!!!!!!!!!!!!!!!!!!!!!!!!!!!!!": 2875,
      "ďĉ!!ďĉďĉďĉĈ!ĈĈĈ!ĈĈĈĈĈĈĈĈĈĈĈĈĈĈĈĈĈĈ!ďĉ!!ďĉ!ďĉ!!!": 2876,
      "%!!!!!!!&'()!)!!!!!!!!!!!!!!!!!!!!!!!!!!!!!!!!!!!!!!!!!!!!!!!!!!!!!!!!!!!!!!!!": 2877,
      "!!!!!!!!!!!!!!!!!!!!!!!!!!!!!!!!!!!!!!!!!!!!!!!!!!!!!!!!!!!!!!!!!!!!!!!!!%!!!!!!!!!": 2878,
      "ďĉ!ďĉććććććĈććĈ!ďĉďĉďĉ!ććĈ!ć": 2879,
      "ćĈ!ĈĈĈ!ĈĈćĈ!Ĉ!Ĉ!ćĈćĈĈĈĈĈćĈĈćĈćĈćĈćĈĈĈćĈĈĈĈĈĈćĈ!Ĉ!ć%&'(ďĉ!!ďĉ!ďĉďĉďĉ!ďĉ!!!!!ďĉ!ďĉďĉďĉďĉ": 2880,
      "ďĉ!ďĉ!!!!!!ďĉďĉ!!!!ďĉďĉďĉććĈ!Ĉ!": 2881,
      "!)": 2882,
      "!!Ĉ": 2883,
      "%&'(ďĉ!ďĉďĉ!ďĉ!ďĉďĉďĉ!": 2884,
      "ďĉďĉďĉďĉ%&'(ďĉ": 2885,
      "ćĈĉ": 2886,
      "ćĈ)!)!!Ĉ!Ĉ!ĈĈ!!!!!": 2887,
      "!!!%!&'(": 2888,
      "Ĉ!Ĉ!Ĉ!Ĉ!ĈĈ!": 2889,
      "ďĉďĉ!ďĉ!ďĉ": 2890,
      "Ĉ!ĈĈĈĈ!ĈĈĈĈĈ": 2891,
      "ďĉ%&'(!!": 2892,
      "23322": 2893,
      "ďďĉĉďĉ": 2894,
      "ďĉććĈ!Ĉ!Ĉ!Ĉ!Ĉ!Ĉ!Ĉ!ĈĈćĈďĉďĉćććĈ!Ĉ!Ĉ!Ĉ!Ĉ!Ĉ!ćććććĈ!ćĈĈ%&'(ďĉďĉ!!ďĉ": 2895,
      "ďĉ!!!!!!!!ććĈ!Ĉ!ĈćĈĈĈććĈĈĈććĈ!Ĉ!Ĉ!Ĉ!Ĉ!Ĉ!ćĈĈ!Ĉ!Ĉ!ćĈĈĈććĈĈ!ćććĈ!ććĈ!ćĈ!ĈĈĈćć!!!!%&'(ďĉ!!ďĉ!!": 2896,
      ")!)!!!!!!!!!!!!!!!!!!!!!!!!!!!!!!!!!!!!!!!!!!!!!!!!!!!!!!!!!!!!!!!!!!!!!!!!!!!!!!!!!!!!!!!!": 2897,
      "ďĉďĉďĉďĉďĉ!!ďĉ!!!!!!!": 2898,
      "ććććććĈ!ććČďĉďĉďĉďĉďĉďĉďĉďĉ!!!ďĉďĉďĉďĉććĈ!Ĉ!Ĉ!Ĉ!Ĉ!Ĉ!ććĈ!ć%&'(ďĉ!ďĉććććĈ!ćĈ!ĈĈ!ććĈ!ćĈ!ĈĈ!ćĈ!Ĉ!ćĈ!ďĉ!": 2899,
      "ďĉďĉďĉďĉďĉ!!ďĉ!!ďĉďĉďĉ)!)ďĉďĉďĉďĉďĉ!": 2900,
      ")Ĉ": 2901,
      "ML": 2902,
      "ćĈ!ďĉďĉďĉĈ!Ĉ!Ĉ!Ĉ!Ĉ!ćĈ!ĈĈĈĈćĈ!ćĈ!ćďĉďĉďĉďĉ!": 2903,
      "ďĉ!))ħ!": 2904,
      "!!!)!)!!!!!!!!!!!!!!!!!!!!!!!!!!!!!!!!!!!!!!)!)!!!!!!!!!!!!!!!!!!!!!!!!!!!!!!!!!!!!": 2905,
      "!!!!!!!!!!!!%&'(": 2906,
      "ďĉďĉďĉćććĈ!Ĉ!Ĉ!Ĉ!ĈĈĈĈĈĈĈĈĈĈ!ćĈ!Ĉ!ĈćĈĈćĈćĈĈĈćĈĈďĉĈ!ĈĈĈĈ": 2907,
      "Ĉ!ćĈ!Ĉ!Ĉ!Ĉ!Ĉ!": 2908,
      "ďĉďĉďĉďĉďĉďĉďĉďĉććććĈ!ćĈ!Ĉ!Ĉ!ĈĈ!Ĉ!Ĉ!ĈććĈ!ć%&'(ďĉććććććććĈ!Ĉ!Ĉ!Ĉ!ćĈĈĈĈ!Ĉ!ćĈ!ďĉďĉ": 2909,
      "Ĉ!ĈĈĈ!ĈĈ!ĈĈĈĈ!ĈĈ!ĈďĉĈ!ĈĈĈĈĈĈĈĈ!ĈĈĈ": 2910,
      "ď%&'(ĉďĉ!ďĉďĉďĉďĉďĉďĉďĉďĉ!": 2911,
      "%&'(ďĉďĉćĈ!ćďĉďĉ!ďĉďĉćććććĈ!ćČ": 2912,
      "ďĉďĉďĉďĉďĉďĉďĉ!!!": 2913,
      "ďĉ!ďĉďĉ!%&'(": 2914,
      "%!!!!!!!!!!!!!!!!!!!!!!!!!!!!!!!!!!!!!!!!!!": 2915,
      "ďĉďĉďĉćďĉďĉďĉďĉ!": 2916,
      "ďĉďĉ!ďĉ)))": 2917,
      ")!)!!!!!!!!!!!!!!!!!!!!!!!!!!!!!!!!!!!!!!!!!!!!!!!!!!!!!!!!!!!!!!!!!!!!!!!!!!!!!!!!!!!!!!!": 2918,
      "Ē!!Ē": 2919,
      "%!!!!!!!!!&'(": 2920,
      "%&'(ďĉďĉďĉ!!!!!!!!!!": 2921,
      "ććĈĈ!Ĉ!ĈĈĈ!ććĈ!Ĉ!ĈćĈ!ććĈ!Ĉ!ĈćĈ!ĈććĈĈĈćĈĈĈćĈ!ĈććĈĈĈćĈĈććĈĈĈćĈ!ĈćĈ!ććĈĈ!Ĉ!ĈĈćĈ!Ĉ!": 2922,
      "ćććććĈ!Ĉ!Ĉ!ćĈĈćĈďĉďĉĈ!Ĉ": 2923,
      "ććĈĈćĈĈĈććĈĈććĈćććĈĈĈĈĈćĈĈćĈćĈĈćĈĈćĈĈĈĈĈćĈćĈĈćĈĈćĈćĈćĈććĈćĈćĈćĈćĈ!ćĈćĈćĈćĈćĈćĈćĈćĈćĈćĈćĈćĈććĈ!Ĉ!": 2924,
      "ććĈ!ćĈ!Ĉ!ĈĈĈ!ĈĈĈććĈ!ĈĈ!ĈĈĈĈ!ĈĈ!ĈĈĈĈ%&'(ďĉďĉďĉ!!!!!!!!!!": 2925,
      "ďĉ!!!!!!!!!!!!!!!!!!!!!!!!ďĉ!!ďĉďĉďĉďĉďĉ!!ďĉ!ďĉ!": 2926,
      "77'77777(788888888,-%&+": 2927,
      "ćććććććććććĈ!ććĈ!Ĉ!ćĈ!Ĉ!ćĈ!ć!ďĉ!!ďĉ)!!!)!!!!!": 2928,
      "%&'(ďĉďĉ!ďĉ!!!!!!!!ďĉďĉďĉďĉďĉććććĈ!ćĈ!ĈćĈĈ!Ĉ!Ĉ!Ĉ!ĈćĈĈćĈĈĈĈĈĈ!%&'(ďĉďĉďĉ!))ďĉ!ďĉďĉďĉďĉćďĉ!ďĉďĉďĉ": 2929,
      "ććććĈ!Ĉ!Ĉ!Ĉ!Ĉ!ĈĈ!Ĉ!ćďĉ!!%&'(ďĉďĉćĈ!ćďĉďĉ!ďĉďĉćććććĈ!ćČ": 2930,
      "ćĈĈĈĈĈĈĈĈĈĈĈĈĈĈćĈ!ĈćĈĈćĈĈĈĈĈĈĈ": 2931,
      "ĥ!!": 2932,
      "ććď": 2933,
      "ćĈĈĈĈćć": 2934,
      "%Ĉ&'(ĈĈĈĈ": 2935,
      "%!&'(!!!!!!!!!!!!!!!!!!!!!!!!!!!!!!!!!!!!!!!!!!!!!": 2936,
      "ďĉďĉďĉ%&'(ďĉďĉ!": 2937,
      "ďĉ!!ďĉććććććććććććććććććććććĈ!ććĈ!ćĈ!ććĈ!ććććĈ!ćććĈććĈćććĈććććĈććĈććććĈććĈ": 2938,
      "ďĉ!ďĉďĉ%ď&'(ĉ": 2939,
      "%!!!&'(!!!!!!!!!!!!!!!!": 2940,
      "Ĉ!Ĉ!Ĉ!!ďĉďĉ!ďĉ!!!!!!!!ďĉďĉďĉďĉďĉććććĈ!ćĈ!ĈćĈĈ!Ĉ!Ĉ!Ĉ!ĈćĈĈćĈĈĈĈĈĈ!%&'(ďĉďĉďĉ!))ďĉ!ďĉďĉďĉďĉ": 2941,
      "001101010101": 2942,
      "&'(!!!!!!!!!!!!!!!!!!!!!!!!!!!!!!!!!!!!!!!!!!!!!!!!!!!!!": 2943,
      "%&ď'(ĉďĉďĉ": 2944,
      "ćĈ!ďĉ!)ććććććććććććĈ!ććĈ!ćĈ!ćĈ!Ĉ!Ĉ!ćĈ!Ĉ!ćĈ!%&'(ďĉććĈ!Ĉ!Ĉ!Ĉ!ćĈ!Ĉ!!Ĉ!ćĈ!ćĈ!ććĈ!Ĉ!ćĈ!ďĉ!": 2945,
      "ćďĈĈ": 2946,
      "!!!!!!!!!!!!!!!!!!!!!!!!!!!ďĉ!ďĉ!!!!!!ďĉďĉ!!!!": 2947,
      "ćĈĈĈćĈ!ĈĈĈĈ!ĈĈ!Ĉďĉďĉďĉďĉďĉďĉ!%&'(%&'(Ĉ!Ĉ!ĈĈĈĈĈĈćĈ!ĈĈĈ%&'(ďĉ%&'(%&'(%&'(ďĉďĉďĉďĉ!ďĉďĉ%!!!&'(": 2948,
      "ďĉďĉďĉ!!)!)!!!!!!!!!!!!!!!!!!!!ďĉ!!!!!!!!!!!!!!!!!!!!!!!!!!!!!!!!!!!ďĉ!ďĉďĉ!": 2949,
      "ďĉďĉďĉďĉćĈ!ĈĈ!Ĉ!ďĉ!ďĉ!ďĉďĉďĉ!!ďĉ!ďĉ%&'(!": 2950,
      "!!!!!!!%!&'(!!!!!!!!!!!": 2951,
      "ćććććććććććććććććććććććććć%&'(Ĉ!ćććĈ!Ĉ!ćĈ!Ĉ!ćĈ!ćĈ!ćĈ!ĈĈ!Ĉ!ćĈ!ćĈ!Ĉ!Ĉ!": 2952,
      "%ććć": 2953,
      "Ĉ!ćĈ!ćĈ!Ĉ!": 2954,
      "ďĉ!ćĈ!Ĉ!ćĈ!ćĈ!ćĈ!Ĉ!ććććĈ!ććĈ!ć!ďĉććĈ!Ĉ!ĈĈĈ!Ĉ!Ĉ!ĈĈćĈďĉ!!ďĉďĉ!!!)!)": 2955,
      "ĈĈĈĈĈĈĈĈĈĈ": 2956,
      ")!)!!!!!!!!!!ďĉ!!!!!!": 2957,
      "ďĉďĉ!!ďĉďĉďĉďĉććććĈ!ĈĈ!ćĈ!ĈĈ!Ĉ!Ĉ!ćĈ!ćĈ": 2958,
      "ďĉďĉďĉďĉďĉďĉďĉďĉ!ďĉ": 2959,
      "%!&": 2960,
      "ĈĈĈĈĈĈĈĈĈĈĈĈĈĈĈĈĈ!": 2961,
      "ćďĉ!!!": 2962,
      "ďĉďĉ%&'(ďĉ!!": 2963,
      "ďĉ!!!!!!!!!!!!!!!!!!!!!!!!!!!!!": 2964,
      "ćĈĈĈĈĈĈ!ĈĈ!ĈĈĈćĈĈĈćĈ!ĈĈĈĈ!ĈĈ!Ĉ": 2965,
      "22222244444444%&5555555522222222222222222222222266666666": 2966,
      "ďďĉĉďĉďĉďĉ": 2967,
      "232323232222222222222222222222222222222222222222244444444%&5555555522222222222222222222222266666666": 2968,
      "!!!!!!!!!!!!!!!!!!!!!!!!!!!!!!!!!!!!!!!!!!!!!!!!!!!!!!!!!!!!!!!!!!!!!!!!!!!!!!!!!!!!!!!!!!!!!!!": 2969,
      "!!!!!!!!!!!!!!!!!!!!!!!!!!!!!!!!!!!!!!!!!!!!!!!!!!!!!!!!!!!!!!!!!!!!!!!!!!!!!!!!!!!!!!!!!!!!!": 2970,
      "%!!!!!!!!!!!&'(!!!!!!!!!!!!!!!!!!!!!!!!!!!!!!!!!!!!!!!!!!!!!!!!!!!!!!!!!!!!!!": 2971,
      "ććććććĈććĈ!ďĉćĈ!Ĉ!Č": 2972,
      "!&'(ďĉ))ďĉħ": 2973,
      "ćĈ!ĈĈćĈ!ćĈĈćĈ!Ĉ!ćďĉďĉćććĈ!ćĈ!Ĉ!Ĉ!ćĈ!Ĉ!ćĈ!Ĉ!Ĉ!Ĉ!ćĈ!Ĉ!ćĈ!ćĈ!ćĈ!ćĈ!Ĉ!Ĉ!Ĉ!Ĉ!Ĉ!Ĉ!Ĉ!Ĉ!ĈĈ!": 2974,
      "ďĉ%&'(ďĉ!!!!ďĉ!!)ďĉďĉ!": 2975,
      "ćĈ!Ĉ!ćĈĈ!ćĈ!ćĈ!ĈĈ!Ĉ!Ĉ!": 2976,
      "32322": 2977,
      "ħ)ę!": 2978,
      "ćććĈ!Ĉ!ćććĈĈćĈ!ĈĈĈ!!ćććć!!!!!!!!!!!!!!!!!!!!%&'(%&'(ďĉďĉďĉćććĈ!Ĉ!Ĉ!Ĉ!Ĉ!Ĉ!": 2979,
      "&'(!!!!!!!!!!!!!!!!!!!!!!!!!!!!!ďĉććĈĈĈĈĈďĉďĉ)!)!!ďĉďĉ": 2980,
      "Ĉ!ĈĈĈ!ĈĈĈĈĈĈĈĈĈĈĈĈĈĈĈĈĈĈ!ďĉ!!ďĉ!ďĉ!!!ďĉďĉćĈ!ĈĈ!ĈĈĈĈ!Ĉ!Ĉ!ĈĈĈĈĈĈĈĈ!ĈĈĈĈĈ%&'(ďĉ!ďĉďĉ!ďĉ!ďĉďĉďĉ!": 2981,
      "%&'(ďĉ!!ďĉ!ďĉďĉ!ďĉ!ďĉďĉďĉ!ďĉďĉďĉ!ďĉďĉ!!ďĉďĉďĉ!": 2982,
      "ďĉďĉďĉďĉ!ďĉďĉďĉďĉ%&'(!ďĉ!!Ĉ!ĈćĈ!Ĉ!Ĉ!ĈćĈ!ććďĉ!Ĉ!ĈćĈ!Ĉ!Ĉ!ĈćĈ!ććďĉďĉ!ďĉďĉ%&'(ćĈ!Ĉ!Ĉ!Ĉ!Ĉ!Ĉ": 2983,
      ")!)!!!!!!!!!!ďĉ!!!!!!ćććĈ!Ĉ!Ĉ!Ĉďĉ!!!!!ďĉ!)!)!!!!!!!!!!!!!!": 2984,
      "ćď%&'(ĉ!": 2985,
      "ć%ćĈ&'(!": 2986,
      "ĉĈĈ": 2987,
      "!!!!ďĉďĉďĉććĈ!Ĉ!ćĈĈ!ćĈ!Ĉ!Ĉ!Ĉ!Ĉ!ĈĈĈćĈ!Ĉ!Ĉ!ćďĉććć": 2988,
      "Ĉ!ćĈ!Ĉ": 2989,
      "ďĉē": 2990,
      "%&'(ďĉďĉďĉ!!ďĉ!!ďĉ!!!!!!!!)!!!!!!!!)!": 2991,
      "ććććĈ!Ĉ!Ĉ!Ĉ!": 2992,
      "ďĉďĉďĉďĉ!!!!!!!!!": 2993,
      "ďĉďĉďĉďĉďĉ!ďĉ!!": 2994,
      "ďĉ!!ďĉďĉ%&'(ďĉ!ďĉ": 2995,
      "ććććććććććććććĈ!ććĈ!Ĉ!Ĉ!ĈćĈ!Ĉ!ĈćĈććĈĈ!ĈĈĈďĉ!!!": 2996,
      "ďĉďĉďĉ%!&'(": 2997,
      "ďĉďĉďĉďĉďĉďĉďĉďĉďĉ!!!ďĉ%&'(ďĉďĉ!!ďĉ": 2998,
      "ććĈ!Ĉ!Ĉ!ĈĈ!Ĉ": 2999,
      "!!!!!!!RTVa!!!SĂĄĆďĉćććďĉ!": 3000,
      "ďĉ!ďĉ!%&'(": 3001,
      "ć%&'(ďĉďĉ!ďĉďĉ": 3002,
      "ć%&'(ďĉ!ďĉďĉďĉĈ!ĈĈćďĉďĉďĉďĉďĉďĉďĉ!ďĉ!ďĉďĉďĉ!": 3003,
      "ďĉ!!!!!!!!!!!!!!!!!!!!!!!!!!!!!!": 3004,
      "ďĉ!!!!!!!!!!!!!!!!!!!!!!!!!!!!!!!": 3005,
      "ćĈ!ćďĉďĉďĉďĉćććć": 3006,
      "ďĉďĉďĉďĉďĉďĉćĈ!Ĉ!Ĉ!ĈĈ!Ĉ": 3007,
      "!!!SĂĄĆ!!!!R!!!S": 3008,
      "ďĉďĉďĉďĉďĉďĉďĉ%&'(ďĉ": 3009,
      "!!!!!!!!!!!!!!!!!!!!!!!!!!!!!!!!!!!!!!!!!!!!!!!!!!!!!!!!!!!!!!!!!!!!!!!!!!!!!!!!!!!!!!!!!!!": 3010,
      "ď%ĉ&'(ďĉ": 3011,
      "001101'(3": 3012,
      "%!!&'(!!!!!!!!!": 3013,
      "ēēē": 3014,
      "ďĉ!!!ćććĈćĈ!ćĈ!ĈĈ!Ĉ!ćĈĈĈĈĈĈĈĈĈĈĈĈĈ!ćĈ!ćĈĈĈĈ!Ĉ%&'(ďĉććďĉďĉ!!ďĉććĈ!ĈĈĈĈĈ!ćďĉďĉ!!!!!!!!!!!!!!!!!!!%&'(": 3015,
      "ďĉďĉďĉďĉďĉďĉ!%&'(%&'(Ĉ!Ĉ!ĈĈĈĈĈĈćĈ!ĈĈĈ%&'(ďĉ%&'(%&'(%&'(ďĉďĉďĉďĉ!ďĉďĉ!!%!&'(": 3016,
      "ććĈ!%&'(ďĉ!ďĉ!!ćĈ!": 3017,
      "LLLLLLLLLLLLLLLLLLLLLLLLLLLLLLLLLLLLLLLLLLLLLLLLLLLLLLLLLLLLLLLL": 3018,
      "MMM!!!!!!!!!!!!!!!!!!": 3019,
      "ćććĈ!Ĉ!Ĉ!Ĉ!Ĉ!Ĉ!Ĉ!Ĉ!Ĉ!Ĉ!ćĈ!ćĈ!Ĉ!ćĈ!Ĉ!Ĉ!ćĈ!Ĉ!ć%&'(ďĉ!ďĉďĉďĉďĉďĉďĉďĉďĉ": 3020,
      "ďĉďĉďĉďĉďĉ)!)ďĉďĉďĉ!ďĉďĉďĉ!!ďĉďĉďĉďĉ!ďĉ!ďĉ!ďĉ!ďĉ!": 3021,
      "ďĉĈ!Ĉ!Ĉ!Ĉ!Ĉ!ĈĈĈ!ĈĈĈć%&'(ďĉďĉ!ďĉďĉ": 3022,
      "ďĉććććĈ!ćĈ!Ĉ!ćĈ!Ĉ!ćĈ!ćĈ!Ĉ!": 3023,
      "ďĉ!ďĉďĉďĉďĉďĉďĉ!!ďĉ!ďĉďĉďĉďĉ!!%&'(ďĉďĉďĉ!ďĉ!ďĉ!ďĉ": 3024,
      "ććĈ!ďĉ!ďĉ!!ćĈ!%&'(ďĉďĉďĉĈ!Ĉ!Ĉ!Ĉ!Ĉ!ćĈ!ĈĈĈĈćĈ!ćĈ!ćďĉďĉďĉďĉ!ďĉ!ďĉďĉ": 3025,
      "ďĉ!!ďĉďĉ%&'(ďĉ!ďĉ!!!!!!!!!!!!!!!!!!!!!!!!!!!!!!!!!!!!!!!!!!!!!!!!!!!!": 3026,
      "Aē": 3027,
      "ďĐ": 3028,
      "Ĉ!ďĉ": 3029,
      "Ĉ!))": 3030,
      "ďĉććć": 3031,
      "'(!": 3032,
      "!!!!!!!!!!!!%!!!!!!!!!!!!!!!!!!!!!!!!!!!!!!!!!!!!!!!!!!!!!!!!": 3033,
      "%&'(ďĉćĈ!Ĉ!Č": 3034,
      "!!!!!%!&'(": 3035,
      "%!&'Ĉ(!": 3036,
      "Ĉ!ĈĈĈĈĈ!ćĈ!Ĉ!ĈćĈĈĈćĈĈĈĈĈĈ!ĈĈ!ĈĈĈćĈĈĈćĈ!ĈĈĈĈ!ĈĈ!Ĉ": 3037,
      "!!!!!!!!!!ďĉ!!!!!!!!!!!!!!!!!!!!!!!!": 3038,
      "ďĉďĉ%&'(ďĉďĉďĉ": 3039,
      "Ĉ!Ĉ!Ĉ!ĉ": 3040,
      "ćĈ!ć%Ĉ&'(!": 3041,
      "ďĉďĉďĉďĉďĉ!!!!!!!!!!!!!!!!!!!!!!!!!!!!!!!!!!!!!!!!!!!!!!!!!!!!!!!!!!!!!!!!": 3042,
      ")!)!!!!!!!!!!!!!!!!!!!!!!!!!!!!!!!!!!!!!!!!!!!!!": 3043,
      "%!!!!!!!!!!!!!!!!!!!!!!!!!!!!!!!!!!!!!!!!!!!": 3044,
      "L!LKLL!LK": 3045,
      "ćďĈ!ĉ": 3046,
      "Ĉ!Ĉ!ĈĈ!Ĉ!Ĉ!Ĉ!ďĉďĉďĉďĉďĉ!ďĉ": 3047,
      "ćĈ!ćĈ!ćďĉďĉďĉďĉ!ďĉďĉćććććććĈĈććććććĈ!ćĈĈ%&'(ďĉďĉ!!ďĉ!!!!!!!!!!!!!!!!!!!": 3048,
      "ćććććććĈ!Ĉ!Ĉ!ććĈĈććĈ!ćĈĈďĉďĉ!!!": 3049,
      "ćĈ!ćĈ!ćĈ!ĈĈ!Ĉ!ćĈ!ćĈ!Ĉ!Ĉ!": 3050,
      "ćĈ!Ĉ!ĈĈćĈćĈĈĈĈĈĈĈĈĈĈĈĈďĉ!!ďĉďĉďĉďĉďĉďĉ!": 3051,
      "ďĉďĉďĉď%&'(ĉďĉďĉďĉďĉ": 3052,
      "ćĈ!Čďĉďĉ!ďĉďĉďĉďĉďĉďĉďĉďĉďĉ%&'(": 3053,
      "ďĉ!ďĉďĉďĉćĈ!Ĉ!Ĉ!Ĉ!ĈĈ!Ĉ!Ĉ!Ĉ!ĈĈĈĈĈĈĈĈĈĈĈĈĈĈ!Ĉ!Ĉ!Ĉ!ĈĈĈĈ": 3054,
      "!!!!!!)!!!!!!!!!!!!!!!!!!!!!!!!!!!!!!!!%&'(ďĉďĉďĉ!ďĉ!!ďĉďĉďĉďĉďĉďĉ!ďĉďĉ!!": 3055,
      "ććĈ!ćďĉďĉďĉďĉďĉďĉďĉ!!ďĉďĉ%&'(ďĉ": 3056,
      "32222222222222222222222222222222222222244444444%&5555555522222222222222222222222266666666": 3057,
      "ďĉďĉďĉďĉ!!!": 3058,
      "ďĉ!ď%ĉ&'(": 3059,
      "ćĈ!ćĈ!ććĈ!": 3060,
      "%&'(ďĉ!!!!!!!!!!!!!!!!!!!!!!!!!!!!!!!!!!!!!!!!!!!!!!!!!!!!!!!!!!!!!!!!": 3061,
      "ď%&'(ĉďĉ!!": 3062,
      "'(323": 3063,
      "ć%&'(Ĉ!Ĉ!": 3064,
      "ć%&'(ďĉďĉ!!ďĉďĉďĉďĉććććĈ!ĈĈ!ćĈ!ĈĈ!Ĉ!Ĉ!ćĈ!ćĈ": 3065,
      "ďĉ!!!!!!!!!!!!!!!!!!!!!!!!!!": 3066,
      "ď!ďďďď": 3067,
      "ć%&'(ďĉćĈ!Ĉ!Ĉ!Ĉ!Ĉ!Ĉ!Ĉ!Ĉ!ćĈ!ćĈ!Ĉ!ĈćĈ!Ĉ!ďĉćĈ!": 3068,
      "ćďćĉ": 3069,
      "!!!!!!!!!!!!!!!!!!!!!!!!!!!!!!!!!!!!!!!ććććććććĈ!ćććĈ!Ĉ!ćĈ!%&'(ďĉ": 3070,
      "ďĉďĉďĉďĉďĉ)!)ďĉďĉďĉ!ďĉďĉďĉ!!": 3071,
      "ćććććććĈ!Ĉ!ćĈ!ĈćĈĈ!Ĉ!ćĈ!ĈĈ!ććĈ!ćĈ!ććĈćĈććć!!ďĉ!ďĉ!!ďĉďĉ!!ďĉ!!!!!!)!!!!!!!!)": 3072,
      "%&'(ćďĉ!ďĉďĉďĉĈ!ĈĈćďĉďĉďĉďĉďĉďĉďĉ!ďĉ!ďĉďĉďĉ!": 3073,
      "%M&'(MMMMMMMMMMMMMMMMMMMMMMMMMMMMMMMM": 3074,
      "ć'ć(": 3075,
      "&'(!!!!!!!!!!!!!!!!!!!!!!!!!!!!!!!!!!!!!!!!!!ććććććććććććČďĉďĉććĈ!ćĈ!ćĈ!ćĈ!ćĈćĈćĈćďĉ%&'(ďĉ": 3076,
      "32233322": 3077,
      "ďĉ!!ďĉďĉ!!ďĉ!ďĉ!!ďĉďĉďĉ!ďĉććĈ!%&'(ďĉ!ďĉ!!ćĈ!": 3078,
      "Ĉ!ĈĈćďĉďĉďĉďĉďĉďĉďĉ!ďĉ!ďĉďĉďĉ!ďĉ!ďĉďĉďĉĈ!Ĉ!Ĉ!Ĉ!ććĈćć%&'(ďĉďĉďĉ!!ďĉ!!ďĉ!!!!!!!!)!!!!!!!!)!": 3079,
      "&'(!!!!!!!!!!!!!!!!!!!!!!!!!!!!!!!!!!!!!!!!!!!!!)!)!!!!!!!!!!!!!!!!!!!!!!!!!!!!!!": 3080,
      "-+/,'(": 3081,
      "ĖĦ": 3082,
      "ďĉĈ!Ĉ!": 3083,
      "ďĉď!ĉ": 3084,
      "Ĉ!Ĉ!ćććĈ!": 3085,
      "ćĈ!%ć&'(": 3086,
      "MM!!!!!!!!!!!!!!!!!!": 3087,
      "!!!!!!!ďĉďĉ": 3088,
      "Ĉ!Ĉ!Ĉ!%Ĉ&'(!": 3089,
      "!LK!LK!LK": 3090,
      "ďĉďĉďĉ%&'(ćććĈĈ!ćĈ!Ĉ!ĈćĈĈĈćĈĈĈćĈĈćććććďĉďĉďĉĈ!ĈĈĈĈĈ!ćĈ!Ĉ!ĈćĈĈĈćĈĈĈĈĈ": 3091,
      "ďĉ!!ďĉ!!!": 3092,
      "ďĉďĉďĉ!ďĉďĉ!ďĉďĉ!!!ďĉćĈ!Ĉ!ććĈ!ććĈ!ĈĈ!ććĈ!Ĉ!Ĉ": 3093,
      "ďĉďĉďĉďĉďĉ%&'(ďĉďĉďĉ": 3094,
      "ďĉďďĉĉďĉďĉďĉďĉ": 3095,
      "01010101010101'(3": 3096,
      "ć%&'(ďĉ!ććććććććĈ!Ĉ!ćĈĈćĈ!ĈĈćĈ!ćĈĈćĈ!Ĉ!": 3097,
      "ćĈĈ!ćĈ!ćĈ!ĈĈ!Ĉ!Ĉ!ćĈ!Ĉ!Ĉ!ććĈ!Ĉ!Ĉ!Ĉ!Ĉ!Ĉ!ćĈćĈ!ććććććĈ!ćĈ!ććĈćććĈćććĈĈćĈćĈ!Ĉ!ćĈ!ĈćĈćĈćĈćĈ!Ĉ!ĈćĈ!Ĉ!": 3098,
      "Ĉ!ĈĈĈĈĈĈĈĈĈĈĈĈĈĈĈĈĈĈĈĈ!ďĉďĉďĉďĉďĉďĉćďĉ!ďĉ": 3099,
      "ďĉ!!ďĉ!ďĉ!ććĈ!Ĉ!Ĉ!ććĈ!Ĉ!Ĉ!ĈĈ!Ĉ!!ćĈ!Ĉ!Ĉ!Ĉ!ćĈ!ććĈ!ćďĉ!ďĉďĉ!!": 3100,
      "ćĈ!ďĉ!%&'(ďĉďĉďĉďĉďĉďĉďĉďĉďĉďĉďĉďĉďĉ": 3101,
      "ććććĈ!Ĉ!Ĉ!Ĉ!Ĉ!ĈĈ!Ĉ!ćďĉ!": 3102,
      "ďĉ!!ďĉďĉďĉďĉďĉ!!ďĉ!ďĉ!ďĉďĉďĉ!ďĉďĉďĉ%&'(ďĉďĉďĉďĉďĉ": 3103,
      "ďĉďĉďĉďĉďĉćććććĈ!Ĉ!ćĈ!Ĉ!ćĈ!Ĉ!Ĉ!Ĉ!Ĉ!ćĈ!ćĈ!ćĈ!ćĈ!ćĈ!Ĉ!ćĈ!ćĈ!Ĉ!ćĈĈćĈ!ĈććĈ!ĈćĈćĈćĈ!ĈćĈĈ%&'(ďĉďĉďĉ": 3104,
      "ćďĉďĉććĈ!ďĉďĉďĉďĉ!ďĉďĉ!!": 3105,
      "ďĉďĉďĉďĉďĉ)!)ďĉďĉďĉćććĈ!Ĉ!Ĉ!ĈĈ!Ĉ!ćĈ!Ĉ!Ĉ!ĈćĈ!Ĉ!Ĉ!Ĉć%&'(ďĉ!ććććććććĈ!Ĉ!ćĈĈćĈ!ĈĈćĈ!ćĈĈćĈ!Ĉ!": 3106,
      "ćĈ!Ĉ!ćĈĈ!ćĈ!ćĈ!ĈĈ!Ĉ!Ĉ!ćĈ!Ĉ!Ĉ!ććĈ!Ĉ!Ĉ!Ĉ!Ĉ!Ĉ!ćĈ": 3107,
      "%!!!!!!!!!!!!!!!!!!!!!!!!!!!!!&'(!!!!!!!!!!!!!!!!!!!!!!!!!!!!!!!!!!!!!!!!!!!!!!!!!!!!!!!!!!!!!!!!": 3108,
      "ććĈ!ćĈ!Ĉ!ĈĈĈ!ĈĈĈććĈ!ĈĈ!ĈĈĈĈ!ĈĈ!ĈĈĈĈďĉďĉďĉ!!!!!!!!!!ďĉďĉďĉ%&'(ďĉďĉďĉĈ!Ĉ!Ĉ!Ĉ!Ĉ!Ĉ!": 3109,
      "%&'(ďĉććććććććććććĈ!ćĈ!Ĉ!Ĉ!Ĉ!Ĉ!Ĉ!Ĉ!Ĉ!Ĉ!!ćĈĈĈĈ!Ĉ!ćĈ!Ĉ!ćĈĈĈćĈ!ĈĈĈĈĈ!Ĉ!ćĈ!ććĈ!ćĈ!ććĈ!ćĈććĈ!ćĈ!ćĈ!ĈćĈĈ": 3110,
      "ćććććććĈ!ćĈ!Ĉ!Ĉ!Ĉ!Ĉ!ćĈ!Ĉ!ćĈććĈćďĉćĈ!Ĉ!Ĉ!Ĉ!Ĉ!Ĉ!Ĉ!Ĉ!ćĈ!ćĈ!Ĉ!ĈćĈ!Ĉ!ďĉćĈ!%&'(ďĉďĉďĉďĉďĉďĉďĉďĉďĉďĉďĉďĉ": 3111,
      "ćďĉ!ďĉďĉďĉďĉďĉďĉďĉ%&'(ďĉ": 3112,
      "!!!ďĉďĉďĉďĉććĈ!Ĉ!Ĉ!Ĉ!Ĉ!Ĉ!ććĈ!ćďĉ!ďĉććććĈ!ćĈ!ĈĈ!ććĈ!ćĈ!ĈĈ!ćĈ!Ĉ!": 3113,
      "EF": 3114,
      "ćĉĉ": 3115,
      "!!ďĉďĉ": 3116,
      "ćĈ!Ĉ!ĉ": 3117,
      "ďĉďĉ!)": 3118,
      "%&'(ďĉ!!!!!!!!!!!!!!!!!!!!!!!!!!!!!!!!": 3119,
      "ďĉďĉďĉďĉďĉďĉďĉďĉďĉ!ďĉďĉďĉ%&'(": 3120,
      "Ĉ!Ĉ!Ĉ!Ĉ!Ĉ!Ĉ!Ĉ!": 3121,
      "ďĉďĉďĉďĉ!ďĉ!ďĉ!ďĉ!ďĉ!ďĉ!ďĉćććĈ!Ĉ!Ĉ!Ĉ!Ĉ!Ĉ!ćĈ!Ĉ!Ĉ!Ĉ!ćĈ!Ĉ!Ĉ!Ĉćć": 3122,
      "Ĉ!ĈĈ!ĈĈ!ĈĈ!ćĈ!ćĈ!": 3123,
      "ďĉďĉďĉďĉďĉďĉćďĉ)ħ": 3124,
      "ďĉ!ďĉďĉď%&'(ĉ": 3125,
      ")!)!!!!!!!!!!!!!!!!!!!!!!!!!!!!!!!!!!!!!!!!!": 3126,
      ")!)!!!!!!!!!!!!!!!!!!!!!!!!!!!!!!!!!!!!!!!!!!": 3127,
      "&'(!!!!!!!!!!!!!!!!!!!!!!!!!!!!!!!!!!!!!!!!!!!!!!!!!!!!": 3128,
      "&'(!!!!!!!!!!!!!!!!!!!!!!!!!!!!!!!!!!!!!!!!!!!!!!!!!!!": 3129,
      "&'(!!!!!!!!!!!!!!!!!!!!!!!!!!!!!!!!!!!!!!!!!!!!!!!!!!!!!!!": 3130,
      "ďĉ!ďĉ!ďĉćććĈ!Ĉ!Ĉ!Ĉ!Ĉ!Ĉ!ćĈ!Ĉ!Ĉ!Ĉ!ćĈ!Ĉ!Ĉ!Ĉććďĉ!ćĈ!ćĈ": 3131,
      "ďĉďĉďĉďĉďĉ!!ďĉ!ďĉďĉďĉďĉ": 3132,
      "ćĈĈĈĈĈĈĈĈĈĈĈĈĈĈĈĈ!": 3133,
      "Ĉ!Ĉ!Ĉ!Ĉ!ĈćĈĈĈ!ĈĈĈćĈćďĉďĉďĉ!!!": 3134,
      "!&'(ďĉ))ďħĉ": 3135,
      "ďĉďĉďĉ!!ďĉ!ććĈ!Ĉ!Ĉ!Ĉ!Ĉ!ďĉďĉ!ďĉćććććĈ!Ĉ!Ĉ!Ĉ!Ĉ!Ĉ!ďĉ!%&'(ďĉ!!ďĉ!": 3136,
      "ćĈćĈćĈćććĈćĈćććĈćĈćĈ!ĈćĈćĈćĈćććĈĈĈĈĈććĈĈććĈćććĈćĈćĈćĈćĈĈćĈĈćĈćĈćĈ": 3137,
      "ćććććććććććććććĈ!Ĉ!Ĉ!ćĈ!Ĉ!Ĉ!Ĉ!Ĉ!ćĈ!Ĉ!ćĈ!ćĈ!ćĈ!ćĈ!": 3138,
      "ćďĉďĉ%&'(ďĉďĉ": 3139,
      "ďĉďĉďĉďĉďĉ!ďĉďĉďĉ!ćĈ!Ĉ!ćĈ!ćĈ!ćĈ!Ĉ!ććććĈ!ććĈ!ć!%&'(ďĉććĈ!Ĉ!ĈĈĈ!Ĉ!Ĉ!ĈĈćĈďĉ!!ďĉďĉ!!!)!)!!!!!!!!!!!!": 3140,
      "ďLĉK": 3141,
      ")!)!!!!!!!!!!!!ććĈ!ćĈ!ććĈ!ćĈ!ćĈ!ććĈćĈ!Ĉ!Ĉ!Ĉ!ćĈ!ććĈĈĈĈĈĈćĈ!ććĈćĈ!ćĈ!Ĉ!ćĈ!ććĈććĈ!!!!!!ďĉćć%&'(ďĉďĉďĉ": 3142,
      "Ĉ!Ĉ!Ĉ!Ĉ!!Ĉ!Ĉ!Ĉ!Ĉ!!Ĉ!Ĉ!Ĉ%&'(ďĉďĉďĉ%&'(Ĉ!Ĉ!ĈĈ!Ĉ!ĈĈĈĈ!Ĉ!ĈĈ!Ĉ!Ĉ!!Ĉ!": 3143,
      "ďĉććććććććććććĈ!ćĈ!Ĉ!Ĉ!Ĉ!Ĉ!Ĉ!Ĉ!Ĉ!Ĉ!!ćĈĈĈĈ!Ĉ!ćĈ!Ĉ!ćĈĈĈćĈ!ĈĈĈĈ": 3144,
      "ďĉ!ďĉ%&'(ďĉďĉĈ!Ĉ!Ĉ!Ĉ!ććĈććďĉďĉďĉ!!ďĉ!!ďĉ!!!!!!!!)!!!!!!!!)!": 3145,
      "32222224%&52226'(78,": 3146,
      "ćďĉďĉďĉ%&'(": 3147,
      "Ĉ!ćĈ!ććĈ!": 3148,
      "%&'(!!!!!!!!!!!!!!!!!!!!!!!!!!!!!!!!!!!!!!!!!!!!!": 3149,
      "ćććć%&'(": 3150,
      "Ĉ!Ĉ!Ĉ!Ĉ!Ĉ!ćĈ!Ĉ!": 3151,
      "ďĉďĉďĉĈ!Ĉ!Ĉ!Ĉ!!Ĉ!Ĉ!Ĉ!Ĉ!!Ĉ!Ĉ!Ĉ": 3152,
      "ďĉďĉďĉććĈ!Ĉďĉ%&'(Ĉ!Ĉ!ĈĈĈĈĈĈĈĈĈĈĈĈĈĈĈĈĈĈĈĈĈĈĈĈďĉ!": 3153,
      ")!)!!!!!!": 3154,
      "01001011": 3155,
      "ď%&'(ĉ!!!": 3156,
      "ď%&'(ĉ!ďĉ": 3157,
      "ďĉďĉďĉ!!ďĉ!!!!": 3158,
      "!!!!!!!!!!!!!ďĉ!!!!ďĉďĉďĉďĉďĉďĉďĉďĉďĉďĉ": 3159,
      "ćďĉ!ďĉďĉ!!!": 3160,
      "ďĉďĉ%&'(Ĉ!Ĉ!ĈĈ!Ĉ!ĈĈĈĈ!Ĉ!ĈĈ!Ĉ!Ĉ!!": 3161,
      "ćĈ!Ĉ!Ĉ!%&'(": 3162,
      "ďĉ!!!ďĉďĉďĉďĉďĉďĉďĉďĉ!": 3163,
      "ćććććććĈ!ćĈ!Ĉ!ĈćĈ!Ĉ!": 3164,
      "ďĉĈ!Ĉ!Ĉ!Ĉ!Ĉ!Ĉ": 3165,
      "3223322": 3166,
      "!!!!!!!!!!!!!!!!!!!!!!!!!!!!!!!!!!!!!!!!!!!!!!!!!!!!!!!!!!!!!!!!!%!&'(": 3167,
      "ćĈ!ćĈ!ćĈ!ćĈ!Ĉ!Ĉ!Ĉ!Ĉ!Ĉ!Ĉ!Ĉ!Ĉ!ĈĈ!ďĉ!!!!!!!!!!!!!!!!!!!!!!!!!!!!!!!!!!!!!!!!!!!!!": 3168,
      "ďĉďĉďĉďĉďĉďĉćďĉ!ďĉ!!!!!!!!!!!!!!!!!!!!!!!!!!!!!!!!!!!": 3169,
      "ďĉďĉďĉ!!ďĉďĉ!ďĉ!!ďĉććććććĈ!ććĈ!ććĈ!Ĉ!Ĉ!Ĉ!ćććĈ!Ĉ!Ĉ!ććĈ": 3170,
      "ďĉďĉďĉďĉďĉďĉďĉďĉ!!!ďĉďĉďĉďĉććĈ!Ĉ!Ĉ!Ĉ!Ĉ!Ĉ!ććĈ!ć": 3171,
      "%Ĉ!&'(": 3172,
      "ć%&'(ďĉďĉććĈ!ďĉďĉďĉďĉ!ďĉďĉ!!ďĉďĉďĉďĉďĉďĉďĉ!ďĉ!ďĉć%&'(ććććććĈ!ćČČďĉďĉďĉ!!!!!ďĉďĉďĉ!ďĉďĉćććććĈ!Ĉ!ćĈĈ": 3173,
      "Ĉ!ďĉďĉćĈ!ďĉ!%&'(ććĈ!Ĉ!Ĉ!ĈćĈ!Ĉ!Ĉ!Ĉ!Ĉ!Ĉ!Ĉ!Ĉ!Ĉ!Ĉ!": 3174,
      "ďĉďĉ!ďĉďĉ%&'(ďĉďĉ!ďĉ!!ďĉďĉďĉďĉďĉďĉ!ďĉďĉďĉďĉďĉďĉ!!": 3175,
      ")!)!!!!!!!!!ććććĈ!ĈĈďĉ!!!!!!!!!!!!!!!!!!!!!!!!!!!!": 3176,
      "ćĈ!Čďĉďĉ!ďĉďĉďĉďĉďĉďĉďĉďĉďĉ%&'(ćććććĈ!ćĈ!Ĉ!ćĈĈ!Ĉ!Ĉ!Ĉ!ćĈćĈĈćĈ!Ĉ!Ĉ!ćĈ!Ĉ!Ĉ!Ĉ!ćĈ!Ĉ!ďĉ": 3177,
      "'777": 3178,
      "Vb": 3179,
      "ććććĈ!ĈĈ!ćĈ!ĈĈ!Ĉ!Ĉ!ćĈ!ćĈ": 3180,
      "ďĉďĉďĉďĉ%&ď'(ĉ": 3181,
      "ććĈćĈ!ĈĈ": 3182,
      "ćććĈ!Ĉ!ććććććĈ!ćĈĈ": 3183,
      "ćććĈ!Ĉ!ćĈ!ďĉ": 3184,
      "ďĉ!ďĉććć": 3185,
      "ćďĉććććććĈ!Ĉ!": 3186,
      "ďĉ!ďĉ!ććĈ!Ĉ!Ĉ!ććĈ!Ĉ!Ĉ!ĈĈ!Ĉ!!ćĈ!Ĉ!Ĉ!Ĉ!ćĈ!ććĈ!ćďĉ!ďĉďĉ!!": 3187,
      "!!!!!!!!!!!!!!!%!!!!!!!!!!!!!!": 3188,
      "ďĉďĉďĉďĉďĉďĉ!%&'(": 3189,
      "%&-+01'(;": 3190,
      "ććććĈ!ćĈćĈĈ": 3191,
      "7777'777": 3192,
      "ćĈććĈćĈ!ćĈ": 3193,
      "%!!!!!&'(ďĉ!!!!!!!!!ćććĈ!Ĉ!Ĉ!Ĉ!Ĉ!Ĉ!ĈĈĈĈĈĈĈĈĈĈĈĈ": 3194,
      "ďĉĈ!Ĉ!Ĉ!Ĉ!ĈĈ": 3195,
      "Ĉ!ĈĈ!Ĉ!Ĉ!Ĉ!Ĉ!ćĈ!": 3196,
      "ďĉ!!!!!!!!!!!!%!!!!!&'(ďĉ!!!!!!!!!ćććĈ!Ĉ!Ĉ!Ĉ!Ĉ!Ĉ!ĈĈĈĈĈĈĈĈĈĈĈĈ": 3197,
      "ććććĈ!ćććĈććĈćććĈććććĈććĈććććĈććĈćďĉ!!!!!!!!!": 3198,
      "ĈĈĈĈĈĈćĈ!ććĈćĈ!ćĈ!Ĉ!ćĈ!ććĈććĈ!!!!!!ďĉćć": 3199,
      "!!!!!!!!!!!!!!!!!!!ďĉ!ďĉďĉ!!!!!!!!!!!!!!!!!!!!!!!!!!!!": 3200,
      "!!!!!!!!!ďĉ!!!!!!!!!!!)!!!!!!!!!!!!!!!ďĉďĉďĉ)!)": 3201,
      "3232222": 3202,
      "ďĉďĉďĉďĉďĉďĉR%&'(TVaďĉććĈ!ćććĈćććĈĈ!Ĉ!ćĈ!ććĈćĈ!ćĈ!!Č!!Č!ďĉ!ďĉĈ!Ĉ!ćĈ!Ĉ!ĈĈĈďĉ!ďĉ!!!SĂĄĆ!!ďĉ!!!!!!": 3203,
      "ďĉďĉďĉďĉďĉ!ďĉďĉďĉďĉďĉ!ďĉďĉďĉ": 3204,
      "KKKK": 3205,
      "ďĉďĉďĉďĉďĉďĉďĉ!!ďĉďĉďĉ": 3206,
      "Ĉ!ćĈ!ćĈ!Ĉ!Ĉ!ďĉďĉ!!!!!!!RTVa!!!SĂĄĆ": 3207,
      "%&'(!!!!!!!!!!!!!!!!!!!!!!)!!!!!!!!!!!!!!!!!!!!!!!!!!!!!!!!ďĉďĉďĉ!ďĉ!!ďĉďĉďĉďĉ%&'(ďĉďĉ!": 3208,
      "ďĉ!ďĉ!!!SĂĄĆ!!ďĉ!!!!!!RTVa!!!SĂĄĆ!!!!R!!!SćććććććĈ!Ĉ!": 3209,
      "ďĉ!ďĉ!ďĉďĉďĉďĉ!ďĉďĉĥďĉĈ!ĈĈ!ďĉćĈ!Č": 3210,
      "777777'7(788888888,-%&+01": 3211,
      "ćććĈ!Ĉ!Ĉ!Ĉ!Ĉ!%&'(Ĉ!Ĉ!Ĉ!Ĉ!Ĉ!": 3212,
      "ďĉćććććĈ!Ĉ!Ĉ!ćĈĈćĈ%&'(ďĉďĉĈ!Ĉďĉ!ďĉ!ďĉćććććććććććĈ!ćĈ!!ććĈ!ććĈ!ćĈ!Ĉ!Ĉ!Ĉ!Ĉ!Ĉ!ĈćĈĈĈĈ!ĈććĈ!ććććĈć!!": 3213,
      "ćććĈ!Ĉ!Ĉ!ćĈĈĈĈ!ćĈ!ĈĈ!ćĈ!ć%&'(ďĉďĉďĉďĉďĉćććććĈ!)!)!!Ĉ!Ĉ!ĈĈ!!!!!": 3214,
      "ććĈ!Ĉ!Ĉ!ĈĈ!ĈćĈ!ćć": 3215,
      "32222224%&52226'(78,<": 3216,
      "%&-+01'(;32222224%&52226'(78,<": 3217,
      "\"%&-+/,'(%&-+/,'(%&-+/,'(%&-+/,'(%&-+/,'(%&-+/,'(%&-+/,'(%&-+/,'(": 3218,
      "%K": 3219,
      "C!!!": 3220,
      "Ĉĉ!": 3221,
      "!!%!!!!!!!!!!!&'(!!!!!!!!!!!!!!!!!!!!!!!!!!!!!!!!!!!!!!!!!!!!!!!!!!!!!!!!!!!!!!!!": 3222,
      "ďĉĒ": 3223,
      "ďĉď%&'(ĉ!": 3224,
      "ďĉ!!!!!!!!!ćććĈ!Ĉ!Ĉ!Ĉ!Ĉ!Ĉ!ĈĈĈĈĈĈĈĈĈĈĈĈ": 3225,
      "ćć%Ĉ&'(!": 3226,
      "ĈĈ!!": 3227,
      "%&'(Ĉ!Ĉ!Ĉ!Ĉ!": 3228,
      "%&'(ććĈ!ćďĉďĉďĉďĉďĉďĉďĉ!!": 3229,
      "ćĈćĈćĈ!ćĈ!ććĈ!": 3230,
      "ďĉďĉďĉ%&'(ďĉ": 3231,
      "ďĉďĉďĉ%&'ď(ĉ": 3232,
      "Ĉ!ćĈ!Ĉ!%&'(": 3233,
      ")!)!!!!!!!!!": 3234,
      "!!!!!ďĉ!ďĉďĉďĉďĉďĉďĉďĉ": 3235,
      "!!!!!!!%!!!!!!!!!!!!&'(": 3236,
      "ďĉ!ďĉďĉďĉďĉďĉ!": 3237,
      "!!!!!!!!!!!!!ďĉ!ďĉ!!!!!!": 3238,
      "%Ĉ&'(!ĈĈĈ": 3239,
      "ĈĈĈĈĈĈĈĈĈĈ!ĈĈĈĈ!ĈĈĈĈĈ": 3240,
      "ďĉďĉćććććĈ!Ĉ!Ĉ!ćĈĈćĈ": 3241,
      "ďĉ!ďĉďĉďĉ!ďĉ!!!!!ďĉ!ďĉďĉďĉďĉďĉďĉďĉ": 3242,
      "3332222": 3243,
      "ĈćĈĈćĈćć": 3244,
      "ďĉ!ďĉďĉďĉďĉ!!ďĉďĉďĉ!": 3245,
      "ćďććĉ": 3246,
      "Ĉ!Ĉ!Ĉ!Ĉ!ĈćĈĈĈ!ĈĈĈćĈćĈĈĈĈĈĈĈćĈĈĈĈĈĈ": 3247,
      "Ĉ!Ĉ!Ĉ!ĈĈĈĈ!Ĉ!ĈĈ!Ĉ!Ĉ!ĈĈĈĈćďĉďĉćććććććĈ!Ĉ!Ĉ!ćĈ!Ĉ!Ĉ!ćďĉ!": 3248,
      "ććĈ!ćććĈ!ćććĈ!ćććĈ!Ĉ!Ĉ!%&'(ďĉćć": 3249,
      "ćććĈ!Ĉ!Ĉ!Ĉ!ĈĈĈĈĈĈĈĈĈĈ!ćĈ!Ĉ!ĈćĈĈćĈćĈĈĈćĈĈďĉĈ!Ĉ!ĈĈĈĈ!Ĉ!Ĉ!ĈĈĈĈĈĈĈĈĈĈ!ĈĈĈ!ĈĈ!ĈĈĈĈ!ĈĈ!Ĉ": 3250,
      "ććććććććććććććććććććććĈ!ććĈ!ćĈ!ććĈ!ććććĈ!ćććĈććĈćććĈććććĈććĈććććĈććĈćďĉ!!!!!!!!!": 3251,
      "ćććććććĈ!ćČČďĉďĉďĉ!!!!!": 3252,
      "ćďĉďĉ!ďĉďĉ!ďĉ)))": 3253,
      "ćďĉ#$ćĈ!ćć%&'(ďĉďĉ!!!!ďĉ!!)ďĉďĉ!ďĉďĉ%&'(!ďĉďĉďĉ!!ďĉďĉćĈ!Čďĉďĉďĉ!ďĉďĉ!ďĉďĉďĉ!ďĉďĉ!ďĉďĉďĉĈ!Ĉ!Ĉ!Ĉ!!": 3254,
      "ďĉďĉďĉďĉďĉďĉďĉ!ďĉ!ďĉćććććććĈ!ćČČďĉďĉďĉ!!!!!": 3255,
      "AAAAAA": 3256,
      "ććĈ!Ĉ!Ĉ!Ĉ!Ĉ!Ĉ!ććĈ!ćďĉ!ďĉććććĈ!ćĈ!ĈĈ!ććĈ!ćĈ!ĈĈ!ćĈ!Ĉ!ćĈ!ďĉ!)": 3257,
      "!!!!!!!!!!!!!!!!!!!!!!!!ďĉ!!ďĉďĉďĉďĉďĉ!!ďĉ!ďĉ!ďĉďĉďĉ!": 3258,
      "ćććććććĈ!ćĈ!Ĉ!Ĉ!Ĉ!Ĉ!ćĈ!Ĉ!ćĈććĈćďĉćĈ!Ĉ!Ĉ!Ĉ!Ĉ!Ĉ!Ĉ!Ĉ!ćĈ!ćĈ!Ĉ!ĈćĈ!Ĉ!%&'(ďĉ": 3259,
      "!!!!R%&'(TVa!!!SĂĄĆ!!!!R!!!S": 3260,
      ")!)!!!!!!!!!!!!!!!%&'(!ďĉďĉďĉ!ďĉ!ďĉ!ďĉ!ďĉďĉ!!ďĉďĉďĉďĉďĉ!ďĉ!ďĉ%&'(ďĉďĉďĉďĉćććććĈ!Ĉ!Ĉ!ćĈĈćĈďĉďĉĈ!Ĉ": 3261,
      "ćĈćďĉďĉďĉ!!!ďĉďĉďĉďĉ%&'(ďĉ!!ďĉ!ďĉďĉ!ďĉ!ďĉďĉďĉ!ďĉďĉďĉ!ďĉďĉ!!ďĉďĉďĉ!": 3262,
      "!!!!!!!ďĉ!!ďĉďĉ!!!ďĉďĉďĉďĉďĉ!ďĉććĈ!Ĉ!Ĉ!Ĉ!Ĉ!Ĉ!Ĉ!ĈĈćĈ%&'(ďĉďĉćććĈ!Ĉ!Ĉ!Ĉ!Ĉ!Ĉ!ćććććĈ!ćĈĈ": 3263,
      "%&'(ďĉ!ćĈ!ćĈďĉďĉďĉďĉ!ďĉďĉďĉďĉ!ďĉ!!Ĉ!ĈćĈ!Ĉ!Ĉ!ĈćĈ!ćć": 3264,
      "ćĈćĈćĈ!ćĈ!ććĈ!ćĈććĈćĈ!ćĈ": 3265,
      "LM": 3266,
      "ďĈ!Ĉ!Ĉ": 3267,
      "ďĈ!ĈĈ": 3268,
      "Ĉ!Ĉ!ćĈ": 3269,
      "Ĉ!Ĉ!%Ĉ&'(!": 3270,
      "%&'(\"": 3271,
      "%&'(!ďĉ": 3272,
      "%&'(Ĉ!Ĉ!ĈĈĈĈĈĈćĈ!ĈĈĈ%&'(ďĉ%&'(%&'(%&'(ďĉďĉďĉďĉ!ďĉďĉ%!!!&'(": 3273,
      "ďĉ!%!&'(": 3274,
      "ďĉ!!ďĉďĉ!": 3275,
      "ďĉďĉďĉM": 3276,
      "ďĉďĉďĉ!ćĈ!Ĉ!ćĈ!ćĈ!ćĈ!Ĉ!ććććĈ!ććĈ!ć!ďĉććĈ!Ĉ!ĈĈĈ!Ĉ!Ĉ!ĈĈćĈ": 3277,
      "ććĈ!Ĉ!Ĉ!ĈćĈ!": 3278,
      "ďĉ%&'(ďĉ!": 3279,
      "ďĉ%&'(ďĉďĉďĉďĉďĉďĉďĉ": 3280,
      "LLLLLL!LK": 3281,
      "!!!!!!!!!!%&'(ďĉ": 3282,
      "-%&+01": 3283,
      "ďĉďĉďĉ%&'(ććĈ!Ĉ!ćĈĈ!ćĈ!Ĉ!Ĉ!Ĉ!Ĉ!ĈĈĈćĈ!Ĉ!Ĉ!ćďĉććć": 3284,
      "'(788888888,": 3285,
      "010101'(333": 3286,
      ")!)!!!!!!!!!!!!!!!!!!!!!!!!!!!!!": 3287,
      ")!)!!!!!!!!!!!!!!!!ďĉďĉďĉ!ďĉ!ďĉ!": 3288,
      "ďĉ!!ďĉ!ďĉďĉ!!ďĉďĉďĉďĉďĉďĉďĉďĉ!": 3289,
      "MMMMMMMMMMMMMMMMMMMM": 3290,
      "7777777": 3291,
      "%!!!!!!!!&'(ďĉ!!!!!!!!!ćććĈ!Ĉ!Ĉ!Ĉ!Ĉ!Ĉ!ĈĈĈĈĈĈĈĈĈĈĈĈ": 3292,
      "%&'(ďĉďĉ!ďĉďĉ": 3293,
      "%!!!!!!!!!!!!!!&'(": 3294,
      ")!)!!!!!!!!ďĉ!ďĉďĉ!!!!!!!!!!!!!!!!!!!!!!!!!!!!!!!!!!!!!!!!!!!!!!!!!!!!!!!!!!!!!!!!!!!!!!!!!!!!!!!!!": 3295,
      "%!&'(!!!!!!!!!!!!!!!!!!!!!!!!!!!!!!!!!!!!!!!!!": 3296,
      "ćĈĈćĈĈĈĈĈĈćĈĈĈĈćĈĈćĈĈćĈ!ćććĈ!ććďĉďĉ!!!!": 3297,
      "Ĉ!ďĈ!ĉ": 3298,
      "&'Ĉ(": 3299,
      "ćććććććććććĈ!ćĈ!!ććĈ!ććĈ!ćĈ!Ĉ!Ĉ!Ĉ!Ĉ!Ĉ!Ĉ": 3300,
      "ćďĉ#$ćĈ!ććďĉ%&'(ďĉ!!!!ďĉ!!)ďĉďĉ!": 3301,
      ")!)!!!!!!!!!!!!!!!!!!!!!!!!!!!!!!!!!!!!)!)": 3302,
      "ćĈ!ĈĈĈ!ĈĈćĈ!Ĉ!Ĉ!ćĈćĈĈĈĈĈćĈĈćĈćĈćĈćĈĈĈćĈĈĈĈĈĈćĈ!Ĉ!ć%&'(ďĉ!!ďĉ!ďĉďĉďĉ!ďĉ!!!!!ďĉ!ďĉďĉďĉďĉďĉďĉďĉ": 3303,
      "ďĉ!!!!!!!!!%!!!!!!!!&'(ďĉ!!!!!!!!!ćććĈ!Ĉ!Ĉ!Ĉ!Ĉ!Ĉ!ĈĈĈĈĈĈĈĈĈĈĈĈ": 3304,
      "%M&'(MMMMMMMMMMMMMMMMMMMMMMMMMMMMMMMMMMMMMMMMMMMMMMMMMMMMMMMMMMMMMMMM": 3305,
      "ć!!!!!!!!!!!!!!!!!!!!!!!!!!!!!!!!!!!!!!!!!!!!!!!!!!!!!!!%&'(%&'(": 3306,
      "&'(ďĉ!!!!!!!!!!!!!!!!!!!!!!!!!!!!!!!!!!!!!!!!!!!!%!!!!!!!!!!!!!!!!!!!!!!!!!!!!!!!!!!!!!!!!!!!!!!!!": 3307,
      "%&'(ďĉ!!!ďĉďĉďĉ!!ďĉćććĈ!Ĉ!Ĉ!Ĉ!": 3308,
      "ćĈ!%&'(ďĉ!)ććććććććććććĈ!ććĈ!ćĈ!ćĈ!Ĉ!Ĉ!ćĈ!Ĉ!": 3309,
      "ćĈ!Ĉ!Ĉ!Ĉ!Ĉ!Ĉ!ĈĈďĉ%&'(!!!ďĉ!ďĉďĉ!ďĉćććĈ!Ĉ!Ĉ!Ĉ!%&'(Ĉ!Ĉ!ćććććĈ!ćĈĈďĉďĉ": 3310,
      "ďĉ!ďĉďĉďĉďĉďĉďĉďĉďĉďĉďĉ!!ććć%&'(ďĉ": 3311,
      "ććććĈćĈććĈ!ćĈ!Ĉ!Ĉ!Ĉ!ćĈ!Ĉ!ćĈ!ćĈ!Ĉ!ćĈ!ĈćĈ!ĈĈ!ĈćĈćĈćĈćććĈćĈćććĈćĈćĈ!ĈćĈćĈćĈćććĈĈĈĈĈ": 3312,
      "ć!!!!!!!!!!!!!!!!!!!!!!!!!!!!!!!!!!!!!!!!!!!!!!!!!!!!!!!%&'(%&'(ďĉ!!ććććććĈććĈ!%&'(ďĉćĈ!Ĉ!Č": 3313,
      "Ĉ!Ĉ!Ĉ!Ĉ!ĈĈ!ćĈ!Ĉ": 3314,
      "7777777'(788888888,": 3315,
      "!ĥĤ": 3316,
      "Bďĉ": 3317,
      "ę!!": 3318,
      "Ĉ!ĥ": 3319,
      "!!!!!!!!!!!!!!!!!!!!!!!": 3320,
      "ďĉďĉ!!!!RTVa!!!SĂĄĆ!!!!R!!!S": 3321,
      "ćĈććĈ!": 3322,
      "!!!Ħ": 3323,
      "Ĉ!Ĉĉ": 3324,
      "!!!!!!!!!!!!ďĉďĉďĉďĉďĉ!!ďĉ!!!!!!!ďĉ!!ďĉďĉ!!!": 3325,
      "ćĈ!ćĈ!ććććĈćĈ": 3326,
      "%&Ĉ'(": 3327,
      "ďĉďĉ!ďĉďĉ!!": 3328,
      ")!)!!!!!!!": 3329,
      ")!)!!!!!!!!!!!!!": 3330,
      "%&'(ďĉ!!!!!!!!!!!!!!!!!!!!!!!!!!!!!!!!!!!!!!!!!!!!!!!!!!!!!!!!!!!!!!!!!!!!!": 3331,
      "ďĉďĉďĉďĉďĉďĉďĉďĉďĉďĉ!!": 3332,
      "!!!!!)!)!!!!!!!!!!!!!!!!!!!!!!!!!!!!!!!!!!!!!!!!!!!!!!!!!!!!!!!!!!!!!!!!": 3333,
      "ďĉ%&'(ććććććććććććĈ!ćĈ!Ĉ!Ĉ!Ĉ!Ĉ!Ĉ!Ĉ!Ĉ!Ĉ!!ćĈĈĈĈ!Ĉ!ćĈ!Ĉ!ćĈĈĈćĈ!ĈĈĈĈĈ!Ĉ!ćĈ!ććĈ!ćĈ!ććĈ!ćĈććĈ!ćĈ!ćĈ!ĈćĈĈ": 3334,
      "ďĉ!ďĉďĉďĉďĉďĉďĉďĉ%&'(": 3335,
      "!!!!!!!!!!!!!!!ďĉ!!!!ďĉďĉďĉďĉďĉďĉďĉďĉďĉďĉ": 3336,
      "-%&+": 3337,
      "Ĉ!Ĉ!Ĉ!Ĉďĉ!!!!!!!!!!!": 3338,
      "-%&+/,'(#$": 3339,
      "ććĈ!Ĉ!ĈćĈ!ĈććĈĈĈćĈĈĈćĈ!ĈććĈĈĈćĈĈććĈĈĈćĈ!ĈćĈ!ććĈĈ!Ĉ!ĈĈćĈ!Ĉ!": 3340,
      "ďĉďĉďĉďĉďĉćććććććĈ!Ĉ!ććććććĈ!ćĈĈ": 3341,
      "ć!Ĉ!": 3342,
      "%!!!!&'(!!!!!!!!!!!!!!!!": 3343,
      "ćććććććććććććććććććććććććććććććĈ!ćĈ!Ĉ!ĈćĈ!Ĉ!": 3344,
      "&'(ďĉćććĈ!Ĉ!Ĉ!Ĉďĉ!ďĉďĉďĉďĉ!!!!!!!!!!!!!!!!!!!!!Ĉ!Ĉ!Ĉ": 3345,
      "ďĉď%&'(ĉ!!": 3346,
      "ĈĈĈ!ĈĈĈććĈ!ĈĈ!ĈĈĈĈ!ĈĈ!ĈĈĈĈďĉďĉďĉ!!!!!!!!!!": 3347,
      "ćććĈĈ!ćĈ!Ĉ!ĈćĈĈĈćĈĈĈćĈĈćććććďĉďĉďĉĈ!ĈĈĈĈĈ!ćĈ!Ĉ!Ĉ": 3348,
      "Ĉ!Ĉ!Ĉ!Ĉ!Ĉ!Ĉ!ćďĉďĉďĉćĈ!Ĉ!Ĉ!Ĉ!ďĉ!!!!!!!!!!!!!!!!!!!!!!!!!!!!!!!!!!!!!!!!!!!!!!!!!!!!": 3349,
      "ćĈ!ĈĈĈ!ĈĈćĈ!Ĉ!Ĉ!ćĈćĈĈĈĈĈćĈĈćĈćĈćĈćĈĈĈćĈĈĈĈĈĈćĈ!Ĉ!ć%&'(ďĉ!!ďĉ!ďĉďĉďĉ!ďĉ!!!!!ďĉ!ďĉďĉ%&'(": 3350,
      "7'777777(788888888,-%&+": 3351,
      "ćććĈ!Ĉ!ćććĈĈćĈ!ĈĈĈ!!ćććć!!!!!!!!!!!!!!!!!!!!%&'(%&'(ďĉďĉďĉćććĈ!Ĉ!Ĉ!Ĉ!Ĉ!%&'(Ĉ!Ĉ!Ĉ!Ĉ!Ĉ!": 3352,
      "&'(!!!!!!!!!!!!!!!ďĉ!!!!!!!!!!!!!!!!!!!!!!!!!!!!!!!!!!!!!!!!!!!!!!!!!!!!!!!!!!!!!!!!": 3353,
      "777'7777(788888888,-%&+": 3354,
      "Ĉ!ćĈĈĈ!ĈĈĈ": 3355,
      "ć'Ĉ(!": 3356,
      "ććććććĈ!ćĈĈďĉďĉ!!ďĉćććĈ!Ĉ!Ĉ!ćĈ!Ĉ!Ĉć%&'(ďĉďĉďĉďĉććĈ!Ĉďĉ%&'(Ĉ!Ĉ!ĈĈĈĈĈĈĈĈĈĈĈĈĈĈĈĈĈĈĈĈĈĈĈĈďĉ!": 3357,
      "ćććĈ!Ĉ!Ĉ!ćĈ!Ĉ!ĈćďĉďĉďĉďĉććĈ!Ĉďĉ%&'(Ĉ!Ĉ!ĈĈĈĈĈĈĈĈĈĈĈĈĈĈĈĈĈĈĈĈĈĈĈĈďĉ!": 3358,
      "ďĉćććďĉ!ďĉďĉ!ďĉďĉćććććďĉ!ďĉďĉďĉ!ďĉ": 3359,
      "ćććććććĈĈććććććĈ!ćĈĈďĉďĉ!!ďĉ": 3360,
      "ďĈĈĈĈĉ": 3361,
      "ćĈ!Ĉ!Ĉ!Ĉ!Ĉ!Ĉ%&'(ďĉĈ!Ĉ!Ĉ!Ĉ!Ĉ!ĈĈĈ!ĈĈĈć": 3362,
      "ďĉďĉďĉďĉćĈ!ĈĈ!Ĉ!ďĉ!ďĉ!ďĉďĉďĉ!!ďĉ!ďĉ%&'(!ďĉďĉďĉćďĉ!ďĉďĉďĉďĉ": 3363,
      "!!!!!!!!!!!!!!!!!!!!!!!!!!!!!!!!!!!!!!!ććććććććĈ!ćććĈ!Ĉ!ćĈ!%&'(ďĉćĈ!Ĉ!ĈćĈ!ďĉćććććććĈ!ćĈ!": 3364,
      "ďĉďĉďĉďĉďĉ)!)ďĉďĉďĉćććĈ!Ĉ!Ĉ!ĈĈ!Ĉ!ćĈ!Ĉ!Ĉ!ĈćĈ!Ĉ!Ĉ!Ĉć%&'(ďĉ!ććććććććĈ!Ĉ!ćĈĈćĈ!ĈĈćĈ!ćĈĈćĈ!Ĉ!ćďĉďĉćć": 3365,
      "ćďĉ!ďĉďĉďĉďĉďĉďĉďĉ%&'(ďĉĈ!ĈććĈĈ!Ĉ!ććĈ!Ĉ!ĈĈ!ĈĈĈďĉďĉďĉďĉďĉďĉďĉ": 3366,
      "ććććĈ!ćĈćĈĈćććć": 3367,
      "%!!!!!!!!!!!!!!!!!!!!!!!!!!!!!!!!!!!!!!!!!!!!!!!!!": 3368,
      "ďĈĈ!ĉ": 3369,
      "ē!!": 3370,
      "Ĉ!%Ĉ&'(": 3371,
      "ďĉĈ!Ĉ!Ĉ!Ĉ!ĈćĈĈĈ!ĈĈĈ": 3372,
      "ĈĈĈ!Ĉ!Ĉ!Ĉ!ĈĈ!ćĈ!Ĉ": 3373,
      "%&'(ćĈ!ćć": 3374,
      "%&'(ďĉ!ďĉĈ!Ĉ!ćĈ!Ĉ!ĈĈĈďĉ!ďĉ!!!SĂĄĆ!!ďĉ!!!!!!RTVa!!!SĂĄĆ!!!!R!!!S": 3375,
      "ćĈ!%Ĉ&'(": 3376,
      "ćĈćĈ!Ĉ!": 3377,
      "Ĉ!ĈććĈ!Ĉ!Ĉ!ĈĈ!ĈćĈ!ćć": 3378,
      "ďĉ!ďĉ!!!!!!!!": 3379,
      "ďĉ!ďĉ%&'(ďĉďĉďĉďĉ": 3380,
      "ďĉ!ďĉćććĈ!Ĉ!Ĉ!Ĉ!Ĉ!Ĉ!ćććććĈ!ćĈĈ%&'(ďĉďĉ!!!!!!!!!!!ďĉćććĈ!Ĉ!Ĉ!Ĉ": 3381,
      "ďĉďĉďĉďĉďĉďĉďĉďĉďĉďĉďĉďĉ!": 3382,
      "ď%&'(ĉďĉďĉďĉ!": 3383,
      "ďĉďĉďĉďĉ!ďĉďĉ!": 3384,
      "Ĉ!Ĉ!Ĉ!ĈĈ!Ĉ!": 3385,
      ")!)!!!!!!!!!!!!!!!!!!!!!!!!!!!!!!!!!!!!!!!!!!!!!!!!!!!!!!!!!!!!!!!!!!!!!!!!!!!": 3386,
      "ćĈĈĈĈĈćĈĈĈĈĈĈ": 3387,
      "ďďĉĉ!!": 3388,
      "ĈĈĈĈĈĈĈĈĈĈĈĈĈĈĈ": 3389,
      "ććĈ!ćďĉ!ďĉććććĈ!ćĈ!ĈĈ!ććĈ!ćĈ!ĈĈ!ćĈ!Ĉ!ćĈ!ďĉ!": 3390,
      "ďĉ!!!!!!!!!!!!!!!!!!!!!!!!!!!!!!!!!!!!!!!!!!!!!!!!!!!!!!!!!!!!!!!!!!!!!!!!!!!!!": 3391,
      "ďĉďĉ!!!!ďĉ!!)ďĉďĉ!": 3392,
      ")ďĉďĉ!ďĉ!ďĉ!ďĉďĉďĉ": 3393,
      "%ć&Ĉ'(": 3394,
      "ĖĖĖ": 3395,
      "ďĉď%&'(ĉďĉďĉ": 3396,
      "RTVaďĉććĈ!ćććĈćććĈĈ!Ĉ!ćĈ!ććĈćĈ!ćĈ!!Č!!Č!": 3397,
      "ć%&'(ďĉ!ććććĈ!ćĈ!Ĉ!Ĉ!ćĈ!Ĉ!Ĉ!Ĉ!ćĈ!Ĉ!Ĉ!Ĉ!ćĈ!Ĉ!ćĈ!ĈćĈ!Ĉ!": 3398,
      "ćććĈ!Ĉ!Ĉ!ĈĈ!Ĉ!ćĈ!Ĉ!Ĉ!ĈćĈ!Ĉ!Ĉ!Ĉćďĉ!ććććććććĈ!Ĉ!ćĈĈćĈ!ĈĈćĈ!ćĈĈćĈ!Ĉ!": 3399,
      "ďĉ%&'(ďĉćďĉććććććććććććććććĈ!Ĉ!ćĈ!Ĉ!ĈĈ!ćĈ!ćććĈ!ććĈćĈ!ććĈćććĈ!Ĉ!Ĉ!Ĉ!ćććĈćĈ!ćĈ": 3400,
      "Ĉ!ćĈ!ćĈ!Ĉ!Ĉ!ďĉďĉ": 3401,
      "%!&'(!!!!!!!!!!!!!!!!!!!!!!!!!!!!!!!": 3402,
      "ďĉ!!!!ďĉďĉďĉďĉďĉďĉďĉďĉďĉďĉćććĈ!Ĉ!": 3403,
      "ďĉďĉććććććĈ!ćććĈ!ćććĈ!ćĈ!ć%&'(ďĉďĉďĉďĉ!": 3404,
      "%ććĈ&'(!": 3405,
      "ĈćĈĈćĈćć%&'(%&'(": 3406,
      "'77": 3407,
      "7'77": 3408,
      "Bĉ": 3409,
      "ć%ćć&'(": 3410,
      "Ĉć": 3411,
      "ĈĈĈĈĈćĈĈćĈćć%&'(%&'(": 3412,
      "ććććććć": 3413,
      "ďĉďĉďĉ%&ď'(ĉ": 3414,
      "ććĈććĈ": 3415,
      "Ĉ!ĈĈ!!": 3416,
      "ď%&'(ĉďĉďĉ!!": 3417,
      "ďĉ!ďĉ!ďĉďĉ": 3418,
      "%&'(%&'(%&'(%&'(%&'(%&'(%&'(%&'(%&'(%&'(%&'(%&'(%&'(%&'(%&'(%&'(%&'(%&'(": 3419,
      "ďĉćććććććĈĈććććććĈ!ćĈĈ": 3420,
      ")!)!!!!!!!!!!!!!!!!!!!!!": 3421,
      "77777'77": 3422,
      "ď%ĉ&'(ďĉďĉ": 3423,
      "%!!!!!!!!!!!&'(": 3424,
      "ĈĈ!ĈććĈ!Ĉ!ĈĈ!ĈĈ!Ĉ!ćĈ!ďĉ%&'(Ĉ!ćĈ!Ĉ!Ĉ!Ĉ!Ĉ!Ĉ!ćĈ!ćĈ!ćĈ!Ĉ!Ĉ!ćĈ!ĈĈĈćĈćĈćĈĈĈćĈ": 3425,
      "%!&'(!!!!!!!!!!!!!!!!!!!!!!!!!!!!!!!!!!!!!": 3426,
      "ďĈćĉ": 3427,
      "ćĈ!Ĉ!Ĉ!Ĉ!Ĉ!Ĉ!ĈĈďĉ!!!ďĉ!ďĉďĉ!": 3428,
      "!!!!!!!!!ďĉ!!!!!!!!ďĉďĉďĉ!ďĉ!%&'(!!!!!!!!!!!!ďĉ!ďĉ!!!!!!ďĉďĉ!!ďĉ!ďĉďĉ!!ďĉďĉďĉ%&'(ďĉďĉďĉďĉ": 3429,
      "ďĉďĉďĉďĉďĉďĉďĉďĉ!!ďĉďĉďĉďĉ!!!!ďĉ!!": 3430,
      "&'(!!!!!!!)!)!!!!!!!!!!!!!!!!!!!!!!!!!!!!!!!!!!!!!!!!!!!!!!!!!!!!!!!!!!!!!!!!!!!!!!!!!!!!!!!!!!": 3431,
      "%&'(ďĉĈ!ĈĈĈĈĈĈĈĈ!ĈĈĈ!ďĉ!!!!!!!!!!!!!!!!!!!!!!!!!!!!!!!!": 3432,
      "ČČČČČČČČ": 3433,
      "ďĉďĉďĉ%&'(ďĉďĉ!!ďĉ!ďĉďĉďĉďĉďĉďĉďĉďĉďĉďĉďĉďĉďĉďĉďĉ": 3434,
      "ćĈ!Ĉ!Ĉ!Ĉ!Ĉďĉ!))ħ!": 3435,
      "ćĈĈĈĈĈĈĈĈććĈćĈĈ!ććĈĈĈĈćĈĈĈĈćĈĈĈĈĈĈĈĈććĈćďĉ!ććĈ!ćĈ!Ĉ!ĈĈĈ!ĈĈĈććĈ!ĈĈ!ĈĈĈĈ!ĈĈ!ĈĈĈĈ": 3436,
      "ďĉ!!ďĉďĉ!!ďĉ!ďĉ!!ďĉďĉďĉ!ďĉććĈ!%&'(ďĉ!ďĉ!!ćĈ!ďĉďĉďĉĈ!Ĉ!Ĉ!Ĉ!Ĉ!ćĈ!ĈĈĈĈćĈ!ćĈ!": 3437,
      "ďĉ!!ďĉ!!!ďĉ!!ďĉďĉ": 3438,
      "ćĈ!ćĈ!ććććĈćĈćććĈ!ćć": 3439,
      "AM": 3440,
      "ďĉĈ!": 3441,
      "!!!!!!!!!!!!!!!!!!!!!!": 3442,
      "%&'(Ĉ!Ĉ!Ĉ!Ĉ!Ĉ!Ĉ!Ĉ!Ĉ!": 3443,
      "%&'(ď%&'(ĉďĉďĉ": 3444,
      "%&'(ďĉďĉďĉďĉ!ďĉďĉďĉďĉ!ďĉ!!": 3445,
      "ćĈ!Ĉ!ć": 3446,
      "ćĈ!Ĉ!Ĉ!ĈĈ!": 3447,
      "ďĉďĉďĉćććĈ!Ĉ!Ĉ!ćĈĈĈĈ!ćĈ!ĈĈ!ćĈ!ć": 3448,
      "Ĉ!ćĈ!Ĉ!ĈĈĈĈĈ": 3449,
      "!!!!!!!!!!!ďĉććĈĈĈĈĈďĉďĉ)!)!!ďĉďĉ": 3450,
      "ćďĉ%ď&'(ĉ": 3451,
      "ďĉďĉďĉ%&'(ďĉďĉ": 3452,
      "ćĈ!ćĉ": 3453,
      "ďĉďĉďĉďĉďĉ!!!": 3454,
      "%Ĉ&'(!Ĉ!ćĈ!Ĉ!": 3455,
      "ćĈ!Ĉ!Ĉ!ćĈ!Ĉ!Ĉ!Ĉ!ćĈ!Ĉ!": 3456,
      "&'(!!!!!!!!!!!!!!!!!!!!!!!!!!!!!!!!!!!!!!!!!!!!!!!!!": 3457,
      "%!!!!!!!!!!!!!!!!!!!!!!!!!!!!!!!!!!!!!!!!!!!!!": 3458,
      "%ć&'(ćććć": 3459,
      "%&'ď(ĉ!!": 3460,
      "ććććĈ!Ĉ!ćĈ!ćĈ!Ĉ!ććĈ!ĈććĈ!Ĉ!": 3461,
      "ďĉ!ďĉ!!!!!!!!!!!ďĉ!!": 3462,
      "ďĉďĉďĉďĉďĉ%&'(ďĉďĉďĉďĉ!": 3463,
      "!!!!!!!!!!!!!!!!!!!!!!!!!!!!!!!!!!!!!!!!!!!!!!!!!!!!!!!!!!!!!!!!!!!!!!!!!!!!!!!!!!!!!!!!!!!!!!!!!": 3464,
      "ććĈ!Ĉ!Ĉ!Ĉ!ćĈ!Ĉ!!Ĉ!ćĈ!ćĈ!ććĈ!Ĉ!ćĈ!ďĉ!": 3465,
      "ćććććďĉ!ďĉďĉďĉ!ďĉćďĉ!!!!ćďĉ!": 3466,
      "%ć&'Ĉ(": 3467,
      "ććĈĈćĈĈĈććĈĈććĈćććĈĈĈĈĈćĈĈćĈćĈĈćĈĈćĈĈĈĈĈćĈćĈĈćĈĈćĈćĈćĈććĈćĈćĈćĈćĈ!ćĈćĈćĈćĈćĈćĈćĈćĈćĈćĈćĈćĈćć": 3468,
      "ďĉ!!ďĉ!!!!!!!!!!!ďĉ!!ćććććććĈ!Ĉ!Ĉ!ććĈĈććĈ!ćĈĈ%&'(ďĉďĉ!!!ćććććĈ!ćĈ!ććććĈ!ććĈ!ćććĈ!ćććĈćďĉďĉććĈ!": 3469,
      "ćććĈ!Ĉ!ćććĈĈćĈ!ĈĈĈ!!ćććć!!!!!!!!!!!!!!!!!!!!%&'(%&'(ďĉďĉďĉćććĈ!Ĉ!Ĉ!Ĉ!Ĉ!Ĉ!Ĉ!Ĉ!Ĉ!Ĉ!": 3470,
      "ćĈ!)!)!!Ĉ!Ĉ!ĈĈ!!!!!RTVa!!!SĂĄĆ!!!!R!!!SĈ!ćĈ!ćĈ!Ĉ!Ĉ!": 3471,
      "ďĉďĉďĉďĉ!ďĉďĉ!!!!!!!!!!!!!!!!!!!!!!!!!!!ďĉ!ďĉ!!!!!!ďĉďĉ!!!!": 3472,
      "ććććĈ!Ĉ!Ĉ!Ĉ!Ĉ!ĈĈ!Ĉ!ćďĉ!!ďĉďĉćĈ!ć": 3473,
      "!!!!!!!!!!!)!)!!!!!!!!!!!!!!!!!!!!!!!!!!!!!!!!!!!!!!)!)!!!!!!!!!!!": 3474,
      "ďēĉ": 3475,
      "ĈĈĈĈĈĈĈĈĈĈĈĈĈĈĈĈĈ!ćĈĈĈĈĈĈĈĈĈĈĈĈĈĈćĈ!ĈćĈĈćĈĈĈĈĈĈĈ": 3476,
      "ćĈ!ćďĉďĉďĉďĉćććććĈ!ćČ": 3477,
      "ďĉďĉďĉďĉďĉďĉďĉďĉďĉ!ďĉďĉďĉ%&'(ďĉďĉďĉ!": 3478,
      "ććććĈ!ćĈćĈĈććććĈĈĈĈĈćĈĈćĈćć%&'(%&'(": 3479,
      "!ďĉćććć": 3480,
      "32222222222222222222222222222222222222222244444444%&5555555522222222222222222222222266666666": 3481,
      "Bē": 3482,
      "MďMĉ": 3483,
      "Ĉ!ćĈĈćĈ": 3484,
      "ďĉĈ!Ĉ!Ĉ!Ĉ": 3485,
      "ćĈĈĉ": 3486,
      "ďĉ!!ďĉďĉ!!": 3487,
      "Ĉ!ćĈ!Ĉ!Ĉ!Ĉ!Ĉ!ćĈ!Ĉ!ćĈ!ćĈ!ćĈ!ćĈ!": 3488,
      "ććĈćĈ!Ĉ!Ĉ!": 3489,
      ")!)!!!!!!!!!!!!!!": 3490,
      "ďĉ!ďĉď%ĉ&'(": 3491,
      "ćĈĈĈćĈĈĈĈĈĈ!ĈĈ!ĈĈĈćĈĈĈćĈ!ĈĈĈĈ!ĈĈ!Ĉ": 3492,
      "!!!!!!%!!!!!!!!!!": 3493,
      "ďĉďĉďĉ!!ďĉďĉďĉďĉďĉďĉ!ďĉďĉ!ďĉďĉ!!!ďĉćĈ!Ĉ!ććĈ!ććĈ!ĈĈ!ććĈ!Ĉ!Ĉ": 3494,
      "Ĉ!Ĉ!Ĉ!Ĉ!Ĉ!Ĉ!ĈĈĈĈĈĈĈĈĈĈĈĈĈĈĈĈĈĈĈĈĈĈĈĈĈĈĈĈĈĈĈĈĈĈĈĈĈĈĈĈĈĈĈĈĈĈĈĈĈ!Ĉ!ĈĈĈĈĈ!Ĉ!Ĉ!": 3495,
      "%ď&'(ĉďĉďĉďĉ!": 3496,
      "%&'(%&'(%&'(%&'(%&'(%&'(%&'(%&'(%&'(%&'(%&'(%&'(%&'(%&'(%&'(%&'(%&'(%&'(%&'(%&'(%&'(%&'(": 3497,
      "ĉĉ!": 3498,
      "%!&'(!!!!!!!": 3499,
      "Ĉ!ĈĈ!ĉ": 3500,
      "ďĉ!!ďĉććććććććććććććććććććććĈ!ććĈ!ćĈ!ććĈ!ććććĈ!ćććĈććĈćććĈććććĈććĈććććĈććĈć%&'(ďĉ!!!!!!!!!": 3501,
      "%&'(ďĉďĉććććććććććććććĈ!ććĈ!Ĉ!Ĉ!ĈćĈ!Ĉ!ĈćĈććĈĈ!ĈĈĈďĉ!!!": 3502,
      "ďĉ!!!!!!!!!!!!!!!!!!!!!!!!!!!!!!!!!!!!!": 3503,
      "Ĉ!ĈĈĈĈĈĈĈĈ!ĈĈĈ!ďĉ!!!!!!!!!!!!!!!!!!!!!!!!!!!!!!!!": 3504,
      "ĉĉĉĉĉĉ": 3505,
      "%&ď'(ĉďĉ": 3506,
      "ďĉ!!ďĉďĉďĉďĉďĉďĉ!ďĉďĉ!ďĉďĉ!!!ďĉćĈ!Ĉ!ććĈ!ććĈ!ĈĈ!ććĈ!Ĉ!Ĉ": 3507,
      "ďďďď!": 3508,
      "Ĉ!Ĉ!ĈĈ!Ĉ!Ĉ!Ĉ!ďĉďĉďĉďĉ": 3509,
      ")!)!!!!!!!!!!!!!!!!!!!!!!!!!!!!!!!!!!!!!!!!!!!!!!!!!!!!!!!!!!!!!!!!!!!!!!!!!!!!!!!!!!!!": 3510,
      "ććććććććććććć%&'(": 3511,
      "Ĉ!ďĉďĉ!ďĉ%&'(": 3512,
      "ďĉććĈ!ďĉďĉďĉďĉ!ďĉďĉ!!ďĉďĉďĉďĉďĉďĉďĉ!ďĉ!ďĉć%&'(ććććććĈ!ćČČďĉďĉďĉ!!!!!ďĉďĉďĉ!ďĉďĉćććććĈ!Ĉ!ćĈĈ": 3513,
      "%&'(!!!!!!!!!!!!!!!!!!!!!!!!!": 3514,
      "ćďĉ%&'(ďĉďĉďĉććĈ!Ĉďĉ%&'(Ĉ!Ĉ!ĈĈĈĈĈĈĈĈĈĈĈĈĈĈĈĈĈĈĈĈĈĈĈĈďĉ!": 3515,
      "ď!!ď": 3516,
      "ďĉ!!!!!!!!!!!!!!!%&'(ďĉ!!!!!!!!!!!!!!!!!!!!!!!!!!!!!!!!!!!!!!!!!!!!!!!!!!!!!!!!!!!!!!!!!!!!!": 3517,
      "ćĈĈćĈĈĈĈĈĈćĈĈĈĈćĈĈćĈĈćĈ!ćććĈ!ććďĉďĉ!!!!ďĉďĉ": 3518,
      "%&'(ďĉ!!!!!!!!!!!!!!!!!!!!!ďĉďĉďĉďĉĈ!ĈĈĈćĈ!ćĈĈĈďĉďĉďĉďĉďĉďĉďĉ%&'(ďĉ": 3519,
      "ďĉďĉ!!ďĉ!!!!!!)!!!!!!!!)ďĉďĉďĉ!!)!)!!!!!!!!!!!!!!!!!!!!!!!!!!!!!!!!!!!!!!!!!!!!!!!!!!!!!!!!!!!!!!!!": 3520,
      "ćććććĈ!ćĈ!ććććĈ!ććĈ!ćććĈ!ćććĈćďĉďĉććĈ!ďĉďĉďĉďĉ!": 3521,
      "Ĉ!ĈĈćďĉďĉďĉďĉďĉďĉďĉ!ďĉ!ďĉďĉďĉ!ďĉ!ďĉďĉďĉ": 3522,
      "Ĉ!ĈĈĈ!ĈĈĈĈĈĈĈĈĈĈĈĈĈĈĈĈĈĈ!ďĉ!!ďĉ!ďĉ!!!ďĉďĉ": 3523,
      "ćććććććććććĈ!ĈćĈ!Ĉ!ĈćĈ!ćďĉďĉ!!ćććĈ!Ĉ!ćĈ!Ĉ!ĈĈĈĈ!ććĈďĉďĉćććććććć": 3524,
      "ďĉďĉďĉ!ďĉďĉ!ďĉďĉ!!ďĉ!!ďĉďĉćććĈ!Ĉ!Ĉ!Ĉ!Ĉ!ĈćĈĈ!Ĉ!ĈĈĈ": 3525,
      "ďĉďĉďĉďĉ%&'(ďĉďĉďĉďĉ!": 3526,
      "ďĉďĉ!ďĉďĉćććććďĉ!ďĉďĉďĉ!ďĉćďĉ!!!!ćďĉ!": 3527,
      "ďĉĈ!Ĉ!ĈĈĈ!Ĉ!Ĉ!Ĉ!ĈĈĈĈĈ!ĈĈĈĈ!ĈĈĈĈĈĈĈĈĈĈĈĈ!Ĉ!ĈĈĈĈĈĈĈĈĈĈĈĈĈĈĈĈĈĈĈĈĈĈĈĈ!ĈĈĈĈĈĈĈĈĈĈĈĈĈĈĈĈĈĈĈĈĈĈĈďĉ!%&'(": 3528,
      "ďĉććććććĈ!ććĈ!ććĈ!Ĉ!Ĉ!Ĉ!ćććĈ!Ĉ!Ĉ!ććĈćĈ!Ĉ!ĈćĈ!Ĉ!ćĈ!ććĈĈĈĈĈćĈćĈ%&'(ďĉćććććĈ!ĈĈćĈĈćĈďĉććććććććĈ!Ĉ!Ĉ!Ĉ": 3529,
      "ďĉďĉ!!ďĉ!!ďĉ!ććĈ!ďĉ!ďĉďĉ!!ďĉďĉ)ďĉďĉ!ďĉďĉ!!ďĉ!!!!": 3530,
      "!&'(ďĉ))ħďĉďďĉĉďĉďĉďĉďĉ": 3531,
      "ďĉďĉďĉ!!ďĉ!ććĈ!Ĉ!Ĉ!Ĉ!Ĉ!ďĉďĉ!ďĉćććććĈ!Ĉ!Ĉ!Ĉ!Ĉ!Ĉ!ďĉ!%&'(ďĉ!!ďĉ!ďĉďĉ!ďĉďĉ!ď%&'(ĉ!": 3532,
      "ćĈ!ďĉććĈ!Ĉ!Ĉ!Ĉ!ćĈ!Ĉ!!Ĉ!ćĈ!ćĈ!ććĈ!Ĉ!ćĈ!%&'(ďĉ!": 3533,
      "ćďĉ!ďĉďĉďĉďĉ!!ďĉ%&'(ďĉďĉďĉďĉďĉďĉ!ďĉďĉďĉďĉ!!": 3534,
      ")!!!!!!!!!!!!!!!!!!!!!!!!!!!!!!!!%&'(ďĉďĉďĉ!ďĉ!!ďĉďĉďĉďĉďĉďĉ!ďĉďĉ!!ďĉ!!ďĉ!ććĈ!ďĉ!ďĉďĉ!!": 3535,
      "ďĉ!ďĉ!%&'(ďĉďĉďĉćďĉ!ďĉďĉďĉďĉ": 3536,
      "!!!!!!)!!!!!!!!!!!!!!!!!!!!!!!!!!!!!!!!%&'(ďĉďĉďĉ!ďĉ!!ďĉďĉďĉďĉďĉďĉ!ďĉďĉ!!ďĉ!!ďĉ!ććĈ!": 3537,
      "%Ē": 3538,
      "ćĉ!": 3539,
      "!!!!!!!!%&'(!!!!!!!!!!!": 3540,
      "ďĉ%&'(%&'(%&'(": 3541,
      "ďĉ!ćććĈ!Ĉ!ćĈ!Ĉ!ĈĈ!Ĉ!ĈćĈĈĈĈĈ!Ĉ!Ĉ!Ĉ!Ĉ!Ĉ!ĈĈĈ!Ĉ!ĈĈĈĈ": 3542,
      "Ĉ!Ĉ%Ĉ&'(": 3543,
      "ďĉďĉ!ďĉďĉďĉďĉ": 3544,
      "ďĉďĉ!!ďĉďĉ!": 3545,
      "!!!!!!!!!!!%!!!!!!!!!!!!!!!!!!!!!!!!!!!!!!!!!!!!!!!!!!!!!!!!!": 3546,
      "ď%&'(ĉďĉďĉďĉďĉďĉďĉďĉ": 3547,
      "%ď&'(ĉďĉďĉďĉďĉ!!": 3548,
      "%!&'(!!!!!!!!!!!": 3549,
      "Ĉ!ĈĈ!ććĈĈ": 3550,
      ")))))": 3551,
      "ďĉďĉďĉ%&'(!": 3552,
      "ďĉďĉďĉďĉďĉ%&'(ďĉ": 3553,
      "ĈĈĈĈĈĈĈĈĈĈĈĈĈĈ!": 3554,
      "01010011": 3555,
      "ďĉďĉďĉďĉďĉďĉďĉ!ďĉ%&'(": 3556,
      ")!)!!ďĉďĉďĉďĉďĉ!!ďĉ!": 3557,
      "%&'ď(ĉďĉ": 3558,
      "ďĉ!!!!ďĉ!!)ďĉďĉ!": 3559,
      "%&'(ďĉďĉďĉďĉďĉ!ďĉďĉďĉ!": 3560,
      "ď!ĉLK": 3561,
      "ćććććććĈ!Ĉ!ććććććĈ!ćĈĈďĉďĉ!!ďĉ": 3562,
      "!!!!!!!!!!!!!!!!!!!!!!!!!!!!!!!!!!!!!!!!!!!!!!!!!!!!!!!!!!!!!!!!!!%!!!!!!!!!!!!": 3563,
      "ďĉďĉďĉďĉććććĈ!ĈĈ!ćĈ!Ĉ": 3564,
      "Ĉ!Ĉ!Ĉ!ćĈ!ćĈďĉďĉďĉďĉ!!!!!!!!!ďĉ!!!!!!!!": 3565,
      "ććĈ!Ĉ!ĈćĈĈĈććĈĈĈććĈ!Ĉ!Ĉ!Ĉ!Ĉ!Ĉ!ćĈĈ!Ĉ!Ĉ!ćĈĈĈććĈĈ!ćććĈ!ććĈ!ćĈ!ĈĈĈćć!!!!ďĉ!!": 3566,
      "Ĉ!Ĉ!ćĈ!ĈĈćĈ!ćĈ!Ĉ!Ĉ!ćĈ!ćĈ!Ĉ!ćĈĈćĈ!Ĉ!ććĈ!ĈĈćĈćĈćĈ!Ĉ!ĈćĈĈďĉďĉ!ďĉďĉĈ!": 3567,
      "Ĉ!Ĉ!ĈćĈĈĈĈĈ!Ĉ!Ĉ!Ĉ!Ĉ!Ĉ!ĈĈĈ!Ĉ!ĈĈĈĈďĉ!!ďĉďĉ!!ďĉ!ďĉ!!": 3568,
      "ćĈ!ćĈ!Ĉ!ććĈ!ĈććĈ!Ĉ!ćĈ!ćĈ!Ĉ!Ĉ!ćĈĈ!ďĉďĉďĉďĉććĈ!Ĉ!ĈĈĈ!!ćĈ!Ĉ!Ĉ!Ĉ!ćďĉďĉ!!": 3569,
      "R%&'(TVa!!!SĂĄĆ!!!!R!!!S": 3570,
      "ćďĉ!ďĉďĉďĉďĉďĉďĉďĉďĉ)ďĉďĉďĉďĉďĉďĉďĉ!": 3571,
      "ćććďĉććććććĈ!ććČďĉďĉďĉďĉďĉďĉďĉďĉ!!!ďĉďĉďĉďĉ": 3572,
      "ďĉďĉďĉ%ď&'(ĉďĉďĉďĉďĉ": 3573,
      "ďĉĈ!Ĉ!ĈĈĈ!Ĉ!Ĉ!Ĉ!ĈĈĈĈĈ!ĈĈĈĈ!ĈĈĈĈĈĈĈĈĈĈĈĈ!Ĉ!ĈĈĈĈĈĈĈĈĈĈĈĈĈĈĈĈĈĈĈĈĈĈĈĈ!ĈĈĈĈĈĈĈĈĈĈĈĈĈĈĈĈĈĈĈĈĈĈĈ%&'(": 3574,
      "ďĉďĉďĉ!ďĉďĉ!!ďĉďĉďĉ!ďĉďĉďĉďĉďĉďĉďĉďĉ": 3575,
      "!!!!!!!!!ďĉ!!!!!!!!!!!)!!!!!!!!!!!!!!!ďĉďĉ%&'(ďĉ)!)ďĉďĉďĉďĉďĉďĉ!!!ďĉ!!ďĉ!ďĉ!ććĈ!Ĉ!Ĉ!ććĈ!Ĉ!": 3576,
      "ďĉćććććĈ!Ĉ!Ĉ!ćĈĈćĈďĉďĉććĈ!Ĉ!Ĉ!ćĈ!": 3577,
      "ďĉ!ďĉďĉ!Ĉ!Ĉ!ĈĈ!Ĉ!Ĉ!Ĉ!%&'(ďĉďĉďĉďĉďĉ!ďĉďĉďĉ!": 3578,
      "ďĉďĉďĉ%&'(ďĉďĉďĉďĉďĉďĉďĉďĉďĉďĉďĉ!ććĈ!ćććĈ!ćććĈ!ćććĈ!Ĉ!Ĉ!ďĉćććĈ!ć%&'(": 3579,
      "Ĉ!ďĉďĉ!ďĉ%&'(ćććććććććććććććć": 3580,
      "ć%ď&'(ĉ!": 3581,
      "ć%ć&'ć(": 3582,
      "Ĉ)!": 3583,
      "Ĉ)!)": 3584,
      "ćĈĉ!": 3585,
      "ćĈ!ćĈ!ďĉďĉďĉďĉďĉďĉ": 3586,
      "ďĉ!ďĉ!!!!!!!!!!!!!!": 3587,
      "ďĉ%&'(ďĉďĉďĉ!": 3588,
      "ď%&'(ĉďĉďĉďĉďĉďĉďĉďĉďĉ": 3589,
      "%Ĉ&'(ĈĈĈĈĈĈĈĈ": 3590,
      "ďĉďĉ%&'(ććĈ!Ĉ!Ĉ!ćĈ!ďĉďĉďĉďĉďĉďĉćććććććĈ!Ĉ!ććććććĈ!ćĈĈ%&'(ďĉďĉ!!ďĉćććĈ!Ĉ!Ĉ!ćĈ!Ĉ!Ĉ": 3591,
      "%!&'(!!!!!!!!!!!!!!": 3592,
      "ćĈ!Ĉ!Ĉ!Ĉ!Ĉ!Ĉ!ĈĈĈ!ĈĈĈĈ!ĈĈ!Ĉ!Ĉ!Ĉ!ĈĈ": 3593,
      "%Ĉ&'(!Ĉ!Ĉ!Ĉ!": 3594,
      ")!)!!!!!!!!!!!!!!!!!!!!!!!!!!!!": 3595,
      "ďĉ!!!!!!!!!!!!!!!!!!!!!!!!!!!!!!!!!!!!!!!!!!!!!!!!!!!!!!": 3596,
      "ďĉ!!!!!!!!!!!!!!!!!!!!!!!!!!!!!!!!!!!!!!!!!!!!!!!!!!!!!!!%!&'(": 3597,
      ")!)!!!!!!!!!!!!!!!!!!!!!!!!!!!!!!!!!!!!!!!!!!!": 3598,
      "ďĉďĉćććććĈ!Ĉ!ćĈĈćďĉćĈ!ććĈ!ćĈ!Ĉ": 3599,
      "ćĈĈĈćĈĈďĉ": 3600,
      "$#$!!)!%&-+/,'(#..$#$!!)!%&-+/,'(#..$#$!!)!%&-+/,'(#..$#$!!)!%&-+/,'(#..$#$!!)!": 3601,
      "ďĉ!ďĉďĉďĉĥ": 3602,
      "ďĉ!!!!!!!!!!!%!&'(!!!!!!!!!!!!!!!!!!!!!!!!!!!!!!!!!!!!!!!!!!!": 3603,
      "ćććĈćĈćĈ!ĈćĈćĈćĈćććĈĈĈĈĈććĈĈććĈćććĈćĈćĈćĈćĈĈćĈĈćĈćĈćĈ": 3604,
      "%!!!!!!!!!!&'(": 3605,
      "ĥĤ!!": 3606,
      "ďĉďĉďĉďĉďĉ%&'(ďĉďĉ": 3607,
      "ďĉďďĉĉďďĉĉ": 3608,
      "00011101000111": 3609,
      "Ĉ!ćĈ!Ĉ!Ĉ!ćĈ!Ĉ!Ĉ!ĈĈ!ćĈ!ďĉ!": 3610,
      "ĈĈĈ!Ĉ!Ĉ!ĈĈĈĈ!Ĉ!ĈĈ!Ĉ!Ĉ!ĈĈĈĈć%&'(ďĉďĉ": 3611,
      "ćďĉďĉ%&'(ćĈ!ćĈ!Ĉ!Ĉ!ćĈ!Ĉ!Ĉ!ćĈ!Ĉ!": 3612,
      "ćććććććććććĈ!ĈćĈ!Ĉ!ĈćĈ!ćďĉďĉ!!ćććĈ!Ĉ!ćĈ!Ĉ!ĈĈĈĈ!ććĈďĉďĉćććć": 3613,
      "!!!!!!!!!!!!ďĉ!!ďĉ!!!!": 3614,
      "Ē!!!ė": 3615,
      "ććĈ!ćďĉďĉďĉďĉďĉďĉďĉ!!ďĉ%&'(ďĉďĉ": 3616,
      "!!!!!!!!!ďĉ!!!!!!!!ďĉďĉďĉ!ďĉ!%&'(!!!!!!!!!!!!ďĉ!ďĉ!!!!!!ďĉďĉ!!ďĉ!ďĉďĉ!!ďĉďĉďĉďĉďĉďĉďĉ%&'(": 3617,
      "ďĉ!ďĉďĉďĉďĉďĉďĉďĉćďĉ!ďĉďĉďĉďĉ!!%&'(ďĉďĉďĉďĉďĉďĉďĉ!": 3618,
      "ććĈ!ć%&'(ďĉďĉďĉďĉďĉďĉďĉďĉďĉ!!!ďĉ%&'(ďĉďĉ!!ďĉ": 3619,
      "ďĉďĉďĉďĉďĉďĉďĉ!ďĉ!ďĉćććććććĈ!ćČČ%&'(ďĉďĉďĉ!!!!!ďĉďĉďĉ!ďĉďĉćććććĈ!Ĉ!ćĈĈćďĉćĈ!ććĈ!ćĈ!Ĉ": 3620,
      "ďĉ%&'(Ĉ!Ĉ!Ĉ!Ĉ!Ĉ!ĈĈĈ!ĈĈĈćďĉďĉ!ďĉďĉć%&'(Ĉ!Ĉ!Ĉ!Ĉ!Ĉ!Ĉ!": 3621,
      "00110101001101'(3": 3622,
      "Ĉ!Ĉ!Ĉ!!ĈĈ!ĈććĈ!Ĉ!ĈĈ!ĈĈ!Ĉ!ćĈ!ďĉ": 3623,
      "ďĉ!ďĉ!ďĉ%&'(ďĉďĉćďĉ!ďĉďĉďĉďĉďĉďĉďĉ%&'(ďĉĈ!ĈććĈĈ!Ĉ!ććĈ!Ĉ!ĈĈ!ĈĈĈďĉďĉďĉďĉďĉďĉďĉ": 3624,
      "&'(!!!!!!!!!!!!!!!!!!!!!!!!!!!!!!!!!!!!!!!!!!!!!!!!!!!!!!!!!!!!ďĉďĉććććććĈ!ćććĈ!ćććĈ!ćĈ!": 3625,
      "ććććććĈććĈ!ďĉćĈ!Ĉ!Čďĉďĉďĉ!ććĈ!ć": 3626,
      "%K&'(": 3627,
      "ććĈ!ćććĈ!ćććĈ!ćććĈ!Ĉ!Ĉ!%&'(ďĉćććĈ!ćďĉďĉďĉďĉďĉ!!ďĉ!!!!ďĉďĉďĉ!ďĉďĉ!": 3628,
      "ććĈ!Ĉ!Ĉ!ĈćĈ!%&'(Ĉ!Ĉ!Ĉ!Ĉ!Ĉ!Ĉ!Ĉ!Ĉ!": 3629,
      "ďĉćććććććĈĈććććććĈ!ćĈĈďĉďĉ!!ďĉ": 3630,
      "Ĉ!ćĈ!Ĉ!Ĉ!Ĉ!Ĉ!ćĈ!Ĉ!ćĈ!ćĈ!ćĈ!ćĈ!ĈĈĈ!Ĉ!Ĉ!Ĉ!ĈĈ!ćĈ!Ĉ": 3631,
      "!!!!!!%!!!!!!!!!!&'(!!!!!!!!!!!!!!!!!!!!!!!!!!!!!!!ććććĈ!ĈĈďĉ!!!!!!!!!!!": 3632,
      "ććććććććććććć%&'(ćććććććććććććććććććććććććććććććĈ!ćĈ!Ĉ!ĈćĈ!Ĉ!": 3633,
      "M!!!!!!!!!!!!!!!!!!": 3634,
      "ďćĈ!Ĉ": 3635,
      "!!ććĈ!Ĉ!ĈćĈĈĈććĈĈĈććĈ!Ĉ!Ĉ!Ĉ!Ĉ!Ĉ!ćĈĈ!Ĉ!Ĉ!ćĈĈĈććĈĈ!ćććĈ!ććĈ!ćĈ!ĈĈĈćć!!!!ďĉ!!": 3636,
      "!!!!)!)!!!!!!!!": 3637,
      "ďĉ%!!&'(": 3638,
      "%&'(Ĉ": 3639,
      "%&'(!!!!!!!!": 3640,
      "ďĉďĉďĉďĉ!!!!!!!!!!!!!!!!!!!!!!!!!!!!!!!!!!!!!!!!!!!!!": 3641,
      "ćĈ%!Ĉ&'(!": 3642,
      "ćĈ'(!": 3643,
      "Ĉ!Ĉ!Ĉ!Ĉ!Ĉ!ĈĈĈ!ĈĈ": 3644,
      "Ĉ!ĈĈĈ!Ĉ!": 3645,
      "ďĉ%&'(ďĉďĉďĉďĉďĉďĉďĉďĉ": 3646,
      "ďĉ%&'(ďĉ!ďĉďĉďĉďĉďĉďĉďĉďĉ!": 3647,
      "ď%&'(ĉďĉďĉďĉďĉďĉďĉ!": 3648,
      "!!!!!!!!!!%!&'(": 3649,
      "%ďď&'(ĉ": 3650,
      "ćďĉ!ćććććďĉ!ććććĈćććĈ!Ĉ!ĈćĈ!ć": 3651,
      "ćĈ!Ĉ!Ĉ!Ĉ!Ĉ!Ĉ!ĈĈĈ!ĈĈĈĈ!ĈĈ!Ĉ!Ĉ!Ĉ!ĈĈĈ!Ĉ!ĈĈ!Ĉ": 3652,
      "Ĉ!Ĉ!ĈĈĈ!ĈĈ": 3653,
      "ď!ďĉĉ": 3654,
      "ďĉ!ďĉďĉ!ďĉďĉ!!!ďĉćĈ!Ĉ!ććĈ!ććĈ!ĈĈ!ććĈ!Ĉ!Ĉ": 3655,
      "%&'(ďĉ!!ďĉďĉďĉďĉďĉďĉďĉ)!": 3656,
      "ďĉĈ!Ĉ!Ĉ!Ĉ!Ĉ!ćĈĈĈ!ĈĈĈ": 3657,
      "ďĉďĉďĉďĉďĉ%&'(ćććć": 3658,
      "ćĈĈćĈĈćĈ!ćććĈ!ććďĉďĉ!!!!ďĉďĉ": 3659,
      "ćććĈ!Ĉ!Ĉ!Ĉ!ĈĈĈĈĈĈĈĈĈĈ!ćĈ!Ĉ!ĈćĈĈćĈćĈĈĈćĈĈďĉĈ!Ĉ!ĈĈĈ": 3660,
      "ćĈĈĈĈ!ĈććĈ!ććććĈć!!ďĉ!ďĉďĉďĉďĉďĉďĉ!!": 3661,
      "ĈĈĈĈĈĈĈĈĈĈĈĈĈĈ!Ĉ!Ĉ!Ĉ!Ĉ!ĈĈĈ!ĈĈďĉ!ďĉďĉďĉćĈ!Ĉ!Ĉ!Ĉ!ĈĈ!Ĉ!Ĉ!Ĉ!ĈĈĈĈĈĈĈĈĈĈĈĈĈĈ!Ĉ!Ĉ!Ĉ!ĈĈĈĈ": 3662,
      "ććĈ!Ĉ!Ĉ!Ĉ!Ĉ!ĈĈ!ćĈ!ćĈ!ćĈćĈ!ćĈ!ćĈćĈ!ćĈćĈ!ććĈćĈ!ćĈćĈ!Ĉ!ććĈćĈ!ĈĈĈĈĈĈćĈ!ććĈććĈ!ćĈ!Ĉ": 3663,
      "%&'(Ĉ!Ĉ!ććĈ!ććććĈćĈćĈćĈććććĈ!Ĉ!ććĈ!ĈććććĈćĈćĈćĈćĈćĈćĈćĈćĈćĈ": 3664,
      "ććĈ!Ĉ!ććĈ!ććććĈćĈćĈćĈććććĈ!Ĉ!ććĈ!ĈććććĈćĈćĈćĈćĈćĈćĈćĈćĈćĈć!": 3665,
      "ďĉďĉ!!ďĉ!!ďĉďĉćććĈ!Ĉ!Ĉ!Ĉ!Ĉ!ĈćĈĈ!Ĉ!ĈĈĈćĈćĈ!ććĈ!!": 3666,
      "323322": 3667,
      "ćĈ!ĈćĈćĈćĈćććĈĈĈĈĈććĈĈććĈćććĈćĈćĈćĈćĈĈćĈĈćĈćĈćĈććĈĈćĈĈĈććĈĈććĈćććĈĈĈĈĈćĈĈćĈ": 3668,
      "ćććĈ!Ĉ!ććĈ!ćĈ!ćČďĉ!!!ďĉĈ!Ĉ!Ĉ!Ĉ!ĈćĈĈĈ!ĈĈĈ": 3669,
      "ďĉ!!!!!!!!!!!!!!!!!!!!!!!!ďĉ!!ďĉďĉďĉďĉďĉ!!ďĉ!ďĉ!ďĉďĉďĉ!": 3670,
      "ďĉ!ďĉ!ďĉ!ďĉ!ďĉ!ďĉćććĈ!Ĉ!Ĉ!Ĉ!Ĉ!Ĉ!ćĈ!Ĉ!Ĉ!Ĉ!ćĈ!Ĉ!Ĉ!Ĉććďĉ!ćĈ!ćĈ": 3671,
      "&'(!!!!!!!!!!!!!!!)!)!!!!!!!!!!!!!!!!!!!!!!!!!!!!!!!!!!!!!!!!!!!!!!!!!!!!!!!!!!!!!!!!": 3672,
      "ďĉďĉ!%&'(ďĉ!ďĉ!!Ĉ": 3673,
      "ďĉ!ďĉďĉ%&'(ďĉ!ďĉ!": 3674,
      "%!!!!!!!!&'()!)!!!!!!!!!!!!!!!!!!!!!!!!!!!!!!!!!!!!!!!!!!!!!!!!!!!!!!!!!!!!!!!!": 3675,
      "ďĉďĉďĉ%&'(ďĉďĉďĉďĉďĉďĉďĉďĉďĉďĉďĉ!ććĈ!ćććĈ!ćććĈ!ćććĈ!Ĉ!Ĉ!ďĉćććĈ!ć": 3676,
      "%&'(!!!!!!!!!!!!!!!!!!!!!!)!!!!!!!!!!!!!!!!!!!!!!!!!!!!!!!!ďĉďĉďĉ!": 3677,
      "ďĉďĉďĉďĉďĉďĉďĉ!!ćććďĉććććććĈ!ććČ": 3678,
      ")ďĉćďĉďĉ!": 3679,
      "ćĈ!Ĉ!Ĉ!Ĉ!Ĉ!Ĉ!ĈĈďĉ%&'(!!!ďĉ!ďĉďĉ!ďĉćććĈ!Ĉ!Ĉ!Ĉ!Ĉ!Ĉ!ćććććĈ!ćĈĈ%&'(ďĉďĉ!!!!!!!!!!!ďĉćććĈ!Ĉ!Ĉ!Ĉ": 3680,
      "ďĉ!ďĉďĉďĉďĉďĉďĉďĉďĉććććĈ!ćĈ!Ĉ!Ĉ!ĈĈ!Ĉ!Ĉ!ĈććĈ!ć%&'(ďĉććććććććĈ!Ĉ!Ĉ!Ĉ!ćĈĈĈĈ!Ĉ!ćĈ!ďĉďĉćďĉ": 3681,
      "7777'777(788888888,-%&+01": 3682,
      "ďĉĈ!Ĉ!Ĉ!Ĉ!ĈĈ%&'(": 3683,
      "ďĉďĉďĉďĉ!ďĉďĉ!%&'(!!!!!!!!!!!!!!!!!!!!!!!!!!": 3684,
      "ďĉďĉďĉďĉďĉďĉďĉ!ďĉ%&'(ďĉďĉďĉ!!ďĉďĉďĉďĉďĉďĉ!ďĉďĉ!ďĉďĉ!!!ďĉćĈ!Ĉ!ććĈ!ććĈ!ĈĈ!ććĈ!Ĉ!Ĉ": 3685,
      "ć))": 3686,
      "ďLL": 3687,
      "ďĉĖ": 3688,
      "ďĉďĉćďĉććććććććććććććććĈ!Ĉ!ćĈ!Ĉ!ĈĈ!ćĈ!ćććĈ!ććĈćĈ!ććĈćććĈ!Ĉ!Ĉ!Ĉ!ćććĈćĈ!ćĈ": 3689,
      "ćĈ!ććĈ!Ĉ!Ĉ!ĈćĈ!Ĉ!ĈćĈććĈĈ!ĈĈĈďĉ!!!": 3690,
      "ďĉďĉďĉďĉ!!!!!!!!!ďĉ!!!!!!!!ďĉďĉďĉ!ďĉ!%&'(!!!!!!!!!!!!ďĉ!ďĉ!!!!!!ďĉďĉ!!": 3691,
      "ćĈćć%&'(": 3692,
      "Ĉ!Ĉ!Ĉ!Ĉ!Ĉ!ď": 3693,
      "%&'(ďĉ!!!!!!!!!!!!!!!!!!!!!!!!!!!!!!!!!!!!!!!!!!!!!!!!!!!!!!!!!!!!!!!!!!!!!!!!!!!!!!!!!!!!": 3694,
      "ďĉ%&'(ďĉ!!ďĉ": 3695,
      "ćďĉćďĉ": 3696,
      "!!!!!!!!!!!!!%!!!!!!!!!!!!!!!!&'(!!!!!!!!!!!!!!!!!!!!!!!!!!!!!!!!!!!!!!!!!!!!!!!!!!!!!!!!!!!!!!!!": 3697,
      "'(33322": 3698,
      "ďĉďĉďĉ%&'(ćććććĈ!Ĉ!Ĉ!ćĈĈćĈďĉďĉććĈ!Ĉ!Ĉ!ćĈ!": 3699,
      "ćĈ!ćď": 3700,
      "ďĉďĉďĉďĉďĉFD": 3701,
      "%&'(ďĉďĉććććććĈ!ćććĈ!ćć": 3702,
      "ď!ďďďďďďďď": 3703,
      "ďĉ!!ďĉ!ďĉďĉďĉďĉďĉďĉďĉďĉ": 3704,
      "ĉĉĉĉĉ": 3705,
      "ďĉ!ďĉ!ďĉććďĉďĉ)ćďĉ%&'(ććććććĈ!Ĉ!Ĉ!ćĈ!Ĉ!Ĉ!Ĉ!Ĉ!!": 3706,
      "ďĉ!!!!ďĉďĉďĉďĉďĉďĉďĉďĉďĉďĉ%&'(ćććĈ!Ĉ!Ĉ!ćĈ!Ĉ!Ĉ!Ĉ!Ĉ!!": 3707,
      "ć!Ĉ!!": 3708,
      "%&'(!ĥĤ": 3709,
      "ď!ĉ!!": 3710,
      "ďĉďĉďĉďĉďĉ%&'(ďĉďĉ!": 3711,
      "%&'(ďĉ!Ĉ!ĈćĈ!Ĉ!Ĉ!ĈćĈ!ćć": 3712,
      "!!!!!!!!!!!!!!!!!!!!!!!!!!!!!!!!!!!!!!!!!!!!!!!!!!!!!!!!!!!!!!!!!!!!!!!!!!!!!!!!!!!!!!!!!!!!!!!!!!": 3713,
      "ďĉďĉ)ćďĉ%&'(ććććććĈ!Ĉ!Ĉ!ćĈ!Ĉ!Ĉ!Ĉ!Ĉ!!": 3714,
      "ćďĉ%&'(ćĈ!Ĉ!Ĉ!Ĉ!Ĉ!Ĉ!Ĉ!Ĉ!ćĈ!ćĈ!Ĉ!ĈćĈ!Ĉ!ďĉćĈ!": 3715,
      "ďĉďĉďĉďĉĈ!ĈĈĈćĈ!ćĈĈĈďĉďĉďĉďĉďĉďĉďĉďĉ": 3716,
      "Ĉ!Ĉ!ĈĈĈĈĈĈćĈ!ĈĈĈďĉ%&'(%&'(%&'(": 3717,
      "Ĉ!Ĉ!ćĈ!Ĉ!ĈĈĈďĉ!ďĉ!!!SĂĄĆ!!ďĉ!!!!!!RTVa!!!SĂĄĆ!!!!R!!!SćććććććĈ!Ĉ!": 3718,
      "!!!!!!)!!!!!!!!)ďĉďĉďĉ!!)!)!!!!!!!!!!!!!!!!!!!!!!!!!!!!!!!!!!!!!!!!!!!!!!!!!!!!!!!!!!!!!!!!": 3719,
      "ďĉććććććĈ!ććĈ!ććĈ!Ĉ!Ĉ!Ĉ!ćććĈ!Ĉ!Ĉ!ććĈćĈ!Ĉ!ĈćĈ!Ĉ!ćĈ!ććĈĈĈĈĈćĈćĈďĉ%&'(": 3720,
      "%!!&'(!!!!!!!!!!!!!!!!!!!!!!!!!!!!!": 3721,
      "ďĉďĉćĈ!ĈĈ!ĈĈĈĈ!Ĉ!Ĉ!ĈĈĈĈĈĈĈĈ!ĈĈĈĈĈďĉ!ďĉďĉ!": 3722,
      "ćď%&'(ĉ!!!!!!!!!": 3723,
      "ćďĉďĉ!ďĉ!ďĉ)))": 3724,
      "ďĉďĉďĉďĉďĉďĉďĉďĉďĉ%&'(ďĉďĉďĉďĉďĉďĉ": 3725,
      "Ĕĥ!!": 3726,
      "ĔĥćĈ!ćĈ!Ĉ!ĈĈ!": 3727,
      "ćĈ!%&'(ććĈ!Ĉ!ĈćĈ!ĈććĈĈĈćĈĈĈćĈ!ĈććĈĈĈćĈĈććĈĈĈćĈ!ĈćĈ!ććĈĈ!Ĉ!ĈĈćĈ!Ĉ!": 3728,
      "ďĉďĉďĉ!ććĈ!ćďĉďĉďĉďĉďĉďĉďĉďĉ%&'(ďĉ!!ďĉďĉďĉ": 3729,
      "ć%&'(ďĉĈ!ćĈ!Ĉ!Ĉ!ćĈ!Ĉ!Ĉ!ĈĈ!ćĈ!ďĉ!ďĉďĉďĉďĉ": 3730,
      "%&'(!!!!!!!!!!!!!!!!!!!!!!!!!!)!!!!!!!!!!!!!!!!!!!!!!!!!!!!!!!!": 3731,
      "ćććĈ!ćĈďĉďĉććć": 3732,
      "ďĉ!ďĉďĉďĉďĉćććĈ!Ĉ!ććĈ!ćĈ!ćČďĉ!!!ďĉ!Ĉ!Ĉ!Ĉ!Ĉ!ĈćĈ!ĈĈ!ĈĈĈćĈćďĉďĉďĉ!!!": 3733,
      "Ĉ!Ĉ!Ĉ!Ĉ!ĈĈ!Ĉ!Ĉ!Ĉ!Ĉ!ćĈ!Ĉ!ĈĈĈĈĈ": 3734,
      "ććććććććććććĈ!ćĈ!ĈĈ!ćĈ!ĈćććććććĈćĈ!Ĉ!ćĈ!ćĈ!Ĉ!ćĈ!Ĉ!ćĈ!ĈćĈĈćĈĈćĈĈćĈćĈĈćĈĈćĈćć": 3735,
      "%&'(ďĉďĉ!ďĉ!!!!!!!!ďĉďĉďĉďĉďĉććććĈ!ćĈ!ĈćĈĈ!Ĉ!Ĉ!Ĉ!ĈćĈĈćĈĈĈĈĈĈ!%&'(ďĉďĉďĉ!))ďĉ!ďĉďĉďĉďĉćďĉ!ďĉďĉďĉĈ!ĈĈ": 3736,
      "!!!!!!!!!!!!!!!!!!!!!!!!!!!ďĉ!ďĉ!!!!!!ďĉďĉ!!!!ďĉďĉďĉ%&'(ććĈ!Ĉ!ćĈĈ!ćĈ!Ĉ!Ĉ!Ĉ!Ĉ!ĈĈĈćĈ!Ĉ!Ĉ!ćďĉććć": 3737,
      "ććĈ!Ĉ!Ĉ!ĈćĈ!%&'(Ĉ!Ĉ!Ĉ!Ĉ!Ĉ!Ĉ!Ĉ!Ĉ!Ĉ!ďĉďĉ!ďĉ%&'(ćććććććććććććććć": 3738,
      "ďĉĈ!Ĉ!Ĉ!Ĉ!ĈĈ%&'(Ĉ!Ĉ!Ĉ!ĈĈĈĈ!Ĉ!ĈĈ!Ĉ!Ĉ!ĈĈĈĈćďĉďĉćććććććĈ!Ĉ!Ĉ!ćĈ!Ĉ!Ĉ!ćďĉ!": 3739,
      "R!!!S": 3740,
      "ćĈĈĈĈĈĈĈĈĈ": 3741,
      "ĉď": 3742,
      "ĔĈ!ĥ": 3743,
      "ħďĉĉ": 3744,
      "!!!!Ē!": 3745,
      "ďĉćĈ!ćĈ!": 3746,
      "ďĉĈ!Ĉ!Ĉ!Ĉ!Ĉ!Ĉ!": 3747,
      "%&'(!!!!!!!!!!!!!!!!!!!!!!!!!!!!!!!!!!!!!!!!!!!!!!!!!!!!!!": 3748,
      "ćĈ!)!)!!": 3749,
      "ćććććĈ!Ĉ!": 3750,
      "Ĉ!Ĉ!Ĉďĉďĉďĉ%&'(Ĉ!Ĉ!ĈĈ!Ĉ!ĈĈĈĈ!Ĉ!ĈĈ!Ĉ!Ĉ!!Ĉ!": 3751,
      "%&'(ďĉ!!!!!!!!!!!!!!!!!!!!!!!!!!!!!!!!!!!!!!!!!!!!!!!!!!!!ďĉ!!!!!!!!!!!!": 3752,
      "ćĈ!ćĈ!Ĉ!ĈĈĈ!ĈĈĈććĈ!ĈĈ!ĈĈĈĈ!ĈĈ!ĈĈĈĈďĉďĉďĉ!!!!!!!!!!": 3753,
      "ďĉďĉ!!ďĉďĉďĉďĉ!ďĉďĉ!!!!!!!!!!!!!!!!!!!!!!!!!!!ďĉ!ďĉ!!!!!!": 3754,
      "Ĉ!ĈĈĈćĈćĈĈĈĈĈĈĈćĈĈĈĈĈĈćĈćĈ!ćĈĈ!": 3755,
      "%&'(ĉĉĉ": 3756,
      "!LćK": 3757,
      "ďĉ%&'(ďĉďĉďĉďĉ!!": 3758,
      "ďĉ%&'(ćććććĈ!Ĉ!Ĉ!ćĈĈćĈďĉďĉĈ!Ĉďĉ!ďĉ!ďĉ": 3759,
      "Ĉ!ĈĈĈĈćĈ": 3760,
      "ćďĉ%!&'(": 3761,
      "%ď&'(ĉ!!!": 3762,
      "ďĉďĉ%&'(ďĉďĉďĉďĉ": 3763,
      "ďĉďĉďĉ%&'(ďĉďĉďĉ!ďĉďĉ!ďĉďĉ!!!ďĉćĈ!Ĉ!ććĈ!ććĈ!ĈĈ!ććĈ!Ĉ!Ĉ": 3764,
      ")!)!!!!!!!!!!!!!!!!!!!!!!!!!!!!!!!!!!!!!!!!!!!!!!!!!!!!!!!!!!!!!!!!!!!!!": 3765,
      "%Ĉ&'(!Ĉ!Ĉ!Ĉ!Ĉ!": 3766,
      "ďĉďĉďĉďĉďĉďĉ%&'(ďĉ": 3767,
      "ććć!": 3768,
      ")!)!!!!!!!!!!!!!!!!!!!!!!!": 3769,
      ")!)!!!!!!!!!!!!!!!!!!!!!!!!!!!!!!!!!!!!!!!!!!!!": 3770,
      "&'(!!!!!!!!!!!!!!!!!!!!!!!!!!!!!!!!!!!!!!!!!!!!!!!!!!!!!!": 3771,
      "ďĉ!!!!!!!!!!!!!!!!!!!!!!!!!!!!!!!!!!!!!!!!!!!!!!!!!!!!!!!!!!!!!!!!!!!!!!!!!!!!!!": 3772,
      "ďĉďĉďĉćďĉďĉ!ďĉďĉďĉ!!ďĉ!!!!": 3773,
      "ććĈ!ćĈ!ĈććĈĈ!Ĉ!ĈĈĈ!ććĈ!Ĉ!ĈćĈ!ććĈ!Ĉ!ĈćĈ!ĈććĈĈĈćĈĈĈćĈ!ĈććĈĈĈćĈĈććĈĈĈćĈ!ĈćĈ!ććĈĈ!Ĉ!ĈĈćĈ!Ĉ!": 3774,
      "ćďćĈ!ĉ": 3775,
      "Ĉ!Ĉ!ĈĈ!Ĉ!Ĉ!Ĉ!ďĉďĉďĉďĉďĉ!": 3776,
      "%&'(ďĉćććďĉ!": 3777,
      ")!)!!!!!!!!!!!!!!!!!!!!ďĉ!!!!!!!!!!!!!!!!!!!!!!!!!!!!!!!!!!!": 3778,
      "ćĈ!ććĈ!Ĉ!ĈćĈ!ĈććĈĈĈćĈĈĈćĈ!ĈććĈĈĈ": 3779,
      "ćďĉďĉďĉĈ!ĈĈĈĈĈ!ćĈ!Ĉ!ĈćĈĈĈćĈĈĈĈĈ": 3780,
      "Ĉ!ďĉ!ďĉďĉďĉďĉďĉ!ďĉďĉďĉ!!)!)!!!!!!!!!!!!!!!!!!!!": 3781,
      "ďĉďĉďĉ!ďĉďĉ!ďĉďĉ!!ďĉ!!ďĉďĉćććĈ!Ĉ!Ĉ!Ĉ!Ĉ!ĈćĈĈ!Ĉ!ĈĈĈćĈćĈ!ććĈ!!ďĉ!!": 3782,
      "ďćĈĉ!": 3783,
      "!!!!R%&'(TVa!!!SĂĄĆ": 3784,
      "!!!!ďĉ!!!ćććććĈ!ĈĈ!ĈĈĈ!Ĉ!Ĉ!Ĉ!Ĉ!Ĉ!Ĉ!Ĉ!Ĉ!Ĉ!Ĉ!Ĉ!ćĈ!ďĉ!ďĉ!!!!!!!!!!!!!!!!ďĉ!!!!!!!!!!!!!!!!!": 3785,
      "ćĈ!ĈĈ!ĈĈĈĈ!Ĉ!Ĉ!ĈĈĈĈĈĈĈĈ!ĈĈĈĈĈďĉ!ďĉďĉ!ďĉ!ďĉďĉ%&'(ďĉ!ďĉ!": 3786,
      "ććĈ!ĈďĉĈ!Ĉ!ĈĈĈĈĈĈĈĈĈĈĈĈĈĈĈĈĈĈĈĈĈĈĈĈ%&'(ďĉ!": 3787,
      "ććĈ!ćďĉďĉďĉďĉďĉďĉďĉ!!ďĉďĉ%&'(ďĉćććĈĈ!ćĈ!Ĉ!ĈćĈĈĈćĈĈĈćĈĈćććććďĉďĉďĉĈ!ĈĈĈĈĈ!ćĈ!Ĉ!ĈćĈĈĈ": 3788,
      "!!!!!!!!!!!)!)!!!!!!!!!!!!!!!!!!!!!!!!!!!!!!!!!!!!!!)!)!!!!!!!!!!!%&'(!!!!!!!!!!!!!!!!!!!!!!!!!": 3789,
      "ć%&ď'(ĉ": 3790,
      "ć%&'ď(ĉ": 3791,
      "ďę": 3792,
      "ďLK": 3793,
      "!!!!ďĉ!!ďĉ!": 3794,
      "!!!!!!!!!!!!!!!!!!!!!!!!!!!!!!!": 3795,
      "Ĉ!Ĉ!ććĈ!Ĉ!Ĉ!Ĉ!Ĉ!Ĉ!ćĈćĈ!ććććććĈ!ćĈ!ććĈćććĈćććĈĈćĈćĈ!Ĉ!ćĈ!ĈćĈćĈćĈćĈ!Ĉ!ĈćĈ!Ĉ!": 3796,
      "ćĈćĈ!ććććććĈ!ćĈ!ććĈćććĈćććĈĈćĈćĈ!Ĉ!ćĈ!ĈćĈćĈćĈćĈ!Ĉ!ĈćĈ!Ĉ!": 3797,
      "ďĉďĉ!ďĉ!ďĉ!!Ĉ": 3798,
      "ďĉďĉ!!ďĉ!ďĉďĉ!!ďĉďĉďĉďĉďĉďĉďĉďĉ!": 3799,
      "Ĉ!ĈĈďĉ!!!": 3800,
      "ď%&'(ĉďĉććććććććććććććĈ!ććĈ!Ĉ!Ĉ!ĈćĈ!Ĉ!ĈćĈććĈĈ!ĈĈĈďĉ!!!": 3801,
      "ćĈ!Ĉ!Ĉ!ćďĉćććďĉ!!ďĉďĉďĉ!": 3802,
      "ďĉďĉďĉ%&'(Ĉ!Ĉ!Ĉ!Ĉ!!Ĉ!Ĉ!Ĉ!Ĉ!!Ĉ!Ĉ!Ĉďĉďĉďĉ%&'(Ĉ!Ĉ!ĈĈ!Ĉ!ĈĈĈĈ!Ĉ!ĈĈ!Ĉ!Ĉ!!Ĉ!%&'(ďĉ!ďĉďĉďĉďĉďĉ": 3803,
      "ďĉďĉďĉďĉďĉĈ!Ĉ!ćĈ!Ĉďĉ!!!!!!!!!": 3804,
      "Ĉ!ĈĈ!ĈďĉĈ!ĈĈĈĈĈĈĈĈ!ĈĈĈ": 3805,
      "23232323": 3806,
      "ď!ćĉ": 3807,
      ")!)!!!!!!!!!!!!!!!!!!!!!!!!!!!": 3808,
      ")!)!!!!!!!!!!!!!!!!!!!!!!!!!!": 3809,
      "ďĉďĉďĉďĉďĉďĉďĉ%ď&'(ĉ": 3810,
      "%&'Ĉ(": 3811,
      ")!)!!!!!!!!!!!!!!!!!!!!!!!!!!!!!!!!!!!": 3812,
      "ćĈ!ććĈćĈ!ćĈćĈ!Ĉ!ććĈćĈ!ĈĈĈĈĈĈćĈ!ććĈććĈ!ćĈ!ĈććĈĈ!Ĉ!ĈĈĈ!ććĈ!Ĉ!Ĉ": 3813,
      "ďďďďďď": 3814,
      "ďĉ!!!!!!!!!!!!!!!!!!!!!!!!!!!!!!!!!!!!!!!!!!!!!!!!!!!!ďĉ!ďĉ!!!!!!!!!!!ďĉ!!ďĉďĉďĉďĉďĉďĉ!": 3815,
      "Ĉ!ćĈ!Ĉ!Ĉ!Ĉ!Ĉ!!ďĉďĉ!ďĉ!!!!!!!!ďĉďĉďĉďĉďĉććććĈ!ćĈ!ĈćĈĈ!Ĉ!Ĉ!Ĉ!ĈćĈĈćĈĈĈĈĈĈ!%&'(ďĉďĉďĉ!))ďĉ!ďĉďĉďĉďĉ": 3816,
      "00011011": 3817,
      "ćĈ!ĈĈĈćĈćĈćĈĈĈćĈďĉďĉ!ďĉ!!ďĉ!ďĉďĉďĉďĉ!": 3818,
      "ććĈ!Ĉ!Ĉ!Ĉ!ćććĈ!Ĉ!Ĉ!ććĈćĈ!Ĉ!ĈćĈ!Ĉ!ćĈ!ććĈĈĈĈĈćĈćĈďĉćććććĈ!ĈĈćĈĈćĈ": 3819,
      "%ćć&'ć(": 3820,
      "ćĈ!ĈćĈĈ!Ĉ!ćĈ!ĈĈ!ććĈ!ćĈ!ććĈćĈććć!!ďĉ!ďĉ!!ďĉďĉ!!ďĉ!!!!!!)!!!!!!!!)ďĉďĉďĉ!!": 3821,
      "ćććććććććććććććĈ!Ĉ!Ĉ!ćĈ!Ĉ!Ĉ!Ĉ!Ĉ!ćĈ!Ĉ!": 3822,
      "Ĉ!Ĉ!Ĉ!Ĉ!ĈĈ!Ĉ!ĈĈ!Ĉ!ćĈ!Ĉ!ĈĈĈĈĈ": 3823,
      "ćĈ!ćĈ!Ĉ!Ĉ!ćĈ!Ĉ!Ĉ!ćĈ!Ĉ!Ĉ!ĈĈćĈĈ!Ĉ": 3824,
      "!!!!!!!!!!!!!!!!!!!!!Ĉ!Ĉ!Ĉďĉ!!!!!!!!!!!!!!!!!!!!!!!!!!!!!!!!": 3825,
      "ćĈ!ććĈ!Ĉ!ĈćĈ!ĈććĈĈĈćĈĈĈćĈ!ĈććĈĈĈćĈĈććĈĈĈćĈ!ĈćĈ!ććĈĈ!Ĉ!ĈĈćĈ!Ĉ!ćććĈ!Ĉ!ćććĈĈćĈ!ĈĈĈ!!ćććć": 3826,
      "ďĉ!!!!!!!!!!!!!!!!!!!!!!!!!!!!!!!!!!!!!!!!!!!!!%&'(": 3827,
      "Ĉ!Ĉ!ĈĈĈĈ!Ĉ!Ĉ!ĈĈĈĈĈĈĈĈĈĈ!ĈĈĈ!ĈĈ!ĈĈĈĈ!ĈĈ!ĈďĉĈ!ĈĈĈĈĈĈĈĈ!ĈĈĈ!%&'(ďĉ": 3828,
      "RTVa!!!S%&'(ĂĄĆ!!!!R!!!SĈ!ćĈ!ćĈ!Ĉ!Ĉ!ďĉďĉ": 3829,
      "&'(!!!!!!!)!)!!!!!!!!!!!!!!!!!!!!!!!!!!!!!!!!!!!!!!!!!!!!!!!!!!!!!!!!!!!!!!!": 3830,
      "ďĉďĉďĉďĉďĉďĉďĉďĉďĉ%&'(ďĉďĉďĉĈ!Ĉ!Ĉ!Ĉ!ĈćĈĈĈ!ĈĈĈćĈćĈĈĈĈĈĈĈćĈĈĈĈĈĈćĈćĈ!ćĈĈ!": 3831,
      "ďĉďĉďĉďĉďĉ!!ďĉ!!!!ďĉďĉďĉ!ďĉďĉ!ďĉďĉ!!ďĉ!!ďĉďĉ": 3832,
      "ććććĈ!Ĉ!ćĈ!ćĈ!Ĉ!ććĈ!ĈććĈ!Ĉ!ćĈ!ćĈ!Ĉ!Ĉ!ćĈĈ!%&'(ďĉďĉďĉďĉććĈ!Ĉ!ĈĈĈ!!ćĈ!Ĉ!Ĉ!Ĉ!ćďĉďĉ!!": 3833,
      "ďĉďĉďĉďĉďĉďĉR%&'(TVaďĉććĈ!ćććĈćććĈĈ!Ĉ!ćĈ!ććĈćĈ!ćĈ!!Č!!Č!ďĉ!ďĉĈ!Ĉ!ćĈ!Ĉ!ĈĈĈďĉ!ďĉ": 3834,
      ")!)!ďĉďĉ!!!)!)!!ďĉďĉďĉďĉďĉ!!ďĉ!ďĉďĉďĉďĉďĉďĉďĉďĉďĉ%&'(ďĉďĉďĉďĉďĉďĉ": 3835,
      "ďĉďĉďĉďĉďĉ!!ďĉ!!ďĉďĉďĉ)!)ďĉďĉďĉďĉďĉ!)!)!": 3836,
      "ćĈĈĈĈĈĈĈĈĈĈĈĈĈĈĈĈ!ĈĈĈĈĈĈĈĈĈĈĈĈĈĈĈĈĈ!ćĈĈĈĈĈĈĈĈĈĈĈĈĈĈćĈ!ĈćĈĈćĈĈĈĈĈĈĈ": 3837,
      "%&'(ďĉďĉďĉďĉ!ďĉďĉďĉďĉ!ďĉ!!Ĉ!ĈćĈ!Ĉ!Ĉ!ĈćĈ!ććďĉ!Ĉ!ĈćĈ!Ĉ!Ĉ!ĈćĈ!ćć": 3838,
      "ďĉďĉďĉ!ďĉďĉ!ďĉďĉ!!ďĉ!!ďĉďĉćććĈ!Ĉ!Ĉ!Ĉ!Ĉ!ĈćĈĈ!Ĉ!ĈĈĈćĈ": 3839,
      ")%!&'(": 3840,
      "BL": 3841,
      "ćA": 3842,
      "Ĉćĉ": 3843,
      "ĈĈ!Ĉ!ĈĈ!Ĉ!ćĈ!Ĉ!ĈĈĈĈĈ": 3844,
      "ď!!!!!!!!!": 3845,
      "ďĉ%ď&'(ĉ!": 3846,
      "ďĉ!!!!!!!!!!!!!!ďĉďĉďĉďĉććććĈ!ćĈ!Ĉ!Ĉ!Ĉ!ćĈ!ĈĈćĈ!ćĈ!Ĉ!Ĉ!ćĈ!ćĈ!Ĉ!ćĈĈćĈ!Ĉ!ććĈ!ĈĈćĈćĈćĈ!Ĉ!ĈćĈĈ": 3847,
      "ćĈ!ćĈćĈćĈ!ćĈ!ććĈ!ćĈććĈćĈ!ćĈ": 3848,
      "ďĉďĉďĉďĉď%ĉ&'(": 3849,
      "ďĉ!ćććĈ!Ĉ!ćĈ!Ĉ!Ĉ": 3850,
      "222232222222222222222222222222222222222222244444444%&5555555522222222222222222222222266666666": 3851,
      "ćĈćĈććĈ": 3852,
      "ďĉďĉďĉĝ": 3853,
      ")!)!!!!!": 3854,
      "ďĉďĉ!!ďĉďĉ)ďĉďĉ!": 3855,
      "ććĈ!Ĉ!%&'(": 3856,
      "ććĈ!Ĉ!ćĈ!ćĈ!": 3857,
      "ď%&'(ĉďĉďĉ!!!!ďĉ!!!ćććććĈ!ĈĈ!ĈĈĈ!Ĉ!Ĉ!Ĉ!Ĉ!Ĉ!Ĉ!Ĉ!Ĉ!Ĉ!Ĉ!Ĉ!ćĈ!ďĉ!ďĉ!!!!!!!!!!!!!!!!": 3858,
      "%ď&'(": 3859,
      "ć%&'(Ĉ!Ĉ!Ĉ": 3860,
      ")!)!!!!!!!!!!!!!!!!!!!!!!!!!!!!!!!!!!!!!!!!!!!!!!!!!!!!!!!!!!!!!!!!!!": 3861,
      "Ĉ!ćĈ!ĉ": 3862,
      ")!)!!!!!!!!!!!!!!!!!!!!!!!!!": 3863,
      "ććĈĈĈćĈ": 3864,
      "ďĉ!ďĉ!!ďĉ!ďĉďĉďĉďĉ!": 3865,
      "ćďĉďĉćĈ!ćďĉďĉďĉďĉćććććĈ!ćČ": 3866,
      "%!!!!!!!!!!!!!!!!!!!!!!!!!!!!!!!!!!!!!!!!!!!!!!!": 3867,
      "!!!!!!!!!!!!!!!!!!!!!)!)!!!!!!!!!!!!!!!!!!!!!!!!!!!!!!!!!!!!!!!!!!!!!!!!!!!!!!!!!!!!!!!": 3868,
      "ććĈ!ććĈ!ćĈ!Ĉ!Ĉ!Ĉ!Ĉ!Ĉ!ĈćĈĈĈĈ!ĈććĈ!ććććĈć!!": 3869,
      "Ĉ!Ĉ!ĈĈ!ĈĈ!Ĉ!Ĉ!Ĉ!Ĉ!Ĉ!ĈĈĈĈ!ĈĈĈĈĈĈĈ!Ĉ!Ĉ!ĈĈ!Ĉ": 3870,
      "ďĉďĉďĉ!ďĉććĈ!ďĉ!ďĉ!!ćĈ!": 3871,
      "ďĉĈ!ĈĈĈĈĈĈĈĈ!ĈĈĈ!": 3872,
      "ďĉ!!!!!!!!!!!!!!!!!!!!!!!!!!!!!!!!!!!!!!!!!!!!!!!!!!!!ďĉ!ďĉ!!!!!!!!!!!": 3873,
      "Ĉ!ĈĈĈ!ĈĈĈĈĈĈĈĈĈĈĈĈĈĈĈĈĈĈ!ďĉ!!ďĉ!": 3874,
      "Ĉ!ćĈ!Ĉ!ĈćĈĈĈćĈĈĈćĈĈćććććďĉďĉďĉĈ!ĈĈĈĈĈ!ćĈ!Ĉ!ĈćĈĈĈćĈĈĈĈĈ": 3875,
      "ĈĈĈĈĈĈĈĈĈĈĈĈĈĈĈĈĈĈĈĈĈĈĈĈ!ĈĈĈĈĈĈĈĈĈĈĈĈĈĈĈĈĈĈĈĈĈĈĈďĉ!ďĉďĉďĉďĉďĉďĉďĉďĉ": 3876,
      "ćďĉććććććććććććććććĈ!Ĉ!ćĈ!Ĉ!ĈĈ!ćĈ!ćććĈ!ććĈćĈ!ććĈćććĈ!Ĉ!Ĉ!Ĉ!": 3877,
      "ďĉ!!!!!!!!!!!!!!!!!!!!!ďĉ!!!!!!!!!!!!!!": 3878,
      "ďĉďĉćĈ!ĈĈ!ĈĈĈĈ!Ĉ!Ĉ!ĈĈĈĈĈĈĈĈ!ĈĈĈĈĈďĉ!%&'(ďĉďĉ!ďĉ!ďĉďĉďĉ!": 3879,
      "ćććććďĉ!ććććĈćććĈ!Ĉ!ĈćĈ!ć%&'(": 3880,
      "ďĉďĉ!!ďĉ!!!!ďĉďĉďĉďĉ!!!!!!!!!!!!!!!!!!!!!!!!!!!!!!!!!!!!!!!!!!!!!%&'(": 3881,
      "ďĈ!Ĉĉ!": 3882,
      "đđđđ": 3883,
      "%L&'(K": 3884,
      ")!)ďĉďĉďĉ!ďĉďĉďĉ!!ďĉďĉďĉďĉ!ďĉ!ďĉ!ďĉ!ďĉ!ďĉ!ďĉćććĈ!Ĉ!Ĉ!Ĉ!Ĉ!Ĉ!": 3885,
      "ėĥĤēĒ!!Ė": 3886,
      "ďĉďĉďĉďĉďĉďĉďĉ!ďĉ!ďĉďĉďĉďĉćććĈ!Ĉ!ććĈ!ćĈ!ćČ": 3887,
      "ćććććććććććććććĈ!Ĉ!Ĉ!ćĈ!Ĉ!Ĉ!Ĉ!Ĉ!ćĈ!Ĉ!ćĈ!ćĈ!ćĈ!ćĈ!ćĈ!Ĉ!Ĉ!Ĉ!Ĉ!Ĉ!": 3888,
      "%&'(ďĉďĉććććććĈ!ćććĈ!ćććĈ!ćĈ!ćďĉďĉďĉďĉ!ďĉďĉćććććććĈĈććććććĈ!ćĈĈ%&'(ďĉďĉ!!ďĉ!!!!!!!!!!!!!!!!!!!": 3889,
      "!ĥ": 3890,
      "!%!!&'(": 3891,
      "%!L": 3892,
      "ćď%ĉ&'(": 3893,
      "&'(K": 3894,
      "%&'(ďĉďĉďĉďĉďĉďĉďĉďĉ!": 3895,
      "%&'(!!!!RTVa!!!SĂĄĆ": 3896,
      "ĈĈĈĈĈ!Ĉ": 3897,
      "ćĈ!Ĉ!ćďĉ!!": 3898,
      "ććĈ!ćďĉ!": 3899,
      "ďĉďĉ!ććĈ!ćććĈ!ćććĈ!ćććĈ!Ĉ!Ĉ!ďĉćććĈ!ć": 3900,
      "ćććććććććććććć": 3901,
      "LL!": 3902,
      "Ĉ!Ĉ!ĈĈ!Ĉ!ĈĈ!Ĉ!ĈĈ!ĈĈ!Ĉ!ĈĈ!ĈĈ!Ĉ!ĈĈĈ!ĈĈĈĈ!ĈĈĈĈ": 3903,
      "ććĈ!Ĉ!Ĉ!ĈćĈ!Ĉ!": 3904,
      "ďĉ%&'(ďĉďĉ!!": 3905,
      "ďĉ!ďĉďĉďĉďĉćďĉ!ďĉďĉďĉ": 3906,
      "!!!!!!!!!!!!!!)!)!!!!!!!!!!!!!!!!!!!!!!!!!!!!!!!!!!!!!!!!!!!!!!!!!!!!!!!!!!!!!!!!!!!!!!!!!!!!!!": 3907,
      "!!!!!!!!!!!!!ďĉďĉ!ďĉ!)ďĉďĉďĉćďĉďĉ!ďĉďĉďĉ!!ďĉ!!!!": 3908,
      "ďĉďĉ%&'(!!!": 3909,
      "ďĉďĉ%&'(ďĉďĉďĉ!": 3910,
      "ć%&'(ćććććććć": 3911,
      "ć%&'(ććĈ!Ĉ!": 3912,
      "ďĉďĉďĉ%&'(ďĉ!!ďĉďĉďĉďĉďĉďĉ!ďĉďĉ!ďĉďĉ!!!ďĉćĈ!Ĉ!ććĈ!ććĈ!ĈĈ!ććĈ!Ĉ!Ĉ": 3913,
      "ďĉďĉďĉďĉďĉ%&'ď(ĉ": 3914,
      "%Ĉ&'(!ćĈ!Ĉ!": 3915,
      ")!)!!!!!!!!!!!!!!!!!!!!!!": 3916,
      "ďĉ!!!!!!!!!!!!!!!!!!!!!!!!!!!!!!!!ďĉ!!!!!!!!!!!!!!!!!!ďĉ!!!!!!!!!!!!!!!!!!!ďĉ!!!!!!!!": 3917,
      "ďĉćććĈ!ĈĈ!Ĉ!": 3918,
      "ďĉďĉďĉďĉďĉďĉďĉ!ďĉ!ďĉďĉďĉ!ďĉ!ďĉďĉďĉĈ!Ĉ!Ĉ!Ĉ!ććĈćć": 3919,
      "ćĈĈ!ďĉďĉďĉďĉććĈ!Ĉ!ĈĈĈ!!ćĈ!Ĉ!Ĉ!Ĉ!ćďĉďĉ!!": 3920,
      "ďĉďĉďĉďĉďĉćććććĈ)!)!!Ĉ!Ĉ!ĈĈ!!!!!": 3921,
      "ďĉďĉ!!!!ďĉ!!": 3922,
      "%!!!!&'(ďĉ!!!!!!!!!ćććĈ!Ĉ!Ĉ!Ĉ!Ĉ!Ĉ!ĈĈĈĈĈĈĈĈĈĈĈĈ": 3923,
      "ďĉĈ!Ĉ!Ĉ!Ĉ!%&'(": 3924,
      "ďĉďĉďĉďĉďĉďĉ%&'(ďĉďĉ!": 3925,
      "ďĉďĉďĉďĉćććććĈ!ćĈ!Ĉ!ćĈĈ!Ĉ!Ĉ!Ĉ!ćĈćĈĈćĈ!Ĉ!Ĉ!ćĈ!Ĉ!Ĉ!Ĉ!ćĈ!Ĉ!": 3926,
      "!!!!!!!!!!!!!!!!!!!!!!!!!!!!!!!!!!!!!!!!!!!!!!!!!!!!!!!!!%!!!!!!!!!!!!!!!!!!!!!!!!!!!!!!!!!!": 3927,
      "ďĉ!ďĉďĉďĉďĉďĉďĉďĉ!!!!!!!!!!!!!!!!!!!!!!!!!!!!!!!!!!!!!!!!!!!!!!!!!!!!!!!!!!!!!!!!": 3928,
      "ďĉďĉďĉ!!ďĉćććĈ!Ĉ!Ĉ!Ĉ!ĈĈĈĈĈĈĈĈĈĈ!ćĈ!Ĉ!ĈćĈĈćĈćĈĈĈćĈĈ%&'(ďĉ": 3929,
      "%!&'(!!!!!!!!!!!!!!!!!!!!!!!!!!!!!!!!!!!!!!!!": 3930,
      "ćĈ!Ĉ!Ĉ!ćĈ!Ĉ!ćĈ!ćĈ!ćĈ!ćĈ!Ĉ!Ĉ!Ĉćďĉ!!!!!!!!!ďĉďĉďĉďĉďĉ)!)": 3931,
      "!!!!RTVa!!!SĂĄĆ!!!!R!!!Sďĉďĉ!ďĉďĉďĉďĉ!ďĉ!!": 3932,
      "ďĉ!!!!!!!!!!!!!!!ďĉ!!!!!!!!!!!!!!!!!!!!!!!!!!!!!!!!!!!!!!!!!!!!!!!!!!!!!!!!!!!!!!!!!!!!!": 3933,
      "ďĉ!!!!!!!!!!!!!%!!!!&'(ďĉ!!!!!!!!!ćććĈ!Ĉ!Ĉ!Ĉ!Ĉ!Ĉ!ĈĈĈĈĈĈĈĈĈĈĈĈ": 3934,
      "ďĉďĉďĉďĉ!ďĉďĉ%!!!&'(ďĉďĉďĉ!!ďĉ!ććĈ!Ĉ!Ĉ!Ĉ!Ĉ!ďĉďĉ!ďĉćććććĈ!Ĉ!Ĉ!Ĉ!Ĉ!Ĉ!": 3935,
      "ććććĈćććĈ!Ĉ!ĈćĈ!ć": 3936,
      "!!!!!!!!!!!!ďĉ!!ďĉ!!!!!!!!!!": 3937,
      "%&'(!!!!!!!!!!!!!!!!!!!!!!!!!!!!!!!!!!!!!!!!!!!!": 3938,
      "ďĉ!%&'(ďĉ!!!!!!!!ććĈ!Ĉ!ĈćĈĈĈććĈĈĈććĈ!Ĉ!Ĉ!Ĉ!Ĉ!Ĉ!ćĈĈ!Ĉ!Ĉ!ćĈĈĈććĈĈ!ćććĈ!ććĈ!ćĈ!ĈĈĈćć!!!!%&'(ďĉ!!ďĉ!!": 3939,
      "ďĉďĉ!ďĉďĉďĉďĉ!ďĉ!!ďĉďĉďĉďĉďĉďĉ!": 3940,
      "&'(ďĉ!!!!!!!!!!!!!!!!!!!!!!!!!!!!!!!!!!!!!!!!!!!%!!!!!!!!!!!!!!!!!!!!!!!!!!!!!!!!!!!!!!!!!!!!!!!!!": 3941,
      "ďĉďĉćććććďĉ!ďĉďĉďĉ!ďĉćďĉ!!!!ćďĉ!": 3942,
      ")ďĉďĉďĉďĉďĉďĉďĉ!ďĉ!!ďĉďĉďĉďĉďĉďĉďĉ)!%&'(ďĉďĉďĉďĉďĉďĉďĉďĉ": 3943,
      "ćďĉććććććĈ!Ĉ!Ĉ!ćĈ!Ĉ!%&'(": 3944,
      ")ďĉćďĉďĉ!ďĉďĉ!)": 3945,
      "Bď": 3946,
      "!!!!!!!!ď": 3947,
      "ďĉďĉĦ": 3948,
      "Ĉ!Ĉ!%&'(": 3949,
      "ďĉďĉďĉďĉďďĉĉ": 3950,
      "ćĈ%!&'(": 3951,
      "ďĉ!!Ĉ": 3952,
      "ďĉ!!ďĉďĉ%&'(": 3953,
      "MMďMĉ": 3954,
      "ďĉďĉ!ďĉďĉ!": 3955,
      "ďĉďĉ!ďĉ!ďĉ!ďĉďĉ!!ďĉ!ďĉ!!": 3956,
      "ďĉ!ďĉććĈ!Ĉ!Ĉ!Ĉ!Ĉ!Ĉ!Ĉ!ĈĈćĈďĉďĉćććĈ!Ĉ!Ĉ!Ĉ!Ĉ!Ĉ!ćććććĈ!ćĈĈ%&'(ďĉďĉ!!ďĉ": 3957,
      "%&'(ďĉ!!!!!!!!!ćććĈ!Ĉ!Ĉ!Ĉ!Ĉ!Ĉ!ĈĈĈĈĈĈĈĈĈĈĈĈ": 3958,
      "ďĉďĉ!!ďĉďĉďĉ": 3959,
      "ďĉďĉďĉďĉďĉďĉďĉďĉďĉďĉďĉ!": 3960,
      "!!!!!ďĉ!ďĉ!!": 3961,
      "!!!!!!!!!!!ďĉ!!!!!!!!!!!!!!!!!!!!!!!!!!!!!!!!!!!!!!!!!!!!!!!!!!!!!!!!!!!!!!!": 3962,
      "ćĈćĈćĈćććĈĈĈĈĈććĈĈććĈćććĈćĈćĈćĈćĈĈćĈĈćĈćĈćĈ": 3963,
      "%Ĉ&'(ĈĈĈĈĈ": 3964,
      "ć%&'(ććĈ!Ĉ!Ĉ!Ĉ": 3965,
      "ďĉďĉďĉďĉďĉď%ĉ&'(": 3966,
      "ććĈĈćĈĈ": 3967,
      "#$ćĈ!ćć": 3968,
      "ďĉ!ďĉ!!ďĉďĉďĉďĉďĉďĉ!": 3969,
      ")!)!!!!!!!!!!!!!!!!!!!!!!!!!!!!!!!!!!!!!!!!!!!!!!": 3970,
      "%!!!!!!!!!!!!!!!!!!!!!!!!!!!!!!!!!!!!!!!!!!!!": 3971,
      "%&'(ďĉ!!ćĈ!Ĉ!Ĉ!Ĉ!Ĉ!Ĉ!Ĉ!ćĈ!ďĉ!!!!!!!!ďĉ!!!!!ćĈ!ĈćĈ!ćĈ!ĈĈ!ćĈ!Ĉ!ĈĈĈ!ĈĈĈććĈ!": 3972,
      "%!!&'(!!": 3973,
      "ććććććĈććĈ!ďĉďĉďĉ!ććĈ!ć": 3974,
      "Ĉ!Ĉ!Ĉ!ĈĈĈĈĈĈĈĈĈĈ!ĈĈĈ!Ĉ": 3975,
      "ĥĤ!!!": 3976,
      ")!)!!!!!!!!!!!!!!!!!!!!!!!!!!!!!!!!!!!!!!!!!!!!!!!!!!!!!!!!!!!!!!!!!!!!!!!!!!!!!!!!!!!!!!": 3977,
      "ďĉĈ!Ĉ!Ĉ!Ĉ!ććĈććďĉďĉďĉ!!ďĉ!!ďĉ!!!!!!!!)!!!!!!!!)!": 3978,
      "%&'(ďĉ!!!ďĉ!ďĉďĉ!ďĉćććĈ!Ĉ!Ĉ!Ĉ!%&'(Ĉ!Ĉ!ćććććĈ!ćĈĈďĉďĉ": 3979,
      "Ĉ!ĈĈ!Ĉ!Ĉ!ĈććĈ!ćďĉććććććććĈ!Ĉ!Ĉ!Ĉ!ćĈĈĈĈ!Ĉ!ćĈ!": 3980,
      "ďĉ%ď&'(ĉ!!": 3981,
      "ďĉ%ď&'(ĉďĉďĉ": 3982,
      "ćĈ!Ĉ!Ĉ!Ĉ!Ĉ!Ĉ!ĈĈ%&'(ďĉ!!!ďĉ!ďĉďĉ!ďĉćććĈ!Ĉ!Ĉ!Ĉ!%&'(Ĉ!Ĉ!ćććććĈ!ćĈĈďĉďĉ": 3983,
      "ććĈ!Ĉ!ĈĈ!ĈĈĈďĉďĉďĉďĉďĉďĉďĉĈ!Ĉ!Ĉ!Ĉ!Ĉ!Ĉ!Ĉ!ĈĈĈĈĈĈĈ!ĈĈĈĈĈĈĈĈĈĈĈĈĈĈĈĈĈĈĈĈ!": 3984,
      "ććĈ!ĈĈĈĈĈ!ćďĉďĉ!!!!!!!!!!!!!!!!!!!ďĉ!ďĉďĉ!!!!!!!!!!!!!!!!!!!!!!!!!!!!": 3985,
      "ďĉďĉďĉďĉďĉ!!ďĉ!ďĉ!ďĉďĉďĉ!": 3986,
      "Ĉ!ĈĈ!Ĉ!!ćĈ!Ĉ!Ĉ!Ĉ!ćĈ!ććĈ!ćďĉ!ďĉďĉ!!": 3987,
      "&'ď(": 3988,
      "ďĉďĉ%ď&'(ĉďĉďĉďĉďĉďĉ": 3989,
      "Ĉ!Ĉ!Ĉ!Ĉ!Ĉ!Ĉ!Ĉ!ĈĈĈĈĈĈĈ!ĈĈĈĈĈĈĈĈĈĈĈĈĈĈĈĈĈĈĈĈ!%&'(": 3990,
      "Ĉ!ďĉďĉćĈ!ďĉ!ććĈ!Ĉ!Ĉ!ĈćĈ!%&'(Ĉ!Ĉ!Ĉ!Ĉ!Ĉ!Ĉ!Ĉ!Ĉ!Ĉ!ďĉďĉ!ďĉ%&'(ćććććććććććććććć": 3991,
      "ďĈĉ!": 3992,
      "ďĉďĉďĉ!ďĉ!ďĉ!%&'(ďĉćć": 3993,
      "0011010101'(333": 3994,
      "ćććććććććććĈ!ĈćĈ!Ĉ!ĈćĈ!ćďĉďĉ!!ćććĈ!Ĉ!ćĈ!Ĉ!ĈĈĈĈ!ććĈďĉďĉ": 3995,
      "ćď%&'(ĉďĉććĈ!ďĉďĉďĉďĉ!ďĉďĉ!!ďĉďĉďĉďĉďĉďĉďĉ!ďĉ!ďĉć%&'(ććććććĈ!ćČČďĉďĉďĉ!!!!!ďĉďĉďĉ!ďĉďĉćććććĈ!Ĉ!ćĈĈ": 3996,
      "ćĈ!Ĉ!Ĉ!Ĉ!Ĉ!Ĉ!ĈĈďĉ!!!ďĉ!ďĉ%&'(": 3997,
      "ďĉ!ďĉďĉďĉ%&'(ďĉďĉďĉďĉ": 3998,
      "ďĉďĉ%&'(ďĉďĉĈ!ĈććĈĈ!Ĉ!ććĈ!Ĉ!ĈĈ!ĈĈĈďĉďĉďĉďĉďĉďĉďĉ": 3999,
      "ďĉďĉ!!ďĉ!!!!ďĉďĉďĉďĉ!!!!!!!!!!!!!!!!!!!!!!!!!!!!!!!!!!!!!!!!!!!!!ćććććććĈ!ćĈ!Ĉ!Ĉ!Ĉ!Ĉ!ćĈ!Ĉ!ćĈććĈćďĉ": 4000,
      "ďĉďĉďĉďĉćĈ!ĈĈ!Ĉ!ďĉ!ďĉ!ďĉďĉďĉ!!ďĉ!ďĉ!%&'(ďĉďĉďĉćďĉ!ďĉďĉďĉďĉ": 4001,
      "BBBB": 4002,
      "ďĉ!ďĉ!!Ĉďĉ!!!": 4003,
      "ććĈ!Ĉ!Ĉ!Ĉ!Ĉ!Ĉ!ććĈ!ćďĉ!ďĉććććĈ!ćĈ!ĈĈ!ććĈ!ćĈ!ĈĈ!ćĈ!Ĉ!ćĈ!ďĉ!)ććććććććććććĈ!": 4004,
      "ćććććććĈ!ćĈ!Ĉ!Ĉ!Ĉ!Ĉ!ćĈ!Ĉ!ćĈććĈćďĉćĈ!Ĉ!Ĉ!Ĉ!Ĉ!Ĉ!Ĉ!Ĉ!ćĈ!ćĈ!Ĉ!ĈćĈ!Ĉ!ďĉ%&'(": 4005,
      "ďĉďĉďĉďĉďĉďĉRTVaďĉććĈ!ćććĈćććĈĈ!Ĉ!ćĈ!ććĈćĈ!ćĈ!!Č!!Č!": 4006,
      "ćĈ!ćĈ!ćĈĈĈ!": 4007,
      "ćďĉĈ!ćĈ!Ĉ!Ĉ!ćĈ!Ĉ!Ĉ!ĈĈ!ćĈ!ďĉ!%&'(ďĉďĉďĉďĉďĉďĉďĉďĉďĉďĉďĉďĉďĉ": 4008,
      "ďBĉ": 4009,
      "ććĈ!Ĉ!Ĉ!ććĈ!Ĉ!Ĉ!ĈĈ!Ĉ!!ćĈ!Ĉ!Ĉ!Ĉ!ćĈ!ććĈ!ć%&'(ďĉ!ďĉďĉ!!ďĉďĉďĉďĉ!ďĉďĉ!!!!!!!!!!!!!!!!!!!!!!!!!!!": 4010,
      "ććććĈ!Ĉ!Ĉ!Ĉ!Ĉ!ĈĈ!Ĉ!ćďĉ!!%&'(ďĉďĉćĈ!ćďĉďĉ!ďĉďĉćććććĈ!ćČďĉďĉďĉďĉďĉďĉďĉ!": 4011,
      "ćććĈ!Ĉ!Ĉ!Ĉ!Ĉ!Ĉ!Ĉ!Ĉ!Ĉ!Ĉ!ćĈ!ćĈ!Ĉ!ćĈ!Ĉ!Ĉ!ćĈ!Ĉ!ć%&'(ďĉ!ďĉďĉďĉďĉďĉďĉďĉďĉ)ďĉďĉďĉďĉďĉďĉďĉ!ďĉ!!": 4012,
      "%Č": 4013,
      "%Ĥ": 4014,
      "Aĉ": 4015,
      "LĈ!": 4016,
      "ćM": 4017,
      "ć%ćĈ&'(": 4018,
      "ĉK": 4019,
      "!!!!ďĉďĉďĉďĉďĉďĉďĉďĉďĉďĉćććĈ!Ĉ!Ĉ!ćĈ!Ĉ!Ĉ!Ĉ!Ĉ!!": 4020,
      "ďĉć": 4021,
      "ďĉđ": 4022,
      "ďĉĈ!Ĉ!ĈĈĈĈĈĈĈĈĈĈĈĈĈĈĈĈĈĈĈĈĈĈĈĈďĉ!": 4023,
      "!!!!!!!!!!!!!!!!!!!!!!!!!!!!!": 4024,
      "ćć%&'(ďĉďĉ": 4025,
      "ďĉďĉ!!!!!!!!!!!!!!!!!!!!!!!!!!!!!!!!": 4026,
      "%&'(!!!!!!!!!!!!!!": 4027,
      "ďĉ!ďďĉĉ": 4028,
      "ćĈ%Ĉ&'(": 4029,
      ")!)!!!": 4030,
      "ďĉ!ďĉ%&'(ďĉ!": 4031,
      "ďĉďĉďĉďĉďĉďĉďĉďĉďĉďĉďĉďĉďĉďĉďĉ!": 4032,
      "!!!!!!!!!!!ďĉ!!ďĉďĉďĉďĉďĉďĉ!": 4033,
      "ďĉ%&'(ďĉďĉďĉďĉďĉďĉ": 4034,
      "Ĉ!ĈĈĈĈĈ!": 4035,
      "%&'(%&'(%&'(%&'(%&'(%&'(%&'(%&'(%&'(%&'(%&'(%&'(%&'(%&'(%&'(%&'(%&'(%&'(%&'(": 4036,
      "ďĉďĉ%&'(!!": 4037,
      "ďĉďĉ%&'(ďĉďĉďĉďĉďĉďĉďĉ!!!": 4038,
      "%!&'(!!!!!!!!!!!!!!!!!!!!!": 4039,
      "Ĉ!Ĉ!Ĉ!ćĈ!": 4040,
      "'(332232323": 4041,
      "Ĉ!Ĉ!Ĉ!ĈćĈĈ": 4042,
      "))C!": 4043,
      "ďĉďĉďĉ%&'(ďĉďĉďĉ!": 4044,
      "ďĉ!!!!!!!!!!!!!!!!!!!!!!!!!!!!!!!!!!!!!!!!!!!!!!!!!!!": 4045,
      "ďĉ!!!!!!!!!!!!!!!!!!!!!!!!!!!!!!!!!!!!!!!!!!!!!!!!!!!!!%!&'(": 4046,
      "!ďĉććĈ!Ĉ!ĈĈĈ!Ĉ!Ĉ!ĈĈćĈďĉ!!ďĉďĉ!!!)!)!!!!!!!!!!!!": 4047,
      "ďĉ!ďĉďĉďĉď%&'(ĉ": 4048,
      "Ĉ!ĈćĈ!Ĉ!Ĉ!Ĉćďĉ!ććććććććĈ!Ĉ!ćĈĈćĈ!ĈĈćĈ!ćĈĈćĈ!Ĉ!": 4049,
      "%ć&'(Ĉ!Ĉ!": 4050,
      "&'(!)": 4051,
      "L!LKL": 4052,
      "ďĉ!ďĉ!!!!!!!!!!!ďĉ!ďĉććććććĈććĈ!ďĉďĉďĉ!ććĈ!ć": 4053,
      "ďĉďĉ!ďĉďĉďĉ!!ďĉďĉ": 4054,
      "ćććĈ!ććĈ!Ĉ!": 4055,
      "ďĉďĉďĉďĉďĉďĉ%&'(!": 4056,
      "ćĈ!ćĈ!Ĉ!ĈćĈ!Ĉ!ďĉćĈ!": 4057,
      "%&'(ďĉďĉďĉďĉďĉďĉďĉďĉďĉďĉďĉďĉďĉďĉ!": 4058,
      "!!!!!!!!!!!!!!!!!!!!!!!!!!!!!!!!!!!!!!!!!!!!!!!!!!!!!!!!!!!!!!!!!!!!!!!!!!!!!!!!!!!!!!!!!!!!!!!!!!!": 4059,
      "ćĈ!ĈćĈ!Ĉ!ćĈ!ćĈ!ćĈ!ćĈ!ćĈ!Ĉ!ćĈ!ćĈ!Ĉ!Ĉ!ćĈ!Ĉ!Ĉ!ććĈ!Ĉ!Ĉ!ĈćĈ!Ĉ!ććĈ!ććĈ!ćĈ!Ĉ!ćĈććĈ!Ĉ!%&'(ďĉĈ!Ĉ!Ĉ!Ĉ!Ĉ!Ĉ!": 4060,
      "ć%Ĉ&'(!Ĉ!": 4061,
      "!!!!!!!!!!!!!!!!!!!!!!!!!!!!!!!!!!!!!!!!!!!!!!!!!!!!!!!!%!!!!!!!!!!!!!!!!!!!!!!!!!!!!!": 4062,
      "ćĈĈĈććĈ!Ĉ!ććĈ!ćććĈćĈćĈćĈćĈĈćĈĈćĈćĈćĈćĈ!Ĉ!ĈćĈ!": 4063,
      "ďĉďĉ!ďĉ!)ďĉďĉďĉ": 4064,
      "ďĉďĉď%&'(ĉďĉďĉďĉďĉďĉ": 4065,
      "ďĉćććććććĈ!ćĈ!ćďĉ!": 4066,
      "ďĉ!!!!!!!!!!!!!%!&'(": 4067,
      "ďĉďĉďĉď%&'(ĉďĉďĉďĉďĉďĉďĉďĉďĉ": 4068,
      "ďĉ!!!!!!!!!!!!!!!!!!ďĉ!!!!!!!!!!!!!!!!!!!ďĉ!!!!!!!!ďĉ!ďĉ!!!!!!!!": 4069,
      "ďĉďĉďĉďĉďĉďĉďĉ%&'(ćĈ!Ĉ!Ĉ!Ĉ!Ĉ!ĈĈĈ!Ĉ!ĈĈ!Ĉ!ĈĈ!Ĉ!ĈĈ!ĈĈ!Ĉ!ĈĈ!ĈĈ!Ĉ!ĈĈĈ!ĈĈĈĈ!ĈĈĈĈ": 4070,
      "ćććďĉććććććĈ!ććČ%&'(ďĉďĉďĉďĉďĉďĉďĉďĉ": 4071,
      "ć%Ĉ&'(ćĈ": 4072,
      "ćĈ!!ććĈ!ććĈ!ćĈ!Ĉ!Ĉ!Ĉ!Ĉ!Ĉ!ĈćĈĈĈĈ!ĈććĈ!ććććĈć!!": 4073,
      "Ħ!Ħ": 4074,
      "ďćĈĉ": 4075,
      "ďĉ%&'(Ĉ!Ĉ!Ĉ!Ĉ!ĈĈĈ!Ĉ!Ĉ!ĈĈĈĈ!Ĉ!ĈĈ!Ĉ!Ĉ!ĈĈĈĈćďĉďĉćććććććĈ!Ĉ!Ĉ!ćĈ!Ĉ!Ĉ!": 4076,
      "ďĉďĉďĉďĉďĉďĉRTVaďĉććĈ!": 4077,
      "ďĉďĉďĉďĉďĉ)!)ďĉďĉďĉćććĈ!Ĉ!Ĉ!ĈĈ!Ĉ!ćĈ!Ĉ!Ĉ!ĈćĈ!Ĉ!Ĉ!Ĉćďĉ!ććććććććĈ!Ĉ!ćĈĈ": 4078,
      "Ğğďĉďĉďĉĝ": 4079,
      "ďĉďĉ!ďĉ!ďĉďĉďĉďĉďĉĈ!Ĉ!Ĉ!Ĉ!": 4080,
      "!!!!!!!!!!!!ďĉ!!ďĉ!!!!!!!!!!!ďĉďĉ%&'(ďĉďĉćĈ!ĈĈ!Ĉ!ďĉ!ďĉ!ďĉďĉďĉ!!ďĉ!ďĉ!": 4081,
      "ďĉďĉďĉďĉďĉ)!)ďĉďĉďĉ!ďĉďĉďĉ!!ďĉďĉďĉďĉ!ďĉ!ďĉ!ďĉ!ďĉ!ďĉ!%&'(ďĉ": 4082,
      "ďĉďĉ%&'(Ĉ!Ĉ!ĈĈ!Ĉ!ĈĈĈĈ!Ĉ!ĈĈ!Ĉ!Ĉ!!Ĉ!ďĉ!ďĉďĉďĉďĉďĉ": 4083,
      "ďĉďĉďĉ!!ďĉďĉ!ďĉ!!ďĉććććććĈ!ććĈ!ććĈ!Ĉ!Ĉ!Ĉ!ćććĈ!Ĉ!Ĉ!ććĈćĈ!Ĉ!ĈćĈ!Ĉ!": 4084,
      "ďĉćććććĈ!Ĉ!Ĉ!ćĈĈćĈ%&'(ďĉďĉĈ!Ĉďĉ!ďĉ!ďĉćććććććććććĈ!ćĈ!!ććĈ!ććĈ!ćĈ!Ĉ!Ĉ!Ĉ!Ĉ!Ĉ!ĈćĈĈĈĈ!ĈććĈ!ććććĈć!!%&'(": 4085,
      "ćďĉ!ďĉďĉďĉďĉďĉďĉďĉďĉ)ďĉďĉďĉďĉďĉďĉďĉ!%&'(ďĉ!!ďĉďĉďĉďĉďĉďĉďĉ)!": 4086,
      "ďĉćććććććĈĈććććććĈ!ćĈĈďĉďĉ!!ďĉ!!!!!!!%!!!!!!!!!!!!&'(": 4087,
      "ďĉďĉďĉ!ććĈ!ćďĉďĉďĉďĉďĉďĉďĉďĉ%&'(ďĉ!!ďĉďĉďĉćććĈ!Ĉ!Ĉ!Ĉ!ĈĈĈĈĈĈĈĈĈĈ!ćĈ!Ĉ!ĈćĈĈćĈćĈĈĈćĈĈďĉĈ!ĈĈĈĈ": 4088,
      "ďĉĈ!Ĉ!Ĉ!Ĉ!%&'(Ĉ!ĈĈĈ!ĈĈĈćďĉďĉ!ďĉďĉć%&'(Ĉ!Ĉ!Ĉ!Ĉ!Ĉ!Ĉ!": 4089,
      "ćĈ!Ĉ!Ĉ!Ĉ!Ĉ!Ĉ!ĈĈďĉ!!!ďĉ!ďĉ%&'(ďĉ!ďĉćććĈ!Ĉ!Ĉ!Ĉ!Ĉ!Ĉ!ćććććĈ!ćĈĈ%&'(ďĉďĉ!!!!!!!!!!!ďĉćććĈ!Ĉ!Ĉ!Ĉ": 4090,
      "0001011": 4091,
      "ĈD": 4092,
      "ďĈ!": 4093,
      "ďďĉďĉ": 4094,
      "ďĈ!Ĉ!Ĉ!ĉ": 4095,
      "ē!!!": 4096,
      "!!Ħ": 4097,
      "ďĉćďĉ!!!!ćďĉ!ćććććďĉ!ććććĈćććĈ!Ĉ!ĈćĈ!ć": 4098,
      "ććČ": 4099,
      "ćććĈ!ĈĈ": 4100,
      "%&'(!!!!!!!!!": 4101,
      "%&'(ďĉ!!ďĉ!!!!!!!!!!!ďĉ!!ćććććććĈ!Ĉ!Ĉ!ććĈĈććĈ!ćĈĈ": 4102,
      "ďĉďĉďĉďĉ%&'(ďĉďĉďĉďĉďĉďĉďĉďĉ": 4103,
      "ďĉ!ĉ": 4104,
      "ďĉ!ďĉďĉ!!ďĉ": 4105,
      "ććĈĉ!": 4106,
      ")!)ďĉďĉďĉďĉďĉ!)!)!ďĉďĉ!!!)!)!!": 4107,
      "ďĉďĉďĉ!ďĉďĉďĉďĉďĉ!ďĉďĉďĉ!": 4108,
      "MMMMMMM": 4109,
      "01001101010011": 4110,
      "ćĈĈĈćć": 4111,
      "!LďKĉ": 4112,
      "ďĉ%&'(ďĉ!!ďĉ!ďĉďĉ!!ďĉďĉďĉďĉďĉďĉďĉďĉ!": 4113,
      "ď%&'(ĉďĉďĉďĉďĉďĉ": 4114,
      "ďĉ!ďĉďĉďĉďĉďĉ!ďĉďĉĈ!Ĉ!": 4115,
      "Ĉ!Ĉ!ćĈ!Ĉ!Ĉ!Ĉććďĉ!ćĈ!ćĈ": 4116,
      "ďĉďĉďĉďĉ!ďĉďĉďĉ!!)!)!!!!!!!!!!!!!!!!!!!!ďĉ!!!!!!!!!!!!!!!!!!!!!!!!!!!!!!!!!!!ďĉ!ďĉďĉ!": 4117,
      "ćďĉ!%&'(ďĉďĉďĉ": 4118,
      "%!&'(!!!!!": 4119,
      "ć%&'(ćĈ!ćĈ!Ĉ!ĈĈĈ!ĈĈĈććĈ!ĈĈ!ĈĈĈĈ!ĈĈ!ĈĈĈĈďĉďĉďĉ!!!!!!!!!!": 4120,
      "ć%&'(ďĉďĉďĉďĉďĉďĉďĉ!ďĉ!ďĉďĉďĉ!ďĉ!ďĉďĉďĉĈ!Ĉ!Ĉ!Ĉ!ććĈćć": 4121,
      ")!)!!!!!!!!!!!!!!!!!!!!!!!!!!!!!!!!!!!!!!!!!!!!!!!!!!!!!!!!!!!!!!!!!!!!!!!!!!!!": 4122,
      "ďĉ!!ďĉ%ď&'(ĉ": 4123,
      "ďĉďĉďĉďĉďĉćććĈ!Ĉ!Ĉ!Ĉ!Ĉ": 4124,
      "Ĉ!ćĈ!ĈĈ": 4125,
      "ď!)": 4126,
      ")!)!!!!!!!!!!!!!!!!!!!!!!!!": 4127,
      "ďĉďĉďĉďĉďĉďĉďĉďĉ!ćĈ!Č": 4128,
      ")ďĉďĉ!ďĉ!ďĉ!": 4129,
      "%&'(!)": 4130,
      "ďĉďďĉďĉĉ": 4131,
      "ćĈĈ!Ĉ!ĈćĈĈ!ćĈ!Ĉ!ĈĈĈĈćĈĈĈĈćĈĈćĈĈĈĈĈĈćĈĈĈĈćĈĈćĈĈćĈ!ćććĈ!ććďĉďĉ!!!!": 4132,
      "ćććĈćććĈĈ!Ĉ!ćĈ!ććĈćĈ!ćĈ!!Č!!Č!ďĉ!ďĉĈ!Ĉ!ćĈ!Ĉ!ĈĈĈďĉ!ďĉ!!!SĂĄĆ!!ďĉ!!!!!!RTVa!!!S%&'(ĂĄĆ!!!!R!!!S": 4133,
      "!!!!!!!!!!!!!!!!!!!ďĉ!!!!!!!!!!!!!!!!!!!!!!!!!!!!!!!!!!!!": 4134,
      "ćďĉďĉďĉďĉććĈ!Ĉďĉ%&'(Ĉ!Ĉ!ĈĈĈĈĈĈĈĈĈĈĈĈĈĈĈĈĈĈĈĈĈĈĈĈďĉ!": 4135,
      "ćććĈ!Ĉ!ćĈ!Ĉ!ĈĈ!Ĉ!ĈćĈĈĈĈĈ!Ĉ!Ĉ!Ĉ!Ĉ!Ĉ!ĈĈĈ!Ĉ!ĈĈĈĈďĉ!!ďĉďĉ!!ďĉ!ďĉ!!": 4136,
      "LLLLLLLLLLLLLLLLLLLLLLLLLLLLLLLLLLLLLLLLLLLLLLLL": 4137,
      "ďď!ďď": 4138,
      "%&'(ďĉ!!!ďĉďĉďĉ!!ďĉćććĈ!Ĉ!Ĉ!Ĉ!ĈĈĈĈĈĈĈĈĈĈ!ćĈ!Ĉ!": 4139,
      ")!)!!!!!!!!!!!!!!!!!!ďĉććććĈ!ćĈ!Ĉ!ćĈ!Ĉ!ćĈ!ćĈ!Ĉ!": 4140,
      "ďĉďĉ%&'(ďĉďĉďĉ!!ďĉ!ďĉďĉ!ďĉ!ďĉďĉďĉ!": 4141,
      "ďĉďĉďĉďĉďĉ!!ďĉ!!ďĉďĉďĉ)!)ďĉďĉďĉďĉďĉ!)!)!ďĉďĉ!!!)!)!!ďĉďĉ%&'(ďĉďĉďĉ!!": 4142,
      "ďĉ!ďĉďĉďĉďĉ%&'(ďĉďĉďĉćďĉ!ďĉďĉďĉďĉ!!ďĉ%&'(ďĉďĉďĉďĉďĉďĉ!ďĉďĉďĉďĉ!!ďĉďĉďĉďĉďĉďĉ!": 4143,
      "%Ĉ!Ĉ&'(": 4144,
      "Ĉ!ĈĈ!ĈĈ!ĈĈ!ćĈ!ćĈ!ćďĉďĉďĉ": 4145,
      "Ĉ!ďĉďĉćĈ!ďĉ!%&'(ććĈ!Ĉ!Ĉ!ĈćĈ!Ĉ!Ĉ!Ĉ!Ĉ!Ĉ!Ĉ!Ĉ!Ĉ!Ĉ!%&'(ďĉďĉ!": 4146,
      "ćĈ!%&'(ďĉ!)ććććććććććććĈ!ććĈ!ćĈ!ćĈ!Ĉ!Ĉ!ćĈ!Ĉ!ćĈ!": 4147,
      "ďĉ!ďĉďĉďĉďĉďĉďĉďĉ%&'(ďĉďĉďĉ!!": 4148,
      ")!)!!ďĉďĉďĉďĉďĉ!!ďĉ!ďĉďĉďĉďĉďĉďĉďĉďĉ": 4149,
      "Ĉ!ćĈ!Ĉ!ĈćĈĈĈćĈĈĈćĈĈćććććďĉďĉďĉĈ!ĈĈĈĈĈ!ćĈ!Ĉ!ĈćĈĈĈćĈĈĈĈĈĈ!ĈĈ!ĈĈĈ": 4150,
      "ćććććććĈ!ćĈ!Ĉ!Ĉ!Ĉ!Ĉ!ćĈ!Ĉ!ćĈććĈćďĉćĈ!Ĉ!Ĉ!Ĉ!Ĉ!Ĉ!Ĉ!Ĉ!ćĈ!ćĈ!Ĉ!ĈćĈ!Ĉ!ďĉ%&'(ćĈ!ďĉďĉďĉďĉďĉďĉďĉďĉďĉďĉďĉďĉ": 4151,
      "%ē": 4152,
      ")Ĉ!)": 4153,
      "AL": 4154,
      "B)": 4155,
      "C!!": 4156,
      "Čĉ": 4157,
      "ĒĖ": 4158,
      "ėĥĤ!": 4159,
      "Ħĉ": 4160,
      "Ĉ!ć!": 4161,
      "ďĉĝ": 4162,
      "ďĉ!!!!!!!%!&'(": 4163,
      "ććďćĉ": 4164,
      "ďĉďĉď%&'(ĉ!": 4165,
      "ĈĈćĈ!Ĉ!": 4166,
      "ĈĈćĈĈ": 4167,
      "%&'(ćććććććććććć": 4168,
      "ďĉ!ććĈ!ćďĉďĉďĉďĉďĉďĉďĉďĉ": 4169,
      "!!!%!!!!!!!!!!&'(!!!!!!!!!!!!!!!!!!!!!!!!!!!!!!!!!!!!!!!!!!!!!!!!!!!!!!!!!!!!!!!!": 4170,
      "Ĉ!Ĉĉ!": 4171,
      "ććĈ!ćĈ": 4172,
      "ďĉďĉďĉćććĈ!Ĉ!Ĉ!Ĉ!ĈĈĈĈĈĈĈĈĈĈ!ćĈ!Ĉ!ĈćĈĈćĈćĈĈĈćĈĈ%&'(ďĉ": 4173,
      "MMMMďMĉ": 4174,
      "ććĈ!Ĉ!Ĉ!ćĈ!Ĉ!": 4175,
      "!!!!!!!!!!!)!!!!!!!!!!!!!!!ďĉďĉďĉ)!)ďĉďĉďĉďĉďĉďĉ!!!": 4176,
      "%&'(ĉĉĉĉ": 4177,
      "!!!!!!!)!)!!!!!!!!!!!!!!!!!!!!!!!!!!!!!!!!!!!!!!!!!!!!!!!!!!!!!!!!!!!!!!!": 4178,
      "!!!!!!!Ĉ!Ĉ!Ĉďĉ!!!!!!!!!!!!!!!!!!!!!!!!!!!!!!!!!!!!!!!!!!!!!!!!!!!!!!!!!!!!!!!!": 4179,
      "ďĉďĉďĉ!!ććććĈ!Ĉ!ćĈ!ćĈ!Ĉ!ććĈ!ĈććĈ!Ĉ!ćĈ!ćĈ!Ĉ!Ĉ!ćĈĈ!": 4180,
      "ďĉ!ďĉ!ďĉďĉ%&'(ďĉďĉďĉ": 4181,
      "ćďĉ!ććĈ!ćĈ!Ĉ!ĈĈĈ!ĈĈĈććĈ!ĈĈ!ĈĈĈĈ!ĈĈ!ĈĈĈĈďĉďĉďĉ!!!!!!!!!!": 4182,
      "ć%&'(Ĉ!ĈĈ!Ĉ": 4183,
      "ććććććĈ!ććĈ!Ĉ!Ĉ!Ĉ": 4184,
      "ćĈ!Ĉ!Ĉ!ćĈ!ćĈ!ćĈĈ": 4185,
      ")!)!!!!!!!!!!!!!!!!!!!!!!!!!!!!!!!!!!!!!!!!!!!!!!!!!!!!!!!!!!!!!!!!!": 4186,
      "ďĉďĉďĉďĉďĉ%&'(ďĉĈ!Ĉ!Ĉ!Ĉ!Ĉ!Ĉ!": 4187,
      "LLLLLLLL!LK": 4188,
      "%&ď'(ĉ!!": 4189,
      "%&'ď(ĉďĉďĉ!": 4190,
      "ćĈćĈĈĈ!ćĈĈ": 4191,
      "!!!!!!!!!!!!!!!!!!!!!!!!!!!!ććććĈ!ĈĈ%&'(ďĉ!!!!!!!!!!!": 4192,
      "%!!!&'(S": 4193,
      "ďĉ!!!!!!!!!!!!!!!!!!!ďĉ!!!!!!!!": 4194,
      "ĈĈĈĈĈĈĈĈĈĈ!ćĈ!Ĉ!ĈćĈĈćĈćĈĈĈćĈĈďĉĈ!Ĉ!ĈĈĈĈ!Ĉ!Ĉ!ĈĈĈĈĈĈĈĈĈĈ!ĈĈĈ!ĈĈ!ĈĈĈĈ!ĈĈ!Ĉ": 4195,
      "ď!ĉďĉ": 4196,
      "ďĉďĉ!ďĉ!!ďĉďĉďĉďĉ!": 4197,
      "!!!!!!!!!!!!!!!!!!!!!!!!!!!!!!!!!!!!!!!!!!!!!!!!!!!!!!!!!!!!!!!!!!%&'(": 4198,
      "ČďĉďĉććĈ!ćĈ!ćĈ!ćĈ!ćĈćĈćĈćďĉďĉ": 4199,
      "!&'(ďĉ))ďĉď": 4200,
      "ććććĈ!ććĈ!ćććĈ!ćććĈćďĉďĉććĈ!ďĉďĉďĉďĉ!ďĉďĉ!!": 4201,
      "!!!SĂĄĆ!!ďĉ!!!!!!RTVa!!!SĂĄĆ!!!!R!!!S": 4202,
      "%&'(ďĉ!!!!!!!!!!!!!!!!!!!!!ďĉďĉďĉďĉĈ!ĈĈĈćĈ!ćĈĈĈďĉďĉďĉďĉ%&'(ďĉďĉďĉďĉ": 4203,
      "Ĉ!ĈććĈĈ!Ĉ!ććĈ!Ĉ!ĈĈ!ĈĈĈďĉďĉďĉďĉďĉďĉďĉ%&'(": 4204,
      "ćĈĈĈććĈ!Ĉ!ććĈ!ćććĈćĈćĈćĈćĈĈćĈĈćĈćĈćĈćĈ!Ĉ!ĈćĈ!Ĉ!Ĉ!ććććĈćĈććĈ!ćĈ!Ĉ!Ĉ!Ĉ!ćĈ!Ĉ!": 4205,
      "!!!!!!!!!!!!!!!!!!!!!!!!!!!!!!!!!!!!!!!ďĉ!ďĉ!!!!!!!!!!!ďĉ!ďĉ%&'(": 4206,
      "ďĉ!!ďĉ!ććĈ!ďĉ!ďĉďĉ!!ďĉďĉ)ďĉďĉ!ďĉďĉ!!ďĉ!!!!ďĉďĉďĉďĉ": 4207,
      "ćďĉ!ďĉďĉ!!ďĉďĉďĉďĉ!ďĉďĉ!!!!!!!!!!!!!!!!!!!!!!!!!!!": 4208,
      "ćĈ!Ĉ!Ĉ!Ĉ!Ĉ!Ĉ!ĈĈďĉ!!!ďĉ!ďĉďĉ!ďĉćććĈ!Ĉ!Ĉ!Ĉ!%&'(Ĉ!Ĉ!ćććććĈ!ćĈĈďĉďĉ": 4209,
      "!!!!!!!!!!!!ďĉ!!ďĉ!!!!!": 4210,
      "ďĉ!ďĉďĉďĉ%&'(ďĉďĉďĉďĉďĉďĉďĉ!!ćććďĉććććććĈ!ććČ": 4211,
      "RTVa!!!SĂĄĆďĉćććďĉ!%&'(ďĉďĉ!": 4212,
      "Ĉ!Ĉ!Ĉ!Ĉ!ĈćĈ!ĈĈ!ĈĈĈćĈćďĉďĉďĉ!!!": 4213,
      "ďĉďĉďĉ%&'(ďĉďĉ!!ďĉ!ďĉďĉ!ďĉ!ďĉďĉďĉ!": 4214,
      "%&'(ďĉďĉ!ďĉ!!!!!!!!ďĉďĉďĉďĉďĉććććĈ!ćĈ!ĈćĈĈ!Ĉ!Ĉ!Ĉ!ĈćĈĈćĈĈĈĈĈĈ!%&'(ďĉďĉďĉ!))ďĉ!ďĉďĉďĉďĉćďĉ!": 4215,
      "%&'(ďĉďĉ!ďĉďĉďĉďĉďĉďĉďĉďĉ!ďĉďĉďĉďĉďĉćććć": 4216,
      "ďĉďĉĈ!Ĉďĉ!ďĉ!ďĉćććććććććććĈ!ćĈ!!ććĈ!ććĈ!ćĈ!Ĉ!Ĉ!Ĉ!Ĉ!Ĉ!Ĉ": 4217,
      "ďĉ!!ďĉďĉďĉ%&'(!": 4218,
      ")!!!!!!!!!!!!!!!!!!!!!!!!!!!!!!!!%&'(ďĉďĉďĉ!ďĉ!!ďĉďĉďĉďĉďĉďĉ!ďĉďĉ!!ďĉ!!ďĉ!ććĈ!": 4219,
      "!ďĉ!!!!ďĉďĉďĉďĉďĉďĉďĉďĉďĉďĉ%&'(ćććĈ!Ĉ!Ĉ!ćĈ!Ĉ!Ĉ!Ĉ!Ĉ!!": 4220,
      "Ĕ!ďĉďĉďĉďĉćććďĉ!ďĉďĉ!%&'(ďĉ!ďĉ!!Ĉ": 4221,
      "ďĉďĉďĉćďĉďĉďĉďĉ!ććĈ!Ĉ!Ĉ!Ĉ!Ĉ": 4222,
      "ďĐĉ": 4223,
      "Ĉ!ĈĈĈĈĈ!ćĈ!Ĉ!ĈćĈĈĈćĈĈĈĈĈĈ!ĈĈ!ĈĈĈćĈĈĈćĈ!ĈĈĈĈ!ĈĈ!Ĉ%&'(": 4224,
      "ćĈ!Ĉ!ćĈĈ!ćĈ!ćĈ!ĈĈ!Ĉ!Ĉ!ćĈ!Ĉ!Ĉ!ććĈ!Ĉ!Ĉ!Ĉ!Ĉ!Ĉ!ćĈćĈ!ććććććĈ!ćĈ!ććĈćććĈćććĈĈćĈćĈ!Ĉ!": 4225,
      "%&'(ďĉ!ćĈ!ćĈďĉďĉďĉďĉ!ďĉďĉďĉďĉ!ďĉ!!Ĉ!ĈćĈ!Ĉ!Ĉ!ĈćĈ!ćć%&'(ďĉ!Ĉ!ĈćĈ!Ĉ!Ĉ!ĈćĈ!ćć": 4226,
      "ďĉ!ćććĈ!Ĉ!ćĈ!Ĉ!ĈĈ!Ĉ!ĈćĈĈĈĈĈ!Ĉ!Ĉ!Ĉ!Ĉ!Ĉ!ĈĈĈ!Ĉ!ĈĈĈĈ%&'(ďĉ!!ďĉďĉ!!ďĉ!ďĉ!!ďĉďĉďĉ!ďĉććĈ!": 4227,
      "!!!!!!!!!ďĉ!!!!!!!!!!!)!!!!!!!!!!!!!!!ďĉďĉ%&'(ďĉ)!)ďĉďĉďĉďĉďĉďĉ!!!ďĉ!!ďĉ!ďĉ!ććĈ!Ĉ!Ĉ!ććĈ!Ĉ!Ĉ!ĈĈ!Ĉ": 4228,
      "Ĉ!Ĉ!ĈĈĈĈĈĈćĈ!ĈĈĈďĉ%&'(%&'(%&'(ďĉďĉďĉďĉ!ďĉďĉ%!!!&'(ďĉďĉďĉ!!ďĉ!ććĈ!Ĉ!Ĉ!Ĉ!Ĉ!ďĉďĉ!ďĉćććććĈ!Ĉ!Ĉ!Ĉ!Ĉ!Ĉ!": 4229,
      "%!L&'(K": 4230,
      "!!!!!!!!!!!!!!!!!!!ďĉ!!!!!!!!!!!!!!!!!!!!!!!!!!!!!!!!!!!!%!!!!!!!!!!!!!!!!!!!!!!!!!!!": 4231,
      "ďĉďĉďĉďĉďĉ%&'(ďĉĈ!Ĉ!Ĉ!Ĉ!Ĉ!Ĉ!ćďĉďĉďĉćĈ!Ĉ!Ĉ!Ĉ!": 4232,
      ")ę": 4233,
      "EĈ": 4234,
      "Eďĉ": 4235,
      "ĈćĈ!Ĉ!Ĉ!": 4236,
      "Ĉ%&'(!": 4237,
      "ď!!!!!!": 4238,
      "ēĒ!!Ė": 4239,
      "ďĉ!!!!RTVa!!!SĂĄĆ": 4240,
      "ćĈ!ďĉďĉďĉďĉďĉďĉďĉďĉ": 4241,
      "ćĈ!Ĉ!ĈĈĈ": 4242,
      "ćĈ(": 4243,
      "ćĈćĈĈĈ": 4244,
      "ćĈ!ćĈ!ĈĈ": 4245,
      "ćĈ!ćĈ!ćĈ!Ĉ!Ĉ": 4246,
      "ďĉďĉ!ďĉďĉďĉďĉďĉďĉďĉ!": 4247,
      "ććććććććĈ!Ĉ!Ĉ!ĈćĈĈ!Ĉ!ĈćĈĈ!ćĈ!Ĉ!ĈĈĈĈćĈĈĈĈćĈĈćĈĈĈĈĈĈćĈĈĈĈćĈĈćĈĈćĈ!ćććĈ!ćć": 4248,
      "ďĉďĉďĉď%&'(ĉ!": 4249,
      "ćĈ!ĈĈ!Ĉ!Ĉ!ćĈ!ćĈďĉďĉďĉďĉ!!!!!!!!!ďĉ!!!!!!!!": 4250,
      "ďĉ!ďĉ!!!!!!!!!!!!!!!!!!!!!!!!!!!!!!!!!!!!!!!!!!!!!!!!!!!!": 4251,
      "Ĉ!ĈĈĈďĉďĉďĉďĉďĉďĉďĉĈ!Ĉ!Ĉ!Ĉ!Ĉ!Ĉ!Ĉ!ĈĈĈĈĈĈĈ!ĈĈĈĈĈĈĈĈĈĈĈĈĈĈĈĈĈĈĈĈ!": 4252,
      "!!!!!!)!)!!!!!!!!!!!!!!!!!": 4253,
      "!!!!!%!!!!!!!&'(": 4254,
      "!L%K&'(": 4255,
      "ď%&'(ĉďĉďĉďĉďĉ!": 4256,
      "LLLLL!LK": 4257,
      "ďĉďĉďĉ!!ďĉ!ďĉďĉ!": 4258,
      "!!!!!!!!!!!!!!%&'(!!!!!!!!!!!!!!!!!!!!!!!!!!!!!!!!!!!!!!!!!!!!!!!!!!!!!!!!!!!!!!!!": 4259,
      "!!!!!!!!!!%!!&'(": 4260,
      "ćĈ!ćĈĈ!Ĉ": 4261,
      "%ď&'(ĉďĉďĉďĉďĉďĉďĉďĉ": 4262,
      "%Ĉ&'(ĈĈĈĈĈĈĈĈĈĈĈĈĈĈĈĈ": 4263,
      "%Ĉ&'(ĈĈĈĈĈĈĈ": 4264,
      "ďĉďĉ%&'(ďĉ!ďĉďĉďĉďĉďĉďĉďĉďĉ": 4265,
      "ďĉććććććĈććĈ!": 4266,
      "%!&'(!!": 4267,
      "ďĉďĉďĉ%&'(!!!!ďĉ!!!ćććććĈ!ĈĈ!ĈĈĈ!Ĉ!Ĉ!Ĉ!Ĉ!Ĉ!Ĉ!Ĉ!Ĉ!Ĉ!Ĉ!Ĉ!ćĈ!ďĉ!ďĉ!!!!!!!!!!!!!!!!ďĉ!!!!!!!!!!!!!!!!!": 4268,
      ")!)!!!!!!!!!!!!!!!!!!!!!!!!!!!!!!!!!!!!!!!!!!!!!!!!!!!!!!!!!!!!!!!!!!!!!!!!": 4269,
      "ďĉďĉďĉďĉďĉ%&ď'(ĉ": 4270,
      "%&-+/,'(%&-+/,'(\"": 4271,
      "ďĉććďĉďĉďĉ!!!!": 4272,
      "!ďĉ!!!!!!!!!!!!!!!!!!!!!!!!!!!!!!!!!!!!!!!!!!!!!!!!!!!!!!!!!!!!!!!!!!!!!": 4273,
      "ďĉ!ďĉďĉ!ďĉ!ďĉ!!!": 4274,
      "%&'(!ďĉďĉ!ďĉ!!!!!!!!ďĉďĉďĉďĉďĉććććĈ!ćĈ!ĈćĈĈ!Ĉ!Ĉ!Ĉ!ĈćĈĈćĈĈĈĈĈĈ!%&'(ďĉďĉďĉ!))ďĉ!ďĉďĉďĉďĉ": 4275,
      "ďĉ!!!!!!!!!!!%!!!!!!": 4276,
      "ďĉďĉ!ďĉ%!&'(": 4277,
      "ďĉďĉ!ďĉďĉďĉ!!)!)!!!!!!!!!!!!!!!!!!!!ďĉ!!!!!!!!!!!!!!!!!!!!!!!!!!!!!!!!!!!": 4278,
      "ďĉďďĉĉ!": 4279,
      "Ĉ!ĈĈ!Ĉ!Ĉ!Ĉ!ĈĈĈĈĈĈĈĈĈĈĈĈĈĈ!Ĉ!Ĉ!Ĉ!ĈĈĈĈĈ!Ĉ!Ĉ!Ĉ!Ĉ!Ĉ!ĈĈ!ĈĈ!ĈĈ!ĈĈĈ!ĈĈĈĈĈ!ĈĈĈĈĈĈ!Ĉ!ĈĈ!ĈĈĈĈ!ĈĈĈĈĈĈĈĈ%&'(ďĉ": 4280,
      "ďĉďćĉ": 4281,
      "&'(!!!!!!!!!!!!!!!!!!!!!!!!!!!!!!!!!!!!!!!!!!!!!!!%!!!!!!!!!!!!!!": 4282,
      "ć%Ĉ&'(!Ĉ": 4283,
      "!&'(ďĉ))ďĉďĉ": 4284,
      ")))ĉ": 4285,
      "ćĈ!ĈĈĈ!ĈĈćĈ!Ĉ!Ĉ!ćĈćĈĈĈĈĈćĈĈ": 4286,
      "ďĉ!!!!!!!!!!!!!!!%!&'(": 4287,
      "ďĉ!!!ćććĈćĈ!ćĈ!ĈĈ!Ĉ!ćĈĈĈĈĈĈĈĈĈĈĈĈĈ!ćĈ!ćĈĈĈĈ!Ĉ%&'(ďĉććďĉďĉ!!ďĉććĈ!ĈĈĈĈĈ!": 4288,
      "ćĈĈ!ćĈ!Ĉ!Ĉ!Ĉ!Ĉ!ĈĈĈćĈ!Ĉ!Ĉ!ćďĉćććďĉ!!ďĉďĉďĉ!": 4289,
      ")!)!ďĉďĉ!!!)!)!!ďĉďĉďĉďĉďĉ!!ďĉ!ďĉďĉďĉďĉ": 4290,
      "ćĈ!ćĈ!Ĉ!ćĈĈ!Ĉ!Ĉ!Ĉ!ćĈćĈĈćĈ!Ĉ!Ĉ!ćĈ!Ĉ!Ĉ!Ĉ!": 4291,
      "ćďĉďĉ!!ďĉďĉďĉďĉććććĈ!ĈĈ!ćĈ!ĈĈ!Ĉ!Ĉ!ćĈ!ćĈ": 4292,
      "%&'(Ĉ!Ĉ!ććććĈćĈććĈ!ćĈ!Ĉ!Ĉ!Ĉ!ćĈ!Ĉ!ćĈ!ćĈ!Ĉ!ćĈ!ĈćĈ!ĈĈ!ĈćĈćĈćĈćććĈćĈćććĈćĈ": 4293,
      "ććĈ!Ĉ!Ĉ!ććĈ!Ĉ!Ĉ!ĈĈ!Ĉ!!ćĈ!Ĉ!Ĉ!Ĉ!ćĈ!ććĈ!ćďĉ!": 4294,
      "ćĈ!Ĉ!ćĈĈ!ćĈ!ćĈ!ĈĈ!Ĉ!Ĉ!ćĈ!Ĉ!": 4295,
      "ďĉďĉ!!ďĉ!ďĉ!!ďĉďĉďĉ!ďĉććĈ!ďĉ!ďĉ!!ćĈ!%&'(ďĉďĉďĉĈ!Ĉ!Ĉ!Ĉ!Ĉ!ćĈ!ĈĈĈĈćĈ!ćĈ!ćďĉďĉďĉďĉ!ďĉ!ďĉďĉ": 4296,
      "!!!!!!!ďĉ!!ďĉďĉ!!!ďĉďĉďĉďĉďĉ!ďĉ%&'(": 4297,
      "Ē!!!Ħ": 4298,
      "ď)ĉ!": 4299,
      "!!!!!!!%!&'(!!": 4300,
      "ďĉ!ďĉďĉďĉďĉďĉďĉďĉďĉďĉďĉ!!ćććďĉ": 4301,
      "ďĉ%&'(ďĉďĉ!ććĈ!ćďĉďĉďĉďĉďĉďĉďĉďĉ": 4302,
      "ďĉďĉďĉďĉ%&'(ďĉďĉĈ!Ĉ!Ĉ!Ĉ!Ĉ!Ĉ!ćďĉďĉďĉćĈ!Ĉ!Ĉ!Ĉ!ďĉ!!!!!!!!!!!!!!!!!!!!!!!!!!!!!!!!!!!!!!!!!!!!!!!!!!!!": 4303,
      "%&'(%&'(ďĉ!!ććććććĈććĈ!ďĉćĈ!Ĉ!Čďĉďĉďĉ!ććĈ!ć%&'(ďĉďĉďĉďĉďĉďĉďĉďĉďĉ!!!ďĉ%&'(ďĉďĉ!!ďĉ": 4304,
      "ďĉ!ďĉ!!!!!!ďĉďĉ!!!!ďĉďĉďĉććĈ!Ĉ!ćĈĈ!ćĈ!Ĉ!Ĉ!Ĉ!Ĉ!ĈĈĈ": 4305,
      "Ĉ!ćĈ!Ĉ!Ĉ!Ĉ!Ĉ!%&'(!ďĉďĉ!ďĉ!!!!!!!!ďĉďĉďĉďĉďĉććććĈ!ćĈ!ĈćĈĈ!Ĉ!Ĉ!Ĉ!ĈćĈĈćĈĈĈĈĈĈ!%&'(ďĉďĉďĉ!))ďĉ!ďĉďĉďĉďĉ": 4306,
      ")!)!!!!!!!!!!!!!!!!!!!!!!!!!!!!!!!!!!!!!!!!!%!!!!!&'(": 4307,
      "ďĉďĉďĉďĉďĉ!ďĉďĉďĉďĉďĉ!ďĉďĉďĉćććĈ!Ĉ!Ĉ!ćĈĈĈĈ!ćĈ!ĈĈ!ćĈ!ć%&'(ďĉďĉďĉďĉďĉćććććĈ!)!)!!Ĉ!Ĉ!ĈĈ!!!!!": 4308,
      "ďĉďĉďĉďĉďĉćććććććĈ!Ĉ!ććććććĈ!ćĈĈ%&'(ďĉďĉ!!ďĉćććĈ!Ĉ!Ĉ!ćĈ!Ĉ!Ĉ": 4309,
      "%&'(ćĈ!ććďĉďĉ!!!!ďĉ!!)ďĉďĉ!": 4310,
      "ćććććĈ!ćĈ!ććććĈ!ććĈ!ćććĈ!ćććĈćďĉďĉććĈ!ďĉďĉďĉďĉ!ďĉ%&'(ďĉ!!": 4311,
      "ďĉ!!!!ďĉ!!)ďĉďĉ!ďĉďĉ%&'(!ďĉďĉďĉ!!ďĉďĉćĈ!Čďĉďĉďĉ!ďĉďĉ!ďĉďĉďĉ!ďĉďĉ!ďĉďĉďĉ": 4312,
      "ćďĉććććććĈ!Ĉ!Ĉ!ćĈ!Ĉ!%&'(Ĉ!Ĉ!Ĉ!!ĈĈ!ĈććĈ!Ĉ!ĈĈ!ĈĈ!Ĉ!ćĈ!ďĉ": 4313,
      "Ĉ!ďĉďĉćĈ!ďĉ!%&'(ććĈ!Ĉ!Ĉ!ĈćĈ!Ĉ!Ĉ!Ĉ!Ĉ!Ĉ!Ĉ!Ĉ!Ĉ!Ĉ!%&'(ďĉďĉ!ďĉćććć": 4314,
      "ďĉ!!!!!!!!!!!%!!!!!!&'(ďĉ!!!!!!!!!ćććĈ!Ĉ!Ĉ!Ĉ!Ĉ!Ĉ!ĈĈĈĈĈĈĈĈĈĈĈĈ": 4315,
      "0010011": 4316,
      "Ĉď!": 4317,
      "Ėď": 4318,
      "ĥ&'(": 4319,
      "!!ďĉďĉďĉďĉďĉďĉ!ďĉďĉ!ďĉďĉ!!!ďĉćĈ!Ĉ!ććĈ!ććĈ!ĈĈ!ććĈ!Ĉ!Ĉ": 4320,
      "!!!!!!!!%!!!!!!!!!!!!!!!!!!!!!!!!": 4321,
      "Ĉ!ćĈ!ć": 4322,
      "ďĉććĈ!Ĉ!": 4323,
      "ďĉďĉĦ%&'(%&'(%&'(%&'(%&'(%&'(%&'(%&'(%&'(%&'(%&'(%&'(%&'(%&'(%&'(%&'(": 4324,
      "Ĉ!Ĉ!ććĈ!Ĉ": 4325,
      "%&'(ĂĄĆ": 4326,
      "ćććććĈĈ": 4327,
      "ďĉďĉďĉďĉ%&'(ďĉďĉďĉ!": 4328,
      "ďĉďĉďĉďĉćĈ!ĈĈ!Ĉ!ďĉ!ďĉ!": 4329,
      "ďĉ!%&'ď(ĉ": 4330,
      "ďĉ!Ĉ!Ĉ!Ĉ!Ĉďĉ!!!!!!!!!!!": 4331,
      "Ĉ!Ĉ!Ĉ!Ĉ!ĈĈ": 4332,
      "Ĉ!ĈćĈ!Ĉ": 4333,
      "ćĈĈćĈ!ĈĈćĈ!ćĈĈćĈ!Ĉ!ćďĉďĉćććĈ!ćĈ!Ĉ!Ĉ!ćĈ!Ĉ!ćĈ!Ĉ!Ĉ!Ĉ!ćĈ!Ĉ!ćĈ!ćĈ!ćĈ!ćĈ!Ĉ!Ĉ!Ĉ!Ĉ!Ĉ!Ĉ!Ĉ!Ĉ!ĈĈ!": 4334,
      "ććĈ!ĉ": 4335,
      "ćĈ!ćĈ!ćć": 4336,
      "ďĉďĉ!ďĉ!!!!!!!!ďĉďĉďĉďĉďĉććććĈ!ćĈ!ĈćĈĈ!Ĉ!Ĉ!Ĉ!ĈćĈĈćĈĈĈĈĈĈ!%&'(ďĉďĉďĉ!))": 4337,
      ")!)!!!!": 4338,
      ")!)!!!!!!!!!!!!!!!!!!!!!!!!!!!!!!!!!!!!!!!!!!!!!!!!!!!!!!!!!!!!!!": 4339,
      "ćĈ!ćĈ!Ĉ!ćĈ!ććĈććĈ!!!!!!ďĉćć": 4340,
      "!!!!!!ďĉďĉ!!!!": 4341,
      "!!!!!ďĉďĉ": 4342,
      "ćĈĈĈĈćĈĈĈćĈ": 4343,
      "ďĉ%&'(ďĉďĉďĉďĉ!": 4344,
      "ďĉ%&'(!!!!!!!!!!!!!!!!!!!!!!!!!!!!!!!!!!!!!!!!!!!!!!!!!!!!": 4345,
      "ď%&'(ĉďĉ!!ďĉ": 4346,
      "ćďĉ!!!!!!": 4347,
      "%ď&'(ĉďĉďĉďĉďĉ": 4348,
      "ďĉććććĈ!": 4349,
      "ďĉćććććć": 4350,
      "%!&'(ďĉ": 4351,
      "%!&'(!!!!!!!!!!!!!!!!!!!!!!!!!!!": 4352,
      "Ĉ!Ĉ!Ĉ!ĈĈĈĈĈĈĈĈĈ": 4353,
      "ćĈ!Ĉ!Ĉ!ććĈ!Ĉ!Ĉ!Ĉ!Ĉ!Ĉ!ćĈćĈ!ććććććĈ!ćĈ!ććĈćććĈćććĈĈćĈćĈ!Ĉ!ćĈ!ĈćĈćĈćĈćĈ!Ĉ!ĈćĈ!Ĉ!": 4354,
      ")!)!!!!!!!!!!!!!!!!!!!!!!!!!!!!!!!!!!!!!!!!!!!!!!!!!!!!!!!!!!!!!!!!!!!!!!!!!": 4355,
      ")!)!!!!!!!!!!!!!!!!!!!!!!!!!!!!!!!!!!!!!!!!!!!!!!!!!!!!!!!!!!!!!!!!!!!!!!!!!!!!!!!": 4356,
      "%Ĉ&'(!ĈĈ": 4357,
      "ćĈ!ćĈ!ćĈ!ćĈ!ćĈ!Ĉ!Ĉ!Ĉ!Ĉ!Ĉ!ćĈ!Ĉ!ććĈ!": 4358,
      ")!)!!!!!!!!!!!!!!!!!!!!!!!!!!!!!!!": 4359,
      "ďĉ!!!!!!!!!!!!!!!!!!!!!!!!!!!!!!!!!!": 4360,
      "ďĉćććĈ!ĈĈ!Ĉ!Ĉ!Ĉ!": 4361,
      "ďĉ!%&'(ďĉďĉďĉďĉ": 4362,
      "ď%ĉ&'(ďĉďĉ!": 4363,
      "ććĈ!ćĈ!ćĈ!ćĈ!ćĈćĈćĈ!ćĈ!ććĈ!ćĈććĈćĈ!ćĈ": 4364,
      "ćĈ!Ĉ!Ĉ!Ĉ!ćĈ!Ĉ!ćĈ!ćĈ!ćĈ!ćĈ!Ĉ!Ĉ!Ĉ!Ĉ!Ĉ!Ĉ!Ĉ!Ĉ!ĈĈ!ďĉ!!!!!!!!!!!!!!!!!!!!!!!!!!!!!!!!!!!!!!!!!!!!!": 4365,
      "ďĉďĉďĉďĉďĉďĉďĉďĉ!ďĉďĉďĉďĉďĉďĉďĉďĉ!!": 4366,
      "ćććććććććććĈ!ćĈ!Ĉ!ĈćĈ!Ĉ!": 4367,
      "ć!ć!": 4368,
      "%!!!!!&'(!!!!!!!!!!!!!!!!": 4369,
      "Ĉ!ććĈ!Ĉ!Ĉ!Ĉ": 4370,
      "!!!!!!!!!!!!!!!!!!!!!!!!!!!!!!!!!!!!!!!!!!!!!!!!!!!!!!!!!!!!!!!!!!!!!!%!!!!!!!": 4371,
      "!!!!!!!!!!!!!!!!!!!!!!!!!!!!!!!!!!!!!!!!!!!!!!!!!!!!!!!!!!%!!!!!!!!!!!!!!!!!!!!!!!!!!!!!!!!!": 4372,
      "ďĉďĉďĉďĉďĉ%&'(ďĉďĉďĉ!!": 4373,
      "ďĉďĉ!ďĉďĉćććććććĈĈććććććĈ!ćĈĈ": 4374,
      "ďĉďĉ!ďĉďĉ%&'(ďĉ!!ďĉ!!!!": 4375,
      "ēēēē": 4376,
      "ďĉďĉ!ďĉ%&'(!": 4377,
      "ćĈ!Ĉ!Ĉ!Ĉ!Ĉ!Ĉďĉ%&'(Ĉ!Ĉ!Ĉ!Ĉ!Ĉ!ĈĈĈ!ĈĈĈćďĉďĉ!ďĉďĉć%&'(Ĉ!Ĉ!Ĉ!Ĉ!Ĉ!Ĉ!": 4378,
      "ćĈ!ćĈ!ććĈćĈ!Ĉ!Ĉ!Ĉ!ćĈ!ććĈĈĈĈĈĈćĈ!ććĈćĈ!ćĈ!Ĉ!ćĈ!ććĈććĈ!!!!!!ďĉćć": 4379,
      "ćĈ!Ĉ!Ĉ!ćĈ!Ĉ!ćĈ!ćĈ!ćĈ!ćĈ!Ĉ!Ĉ!Ĉćďĉ!!!!!!!!!": 4380,
      "ćĈ!Ĉ!ĈćĈ!Ĉ!Ĉ!ććććĈćĈććĈ!ćĈ!Ĉ!Ĉ!Ĉ!ćĈ!Ĉ!ćĈ!ćĈ!Ĉ!ćĈ!ĈćĈ!ĈĈ!ĈćĈćĈćĈćććĈćĈćććĈćĈ": 4381,
      "ďĉďĉďĉ!ďĉďĉćććććććĈĈććććććĈ!ćĈĈ": 4382,
      "ćĈ!ćĈ!Ĉ!ćĈĈ!Ĉ!Ĉ!Ĉ!ćĈćĈĈćĈ!Ĉ!Ĉ!ćĈ!Ĉ!Ĉ!Ĉ!ćĈ!": 4383,
      "ćĈ!ćĈ!Ĉ!ććĈ!Ĉ!Ĉ!Ĉ!ćĈĈĈ!Ĉ!ćĈ!Ĉ!ĈĈĈ!ĈĈĈććĈ!ćĈćĈĈĈ!ĈćĈĈĈĈĈĈĈĈććĈćĈĈ!": 4384,
      "ććććĈ!ćĈ!Ĉ!Ĉ!ĈĈ!Ĉ!Ĉ!ĈććĈ!ćďĉ": 4385,
      "ććććććććĈ!Ĉ!ćĈĈćĈ!ĈĈćĈ!ćĈĈćĈ!Ĉ!ćďĉďĉćććĈ!ćĈ!Ĉ!Ĉ!ćĈ!Ĉ!ćĈ!Ĉ!Ĉ!Ĉ!ćĈ!Ĉ!ćĈ!ćĈ!ćĈ!ćĈ!Ĉ!Ĉ!Ĉ!Ĉ!Ĉ!Ĉ!Ĉ!Ĉ!ĈĈ!": 4386,
      "Ĉ!Ĉ!Ĉ!ĈćĈĈ!Ĉ!ĈćĈĈ!ćĈ!Ĉ!ĈĈĈĈćĈĈĈĈćĈĈ": 4387,
      "ďĉďĉ!ďĉ!)ďĉďĉďĉćďĉďĉ!ďĉďĉďĉ!!": 4388,
      "ďĉďĉ!ďĉ!)ďĉďĉďĉćďĉďĉ!ďĉďĉ%&'(ďĉ!!ďĉ!!!!": 4389,
      "ďĉ!ďĉ!!ďĉććććććććććććććććććććććĈ!ććĈ!ćĈ!ććĈ!": 4390,
      "ďĉďĉďĉďĉďĉďĉďĉ%&'(ďĉďĉ!ďĉďĉďĉďĉďĉďĉ!": 4391,
      "ďĉ!!!!!!!!!!!!!!!!!!!!!!!!!!!!!!!!!!!!!!!!!!!!!ďĉďĉďĉďĉďĉ!!": 4392,
      "%!&'(!!!!!!!!!!!!!!!!!!!!!!!": 4393,
      "!!!!!!!!!!!!ďĉ!!ďĉ!!!!!!": 4394,
      "Ĉ!Ĉ!Ĉ!Ĉ!ĈćĈ!ĈĈ!ĈĈĈćĈćďĉďĉďĉ!!!ďĉďĉďĉďĉ%&'(ďĉ!!ďĉ!ďĉďĉ!ďĉ!ďĉďĉďĉ!ďĉďĉďĉ!ďĉďĉ!!ďĉďĉďĉ!": 4395,
      "Ĥ))))ħ)": 4396,
      "ďĉ%&'(ďĉďĉĈ!Ĉ!Ĉ!Ĉ!ćććĈ!ďĉ!!ďĉ!!!!!!!!!!!": 4397,
      "%&'(ďĉ!!!!!!!!!!!!!!!!!!!!!!!!!!!!!!!!!!!!!!!!!!!!!ďĉďĉďĉďĉďĉ!!ďĉ!!ďĉďĉďĉ)!)ďĉďĉďĉ%&'(ďĉďĉ!": 4398,
      "&'(ććććććććĈ!ćććĈ!Ĉ!ćĈ!ďĉćĈ!Ĉ!ĈćĈ!ďĉćććććććĈ!ćĈ!%&'(ćďĉ!ďĉďĉ!!!ććććććććććććććććććććććććććĈ!": 4399,
      "ćďĉ!!!!!!!!!ďĉďĉďĉďĉďĉ)!)ďĉďĉďĉ": 4400,
      "!!!!!!!!!%!&'(!!!!!!!!!": 4401,
      "ćććĈ!Ĉ!Ĉ!Ĉ!Ĉ!ĈćĈĈ!Ĉ!ĈĈĈćĈćĈ!ććĈ!!ďĉ!!ďĉďĉďĉĈ!ĈĈĈ!ĈĈĈĈĈĈĈĈĈĈĈĈĈĈĈĈĈĈ!ďĉ!!": 4402,
      "%Ĉ!Ĉ&'(!": 4403,
      "Ĉ!ĈĈĈ!ĈĈĈĈĈĈĈĈĈĈĈĈĈĈĈĈĈĈ!ďĉ!!ďĉ!ďĉ!!!ďĉďĉćĈ!ĈĈ!ĈĈĈĈ!Ĉ!Ĉ!ĈĈĈĈĈĈĈĈ!ĈĈĈĈĈ%&'(ďĉ!ďĉďĉ!ďĉ!ďĉďĉďĉ!ďĉ!ďĉ!!": 4404,
      "ćĈ!ćĈ!ćĈ!ĈĈ!Ĉ!ćĈ!ćĈ!Ĉ!Ĉ!ďĉ%&'(ďĉ!ďĉďĉďĉďĉďĉďĉďĉďĉ!": 4405,
      "ďĉďĉďĉďĉďĉďĉćďĉ!ďĉ!!!!!!!!!!!!!!!!!!!!!!!!!!!!!!!!!!!%&'(": 4406,
      "ĈĈĈĈĈĈĈĈĈĈ!ĈĈĈĈ!ĈĈĈĈĈćĈĈĈĈĈĈĈĈĈĈĈĈĈĈĈĈ!ĈĈĈĈĈĈĈĈĈĈĈĈĈĈĈĈĈ!ćĈĈĈĈĈĈĈĈĈĈĈĈĈĈćĈ!ĈćĈĈćĈĈĈĈĈĈĈ": 4407,
      "!!!!!!!!!!!!ďĉ!!ďĉ!!!!%&'(!!!!!!!": 4408,
      "ććĈ!ćďĉďĉďĉďĉďĉďĉďĉ!!ďĉ%&'(ďĉďĉćććĈĈ!ćĈ!Ĉ!ĈćĈĈĈćĈĈĈćĈĈćććć": 4409,
      "Ĉ!Ĉ!Ĉ!Ĉ!Ĉ!ĈĈĈ!ĈĈďĉ!ďĉďĉďĉćĈ!Ĉ!Ĉ!Ĉ!ĈĈ!Ĉ!Ĉ!Ĉ!": 4410,
      "Ĕĥ!!))))": 4411,
      "%&'(!!!!!!!!!!!!!!!!!!!!!!!!!!!!!!!!!!!!!!!!!!!!!!!!!!!!!!%&'(%&'(ďĉ!!ććććććĈććĈ!ďĉćĈ!Ĉ!Č": 4412,
      ")!)!!!!!!!!!!!!!!!!!!!!!!!!!!!!!!!!!!!!!!!!!!!!!!!!!!!!!!!!!!!!!!!!!!!!!%!!!!!!&'(": 4413,
      "#$ćĈ!ćć%&'(ďĉďĉ!!!!ďĉ!!)ďĉďĉ!": 4414,
      "ďĉďĉ%&'(ďĉďĉďĉďĉďĉďĉďĉ!!!ďĉ%&'(ďĉďĉ!!ďĉ": 4415,
      "00010111": 4416,
      "LďLĉ": 4417,
      "ćĦ": 4418,
      "ēĦ": 4419,
      "!!%!!!!!!!!!!!!!!!!!": 4420,
      "!!!!!!!!%!!!!!!&'(": 4421,
      "ďĉ))))": 4422,
      "ďĉďĉ!!!!!!!!!!!!!": 4423,
      "ďĉďĉď!ĉ": 4424,
      "%&'(!!!!!!!!!!!!!!!!!!!!": 4425,
      "ćĈ!Ĉ!ćďĉ": 4426,
      "ďĉďĉďĉďĉ!!!!": 4427,
      "ćĈĈ!ĈĈĈ": 4428,
      "ćĈď!": 4429,
      "ććĈ!ďĉďĉďĉďĉ!ďĉďĉ!!ďĉďĉďĉďĉďĉďĉďĉ!ďĉ!ďĉ": 4430,
      "ďĉďĉďĉĉ": 4431,
      "Ĉ!ćĈ!Ĉ!ĈćĈĈćĈćĈĈĈćĈĈďĉĈ!Ĉ!ĈĈĈĈ!Ĉ!Ĉ!ĈĈĈĈĈĈĈĈĈĈ!ĈĈĈ!ĈĈ!ĈĈĈĈ!ĈĈ!Ĉ": 4432,
      "ćĈ!ĈććĈ": 4433,
      "ďĉ!ďĉćććććććĈ!ćČČďĉďĉďĉ!!!!!": 4434,
      "ćĈĈĈĈć": 4435,
      "ďĉ%&'(ććĈ!Ĉ!Ĉ!Ĉ!ćĈ!Ĉ!!Ĉ!ćĈ!ćĈ!ććĈ!Ĉ!ćĈ!ďĉ!": 4436,
      "ď%&'(ĉĈ!Ĉ!Ĉ!Ĉ!": 4437,
      "ď%&'(ĉďĉďĉďĉďĉďĉďĉ": 4438,
      "LLLLLLL!LK": 4439,
      "ćďĉćććć": 4440,
      "!!!!!!!!!!!!!!%!&'(": 4441,
      "!!!!!!!!!!!!!!%&'(!!!!!!!": 4442,
      "%ď&'(ĉďĉďĉďĉďĉďĉďĉ!": 4443,
      "ďĉďĉ%&'(ďĉďĉďĉďĉ!": 4444,
      "'(333222323": 4445,
      "Ĉ!Ĉ!Ĉ!ĈĈ!ĈĈ": 4446,
      "ćĈ!Ĉ!ĈĈ!ĈĈĈďĉďĉďĉďĉďĉďĉďĉĈ!Ĉ!Ĉ!Ĉ!Ĉ!Ĉ!Ĉ!ĈĈĈĈĈĈĈ!ĈĈĈĈĈĈĈĈĈĈĈĈĈĈĈĈĈĈĈĈ!": 4447,
      "ďĉďĉďĉďĉďĉď%&'(ĉ!": 4448,
      "ďďĉĉďĉďďĉĉ": 4449,
      "ĈĈĈĈĈĈĈĈĈĈĈĈĈĈ": 4450,
      "Ĉ!Ĉ!ĈĈĈ!Ĉ!ĈĈĈ!": 4451,
      "ćĈ!Ĉ!Ĉ!ćĈ!Ĉ!ćĈ!Ĉ!Ĉ!ćĈ!Ĉ!ćĈ!ćĈ!ćĈ!ćĈ!Ĉ!Ĉ!Ĉćďĉ!!!!!!!!!": 4452,
      "Ĉ!ćĈ!%Ĉ&'(!": 4453,
      "ďĉ!!!!!!!!!!!!!!!!!!!!!!!!!!!!!!!!!!!!!!!!!!!!!!!!!!!!!!!!!!!!!": 4454,
      "%ĉ&'(ĉ": 4455,
      "ďĉďĉćććććďĉďĉćĈ!ćďĉďĉďĉďĉćććććĈ!ćČ": 4456,
      "%!!!!!!!!!!!!!!!!!!!!!!!!!!!!!!!!!!!!!!!!!!!!!!": 4457,
      "!LK!LK!LK!LK!LK": 4458,
      "ďĉ!!!!!!!!!!!!!!!!!!!!!!!!!!!!!!!!!!!!!!!!!!!!!!!!!!!!!!!!!!!!!!!!!!!!!!!!!!!!!!!": 4459,
      "ďĉ!ďĉďĉďĉďĉďĉďĉďĉďĉďĉďĉďĉďĉďĉďĉďĉ%&'(ćĈ!Ĉ!Ĉ!Ĉ!Ĉ!ĈĈĈ!Ĉ!ĈĈ!Ĉ!ĈĈ!Ĉ!ĈĈ!ĈĈ!Ĉ!ĈĈ!ĈĈ!Ĉ!ĈĈĈ!ĈĈĈĈ!ĈĈĈĈ": 4460,
      "ćďĈ!Ĉ!ĉ": 4461,
      "ďĉ!!ďĉďĉďĉ%ď&'(ĉďĉďĉ!": 4462,
      "Ē!!Ē!!": 4463,
      "322322": 4464,
      "!!!!!!!!!!!!!!!!!!!!!!!!!!!!!!!!!!!!!!!!!!!!!!!!!!!!!!!!!!!!!!!!!!!!!!!!ććććććććĈ!ćććĈ!Ĉ!ćĈ!%&'(ďĉ": 4465,
      "ćďĉ%&'(!": 4466,
      "ćďĉ%&'(ćććďĉ!!ďĉďĉďĉ!ďĉ!!!!!!!!!!!!!!!!!!!!!!!!!!!!!!!!!!!!!!!!!!!!!!!!!!!!": 4467,
      "!!!!!!!!!!!!!!!!!!!!!!!!!!!!!!!!!!!!!!!!!!!!!!!!!!!!!!!!!!!%!!!!!!!!!!!!!!!!!!!!!!!!!!": 4468,
      "ćĈĈĈĈ!Ĉ!ćĈ!ďĉďĉćďĉććććććććććććććććĈ!Ĉ!ćĈ!Ĉ!ĈĈ!ćĈ!ćććĈ!ććĈćĈ!ććĈćććĈ!Ĉ!Ĉ!Ĉ!ćććĈćĈ!ćĈ": 4469,
      "ďĉďĉďĉďĉďĉ!ďĉććĈ!Ĉ!Ĉ!Ĉ!Ĉ!Ĉ!Ĉ!ĈĈćĈ": 4470,
      "Ĉ!ĈĈďĉ!!)!)!!!!!!!!!!!!!!!!ďĉďĉďĉ!ďĉ!ďĉ!": 4471,
      "LL!LKL!LK": 4472,
      "%!&'(!!!!!!!!!!!!!!!!!!!!!!!!!!!!!!!!!!!!!!!!!!!!": 4473,
      "Ĉ!ĈćĈ!ćĈĈĈĈĈćĈĈĈĈĈćĈ!ĈĈĈćĈďĉ!ćććĈ!Ĉ!ćĈ!Ĉ!Ĉ": 4474,
      "ď!!ĉ!": 4475,
      "!!!!RTVa!!!SĂĄĆ!!!!R!!!S!!!!RTVa!!!SĂĄĆ": 4476,
      "ćććććĈ!Ĉ!Ĉ!Ĉ!Ĉ!Ĉ!ćĈ!Ĉ!Ĉ!ćĈ!Ĉ!ćĈ!Ĉ!Ĉ!ćĈ!Ĉ!": 4477,
      "Ĉ!ďĉďĉćĈ!ďĉ!ććĈ!%&'(Ĉ!Ĉ!ĈćĈ!Ĉ!Ĉ!Ĉ!Ĉ!Ĉ!Ĉ!Ĉ!Ĉ!Ĉ!ďĉďĉ!ďĉ%&'(ćććććććććććććććć": 4478,
      "ďĉ!ďĉ!!ďĉććććććććććććććććććććććĈ!ććĈ!ćĈ!ććĈ!ććććĈ!ćććĈććĈćććĈććććĈććĈććććĈććĈ": 4479,
      "ćĈ!Ĉ!ćĈ!ćĈ!ćĈ!Ĉ!ććććĈ!ććĈ!ć!ďĉććĈ!Ĉ!ĈĈĈ!Ĉ!Ĉ!ĈĈćĈďĉ!!ďĉďĉ!!!": 4480,
      "ćďĉďĉďĉďĉ!ććĈ!Ĉ!Ĉ!Ĉ!Ĉ%&'(ďĉďĉďĉďĉďĉďĉďĉďĉ": 4481,
      "ććććććććććććććććććććććććććććććććććććććććććĈ!ćĈ!ćĈ!ćĈ!ćĈćĈćĈ!ćĈ!ććĈ!ćĈććĈćĈ!ćĈ": 4482,
      "Ĉ!Ĉ!Ĉ!Ĉ!ĈćĈĈĈ!ĈĈĈćĈćĈĈĈĈĈĈĈćĈĈĈĈĈĈćĈćĈ!ćĈĈ!%&'(ďĉ": 4483,
      "ďĉ!ďĉďĉďĉďĉďĉĈĈ!Ĉ!": 4484,
      "ďĉďĉďĉ%&'(ďĉďĉďĉćććććććĈ!Ĉ!ććććććĈ!ćĈĈ": 4485,
      "ć%Ĉ&'(Ĉ": 4486,
      "01001101010101": 4487,
      "ďĉďĉďĉďĉ%ď&'(ĉďĉďĉďĉ": 4488,
      "ďĉďĉ!ďĉďĉćććććďĉ!ďĉďĉďĉ!ďĉ": 4489,
      "%&'(!!!!!!!!!!!!!!!!!!!!!!!!!!!!!!!!!!!!!!!!!": 4490,
      "!!!!ďĉďĉ!!!!!!!!!!!!!!!!!!!!!)!)": 4491,
      "ďĉďĉďĉ%&'(ďĉďĉďĉďĉďĉďĉďĉďĉďĉďĉďĉ!ććĈ!ćććĈ!ćććĈ!ćććĈ!Ĉ!Ĉ!": 4492,
      "LL!LK!LK!LK": 4493,
      "%ĈĈ&'(!": 4494,
      "ćĈ!%&'(ďĉ!ďĉďĉďĉďĉďĉďĉďĉďĉ": 4495,
      ")!!)": 4496,
      "ćďĉĈ!ćĈ!Ĉ!Ĉ!ćĈ!Ĉ!Ĉ!ĈĈ!ćĈ!%&'(ďĉ!ďĉďĉďĉďĉďĉďĉďĉďĉ": 4497,
      "!!!!!!!!!!!!!!!!!!!!!!!!!!!!!!!!!!!!!!!ďĉďĉććććććĈ!ćććĈ!ćććĈ!ćĈ!ćďĉďĉďĉďĉ!ď%&'(ĉ": 4498,
      "ďĉďĉ!!ďĉ%&'(!!!!!!!!!ďĉ!!!!!!!!!!!)!!!!!!!!!!!!!!!ďĉďĉďĉ)!)": 4499,
      "ďĉ!ďĉ!!!!!!ďĉďĉ!!!!ďĉďĉďĉććĈ!Ĉ!ćĈĈ!ćĈ!Ĉ!Ĉ!Ĉ!Ĉ!ĈĈĈćĈ!Ĉ!Ĉ!ć%&'(ďĉ": 4500,
      "%&'(ďĉďĉćďĉććććććććććććććććĈ!Ĉ!ćĈ!Ĉ!ĈĈ!ćĈ!ćććĈ!ććĈćĈ!ććĈćććĈ!Ĉ!Ĉ!Ĉ!ćććĈćĈ!ćĈćććĈ!Ĉ!Ĉ!Ĉ!Ĉ!ćĈ!Ĉ!": 4501,
      "ćĈ!ĈĈ!Ĉ!Ĉ!Ĉ!Ĉ!ĈĈĈĈĈ!": 4502,
      "ďĉďĉďĉćďĉďĉďĉďĉ!ććĈ!Ĉ!Ĉ!Ĉ!Ĉďĉďĉďĉďĉďĉďĉďĉďĉ": 4503,
      "ććĈ!ćĈ!Ĉ!ĈĈĈ!ĈĈĈććĈ!ĈĈ!ĈĈĈĈ!ĈĈ!ĈĈĈĈ%&'(ďĉďĉďĉ!!!!!!!!!!ďĉďĉďĉďĉďĉďĉ%&'(Ĉ!Ĉ!Ĉ!Ĉ!Ĉ!Ĉ!ćďĉďĉďĉćĈ!Ĉ!Ĉ!Ĉ!": 4504,
      "ććććĈ!Ĉ!Ĉ!Ĉ!Ĉ!ĈĈ!Ĉ!Ĉ!Ĉ!Ĉ!ćĈ!": 4505,
      "ďĉ!ďĉďĉďĉďĉďĉďĉ!!ďĉ!ďĉďĉďĉďĉ!!%&'(ďĉďĉďĉ!ďĉ!ďĉ!ďĉććďĉďĉ)": 4506,
      "ďĉććććććććććććĈ!ćĈ!Ĉ!Ĉ!Ĉ!Ĉ!Ĉ!Ĉ!Ĉ!Ĉ!!ćĈĈĈĈ!Ĉ!ćĈ!Ĉ!ćĈĈĈćĈ!ĈĈĈĈĈ!Ĉ!": 4507,
      "ććććĈ!ĈĈ!ćĈ!ĈĈ!Ĉ!Ĉ!ćĈ!ćĈďĉďĉďĉďĉ!!!!!!!!!ďĉ!!!!!!!!": 4508,
      "ć!!!!!!!!!!!!!!!!!!!!!!!!!!!!!!!!!!!!!!!!!!!!!!!!!!!!!!!%&'(%&'(%&'(ďĉ!!": 4509,
      "7777777'(788888888,-%&+01": 4510,
      "ďĉ!!ďĉ!!!ďĉ!!ďĉďĉ)!)!!!!!!!!!!!!!!!!!!ďĉććććĈ!ćĈ!Ĉ!ćĈ!Ĉ!ćĈ!ćĈ!Ĉ!": 4511,
      "ďĉďĉ%&'(ććĈ!Ĉ!Ĉ!ćĈ!ďĉďĉďĉďĉďĉďĉćććććććĈ!Ĉ!ććććććĈ!ćĈĈ%&'(ďĉďĉ!!ďĉćććĈ!Ĉ!Ĉ!ćĈ!Ĉ!Ĉćďĉďĉ%&'(ďĉďĉ": 4512,
      "ďĉďĉďĉďĉ!!!!!!!!!!!!!!!!!!!!!!!!!!!!!!!!!!!!!!!!!!!!!ćććććććĈ!ćĈ!Ĉ!Ĉ!Ĉ!Ĉ!ćĈ!Ĉ!ćĈććĈćďĉ": 4513,
      "ććĈ!Ĉ!ćĈ!ćĈ!ćĈćĈ": 4514,
      "!%!!&'(S": 4515,
      "%&'(%&'(%&'(%&'(%&'(%&'(%&'(%&'(%&'(%&'(%&'(%&'(%&'(%&'(%&'(%&'(%&'(%&'(%&'(Ğ": 4516,
      "ďĉćććĈ!ĈĈ!Ĉ!Ĉ!Ĉ!ćććććĈ!ćĈĈ": 4517,
      "ďĉďĉ!ďĉ!)ďĉďĉďĉćďĉďĉ!ďĉďĉ%&'(ďĉ!!ďĉ!!!!ďĉďĉďĉďĉďĉďĉďĉ!!!!!!!!!!!": 4518,
      "!!!!!!!!!!!!!!%&'(!!!!!!!)!)!!!!!!!!!!!!!!!!!!!!!!!!!!!!!!!!!!!!!!!!!!!!!!!!!!!!!!!!!!!!!!!": 4519,
      "A)": 4520,
      "LĈ": 4521,
      "ć%&'ď(ĉ!": 4522,
      "ĉ!!!": 4523,
      "ď!!!!!": 4524,
      "ď!L": 4525,
      "Ĕć": 4526,
      "ė!ĥ": 4527,
      "Ĉ!ďĉćććć": 4528,
      "ćć(": 4529,
      "ćĈ!Ĉ!ćĈ!Ĉ!Ĉ": 4530,
      "ćĈććĈĈ": 4531,
      "Ĉ!Ĉ!Ĉ!Ĉ!ćĈ!Ĉ!": 4532,
      "ććĈ!ćććĈćććĈĈ!Ĉ!ćĈ!ććĈćĈ!ćĈ!!Č!!Č!ďĉ!ďĉĈ!Ĉ!ćĈ!Ĉ!ĈĈĈďĉ!ďĉ!!!SĂĄĆ!!ďĉ!!!!!!RTVa!!!S%&'(ĂĄĆ!!!!R!!!S": 4533,
      "MMďĉ": 4534,
      "!!!!!!!!!!!!%!&'(!!!!!!!!!!!!!!!!!!!!!!!!!!!!!!!!!!!!!!!!!!!!!!!!!!!!!!!!!!!!!!!!": 4535,
      "ćĈ!ćĈ!%&'(": 4536,
      "ććĈĉ": 4537,
      "ćĈ!ćĈ!Ĉ!Ĉ!Ĉ!Ĉ!Ĉ!": 4538,
      "!!!!!!%!!&'(!!!!!!!!!!!!!!!!!!!!!!!!!!!!!!!!!!!!!!!!!!!!!!!!!!!!!!!!!!!!!!!!": 4539,
      "!!!!!!!!!!!%!!!&'(": 4540,
      "%!ćĈ": 4541,
      "!!!!!!!)!)!!!!!!!!!!!!!!!!!!!!!!!!!!!!!!!!!!!!!!!!!!!!!!!!!!!!!!!!!!!!!!!!!!!!!!!!!!!!!!!!!!": 4542,
      "ďĉ!ďĉďĉďĉďĉďĉĈ!Ĉ!Ĉ!Ĉ!": 4543,
      "ďĉ!ďĉ!)": 4544,
      "ćĈ!ćĈććĈ!": 4545,
      "2332222": 4546,
      "ďĉćććććĈ!Ĉ!ćĈ!Ĉ!ćĈ!Ĉ!Ĉ!Ĉ!Ĉ!ćĈ!ćĈ!ćĈ!ćĈ!ćĈ!Ĉ!ćĈ!ćĈ!Ĉ!ćĈĈćĈ!ĈććĈ!ĈćĈćĈćĈ!ĈćĈĈďĉ%&'(ďĉďĉĈ!Ĉ!Ĉ!Ĉ!ćććĈ!": 4547,
      "ćĈ!Ĉ!Ĉ!ćĈ!Ĉ": 4548,
      "ďĉĉ!": 4549,
      "ďĉďĉďĉďĉďĉē": 4550,
      "Ĉ!ĈĈ!ĈĈ!Ĉ!Ĉ!Ĉ!Ĉ!Ĉ!ĈĈĈĈ!ĈĈĈĈĈĈĈ!Ĉ!Ĉ!ĈĈ!Ĉ": 4551,
      "!!!SĂĄĆ!!": 4552,
      "ďĉ!ďĉďĉď%&'(ĉ!": 4553,
      "ďĉ!ďĉďĉďĉ!ďĉďĉ!!ďĉďĉďĉ!": 4554,
      "ďĉ!ďĉďĉďĉćĈ!Ĉ!Ĉ!%&'(": 4555,
      "ĉĉĉĉĉĉĉ": 4556,
      "ďĉ!ďĉ!ďĉ!!!": 4557,
      "ďĉ!ďĉďĉ!!ďĉďĉďĉďĉďĉ!ďĉ!ďĉďĉďĉďĉ": 4558,
      "ćďĉ!ďĉ%&'(ďĉďĉ": 4559,
      "%!!!!!!!!!!!!!&'(": 4560,
      "%!!!&'(ďĉ!!!!!!!!!ćććĈ!Ĉ!Ĉ!Ĉ!Ĉ!Ĉ!ĈĈĈĈĈĈĈĈĈĈĈĈ": 4561,
      "ďĉďĉďĉďĉ!!ďĉďĉďĉ!ďĉ!ďĉ!ďĉ%&'(ććďĉďĉ)ćďĉ": 4562,
      "ćĈ!ĈćĈĈćĈ!ćĈ!": 4563,
      "ďĉď%&'(ĉďĉďĉďĉďĉ": 4564,
      "ďĉďĉďĉďĉďĉććććĈ!ćĈ!ĈćĈĈ!Ĉ!Ĉ!Ĉ!ĈćĈĈćĈĈĈĈĈĈ!%&'(ďĉďĉďĉ!))ďĉ!ďĉďĉďĉďĉćďĉ!ďĉďĉďĉ": 4565,
      "ćĈćĈćĈćĈćĈćĈćĈćĈćĈćĈćĈćĈććĈ!Ĉ!ććĈ!ććććĈćĈćĈćĈććććĈ!Ĉ!ććĈ!ĈććććĈćĈćĈćĈćĈćĈćĈćĈćĈćĈ": 4566,
      "ćĈ!ĈĈćĈ!ćĈ!Ĉ!Ĉ!ćĈ!ćĈ!Ĉ!ćĈĈćĈ!Ĉ!ććĈ!ĈĈćĈćĈćĈ!Ĉ!ĈćĈĈďĉďĉ!ďĉďĉĈ!": 4567,
      "00011101010101": 4568,
      "ććĈ!Ĉ!Ĉ!Ĉ!ćĈ!Ĉ!!Ĉ!ćĈ!ćĈ!ććĈ!Ĉ!ćĈ!ďĉ!%&'(ććććććććććććććććććććććććććććććććććććććććććććĈ!ćĈ!Ĉ!ĈćĈ!Ĉ!": 4569,
      "ćĈĈĈćĈ!ĈĈĈĈ!ĈĈ!Ĉďĉďĉďĉďĉďĉďĉ!%&'(%&'(Ĉ!Ĉ!ĈĈĈĈĈĈćĈ!ĈĈĈ%&'(ďĉ%&'(%&'(%&'(ďĉďĉďĉďĉ!ďĉďĉ!!%!&'(": 4570,
      "ďĉďĉď%&'(ĉďĉ": 4571,
      "ććĈ!ćĈ!ćĈ!Ĉ!Ĉ!ćĈ!Ĉ!ćĈ!ďĉććĈ!Ĉ!Ĉ!Ĉ!ćĈ!Ĉ!!Ĉ!ćĈ!ćĈ!ććĈ!Ĉ!ćĈ!%&'(ďĉ!": 4572,
      "ćďĉććććććććććććććććĈ!Ĉ!ćĈ!Ĉ!ĈĈ!ćĈ!ćććĈ!ććĈćĈ!ććĈ": 4573,
      "ďĉ%&'(ďĉ!!!!!!!RTVa!!!SĂĄĆďĉćććďĉ!": 4574,
      "ĈĈĈĈĈĈĈĈĈĈĈĈĈĈ!Ĉ!Ĉ!Ĉ!ĈĈĈĈĈ!Ĉ!Ĉ!Ĉ!Ĉ!Ĉ!ĈĈ!ĈĈ!ĈĈ!ĈĈĈ!ĈĈĈĈĈ!ĈĈĈĈĈĈ!Ĉ!ĈĈ!ĈĈĈĈ!ĈĈĈĈĈĈĈĈ%&'(ďĉ%&'(": 4575,
      "ďĉďĉďĉďĉďĉďĉďĉ%&'(ďĉ!": 4576,
      "ćďĉďĉ%&'(ďĉďĉ!ďĉďĉćććććććĈĈććććććĈ!ćĈĈ": 4577,
      "ďĉďĉ!ďĉďĉ%&'(ćĈ!Ĉ!Ĉ!Ĉ!Ĉ!ĈďĉĈ!Ĉ!Ĉ!Ĉ!Ĉ!ĈĈĈ!ĈĈĈ": 4578,
      "ďĉďĉďĉ!!ďĉďĉ!ďĉ!!ďĉććććććĈ!ććĈ!": 4579,
      "%!!!!!!&'()!)!!!!!!!!!!!!!!!!!!!!!!!!!!!!!!!!!!!!!!!!!!!!!!!!!!!!!!!!!!!!!!!!": 4580,
      "%!&'(!!!!!!!!!!!!!!!!!!!!!!!!!": 4581,
      "00101011": 4582,
      "ćď%&'(ĉĈ!ćĈ!Ĉ!Ĉ!ćĈ!Ĉ!Ĉ!ĈĈ!ćĈ!ďĉ!": 4583,
      "ćĈ!Ĉ!Ĉ!Ĉ!Ĉ!Ĉ!ĈĈďĉ!!!ďĉ!ďĉďĉ!ďĉ": 4584,
      "!!!!!!!!!!!!ďĉ!!ďĉ!!!!!!!": 4585,
      ")!!!)!": 4586,
      "ć%ć&'(ćććććććć": 4587,
      "ďĉ!!!!!!!!!!!!!!%!!!&'(ďĉ!!!!!!!!!ćććĈ!Ĉ!Ĉ!Ĉ!Ĉ!Ĉ!ĈĈĈĈĈĈĈĈĈĈĈĈ": 4588,
      "%!!&'(!!!!!!!!!!!!!!!!!!!!!!!!!!!!!!!!!!!!!!!!!": 4589,
      "ćLćK": 4590,
[...]
