{
  "version": "1.0",
  "truncation": null,
  "padding": null,
  "added_tokens": [
    {
      "id": 0,
      "content": "[CLS]",
      "single_word": false,
      "lstrip": false,
      "rstrip": false,
      "normalized": false,
      "special": true
    },
    {
      "id": 1,
      "content": "[MASK]",
      "single_word": false,
      "lstrip": false,
      "rstrip": false,
      "normalized": false,
      "special": true
    },
    {
      "id": 2,
      "content": "[SEP]",
      "single_word": false,
      "lstrip": false,
      "rstrip": false,
      "normalized": false,
      "special": true
    },
    {
      "id": 3,
      "content": "[PAD]",
      "single_word": false,
      "lstrip": false,
      "rstrip": false,
      "normalized": false,
      "special": true
    }
  ],
  "normalizer": null,
  "pre_tokenizer": null,
  "post_processor": null,
  "decoder": null,
  "model": {
    "type": "BPE",
    "dropout": null,
    "unk_token": null,
    "continuing_subword_prefix": null,
    "end_of_word_suffix": null,
    "fuse_unk": false,
    "byte_fallback": false,
    "vocab": {
      "[CLS]": 0,
      "[MASK]": 1,
      "[SEP]": 2,
      "[PAD]": 3,
      "!": 4,
      "\"": 5,
      "#": 6,
      "$": 7,
      "%": 8,
      "&": 9,
      "'": 10,
      "(": 11,
      ")": 12,
      "*": 13,
      "+": 14,
      ",": 15,
      "-": 16,
      ".": 17,
      "/": 18,
      "0": 19,
      "1": 20,
      "2": 21,
      "3": 22,
      "4": 23,
      "5": 24,
      "6": 25,
      "7": 26,
      "8": 27,
      "9": 28,
      ":": 29,
      ";": 30,
      "<": 31,
      "=": 32,
      ">": 33,
      "?": 34,
      "@": 35,
      "A": 36,
      "B": 37,
      "C": 38,
      "D": 39,
      "E": 40,
      "F": 41,
      "G": 42,
      "H": 43,
      "I": 44,
      "J": 45,
      "K": 46,
      "L": 47,
      "M": 48,
      "N": 49,
      "O": 50,
      "P": 51,
      "Q": 52,
      "R": 53,
      "S": 54,
      "T": 55,
      "U": 56,
      "V": 57,
      "W": 58,
      "X": 59,
      "Y": 60,
      "Z": 61,
      "[": 62,
      "\\": 63,
      "]": 64,
      "^": 65,
      "_": 66,
      "`": 67,
      "a": 68,
      "b": 69,
      "c": 70,
      "d": 71,
      "e": 72,
      "f": 73,
      "g": 74,
      "h": 75,
      "i": 76,
      "j": 77,
      "k": 78,
      "l": 79,
      "m": 80,
      "n": 81,
      "o": 82,
      "p": 83,
      "q": 84,
      "r": 85,
      "s": 86,
      "t": 87,
      "u": 88,
      "v": 89,
      "w": 90,
      "x": 91,
      "y": 92,
      "z": 93,
      "{": 94,
      "|": 95,
      "}": 96,
      "~": 97,
      "Ā": 98,
      "ā": 99,
      "Ă": 100,
      "ă": 101,
      "Ą": 102,
      "ą": 103,
      "Ć": 104,
      "ć": 105,
      "Ĉ": 106,
      "ĉ": 107,
      "Ċ": 108,
      "ċ": 109,
      "Č": 110,
      "č": 111,
      "Ď": 112,
      "ď": 113,
      "Đ": 114,
      "đ": 115,
      "Ē": 116,
      "ē": 117,
      "Ĕ": 118,
      "ĕ": 119,
      "Ė": 120,
      "ė": 121,
      "Ę": 122,
      "ę": 123,
      "Ě": 124,
      "ě": 125,
      "Ĝ": 126,
      "ĝ": 127,
      "Ğ": 128,
      "ğ": 129,
      "Ġ": 130,
      "ġ": 131,
      "Ģ": 132,
      "ģ": 133,
      "Ĥ": 134,
      "ĥ": 135,
      "Ħ": 136,
      "ħ": 137,
      "Ĩ": 138,
      "ĩ": 139,
      "Ī": 140,
      "ī": 141,
      "Ĭ": 142,
      "ĭ": 143,
      "Į": 144,
      "į": 145,
      "İ": 146,
      "ı": 147,
      "Ĳ": 148,
      "ĳ": 149,
      "Ĵ": 150,
      "ĵ": 151,
      "Ķ": 152,
      "ķ": 153,
      "ĸ": 154,
      "Ĺ": 155,
      "ĺ": 156,
      "Ļ": 157,
      "!!": 158,
      "!!!!": 159,
      "!!!!!!!!": 160,
      "Ĉ!": 161,
      "ďĉ": 162,
      "!!!!!!!!!!!!!!!!": 163,
      "ćć": 164,
      "ďĉďĉ": 165,
      "ĈĈ": 166,
      "Ĉ!Ĉ!": 167,
      "'(": 168,
      "&'(": 169,
      "!!!!!!!!!!!!!!!!!!!!!!!!!!!!!!!!": 170,
      "%&'(": 171,
      "ćĈ!": 172,
      "22": 173,
      "ĈĈĈĈ": 174,
      "ćććć": 175,
      "ćĈ!Ĉ!": 176,
      "ďĉďĉďĉďĉ": 177,
      "ďĉ!": 178,
      "ćĈ": 179,
      "!!!!!!!!!!!!!!!!!!!!!!!!!!!!!!!!!!!!!!!!!!!!!!!!!!!!!!!!!!!!!!!!": 180,
      "2222": 181,
      "%&'(%&'(": 182,
      "!!!": 183,
      "Ĉ!Ĉ!Ĉ!Ĉ!": 184,
      "Ĉ!Ĉ": 185,
      "ćĈĈ": 186,
      "ććĈ!": 187,
      "ďĉ!!": 188,
      "ĈĈĈĈĈĈĈĈ": 189,
      "ćĈćĈ": 190,
      "MM": 191,
      "ĈĈĈ": 192,
      "!!!!!!!!!!!!": 193,
      "ćĈ!ćĈ!": 194,
      "%&": 195,
      "ďĉďĉ!": 196,
      "ćććććććć": 197,
      ")!": 198,
      "%&'(%&'(%&'(%&'(": 199,
      "ďĉďĉďĉ": 200,
      "Ĉ!ćĈ!Ĉ!": 201,
      "22222222": 202,
      "ććĈ": 203,
      "LL": 204,
      ")!)": 205,
      "&'(!!!!!!!!!!!!!!!!!!!!!!!!!!!!!!!!!!!!!!!!!!!!!!!!!!!!!!!!!!!!!!!!": 206,
      "ćĈ!Ĉ": 207,
      "Ĉ!Ĉ!Ĉ": 208,
      "ćććĈ!Ĉ!": 209,
      "ďĉďĉďĉ!": 210,
      "MMMM": 211,
      "!!!!!!!!!!!!!!!!!!!!!!!!!!!!!!!!!!!!!!!!!!!!!!!!": 212,
      "ďĉ!ďĉ": 213,
      "%&'(ďĉ": 214,
      "ćĈ!ćĈ!Ĉ!": 215,
      "ďĉďĉ!!": 216,
      "01": 217,
      "Ĉ!ĈĈĈ": 218,
      "ćĈĈĈ": 219,
      "%&'(%&'(%&'(%&'(%&'(%&'(%&'(%&'(": 220,
      "ďĉďĉďĉďĉďĉďĉďĉďĉ": 221,
      "Ĉ!ĈĈ": 222,
      "!!!!!!": 223,
      "!!!!!": 224,
      "44": 225,
      "55": 226,
      "66": 227,
      "88": 228,
      "ćĈĈĈĈ": 229,
      "ććĈ!Ĉ!": 230,
      "!!!!!!!!!!!": 231,
      "+/": 232,
      "+/,": 233,
      "+/,'(": 234,
      "&'(!!!!!!!!!!!!!!!!!!!!!!!!!!!!!!!!!!!!!!!!!!!!!!!!!!!!!!!!!!!!!!!!!!!!!!!!!!!!!!!!!!!!!!!!!!!!!!!!!!!!!!!!!!!!!!!!!!!!!!!!!!!!!!!!": 235,
      "%&'(ĉ": 236,
      "2222222222222222": 237,
      "!!!!!!!!!": 238,
      "%&-": 239,
      "!L": 240,
      "%!": 241,
      "!LK": 242,
      "ďĉ%&'(": 243,
      "ď%&'(ĉ": 244,
      "!!!!!!!": 245,
      "%!!!!!!!!!!!!!!!!": 246,
      "ďĉ!ďĉďĉďĉďĉ": 247,
      "Ĉ!ĈĈĈĈ": 248,
      "77": 249,
      "LLLL": 250,
      "ĈĈĈĈĈĈĈĈĈĈĈĈĈĈĈĈ": 251,
      "ďĉďĉďĉ!!": 252,
      "ćďĉ": 253,
      "ćĈ!ćć": 254,
      "!!!!!!!!!!!!!!": 255,
      "ćĈćĈćĈ": 256,
      "ďĉ!ďĉ!": 257,
      "Ĉ!Ĉ!Ĉ!Ĉ!Ĉ!Ĉ!": 258,
      "!!!!!!!!!!": 259,
      "!!!!!!!!!!!!!!!": 260,
      "Ĉ!Ĉ!ćĈ!Ĉ!": 261,
      "&'(ĉ": 262,
      "!!!!!!!!!!!!!": 263,
      "%ď": 264,
      "MMMMMMMM": 265,
      "Ĉ&'(": 266,
      "ćĈ!ććĈ": 267,
      "ćĈ!ćĈ": 268,
      "%ď&'(ĉ": 269,
      "-%&": 270,
      "ďĉďĉďĉďĉ!": 271,
      "%Ĉ&'(": 272,
      "%&'(%&'(%&'(%&'(%&'(%&'(%&'(%&'(%&'(%&'(%&'(%&'(%&'(%&'(%&'(%&'(": 273,
      "&'(!!!!!!!!!!!!!!!!!!!!!!!!!!!!!!!!!!!!!!!!!!!!!!!!!!!!!!!!!!!!!!!!!!!!!!!!!!!!!!!!!!!!!!!!!!!!!!!!!!!!!!!!!!!!!!!!": 274,
      "23": 275,
      "!!!S": 276,
      "ĉĉ": 277,
      "ćďĉ!": 278,
      "ďĉďĉ%&'(": 279,
      "ćĈćĈćĈćĈ": 280,
      "ďĉćććć": 281,
      "ćććĈ": 282,
      "%!&'(": 283,
      "Ĉ!Ĉ!Ĉ!": 284,
      "%&-+/,'(": 285,
      "ĈćĈĈ": 286,
      "ćććććććććććććććć": 287,
      "'(3": 288,
      "ć%&'(": 289,
      "!LK!LK": 290,
      "Ĉ!ĈĈ!": 291,
      "ďď": 292,
      "Ĉ!Ĉ!Ĉ!Ĉ": 293,
      "ććććććĈ!": 294,
      "))": 295,
      "+01": 296,
      "4444": 297,
      "5555": 298,
      "6666": 299,
      "8888": 300,
      "ćĈ!Ĉ!Ĉ!": 301,
      "-%&+/,'(": 302,
      "ďĉďĉďĉ%&'(": 303,
      "-%&+/,'(-%&+/,'(": 304,
      "ćĈ!Ĉ!Ĉ": 305,
      "ćĈ!ććĈ!": 306,
      "ďĉ!!!!!!!!!!!!!!!!": 307,
      "ćĈ!ć": 308,
      "ććććĈ": 309,
      "ćĈ!Ĉ!Ĉ!Ĉ!Ĉ!Ĉ!": 310,
      "ďĉĉ": 311,
      ")!)!!!!!!!!!!!!!!!!!!!!!!!!!!!!!!!!!!!!!!!!!!!!!!!!!!!!!!!!!!!!!!!!": 312,
      "ďĉďĉ!!!": 313,
      "ďĉ!!ďĉ": 314,
      "ćĈĈĈĈĈ": 315,
      "ććĈ!Ĉ!Ĉ!Ĉ!": 316,
      "ćććććććĈ!Ĉ!": 317,
      "222222": 318,
      "'(7": 319,
      "ćĈ!ĈĈĈ": 320,
      "ďĉďĉďĉďĉďĉďĉ!": 321,
      "ĄĆ": 322,
      "ĂĄĆ": 323,
      "222": 324,
      "4%&": 325,
      "5222": 326,
      "6'(7": 327,
      "4%&5222": 328,
      "4%&52226'(7": 329,
      "2222224%&52226'(7": 330,
      "8,": 331,
      "2222224%&52226'(78,": 332,
      "%&-+01": 333,
      "ďĉďĉďĉďĉďĉ": 334,
      "ďďĉĉ": 335,
      "TV": 336,
      "ćĈĈćĈĈ": 337,
      "'(32222224%&52226'(78,": 338,
      "TVa": 339,
      "%&-+01'(32222224%&52226'(78,": 340,
      "ďĉ!!!": 341,
      "%&-+01'(32222224%&52226'(78,%&-+01'(32222224%&52226'(78,": 342,
      "Ĉ!ĈĈ!Ĉ": 343,
      "%Ĉ&'(!": 344,
      "ĈĈĈĈĈĈĈĈĈĈĈĈ": 345,
      "ććććĈ!": 346,
      "ďĉďĉďĉďĉďĉďĉ": 347,
      "%!!": 348,
      "!!!!R": 349,
      "Ĉ!Ĉ!ĈĈ": 350,
      "0101": 351,
      "ććĈ!Ĉ": 352,
      "%&-+/,'(%&-+/,'(": 353,
      "ćĈ!Ĉ!Ĉ!ćĈ!Ĉ!": 354,
      "ććć": 355,
      "LLLLLLLL": 356,
      "ďĉďĉ!!ďĉ": 357,
      "Ĉ!ćĈ!": 358,
      "ććĈ!Ĉ!Ĉ": 359,
      "ćĈ!Ĉ!Ĉ!Ĉ!": 360,
      "2323": 361,
      "!!!SĂĄĆ": 362,
      "ććĈ!ć": 363,
      "Ĉ!Ĉ!Ĉ!ćĈ!Ĉ!": 364,
      "ćĈ!ćĈ!ćĈ!ćĈ!": 365,
      "%&'(ďĉďĉ": 366,
      "222222222222222222222222": 367,
      "ď!": 368,
      ")!)!!!!!!!!!!!!!!!!": 369,
      "ććĈĈ": 370,
      "ćĈĈćĈ": 371,
      "ďĉ!!ďĉ!": 372,
      "MMMMMMMMMMMMMMMM": 373,
      "#$": 374,
      "ĈĈĈĈĈĈ": 375,
      "ďĉ!!!!!!!!!!!!!!!!!!!!!!!!!!!!!!!!!!!!!!!!!!!!!!!!": 376,
      "ĈĈ!": 377,
      "%ć": 378,
      "ďĉ!ďĉďĉ": 379,
      "ććĈĈĈ": 380,
      "ćĈ!ĈĈ": 381,
      "ďĉ!!!!!!!!!!!!!!!!!!!!!!!!!!!!!!!!": 382,
      "ďĉćć": 383,
      "ććĈ!ćć": 384,
      "ďĉďĉďĉďĉďĉďĉďĉ": 385,
      "%ĉ": 386,
      "ĈĈĈ!ĈĈĈ": 387,
      "ďĉďĉďĉďĉďĉďĉďĉ!": 388,
      "ĈĈĈĈĈĈĈĈĈ": 389,
      "ďĉ!!!!!!!!": 390,
      "%&'(%&'(%&'(%&'(%&'(%&'(%&'(%&'(%&'(%&'(%&'(%&'(%&'(%&'(%&'(%&'(%&'(%&'(%&'(%&'(%&'(%&'(%&'(%&'(%&'(%&'(%&'(%&'(%&'(%&'(%&'(%&'(": 391,
      "%&'": 392,
      "Ĉ!ĈćĈ!Ĉ!": 393,
      "ďĉ!ďĉ!!": 394,
      "ćććĈ!Ĉ!Ĉ!Ĉ!Ĉ!Ĉ!": 395,
      "ĉ!": 396,
      "ď%ĉ": 397,
      ")!)!!": 398,
      "7777": 399,
      "ććććĈ!ćĈ!Ĉ!": 400,
      "%!!!": 401,
      "&'(!!!!!!!!!!!!!!!!": 402,
      "TVa!!!SĂĄĆ": 403,
      "ćďĉďĉ": 404,
      "ďĉ!%&'(": 405,
      "ćĈ!ćĈ!Ĉ!Ĉ!": 406,
      "ď%ĉ&'(": 407,
      "011": 408,
      "Ĉ!Ĉ!Ĉ!!": 409,
      ")!)!!!!!!!!!!!!!!!!!!!!!!!!!!!!!!!!": 410,
      "-%&+/,'(-%&+/,'(-%&+/,'(-%&+/,'(": 411,
      "ććĈ!Ĉ!Ĉ!Ĉ!Ĉ!Ĉ!": 412,
      "ďĉďĉćććć": 413,
      "ćĈ!ćĈ!Ĉ!Ĉ!ćĈ!Ĉ!": 414,
      "0011": 415,
      "ďĉ!ďĉďĉďĉ!": 416,
      "ćĈĈ!": 417,
      "!ďĉ": 418,
      "ćććĈ!Ĉ!Ĉ!Ĉ!": 419,
      "ď'(": 420,
      "&'(!!!!!!!!!!!!!!!!!!!!!!!!!!!!!!!!!!!!!!!!!!!!!!!!": 421,
      "ďĉ!!!!!": 422,
      "&'(!!!!!!!!!!!!!!!!!!!!!!!!!!!!!!!!!!!!!!!!!!!!!!!!!!!!!!!!!!!!!!!!!!!!!!!!!!!!!!!!!!!!!!!!!!!!!!!!": 423,
      "ćĈ!ćĈ!Ĉ": 424,
      "33": 425,
      "ćĈĈĈĈĈĈ": 426,
      "ćĈ!ćĈĈ": 427,
      "ďĉ!ďĉďĉ!": 428,
      "!!)!": 429,
      "%!!!!!!!!!!!!!!!!!!!!!!!!!!!!!!!!": 430,
      "!!!!!!!!!!!!!!!!!!!!!": 431,
      "ďĉ!!!!!!!!!!!!!!!!!!!!!!!!!!!!!!!!!!!!!!!!!!!!!!!!!!!!!!!!!!!!!!!!": 432,
      "ĈĈĈĈ!": 433,
      "!LK!LK!LK!LK": 434,
      "%&ď'(": 435,
      "ćĈĈĈćĈĈ": 436,
      "ďĉďĉďĉ!ďĉďĉ!": 437,
      "#.": 438,
      "$#$": 439,
      "ď(": 440,
      "Ĉ!ćĈ!Ĉ!Ĉ": 441,
      "ćĈ!ĈĈ!": 442,
      "ććĈ!ćĈ!ćĈ!": 443,
      "#..": 444,
      "!!!!R!!!S": 445,
      "Ĉ!ĈĈĈĈĈĈĈ": 446,
      "ććĈćć": 447,
      "ĈćĈĈćĈ": 448,
      "ććĈ!ććĈ!": 449,
      "$#$!!)!": 450,
      "%&-+/,'(#..": 451,
      "Ĉ!Ĉ!ĈĈĈ": 452,
      "%&'ď(": 453,
      "Ĉ!Ĉ!ĈĈ!Ĉ": 454,
      "ćĈĈćĈĈćĈćĈćĈ": 455,
      "ďĉ!ďĉďĉďĉ": 456,
      "ĈĈĈ!Ĉ!": 457,
      "ćććĈ!Ĉ!Ĉ!": 458,
      "ććććććĈ!ćĈĈ": 459,
      "ćĈ!ćĈ!ćĈ!ćĈ!ćĈ!Ĉ!": 460,
      "ĉĉĉĉ": 461,
      "ĈĈĈĈĈ": 462,
      "Ĉ!ĈĈćĈ": 463,
      "%&-+/,'(#..$#$!!)!": 464,
      "%&-+01'(32222224%&52226'(78,%&-+01'(32222224%&52226'(78,%&-+01'(32222224%&52226'(78,%&-+01'(32222224%&52226'(78,": 465,
      "Ĉ!ĈćĈ!Ĉ!Ĉ!Ĉ": 466,
      "ćĈ!Ĉ!Ĉ!Ĉ!ćĈ!Ĉ!": 467,
      "ďĉďĉďĉďĉďĉďĉďĉďĉ!": 468,
      "Ĉ!ĈĈ!ĈĈĈ": 469,
      "ćććĈ!Ĉ!Ĉ!Ĉ": 470,
      "%ć&'(": 471,
      "Ĉ!Ĉ!Ĉ!Ĉ!Ĉ!Ĉ!Ĉ!Ĉ!": 472,
      "ćććććć": 473,
      "ćććććććććć": 474,
      "ďĉ!ďĉ!ďĉ": 475,
      "%&-+/,'(#..$#$!!)!%&-+/,'(#..$#$!!)!": 476,
      "!!!!!!!!!!!!!!!!!!!!!!!!!!!!!!!!!!!!!!!!!!!!!!!!!!!!!!!!!!!!!!!!!!!!!!!!!!!!!!!!!!!!!!!!!!!!!!!!!!!!!!!!!!!!!!!!!!!!!!!!!!!!!!!!": 477,
      "ćĉ": 478,
      "ďĉďĉďĉďĉďĉćććć": 479,
      "%&5555": 480,
      "44444444": 481,
      "5555222222222222222222222222": 482,
      "66666666": 483,
      "8888,": 484,
      "88888888,": 485,
      "%&55555555222222222222222222222222": 486,
      "44444444%&55555555222222222222222222222222": 487,
      "44444444%&5555555522222222222222222222222266666666": 488,
      "%&ď'(ĉ": 489,
      "%&'(ďĉ!!": 490,
      "ćĈ!ďĉ!": 491,
      "ćďĉďĉďĉ": 492,
      "%&-+/,'(%&-+/,'(%&-+/,'(%&-+/,'(": 493,
      "ďĉ!ďĉďĉ!!": 494,
      "&'(!": 495,
      "ďĉďĉďĉďĉďĉ!!": 496,
      "(7": 497,
      "(788888888,": 498,
      "%!!!!!!!": 499,
      ")!!!!!!!!": 500,
      "%&'ď(ĉ": 501,
      "%&'(ďĉďĉďĉ!": 502,
      "%!!&'(": 503,
      "2222222222222222222222222222222222222222": 504,
      "244444444%&5555555522222222222222222222222266666666": 505,
      "2222222222222222222222222222222222222222244444444%&5555555522222222222222222222222266666666": 506,
      "ďĉ!!!!!!": 507,
      "ćďĉ!ďĉ": 508,
      "(788888888,-%&": 509,
      "ďĉ!!!!": 510,
      "ćĈĈĈĈĈĈĈĈ": 511,
      "ćĈćĈĈ": 512,
      "%!!!!!!!!": 513,
      "Ĉ!Ĉ!ćĈ!": 514,
      "Ĉ!ĈĈĈĈĈ": 515,
      "Ĉ!Ĉ!Ĉ!Ĉ!ĈćĈĈ": 516,
      "ćĈ!Č": 517,
      "ć!": 518,
      "ďĉďĉ!!!!": 519,
      "ćĈććĈ": 520,
      "Ĉ!ĈĈĈ!": 521,
      "ĈĈ!Ĉ!Ĉ!Ĉ!": 522,
      "%!!!!!!": 523,
      "!!!!!!!!!!!!!!!!!!!!!!!!!!!!": 524,
      "ćĈĈĈĈĈĈĈĈĈĈĈĈ": 525,
      "ćĈ!ćČ": 526,
      "Ĉ!ćĈ!ćĈ!": 527,
      "L!LK": 528,
      "ďĉ!ďĉďĉďĉďĉďĉďĉďĉďĉ": 529,
      "ćĈ!ĈćĈ": 530,
      "ďĉďĉďĉć": 531,
      "ĈĈĈĈĈĈĈĈĈĈĈ": 532,
      "%!!!!!!!!!!!!!": 533,
      "TVa!!!SĂĄĆ!!!!R!!!S": 534,
      ")ďĉďĉ!": 535,
      "%!!!!": 536,
      "%!!!!!": 537,
      "Ĉ!ććĈ!Ĉ!": 538,
      "ćĈ!ćĈ!ćĈ": 539,
      "ćĈ!ĈĈ!Ĉ!": 540,
      "%!!!!!!!!!!!!": 541,
      "%&'(!": 542,
      "ćććććĈ!ćĈĈ": 543,
      "'7777": 544,
      "ćĈ!Ĉ!ćĈ!Ĉ!": 545,
      "ćĈ!Ĉ!ĈćĈ!Ĉ!": 546,
      "ććććĈ!Ĉ!": 547,
      "!!Č": 548,
      "ććććĈććĈ": 549,
      "%!!!!!!!!!!!": 550,
      "ćĈćĈćĈćĈćĈćĈćĈćĈ": 551,
      "ćĈ!ćĈćĈćĈ": 552,
      "ćĈĈ!Ĉ!Ĉ": 553,
      "ćĈĈĈĈĈĈĈĈććĈ": 554,
      "ďĉ!!!!!!!!!!!": 555,
      "ćĈ!ćĈ!ćĈ!ćĈ": 556,
      "ććĈ!ćććĈ!ćć": 557,
      "ććĈ!ćĈ!Ĉ": 558,
      "LLLLLLLLLLLLLLLL": 559,
      "ćĈ!ćĈ!Ĉ!ćĈĈ": 560,
      "%&'(ďĉďĉďĉďĉ": 561,
      "%&'(ďĉďĉ!": 562,
      "%!!!&'(": 563,
      "ď%&'(ĉ!": 564,
      "ććĈ!ććććĈ": 565,
      "Ĉ!ĈĈĈĈ!": 566,
      "ďĉ!!!!!!!!!!!!!!!!!!!": 567,
      "ćĈĈ!ćĈ!Ĉ!": 568,
      "ĈĈĈ!ĈĈĈććĈ!": 569,
      "ććććĈ!ĈĈ": 570,
      "ćĈĈĈĈ!Ĉ": 571,
      "ĈĈĈĈćĈĈĈĈ": 572,
      "ććĈććĈ!": 573,
      "ĈĈĈĈĈĈĈĈĈĈĈĈĈĈĈĈĈĈĈĈ": 574,
      "ćĈ!Ĉ!ććĈ!": 575,
      "ćĈćĈĈĈĈ": 576,
      "ć%&'(ďĉ": 577,
      "ďĉ!!ďĉďĉďĉďĉďĉďĉ!": 578,
      "ćććĈćĈ": 579,
      "ćĈ!ĈććĈĈĈ": 580,
      "Ĉ!ĈĈĈĈĈĈ": 581,
      "ćĈćĈćĈćĈćĈĈćĈĈćĈćĈćĈ": 582,
      "ĈćĈ!Ĉ!": 583,
      "ĈĈĈĈĈĈĈĈĈĈĈĈĈĈĈĈĈĈĈĈĈĈĈĈĈĈĈĈĈĈĈĈ": 584,
      "ćĈ!ĈĈ!Ĉ": 585,
      "ćĈ!ććĈćĈ!ćĈ": 586,
      "!!ćĈ!Ĉ!Ĉ!Ĉ!": 587,
      "ććĈĈććĈćć": 588,
      "Ĉ!ĈćĈ!Ĉ!Ĉ!ĈćĈ!ćć": 589,
      "ćĈ!ćĈ!ćĈ!ćĈ!Ĉ!": 590,
      "ćććĈ!Ĉ!ćĈ!Ĉ!": 591,
      "ďĉďĉďĉ!ďĉ": 592,
      "ććĈ!ćĈ!ććĈ!": 593,
      "ďĉ!)!)": 594,
      "Ĉ!Ĉ!Ĉ!Ĉ!!": 595,
      "ĈĈĈĈĈĈćĈ!ććĈ": 596,
      "ćďĉďĉďĉďĉ!": 597,
      "ĈĈĈĈĈĈĈĈĈĈĈĈĈĈ!Ĉ!Ĉ!Ĉ!": 598,
      "ďĉ!ďĉďĉďĉďĉ!!": 599,
      "ĈćĈĈćĈćĈĈĈćĈĈ": 600,
      "ććććććĈ!ćć": 601,
      "ĈĈĈĈĈĈĈĈĈĈ!ćĈ!Ĉ!": 602,
      "ćććĈĈ": 603,
      "ďĉćĈ!Ĉ!": 604,
      "ćĈ!ĈćĈćĈćĈ": 605,
      "ďďďď": 606,
      "ďĉ!ďĉ!!!!!!!!!!!": 607,
      "&'(!!!!!!!!!!!!!!!!!!!!!!!!!!!!!!!!!!!!!!!!!!!!!!!!!!!!!!!!!!!!!!!!!!!!!!!!!!!!!!!!!!!!!!!!!!!!!!!!!!!!!!!!!!!!!!!!!!!!!!!!!!!!!!!!!!!!!!!!!!!!!!!!": 608,
      "ďĉďĉďĉďĉďĉ!": 609,
      "Ĉ!ĈĈ!ĈĈĈĈ!ĈĈ!Ĉ": 610,
      "ćĈ!Ĉ!Ĉ!ćĈĈćĈ": 611,
      "!!!!ďĉ!!": 612,
      "ďĉ!ďĉ!!!!!!": 613,
      "ććĈ!Ĉ!Ĉ!Ĉ!Ĉ!Ĉ!ćĈ": 614,
      "%ćĈ": 615,
      ")!)!!!!!!!!!!!!!!!!!!!!!!!!!!!!!!!!!!!!!!!!!!!!!!!!!!!!!!!!!!!!!!!!!!!!!!!!!!!!!!!!!!!!!!!!!!!!!!!!": 616,
      "ďĉ!!ďĉďĉ": 617,
      "-%&+/,'(-%&+/,'(-%&+/,'(-%&+/,'(-%&+/,'(-%&+/,'(-%&+/,'(-%&+/,'(": 618,
      "ĈĈĈĈĈĈĈĈĈĈ!ĈĈ": 619,
      "Ĉ!ćĈ!Ĉ!ĈćĈĈĈ": 620,
      "ď!ĉ": 621,
      "ćććĈ!Ĉ!Ĉ!Ĉ!ĈĈĈĈĈĈĈĈĈĈ!ćĈ!Ĉ!": 622,
      "%!!!!!!!!!!!!!!": 623,
      "ććććććĈććĈ!": 624,
      "ćď": 625,
      "!!!!!!!!!!!!!!!!!!!!!!!!!!!!!!!!!!!!!!!!!!!!!": 626,
      "ćććććććććććććććććććććććć": 627,
      "%ć&": 628,
      "%!!!!!!!!!!": 629,
      "ďĉďĉ!ďĉ": 630,
      "ďĉďĉ!ďĉďĉďĉ!!": 631,
      "(788888888,-%&+01": 632,
      "Ĉ!Ĉ!Ĉ!ĈĈĈĈĈĈĈĈĈĈ!ĈĈ": 633,
      "ďĉ!!ďĉďĉ!!!": 634,
      "&'(ďĉ": 635,
      "ćććććććĈ!Ĉ!Ĉ!ćĈ!Ĉ!": 636,
      "ĥĤ": 637,
      "Ĉ!Ĉ!ĈĈ!Ĉ!Ĉ!Ĉ!": 638,
      "ćććććććĈ!Ĉ!ććććććĈ!ćĈĈ": 639,
      "ćććĈ!Ĉ!Ĉ!Ĉ!ĈĈĈĈĈĈĈĈĈĈ!ćĈ!Ĉ!ĈćĈĈćĈćĈĈĈćĈĈ": 640,
      ")!)!!!!!!!!!!!!!!!!!!!!!!!!!!!!!!!!!!!!!!!!!!!!!!!!!!!!!!!!!!!!!!!!!!!!!!!!!!!!!!!!": 641,
      "ďĉ!!ďĉďĉďĉ": 642,
      "%&'(!!!!!!!!!!!!!!!!!!!!!!!!!!!!!!!!!!!!!!!!!!!!!!!!!!!!!!!!!!!!!!!!": 643,
      "!!!!!!!!!!!!!!!!!!!!!!!!!!!!!!!!!!!!!!!": 644,
      "&'(!!!!!!!!!!!!!!!!!!!!!!!!!!!!!!!!!!!!!!!!!!!!!!!!!!!!!!!!!!!!!!!!!!!!!!!!!!!!!!!!!!!!!!!!!!!!!!!!!!!!!!!!!!!!!!!!!!!!!!!!!!!!!!!!!!!!!!": 645,
      "Ĉ!!": 646,
      "MMMMMMMMMMMMMMMMMMMMMMMMMMMMMMMM": 647,
      "Ĉ!ĈćĈ!": 648,
      "%!!!!!!!!!!!!!!!": 649,
      "Ē!!": 650,
      "ďĉďĉďĉďĉ!!": 651,
      "ćĈ!ĈćĈĈ": 652,
      "ććĈ!ćďĉ": 653,
      "ďĉćććććććć": 654,
      "ďĉďĉ!ďĉďĉ": 655,
      "ďĉĈ!ĈĈĈĈĈĈĈ": 656,
      "!!!!!!!!!!!!!!!!!!!!": 657,
      "Ĉ!Ĉ!Ĉ!ĈĈĈĈĈĈĈĈĈĈ!ĈĈĈ!ĈĈ!ĈĈĈĈ!ĈĈ!Ĉ": 658,
      "%!!!!!!!!!!!!!!!!!!!!!!": 659,
      "%!!!!!!!!!": 660,
      "Ĉ(": 661,
      "Ĉ!ĉ": 662,
      "ćććĈ!": 663,
      "%ď&'(ĉ!": 664,
      "ĖĖ": 665,
      "%&'(ďĉĈ!Ĉ!Ĉ!Ĉ!": 666,
      ")!!!!!!!!)!": 667,
      "ĈĈ!Ĉ": 668,
      "ďĉďĉ!ďĉ!": 669,
      "ďĉĈ!Ĉ!Ĉ!Ĉ!": 670,
      "ďĉďĉďĉďĉ!ďĉďĉ": 671,
      "ďĉďĉďĉďĉďĉ%&'(": 672,
      "Ĉ'(": 673,
      "%&'(ďĉ!": 674,
      "322": 675,
      "ćĈĈĈĈĈćĈĈĈĈĈ": 676,
      "ććĈ!Ĉ!Ĉ!Ĉ": 677,
      "ďĉ!ďĉďĉďĉďĉ!": 678,
      "ćććććććććććć": 679,
      ")!)!!!!!!!!!!!!!!!!!!!!!!!!!!!!!!!!!!!!!!!!!!!!!!!!": 680,
      "ďĉďĉ!ďĉ!!": 681,
      "01'(3": 682,
      "ćććĈ!Ĉ!Ĉ!Ĉ!Ĉ!Ĉ!ćććććĈ!ćĈĈ": 683,
      "ďĉďĉďĉďĉďĉ)!)": 684,
      "ďĉď%&'(ĉ": 685,
      "%!!!!!!!!!!!!!!!!!": 686,
      "%!!!!!!!!!!!!!!!!!!": 687,
      "ďĉďďĉĉ": 688,
      "ćććććĈ!Ĉ!Ĉ!ćĈĈćĈ": 689,
      "%&'(ďĉćć": 690,
      ")!)!": 691,
      "!LK!LK!LK!LK!LK!LK!LK!LK": 692,
      "ćĈ!ĈĈ!ĈĈĈ": 693,
      "AA": 694,
      "232222222222222222222222222222222222222222244444444%&5555555522222222222222222222222266666666": 695,
      "ďĉďĉďĉďĉďĉďĉďĉďĉďĉďĉ": 696,
      "Ĉ!Ĉ!ĈĈ!Ĉ!": 697,
      "%&'(ďĉďĉďĉ": 698,
      "Ĉ!ĈĈ!Ĉ!Ĉ!Ĉ!": 699,
      "ďĉ!!!!!!!!!!!!!!!!!!!!!!!!!!!!!!!!!!!!!!!!!!!!!!!!!!!!": 700,
      "ďĉďĉďĉďĉďĉďĉ%&'(": 701,
      "%!!!!!!!!!!!!!!!!!!!": 702,
      "&'(!!!!!!!!!!!!!!!!!!!!!!!!!!!!!!!!!!!!!!!!!!!!!!!!!!!!!!!!!!!!!!!!!!!!!!!!!!!!!!!!!!!!!!!!!!!!!!!!!!!!!!!!!!!!!!!!!!!!!!!!!!!!!!!!!!!!!": 703,
      "Ĉ!ćć": 704,
      "&'(!!!!!!!!!!!!!!!!!!!!!!!!!!!!!!!!!!!!!!!!!!!!!!!!!!!!!!!!!!!!!!!!!!!!!!!!!!!!!!!!!!!!!!!!!!!!!!!!!!!!!!!!!!!!!!!!!!!!!!!!!!!!!": 705,
      "ďĉ!!!!!!!!!!!!": 706,
      "ďĉďĉďĉ!!ďĉďĉ": 707,
      "32323": 708,
      "ć(": 709,
      "ćĈ!ďĉ": 710,
      "ćĈ!ćĈ!Ĉ!ĈćĈ!Ĉ!": 711,
      "Ĉ!Ĉ!ĈĈ!": 712,
      "%&'(ďĉďĉďĉďĉďĉďĉďĉďĉ": 713,
      "ďĉ!ďĉ!!!": 714,
      "&'(!!!!": 715,
      "ćĈ!ĈĈĈĈ": 716,
      "%&'(ďĉ!!!": 717,
      "Ĉ!Ĉ!Ĉ!Ĉ!ĈćĈĈĈ!ĈĈĈ": 718,
      "ďĉ!!!!!!!!!!!!!!!!!!": 719,
      "ć!!": 720,
      "Ĉ!ĈĈĈ!Ĉ!Ĉ": 721,
      ")!)!!!!!!!!!!!!!!!!!!!!": 722,
      "ďĉďĉ!ďĉďĉćććć": 723,
      "ććććĈćĈ": 724,
      "Čďĉ": 725,
      "ďĉďĉ!ďĉďĉ%&'(": 726,
      "ććĈ!Ĉ!Ĉ!ćĈ!": 727,
      "777": 728,
      "&'(!!!!!!!!!!!!!!!!!!!!!!!!!!!!!!!!!!!!!!!!!!!!!!!!!!!!!!!!!!!!!!!!!!!!!!!!!!!!!!!!": 729,
      "ďĉ!!ďĉ!!!!!!!!!!!": 730,
      "ćĈ!Ĉ!Ĉ!Ĉ!Ĉ!": 731,
      "Ĉ!ćĈ!Ĉ!Ĉ!ćĈ!Ĉ!": 732,
      "ďĉď": 733,
      "!!!!!!!!!ććććĈ!ĈĈ": 734,
      "ďĉďĉďĉďĉćććć": 735,
      "Čďĉďĉ": 736,
      "&'(!!!!!!!!!!!!!!!!!!!!!!!!!!!!!!!!!!!!!!!!!!!!!!!!!!!!!!!!!!!!!!!!!!!!!!!!!!!!!!!!!!!!!!!!!!!!!!!!!!!!!!!!!!!!!!!!!!!!!!!!!!": 737,
      "Ĉ!Ĉ!Ĉ!ĈĈĈ": 738,
      "Ĉ!Ĉ!Ĉ!Ĉ!Ĉ!Ĉ": 739,
      "ćĈĈĈćĈ": 740,
      "ćĈ!ĈćĈ!Ĉ!": 741,
      "%&-+/,'(#..$#$!!)!%&-+/,'(#..$#$!!)!%&-+/,'(#..$#$!!)!%&-+/,'(#..$#$!!)!": 742,
      "%!Ĉ&'(": 743,
      "%&-+/,'(%&-+/,'(%&-+/,'(%&-+/,'(%&-+/,'(%&-+/,'(%&-+/,'(%&-+/,'(": 744,
      "Ĉ!ďĉďĉ!": 745,
      "RTVa": 746,
      "ććĈ!ĈĈ!": 747,
      "%&'(%&'(%&'(": 748,
      "ďĉďĉ)": 749,
      "ćĈ!Ĉ!ĈĈ": 750,
      "!!!ďĉďĉďĉďĉ": 751,
      ")!)!!!!!!!!": 752,
      "!!!!!!!!!!!!!!!!!!!!!!!!!!!": 753,
      "ďĉććĈ!": 754,
      "ćĈ!Ĉ!ĈćĈ!": 755,
      "Ĉ(!": 756,
      "ćĈ!Ĉ!!": 757,
      "Ĉ!Ĉ!ĈĈĈ!": 758,
      "ďĉ!!ďĉ!ďĉďĉ!": 759,
      "ććććććććććććĈ!": 760,
      "ĈĈĈĈĈ!": 761,
      "ćďĉ%&'(": 762,
      "Ĉ!Ĉ!Ĉ!Ĉ!ĈĈĈĈ": 763,
      "ćĈćĈćĈ!Ĉ!": 764,
      "ćĈ!ćĈ!ćďĉďĉďĉďĉ!": 765,
      "ćććĈćć": 766,
      "Ĉ!ćĈ!Ĉ!Ĉ!Ĉ!Ĉ!!": 767,
      "&'(!!!!!!!!!!!!!!!!!!!!!!!!!!!!!!!!!!!!!!!!!!!!!!!!!!!!!!!!!!!!!!!!!!!!!!!!!!!!!!!!!!!!!!!!!!!!!!!!!!!!!!!!!!!!!!!!!!!!!!!!!!!!": 768,
      "ććĈ!ćďĉďĉďĉďĉďĉďĉďĉďĉ": 769,
      "Ĉ!ćĈ!ĈćĈ": 770,
      "00011": 771,
      "Ĉ!Ĉ!Ĉ!Ĉ!Ĉ!Ĉ!Ĉ": 772,
      "&'(!!!!!!!!!!!!!!!!!!!!!!!!!!!!!!!!!!!!!!!!!!!!!!!!!!!!!!!!!!!!!!!!!!!!!!!!!!!!!!!!!!!!!!!!!!!!!!!!!!!!!!!!!!!!!!!!!!!!!!!!!!!!!!!!!!!!": 773,
      "Ĉ!ĈĈ!Ĉ!Ĉ!Ĉ": 774,
      "Ĉ!ććĈĈ": 775,
      "Ĉ!Ĉ!ćĈĈ": 776,
      "Ē!": 777,
      "ČČ": 778,
      "ćĈćĈ!ćĈ": 779,
      "ďĉ!!!!!!!!!!!!!!!!!!!!!!!!!!!!!!!!!!!": 780,
      "Ĉ!ďĉďĉ": 781,
      "ćĈ!Ĉ!ćĈ": 782,
      ")!)!!!!!!!!!!!!!!!!!!!!!!!!!!!!!!": 783,
      "Ĉ'(!": 784,
      "ďĉďĉďĉ!!ďĉ!": 785,
      "ďĉ!!ďĉ!!!!!!!!": 786,
      "%!!!!!!!!!!!!!!!!!!!!": 787,
      "&'(!!!!!!!!!!!!!!!!!!!!!!!!!!!!!!!!": 788,
      "ďĉ%ď&'(ĉ": 789,
      "Ĉ!Ĉ!ćĈ!ĈĈ!": 790,
      "Ĉ!ĈĈĈ!ĈĈ": 791,
      "ďĉďĉ!!ďĉ!!!!": 792,
      "Ĉ!%&'(ďĉďĉďĉ!": 793,
      "ćĈĈĈććĈ": 794,
      "ćĈĈĈĈĈćĈ": 795,
      "%ćĈ&'(!": 796,
      "Ĉ!ďĉ!ďĉďĉďĉďĉ": 797,
      "ďĉ!!!ćććć": 798,
      "ćĈććć": 799,
      "Ĉ!ĈććĈ": 800,
      "&'(!!!!!!!!!!!!!!!!!!!!!!!!!!!!!!!!!!!!!!!!!!!!!!!!!!!!!!!!!!!!!!!!!!!!!!!!!!!!!!!!!!!!!!!!!!!!!!!!!!!!!!!!!!!!!!!!!!!!!!!!!!!!!!!!!!!": 801,
      "RTVa!!!SĂĄĆ!!!!R!!!S": 802,
      "Ĉ!Ĉ!ĈĈĈĈĈĈ": 803,
      "%&'(!!!!!!!!!!!!!!!!": 804,
      "ćĈ!ćĈĈĈ": 805,
      "Ĉ!Ĉ!Ĉ!ĈĈ!Ĉ": 806,
      "!!ćććć": 807,
      "%&'(!!!!!!!!!!!!!!!!!!!!!!!!!!!!!!!!!!!!!!!!!!!!!!!!!!!!!!!!!!!!!!!!!!!!!!!!!!!!!!!!!!!!!!!!!!!!!!!!!!!!!!!!!!!!!!!!!!!!!!!!!!!!!!!!": 808,
      "ďĉďĉ!!ďĉ!ďĉ!!": 809,
      "ć%Ĉ&'(!": 810,
      "Ĉ!Č": 811,
      "ćĈ!ćĈ!ćĈ!Ĉ!": 812,
      "ćĈĈććĈĈĈ": 813,
      "ććĈ!ćĈĈ": 814,
      "ćĈćĈćĈćĈćĈ": 815,
      "Ĉ!ďĉďĉ!ďĉćććć": 816,
      "ćĈĈĈććĈĈĈ": 817,
      "ćććĈććĈ": 818,
      "ĈĈ!ććĈ!Ĉ!": 819,
      "ćććĈ!ćĈ!": 820,
      "ďĉććććĈ!ćĈ!ćĈ!": 821,
      "ććĈ!Ĉ!Ĉ!Ĉ!Ĉ!ďĉďĉ!ďĉćććć": 822,
      "ćĈ!ćĈ!ćĈ!ćĈ!ćĈ!ćĈćĈćĈ": 823,
      "ćĈ!ćĈ!ĈĈ!Ĉ!": 824,
      "ćĈ!ćĈ!ćĈ!ćĈćĈ!ćĈ!Ĉ!": 825,
      "ČďĉćĈ!ćĈ!ćĈ!ćĈćĈ!ćĈ!Ĉ!": 826,
      "ĈĈ!ććĈ!Ĉ!ČďĉćĈ!ćĈ!ćĈ!ćĈćĈ!ćĈ!Ĉ!": 827,
      "ďĉććććĈ!ćĈ!ćĈ!ĈĈ!ććĈ!Ĉ!ČďĉćĈ!ćĈ!ćĈ!ćĈćĈ!ćĈ!Ĉ!": 828,
      "ććĈ!Ĉ!Ĉ!Ĉ!Ĉ!ďĉďĉ!ďĉćććććĈ!Ĉ!Ĉ!Ĉ!Ĉ!Ĉ!": 829,
      "ćĈ!ćĈ!ćĈ!ćĈ!ćĈ!ćĈćĈćĈďĉďĉ!": 830,
      "ćććĈ!ćĈ!ćĈ!ćĈ!ćĈ!ćĈćĈćĈďĉďĉ!": 831,
      "Ĉ!ĈĈĈćĈ!ćĈĈĈ": 832,
      "ďĉďĉďĉďĉďĉććććĈ!ćĈ!ĈćĈ": 833,
      "Ĉ!Ĉ!Ĉ!Ĉ!ĈćĈĈćĈĈĈĈĈ": 834,
      "ďĉććććĈ!ćĈ!ćĈ!ĈĈ!ććĈ!Ĉ!ČďĉćĈ!ćĈ!ćĈ!ćĈćĈ!ćĈ!Ĉ!ććĈ!ĈĈ!": 835,
      "ćĈ!Ĉ!ĈĈĈĈĈĈ": 836,
      "ďĉďĉďĉďĉĈ!ĈĈĈćĈ!ćĈĈĈ": 837,
      "Ĉ!ćĈ!Ĉ!ĈĈĈ!ĈĈĈććĈ!": 838,
      "ććĈćĈćĈćĈ": 839,
      "ćĈ!ćććĈ!ćć": 840,
      "Ĉ!ĈĈ!ććĈ!Ĉ!Ĉ": 841,
      "ćĈ!ććĈ!ćĈ!ććĈ!": 842,
      "ćććććććĈ!Ĉ!Ĉ!Ĉ!Ĉ!ćĈ!Ĉ!": 843,
      "ćďĉ!ďĉćććĈ!ćĈ!ćĈ!ćĈ!ćĈ!ćĈćĈćĈďĉďĉ!": 844,
      "ďĉďĉďĉďĉďĉććććĈ!ćĈ!ĈćĈĈ!Ĉ!Ĉ!Ĉ!ĈćĈĈćĈĈĈĈĈ": 845,
      "ĈĈćĈćĈćĈ!Ĉ!": 846,
      "Ĉ!Ĉ!ĈĈĈĈ": 847,
      "ććĈ!Ĉ!ĈĈĈ!Ĉ!": 848,
      "ććĈ!Ĉ!ĈćĈĈĈććĈĈĈ": 849,
      "ćććććććĈ!ćĈ!Ĉ!": 850,
      "ćĈ!Ĉ!ććĈ!ĈĈćĈćĈćĈ!Ĉ!": 851,
      "ćĈĈĈĈĈćĈĈĈĈĈćĈ!ĈĈĈ": 852,
      "Ĉ!Ĉ!ĈĈĈĈĈĈćĈ!ĈĈĈ": 853,
      "ďĉććććĈ!ćĈ!ćĈ!ĈĈ!ććĈ!Ĉ!ČďĉćĈ!ćĈ!ćĈ!ćĈćĈ!ćĈ!Ĉ!ććĈ!ĈĈ!ćĈĈ!Ĉ!Ĉ": 854,
      "ććĈ!Ĉ!ĈĈĈ!Ĉ!Ĉ!ĈĈćĈ": 855,
      "ćĈ!Ĉ!ććĈ!ĈĈćĈćĈćĈ!Ĉ!ĈćĈĈ": 856,
      "ĈĈĈĈĈĈĈĈĈĈĈĈĈĈĈĈĈĈĈĈĈĈĈĈĈĈĈ": 857,
      "!!!!!!!!!!ďĉ!!!!!!": 858,
      "ććĈ!ćĈ!ćĈ!ćĈ!ćĈćĈćĈ": 859,
      "ćĈ!ćĈ!Ĉ!ćĈĈćĈ!Ĉ!ććĈ!ĈĈćĈćĈćĈ!Ĉ!ĈćĈĈ": 860,
      "ďĉďĉďĉ!!ďĉ!ććĈ!Ĉ!Ĉ!Ĉ!Ĉ!ďĉďĉ!ďĉćććććĈ!Ĉ!Ĉ!Ĉ!Ĉ!Ĉ!": 861,
      "ćďĉ!ďĉćććĈ!ćĈ!ćĈ!ćĈ!ćĈ!ćĈćĈćĈďĉďĉ!ćććććććĈ!Ĉ!Ĉ!Ĉ!Ĉ!ćĈ!Ĉ!": 862,
      "!!ďĉ!!!!!!": 863,
      "ĈĈĈĈĈĈĈĈĈ!Č": 864,
      "ćĈĈĈććĈ!Ĉ!": 865,
      "ĈĈĈĈĈĈĈĈĈĈĈĈĈĈĈĈĈĈ!": 866,
      "ćĈ!ĈĈĈĈ!ĈĈ!Ĉ": 867,
      "ććĈ!ććĈ!ĈĈ!ććĈ!Ĉ!Ĉ": 868,
      "ďĉ!)!)!!!!!!!!!!!!!!": 869,
      "ćĈ!Ĉ!ĈĈĈĈĈĈććĈ!ćďĉ": 870,
      ")!!!!!!!!!!!!!!!": 871,
      "ćĈ!ćććĈ!Ĉ!Ĉ!": 872,
      "ćĈ!Ĉ!ćĈĈ": 873,
      "ćĈ!ćĈ!ćĈ!Ĉ!Ĉ!": 874,
      "ććććĈ!ććĈ!ć": 875,
      "ććĈĈćĈĈĈ": 876,
      "ćĈ!ćĈ!Ĉ!Ĉ!ćĈ!ćĈ!Ĉ!ćĈĈćĈ!Ĉ!ććĈ!ĈĈćĈćĈćĈ!Ĉ!ĈćĈĈ": 877,
      "!!Č!": 878,
      "ĈĈĈĈĈĈĈĈĈĈĈĈĈĈĈĈĈĈĈĈĈĈĈ": 879,
      "Ĉ!ćććĈ!ććĈ!": 880,
      "ćććĈćććĈĈćĈ": 881,
      "ććĈćĈćĈćĈćĈ!": 882,
      "ćććććććĈ!ćĈ!Ĉ!Ĉ!Ĉ!Ĉ!ćĈ!Ĉ!": 883,
      "ććĈ!ćĈ!ććĈ": 884,
      "ććĈ!ĈĈĈĈĈ!": 885,
      "ćććĈĈ!Ĉ!": 886,
      "Ĉ!Ĉ!Ĉ!ćĈĈĈććĈ": 887,
      "ćĈ!ĈĈĈćć": 888,
      "&'(!!!!ďĉććććĈ!ćĈ!ćĈ!ĈĈ!ććĈ!Ĉ!ČďĉćĈ!ćĈ!ćĈ!ćĈćĈ!ćĈ!Ĉ!ććĈ!ĈĈ!ćĈĈ!Ĉ!Ĉ": 889,
      "ēē": 890,
      "ćĈ!ććććććĈ!": 891,
      "ćĈ!Ĉ!Ĉ!Ĉ!Ĉ!Ĉ!Ĉ!Ĉ!": 892,
      "ćĈ!ćĈ!ććĈ": 893,
      "Ĉ!ćĈ!ćĈĈĈĈ!Ĉ": 894,
      ")!)!!ďĉďĉ": 895,
      "ćĈ!ćĈ!ĈĈ!ćĈ!Ĉ!ĈĈĈ!ĈĈĈććĈ!": 896,
      "ĈĈĈĈ!ććĈ": 897,
      "Ĉ!%&'(ďĉďĉďĉ!))": 898,
      "ďĉďĉďĉďĉďĉććććĈ!ćĈ!ĈćĈĈ!Ĉ!Ĉ!Ĉ!ĈćĈĈćĈĈĈĈĈĈ!%&'(ďĉďĉďĉ!))": 899,
      "Ĉ!ćććĈ!ććĈ!ćĈ!ĈĈĈćć": 900,
      "Ĉ!Ĉ!Ĉ!Ĉ!ĈĈĈĈĈĈĈĈĈ!Č": 901,
      "Ĉ!Ĉ!Ĉ!Ĉ!Ĉ!Ĉ!ĈĈĈ!Ĉ!": 902,
      "ďĉ!!!ćććĈ": 903,
      "Ĉ!ĈĈĈ!ĈĈĈĈĈĈĈĈĈĈĈĈĈĈĈĈĈĈ!": 904,
      "ććććĈćĈććĈ!": 905,
      "ďĉ!!ďĉ!!!!!!!!)!!!!!!!!)!": 906,
      "ďĉďĉďĉďĉďĉ!!ďĉ": 907,
      "Ĉ!Ĉćć": 908,
      "ććććććććĈ!": 909,
      "Ĉ!ĈĈĈĈ!Ĉ": 910,
      "ććĈ!Ĉ!Ĉ!Ĉ!Ĉ": 911,
      "ććĈ!ćďĉďĉďĉďĉ": 912,
      "ďĉ!!ďĉ!ććĈ!": 913,
      "ďĉććĈĈĈĈĈ": 914,
      "&'(!!!!!!!!!!!!!!!!!!!!!!": 915,
      "ććĈ!ćććĈ!ćććĈ!ćććĈ!Ĉ!Ĉ!": 916,
      "ćĈ!Ĉ!!Ĉ!ćĈ!ćĈ!": 917,
      "ćĈĈĈććĈ!Ĉ!ććĈ!ćć": 918,
      "&'(!!!!ďĉććććĈ!ćĈ!ćĈ!ĈĈ!ććĈ!Ĉ!ČďĉćĈ!ćĈ!ćĈ!ćĈćĈ!ćĈ!Ĉ!ććĈ!ĈĈ!ćĈĈ!Ĉ!ĈćĈ!Ĉ!ĈĈĈĈĈĈććĈ!ćďĉ": 919,
      "ćĈćĈćĈĈĈćĈ": 920,
      "ćććĈ!Ĉ!Ĉ": 921,
      "ćĈ!ćĈ!!": 922,
      "Ĉ!ĈĈ!ĈĈĈĈĈĈĈĈĈĈĈĈĈĈĈĈĈĈĈĈĈĈĈĈĈĈĈ": 923,
      "ćććććććĈ!ćĈ!Ĉ!Ĉ!Ĉ!Ĉ!ćĈ!Ĉ!ćĈććĈ": 924,
      "ćĈ!Ĉ!ććĈ": 925,
      "ćĈćĈ!ććĈ": 926,
      "ćĈ!ĈćĈ!ćĈ!ĈĈ!ćĈ!Ĉ!ĈĈĈ!ĈĈĈććĈ!": 927,
      "Ĉ!ĈĈĈ!ĈĈĈĈ": 928,
      "ćĈćĈĈĈ!Ĉ": 929,
      "ćĈ!ćĈ!Ĉ!ćĈĈćĈ!Ĉ": 930,
      "Ĉ!ĈĈĈĈ!ĈĈĈĈĈĈĈĈ": 931,
      "ćĈćĈĈĈĈĈĈĈ": 932,
      "Ĉ!Ĉ!Ĉ!ĈĈĈĈĈĈĈĈĈĈ!ĈĈĈ!ĈĈ!ĈĈĈĈ!ĈĈ!ĈďĉĈ!ĈĈĈĈĈĈĈ": 933,
      "Ĉ!Ĉ!Ĉ!ćĈĈĈććĈĈ!ćććĈ!ććĈ!ćĈ!ĈĈĈćć": 934,
      "ćĈ!ććććććĈ!ćĈ!ććĈ": 935,
      "Ĉ!Ĉ!Ĉ!Ĉ!ćĈ!": 936,
      "ćĈĈĈ!Ĉ!ćĈ!Ĉ!": 937,
      "ĈĈĈĈĈĈĈĈĈĈĈĈĈĈĈĈĈĈĈĈĈĈĈĈ": 938,
      "ćććĈććććĈććĈ": 939,
      "ćĈĈćĈĈćĈĈĈĈĈćĈ": 940,
      "ďĉ!ďĉďĉ!!!!!!!!!!!!!!!!!!!!!!!!!!!!": 941,
      "ććĈ!ććććĈćĈćĈćĈ": 942,
      "ĈĈ!ĈććĈ!Ĉ!Ĉ": 943,
      "Ĉ!Ĉ!ĈĈ!Ĉ!Ĉ!ĈĈĈĈ": 944,
      "ČďĉďĉććĈ!ćĈ!ćĈ!ćĈ!ćĈćĈćĈ": 945,
      "ćĈ!Ĉ!!Ĉ!ćĈ!ćĈ!ććĈ!Ĉ!": 946,
      "ćććďĉ": 947,
      "ďĉďĉ!ďĉ%&'(": 948,
      "Ĉ!Ĉ!ĈĈ!Ĉ!ĈĈĈ": 949,
      "Ĉ!Ĉ!ĈĈ!Ĉ!ĈĈ!Ĉ": 950,
      "Ĉ!ĈĈĈĈ!ĈĈĈĈ": 951,
      "ďĉ!ďĉďĉďĉďĉďĉďĉďĉ": 952,
      "ććććĈ!ćććĈććĈ": 953,
      "ćććĈćććĈĈćĈćĈ!Ĉ!": 954,
      "Ĉ!Ĉ!Ĉ!Ĉ!ĈĈĈĈĈĈĈĈĈ!Čďĉ!": 955,
      "ďćĉ": 956,
      "Ĉ!ĈĈ!Ĉ!ćĈ!": 957,
      "&'(!!!!!!!!!!!!!!!!!!!!!!!!!!!!!!!!!!!!!!!!!!!!!!!!!!!!!!!!!!!!!!!!!!!!!!!!!!!!!!!!!!!!!!!!!!!!!!!!!!!!!!!!!!!!!!!!!!!!!!!!!!!!!!!!!!!!!!!": 958,
      "ďĉďĉďĉ!!ďĉ": 959,
      "ććĈ!Ĉ!Ĉ!Ĉ!Ĉ!ĈĈ!": 960,
      "ćĈ!ĈĈĈ!!ćććć": 961,
      "ććĈ!ĈććććĈ": 962,
      "ďĉ!!!!!!!!ďĉ!!!!!": 963,
      "ćĈĈĈćĈĈćććć": 964,
      "ćććĈ!Ĉ!Ĉ!ććĈ": 965,
      "ććĈĈĈĈćĈĈĈĈ": 966,
      "&'(ćďĉ!ďĉćććĈ!ćĈ!ćĈ!ćĈ!ćĈ!ćĈćĈćĈďĉďĉ!ćććććććĈ!Ĉ!Ĉ!Ĉ!Ĉ!ćĈ!Ĉ!": 967,
      "ćĈĈ!Ĉ!Ĉ!Ĉ!": 968,
      "!!!!!!!!!!!!!!!!!!!!!!!!!!!!!!!!!!!!!!!!!!!!!!!!!!!!!!!!!!!!!!!!!!!!!!!!!!!!!!!!": 969,
      "ćĈ!ĈćĈ!ććĈ": 970,
      "Ĉ!Ĉ!ćĈ!Ĉ!ĈĈĈ": 971,
      "ćĈĈćĈĈćĈ!ćććĈ!ćć": 972,
      "!!Č!!Č!": 973,
      "ćĈćĈćĈćĈćĈćĈćĈćĈćĈćĈćĈćĈ": 974,
      "ććĈ!ćĈ!ĈĈ!ćĈ!Ĉ!": 975,
      "&'(ďĉ))": 976,
      "Ĉ!ććĈĈććĈ!ćĈĈ": 977,
      "Ĉ!ĈĈĈĈ!ĈĈ!ĈĈĈĈ": 978,
      ")!!!!!!!!!!!!!!!!!!!!!!!!!!!!!!!!": 979,
      "Ĉ!ćĈ!Ĉ!Ĉ!Ĉ!Ĉ!Ĉ!": 980,
      "ćĈĈĈĈ!Ĉ!ćĈ!Ĉ!": 981,
      "ćĈĈĈĈ!Ĉ!ćĈ!": 982,
      "ćĈĈĈćĈ!ĈĈĈĈ": 983,
      "ćĈćĈćĈćĈĈĈ": 984,
      "ďĉ!!!!!!!!!!!!!!!!!!!!!!!!!!!!!!!!!!!!!!!!!!!!!!!!!!!!!!!!!": 985,
      "ćĈ!ĈĈćĈ!ćĈ!Ĉ!Ĉ!ćĈ!ćĈ!Ĉ!ćĈĈćĈ!Ĉ!ććĈ!ĈĈćĈćĈćĈ!Ĉ!ĈćĈĈ": 986,
      "ććĈ!ćĈ!ćĈ!ĈćĈĈ": 987,
      "ćĈĈćĈĈćĈćĈćĈććĈćĈćĈćĈćĈ!": 988,
      "ćĈ!ćĈ!ćĈ!ćĈ!ćĈ!Ĉ!ćĈ!ćĈ!Ĉ!ćĈĈćĈ!Ĉ": 989,
      "ćĈ!ĈĈ!Ĉ!ďĉ!ďĉ!": 990,
      "ćĈććĈ!ćĈ!ćĈ!ĈćĈĈ": 991,
      "ććĈ!Ĉ!Ĉ!ććĈ!Ĉ!": 992,
      "ďĉ!!!!!ďĉ!)!)!!!!!!!!!!!!!!": 993,
      "Ĉ!Ĉ!ĈĈ!ĈĈ!Ĉ!ĈĈ": 994,
      "ććĈ!ćććĈ!ćććĈ": 995,
      "ćććĈ!Ĉ!ćĈ!Ĉ!ĈĈĈĈ!ććĈ": 996,
      "!!!!!!!!!ććććĈ!ĈĈ%&'(ďĉ": 997,
      "ćĈććć!!": 998,
      "ćććĈććććĈććĈććććĈććĈ": 999,
      "ćĈ!Ĉ!Ĉ!Ĉ!Ĉ!Ĉ": 1000,
      "Ĉ!ĈĈĈ!Ĉ!Ĉ!Ĉ!Ĉ!Ĉ!Ĉ!Ĉ!": 1001,
      "ćĈćĈćĈćĈćĈćĈćĈćĈćĈ": 1002,
      "ććĈ!ĈććĈ!Ĉ!": 1003,
      "Ĉ!ĈĈĈĈĈĈĈĈ!ĈĈĈĈĈ": 1004,
      "ĈĈĈĈĈćĈćĈ": 1005,
      "Ĉ!ĈĈ!ĈĈĈĈĈĈĈĈĈĈĈĈĈĈĈĈĈĈĈĈĈĈĈĈĈĈĈĈ!Ĉ!Ĉ!Ĉ!ĈĈĈĈĈĈĈĈĈ!Čďĉ!": 1006,
      "ďĉďĉďĉďĉďĉ!ďĉ": 1007,
      "ććĈ!ćĈ!Ĉ!Ĉ!ćĈ!Ĉ!": 1008,
      "ćććĈ!Ĉ!ćććĈĈ": 1009,
      "ćĈ!ćććĈ!ććĈ": 1010,
      "Ĉ!Ĉ!ĈĈćĈ!Ĉ!": 1011,
      "ććĈ!ĈćĈćĈ": 1012,
      ")!!!!!!!!)": 1013,
      "Ĉ!ĈĈĈĈĈĈĈ!Ĉ!Ĉ!ĈĈ!Ĉ": 1014,
      "&'(!!!!ďĉććććĈ!ćĈ!ćĈ!ĈĈ!ććĈ!Ĉ!ČďĉćĈ!ćĈ!ćĈ!ćĈćĈ!ćĈ!Ĉ!ććĈ!ĈĈ!ćĈĈ!Ĉ!ĈćĈ!Ĉ!ĈĈĈĈĈĈććĈ!ćďĉ!!!!!!!!": 1015,
      "!&'(ďĉ))": 1016,
      "Ĉ!Ĉ!ĈĈ!Ĉ!Ĉ!!": 1017,
      "ćĈĈĈĈĈćĈĈćĈ": 1018,
      "Ĉ!ĈĈ!ĈĈ!ĈĈĈ!ĈĈĈĈ": 1019,
      "ćĈ!Ĉ!Ĉ!Ĉ!ćĈ!ćć": 1020,
      "ĈĈĈĈĈĈĈĈĈĈĈĈ!Ĉ!": 1021,
      "ćććĈĈĈĈĈ": 1022,
      "ćĈ!ćĈ!Ĉ!ćĈ!Ĉ": 1023,
      "ććĈ!Ĉ!Ĉ!Ĉ!ćĈĈĈ!Ĉ!ćĈ!Ĉ!": 1024,
      "ććććĈ!ććĈ!ćććĈ!ćććĈ": 1025,
      "ćĈ!ĈĈĈ!ĈĈ": 1026,
      "ćĈ!ĈĈćĈĈćĈ": 1027,
      "ćććĈ!Ĉ!Ĉ!ĈĈ!Ĉ!ćĈ!Ĉ!": 1028,
      "Ĉ!ĈĈĈĈĈĈ!Ĉ!Ĉ": 1029,
      "ćĈććĈĈ!ĈĈĈ": 1030,
      "ććććĈ!Ĉ!ććĈ!ĈććććĈ": 1031,
      "ćććĈĈ!Ĉ!ćĈ!ććĈćĈ!ćĈ": 1032,
      "ććĈ!Ĉ!ĈĈĈ": 1033,
      "Ĉ!Ĉ!ćĈ!Ĉ!Ĉ!Ĉ!ćĈ!Ĉ!": 1034,
      "ćĈ!ććĈććĈ": 1035,
      ")))": 1036,
      "ćĈ!Ĉ!Ĉ!Ĉ!Ĉ!Ĉ!ĈĈ": 1037,
      "ćĈ!Ĉ!Ĉ!Ĉ!Ĉ!Ĉ!Ĉ!ćĈ!": 1038,
      "ćĈ!ĈĈĈćĈćĈćĈĈĈćĈ": 1039,
      "Ĉ!ćĈ!ĈĈĈĈ": 1040,
      "ćĈ!ĈĈćĈ!ćĈĈ": 1041,
      "ćĈ!ćĈ!ćĈ!ćĈ!ćĈ!Ĉ!Ĉ!Ĉ!ĈĈ!": 1042,
      "ćććććććććććĈ!Ĉ": 1043,
      "Ĉ!ćĈ!Ĉ!ĈćĈĈĈćĈĈĈćĈĈćććć": 1044,
      "000111": 1045,
      "ććććĈćĈććĈ!ćĈ!Ĉ!Ĉ!Ĉ!ćĈ!Ĉ!": 1046,
      "ććĈ!Ĉ!Ĉ!Ĉ!Ĉ!ĈĈ!ćĈ!ćĈ!ćĈ": 1047,
      "ďĉďĉďĉďĉďĉďĉ!!!": 1048,
      "ććĈĈ!Ĉ!ĈĈĈ!": 1049,
      "ćĈĈĈćĈ!ĈććĈĈĈ": 1050,
      "Ĉ!Ĉ!Ĉ!Ĉ!Ĉ!Ĉ!Ĉ!ĈĈ!": 1051,
      "01010101": 1052,
      "ćĈ!ĈćĈĈ!Ĉ!ćĈ!ĈĈ!": 1053,
      "ćĈĈĈĈĈĈĈĈććĈćĈĈ!": 1054,
      "ćĈ!ćĈ!ćĈ!Ĉ!ććććĈ!ććĈ!ć": 1055,
      "ďĉ!!!ćććĈćĈ!ćĈ!ĈĈ!Ĉ!": 1056,
      "&'(!!!!!!!!!!!!!!!!!!!!!!!!!!!!!!!!!!!!!!!!!!!!!!!!!!!!!!!!!!!!!!!!!!!!!!!!!!!!!!!!!!!!!!!!!!!!!!!!!!!!!!!!!!!!!!!!!!!!!!!!!!!!!!!!!!": 1057,
      "ćĈĈĈĈĈĈćĈĈĈĈ": 1058,
      "ććĈ!Ĉ!ĈćĈĈĈććĈĈĈććĈ!Ĉ!Ĉ!Ĉ!Ĉ!Ĉ!ćĈ": 1059,
      "ćĈ!ććććććĈ!ćĈ!ććĈćććĈćććĈĈćĈćĈ!Ĉ!": 1060,
      "ďĉ!!!!!!!!ďĉ!!!!!ćĈ!ĈćĈ!ćĈ!ĈĈ!ćĈ!Ĉ!ĈĈĈ!ĈĈĈććĈ!": 1061,
      "Ĉ!Ĉ!Ĉ!ĈĈĈĈĈĈĈĈ!ĈĈĈĈĈ": 1062,
      "ćććććććĈ!Ĉ!Ĉ!ććĈĈććĈ!ćĈĈ": 1063,
      "ććĈ!ĈĈ!ĈĈĈĈ!ĈĈ!ĈĈĈĈ": 1064,
      "Ĉ!Ĉ!Ĉ!ćĈ!Ĉ!ćĈ!ćĈ!ćĈ!ćĈ!": 1065,
      "ćććĈ!Ĉ!Ĉ!Ĉ!Ĉ!Ĉ!ĈĈĈĈĈĈĈĈĈĈĈĈ": 1066,
      "ćĈ!ćĈ!ćĈćĈ!ćĈ": 1067,
      "ďĉćĈ!Ĉ!ććĈ!ććĈ!ĈĈ!ććĈ!Ĉ!Ĉ": 1068,
      "Ĉ!Ĉ!ĈĈ!Ĉ!ĈĈĈĈ!Ĉ!ĈĈ!Ĉ!Ĉ!!": 1069,
      "ćĈ!ćććĈ!ććĈćĈ!ććĈ": 1070,
      "Ĉ!Ĉ!ĈĈĈĈĈĈĈĈĈĈĈĈĈĈĈĈĈĈĈĈĈĈĈĈ": 1071,
      "ćĈĈ!Ĉ!ĈĈĈ": 1072,
      "ććĈ!Ĉ!Ĉ!Ĉ!ćĈ!Ĉ!!Ĉ!ćĈ!ćĈ!ććĈ!Ĉ!": 1073,
      "Ĉ!ĈĈ!Ĉ!Ĉ!Ĉ!ĈĈ": 1074,
      "ććĈĈćĈĈĈććĈĈććĈćć": 1075,
      "ćĈ!Ĉ!ććĈćĈ!": 1076,
      "ććĈĈĈĈćĈĈĈĈćĈĈĈĈĈĈĈĈććĈ": 1077,
      "Ĉ!Ĉ!ĈĈ!ĈĈ!Ĉ!ĈĈĈ!ĈĈĈĈ!ĈĈĈĈ": 1078,
      "ďĉďĉ!!ćććĈ!Ĉ!ćĈ!Ĉ!ĈĈĈĈ!ććĈ": 1079,
      "&'(!!!!!!!!!!!!!!!!!!!!!!!!!!!!!!!!!!!!!!!!!!!!!!!!!!!!!!!!!!!!!!!!!!!!!!!!!!!!!!!!!!!!!!!!!!!!!!!!!!!!!!!!!!!!!!!!!!!!!!!!!!!!!!!!!!!!!!!!": 1080,
      "ćĈ!Ĉ!ćĈ!Ĉ!ćĈ!Ĉ!Ĉ!Ĉ!Ĉ!": 1081,
      "Ĉ!ĈĈĈĈ!ĈĈĈĈĈĈĈĈĈĈĈĈ!Ĉ!": 1082,
      "!!!!!!!!!!!!!!!!!!!!!!!!!!!!!!!!!!!!!!!!!!!!!!!!!!!!!!!": 1083,
      "ćĈĈĈĈĈĈĈĈĈĈĈĈĈ!ćĈ!ćĈĈĈĈ!Ĉ": 1084,
      "ććĈ!ććććĈć!!": 1085,
      "ćĈ!Ĉ!ĈĈćĈ": 1086,
      "Ĉ!Ĉ!Ĉ!Ĉ!Ĉ!Ĉ!ĈĈ!ĈĈ!ĈĈ!ĈĈĈ!ĈĈĈĈ": 1087,
      "ćĈĈććĈĈĈćĈ!ĈćĈ!ććĈ": 1088,
      "ćĈĈĈĈ!Ĉ!ćĈ!Ĉ!ćĈĈĈćĈ!ĈĈĈĈ": 1089,
      "ćĈ!ćĈ!Ĉ!ććĈ!ĈććĈ!Ĉ!": 1090,
      "ćĈĈĈĈĈćĈĈĈĈĈćĈ!ĈĈĈćĈ": 1091,
      "ćĈĈĈććĈ!Ĉ!ććĈ!ćććĈćĈćĈćĈćĈĈćĈĈćĈćĈćĈ": 1092,
      "ćĈĈćĈĈćĈĈĈĈĈćĈćĈĈćĈĈćĈćĈćĈććĈćĈćĈćĈćĈ!": 1093,
      "ĈĈ!ĈććĈ!Ĉ!ĈĈ!ĈĈ!Ĉ!ćĈ!": 1094,
      "ćććĈ!Ĉ!ćććĈĈćĈ!ĈĈĈ!!ćććć": 1095,
      "ćďĉďĉďĉďĉďĉďĉďĉ!": 1096,
      "ćĈ!ĈĈ!ĈĈĈ!Ĉ!Ĉ!Ĉ!Ĉ!Ĉ!Ĉ!Ĉ!": 1097,
      "%!!!!!!!!!!!!!!!!!!!!!": 1098,
      "ćĈ!Čďĉďĉďĉ!ďĉďĉ!": 1099,
      "ććĈ!ćĈ!ććĈćĈććć!!": 1100,
      "ćĈćĈćĈćĈĈĈćĈĈĈĈĈĈ": 1101,
      "ććĈ!ĈćĈćĈćĈ!ĈćĈĈ": 1102,
      "ćĈ!ćĈ!ćĈ!ĈĈ!Ĉ!": 1103,
      "ćććĈ!Ĉ!Ĉ!ćĈ!Ĉ!Ĉ": 1104,
      "!!!!!!)!!!!!!!!)": 1105,
      "Ĉ!Ĉ!Ĉ!Ĉ!Ĉ!Ĉ!ĈĈĈ": 1106,
      "Ĉ!Ĉ!ĈĈĈ!Ĉ!Ĉ!Ĉ!ĈĈĈĈ": 1107,
      "ććĈ!Ĉ!ĈĈ!ĈĈĈ": 1108,
      "ćĈ!ĈĈ!ććĈ!ćĈ!ĈĈ!ćĈ!Ĉ!": 1109,
      "ćĈĈ!ćĈ!Ĉ!ĈĈĈĈćĈĈĈĈ": 1110,
      "ććććććĈ!ćććĈ!ćć": 1111,
      "ćĈ!ćĈ!ććĈćĈ!Ĉ!Ĉ!Ĉ!ćĈ!ćć": 1112,
      "ćĈ!ćĈ!Ĉ!ćĈ!ĈćĈ!ĈĈ!Ĉ": 1113,
      "Ĉ!Ĉ!Ĉ!Ĉ!Ĉ!ćĈ!ĈĈĈĈ": 1114,
      "ćĈ!ććĈĈĈĈĈćĈćĈ": 1115,
      "Ĉ!Ĉ!Ĉ!ćĈ!ćĈ": 1116,
      "ććĈ!Ĉ!Ĉ!Ĉ!ćććĈ!Ĉ!Ĉ!ććĈ": 1117,
      "%!!!!!!!&'(": 1118,
      "ĈĈĈ!ĈĈĈććĈ!ćĈćĈĈĈ!Ĉ": 1119,
      "ćĈćĈĈĈĈĈćĈĈ": 1120,
      "Ĉ!Ĉ!Ĉ!Ĉ!Ĉ!Ĉ!ĈĈĈ!Ĉ!ĈĈĈĈ": 1121,
      "ććććĈ!ćććĈććĈćććĈććććĈććĈććććĈććĈ": 1122,
      "ćĈĈ!Ĉ!Ĉ!Ĉ!ćĈćĈĈ": 1123,
      "Ĉ!ĈĈĈĈĈĈ!Ĉ!ĈĈ!ĈĈĈĈ!ĈĈĈĈĈĈĈĈ": 1124,
      "ćććććďĉ!": 1125,
      "ďĉďĉ!ďĉ!)": 1126,
      "ćĈćĈĈĈĈĈĈĈćĈĈĈĈĈĈ": 1127,
      "Ĉ!ĈĈ!ĈĈĈĈĈĈĈĈĈĈĈĈĈĈĈĈĈĈĈĈĈĈĈĈĈĈĈĈ!Ĉ!Ĉ!Ĉ!ĈĈĈĈĈĈĈĈĈ!Čďĉ!ćććććććĈ!Ĉ!ććććććĈ!ćĈĈ": 1128,
      "ććĈ!Ĉ!ĈćĈĈĈććĈĈĈććĈ!Ĉ!Ĉ!Ĉ!Ĉ!Ĉ!ćĈĈ!Ĉ!Ĉ!ćĈĈĈććĈĈ!ćććĈ!ććĈ!ćĈ!ĈĈĈćć": 1129,
      "ććććććććĈ!Ĉ!Ĉ!Ĉ!": 1130,
      "Ĉ!Ĉ!ĈćĈĈĈĈ": 1131,
      "ćĈĈĈćĈ!ĈĈĈĈ!ĈĈ!Ĉ": 1132,
      "ďĉ%&'(ďĉďĉ": 1133,
      "ĈĈĈĈĈĈĈĈĈĈĈĈĈĈĈĈĈĈĈĈĈĈĈĈ!": 1134,
      "ćĈ!ćĈ!ćĈ!ćĈ!Ĉ!Ĉ!Ĉ": 1135,
      "ćĈ!ĈćĈćĈćĈćĈ!Ĉ!ĈćĈ!Ĉ!": 1136,
      "ććĈ!ććććĈćĈćĈćĈććććĈ!Ĉ!ććĈ!ĈććććĈ": 1137,
      "&'(ćďĉ!ďĉćććĈ!ćĈ!ćĈ!ćĈ!ćĈ!ćĈćĈćĈďĉďĉ!ćććććććĈ!Ĉ!Ĉ!Ĉ!Ĉ!ćĈ!Ĉ!ćĈ!ćĈ!ćĈ!ćĈ!ćĈ!Ĉ!Ĉ!Ĉ!ĈĈ!": 1138,
      "ćĈ!ććĈććĈ!!!!!!": 1139,
      "Ĉ!ĈĈďĉ!!": 1140,
      "!!!!!!!!!!!!!!ďĉďĉďĉďĉ": 1141,
      "ďĉ!!!!!!!!ďĉďĉďĉďĉďĉććććĈ!ćĈ!ĈćĈĈ!Ĉ!Ĉ!Ĉ!ĈćĈĈćĈĈĈĈĈĈ!%&'(ďĉďĉďĉ!))": 1142,
      "ćĈ!ććĈ!ćĈ!ććĈ!ćĈććĈ!ćĈ!ćĈ!ĈćĈĈ": 1143,
      "ććĈ!Ĉ!ĈĈĈ!!ćĈ!Ĉ!Ĉ!Ĉ!": 1144,
      "ćććĈćććĈĈ!Ĉ!ćĈ!ććĈćĈ!ćĈ": 1145,
      "ćĈ!Ĉ!ĈćĈććĈĈ!ĈĈĈ": 1146,
      "ĈĈĈ!ĈĈĈććĈ!ĈĈ!ĈĈĈĈ!ĈĈ!ĈĈĈĈ": 1147,
      "Ĉ!ĈĈćĈĈ!Ĉ": 1148,
      "Ĉ!ĈććĈĈ!Ĉ!": 1149,
      "Ĉ!Ĉ!ĈĈ!Ĉ!ĈĈ!ĈĈ!Ĉ!ĈĈ!ĈĈ!Ĉ!ĈĈĈ!ĈĈĈĈ!ĈĈĈĈ": 1150,
      "ćĈ!ĈĈćĈ!ćĈĈćĈ!Ĉ!": 1151,
      "ćĈ!Ĉ!ćĈ!ćĈ!ćĈ!Ĉ!ććććĈ!ććĈ!ć": 1152,
      "ććććććććććććććććććććććĈ!": 1153,
      "!!!SĂĄĆ!!ďĉ!!!!!!": 1154,
      "ćĈĈ!ćĈ!Ĉ!Ĉ!Ĉ!Ĉ!ĈĈĈ": 1155,
      "!!ćĈ!Ĉ!Ĉ!Ĉ!ćĈ!ććĈ!": 1156,
      "ćĈ!ĈĈĈ!ĈĈćĈ!Ĉ!Ĉ!": 1157,
      "ćĈćĈćĈćććĈćĈ": 1158,
      "ćććĈćĈ!ćĈ": 1159,
      "ćĈ!ćĈ!ćĈ!ćĈ!ćĈ!Ĉ!ćĈ!ćĈ!Ĉ!Ĉ!ćĈ!Ĉ!": 1160,
      "ćĈ!ĈććĈĈĈćĈĈĈćĈ!ĈććĈĈĈ": 1161,
      "Ĉ!ćĈ!Ĉ!Ĉ!ćĈ!Ĉ!Ĉ!ĈĈ!": 1162,
      "ććĈ!ĈĈĈĈĈ!ćďĉďĉ": 1163,
      "ććĈĈćĈĈĈććĈĈććĈćććĈĈĈĈĈćĈĈćĈ": 1164,
      "ćĈ!Ĉ!ćĈ!Ĉ!ćĈ!Ĉ!Ĉ!Ĉ!Ĉ!ćĈ!ćĈ!ćĈ!ćĈ!ćĈ!Ĉ!ćĈ!ćĈ!Ĉ!ćĈĈćĈ!Ĉ": 1165,
      "ďĉ!ďĉ!!!!!!!!!!!!!!!!": 1166,
      "ĈĈĈĈĈĈĈĈĈĈĈĈĈĈĈĈĈĈĈĈ!": 1167,
      "ďĉďĉďĉ!!)!)!!!!!!!!!!!!!!!!!!!!": 1168,
      "ćĈ!Ĉ!Ĉ!ććĈ!ćĈ!Ĉ!Ĉ!ćĈ!Ĉ!": 1169,
      "ćĈ!Ĉ!ćĈććĈ!Ĉ!": 1170,
      "!!!!!!!!!!!!!!!ďĉ!!!!!!!!!!!!!!!!!!!!!!!!!!!!!!!!!!!!!!!!!!!!!!!!!!!!!!!!!!!!!!!!": 1171,
      "Ĉ!Ĉ!ćĈ!Ĉ!ĈĈ!": 1172,
      "Ĉ!Ĉ!Ĉ!!ćĈĈĈĈ!Ĉ!ćĈ!Ĉ!ćĈĈĈćĈ!ĈĈĈĈ": 1173,
      ")!)!!!!!!!!ďĉ!ďĉďĉ": 1174,
      "ćĈ!Ĉ!ććĈćĈ!ĈĈĈĈĈĈćĈ!ććĈ": 1175,
      "LL!LK": 1176,
      "!!!!!!!!!ćććĈ!Ĉ!Ĉ!Ĉ!Ĉ!Ĉ!ĈĈĈĈĈĈĈĈĈĈĈĈ": 1177,
      "ďĉ!ďĉ!ďĉ!ďĉ!": 1178,
      "ĈĈĈ!ĈĈĈĈ!ĈĈ!Ĉ!Ĉ!Ĉ!ĈĈ": 1179,
      "ďĉďĉďĉďĉďĉ!!ďĉ!ďĉ!": 1180,
      "ćććĈ!Ĉ!Ĉ!Ĉ!ĈĈĈĈĈĈĈĈĈĈ!ćĈ!Ĉ!ĈćĈĈćĈćĈĈĈćĈĈďĉ": 1181,
      "ćĈćĈ!ććĈ!!": 1182,
      "ććĈ!Ĉ!Ĉ!Ĉ!Ĉ!ĈĈ!ćĈ!ćĈ!ćĈćĈ!ćĈ!ćĈćĈ!ćĈ": 1183,
      "ćĈĈćĈĈćĈĈĈĈĈćĈćĈĈćĈĈćĈćĈćĈććĈćĈćĈćĈćĈ!ćĈćĈćĈćĈćĈćĈćĈćĈćĈćĈćĈćĈ": 1184,
      "%!&'(!!!!!!!!!!!!!!!!!!!!!!!!!!!!!!!!": 1185,
      "ć%&'(ďĉ!": 1186,
      "ćĈ!ććĈ!ćĈ!Ĉ": 1187,
      "ććĈĈććĈćććĈćĈćĈćĈćĈĈćĈĈćĈćĈćĈ": 1188,
      "ććććććććććććČďĉďĉććĈ!ćĈ!ćĈ!ćĈ!ćĈćĈćĈ": 1189,
      "ććĈĈ!Ĉ!ĈĈĈ!ććĈ!Ĉ!Ĉ": 1190,
      "ćĈ!Ĉ!ĈĈćĈćĈĈĈĈĈĈĈĈĈĈĈĈ": 1191,
      "ććĈ!ćĈ!ćĈ!ćďĉ": 1192,
      ")!)!ďĉďĉ!!!": 1193,
      "Ĉ!Ĉ!ĈĈĈĈĈ!Ĉ!Ĉ!": 1194,
      "ćĈĈććĈĈĈćĈ!ĈćĈ!ććĈĈ!Ĉ!ĈĈćĈ!Ĉ!": 1195,
      "ćĈ!ĈĈ!ĈĈĈ!Ĉ!Ĉ!Ĉ!Ĉ!Ĉ!Ĉ!Ĉ!Ĉ!Ĉ!Ĉ!Ĉ!ćĈ!": 1196,
      "Ĉ!Ĉ!ćĈ!ĈĈćĈ!ćĈ!Ĉ!Ĉ!ćĈ!ćĈ!Ĉ!ćĈĈćĈ!Ĉ!ććĈ!ĈĈćĈćĈćĈ!Ĉ!ĈćĈĈ": 1197,
      "ćĈĈćĈĈĈĈĈĈćĈĈĈĈ": 1198,
      "ćććĈ!Ĉ!Ĉ!Ĉ!Ĉ!Ĉ": 1199,
      "ćĈ!Ĉ!Ĉ!Ĉ!Ĉ!Ĉ!Ĉ": 1200,
      "!!!!RTVa!!!SĂĄĆ": 1201,
      "ĈĈĈĈĈĈĈĈĈĈĈĈĈĈ!Ĉ!Ĉ!Ĉ!ĈĈĈĈ": 1202,
      "Ĉ!ĈćĈ!ćĈĈĈĈĈćĈĈĈĈĈćĈ!ĈĈĈćĈ": 1203,
      "ćĈ!ĈĈ!ĈĈĈĈ!Ĉ!Ĉ!ĈĈĈĈĈĈĈĈ!ĈĈĈĈĈ": 1204,
      "Ĉ!Ĉ!ĈĈĈĈĈĈćĈ!ĈĈĈ%&'(ďĉ": 1205,
      "ćĈ!ĈĈ!Ĉ!ďĉ!ďĉ!ďĉďĉďĉ!!": 1206,
      "ćĈ!Ĉ!Ĉ!Ĉ!Ĉ!Ĉ!Ĉ!ćĈ!ďĉ!!!!!!!!ďĉ!!!!!ćĈ!ĈćĈ!ćĈ!ĈĈ!ćĈ!Ĉ!ĈĈĈ!ĈĈĈććĈ!": 1207,
      "ćĈĈĈĈĈĈĈĈĈĈĈĈĈ!ćĈ!ćĈĈĈĈ!Ĉ%&'(ďĉćć": 1208,
      "ĈĈĈĈĈĈĈĈĈĈĈĈĈĈĈĈĈĈĈĈĈĈĈĈ!ĈĈĈĈĈĈĈĈĈĈĈĈĈĈĈĈĈĈĈĈĈĈĈ": 1209,
      "ď!!": 1210,
      "ććĈ!ćĈ!Ĉ!": 1211,
      "ćĈ!ćĈ!Ĉ!ććĈ!Ĉ!Ĉ!Ĉ!ćĈĈĈ!Ĉ!ćĈ!Ĉ!": 1212,
      "ćĈ!ćĈ!ćĈ!ćĈ!Ĉ!Ĉ!Ĉ!Ĉ!Ĉ!Ĉ!Ĉ!Ĉ!ĈĈ!": 1213,
      "ďĉ!!!!!!!!!!!!!!!!!!ďĉ!!!!!!!!!!!!!!!!!!!": 1214,
      "ćĈćĈ!ćĈĈ!": 1215,
      "Ĉ!ćĈ!Ĉ!Ĉ!Ĉ!Ĉ!Ĉ!ćĈ!ćĈ!ćĈ!Ĉ!Ĉ!": 1216,
      "ććććććććĈ!Ĉ!Ĉ!Ĉ!ćĈĈĈĈ!Ĉ!ćĈ!": 1217,
      "Ĉ!Ĉ!ĈĈĈĈĈĈćĈ!ĈĈĈ%&'(ďĉ%&'(%&'(%&'(": 1218,
      "ćĈĈĈĈĈĈĈĈĈĈĈĈĈ!ćĈ!ćĈĈĈĈ!Ĉ%&'(ďĉććďĉďĉ!!ďĉ": 1219,
      "ćĈ!ćĈ!Ĉ!ćĈĈ!Ĉ!Ĉ!Ĉ!ćĈćĈĈ": 1220,
      "ďĉććććććĈ!ććĈ!": 1221,
      "Ĉ!ĈĈĈĈĈĈ!Ĉ!ĈĈ!ĈĈĈĈ!ĈĈĈĈĈĈĈĈ%&'(ďĉ": 1222,
      "ďĉďĉ!!!ďĉćĈ!Ĉ!ććĈ!ććĈ!ĈĈ!ććĈ!Ĉ!Ĉ": 1223,
      "ćĈ!Ĉ!Ĉ!ćĈ!Ĉ!ćĈ!ćĈ!ćĈ!ćĈ!Ĉ!Ĉ!Ĉ": 1224,
      "ćĈ!ćĈ!Ĉ!Ĉ!ćĈĈ!": 1225,
      ")!)!!!!!!!!!!!!!!!!!!!!!!!!!!!!!!!!!!!!!!": 1226,
      "ĈĈĈĈĈĈćĈ!ććĈćĈ!ćĈ!Ĉ!": 1227,
      "ćĈ!Čďĉďĉďĉ!ďĉďĉ!ďĉďĉďĉ!ďĉďĉ!": 1228,
      "Ĉ!Ĉ!Ĉ!Ĉ!Ĉ!Ĉ!ĈĈĈĈ!ĈĈĈĈĈĈĈ!Ĉ!Ĉ!ĈĈ!Ĉ": 1229,
      "%&'(ďĉ!!!!!!!!!!!!!!!!!!!!!": 1230,
      "ćĈ!ćĈ!Ĉ!ćĈ!Ĉ!Ĉ!ćĈ!Ĉ!": 1231,
      "ćĈĈ!Ĉ!ĈćĈĈ!ćĈ!Ĉ!ĈĈĈĈćĈĈĈĈ": 1232,
      "ćććĈ!Ĉ!Ĉ!Ĉ!Ĉ!ćĈ!Ĉ!": 1233,
      "!!!!RTVa!!!SĂĄĆ!!!!R!!!S": 1234,
      "ćĈ!Ĉ!ĈćĈ!Ĉ!ćĈ!ććĈĈĈĈĈćĈćĈ": 1235,
      "%&'(%&'(ďĉ!!": 1236,
      "%!!!!!!!!!!!!!!!!!!!!!!!": 1237,
      "ćĈĈĈĈ!ĈććĈ!ććććĈć!!": 1238,
      "ďĉďĉďĉ!!ďĉ!ććĈ!Ĉ!Ĉ!Ĉ!Ĉ!ďĉďĉ!ďĉćććććĈ!Ĉ!Ĉ!Ĉ!Ĉ!Ĉ!ďĉ!%&'(": 1239,
      "%ćć": 1240,
      "ćĈ!Ĉ!ĈćĈ!Ĉ!Ĉ!": 1241,
      "ćĈĈ!ćĈ!ćĈ!Ĉ": 1242,
      "Ĉ!ććĈ!Ĉ!Ĉ!ĈćĈ!Ĉ!": 1243,
      "Ĉ!Ĉ!Ĉ!Ĉ!Ĉ!ĈĈ!Ĉ!": 1244,
      "Ĉ!Ĉ!ćĈ!Ĉ!Ĉ!Ĉ!ćĈ!Ĉ!ćĈ!ĈćĈ!Ĉ!": 1245,
      "ćĈĈĈĈĈĈĈĈććĈćĈĈ!ććĈĈĈĈćĈĈĈĈćĈĈĈĈĈĈĈĈććĈ": 1246,
      "ďĉ!!!ćććĈćĈ!ćĈ!ĈĈ!Ĉ!ćĈĈĈĈĈĈĈĈĈĈĈĈĈ!ćĈ!ćĈĈĈĈ!Ĉ%&'(ďĉććďĉďĉ!!ďĉ": 1247,
      "ćĈ!ćććĈ!ććĈćĈ!ććĈćććĈ!Ĉ!Ĉ!Ĉ!": 1248,
      "Ĉ!Ĉ!Ĉ!Ĉ!ćććĈ!": 1249,
      "ćďĉ#$": 1250,
      ")!)!!!!!!!!!!!!!!!!!!!!!!!!!!!!!!!!)!)!!": 1251,
      "ćĈ!ćĈ!!ććĈ!ććĈ!": 1252,
      "ććććĈćĈććĈ!ćĈ!Ĉ!Ĉ!Ĉ!ćĈ!Ĉ!ćĈ!ćĈ!Ĉ!ćĈ!ĈćĈ!ĈĈ!Ĉ": 1253,
      "ććććććććććććććććććććććĈ!ććĈ!ćĈ!ććĈ!": 1254,
      "ďĉďĉď%&'(ĉ": 1255,
      "ććććććććććććććććĈ!Ĉ!ćĈ!Ĉ!ĈĈ!": 1256,
      "ďĉ!!ďĉďĉďĉ)!)": 1257,
      ")ććććććććććććĈ!": 1258,
      "Ĉ!Ĉ!ćĈ!ććĈ!ćĈ!ććĈ!ćĈććĈ!ćĈ!ćĈ!ĈćĈĈ": 1259,
      "ćććććĈ!Ĉ!Ĉ!Ĉ!Ĉ!Ĉ!": 1260,
      "ććĈ!ćĈ!ćĈ!Ĉ!Ĉ!ćĈ!Ĉ!": 1261,
      "ďĉćććććććĈ!ćĈ!": 1262,
      "Ĉ!ĈĈ!Ĉ!!ćĈ!Ĉ!Ĉ!Ĉ!ćĈ!ććĈ!": 1263,
      "ćĈ!Ĉ!Ĉ!Ĉ!Ĉ!ĈĈĈ!Ĉ!Ĉ": 1264,
      "Ĉ!ĈĈĈĈĈĈĈĈĈĈĈĈĈĈĈĈĈĈĈĈ!": 1265,
      "ďĉ!!!!!!!!!!!!!!!!!!!!!!!!!!!!!!!!!!!!!!!!!!!!!!!!!!!!!!!!!!!!!!": 1266,
      "ćĈ!ĈćĈĈ!Ĉ!ćĈ!ĈĈ!ććĈ!ćĈ!ććĈćĈććć!!": 1267,
      "!!!!!!!!!!!!!!!!!!": 1268,
      "ďĉďĉďĉďĉ!ďĉďĉ!!": 1269,
      "%ć&'": 1270,
      "ćĈ!ććććććĈ!ćĈ!ććĈćććĈćććĈĈćĈćĈ!Ĉ!ćĈ!ĈćĈćĈćĈćĈ!Ĉ!ĈćĈ!Ĉ!": 1271,
      "Ĉ!Ĉ!ĈĈĈ!Ĉ!Ĉ!Ĉ!ĈĈĈĈĈ!ĈĈĈĈ!ĈĈĈĈĈĈĈĈĈĈĈĈ!Ĉ!": 1272,
      "ćĈ!ććĈććĈ!!!!!!ďĉćć": 1273,
      "%&'(ďĉďĉ!!ďĉ": 1274,
      "ĈĈĈĈĈĈĈĈĈĈĈĈĈĈĈĈĈĈĈĈĈĈĈĈĈĈĈĈĈĈĈĈĈĈĈĈĈĈĈĈĈĈĈĈĈĈĈĈ": 1275,
      "Ĉ!ĈĈĈ!ĈĈĈĈĈĈĈĈĈĈĈĈĈĈĈĈĈĈ!ďĉ!!": 1276,
      "ćććĈćććĈĈ!Ĉ!ćĈ!ććĈćĈ!ćĈ!!Č!!Č!": 1277,
      "ćĈ!ćĈ!ććććĈ!ććĈ!ćććĈ!ćććĈ": 1278,
      "ćććĈĈ!ćĈ!Ĉ!ĈćĈĈĈćĈĈĈćĈĈćććć": 1279,
      "ććććććĈ!ććČ": 1280,
      "%&'(!!!!!!!!!!!!!!!!!!!!!!!!!!!!!!!!!!!!!!!!!!!!!!!!!!!!!!!!!!!!!!!!!!!!!!!!!!!!!!!!!!!!!!!!!!!!!!!!!!!!!!!!!!!!!!!!": 1281,
      "ďĉ!!ďĉ!!!!!!!!)!!!!!!!!)!)!)!!!!!!!!!!!!!!!!!!!!!!!!!!!!!!!!!!!!!!!!!!!!!!!!!!!!!!!!!!!!!!!!!!!!!!!!!!!!!!!!!!!!!!!!!!!!!!!!": 1282,
      "ćććĈ!Ĉ!Ĉ!ĈĈ!Ĉ!ćĈ!Ĉ!Ĉ!ĈćĈ!Ĉ!Ĉ!Ĉ": 1283,
      "ććĈ!ććććĈćĈćĈćĈććććĈ!Ĉ!ććĈ!ĈććććĈćĈćĈćĈćĈćĈćĈćĈćĈćĈ": 1284,
      "ććććććććĈ!Ĉ!ćĈĈ": 1285,
      "ďĉ%&'(!": 1286,
      "ćĈ!ćĈ!Ĉ!Ĉ!ćĈ!Ĉ!ćĈ!Ĉ!Ĉ!Ĉ!ćĈ!Ĉ!": 1287,
      "ććĈ!ćĈ!ććĈ!ćĈ!ćĈ!ććĈćĈ!Ĉ!Ĉ!Ĉ!ćĈ!ćć": 1288,
      "ďĉďĉďĉ!ďĉďĉćććć": 1289,
      "ďĉ!ďĉĈ!Ĉ!ćĈ!Ĉ!ĈĈĈ": 1290,
      "ććććĈ!ćĈ!Ĉ!Ĉ!ćĈ!Ĉ!": 1291,
      "Ĉ!Ĉ!ĈćĈĈĈĈĈ!Ĉ!Ĉ!Ĉ!Ĉ!Ĉ!ĈĈĈ!Ĉ!ĈĈĈĈ": 1292,
      "ććććĈ!ćĈ!ĈĈ!ććĈ!ćĈ!ĈĈ!ćĈ!Ĉ!": 1293,
      "ćĈ!Ĉ!Ĉ!Ĉ!Ĉ!Ĉ!Ĉ!Ĉ!ćĈ!ćĈ!Ĉ!ĈćĈ!Ĉ!": 1294,
      "ćĈćĈĈĈĈĈćĈĈćĈćĈćĈćĈĈĈćĈĈĈĈĈĈ": 1295,
      "ćĈ!Ĉ!ććĈćĈ!ĈĈĈĈĈĈćĈ!ććĈććĈ!ćĈ!Ĉ": 1296,
      "ćĈ!ććĈ!Ĉ!Ĉ": 1297,
      "ćďĉďĉďĉĈ!ĈĈĈĈ": 1298,
      "ĈĈĈĈĈĈĈĈĈĈĈĈĈĈ!Ĉ!Ĉ!Ĉ!Ĉ!ĈĈĈ!ĈĈ": 1299,
      "ďĉ!ďĉďĉ!!!!!!!!!!!!!!!!!!!!!!!!!!!!ďĉ!!!!!!!!!!!!!!!!!!!!!!!!!!!!!!!!!!!!!!!!!!!!!!!!!!!!!!!!!": 1300,
      "Ĉ!ĈĈ!ĈĈĈĈĈĈĈĈĈĈĈĈĈĈĈĈĈĈĈĈĈĈĈĈĈĈĈĈ!Ĉ!Ĉ!Ĉ!ĈĈĈĈĈĈĈĈĈ!Čďĉ!ćććććććĈ!Ĉ!ććććććĈ!ćĈĈ%&'(ďĉďĉ": 1301,
      "ćĈĈćĈĈĈĈĈĈćĈĈĈĈćĈĈćĈĈćĈ!ćććĈ!ćć": 1302,
      "ćććĈ!Ĉ!ćĈ!Ĉ!Ĉ": 1303,
      "Ĉ!ĈĈ!ćĈ!Ĉ": 1304,
      "%&'(ďĉ!!ďĉ!!": 1305,
      "ććććććććĈ!ćććĈ!Ĉ!": 1306,
      "Ĉ!Ĉ!Ĉ!Ĉ!Ĉ!Ĉ!ĈĈ!ĈĈ!ĈĈ!ĈĈĈ!ĈĈĈĈĈ!ĈĈĈĈĈĈ!Ĉ!ĈĈ!ĈĈĈĈ!ĈĈĈĈĈĈĈĈ%&'(ďĉ": 1307,
      "ďĉ!!!!!!!!ďĉďĉďĉďĉďĉććććĈ!ćĈ!ĈćĈĈ!Ĉ!Ĉ!Ĉ!ĈćĈĈćĈĈĈĈĈĈ!%&'(ďĉďĉďĉ!))ďĉ!ďĉďĉďĉďĉ": 1308,
      "%&'(ďĉ!!!!!!!!!!!!!!!!!!!!!ďĉďĉďĉďĉĈ!ĈĈĈćĈ!ćĈĈĈ": 1309,
      "Ĉ!ćĈ!Ĉ!Ĉ!Ĉ!Ĉ!Ĉ!ćĈ!ćĈ!ćĈ!Ĉ!Ĉ!ćĈ!ĈĈĈćĈćĈćĈĈĈćĈ": 1310,
      "Ĉ!ď": 1311,
      "ďĉďĉ!!ďĉ!!ďĉďĉ": 1312,
      "!!!!!!!ďĉ!!ďĉďĉ!!!": 1313,
      "&'(!!!!!!!!!!!!!!!!!!!!!!!!!!!!!!!!!!!!!!!!!!!!!!!!!!!!!!!!!!!!!!!!!!!!!!!!!!!!!!!!!!!!!!!!!!!!!!!!!!!!!!!!!!!!!!!!!!!!!!!!!!!!!!": 1314,
      "ćĈ!Ĉ!Ĉ!Ĉ!Ĉ!Ĉ!Ĉ!Ĉ!Ĉ!Ĉ!": 1315,
      "ďĉ!!!ćććććĈ!ĈĈ!ĈĈĈ!Ĉ!Ĉ!Ĉ!Ĉ!Ĉ!Ĉ!Ĉ!Ĉ!Ĉ!Ĉ!Ĉ!ćĈ!": 1316,
      "ćććĈ!Ĉ!ćććĈĈćĈ!ĈĈĈ!!ćććć!!!!!!!!!!!!!!!!!!!!": 1317,
      "Ĉ!ĈććĈĈ!Ĉ!ććĈ!Ĉ!ĈĈ!ĈĈĈ": 1318,
      "ćĈ!Ĉ!ćĈ!Ĉ!ćĈ!Ĉ!Ĉ!Ĉ!Ĉ!ćĈ!ćĈ!ćĈ!ćĈ!ćĈ!Ĉ!ćĈ!ćĈ!Ĉ!ćĈĈćĈ!ĈććĈ!ĈćĈćĈćĈ!ĈćĈĈ": 1319,
      "ćĈ!Ĉ!Ĉ!ććĈ!ćĈ!Ĉ!Ĉ!ćĈ!Ĉ!ćĈ!ćĈ!ćĈ!ćĈ": 1320,
      "Ĉ!Ĉ!Ĉ!Ĉ!!Ĉ!Ĉ!Ĉ": 1321,
      "ćĈĈ!ćĈ!Ĉ!Ĉ!Ĉ!Ĉ!ĈĈĈćĈ!Ĉ!Ĉ!": 1322,
      "ďĉďĉďĉ!ďĉďĉďĉ!!": 1323,
      "ďĉ!ďĉ!!!SĂĄĆ!!ďĉ!!!!!!": 1324,
      "ćďĉ!!!!!!!!!": 1325,
      "ććĈ!Ĉ!ĈĈĈ!Ĉ!Ĉ!ĈĈćĈďĉ!!ďĉďĉ!!!": 1326,
      "ććĈ!Ĉ!Ĉ!Ĉ!Ĉ!ĈĈ!ćĈ!ćĈ!ćĈćĈ!ćĈ!ćĈćĈ!ćĈćĈ!ććĈćĈ!ćĈ": 1327,
      ")!)!ďĉďĉ!!!)!)!!": 1328,
      "ďĉ!Ĉ!ĈćĈ!Ĉ!Ĉ!ĈćĈ!ćć": 1329,
      "ćďĉććć": 1330,
      "ćĈĈ!Ĉ!ĈĈĈćĈćĈ!ććĈ!!": 1331,
      "ćĈ!ćĈ!Ĉ!ćĈĈ!Ĉ!Ĉ!Ĉ!ćĈćĈĈćĈ!Ĉ!Ĉ!ćĈ!Ĉ!": 1332,
      "Ĉ!ĈĈćďĉďĉďĉďĉďĉďĉďĉ!": 1333,
      "Ĉ!Ĉ!Ĉ!Ĉ!Ĉ!Ĉ!Ĉ!ĈĈĈĈĈĈ": 1334,
      "))))": 1335,
      "ćććććĈ!Ĉ!Ĉ!Ĉ!Ĉ!Ĉ!ćĈ!Ĉ!Ĉ!ćĈ!Ĉ!": 1336,
      "ďĉ!!!!!!!!!!!!!": 1337,
      "ďĉďĉććććććĈ!ćććĈ!ćć": 1338,
      "Ĉ!Ĉďĉ!ďĉ!ďĉ": 1339,
      "ďĉďĉ!!ďĉ!!!!!!)!!!!!!!!)": 1340,
      "ććććĈ!ćĈ!Ĉ!Ĉ!Ĉ!Ĉ!Ĉ!": 1341,
      "ććĈ!ććĈ!ćĈ!Ĉ!ćĈććĈ!Ĉ!": 1342,
      "&'(ćďĉ!ďĉćććĈ!ćĈ!ćĈ!ćĈ!ćĈ!ćĈćĈćĈďĉďĉ!ćććććććĈ!Ĉ!Ĉ!Ĉ!Ĉ!ćĈ!Ĉ!ćĈ!ćĈ!ćĈ!ćĈ!ćĈ!Ĉ!Ĉ!Ĉ!ĈĈ!%&'(ďĉ!!!!!!!!!!!!!!!!!!!!!ďĉďĉďĉďĉĈ!ĈĈĈćĈ!ćĈĈĈ": 1343,
      "ćĈ!ćĈ!Ĉ!ććĈ!Ĉ!Ĉ!Ĉ!ćĈĈĈ!Ĉ!ćĈ!Ĉ!ĈĈĈ!ĈĈĈććĈ!ćĈćĈĈĈ!Ĉ": 1344,
      "&'": 1345,
      "ćććĈ!Ĉ!Ĉ!Ĉ!Ĉ!Ĉ!ćĈ!Ĉ!Ĉ!Ĉ!ćĈ!Ĉ!": 1346,
      "ďĉ!)!)!!!!!!!!!!ďĉ!!!!!!": 1347,
      "-%&+/,'(-%&+/,'(-%&+/,'(-%&+/,'(-%&+/,'(-%&+/,'(-%&+/,'(-%&+/,'(-%&+/,'(-%&+/,'(-%&+/,'(-%&+/,'(-%&+/,'(-%&+/,'(-%&+/,'(-%&+/,'(": 1348,
      "ćććććććĈ!Ĉ!Ĉ!ćĈ!Ĉ!Ĉ!": 1349,
      "ćĈ!ćĈ!Ĉ!ććĈ!ĈććĈ!Ĉ!ćĈ!ćĈ!Ĉ!Ĉ!ćĈĈ!": 1350,
      "Ĉ!ĈĈćĈĈ!Ĉďĉ!!!!!!!!!!!!!!!!!!!!!!!!!!!!!!!!": 1351,
      "%&'(%&'(ďĉ!!ććććććĈććĈ!": 1352,
      "ďĉďĉďĉďĉďĉďĉďĉ!ďĉ!ďĉ": 1353,
      "ććććĈ!ćĈ!Ĉ!Ĉ!ĈĈ!Ĉ!Ĉ!Ĉ": 1354,
      "ďĉďĉďĉďĉ!ďĉďĉ%!!!&'(": 1355,
      "ďĉďĉďĉ!!ďĉďĉćĈ!Čďĉďĉďĉ!ďĉďĉ!ďĉďĉďĉ!ďĉďĉ!": 1356,
      "ćĈćĈćĈćććĈćĈćććĈćĈ": 1357,
      "ďĉććććććĈ!ććĈ!ććĈ!Ĉ!Ĉ!Ĉ!ćććĈ!Ĉ!Ĉ!ććĈ": 1358,
      "ćĈ!Ĉ!Ĉ!Ĉ!Ĉ!Ĉ!ćĈ!Ĉ!ććĈ!": 1359,
      "ĈĈĈ!Ĉ!Ĉ!ĈĈĈ": 1360,
      "ććĈ!Ĉ!Ĉ!ĈćĈ!Ĉ!ĈćĈććĈĈ!ĈĈĈ": 1361,
      "ďĉďĉ%&'(!": 1362,
      "ćććććććććććĈ!ćĈ!!ććĈ!ććĈ!": 1363,
      "ćććĈĈĈĈĈććĈĈććĈćććĈćĈćĈćĈćĈĈćĈĈćĈćĈćĈ": 1364,
      "ďĉďĉ)ďĉďĉ!": 1365,
      "ďĉ!!ďĉ!ďĉ!": 1366,
      ")!)ďĉďĉďĉďĉďĉďĉ!!!": 1367,
      "ććĈ!Ĉ!ĈćĈĈĈććĈĈĈććĈ!Ĉ!Ĉ!Ĉ!Ĉ!Ĉ!ćĈĈ!Ĉ!Ĉ!ćĈĈĈććĈĈ!ćććĈ!ććĈ!ćĈ!ĈĈĈćć!!!!": 1368,
      "ćĈ!ĈććĈĈĈćĈĈĈćĈ!ĈććĈĈĈćĈĈććĈĈĈćĈ!ĈćĈ!ććĈĈ!Ĉ!ĈĈćĈ!Ĉ!": 1369,
      "ćććććććććććććććĈ!Ĉ!Ĉ!ćĈ!Ĉ!": 1370,
      "ďĉďĉ!!ďĉďĉďĉ!": 1371,
      "!!!!!!!!!ďĉ!!!!!!!!": 1372,
      "ďĉ!!ďĉďĉďĉďĉďĉ!!ďĉ!ďĉ!": 1373,
      "ďĉ!!ćććććććĈ!Ĉ!Ĉ!ććĈĈććĈ!ćĈĈ": 1374,
      "ćďĉććććććććććććććććĈ!Ĉ!ćĈ!Ĉ!ĈĈ!": 1375,
      "ćĈ!ćĈ!ćĈ!ćĈ!ćĈ!Ĉ!ćĈ!ćĈ!Ĉ!Ĉ!ćĈ!Ĉ!Ĉ!ććĈ!Ĉ!Ĉ!ĈćĈ!Ĉ!": 1376,
      "ďĉ!!!!!!!!!!!!!!!!!!!!!!!!!!!!!!!!!!!!!!!!!!!!!!!!!!!!!!!!!!!!!!)!)": 1377,
      "ćďĉďĉ!!": 1378,
      "%&'(Ĉ!Ĉ!": 1379,
      "ďĉďĉďĉďĉ!ďĉ!!": 1380,
      "ćĈĈĈććĈ!Ĉ!ććĈ!ćććĈćĈćĈćĈćĈĈćĈĈćĈćĈćĈćĈ!Ĉ!ĈćĈ!Ĉ!Ĉ!": 1381,
      "ćććććĈ!ćĈ!ććććĈ!ććĈ!ćććĈ!ćććĈ": 1382,
      "ćĈĈĈĈ!": 1383,
      "3322": 1384,
      "ćĈćĈĈĈĈĈĈĈćĈĈĈĈĈĈćĈćĈ!ćĈĈ!": 1385,
      "ďĉďĉďĉ!!)!)!!!!!!!!!!!!!!!!!!!!ďĉ!!!!!!!!!!!!!!!!!!!!!!!!!!!!!!!!!!!": 1386,
      "ććććććććććććććććććććććĈ!ććĈ!ćĈ!ććĈ!ććććĈ!ćććĈććĈćććĈććććĈććĈććććĈććĈ": 1387,
      "ćĈ!ďĉ!%&'(": 1388,
      "!!!!!!!!!!!!!!!!!!!!!!!!!!!!!!!!!!!!!!!!!!!!!!!!!!!!": 1389,
      "ćććććĈ!Ĉ!Ĉ!ćĈĈćĈďĉďĉ": 1390,
      "ććĈĈćĈĈĈććĈĈććĈćććĈĈĈĈĈćĈĈćĈćĈĈćĈĈćĈĈĈĈĈćĈćĈĈćĈĈćĈćĈćĈććĈćĈćĈćĈćĈ!ćĈćĈćĈćĈćĈćĈćĈćĈćĈćĈćĈćĈ": 1391,
      "ĈĈĈ!ĈĈĈĈ!ĈĈ!Ĉ!Ĉ!Ĉ!ĈĈĈ!Ĉ!ĈĈ!Ĉ": 1392,
      "ććĈ!ćĈ!Ĉ!ĈĈĈ!ĈĈĈććĈ!ĈĈ!ĈĈĈĈ!ĈĈ!ĈĈĈĈ": 1393,
      "ďĉ!!!ćććĈćĈ!ćĈ!ĈĈ!Ĉ!ćĈĈĈĈĈĈĈĈĈĈĈĈĈ!ćĈ!ćĈĈĈĈ!Ĉ%&'(ďĉććďĉďĉ!!ďĉććĈ!ĈĈĈĈĈ!ćďĉďĉ": 1394,
      "!!!!!!!!!!!!!!!!!!!!!!!!!!!!)!)!!!!!!!!!!!!!!!!!!!!!!!!!!!!!!!!)!)!!": 1395,
      "ćććĈ!Ĉ!Ĉ!Ĉ!Ĉ!ćĈ!Ĉ!Ĉ!ĈćĈ!ćĈĈĈĈĈćĈĈĈĈĈćĈ!ĈĈĈćĈ": 1396,
      "Ĉ!ĈĈ!ĈĈĈĈĈĈĈĈĈĈĈĈĈĈĈĈĈĈĈĈĈĈĈĈĈĈĈĈ!Ĉ!Ĉ!Ĉ!ĈĈĈĈĈĈĈĈĈ!Čďĉ!ćććććććĈ!Ĉ!ććććććĈ!ćĈĈ%&'(ďĉďĉĈ!ĈĈďĉ!!": 1397,
      "L!LK!LK": 1398,
      "ďĉ%&'(ďĉ": 1399,
      "ĈĈĈ!Ĉ!Ĉ!ĈĈĈĈ!Ĉ!ĈĈ!Ĉ!Ĉ!ĈĈĈĈ": 1400,
      "ććĈ!Ĉ!ĈćĈĈĈććĈĈĈććĈ!Ĉ!Ĉ!Ĉ!Ĉ!Ĉ!ćĈĈ!Ĉ!Ĉ!ćĈĈĈććĈĈ!ćććĈ!ććĈ!ćĈ!ĈĈĈćć!!!!%&'(ďĉ!!ďĉ!!": 1401,
      "!!!!!!!!!!!ďĉ": 1402,
      "&'(!!!!!!!!!!!!!!!!!!!!!!!!!!!!!!!!!!!!!!!!!!!!!!!!!!!!!!!!!!!!!!!!!!!!!!!!!!!!!!!!!!!!!!!!!!!!!!!!!!!!!!!!!!!!!!!!!!!!!!!!!!!!!!!!!!!!!!!!!": 1403,
      "ďĉ!ďĉ!!ćĈ!": 1404,
      "Ĉ!%&'(": 1405,
      "ďĉ!ďĉććććĈ!ćĈ!ĈĈ!ććĈ!ćĈ!ĈĈ!ćĈ!Ĉ!": 1406,
      "Ĉ!ĈĈĈ!ĈĈĈ": 1407,
      "ćĈ!ćććĈ!ććĈćĈ!ććĈćććĈ!Ĉ!Ĉ!Ĉ!ćććĈćĈ!ćĈ": 1408,
      "ćĈ!Ĉ!Ĉ!Ĉ!Ĉ!ĈĈĈ!Ĉ!ĈĈ!Ĉ!ĈĈ!Ĉ!ĈĈ!ĈĈ!Ĉ!ĈĈ!ĈĈ!Ĉ!ĈĈĈ!ĈĈĈĈ!ĈĈĈĈ": 1409,
      "ććĈ!ćĈ!ćČ": 1410,
      "ďĉ!ďĉďĉďĉďĉďĉďĉ!!": 1411,
      "ććĈ!Ĉ!Ĉ!ććĈ!Ĉ!Ĉ!ĈĈ!Ĉ!!ćĈ!Ĉ!Ĉ!Ĉ!ćĈ!ććĈ!": 1412,
      "!!!!!!!!!ććććĈ!ĈĈ%&'(ďĉ!!!!!!!!!!!!!!!!!!!!!!!!!!!!)!)!!!!!!!!!!!!!!!!!!!!!!!!!!!!!!!!)!)!!": 1413,
      "ďĉ!!!!!!!!!!!!!!!": 1414,
      "ďĉďĉďĉď%&'(ĉ": 1415,
      "ćććĈ!Ĉ!ćĈ!Ĉ!ćĈ!ćĈ!ćĈ!ĈĈ!Ĉ!": 1416,
      "ďĉ!!!!!!!!!!!!!!!!!!ďĉ!!!!!!!!!!!!!!!!!!!ďĉ!!!!!!!!": 1417,
      ")ććććććććććććĈ!ććĈ!ćĈ!ćĈ!Ĉ!Ĉ!ćĈ!Ĉ!": 1418,
      "ćďĉďĉďĉćĈ!Ĉ!Ĉ!Ĉ!": 1419,
      "ďĉ!!ďĉ!ććĈ!ďĉ!ďĉďĉ!!": 1420,
      "ćĈ!%&'(ďĉ": 1421,
      "ććććĈ!Ĉ!Ĉ!Ĉ!Ĉ!ĈĈ!Ĉ!": 1422,
      "!!!!!!!!!!!!!!!!!!!!!!!!!!!!!!!!!!!!!!!ďĉ!ďĉ!!!!!!!!!!!": 1423,
      "ććĈ!ćććĈ!ćććĈ!ćććĈ!Ĉ!Ĉ!ďĉćć": 1424,
      "Ĉ!Ĉ!Ĉ!!ćĈĈĈĈ!Ĉ!ćĈ!Ĉ!ćĈĈĈćĈ!ĈĈĈĈĈ!Ĉ!ćĈ!ććĈ!ćĈ!ććĈ!ćĈććĈ!ćĈ!ćĈ!ĈćĈĈ": 1425,
      "ććććććććĈ!Ĉ!ćĈĈćĈ!ĈĈćĈ!ćĈĈćĈ!Ĉ!": 1426,
      "Ĉ!Ĉ!Ĉ!ĈćĈĈ!Ĉ!ĈćĈĈ!ćĈ!Ĉ!ĈĈĈĈćĈĈĈĈ": 1427,
      "%&'(ďĉĈ!Ĉ!Ĉ!Ĉ!Ĉ!Ĉ!": 1428,
      "ćĈ!Ĉ!ĈćĈ!ć": 1429,
      "ĉĉĉĉĉĉĉĉ": 1430,
      "Ĉ!ĈćĈ!Ĉ!Ĉ!ĈćĈ!ććďĉ!Ĉ!ĈćĈ!Ĉ!Ĉ!ĈćĈ!ćć": 1431,
      "ďĉććĈ!ćććĈćććĈĈ!Ĉ!ćĈ!ććĈćĈ!ćĈ!!Č!!Č!": 1432,
      "Ĉ!Ĉ!ĈĈĈ!Ĉ!Ĉ!Ĉ!ĈĈĈĈĈ!ĈĈĈĈ!ĈĈĈĈĈĈĈĈĈĈĈĈ!Ĉ!ĈĈĈĈĈĈĈĈĈĈĈĈĈĈĈĈĈĈĈĈĈĈĈĈ!ĈĈĈĈĈĈĈĈĈĈĈĈĈĈĈĈĈĈĈĈĈĈĈ": 1433,
      "ććććĈ!ćĈ!Ĉ!Ĉ!ćĈ!Ĉ!Ĉ!Ĉ!ćĈ!Ĉ!Ĉ!Ĉ!ćĈ!Ĉ!ćĈ!ĈćĈ!Ĉ!": 1434,
      "ćĈ!Ĉ!Ĉ!Ĉ!ĈĈ!Ĉ!Ĉ!Ĉ!": 1435,
      "%!!!!!!!!!!!!!!!!!!!!!!!!": 1436,
      "ďĉďĉďĉďĉďĉďĉ!%&'(%&'(": 1437,
      "2323232222222222222222222222222222222222222222244444444%&5555555522222222222222222222222266666666": 1438,
      "ććććĈ!ćĈ!Ĉ!Ĉ!Ĉ!ćĈ!ĈĈćĈ!ćĈ!Ĉ!Ĉ!ćĈ!ćĈ!Ĉ!ćĈĈćĈ!Ĉ!ććĈ!ĈĈćĈćĈćĈ!Ĉ!ĈćĈĈ": 1439,
      "ďĉďĉ!ďĉ!)ďĉďĉďĉć": 1440,
      "ććĈ!Ĉ!ĈĈĈ!Ĉ!Ĉ!ĈĈćĈďĉ!!ďĉďĉ!!!)!)": 1441,
      "ďĉćĈ!": 1442,
      "ďĉ!ćĈ!ćĈ": 1443,
      "ďĉďĉďĉďĉďĉďĉćďĉ!ďĉ": 1444,
      "ć%&'(ďĉ!!!!!!!!!": 1445,
      "ĈĈĈĈĈĈĈĈĈĈĈĈĈĈĈĈĈĈĈĈĈĈĈĈĈĈĈĈĈĈĈĈĈĈĈĈĈĈĈĈĈĈĈĈĈĈĈĈĈ!Ĉ!ĈĈĈĈĈ!Ĉ!Ĉ!": 1446,
      "ćĈ!ćĈ!Ĉ!Ĉ!ćĈ!Ĉ!ćĈ!Ĉ!Ĉ!Ĉ!ćĈ!Ĉ!ćĈ!ćĈ!ćĈ!ćĈ!Ĉ!Ĉ!Ĉ!Ĉ!Ĉ!Ĉ!Ĉ!Ĉ!ĈĈ!": 1447,
      "ćććĈ!Ĉ!ććĈ!ćĈ!ćČ": 1448,
      "ďĉ!!ďĉ!ďĉďĉďĉ!": 1449,
      "ćććĈ!Ĉ!Ĉ!Ĉďĉ!!!!!ďĉ!)!)!!!!!!!!!!!!!!": 1450,
      "ćĈ!ĈĈĈ!ĈĈćĈ!Ĉ!Ĉ!ćĈćĈĈĈĈĈćĈĈćĈćĈćĈćĈĈĈćĈĈĈĈĈĈ": 1451,
      "ććĈ!ćĈ!ććĈ!ćĈ!ćĈ!ććĈćĈ!Ĉ!Ĉ!Ĉ!ćĈ!ććĈĈĈĈĈĈćĈ!ććĈćĈ!ćĈ!Ĉ!": 1452,
      "ďĉ!!!!!!!!!!!!!!!!!!!!!!!!!!!!!!!!!!!!!!!!!!!!!!!!!!!!!!!!!!!!!!)!)!!!!!!!!!ććććĈ!ĈĈ%&'(ďĉ!!!!!!!!!!!!!!!!!!!!!!!!!!!!)!)!!!!!!!!!!!!!!!!!!!!!!!!!!!!!!!!)!)!!": 1453,
      "ćďĉďĉďĉďĉ": 1454,
      "ďĉďĉďĉ%&'(Ĉ!Ĉ!ĈĈ!Ĉ!ĈĈĈĈ!Ĉ!ĈĈ!Ĉ!Ĉ!!": 1455,
      "ćććććććĈ!Ĉ!ćĈ!ĈćĈĈ!Ĉ!ćĈ!ĈĈ!ććĈ!ćĈ!ććĈćĈććć!!": 1456,
      "ćććĈ!Ĉ!Ĉ!Ĉ!Ĉ!Ĉ!ćĈ!Ĉ!Ĉ!Ĉ!ćĈ!Ĉ!Ĉ!Ĉćć": 1457,
      "L!": 1458,
      "ďĉďĉďĉďĉ!!!!ďĉ!!": 1459,
      "Ĉ!Ĉ!ĈĈĈĈĈĈĈĈĈĈĈĈĈĈĈĈĈĈĈĈĈĈĈĈďĉ!": 1460,
      "ćĈ!Ĉ!Ĉ!Ĉ!Ĉ!Ĉ!ĈćĈĈĈĈ!ĈććĈ!ććććĈć!!": 1461,
      "ćććĈ!Ĉ!ćććĈĈćĈ!ĈĈĈ!!ćććć!!!!!!!!!!!!!!!!!!!!%&'(%&'(": 1462,
      "Ĉ!ĈĈćďĉďĉďĉďĉďĉďĉďĉ!ďĉ!ďĉďĉďĉ!": 1463,
      "ććĈ!Ĉ!ĈćĈĈĈććĈĈĈććĈ!Ĉ!Ĉ!Ĉ!Ĉ!Ĉ!ćĈĈ!Ĉ!Ĉ!ćĈĈĈććĈĈ!ćććĈ!ććĈ!ćĈ!ĈĈĈćć!!!!%&'(ďĉ!!ďĉ!!ćĈ!Ĉ!Ĉ!Ĉ!Ĉ!Ĉ!Ĉ!ćĈ!ďĉ!!!!!!!!ďĉ!!!!!ćĈ!ĈćĈ!ćĈ!ĈĈ!ćĈ!Ĉ!ĈĈĈ!ĈĈĈććĈ!": 1464,
      "ĈĈĈĈĈĈĈĈĈĈĈĈĈĈ!Ĉ!Ĉ!Ĉ!ĈĈĈĈĈ!Ĉ!Ĉ!Ĉ!Ĉ!Ĉ!ĈĈ!ĈĈ!ĈĈ!ĈĈĈ!ĈĈĈĈĈ!ĈĈĈĈĈĈ!Ĉ!ĈĈ!ĈĈĈĈ!ĈĈĈĈĈĈĈĈ%&'(ďĉ": 1465,
      "LK": 1466,
      "Ĉ!Ĉ!Ĉ!Ĉ!Ĉ": 1467,
      "&'(!!!!!!!!!!!!!!!!!!!!!!!!!!!!!!!!!!!!!!!!!!!!!!!!!!!!!!!!!!!!!!!!!!!!!!!!!!!!!!!!!!!!!!!!!!!!!!!!!!!!!!!!!!!!!!!!!!!!!!!!!!!": 1468,
      "ďĉďĉďĉďĉďĉďĉďĉ)!": 1469,
      "ďĉ!!!!!!!!!!!)!!!!!!!!!!!!!!!": 1470,
      "ďĉďĉďĉ!ďĉďĉćććććĈ!Ĉ!ćĈĈ": 1471,
      "ćĈ!Ĉ!ććĈćĈ!ĈĈĈĈĈĈćĈ!ććĈććĈ!ćĈ!ĈććĈĈ!Ĉ!ĈĈĈ!ććĈ!Ĉ!Ĉ": 1472,
      "ććĈ!Ĉ!ćĈĈ!ćĈ!Ĉ!Ĉ!Ĉ!Ĉ!ĈĈĈćĈ!Ĉ!Ĉ!": 1473,
      "ďĉďĉďĉ!!ďĉ!ććĈ!Ĉ!Ĉ!Ĉ!Ĉ!ďĉďĉ!ďĉćććććĈ!Ĉ!Ĉ!Ĉ!Ĉ!Ĉ!ďĉ!%&'(ďĉ!!ďĉ!ďĉďĉ!": 1474,
      "Ĉ!ĈĈĈ!ĈĈĈĈĈĈĈĈĈĈĈĈĈĈĈĈĈĈ!ďĉ!!ďĉ!ďĉ!!!": 1475,
      "ďĉďĉ%ď&'(ĉ": 1476,
      "ććĈ!%&'(": 1477,
      "ććĈ!Ĉ!ććĈ!ććććĈćĈćĈćĈććććĈ!Ĉ!ććĈ!ĈććććĈćĈćĈćĈćĈćĈćĈćĈćĈćĈ": 1478,
      "RTVa!!!SĂĄĆ": 1479,
      "ďĉďĉďĉćććĈ!Ĉ!Ĉ!ĈĈ!Ĉ!ćĈ!Ĉ!Ĉ!ĈćĈ!Ĉ!Ĉ!Ĉ": 1480,
      "ććććĈćććĈ!Ĉ!Ĉ": 1481,
      "%&'(ďĉďĉ!!!": 1482,
      "Ĉ!Ĉ!Ĉ!Ĉ!ććĈćć": 1483,
      "ćĈ!ĈĈ!ĈĈ!ĈĈ!ĈĈĈĈĈĈĈĈĈĈĈĈĈĈĈĈĈĈĈĈĈĈĈĈĈĈĈĈ!Ĉ!Ĉ!Ĉ!ĈĈĈĈĈĈĈĈĈ!Čďĉ!ćććććććĈ!Ĉ!ććććććĈ!ćĈĈ%&'(ďĉďĉĈ!ĈĈďĉ!!": 1484,
      "ďĉ!!!ćććććĈ!ĈĈ!ĈĈĈ!Ĉ!Ĉ!Ĉ!Ĉ!Ĉ!Ĉ!Ĉ!Ĉ!Ĉ!Ĉ!Ĉ!ćĈ!ďĉ!ďĉ!!!!!!!!!!!!!!!!": 1485,
      "ćĈ!Ĉ!Ĉ!ććĈ!ćĈ!Ĉ!Ĉ!ćĈ!Ĉ!ćĈ!ćĈ!ćĈ!ćĈćĈ!Ĉ!ĈĈćĈćĈĈĈĈĈĈĈĈĈĈĈĈ": 1486,
      "ďĉ!ďĉ!!!!!!ďĉďĉ!!": 1487,
      "ćĈ!Ĉ!ćĈĈ!ćĈ!ćĈ!Ĉ": 1488,
      "Ĉ!Ĉ!Ĉ!Ĉ!!Ĉ!Ĉ!Ĉ!Ĉ!!Ĉ!Ĉ!Ĉ": 1489,
      "ćććĈĈććććććĈ!ćĈĈ": 1490,
      "ďĉďĉďĉ!!!!!": 1491,
      "ďĉ!ďĉďĉ!ďĉ": 1492,
      "Ĉ!ĈĈ!ćĈ!ĈĈ!Ĉ!Ĉ!ćĈ!ćĈ": 1493,
      "Ĉ!Ĉ!Ĉ!Ĉ!Ĉ!Ĉ!Ĉ!ĈĈĈĈĈĈĈ!ĈĈĈĈĈĈĈĈĈĈĈĈĈĈĈĈĈĈĈĈ!": 1494,
      "ććďĉďĉ)": 1495,
      "!!!!ďĉ!!)ďĉďĉ!": 1496,
      "ćďĉ#$ćĈ!ćć": 1497,
      "ććććććććććććććććććććććććććĈ!": 1498,
      "ćĈ!Ĉ!ĈćĈ!ďĉćććććććĈ!ćĈ!": 1499,
      "Ĉ!ďĉďĉćĈ!ďĉ!": 1500,
      "ďĉďĉ!!ďĉ!!!!ďĉďĉďĉďĉ": 1501,
      "&'(!!!!!!!!!!!!!!!!!!!!!!!!!!!!!!!!!!!!!!!!!!!!!!!!!!!!!!!!!!!!!!!!!!!!!!!!!!!!!!!!!!!!!!!!!!!!!!!!!!!!!!!!!!!!!!!!!!!!!!!!!!!!!!!!!!!!!!!!!!!": 1502,
      "Ĉ!Ĉ!ĈĈĈĈĈĈćĈ!ĈĈĈ%&'(ďĉ%&'(%&'(%&'(ďĉďĉďĉďĉ!ďĉďĉ%!!!&'(": 1503,
      "ćććććĈ!Ĉ!Ĉ!Ĉ!Ĉ!Ĉ!ćĈ!Ĉ!Ĉ!ćĈ!Ĉ!ćĈ!Ĉ!Ĉ!ćĈ!Ĉ!ćĈ!ćĈ!ćĈ!ćĈ!Ĉ!Ĉ!Ĉ": 1504,
      "ĂĄĆ!!!!R!!!S": 1505,
      "ćĈ!Čďĉďĉ!": 1506,
      "ďĉďĉďĉ!!!!!!!!!!": 1507,
      ")!)!!!!!!!!!!!!!!!!!!!!!!!!!!!!!!!!!!!!": 1508,
      "ďĉďĉ!ďĉďĉďĉ!!ďĉ!!!!": 1509,
      "ćććććććććććĈ!ĈćĈ!Ĉ!ĈćĈ!ć": 1510,
      "ďĉďĉ!!ďĉ!!ďĉďĉćććĈ!Ĉ!Ĉ!Ĉ!Ĉ!Ĉ": 1511,
      "R%&'(": 1512,
      "Ĉ!Ĉ!ĉ": 1513,
      "!!!!!!!!!!!ďĉ!!!!!!!!!!!!!!!!!!!!!!!!!!!!!!!!!!!!!!!!!!!!!!!!!!!!!!!!!!!!!!!!": 1514,
      "!!!!!!!!!ďĉ!!!!!!!!!!!)!!!!!!!!!!!!!!!": 1515,
      "&'(!!!!!!!!!!!!!!!!!!!!!!!!!!!!!!!!!!!!!!!!!!!!!!!!!!!!!!!!!!!!!!!!!!!!!!!!!!!!!!!!!!!!!!!!!!!!!!!!!!!!!!!!!!!!!!!!!!!!!!!!!!!!!!!": 1516,
      "ďĉ!ďĉ!!ďĉďĉ!!ďĉ!!!!!!)!!!!!!!!)": 1517,
      "ďĉ!!!!!!!!!!!!!!!!!!!!!": 1518,
      "ććĈ!Ĉ!Ĉ!Ĉ!Ĉ!Ĉ!ćĈćĈ!ććććććĈ!ćĈ!ććĈćććĈćććĈĈćĈćĈ!Ĉ!ćĈ!ĈćĈćĈćĈćĈ!Ĉ!ĈćĈ!Ĉ!": 1519,
      "ćććĈĈ!ćĈ!Ĉ!ĈćĈĈĈćĈĈĈćĈĈćććććďĉďĉďĉĈ!ĈĈĈĈ": 1520,
      ")!)!!!!!!!!!!!!!!!!!!!!!!!!!!!!!!!!!!!!!!!!!!!!!!!!!!!!!!!!!!!!!!!!!!!!!!!!!!!!!!!!!!!!!!!!!!!!!!!!!!!!!!!!!!!!!!!!": 1521,
      "Ĉ!ďĉ!ďĉďĉďĉďĉďĉ!": 1522,
      "ćććććććĈ!ćĈ!Ĉ!Ĉ!Ĉ!Ĉ!ćĈ!Ĉ!ćĈććĈćďĉ": 1523,
      "ďĉďĉ!ďĉ%&'(ćććććććććććććććć": 1524,
      "ďĈ": 1525,
      "ďĉ!ďĉ!!ďĉ": 1526,
      "ććĈ!Ĉ!Ĉ!Ĉ!Ĉ!Ĉ!Ĉ!ĈĈćĈ": 1527,
      "ćĈ!ćĈ!Ĉ!Ĉ!ćĈ!Ĉ!Ĉ!ćĈ!Ĉ!": 1528,
      "ďĉ!ďĉ!!!!!!ďĉďĉ!!!!": 1529,
      "ćććĈ!Ĉ!ćĈ!Ĉ!ĈĈ!Ĉ!ĈćĈĈĈĈĈ!Ĉ!Ĉ!Ĉ!Ĉ!Ĉ!ĈĈĈ!Ĉ!ĈĈĈĈ": 1530,
      ")!)!!Ĉ!Ĉ!ĈĈ": 1531,
      "Ĉ!ĈĈ!ĈĈĈćĈĈĈćĈ!ĈĈĈĈ!ĈĈ!Ĉ": 1532,
      "ććććĈ!Ĉ!ćĈ!ćĈ!Ĉ!ććĈ!ĈććĈ!Ĉ!ćĈ!ćĈ!Ĉ!Ĉ!ćĈĈ!": 1533,
      "Ĉ!Ĉ!Ĉ!ćĈ!Ĉ!ćĈ!ćĈ!ćĈ!ćĈ!ćĈ!Ĉ!Ĉ!Ĉ!Ĉ!Ĉ!ćĈ!Ĉ!ććĈ!": 1534,
      "ććĈ!Ĉ!ĈĈĈ!!ćĈ!Ĉ!Ĉ!Ĉ!ćďĉďĉ!!": 1535,
      "ćĈ!Ĉ!ćĈ!ćĈ!ćĈ!Ĉ!ććććĈ!ććĈ!ć!ďĉ": 1536,
      "ćĈ!ćĈ!Ĉ!ććĈ!Ĉ!Ĉ!Ĉ!ćĈĈĈ!Ĉ!ćĈ!Ĉ!ĈĈĈ!ĈĈĈććĈ!ćĈćĈĈĈ!ĈćĈĈĈĈĈĈĈĈććĈćĈĈ!ććĈĈĈĈćĈĈĈĈćĈĈĈĈĈĈĈĈććĈ": 1537,
      "ďĉďĉďĉďĉďĉďĉďĉ%&'(": 1538,
      "%!Ĉ&'(!": 1539,
      "323": 1540,
      "ďĈ!ĉ": 1541,
      "ďĉďĉďĉ!ďĉ!ďĉ!": 1542,
      "ďĉ!!ďĉ!!!!!!!!!!!ďĉ!!ćććććććĈ!Ĉ!Ĉ!ććĈĈććĈ!ćĈĈ": 1543,
      "ĈĈĈ!ĈĈĈĈ!ĈĈ!Ĉ!Ĉ!Ĉ!ĈĈĈ!Ĉ!ĈĈ!ĈĈ!Ĉ!Ĉ!Ĉ!Ĉ!Ĉ!ĈĈĈĈ!ĈĈĈĈĈĈĈ!Ĉ!Ĉ!ĈĈ!Ĉ": 1544,
      "ććććććĈ!Ĉ!": 1545,
      "&'(!!!!!!!!!!!!!!!!!!!!!!!!!!!!!!!!!!!!!!!!!!!!!!!!!!!!!!!!!!!!!!!!!!!!!!!!!!!!!!!!!!!!!!!!!!!!!!!!!!!!!!!!!!!!!!!!!!!!!!!!!!!!!!!!!!!!!!!!!!!!!!!!!!!!!!!!!!!!!!!!": 1546,
      "%!!!!!!!!!!!!!!!!!!!!!!!!!": 1547,
      "ďĉćĈ!Ĉ!Č": 1548,
      "ďĉďĉďĉ!!ďĉ!!ďĉ!!!!!!!!)!!!!!!!!)!)!)!!!!!!!!!!!!!!!!!!!!!!!!!!!!!!!!!!!!!!!!!!!!!!!!!!!!!!!!!!!!!!!!!!!!!!!!!!!!!!!!!!!!!!!!!!!!!!!!": 1549,
      "ćĈ!Ĉ!Ĉ!Ĉ!Ĉ!Ĉ!Ĉ!Ĉ!Ĉ!Ĉ!ďĉďĉ!ďĉ%&'(ćććććććććććććććć": 1550,
      "ďĉććććććĈ!ććĈ!ććĈ!Ĉ!Ĉ!Ĉ!ćććĈ!Ĉ!Ĉ!ććĈćĈ!Ĉ!ĈćĈ!Ĉ!ćĈ!ććĈĈĈĈĈćĈćĈ": 1551,
      "ćďĉďĉďĉďĉ!ććĈ!Ĉ!Ĉ!Ĉ!Ĉ": 1552,
      "!!!!!!!!!!!!!!ďĉďĉďĉďĉććććĈ!ćĈ!Ĉ!Ĉ!Ĉ!ćĈ!ĈĈćĈ!ćĈ!Ĉ!Ĉ!ćĈ!ćĈ!Ĉ!ćĈĈćĈ!Ĉ!ććĈ!ĈĈćĈćĈćĈ!Ĉ!ĈćĈĈ": 1553,
      "ććĈ!ććĈ!ćĈ!Ĉ!ćĈććĈ!Ĉ!%&'(ďĉĈ!Ĉ!Ĉ!Ĉ!Ĉ!Ĉ!": 1554,
      "Ĉ!ćĈ!ćĈ!Ĉ!Ĉ!": 1555,
      "ďĉďĉ%&'(ďĉ": 1556,
      "00110101": 1557,
      "!!!!!!!!!!!!!!!!!!!!!Ĉ!Ĉ!Ĉ": 1558,
      "ććććĈćĈććĈ!ćĈ!Ĉ!Ĉ!Ĉ!ćĈ!Ĉ!ćĈ!ćĈ!Ĉ!ćĈ!ĈćĈ!ĈĈ!ĈćĈćĈćĈćććĈćĈćććĈćĈ": 1559,
      "ďĉďĉďĉ!ďĉďĉďĉ!!ďĉďĉďĉďĉ!": 1560,
      "ććĉ": 1561,
      "ćĈ!ĉ": 1562,
      "ďĉďĉďĉďĉďĉ!!ďĉ!!ďĉďĉďĉ)!)": 1563,
      "LLLLLLLLLLLLLLLLLLLLLLLLLLLLLLLL": 1564,
      "%ćĈ&'(": 1565,
      "&'(!!!!!!!!!!!!!!!!!!!!!!!!!!!!!!!!!!!!!!!!!!!!!!!!!!!!!!!!!!!!!!!!!!!!!!!!!!!!!!!!!!!!!!!!!!!!!!!!!!!!!!!!!!!!!!!!!!!!!!!!!!!!!!!!!!!!!!!!!!": 1566,
      "ćďĉ!!!!": 1567,
      "ćďĉďĉ%&'(": 1568,
      "ćććććććććććććććććććććććććććććććććććććććć": 1569,
      "Ĉ!Ĉ!Ĉ!ćĈ!Ĉ!Ĉ!": 1570,
      "ćććĈ!Ĉ!Ĉ!ćĈĈĈĈ!": 1571,
      "ďĉďĉďĉ!ďĉ!%&'(": 1572,
      "&'(!!!!!!!!!!!!!!!!!!!!!!!!!!!!!!!!!!!!!!!!!!!!!!!!!!!!!!!!!!!!!!": 1573,
      "(788888888,-%&+": 1574,
      "&'(!!!!!!!!!!!!!!!!!!!!!!!!!!!!!!!!!!!!!!!!!!!!!!!!!!!!!!!!!!!!!!!!!!!!!!!!!!!!!!!!!!!!!!!!!!!!!!!!!!!!!!!!!!!!!!!!!!!!!!!!!!!!!!!!!": 1575,
      "!!!!!!!!!ćććĈ!Ĉ!Ĉ!Ĉ!Ĉ!Ĉ!ĈĈĈĈĈĈĈĈĈĈĈĈďĉ!!!!!!!!!!!!!!!!!!!!!!!!!!!!!!!!!!!!!!!!!!!!!!!!!!!!!!!!!!!!!!)!)!!!!!!!!!ććććĈ!ĈĈ%&'(ďĉ!!!!!!!!!!!!!!!!!!!!!!!!!!!!)!)!!!!!!!!!!!!!!!!!!!!!!!!!!!!!!!!)!)!!": 1576,
      ")!)!!Ĉ!Ĉ!ĈĈ!!!!!": 1577,
      "%!!&'(!!!!!!!!!!!!!!!!": 1578,
      "!!!!!!!!!!!ďĉćććĈ!Ĉ!Ĉ!Ĉ": 1579,
      "ćĈ!ĈĈĈ!ĈĈćĈ!Ĉ!Ĉ!ćĈćĈĈĈĈĈćĈĈćĈćĈćĈćĈĈĈćĈĈĈĈĈĈćĈ!Ĉ!": 1580,
      "ĈĈĈ!ĈĈĈĈ!ĈĈ!Ĉ!Ĉ!Ĉ!ĈĈĈ!Ĉ!ĈĈ!ĈĈ!Ĉ!Ĉ!Ĉ!Ĉ!Ĉ!ĈĈĈĈ!ĈĈĈĈĈĈĈ!Ĉ!Ĉ!ĈĈ!Ĉ%&'(ďĉĈ!Ĉ!Ĉ!Ĉ!": 1581,
      "ďĉďĉćĈ!ĈĈ!ĈĈĈĈ!Ĉ!Ĉ!ĈĈĈĈĈĈĈĈ!ĈĈĈĈĈ": 1582,
      "Ĉ!Ĉ!Ĉ!Ĉ!Ĉ!Ĉ!ćďĉďĉďĉćĈ!Ĉ!Ĉ!Ĉ!": 1583,
      "ď%ĉ&'(!": 1584,
      "ćććććďĉ!ććććĈćććĈ!Ĉ!Ĉ": 1585,
      "ďĉďĉ%&'(!ďĉďĉďĉ!!ďĉďĉćĈ!Čďĉďĉďĉ!ďĉďĉ!ďĉďĉďĉ!ďĉďĉ!": 1586,
      "ćććććććććććĈ!ĈćĈ!Ĉ!ĈćĈ!ćďĉďĉ!!ćććĈ!Ĉ!ćĈ!Ĉ!ĈĈĈĈ!ććĈ": 1587,
      "ďĉďĉďĉĈ!Ĉ!Ĉ!Ĉ!Ĉ!ćĈ!ĈĈĈĈ": 1588,
      "ćĈ!ĈćĈćĈćĈćććĈĈĈĈĈććĈĈććĈćććĈćĈćĈćĈćĈĈćĈĈćĈćĈćĈ": 1589,
      "ďĉďĉ!ďĉďĉ%&'(ćĈ!Ĉ!Ĉ!Ĉ!Ĉ!Ĉ": 1590,
      ")ďĉďĉďĉďĉďĉďĉďĉ!": 1591,
      "MMM": 1592,
      "LLL!LK": 1593,
      "ďĉďĉďĉćďĉ!ďĉďĉďĉďĉ!!": 1594,
      "Ĉ!Ĉ!Ĉ!Ĉ!ĈćĈĈĈ!ĈĈĈćĈćĈĈĈĈĈĈĈćĈĈĈĈĈĈćĈćĈ!ćĈĈ!": 1595,
      "ďĉďĉďĉďĉďĉďĉ!!": 1596,
      "ďĉ!ďĉďĉďĉďĉďĉ": 1597,
      "ćďĉ!ďĉďĉďĉďĉďĉďĉďĉďĉ": 1598,
      "%!&'(!!!!!!!!!!!!!!!!": 1599,
      "%!!!!!&'(": 1600,
      "ćĈ!ććĈ!Ĉ!ĈćĈ!ĈććĈĈĈćĈĈĈćĈ!ĈććĈĈĈćĈĈććĈĈĈćĈ!ĈćĈ!ććĈĈ!Ĉ!ĈĈćĈ!Ĉ!": 1601,
      "ćĈ!ćĈ!Ĉ!ćĈĈ!Ĉ!Ĉ!Ĉ!ćĈćĈĈćĈ!Ĉ!Ĉ!ćĈ!Ĉ!Ĉ!Ĉ!ćĈ!Ĉ!": 1602,
      "ćććĈ!Ĉ!ććĈ!ćĈ!ćČďĉ!!!": 1603,
      "ďĉ%&'(ďĉďĉďĉďĉďĉďĉ!": 1604,
      "ďĉďĉ!ďĉ%&'(ďĉ": 1605,
      "ć'(": 1606,
      "ćććĈ!ćĈ!Ĉ!Ĉ!ćĈ!Ĉ!ćĈ!Ĉ!Ĉ!Ĉ!ćĈ!Ĉ!ćĈ!ćĈ!ćĈ!ćĈ!Ĉ!Ĉ!Ĉ!Ĉ!Ĉ!Ĉ!Ĉ!Ĉ!ĈĈ!": 1607,
      "%!!!!!!!!!!!!!!!!!!!!!!!!!!": 1608,
      "ďĉ!!!!!!!!!!!!!!!!!!!!!!!!": 1609,
      "ĈĈĈ!ĈĈĈĈ!ĈĈ!Ĉ!Ĉ!Ĉ!ĈĈĈ!Ĉ!ĈĈ!ĈĈ!Ĉ!Ĉ!Ĉ!Ĉ!Ĉ!ĈĈĈĈ!ĈĈĈĈĈĈĈ!Ĉ!Ĉ!ĈĈ!Ĉ%&'(ďĉĈ!Ĉ!Ĉ!Ĉ!ĈĈĈ!Ĉ!Ĉ!ĈĈĈĈ!Ĉ!ĈĈ!Ĉ!Ĉ!ĈĈĈĈ": 1610,
      "ďĉďĉďĉ%&'(ďĉďĉďĉ": 1611,
      "ććĈ!Ĉ!Ĉ!Ĉ!Ĉ!Ĉ!ććĈ!ć": 1612,
      "ćććććććĈ!ćČ": 1613,
      "ćććďĉććććććĈ!ććČ": 1614,
      "ććććĈ!ćĈ!Ĉ!Ĉ!Ĉ!Ĉ!Ĉ!Ĉ!Ĉ!Ĉ!!ćĈĈĈĈ!Ĉ!ćĈ!Ĉ!ćĈĈĈćĈ!ĈĈĈĈĈ!Ĉ!ćĈ!ććĈ!ćĈ!ććĈ!ćĈććĈ!ćĈ!ćĈ!ĈćĈĈ": 1615,
      "ĈĈĈĈĈĈĈĈĈĈĈĈĈĈ!Ĉ!Ĉ!Ĉ!ĈĈĈĈĈ!Ĉ!Ĉ!Ĉ!Ĉ!Ĉ!ĈĈ!ĈĈ!ĈĈ!ĈĈĈ!ĈĈĈĈĈ!ĈĈĈĈĈĈ!Ĉ!ĈĈ!ĈĈĈĈ!ĈĈĈĈĈĈĈĈ%&'(ďĉćĈ!Ĉ!Ĉ!Ĉ!Ĉ!Ĉ!ĈĈ": 1616,
      "ćććĈ!Ĉ!Ĉ!ćĈ!Ĉ!Ĉ!Ĉ!Ĉ!!": 1617,
      "ďĉ%&'(ďĉďĉďĉ": 1618,
      ")!)!!!!!!!!!!!!!!!!!!!!!!!!!!!!!!!!!!!!!!!!!!!!!!!!!!!!!!!!!!!!!!!": 1619,
      "ďĉ!!ďĉ!ććĈ!ďĉ!ďĉďĉ!!ďĉďĉ)ďĉďĉ!": 1620,
      "ćććććĈ!ĈĈćĈĈćĈ": 1621,
      "ććććććĈ!ććĈ!Ĉ!Ĉ!ĈćĈ!Ĉ!ĈćĈććĈĈ!ĈĈĈ": 1622,
      "ďĉćććďĉ!": 1623,
      "ćĈ!ćĈ!ćĈ!ćĈ!ćĈ!Ĉ!ćĈ!ćĈ!Ĉ!Ĉ!ćĈ!Ĉ!Ĉ!ććĈ!Ĉ!Ĉ!ĈćĈ!Ĉ!ććĈ!ććĈ!ćĈ!Ĉ!ćĈććĈ!Ĉ!%&'(ďĉĈ!Ĉ!Ĉ!Ĉ!Ĉ!Ĉ!": 1624,
      "ďĉ!ďĉććććĈ!ćĈ!ĈĈ!ććĈ!ćĈ!ĈĈ!ćĈ!Ĉ!ćĈ!ďĉ!": 1625,
      "ćć%&'(": 1626,
      "ć%&'(ďĉďĉ": 1627,
      "ćććććććĈ!Ĉ!Ĉ!ćĈ!Ĉ!Ĉ!ćďĉ!": 1628,
      "ććĈ!ćĈ!ććĈ!ćĈ!ćĈ!ććĈćĈ!Ĉ!Ĉ!Ĉ!ćĈ!ććĈĈĈĈĈĈćĈ!ććĈćĈ!ćĈ!Ĉ!ćĈ!ććĈććĈ!!!!!!ďĉćć": 1629,
      "ďĉďĉďĉ!!ďĉďĉ!ďĉ!!": 1630,
      "ďĉ!ďĉďĉďĉćĈ!Ĉ!Ĉ!Ĉ!ĈĈ!Ĉ!Ĉ!Ĉ!": 1631,
      "ďĉ!ďĉĈ!Ĉ!ćĈ!Ĉ!ĈĈĈďĉ!ďĉ!!!SĂĄĆ!!ďĉ!!!!!!": 1632,
      "ďĉ!!ďĉ!ďĉďĉďĉ!ďĉ!!!!!": 1633,
      "ďĉ!!ďĉďĉďĉ!": 1634,
      "ćďĉćĈ!ććĈ!ćĈ!Ĉ": 1635,
      "ććććććććĈ!ćććĈ!Ĉ!ćĈ!ďĉ": 1636,
      "Ĉ!Ĉ!Ĉ!ĈćĈĈ!Ĉ!ĈćĈĈ!ćĈ!Ĉ!ĈĈĈĈćĈĈĈĈćĈĈćĈĈĈĈĈĈćĈĈĈĈćĈĈćĈĈćĈ!ćććĈ!ćć": 1637,
      "ćďĉ!ďĉďĉ!!": 1638,
      "%&'(ďĉďĉ!!!ćććććĈ!ćĈ!ććććĈ!ććĈ!ćććĈ!ćććĈ": 1639,
      "ďĉ!!ďĉ!!!!!!!!!!!ďĉ!!ćććććććĈ!Ĉ!Ĉ!ććĈĈććĈ!ćĈĈ%&'(ďĉďĉ!!!ćććććĈ!ćĈ!ććććĈ!ććĈ!ćććĈ!ćććĈ": 1640,
      "!!!!!!!!!!!!ďĉ!ďĉ!!!!!!ďĉďĉ!!": 1641,
      "ďĉ!ďĉďĉćĈ!Ĉ!Ĉ!ććĈ!ćĈ!Ĉ!Ĉ!ćĈ!Ĉ!ćĈ!ćĈ!ćĈ!ćĈćĈ!Ĉ!ĈĈćĈćĈĈĈĈĈĈĈĈĈĈĈĈ": 1642,
      "ďĉ!!!!!!!!!!!!!!!!!!!!!!!!!!!!!!!!!!!!!!!!!!!!!": 1643,
      "%!!!!!!&'(": 1644,
      "ďĉ!ďĉ!ďĉ!ďĉ!ďĉ!ďĉ": 1645,
      "ďĉďĉďĉ!ďĉ!%&'(!!!!!!!!!!!!ďĉ!ďĉ!!!!!!ďĉďĉ!!": 1646,
      "!!!!!!!!ććĈ!Ĉ!ĈćĈĈĈććĈĈĈććĈ!Ĉ!Ĉ!Ĉ!Ĉ!Ĉ!ćĈĈ!Ĉ!Ĉ!ćĈĈĈććĈĈ!ćććĈ!ććĈ!ćĈ!ĈĈĈćć!!!!%&'(ďĉ!!ďĉ!!ćĈ!Ĉ!Ĉ!Ĉ!Ĉ!Ĉ!Ĉ!ćĈ!ďĉ!!!!!!!!ďĉ!!!!!ćĈ!ĈćĈ!ćĈ!ĈĈ!ćĈ!Ĉ!ĈĈĈ!ĈĈĈććĈ!": 1647,
      "ććććĈ!Ĉ!Ĉ!Ĉ!Ĉ!ĈĈ!Ĉ!ć": 1648,
      "ćĈ!ĈĈĈ!ĈĈćĈ!Ĉ!Ĉ!ćĈćĈĈĈĈĈćĈĈćĈćĈćĈćĈĈĈćĈĈĈĈĈĈćĈ!Ĉ!ć%&'(": 1649,
      "ďĉďĉ!!ďĉ!ďĉ!!ďĉďĉďĉ!ďĉ": 1650,
      "00101": 1651,
      "ďĉ!ďĉććććććĈććĈ!": 1652,
      "ďĉ!!!!ďĉďĉďĉďĉďĉďĉďĉďĉďĉďĉ": 1653,
      "Ĉ!ĈĈćĈĈ!Ĉďĉ!!!!!!!!!!!!!!!!!!!!!!!!!!!!!!!!ďĉ!!!!!!!!!!!!!!!!!!ďĉ!!!!!!!!!!!!!!!!!!!ďĉ!!!!!!!!": 1654,
      "ďďĉĉ!": 1655,
      "RTVa!!!S": 1656,
      "ćďĉććććććććććććććććĈ!Ĉ!ćĈ!Ĉ!ĈĈ!ćĈ!ćććĈ!ććĈćĈ!ććĈćććĈ!Ĉ!Ĉ!Ĉ!ćććĈćĈ!ćĈ": 1657,
      "ďĉďĉďĉďĉ%&'(ďĉďĉďĉďĉ": 1658,
      "ďĉďĉ!ďĉďĉďĉ": 1659,
      "!!!!!!!!!ďĉ!!!!!!!!ďĉďĉďĉ!ďĉ!%&'(!!!!!!!!!!!!ďĉ!ďĉ!!!!!!ďĉďĉ!!": 1660,
      "ďĉ!!ďĉďĉďĉďĉďĉ!!ďĉ!ďĉ!ďĉďĉďĉ!": 1661,
      "ćĈ!ĈĈĈ!ĈĈćĈ!Ĉ!Ĉ!ćĈćĈĈĈĈĈćĈĈćĈćĈćĈćĈĈĈćĈĈĈĈĈĈćĈ!Ĉ!ć%&'(ďĉ!!ďĉ!ďĉďĉďĉ!ďĉ!!!!!": 1662,
      "ć%&'(ďĉĈ!ćĈ!Ĉ!Ĉ!ćĈ!Ĉ!Ĉ!ĈĈ!": 1663,
      "ććĈ!Ĉ!Ĉ!Ĉ!Ĉ!ĈĈ!ćĈ!ćĈ!ćĈćĈ!ćĈ!ćĈćĈ!ćĈćĈ!ććĈćĈ!ćĈćĈ!Ĉ!ććĈćĈ!ĈĈĈĈĈĈćĈ!ććĈććĈ!ćĈ!ĈććĈĈ!Ĉ!ĈĈĈ!ććĈ!Ĉ!Ĉ": 1664,
      "Ĉ!Ĉ!ĈĈĈĈĈĈćĈ!ĈĈĈ%&'(ďĉ%&'(%&'(%&'(ďĉďĉďĉďĉ!ďĉďĉ%!!!&'(ďĉďĉďĉ!!ďĉ!ććĈ!Ĉ!Ĉ!Ĉ!Ĉ!ďĉďĉ!ďĉćććććĈ!Ĉ!Ĉ!Ĉ!Ĉ!Ĉ!ďĉ!%&'(ďĉ!!ďĉ!ďĉďĉ!": 1665,
      "Ĉ!ďĉ!ďĉďĉďĉďĉďĉ!ďĉďĉďĉ!!)!)!!!!!!!!!!!!!!!!!!!!ďĉ!!!!!!!!!!!!!!!!!!!!!!!!!!!!!!!!!!!": 1666,
      "ćď%&'(ĉ": 1667,
      "ďĉďĉďĉďĉďĉćććććĈ!Ĉ!ćĈ!Ĉ!ćĈ!Ĉ!Ĉ!Ĉ!Ĉ!ćĈ!ćĈ!ćĈ!ćĈ!ćĈ!Ĉ!ćĈ!ćĈ!Ĉ!ćĈĈćĈ!ĈććĈ!ĈćĈćĈćĈ!ĈćĈĈ": 1668,
      "ćććććććććććĈ!ćĈ!!ććĈ!ććĈ!ćĈ!Ĉ!Ĉ!Ĉ!Ĉ!Ĉ!ĈćĈĈĈĈ!ĈććĈ!ććććĈć!!": 1669,
      "ććććĈ!ćĈ!Ĉ!Ĉ!Ĉ!Ĉ!Ĉ!Ĉ!Ĉ!Ĉ!!ćĈĈĈĈ!Ĉ!ćĈ!Ĉ!ćĈĈĈćĈ!ĈĈĈĈĈ!Ĉ!ćĈ!ććĈ!ćĈ!ććĈ!ćĈććĈ!ćĈ!ćĈ!ĈćĈĈć%&'(ďĉĈ!ćĈ!Ĉ!Ĉ!ćĈ!Ĉ!Ĉ!ĈĈ!": 1670,
      "ē!": 1671,
      "ććĈ!ďĉ!ďĉ!!ćĈ!": 1672,
      "ćććĈ!Ĉ!Ĉ!Ĉ!Ĉ!Ĉ!Ĉ!Ĉ!Ĉ!Ĉ!": 1673,
      "ďĉďĉďĉ!ďĉďĉ!ďĉďĉ!!ďĉ!!ďĉďĉćććĈ!Ĉ!Ĉ!Ĉ!Ĉ!Ĉ": 1674,
      "ďĉďĉďĉďĉďĉ!!ďĉ!!!!": 1675,
      "!!!!!!!!!!!!!!!!!!!": 1676,
      "ďĉďĉćććććććć": 1677,
      "!!!!!!!ďĉ!!ďĉďĉ!!!ďĉďĉďĉďĉďĉ!ďĉ": 1678,
      "ďĉďĉ%&'(!ďĉďĉďĉ!!ďĉďĉćĈ!Čďĉďĉďĉ!ďĉďĉ!ďĉďĉďĉ!ďĉďĉ!ďĉďĉďĉ": 1679,
      "ćććććĈ!ĈĈćĈĈćĈďĉćććććććć": 1680,
      "ďĉďĉďĉ!ććĈ!ć": 1681,
      "&'(!!!!!!!!!!!!!!!!!!!!!!!!!!!!!!!!!!!!!!!!!!!!!!!!!!!!!!!!!!!!!!!!!!!!!!!!!!!!!!!!!!!!!!!!!!!!!!!!!!!!!!!!!!!!!!!!!!!!!!!!": 1682,
      "&'(!!!!!!!!!!!!!!!!!!!!!!!!!!!!!!!!!!!!!!!!!!!!!!!!)!)!!!!!!!!ďĉ!ďĉďĉ": 1683,
      "ďĉ!)!)!!!!!!!!!!ďĉ!!!!!!ćććĈ!Ĉ!Ĉ!Ĉďĉ!!!!!ďĉ!)!)!!!!!!!!!!!!!!": 1684,
      "7'7777": 1685,
      "ďĉďĉďĉ%ď&'(ĉ": 1686,
      "7'777777": 1687,
      "ć%Ĉ&'(": 1688,
      "ħ)": 1689,
      "%&'(ďĉďĉ!!!!ďĉ!!)ďĉďĉ!": 1690,
      "R%&'(TVa": 1691,
      "ć)": 1692,
      "%&'(ďĉďĉ!!": 1693,
      ")!)ďĉďĉďĉďĉďĉďĉ!!!ďĉ!!ďĉ!ďĉ!": 1694,
      "ćĈ!!": 1695,
      "%!!!!!!!!!!!!!!!!!!!!!!!!!!!!!!!!!!!!!!!!!!!!!!!!": 1696,
      "Ĉ!)": 1697,
      "ďĉ!ďĉďĉ!ďĉ!ďĉďĉďĉ!": 1698,
      "ćććĈ!Ĉ!Ĉ!Ĉ!ĈĈĈĈĈĈĈĈĈĈ!ćĈ!Ĉ!ĈćĈĈćĈćĈĈĈćĈĈďĉĈ!ĈĈĈĈ": 1699,
      "ććĈ!ćććĈ!ćććĈ!ćććĈ!Ĉ!Ĉ!ďĉćććĈ!ć": 1700,
      "ćććććććĈ!ćČČ": 1701,
      "ďĉďĉćććĈ!Ĉ!Ĉ!Ĉ!Ĉ!Ĉ!ćććććĈ!ćĈĈ": 1702,
      "ďĉ%&'(Ĉ!Ĉ!ĈĈĈĈĈĈĈĈĈĈĈĈĈĈĈĈĈĈĈĈĈĈĈĈďĉ!": 1703,
      "ďĉďĉďĉďĉďĉďĉ!ďĉďĉ!ďĉďĉďĉ!!": 1704,
      "ććĈ!Ĉďĉ%&'(Ĉ!Ĉ!ĈĈĈĈĈĈĈĈĈĈĈĈĈĈĈĈĈĈĈĈĈĈĈĈďĉ!": 1705,
      "ćććććććććććććććĈ!Ĉ!Ĉ!ćĈ!Ĉ!Ĉ!Ĉ!Ĉ!ćĈ!Ĉ!ćĈ!ćĈ!ćĈ!ćĈ!ćĈ!Ĉ!Ĉ!Ĉ!Ĉ!Ĉ!ćĈ!Ĉ!ććĈ!": 1706,
      "ćććĈ!Ĉ!ćććĈĈćĈ!ĈĈĈ!!ćććć!!!!!!!!!!!!!!!!!!!!%&'(%&'(ďĉďĉďĉ": 1707,
      "&'(!!!!!!!!!!!!!!!!!!!!!!!!!!!!!!!!!!!!!!!!!!!!!!!!!!!!!!!!!!!!!!!!!!!!!!!!!!!!!!!!!!!!!!!!!!!!!!!!!!!!!!!!!!!!!!!!!!!!!!!!!": 1708,
      "ďĉďĉďĉďĉďĉďĉR%&'(TVa": 1709,
      "ďĉ!ďĉ!!!!!!!!!!!ďĉ!!ďĉďĉďĉďĉďĉďĉ!": 1710,
      "%&'(ďĉĈ!Ĉ!Ĉ!Ĉ!ĈĈĈĈĈĈĈĈĈĈĈĈĈĈ!Ĉ!Ĉ!Ĉ!Ĉ!ĈĈĈ!ĈĈ": 1711,
      "ćĈ!Ĉ!Ĉ!Ĉ!Ĉ!ĈĈĈ!Ĉ!ĈĈ!Ĉ!ĈĈ!Ĉ!ĈĈ!ĈĈ!Ĉ!ĈĈ!ĈĈ!Ĉ!ĈĈĈ!ĈĈĈĈ!ĈĈĈĈ%&'(ďĉĈ!Ĉ!Ĉ!Ĉ!ĈĈĈĈĈĈĈĈĈĈĈĈĈĈ!Ĉ!Ĉ!Ĉ!Ĉ!ĈĈĈ!ĈĈ": 1712,
      "ďĉ!ďĉ!!ďĉďĉ!!ďĉ!!!!!!)!!!!!!!!)ďĉďĉďĉ!!": 1713,
      "ĥ!": 1714,
      "!!!!!!!!!!!!!!!!!!!!!!!!!!!!!!!!!!!": 1715,
      "77'7777": 1716,
      "ćďĉ!ććććććććĈ!Ĉ!ćĈĈćĈ!ĈĈćĈ!ćĈĈćĈ!Ĉ!": 1717,
      "ďĉďĉďĉďĉććććĈ!ĈĈ!ćĈ!ĈĈ!Ĉ!Ĉ!ćĈ!ćĈ": 1718,
      "77'77777": 1719,
      "ďĉďĉ!ďĉ!!!!!!!!ďĉďĉďĉďĉďĉććććĈ!ćĈ!ĈćĈĈ!Ĉ!Ĉ!Ĉ!ĈćĈĈćĈĈĈĈĈĈ!%&'(ďĉďĉďĉ!))ďĉ!ďĉďĉďĉďĉ": 1720,
      "%!!!!&'(": 1721,
      "ďĉďĉďĉďĉďĉ!)!)!ďĉďĉ!!!)!)!!": 1722,
      "Ĉ!ĈćĈ!Ĉ!Ĉ!ĈćĈ!ććďĉ!Ĉ!ĈćĈ!Ĉ!Ĉ!ĈćĈ!ććďĉďĉ!ďĉďĉ%&'(ćĈ!Ĉ!Ĉ!Ĉ!Ĉ!Ĉ": 1723,
      "FD": 1724,
      "!!!!!!!!!!!!ďĉ!!ďĉ": 1725,
      "ď%&'(ĉďĉďĉ": 1726,
      "ďĉ!!!!!!!!!!!!!!!!!!!ććĈ!ćĈ!ćĈ!ćďĉ": 1727,
      "ćďĉ!!!!ćďĉ!": 1728,
      "ďĉ!ďĉďĉďĉ%&'(": 1729,
      "ćĈ!Ĉ!Ĉ!Ĉ!Ĉ!Ĉ!Ĉ!Ĉ!ćĈ!ćĈ!Ĉ!ĈćĈ!Ĉ!ďĉćĈ!": 1730,
      "ďĉďĉďĉďĉďĉďĉR%&'(TVaďĉććĈ!ćććĈćććĈĈ!Ĉ!ćĈ!ććĈćĈ!ćĈ!!Č!!Č!": 1731,
      "ć%&'(Ĉ!Ĉ!Ĉ!Ĉ!Ĉ!Ĉ!": 1732,
      "!LK!LK!LK!LK!LK!LK!LK!LK!LK!LK!LK!LK!LK!LK!LK!LK": 1733,
      "!!!!!!!!!!!!!!ďĉďĉďĉďĉććććĈ!ćĈ!Ĉ!Ĉ!Ĉ!ćĈ!ĈĈćĈ!ćĈ!Ĉ!Ĉ!ćĈ!ćĈ!Ĉ!ćĈĈćĈ!Ĉ!ććĈ!ĈĈćĈćĈćĈ!Ĉ!ĈćĈĈďĉďĉ!ďĉ%&'(ďĉ": 1734,
      "ďĉďĉ!ďĉďĉ!!!ďĉćĈ!Ĉ!ććĈ!ććĈ!ĈĈ!ććĈ!Ĉ!Ĉ": 1735,
      "%!!!!!!!!!!!!!!!!!!!!!!!!!!!": 1736,
      "ďĉďĉ!ďĉ!)ďĉďĉďĉćďĉďĉ!ďĉďĉďĉ!!ďĉ!!!!": 1737,
      "!!!!!!!!!!!!!!ďĉďĉďĉďĉććććĈ!ćĈ!Ĉ!Ĉ!Ĉ!ćĈ!ĈĈćĈ!ćĈ!Ĉ!Ĉ!ćĈ!ćĈ!Ĉ!ćĈĈćĈ!Ĉ!ććĈ!ĈĈćĈćĈćĈ!Ĉ!ĈćĈĈďĉďĉ!ďĉ%&'(ďĉĈ!ďĉ!ďĉďĉďĉďĉďĉ!ďĉďĉďĉ!!)!)!!!!!!!!!!!!!!!!!!!!ďĉ!!!!!!!!!!!!!!!!!!!!!!!!!!!!!!!!!!!": 1738,
      ")!!!": 1739,
      "ćďĉďĉ!ďĉďĉ": 1740,
      "ćććććďĉ!ććććĈćććĈ!Ĉ!ĈćĈ!ć": 1741,
      "ďĉ!!!!!!!!!": 1742,
      "ďĉďĉďďĉĉ": 1743,
      "%&'(ďĉĈ!ćĈ!Ĉ!Ĉ!Ĉ!Ĉ!Ĉ!ćĈ!ćĈ!ćĈ!Ĉ!Ĉ!ćĈ!ĈĈĈćĈćĈćĈĈĈćĈ": 1744,
      "&'(!ďĉ!)!)!!!!!!!!!!ďĉ!!!!!!ćććĈ!Ĉ!Ĉ!Ĉďĉ!!!!!ďĉ!)!)!!!!!!!!!!!!!!": 1745,
      "ĈĈ!ĈććĈ!Ĉ!ĈĈ!ĈĈ!Ĉ!ćĈ!%&'(ďĉĈ!ćĈ!Ĉ!Ĉ!Ĉ!Ĉ!Ĉ!ćĈ!ćĈ!ćĈ!Ĉ!Ĉ!ćĈ!ĈĈĈćĈćĈćĈĈĈćĈ": 1746,
      "ďĉďĉďĉďĉďĉ!ďĉďĉďĉ!": 1747,
      "ććĈĈćĈĈĈććĈĈććĈćććĈĈĈĈĈćĈĈćĈćĈĈćĈĈćĈĈĈĈĈćĈćĈĈćĈĈćĈćĈćĈććĈćĈćĈćĈćĈ!ćĈćĈćĈćĈćĈćĈćĈćĈćĈćĈćĈćĈććĈ!Ĉ!ććĈ!ććććĈćĈćĈćĈććććĈ!Ĉ!ććĈ!ĈććććĈćĈćĈćĈćĈćĈćĈćĈćĈćĈ": 1748,
      ")ććććććććććććĈ!ććĈ!ćĈ!ćĈ!Ĉ!Ĉ!ćĈ!Ĉ!ćĈ!%&'(ďĉ": 1749,
      ")ććććććććććććĈ!ććĈ!ćĈ!ćĈ!Ĉ!Ĉ!ćĈ!Ĉ!ćĈ!%&'(ďĉććĈ!Ĉ!Ĉ!Ĉ!ćĈ!Ĉ!!Ĉ!ćĈ!ćĈ!ććĈ!Ĉ!": 1750,
      "ć%ć&'(": 1751,
      "'7777777": 1752,
      "ććććĈ!ĈĈďĉ!!!!!!!!!!!": 1753,
      "Ē!!!": 1754,
      "ďĉ%&'(ďĉďĉďĉďĉďĉďĉ!ďĉďĉďĉďĉ!!": 1755,
      "ď%&'(ĉ!!": 1756,
      "&'(!!!!!!!!!!!!!!!!!!!!!!Ĉ!ďĉďĉćĈ!ďĉ!": 1757,
      "%&'(ćďĉ!": 1758,
      "Ĉ!Ĉ!ĈćĈ!Ĉ!Ĉ!Ĉ!Ĉ!Ĉ!Ĉ!Ĉ!Ĉ!Ĉ!ďĉďĉ!ďĉ%&'(ćććććććććććććććć": 1759,
      "010011": 1760,
      "%&'ď(ĉ!": 1761,
      "&'(!!!!!!!!!!!!!!!!!!!!!!!!!!!!!!!!!!!!!!!!!!!!!!!!!!!!!!!!!!!!!!!!!!!!!!!!!!!!!!!!!!!!!!!!!!!!!!!!!!!!!!!!!!!!!!!!!!!!!!!!!!ďĉććĈĈĈĈĈ": 1762,
      "M&'(": 1763,
      "ďĉďĉ!!!!!!!!!!!!!!!!!!!!!": 1764,
      "ćĈ!ĈĈ!ćĈ!ć": 1765,
      "323232222222222222222222222222222222222222222244444444%&5555555522222222222222222222222266666666": 1766,
      "Ĉ!Ĉ!Ĉ!ĈĈĈĈĈĈĈĈĈĈ!ĈĈĈ!ĈĈ!ĈĈĈĈ!ĈĈ!ĈďĉĈ!ĈĈĈĈĈĈĈĈ!ĈĈĈ!": 1767,
      "001011": 1768,
      "%&'(%&'(ďĉ!!ććććććĈććĈ!ďĉćĈ!Ĉ!Č": 1769,
      "ćććĈ!Ĉ!Ĉ!Ĉ!Ĉ!Ĉ!ćĈ!Ĉ!Ĉ!Ĉ!ćĈ!Ĉ!Ĉ!Ĉććďĉ!ćĈ!ćĈ": 1770,
      "ďĉĦ": 1771,
      "ćďĉďĉććĈ!": 1772,
      "ďĉďĉ!!!!ďĉ!!!ćććććĈ!ĈĈ!ĈĈĈ!Ĉ!Ĉ!Ĉ!Ĉ!Ĉ!Ĉ!Ĉ!Ĉ!Ĉ!Ĉ!Ĉ!ćĈ!ďĉ!ďĉ!!!!!!!!!!!!!!!!": 1773,
      "ććĈ!Ĉ!ćĈĈ!ćĈ!Ĉ!Ĉ!Ĉ!Ĉ!ĈĈĈćĈ!Ĉ!Ĉ!ćďĉććć": 1774,
      "ďĉďĉďĉďĉďĉ!!ďĉ!": 1775,
      "ďĉďĉ!%&'(": 1776,
      "ďĉďĉ%&'(ďĉďĉ": 1777,
      "ććĈ!ćĈ!Ĉ!ĈĈĈ!ĈĈĈććĈ!ĈĈ!ĈĈĈĈ!ĈĈ!ĈĈĈĈďĉďĉďĉ!!!!!!!!!!": 1778,
      "ććĈ!%&'(Ĉ!Ĉ!ĈćĈ!Ĉ!Ĉ!Ĉ!Ĉ!Ĉ!Ĉ!Ĉ!Ĉ!Ĉ!ďĉďĉ!ďĉ%&'(ćććććććććććććććć": 1779,
      "ćďĉďĉ!ďĉďĉć%&'(Ĉ!Ĉ!Ĉ!Ĉ!Ĉ!Ĉ!": 1780,
      "%&'(ĂĄĆ!!!!R!!!S": 1781,
      "ććććĈ!ćĈ!Ĉ!ĈćĈ!Ĉ!": 1782,
      "Lĉ": 1783,
      "&'(!!!!!!!!!!!!!!!!!!!!!!!!!!!!!!!!!!!!!!!!!!!!!!!!!!!!!!!!!!!!!!!!!!!!!!!!!!!!!!!!!!!!!!!!!!!!!!!!!!!!!!!!!!!!": 1784,
      ")!)!!!!!!!!!!!!!!!!!!!!!!!!!!!!!!!!!!!!!!!!!!!!!!!!!!!!!!!!!!!!!!!!!!!!!!!!!!!!!!!!!!!!!!!!!!!!!!!!!!!!!!!!!!!!!!!!!!!!!!!!!!!!!!!!": 1785,
      "ďĉďĉ!ďĉďĉćććććĈ!ćČ": 1786,
      "ďĉďĉďĉďĉ%&'(": 1787,
      "ďĉ!ďĉ%&'(": 1788,
      "ďĉďĉďĉďĉďĉďĉďĉďĉ!!!ďĉďĉďĉďĉ": 1789,
      "&'(!!!!!!!!!!!!!!!!!!!!!!!!!!!!!!!!!!!!!!!!!!!!!!!!!!!!!!!!!!!!!!!!!!!!!!!!!!!!!!!!!!!!!!!!!!!!!!!!!!!!!!": 1790,
      "%!!!!!!!!!!!!!!!!!!!!!!!!!!!!": 1791,
      "ďĉ!ďĉďĉďĉďĉ!!!!!!!!!!!!!!!!!!!!!Ĉ!Ĉ!Ĉ": 1792,
      "!ďĉ!!!!!!!!!!!!!!ďĉďĉďĉďĉććććĈ!ćĈ!Ĉ!Ĉ!Ĉ!ćĈ!ĈĈćĈ!ćĈ!Ĉ!Ĉ!ćĈ!ćĈ!Ĉ!ćĈĈćĈ!Ĉ!ććĈ!ĈĈćĈćĈćĈ!Ĉ!ĈćĈĈďĉďĉ!ďĉ%&'(ďĉĈ!ďĉ!ďĉďĉďĉďĉďĉ!ďĉďĉďĉ!!)!)!!!!!!!!!!!!!!!!!!!!ďĉ!!!!!!!!!!!!!!!!!!!!!!!!!!!!!!!!!!!": 1793,
      "Ĉ!ćĈ!Ĉ!ĈćĈĈĈćĈĈĈĈĈ": 1794,
      "ďĉďĉďĉďĉďĉ)!)ďĉďĉďĉćććĈ!Ĉ!Ĉ!ĈĈ!Ĉ!ćĈ!Ĉ!Ĉ!ĈćĈ!Ĉ!Ĉ!Ĉ": 1795,
      "ďĉ!ďĉďĉ!!!!!!!!!!!!!!!!!!!!!!!!!!!!ďĉ!!!!!!!!!!!!!!!!!!!!!!!!!!!!!!!!!!!!!!!!!!!!!!!!!!!!!!!!!ďĉ!!!!!!!!!!!!!!!": 1796,
      "ćĈćďĉďĉďĉ": 1797,
      "ĉĉĉ": 1798,
      "ďĉ!!!!!!!!!!!!!!!!!": 1799,
      "&'(!!!!!!!!!!!!!!!!!!!!!!!!!!": 1800,
      "ćďĉ#$ćĈ!ćć%&'(ďĉďĉ!!!!ďĉ!!)ďĉďĉ!": 1801,
      "ćĈ!ćĈ!ćĈ!ćĈ!ćĈ!Ĉ!ćĈ!ćĈ!Ĉ!Ĉ!ćĈ!Ĉ!Ĉ!ććĈ!Ĉ!Ĉ!ĈćĈ!Ĉ!ććĈ!ććĈ!ćĈ!Ĉ!ćĈććĈ!Ĉ!%&'(ďĉĈ!Ĉ!Ĉ!Ĉ!Ĉ!Ĉ!ĈĈĈĈĈĈĈĈĈĈĈĈĈĈĈĈĈĈĈĈĈĈĈĈĈĈĈĈĈĈĈĈĈĈĈĈĈĈĈĈĈĈĈĈĈĈĈĈĈ!Ĉ!ĈĈĈĈĈ!Ĉ!Ĉ!": 1802,
      "ďĉďĉďĉďĉďĉ!ďĉ!ďĉďĉďĉďĉ": 1803,
      "Mĉ": 1804,
      "ćĈ!)!)!!Ĉ!Ĉ!ĈĈ!!!!!": 1805,
      "ććććććććććććććććććććććććććĈ!ćććĈ!Ĉ!ćĈ!Ĉ!ćĈ!ćĈ!ćĈ!ĈĈ!Ĉ!": 1806,
      "ććććććććććććććććććććććććććććććććććććććććććććĈ!ćĈ!Ĉ!ĈćĈ!Ĉ!": 1807,
      "Ĉ!ćĈ": 1808,
      "Ĉ!Ĉ!ĈĈĈĈ!Ĉ!Ĉ!ĈĈĈĈĈĈĈĈĈĈ!ĈĈĈ!ĈĈ!ĈĈĈĈ!ĈĈ!ĈďĉĈ!ĈĈĈĈĈĈĈĈ!ĈĈĈ!": 1809,
      "%&'(ďĉ!ćććĈ!Ĉ!ćĈ!Ĉ!ĈĈ!Ĉ!ĈćĈĈĈĈĈ!Ĉ!Ĉ!Ĉ!Ĉ!Ĉ!ĈĈĈ!Ĉ!ĈĈĈĈ": 1810,
      "ćććĈ!Ĉ!Ĉ!Ĉ!Ĉ!ćĈ!Ĉ!Ĉ!ĈćĈ!ćĈĈĈĈĈćĈĈĈĈĈćĈ!ĈĈĈćĈ%&'(ďĉ!ćććĈ!Ĉ!ćĈ!Ĉ!ĈĈ!Ĉ!ĈćĈĈĈĈĈ!Ĉ!Ĉ!Ĉ!Ĉ!Ĉ!ĈĈĈ!Ĉ!ĈĈĈĈ": 1811,
      "ďĉ!ďĉďĉćĈ!Ĉ!Ĉ!ććĈ!ćĈ!Ĉ!Ĉ!ćĈ!Ĉ!ćĈ!ćĈ!ćĈ!ćĈćĈ!Ĉ!ĈĈćĈćĈĈĈĈĈĈĈĈĈĈĈĈ%&'(ďĉ!!": 1812,
      "ćďĉďĉ!ďĉďĉć%&'(Ĉ!Ĉ!Ĉ!Ĉ!Ĉ!Ĉ!ĈĈĈ!ĈĈĈĈ!ĈĈ!Ĉ!Ĉ!Ĉ!ĈĈĈ!Ĉ!ĈĈ!ĈĈ!Ĉ!Ĉ!Ĉ!Ĉ!Ĉ!ĈĈĈĈ!ĈĈĈĈĈĈĈ!Ĉ!Ĉ!ĈĈ!Ĉ%&'(ďĉĈ!Ĉ!Ĉ!Ĉ!ĈĈĈ!Ĉ!Ĉ!ĈĈĈĈ!Ĉ!ĈĈ!Ĉ!Ĉ!ĈĈĈĈ": 1813,
      "ďĉďĉ!!ďĉ!!!!ďĉďĉďĉďĉ!!!!!!!!!!!!!!!!!!!!!!!!!!!!!!!!!!!!!!!!!!!!!": 1814,
      "ććĈ!Ĉ!Ĉ!Ĉ!Ĉ!Ĉ!ćĈćĈ!ććććććĈ!ćĈ!ććĈćććĈćććĈĈćĈćĈ!Ĉ!ćĈ!ĈćĈćĈćĈćĈ!Ĉ!ĈćĈ!Ĉ!ćĈĈĈććĈ!Ĉ!ććĈ!ćććĈćĈćĈćĈćĈĈćĈĈćĈćĈćĈćĈ!Ĉ!ĈćĈ!Ĉ!Ĉ!": 1815,
      "ďĉďĉďĉďĉ%ď&'(ĉ": 1816,
      "ďĉďĉďĉďĉ!ďĉďĉ!!!!!!!!!!!!!!!!!!!!!!!!!!!": 1817,
      "ďĉ!!!!!!!!!!!!!!!!!!!!!!!!!!!!!!!!!!!!!!!!!!!!!!!!!!!!ďĉ!!!!!!!!!!!!": 1818,
      "ďĉ!ďĉďĉćĈ!Ĉ!Ĉ!ććĈ!ćĈ!Ĉ!Ĉ!ćĈ!Ĉ!ćĈ!ćĈ!ćĈ!ćĈćĈ!Ĉ!ĈĈćĈćĈĈĈĈĈĈĈĈĈĈĈĈ%&'(ďĉ!!ďĉďĉďĉďĉďĉďĉ!ďĉďĉ!ďĉďĉďĉ!!": 1819,
      "ćĈ!Ĉ!ćĈ!ćĈ!Ĉ!": 1820,
      "!!!!!!)!!!!!!!!!!!!!!!!!!!!!!!!!!!!!!!!": 1821,
      "%!!!!!!!!!!!!!!!!!!!!!!!!!!!!!!": 1822,
      "%&-+/,'(%&-+/,'(%&-+/,'(%&-+/,'(%&-+/,'(%&-+/,'(%&-+/,'(%&-+/,'(%&-+/,'(%&-+/,'(%&-+/,'(%&-+/,'(%&-+/,'(%&-+/,'(%&-+/,'(%&-+/,'(": 1823,
      "ććććććććĈ!Ĉ!Ĉ!Ĉ!ćĈĈĈĈ!Ĉ!ćĈ!ďĉďĉ": 1824,
      "ćĈ!ćďĉďĉ!ďĉďĉćććććĈ!ćČ": 1825,
      "ďĈĈ": 1826,
      "Ĉ!Ĉ!!": 1827,
      "&'(!!!!!!!!!!!!!!!!!!!!!!!!!!!!!!!!!!!!!!!!!!!!!!!!!!!!!!!!!!!!!!!!!!!!!!!!!!!!!!!!!!!!!!!!!!!!!!!!!!!!!!!!!!!!!!!!!!!!!!!!!!!!!!!!!!!!!!!!!!!!!!": 1828,
      ")!)!!!!!!!!!!!!!!!!!!!!!!!!!!!!!!!!!!!!!!!!!!!!!!!!!!!!!!!!!!!!!!!!!!!!!!!!!!!!!!!!!!!!!": 1829,
      "%&'ć(": 1830,
      "%&ď'(ĉ!": 1831,
      "Ĉ!Ĉ!Ĉ!Ĉ!ćććĈ!ďĉ!!ďĉ!!!!!!!!!!!ďĉ!!ćććććććĈ!Ĉ!Ĉ!ććĈĈććĈ!ćĈĈ%&'(ďĉďĉ!!!ćććććĈ!ćĈ!ććććĈ!ććĈ!ćććĈ!ćććĈ": 1832,
      "ććććĈ!ćĈ!Ĉ!Ĉ!ĈĈ!Ĉ!Ĉ!ĈććĈ!ć": 1833,
      "ććĈ!Ĉďĉ%&'(Ĉ!Ĉ!ĈĈĈĈĈĈĈĈĈĈĈĈĈĈĈĈĈĈĈĈĈĈĈĈďĉ!ćććććĈ!Ĉ!Ĉ!Ĉ!Ĉ!Ĉ!ćĈ!Ĉ!Ĉ!ćĈ!Ĉ!ćĈ!Ĉ!Ĉ!ćĈ!Ĉ!ćĈ!ćĈ!ćĈ!ćĈ!Ĉ!Ĉ!Ĉ": 1834,
      "ďď!": 1835,
      "ďĉďĉĉ": 1836,
      "ďĉďĉďĉďĉćĈ!ĈĈ!Ĉ!ďĉ!ďĉ!ďĉďĉďĉ!!": 1837,
      "ďĉďĉćććććććĈĈććććććĈ!ćĈĈ": 1838,
      "ćććĈ!Ĉ!Ĉ!Ĉ!Ĉ!Ĉ!Ĉ!Ĉ!Ĉ!Ĉ!ćĈ!ćĈ!Ĉ!ćĈ!Ĉ!Ĉ!ćĈ!Ĉ!": 1839,
      "Ĉ!ć": 1840,
      "%&'(ďĉďĉďĉďĉďĉďĉďĉ": 1841,
      "!!!!!!!%!&'(": 1842,
      "ććĈ!Ĉ!Ĉ!ćĈ!ďĉďĉďĉďĉďĉďĉ": 1843,
      "ď)": 1844,
      "%ćć&'(": 1845,
      "ćććĈ!Ĉ!ććĈ!ćĈ!ćČďĉ!!!ďĉ!": 1846,
      "RTVa!!!S%&'(ĂĄĆ!!!!R!!!S": 1847,
      "ďĉďĉ)!)!!ďĉďĉ": 1848,
      ")!)!!!!!!!!!!!!!!!": 1849,
      "&'(!!!!!!!!!!!!!!!!!!!!!!!!!!!!!!!!!!!!!!!!!!!!!!!!!!!!!!!!!!!!!!!!!!!!!!!!!!!!!!!!!!!!!!!!!!!!!!!!!!!!!!!!!!!!!!!!!!!!!!!!!!!!!!!!!!!!!!!!!!!!": 1850,
      "ććĈ!ćďĉďĉďĉďĉďĉďĉďĉ!!": 1851,
      "ćĈ!Ĉ!ćĈ!ćĈ!ćĈ!Ĉ!ććććĈ!ććĈ!ć!ďĉććĈ!Ĉ!ĈĈĈ!Ĉ!Ĉ!ĈĈćĈďĉ!!ďĉďĉ!!!)!)": 1852,
      "ďĉććććććĈ!ććĈ!ććĈ!Ĉ!Ĉ!Ĉ!ćććĈ!Ĉ!Ĉ!ććĈćĈ!Ĉ!ĈćĈ!Ĉ!ćĈ!ććĈĈĈĈĈćĈćĈ%&'(ďĉ": 1853,
      "!!!!!!!!!ďĉ!!!!!!!!ďĉďĉďĉ!ďĉ!%&'(!!!!!!!!!!!!ďĉ!ďĉ!!!!!!ďĉďĉ!!ďĉ!ďĉďĉ!!": 1854,
      "ę!": 1855,
      "ďĉ!ďĉďĉ%&'(": 1856,
      "ďĉ!!ďĉďĉďĉďĉďĉďĉ!ďĉďĉ!!": 1857,
      "ďĉ%!&'(": 1858,
      "%&'(ďĉďĉ!!ďĉćććĈ!Ĉ!Ĉ!ćĈ!Ĉ!Ĉ": 1859,
      "ďĉďĉďĉďĉďĉ!ďĉďĉďĉďĉ": 1860,
      "%Ĉ&'(Ĉ": 1861,
      "ďĉďĉ!ďĉďĉćććććďĉ!": 1862,
      "ćććĈ!Ĉ!Ĉ!ćĈĈĈĈ!ćĈ!ĈĈ!ćĈ!ć": 1863,
      "%M&'(": 1864,
      "AB": 1865,
      "ďĉďĉ!!!!!!!": 1866,
      "ď%&'(ĉďĉ": 1867,
      "ďĉďĉďĉďĉ!ďĉďĉďĉďĉ!ďĉ!!": 1868,
      "ďĉďĉďĉ%&'(ďĉďĉďĉďĉďĉ": 1869,
      "%&'(ďĉďĉďĉ!ććĈ!ćďĉďĉďĉďĉďĉďĉďĉďĉ": 1870,
      "Ē!!Ė": 1871,
      "ďĉĈ!Ĉ!ĈĈĈ!Ĉ!Ĉ!Ĉ!ĈĈĈĈĈ!ĈĈĈĈ!ĈĈĈĈĈĈĈĈĈĈĈĈ!Ĉ!ĈĈĈĈĈĈĈĈĈĈĈĈĈĈĈĈĈĈĈĈĈĈĈĈ!ĈĈĈĈĈĈĈĈĈĈĈĈĈĈĈĈĈĈĈĈĈĈĈ": 1872,
      "ďĉďĉďĉ%&'(ďĉďĉďĉďĉďĉďĉďĉďĉ": 1873,
      "ďĉ!!ďĉ!!!!!!": 1874,
      "&'(!!!!!!!!!!!!!!!!!!!!!!!!!!!!!!!": 1875,
      "ćĈ!ďĉ!%&'(ććććććććććććććććććććććććććććććććććććććććććććĈ!ćĈ!Ĉ!ĈćĈ!Ĉ!": 1876,
      "ďĉďĉďĉ!!ďĉ!!ďĉ!!!!!!!!)!!!!!!!!)!)!)!!!!!!!!!!!!!!!!!!!!!!!!!!!!!!!!!!!!!!!!!!!!!!!!!!!!!!!!!!!!!!!!!!!!!!!!!!!!!!!!!!!!!!!!!!!!!!!!!!!!!!!!!!": 1877,
      "KK": 1878,
      "&'(!!!!!!!!!!!!!!!!!!!!!!!!!!!!!!!!!!!!!!!!!!!!!!!!!!!!!!!!!!!!!!!!!!!!!!!!!!!": 1879,
      "&'(!!!!!!!!!!!!!!!!!!!!!!!!!!!!!!!!!!!!!!!!!!!!!!!!!!!!!!!!!!!!!!!!!!!!!!!!!!!!!!!!!!!!!!!!!!!!!!!!!!!!!!!!!!!!!!!!!!!!!!!": 1880,
      "ďĉďĉďĉďĉďĉďĉ%&'(ďĉďĉ!ďĉďĉďĉ": 1881,
      "ććććććććććććććććććććććĈ!ććĈ!ćĈ!ććĈ!ććććĈ!ćććĈććĈćććĈććććĈććĈććććĈććĈć%&'(ďĉ!!!!!!!!!": 1882,
      ">>": 1883,
      "ćĈ!ĈĈ!ĈĈ!ĈĈ!ĈĈĈĈĈĈĈĈĈĈĈĈĈĈĈĈĈĈĈĈĈĈĈĈĈĈĈĈ!Ĉ!Ĉ!Ĉ!ĈĈĈĈĈĈĈĈĈ!Čďĉ!ćććććććĈ!Ĉ!ććććććĈ!ćĈĈ%&'(ďĉďĉĈ!ĈĈďĉ!!)!)!!!!!!!!!!!!!!!!": 1884,
      "ďLĉ": 1885,
      "%&'(ďĉ!!!!!!!!!!!!!!!!!!!!!!!!!!!!!!!!!!!!!!!!!!!!!!!!!!!!!!!!!!!!!!!!": 1886,
      "&'(!!!!!!!!!!!!!!!!!!!!!!!!!!!!!!!!!!!!!!!!!!!!!!!!!!!!!!!!!!!!!!!!!!!!!!!!!!!!!!!!!!!!!!!!!!!!!!!!!!!!!!!!!!!!!!!!!!!!!!!!!!!!!!!!!!!!!!!!!!!!!!!": 1887,
      "23232222222222222222222222222222222222222222244444444%&5555555522222222222222222222222266666666": 1888,
      "ďĉ!ďĉ!!!!!!ďĉďĉ!!!!ďĉďĉďĉ": 1889,
      "ďĉ!!!!!!!!!!!!!!!!!!!ććĈ!ćĈ!ćĈ!ćďĉ!!!!!!!!!!!!!!!": 1890,
      "&'(!!!!!!!!!!!!!!!!!!!!!!Ĉ!ďĉďĉćĈ!ďĉ!ććĈ!%&'(Ĉ!Ĉ!ĈćĈ!Ĉ!Ĉ!Ĉ!Ĉ!Ĉ!Ĉ!Ĉ!Ĉ!Ĉ!ďĉďĉ!ďĉ%&'(ćććććććććććććććć": 1891,
      "ħ!": 1892,
      "&'(ďĉ!!!!!!!!!ćććĈ!Ĉ!Ĉ!Ĉ!Ĉ!Ĉ!ĈĈĈĈĈĈĈĈĈĈĈĈďĉ!!!!!!!!!!!!!!!!!!!!!!!!!!!!!!!!!!!!!!!!!!!!!!!!!!!!!!!!!!!!!!)!)!!!!!!!!!ććććĈ!ĈĈ%&'(ďĉ!!!!!!!!!!!!!!!!!!!!!!!!!!!!)!)!!!!!!!!!!!!!!!!!!!!!!!!!!!!!!!!)!)!!": 1893,
      "%&'(Ĉ!Ĉ!ćććććĈ!ćĈĈ": 1894,
      "ďĉďĉďĉďĉďĉďĉ!%&'(%&'(Ĉ!Ĉ!ĈĈĈĈĈĈćĈ!ĈĈĈ%&'(ďĉ%&'(%&'(%&'(ďĉďĉďĉďĉ!ďĉďĉ%!!!&'(ďĉďĉďĉ!!ďĉ!ććĈ!Ĉ!Ĉ!Ĉ!Ĉ!ďĉďĉ!ďĉćććććĈ!Ĉ!Ĉ!Ĉ!Ĉ!Ĉ!ďĉ!%&'(ďĉ!!ďĉ!ďĉďĉ!": 1895,
      "ďĉďĉďĉďĉ!!!!ďĉ!!ďĉďĉďĉďĉďĉďĉďĉďĉ!": 1896,
      "%&-+/,'(#..$#$!!)!%&-+/,'(#..$#$!!)!%&-+/,'(#..$#$!!)!%&-+/,'(#..$#$!!)!%&-+/,'(#..$#$!!)!%&-+/,'(#..$#$!!)!%&-+/,'(#..$#$!!)!%&-+/,'(#..$#$!!)!": 1897,
      "ďĉććĈĈĈĈĈďĉďĉ)!)!!ďĉďĉ": 1898,
      "ďĉďĉďĉĈ!Ĉ!Ĉ!Ĉ!Ĉ!ćĈ!ĈĈĈĈćĈ!ćĈ!": 1899,
      "%&'(!!!!!!!!!!!!!!!!!!!!!!!!!!!!!!!!": 1900,
      "%!!!!!!!!&'(": 1901,
      "!!!!ďĉďĉ!!!!!!!!!!!!!!!!!!!!!": 1902,
      "Ĉ!Ĉ!Ĉ!ĈĈĈĈĈĈĈĈĈĈ!ĈĈĈ!ĈĈ!ĈĈĈĈ!ĈĈ!ĈďĉĈ!ĈĈĈĈĈĈĈĈ!ĈĈĈ": 1903,
      "ćďĉďĉ!": 1904,
      "ĉ!!": 1905,
      "ďĉ!!!!!!!!!!!!!!": 1906,
      "ďĉďĉďĉ!ďĉ!ďĉ!ďĉ": 1907,
      "ďĉďĉďĉ!ďĉďĉ!!ďĉďĉďĉ!": 1908,
      "ďĉďĉďĉ%&'(Ĉ!Ĉ!Ĉ!Ĉ!ćććĈ!ďĉ!!ďĉ!!!!!!!!!!!ďĉ!!ćććććććĈ!Ĉ!Ĉ!ććĈĈććĈ!ćĈĈ%&'(ďĉďĉ!!!ćććććĈ!ćĈ!ććććĈ!ććĈ!ćććĈ!ćććĈ": 1909,
      "ďĉ!ďĉďĉďĉĈ!Ĉ!Ĉ!Ĉ!ććĈćć": 1910,
      "%!!&'(!!!!!!!!!!!!!!!!!!!!!!!!!!!!!!!!": 1911,
      "ďĉ!!!!!!!!!!!!!%!!!!!!!&'(": 1912,
      "ćĈ!Ĉ!ćĈĈ!ćĈ!ćĈ!ĈĈ!Ĉ!Ĉ!ćĈ!Ĉ!Ĉ!": 1913,
      "ć!!!!!!!!!!!!!!!!!!!!!!!!!!!!!!!!!!!!!!!!!!!!!!!!!!!!!!!": 1914,
      "ĉĈ": 1915,
      "ďĉďĉďĉďĉďĉďĉďĉďĉ!!": 1916,
      "ďĉ!ďĉďĉďĉďĉďĉďĉďĉćďĉ!ďĉďĉďĉďĉ!!": 1917,
      "01'(333": 1918,
      "ďĉ!ďĉ!!!!!!!!ććĈ!Ĉ!ĈćĈĈĈććĈĈĈććĈ!Ĉ!Ĉ!Ĉ!Ĉ!Ĉ!ćĈĈ!Ĉ!Ĉ!ćĈĈĈććĈĈ!ćććĈ!ććĈ!ćĈ!ĈĈĈćć!!!!%&'(ďĉ!!ďĉ!!ćĈ!Ĉ!Ĉ!Ĉ!Ĉ!Ĉ!Ĉ!ćĈ!ďĉ!!!!!!!!ďĉ!!!!!ćĈ!ĈćĈ!ćĈ!ĈĈ!ćĈ!Ĉ!ĈĈĈ!ĈĈĈććĈ!": 1919,
      "ď!ĉ!": 1920,
      ")!)!!!!!!!!!!!!!!!!!!!!!!!!!!!!!!)!)!!!!!!!!!!!!!!!!!!!!!!!!!!!!!!!!!!!!!!!!!!!!!!!!!!!!!!!!!!!!!!!!": 1921,
      "ććććććććććććČďĉďĉććĈ!ćĈ!ćĈ!ćĈ!ćĈćĈćĈćďĉďĉ": 1922,
      "7'777777(788888888,-%&+01": 1923,
      "&'(!!!!!!!!!!!!!!!!!!!!!!!!!!!!!!!!!!!!!!!!!!!!!!!!!!!!!!!!!!!!!!!!!!!!!!!!!!!!!!!!!!!!!!!!!!!!!!!!!!!!!!!!!!!!!!!!!!!!!!!!!!!!!!!!!!!!!!!!!!!!!!!!!": 1924,
      "&'(!!!!!!!!!!!!!!!!!!!!!!!!!!!!!!!!!!!!!!!!!!!!!!!!!!!!!!!!!!!!!!!!!!!!!!!!!!!!!!!!!!!!!!!!!!!!!!!!!!!!!!!!!!!!!!!!!!!!!!!!!!!!!!!!!!!!!!%!!!!!!!!!!!!!": 1925,
      ")!)!!!!!!!!!!!!!!!!!!!!!!!!!!!!!!!!!!!!!!)!)!!!!!!!!!!!!!!!!!!!!!!!!!!!!!!!!!!!!": 1926,
      "ďĉďĉďĉďĉ!ďĉďĉ!!ďĉďĉďĉďĉďĉďĉďĉ!ďĉ!ďĉ": 1927,
      ")ďĉďĉďĉďĉďĉďĉďĉ!ďĉ!!": 1928,
      "ďĈ!Ĉ": 1929,
      "ďMĉ": 1930,
      "ĈĈĈĈĈĈĈ": 1931,
      "ďĉďĉďĉ!!!!!ďĉďĉďĉ!ďĉďĉćććććĈ!Ĉ!ćĈĈ": 1932,
      "ćĈ!%Ĉ&'(!": 1933,
      "%!!!!!!!!!!!!!!!!!!!!!!!!!!!!!": 1934,
      "&'(!!!!ďĉććććĈ!ćĈ!ćĈ!ĈĈ!ććĈ!Ĉ!ČďĉćĈ!ćĈ!ćĈ!ćĈćĈ!ćĈ!Ĉ!ććĈ!ĈĈ!ćĈĈ!Ĉ!ĈćĈ!Ĉ!ĈĈĈĈĈĈććĈ!ćďĉ!!!!!!!!ďĉ!ďĉ!": 1935,
      "ďĉ!ďĉďĉ!ďĉćććĈ!Ĉ!Ĉ!Ĉ!": 1936,
      "ďĉććććććĈ!ććĈ!ććĈ!Ĉ!Ĉ!Ĉ!ćććĈ!Ĉ!Ĉ!ććĈćĈ!Ĉ!ĈćĈ!Ĉ!ćĈ!ććĈĈĈĈĈćĈćĈ%&'(ďĉćććććĈ!ĈĈćĈĈćĈďĉćććććććć": 1937,
      "ćĈ!Ĉ!Ĉ!Ĉ": 1938,
      "&'(!!!!!!!!!!!!!!!!!!!!!!!!!!!!!!!!!!!!!!!!!!!!!!!!)!)!!!!!!!!ďĉ!ďĉďĉ!!!!!!!!!!!!!!!!!!!!!!!!!!!!!!!!!!!!!!!!!!!!!!!!!!!!!!!!!!!!!!!!": 1939,
      "ďĉďĉďĉďĉďĉďĉ%&'(ďĉďĉ!ďĉďĉďĉćććććĈ!Ĉ!Ĉ!ćĈĈćĈ": 1940,
      "%&Ĉ'(!": 1941,
      "ďĉďĉ!ďĉ!ďĉďĉďĉ!": 1942,
      "ďĉďĉďĉ!ďĉ!!": 1943,
      "%ď&'(ĉ!!": 1944,
      ")!)!!!!!!!!!!!!!!!!!": 1945,
      "ĥĤ!": 1946,
      "ďĉ!ďĉďĉ!ďĉćććĈ!Ĉ!Ĉ!Ĉ!%&'(Ĉ!Ĉ!ćććććĈ!ćĈĈ": 1947,
      "Ħ!": 1948,
      "ďĉďĉďĉďĉďĉďĉďĉďĉďĉ": 1949,
      "ďĉ!ďĉ!ďĉďĉďĉ": 1950,
      "32222": 1951,
      "Ĉ!%Ĉ&'(!": 1952,
      "ďĉ!ďĉ!ďĉďĉ!!": 1953,
      "ďĉ!!!!!!!!!!!!!!!!!!!!!!!!!!!!!!!!!!!!!!!!!!!!!!!!!!!!!!!!!!!!!!!!!!!!!": 1954,
      "ďĉ!ďĉďĉ!!ďĉďĉďĉďĉ": 1955,
      "%!!!!!!!!!!!!&'(": 1956,
      "ćďĉ#$ćĈ!ćć%&'(ďĉďĉ!!!!ďĉ!!)ďĉďĉ!ďĉďĉ%&'(!ďĉďĉďĉ!!ďĉďĉćĈ!Čďĉďĉďĉ!ďĉďĉ!ďĉďĉďĉ!ďĉďĉ!ďĉďĉďĉ": 1957,
      "ďĉďĉćććććććĈĈććććććĈ!ćĈĈ%&'(ďĉďĉ!!": 1958,
      ")ħ": 1959,
      "ďĈ!Ĉ!ĉ": 1960,
      "ĒĒ": 1961,
      "%&'(ďĉďĉ)!)!!ďĉďĉ": 1962,
      "777'7777": 1963,
      "ććďĉďĉ)ćďĉ": 1964,
      "ďĉďĉďĉ!ďĉďĉ!ďĉďĉ!!ďĉ!!ďĉďĉćććĈ!Ĉ!Ĉ!Ĉ!Ĉ!ĈćĈĈ!Ĉ!ĈĈĈćĈćĈ!ććĈ!!": 1965,
      "ďĉ!!ďĉ!!!!!!)!!!!!!!!)!": 1966,
      "%!&'(!!!!!!!!!!!!!!!!!!!!!!!!!!!!!!!!!!!!!!!!!!!!!!!!": 1967,
      "%&'(ďĉďĉ!!!!!!!!!!!ďĉćććĈ!Ĉ!Ĉ!Ĉ": 1968,
      "%&'Ĉ(!": 1969,
      "&'(!!!!!!!!!!!!!!!!!!!!!!!!!!!!!": 1970,
      "ďĉĈ!ĈĈĈĈĈĈĈĈ!ĈĈĈ": 1971,
      "ćććĈ!Ĉ!Ĉ!Ĉ!Ĉ!Ĉ!ćććććĈ!ćĈĈ%&'(ďĉďĉ!!!!!!!!!!!ďĉćććĈ!Ĉ!Ĉ!Ĉ": 1972,
      "ĈĈĈ!Ĉ": 1973,
      "!!!!!!!!!!!!!!ďĉďĉ!ďĉ!)ďĉďĉďĉćďĉďĉ!ďĉďĉďĉ!!ďĉ!!!!": 1974,
      "ć%&'(ďĉďĉďĉďĉ!": 1975,
      "ďĉ!!!!!!!!!!!!!!!!!!!!!!!!!!!!!!!!!!!!!!!!!!!!!!!!!!!!!!!!!!!!!!!": 1976,
      "ďĉ!ďĉďĉďĉďĉďĉďĉďĉďĉďĉďĉ!!": 1977,
      "ććĈ!ćďĉććććććććĈ!Ĉ!Ĉ!Ĉ!ćĈĈĈĈ!Ĉ!ćĈ!": 1978,
      "ďĉďĉććććććĈ!ćććĈ!ćććĈ!ćĈ!ćďĉďĉďĉďĉ!": 1979,
      "ćććććĈ!Ĉ!Ĉ!ćĈĈćĈďĉďĉĈ!Ĉďĉ!ďĉ!ďĉ": 1980,
      "ććĈ!Ĉ!Ĉ!ććĈ!Ĉ!Ĉ!ĈĈ!Ĉ!!ćĈ!Ĉ!Ĉ!Ĉ!ćĈ!ććĈ!ćďĉ!ďĉďĉ!!": 1981,
      "%&'(Ĉ!": 1982,
      "&'(!!!!!!!!!!!!!!!!!!!!!!!!!!!!!!!!!!!!!!!!!!!!!!!!!!!!!!!!!!!!!!!!!!!!!!!!!!!!!!!!!!!!!!!!!!!!!!!!!!!!!!!!!!!!!!!!!!!!!!!!!!ďĉććĈĈĈĈĈ%&'(ďĉďĉ)!)!!ďĉďĉ": 1983,
      "ćL": 1984,
      "ď%&'(ĉďĉďĉďĉ": 1985,
      "Ĉ!ĈĈĈ!ĈĈĈĈĈĈĈĈĈĈĈĈĈĈĈĈĈĈ!ďĉ!!ďĉ!ďĉ!!!ďĉďĉćĈ!ĈĈ!ĈĈĈĈ!Ĉ!Ĉ!ĈĈĈĈĈĈĈĈ!ĈĈĈĈĈ": 1986,
      "!!!!!!!!!ďĉ!!!!!!!!!!!)!!!!!!!!!!!!!!!ďĉďĉ%&'(ďĉ": 1987,
      "&'(!ďĉ!)!)!!!!!!!!!!ďĉ!!!!!!ćććĈ!Ĉ!Ĉ!Ĉďĉ!!!!!ďĉ!)!)!!!!!!!!!!!!!!ďĉ!!!!!!!!!!!!!%!!!!!!!&'(": 1988,
      "!!!!!!!!!ďĉ!!!!!!!!!!!)!!!!!!!!!!!!!!!ďĉďĉ%&'(ďĉ)!)ďĉďĉďĉďĉďĉďĉ!!!ďĉ!!ďĉ!ďĉ!": 1989,
      "đđ": 1990,
      "&'(ććććććććĈ!ćććĈ!Ĉ!ćĈ!ďĉ": 1991,
      "ďĉďĉććććććĈ!ćććĈ!ćććĈ!ćĈ!": 1992,
      "%L": 1993,
      "%!ć": 1994,
      "Ĉ!ĈććĈĈ!Ĉ!ććĈ!Ĉ!ĈĈ!ĈĈĈďĉďĉďĉďĉďĉďĉďĉ": 1995,
      "RTVa!!!SĂĄĆďĉćććďĉ!": 1996,
      "ććĈ!ćĈ!Ĉ!ĈĈĈ!ĈĈĈććĈ!ĈĈ!ĈĈĈĈ!ĈĈ!ĈĈĈĈďĉďĉďĉ!!!!!!!!!!ďĉďĉďĉ%&'(ďĉďĉďĉ": 1997,
      "!!!!!!!!!!!!!!!!!!!!!!!!!!!!!!!!!!!!!!!!!!!!!!!!!!!!!!!!!!!!!!!!!!!!!!!!!!!!!!!!!!!!!!!!!!!!!!!!": 1998,
      "&'(!!!!!!!!!!!!!!!!!!!!!!!!!!!!!!!!!!!!!!!!!!!!!!!!!!!!!!!!!!!!!!!!!!!!!!!!!!!!!!!!!!!!!!!!!!!!!!!!!!!!!!!!!!!!!!!!!!!!!!!!!!!!!!!!!!!!!!!!!!!!!": 1999,
      "ćććĈ!Ĉ!Ĉ!Ĉ!ĈĈĈĈĈĈĈĈĈĈ!ćĈ!Ĉ!ĈćĈĈćĈćĈĈĈćĈĈ%&'(ďĉ": 2000,
      "&'(!!!!!!!!!!!!!!!!!!!!!!!!!!!!!!!!!!!!!!!!!!!!!!!!!!!!!!!!!!!!!!!!!!!!!!!!!!!!!!!!!!!!!!!!!!!!!!!!!!!!!!!!!!!!!!!!!!": 2001,
      "ďĉďĉ%&'(ďĉďĉďĉ!!ďĉ": 2002,
      "ćććććććĈ!Ĉ!ććććććĈ!ćĈĈ%&'(ďĉďĉ!!ďĉćććĈ!Ĉ!Ĉ!ćĈ!Ĉ!Ĉ": 2003,
      "%ć&'ć(": 2004,
      "ďĉďĉćććĈ!Ĉ!Ĉ!Ĉ!Ĉ!Ĉ!ćććććĈ!ćĈĈ%&'(ďĉďĉ!!ďĉ": 2005,
      "ďĉ!!!!!!!!!!!!!!!!!!!!!!!!!!!!!!!!!!!!!!!!!!!!!!!!!!!!ďĉ!!!!!!!!!!!!ďĉďĉ%&'(ďĉďĉďĉ!!ďĉ": 2006,
      "B!": 2007,
      "ďĉďĉďĉ%&'(Ĉ!Ĉ!ĈĈ!Ĉ!ĈĈĈĈ!Ĉ!ĈĈ!Ĉ!Ĉ!!Ĉ!": 2008,
      "Ĉ!Ĉ!Ĉ!Ĉ!Ĉ!Ĉ!Ĉ!ĈĈĈĈĈĈĈ!ĈĈĈĈĈĈĈĈĈĈĈĈĈĈĈĈĈĈĈĈ!ďĉďĉďĉďĉďĉďĉćďĉ!ďĉ": 2009,
      "ćććććććĈ!Ĉ!Ĉ!ćĈ!Ĉ!Ĉ!ćďĉ!ććććĈ!ćĈ!Ĉ!Ĉ!ćĈ!Ĉ!Ĉ!Ĉ!ćĈ!Ĉ!Ĉ!Ĉ!ćĈ!Ĉ!ćĈ!ĈćĈ!Ĉ!": 2010,
      "ććććĈ!ćĈ!Ĉ!Ĉ!ĈĈ!Ĉ!Ĉ!ĈććĈ!ć%&'(ďĉ": 2011,
      "ćććććĈ!ćĈ!Ĉ!ćĈĈ!Ĉ!Ĉ!Ĉ!ćĈćĈĈćĈ!Ĉ!Ĉ!ćĈ!Ĉ!Ĉ!Ĉ!ćĈ!Ĉ!": 2012,
      "ď%&'(ĉďĉďĉ!": 2013,
      "77'77777(788888888,-%&+01": 2014,
      "ďĉďĉďĉ!ďĉ!ďĉ!ďĉ%&'(": 2015,
      "ĥďĉ": 2016,
      "Ĉ!ćĈĈ": 2017,
      "ććĈ!Ĉ!ćĈ!Ĉ!": 2018,
      ")!)!!!!!!!!!!!!!!!!!!!!!!!!!!!!!!!!!!!!!!!!!!!!!!!!!!!!!!!!!!!!!!!!!!!!!!!!!!!!!!!!!!": 2019,
      "ďććĉ": 2020,
      "Ħ%&'(%&'(%&'(%&'(%&'(%&'(%&'(%&'(%&'(%&'(%&'(%&'(%&'(%&'(%&'(%&'(%&'(%&'(%&'(%&'(%&'(%&'(%&'(%&'(%&'(%&'(%&'(%&'(%&'(%&'(%&'(%&'(": 2021,
      ")!)ďĉďĉďĉ!ďĉďĉďĉ!!ďĉďĉďĉďĉ!": 2022,
      "%!!!!!!!!!!!!!!!!!!!!!!!!!!!!!!!": 2023,
      "ďĉďĉďĉ!ďĉćďĉ!!!!ćďĉ!": 2024,
      "Ĉ!ĈĈĈĈĈ!Ĉ!Ĉ!ĈĈĈĈĈĈĈĈĈĈ!ĈĈĈ!ĈĈ!ĈĈĈĈ!ĈĈ!ĈďĉĈ!ĈĈĈĈĈĈĈĈ!ĈĈĈ": 2025,
      "ďĉďĉďĉďĉďĉ%ď&'(ĉ": 2026,
      ")!!!)": 2027,
      "ććććĈ!ćĈ!Ĉ!Ĉ!ĈĈ!Ĉ!Ĉ!ĈććĈ!ć%&'(ďĉććććććććĈ!Ĉ!Ĉ!Ĉ!ćĈĈĈĈ!Ĉ!ćĈ!ďĉďĉ": 2028,
      "ďĉ!%ď&'(ĉ": 2029,
      "ďĉ%&'(ďĉďĉ!!!!ďĉ!!!ćććććĈ!ĈĈ!ĈĈĈ!Ĉ!Ĉ!Ĉ!Ĉ!Ĉ!Ĉ!Ĉ!Ĉ!Ĉ!Ĉ!Ĉ!ćĈ!ďĉ!ďĉ!!!!!!!!!!!!!!!!": 2030,
      ")!)!!!!!!!!!!!!!!!!!!!!!!!!!!!!!!!!!!!!!!!!!!!!!!!!!!!!!!!!!!!!!!!!!!!!!!!!!!!!!!!!!!!!!!!!!": 2031,
      "ććććĈ!Ĉ!Ĉ!Ĉ!Ĉ!ĈĈ!Ĉ!ćďĉ!!ďĉďĉ": 2032,
      "ďĉďĉďĉďĉ%&'(ďĉďĉďĉďĉćććććććććććććććĈ!Ĉ!Ĉ!ćĈ!Ĉ!Ĉ!Ĉ!Ĉ!ćĈ!Ĉ!ćĈ!ćĈ!ćĈ!ćĈ!ćĈ!Ĉ!Ĉ!Ĉ!Ĉ!Ĉ!ćĈ!Ĉ!ććĈ!": 2033,
      "ććććććććććććććććććććććĈ!ććĈ!ćĈ!ććĈ!ććććĈ!ćććĈććĈćććĈććććĈććĈććććĈććĈć%&'(ďĉ!!!!!!!!!ďĉďĉďĉ!!ďĉďĉ!ďĉ!!": 2034,
      "Ĉ!Ĉ!Ĉ!ĈćĈĈ!Ĉ!ĈćĈĈ!ćĈ!Ĉ!ĈĈĈĈćĈĈĈĈćĈĈćĈĈĈĈĈĈćĈĈĈĈćĈĈćĈĈćĈ!ćććĈ!ćć%&'(ďĉďĉ": 2035,
      "M!": 2036,
      "ďĉ!ďĉďĉďĉďĉ%&'(": 2037,
      "ćďĉ!ďĉďĉďĉ": 2038,
      "!!!!!!!ďĉ!!ďĉďĉ!!!ďĉďĉďĉďĉďĉ!ďĉććĈ!Ĉ!Ĉ!Ĉ!Ĉ!Ĉ!Ĉ!ĈĈćĈ": 2039,
      "ďĉ!ďĉďĉ!ďĉćććĈ!Ĉ!Ĉ!Ĉ!%&'(Ĉ!Ĉ!ćććććĈ!ćĈĈďĉďĉ": 2040,
      "Ĉ!Ĉ!Ĉ!ĈćĈĈ!Ĉ!ĈćĈĈ!ćĈ!Ĉ!ĈĈĈĈćĈĈĈĈćĈĈćĈĈĈĈĈĈćĈĈĈĈćĈĈćĈĈćĈ!ćććĈ!ćć%&'(ďĉďĉ!!!!ďĉďĉ!!!!!!!!!!!!!!!!!!!!!": 2041,
      "Ĉ)": 2042,
      "ĉďĉ": 2043,
      "ďďĉ": 2044,
      "ēĖ": 2045,
      "ćĈćć": 2046,
      "Ĉ!Ĉ!Ĉ!Ĉ!ĈćĈ!ĈĈ!ĈĈĈ": 2047,
      "ďĉ%&'(ďĉďĉ!!ďĉ": 2048,
      "ććććććĈ!ććĈ!Ĉ!Ĉ!ĈćĈ!Ĉ!ĈćĈććĈĈ!ĈĈĈďĉ!!!": 2049,
      "ćďĉ!!": 2050,
      "%&'(ďĉďĉďĉ%&'(Ĉ!Ĉ!Ĉ!Ĉ!ćććĈ!ďĉ!!ďĉ!!!!!!!!!!!ďĉ!!ćććććććĈ!Ĉ!Ĉ!ććĈĈććĈ!ćĈĈ%&'(ďĉďĉ!!!ćććććĈ!ćĈ!ććććĈ!ććĈ!ćććĈ!ćććĈ": 2051,
      "ććĈ!ć%&'(": 2052,
      "ćććĈ!Ĉ!Ĉ!Ĉ!Ĉ": 2053,
      "ďĉďĉ!!ďĉ!!ďĉ!ććĈ!ďĉ!ďĉďĉ!!ďĉďĉ)ďĉďĉ!": 2054,
      "MMMMMMMMMMMM": 2055,
      "&Ĉ'(!": 2056,
      "BB": 2057,
      "%!!&'(!!!!!!!!!!!!!!!!!!!!!!!!!!!!!!!!!!!!!!!!!!!!!!!!!!!!!!!!!!!!!!!!!!!!!!!!!!!!!!!!!!!!!!!!!!!!!!!!": 2058,
      "ďĉďĉďĉďĉďĉďĉďĉďĉ!ďĉďĉďĉďĉďĉćććććĈ!Ĉ!ćĈ!Ĉ!ćĈ!Ĉ!Ĉ!Ĉ!Ĉ!ćĈ!ćĈ!ćĈ!ćĈ!ćĈ!Ĉ!ćĈ!ćĈ!Ĉ!ćĈĈćĈ!ĈććĈ!ĈćĈćĈćĈ!ĈćĈĈ": 2059,
      "ďĉďĉďĉ%&'(ďĉďĉďĉďĉďĉďĉďĉďĉďĉďĉďĉ!": 2060,
      "ĈĈ!Ĉ!": 2061,
      "ďćĈ": 2062,
      "ďĉďĉďĉďĉććĈ!Ĉ!ĈĈĈ!!ćĈ!Ĉ!Ĉ!Ĉ!ćďĉďĉ!!": 2063,
      "ďĉ!ďĉ!!!!": 2064,
      "'(333": 2065,
      "%&'(!ďĉďĉďĉ!ďĉ!ďĉ!": 2066,
      "ćĈ!ćĈ!Ĉ!ććĈ!Ĉ!Ĉ!Ĉ!ćĈĈĈ!Ĉ!ćĈ!Ĉ!ĈĈĈ!ĈĈĈććĈ!ćĈćĈĈĈ!ĈćĈĈĈĈĈĈĈĈććĈćĈĈ!ććĈĈĈĈćĈĈĈĈćĈĈĈĈĈĈĈĈććĈćďĉ!": 2067,
      "ććććććĈ!Ĉ!Ĉ!ćĈ!Ĉ!Ĉ!Ĉ!Ĉ!!": 2068,
      "ćďĉććććććććććććććććĈ!Ĉ!ćĈ!Ĉ!ĈĈ!ćĈ!ćććĈ!ććĈćĈ!ććĈćććĈ!Ĉ!Ĉ!Ĉ!ćććĈćĈ!ćĈćććĈ!Ĉ!Ĉ!Ĉ!Ĉ!ćĈ!Ĉ!Ĉ!ĈćĈ!ćĈĈĈĈĈćĈĈĈĈĈćĈ!ĈĈĈćĈ%&'(ďĉ!ćććĈ!Ĉ!ćĈ!Ĉ!ĈĈ!Ĉ!ĈćĈĈĈĈĈ!Ĉ!Ĉ!Ĉ!Ĉ!Ĉ!ĈĈĈ!Ĉ!ĈĈĈĈ": 2069,
      "%!&'(!!!!!!!!!!!!!!!!!!!!!!!!!!!!!!!!!!!!!!!!!!!!!!!!!!!!!!!!!!!!!!!!!!!!!!!!!!!!!!!!!!!!!!!!!!!!!!!!": 2070,
      "ďĉ!ďĉ!!Ĉ": 2071,
      "ďĖ": 2072,
      "!!!!!!!!!!ććććććććććććČďĉďĉććĈ!ćĈ!ćĈ!ćĈ!ćĈćĈćĈ": 2073,
      "ďďĉ!": 2074,
      "ďĉďĉďĉďĉďĉďĉďĉďĉďĉďĉďĉďĉ": 2075,
      "ďďď": 2076,
      "ćĈ!ć!": 2077,
      "ďďĉĉďďĉĉ": 2078,
      "Ĉ!Ĉ!ĈĈĈĈ!Ĉ!Ĉ!ĈĈĈĈĈĈĈĈĈĈ!ĈĈĈ!ĈĈ!ĈĈĈĈ!ĈĈ!Ĉ": 2079,
      "!!!!!!!!!!!!!!!!!!!!!!!!!!!!!!!!!!!!!!!ďĉ!ďĉ!!!!!!!!!!!ďĉ!ďĉććććććĈććĈ!": 2080,
      "Ĉ!Ĉ!Ĉ!Ĉ!ĈćĈĈĈ!ĈĈĈćĈćĈĈĈĈĈĈĈćĈĈĈĈĈĈćĈćĈ!ćĈĈ!ďĉ": 2081,
      "ďĉ!ďĉććććĈ!ćĈ!ĈĈ!ććĈ!ćĈ!ĈĈ!ćĈ!Ĉ!ćĈ!ďĉ!)ććććććććććććĈ!ććĈ!ćĈ!ćĈ!Ĉ!Ĉ!ćĈ!Ĉ!ćĈ!%&'(ďĉććĈ!Ĉ!Ĉ!Ĉ!ćĈ!Ĉ!!Ĉ!ćĈ!ćĈ!ććĈ!Ĉ!": 2082,
      "'7777777(788888888,-%&+01": 2083,
      "ďĉďĉďĉ!ďĉ!ďĉ!ďĉ%&'(ććďĉďĉ)ćďĉ": 2084,
      "ććććććĈ!ć": 2085,
      "ďĉďĉ!ďĉ!ďĉďĉďĉ!ďĉ!ďĉ!!ďĉ": 2086,
      "ďĉďĉďĉ!ďĉ%&'(!": 2087,
      "%!&'(!!!!!!!!!!!!!!!!!!!!!!!!!!!!!!!!!!!!!!!!!!!!!!!!!!!!!!!!!!!!!!!!": 2088,
      "ďĉ!ďĉ!ďĉďĉ!": 2089,
      "ĥĤē": 2090,
      "ćĈ!ćĈ!Ĉ!Ĉ!ćĈ!Ĉ!Ĉ!ćĈ!Ĉ!Ĉ!ĈĈćĈĈ!Ĉďĉ!!!!!!!!!!!!!!!!!!!!!!!!!!!!!!!!ďĉ!!!!!!!!!!!!!!!!!!ďĉ!!!!!!!!!!!!!!!!!!!ďĉ!!!!!!!!": 2091,
      "%L&'(": 2092,
      "%&'(!ďĉďĉďĉ!ďĉ!ďĉ!ďĉ!ďĉďĉ!!ďĉďĉďĉďĉ": 2093,
      "ďĉ!ď%&'(ĉ": 2094,
      "%&'(ďĉ!!!!!!!!!!!!!!!!!!!!!!!!!!!!!!!!!!!!!!!!!!!!!": 2095,
      "&'(!!!!!!!!!!!!!!!!!!!!!!!!!!!!!!!!!!!!!!!!!!!!!!!!!!!!!!!!!!!!!!!!!!!!!!!!!!!!!!!!!!!!!!!!!!!!!!!!!!!!!!!!!!!!!!!!!!!!": 2096,
      "ć%&'(ćććć": 2097,
      "%&'(!!!!!!!!!!!!!!!!!!!!!!)!!!!!!!!!!!!!!!!!!!!!!!!!!!!!!!!": 2098,
      "ďćĈ!ĉ": 2099,
      "ďďĉďĉĉ": 2100,
      "ďĉďĉďĉďĉďĉďĉďĉďĉďĉďĉ%&'(": 2101,
      "ďĉďĉďĉďĉďĉďĉďĉ!ďĉ!ďĉćććććććĈ!ćČČ": 2102,
      "ććććĈćĈććĈ!ćĈ!Ĉ!Ĉ!Ĉ!ćĈ!Ĉ!ćĈ!ćĈ!Ĉ!ćĈ!ĈćĈ!ĈĈ!ĈćĈćĈćĈćććĈćĈćććĈćĈćĈ!ĈćĈćĈćĈćććĈĈĈĈĈććĈĈććĈćććĈćĈćĈćĈćĈĈćĈĈćĈćĈćĈ": 2103,
      "ć'": 2104,
      "ďĉćĈ!ćĈ!Ĉ!ććĈ!Ĉ!Ĉ!Ĉ!ćĈĈĈ!Ĉ!ćĈ!Ĉ!ĈĈĈ!ĈĈĈććĈ!ćĈćĈĈĈ!ĈćĈĈĈĈĈĈĈĈććĈćĈĈ!ććĈĈĈĈćĈĈĈĈćĈĈĈĈĈĈĈĈććĈ": 2105,
      "ćĈ!ć%&'(": 2106,
      "ďĉďĉďĉďĉďĉďĉďĉ!!": 2107,
      "ćĈ!Ĉćććć": 2108,
      "ďĉ!ďĉďĉďĉďĉćććĈ!Ĉ!ććĈ!ćĈ!ćČďĉ!!!ďĉ!": 2109,
      "ďĉćććććĈ!Ĉ!Ĉ!ćĈĈćĈ": 2110,
      "%&'(ďĉďĉďĉ!ďĉ!!ďĉďĉďĉďĉďĉďĉ!ďĉďĉ!!": 2111,
      "&'(!!!!!!!!!!!!!!!!!!!!!!!!!!!!!!!ććććĈ!ĈĈďĉ!!!!!!!!!!!": 2112,
      "LL!LK!LK": 2113,
      "!!!!!!!!!!!%!&'(": 2114,
      "ďĉćććććĈ!ĈĈćĈĈćĈ": 2115,
      "ďďďďďďďď": 2116,
      "!&'(ďĉ))ħ": 2117,
      "ćĈĈ!Ĉ!ĈĈĈćĈćĈ!ććĈ!!ďĉ!!ďĉďĉďĉ": 2118,
      "ďĉďĉďĉďĉďĉďĉďĉ)!ďĉďĉďĉďĉ%&'(ďĉďĉďĉďĉćććććććććććććććĈ!Ĉ!Ĉ!ćĈ!Ĉ!Ĉ!Ĉ!Ĉ!ćĈ!Ĉ!ćĈ!ćĈ!ćĈ!ćĈ!ćĈ!Ĉ!Ĉ!Ĉ!Ĉ!Ĉ!ćĈ!Ĉ!ććĈ!": 2119,
      "ćĈ!Ĉ!ĈćĈ!ďĉćććććććĈ!ćĈ!%&'(ćďĉ!": 2120,
      "ćĈ!Ĉ!ĈćĈ!ďĉćććććććĈ!ćĈ!%&'(ćďĉ!ďĉďĉ!!!": 2121,
      "332222": 2122,
      "AAAA": 2123,
      "%ć&'Ĉ(!": 2124,
      "ďĉ!!!!!!!!!!": 2125,
      "ćććďĉ!": 2126,
      "%&'(ďĉćććććććć": 2127,
      "%&'(ďĉĈ!ĈĈĈĈĈĈĈ": 2128,
      "LLLL!LK": 2129,
      "ďĉ!!!ďĉ!!!ćććĈćĈ!ćĈ!ĈĈ!Ĉ!ćĈĈĈĈĈĈĈĈĈĈĈĈĈ!ćĈ!ćĈĈĈĈ!Ĉ%&'(ďĉććďĉďĉ!!ďĉććĈ!ĈĈĈĈĈ!ćďĉďĉ": 2130,
      "ćĈ!Ĉ!Ĉ!ćĈ!Ĉ!Ĉ!Ĉ!Ĉ!!": 2131,
      "ćďĉďĉćććĈ!ćĈ!Ĉ!Ĉ!ćĈ!Ĉ!ćĈ!Ĉ!Ĉ!Ĉ!ćĈ!Ĉ!ćĈ!ćĈ!ćĈ!ćĈ!Ĉ!Ĉ!Ĉ!Ĉ!Ĉ!Ĉ!Ĉ!Ĉ!ĈĈ!": 2132,
      "%!!!!!!!!!!!!!!!!!!!!!!!!!!!!!!!!!!!!": 2133,
      "ďĉććććććććććććĈ!ćĈ!Ĉ!Ĉ!Ĉ!Ĉ!Ĉ!Ĉ!Ĉ!Ĉ!!ćĈĈĈĈ!Ĉ!ćĈ!Ĉ!ćĈĈĈćĈ!ĈĈĈĈĈ!Ĉ!ćĈ!ććĈ!ćĈ!ććĈ!ćĈććĈ!ćĈ!ćĈ!ĈćĈĈć%&'(ďĉĈ!ćĈ!Ĉ!Ĉ!ćĈ!Ĉ!Ĉ!ĈĈ!": 2134,
      "ĈćĈ": 2135,
      "ďĦ": 2136,
      "ććĈĈĈĈ": 2137,
      "%&'(ďĉ!ďĉďĉďĉďĉ!!": 2138,
      "LLL": 2139,
      "ćććĉ": 2140,
      "MMMMMMMMMMMMMMMMMMMMMMMMMMMMMMMMMMMMMMMMMMMMMMMMMMMMMMMMMMMMMMMM": 2141,
      "ďĉ!ďĉďĉďĉďĉďĉďĉ!!%&'(ďĉ!ďĉďĉďĉďĉ!!": 2142,
      "Ĥ))))": 2143,
      "ħĉ": 2144,
      "Ĉ!ćĉ": 2145,
      "ćĈ!Ĉ!ćĈ!Ĉ": 2146,
      "ďĉ!%&'(ďĉ": 2147,
      "Ĉ!Ĉ!Ĉ!Ĉ!Ĉ!": 2148,
      "ďĉ!!ďĉ!ďĉďĉďĉďĉ!": 2149,
      "ćďĉ)ħ": 2150,
      "Ĉ!Ĉ!Ĉ!%&'(": 2151,
      "ćďĉ%&'(ććććććĈ!Ĉ!Ĉ!ćĈ!Ĉ!Ĉ!Ĉ!Ĉ!!": 2152,
      "ćĈ!Ĉ!Ĉ!Ĉ!Ĉ!Ĉ!ĈĈďĉ!!!": 2153,
      "ććĈ!ćĈ!ćĈ!ćďĉ!!!!!!!!!!!!!!!ďĉ!!!!!!!!!!!!!!!!!!!!!!!!!!!!!!!!!!!!!!!!!!!!!!!!!!!!!!!!!!!!!!!!": 2154,
      "ďĉďĉďĉ!ďĉďĉćććććĈ!Ĉ!ćĈĈćďĉćĈ!ććĈ!ćĈ!Ĉ": 2155,
      "ďĉ!ďĉ!!!!!!!!!!!ďĉ!!ďĉďĉďĉďĉďĉďĉ!ďĉďĉďĉďĉďĉďĉ%&'(ďĉďĉ!ďĉďĉďĉćććććĈ!Ĉ!Ĉ!ćĈĈćĈ": 2156,
      "ćĈćďĉďĉďĉ!!!": 2157,
      "ććĈ!Ĉďĉ%&'(Ĉ!Ĉ!ĈĈĈĈĈĈĈĈĈĈĈĈĈĈĈĈĈĈĈĈĈĈĈĈďĉ!ćććććĈ!Ĉ!Ĉ!Ĉ!Ĉ!Ĉ!ćĈ!Ĉ!Ĉ!ćĈ!Ĉ!ćĈ!Ĉ!Ĉ!ćĈ!Ĉ!ćĈ!ćĈ!ćĈ!ćĈ!Ĉ!Ĉ!Ĉć%&'(ďĉ!!!!!!!!!": 2158,
      "ďĉďĉ!ďĉďĉďĉďĉ!": 2159,
      "%Ĉ&'(ĈĈ": 2160,
      "ćććććććććććĈ!": 2161,
      "Ĉ!ĈĈĈ!ďĉ!!!!!!!!!!!!!!!!!!!!!!!!!!!!!!!!": 2162,
      "%!!!!!!!!!!!&'(": 2163,
      "%&'(!!!!!!!!!!!!!!!!!!!!!!!!!!!!!!!!!!!!!!!!!!!!!!!!!!!!!!!!!!!!!!!!!!!!!!!!!!!!!!!!!!!!!!!!!!!!!!!!": 2164,
      ")!)!!!!!!!!!!!!!!!%&'(!ďĉďĉďĉ!ďĉ!ďĉ!ďĉ!ďĉďĉ!!ďĉďĉďĉďĉ": 2165,
      "Ĉ!ććĈ!": 2166,
      "ďĉĉĉ": 2167,
      "ďĉďĉďĉďĉďĉďĉďĉďĉďĉ!ďĉďĉďĉďĉ": 2168,
      "&'(!!!!!!!!!!!!!!!!!!!!!!!!!!!!!!!!!!!!!!!!!!!!!!!!!!!!!!!!!!!": 2169,
      "ďĉďĉďĉďĉďĉćććććĈ!)!)!!Ĉ!Ĉ!ĈĈ!!!!!": 2170,
      "ČČďĉďĉďĉ!!!!!ďĉďĉďĉ!ďĉďĉćććććĈ!Ĉ!ćĈĈ": 2171,
      "ćĈ!ćĈ!Ĉ!ćĈ!Ĉ!Ĉ!ćĈ!Ĉ!ćďĉ!ďĉďĉďĉďĉďĉďĉďĉďĉ": 2172,
      "%&'(ďĉďĉďĉďĉďĉďĉďĉ!!!!!!!!!!!ďĉ!!!!!!!!!!!!!!!!!!!!!!!!!!!!!!!!!!!!!!!!!!!!!!!!!!!!!!!!!!!!!!!!": 2173,
      "&'(!!!!!!!!!!!!!!!!!!!!!!!!!!!!!!!!!!!!!!!!!!!!!!!!!!!!!!!!!!!!!!!!!!!!!!!!!!!)!)!!!!!!!!!!!!!!!!!!!!!!!!!!!!!!!!!!!!!!": 2174,
      "ďĉ!!!!!!!!!!!!!!!!!!!!!!!!!!!!": 2175,
      "ďĉďĉďĉďĉďĉďĉ!ďĉďĉ!ďĉďĉ!!!ďĉćĈ!Ĉ!ććĈ!ććĈ!ĈĈ!ććĈ!Ĉ!Ĉ": 2176,
      "ďĉďĉďĉďĉďĉ)!)ďĉďĉďĉ!ďĉďĉďĉ!!ďĉďĉďĉďĉ!": 2177,
      "32323232222222222222222222222222222222222222222244444444%&5555555522222222222222222222222266666666": 2178,
      "Ĉ!ĈĈĈ!Ĉ!ĈĈ!Ĉ!Ĉ!": 2179,
      "ććĈ!ćďĉďĉďĉďĉďĉďĉďĉ!!ďĉďĉ": 2180,
      "ďĉďĉďĉ!ďĉ%&'(!ďĉ!ďĉ!ďĉďĉ!!": 2181,
      "%ĈĈ": 2182,
      "ćć!": 2183,
      "ďĉďĉďĉďĉďĉďĉďĉďĉďĉ%&'(": 2184,
      "Ĉ!Ĉ!Ĉ!Ĉ!Ĉ!Ĉ!Ĉ!Ĉ!ĈĈĈ!Ĉ": 2185,
      "ďĉ%&'(ďĉďĉĈ!Ĉ!Ĉ!Ĉ!ćććĈ!": 2186,
      "ďĈĈĈ": 2187,
      "Ĕĥ": 2188,
      "%!!!!!!!!!!!!!!!!!!!!!!!!!!!!!!!!!!!!!!": 2189,
      "ćććććććĈ!ćĈ!Ĉ!Ĉ!Ĉ!Ĉ!ćĈ!Ĉ!ćĈććĈćďĉćĈ!Ĉ!Ĉ!Ĉ!Ĉ!Ĉ!Ĉ!Ĉ!ćĈ!ćĈ!Ĉ!ĈćĈ!Ĉ!": 2190,
      "ďĉďĉćććĈ!Ĉ!Ĉ!Ĉ!Ĉ!Ĉ!ćććććĈ!ćĈĈ%&'(ďĉďĉ!!ďĉ!!!!!!!!!ďĉ!!!!!!!!!!!)!!!!!!!!!!!!!!!ďĉďĉ%&'(ďĉ)!)ďĉďĉďĉďĉďĉďĉ!!!ďĉ!!ďĉ!ďĉ!": 2191,
      ")!)ďĉďĉďĉ!ďĉďĉďĉ!!ďĉďĉďĉďĉ!ďĉ!ďĉ!ďĉ!ďĉ!ďĉ!ďĉ": 2192,
      ")ďĉ": 2193,
      "%&'(!!!!!!!!!!!!!!!!!!!!!!!!!!!!!!!!!!!!!!!!!!!!!!!!": 2194,
      "%&'(ďĉćĈ!ćĈ!Ĉ!ććĈ!Ĉ!Ĉ!Ĉ!ćĈĈĈ!Ĉ!ćĈ!Ĉ!ĈĈĈ!ĈĈĈććĈ!ćĈćĈĈĈ!ĈćĈĈĈĈĈĈĈĈććĈćĈĈ!ććĈĈĈĈćĈĈĈĈćĈĈĈĈĈĈĈĈććĈćďĉ!": 2195,
      "&'(!!!!!!!!!!!!!!!!!!!!!!!!!!!!!!!!!!!!!!!!!!!!!!!!!!!!!!!!!!!!!!!!!!!!!!!!!!!!!!!!!!!!!!!!!!!!!!!!!!!!!!!!!!!!!!!!!!!": 2196,
      "ćĈ!ćĈ!Ĉ!Ĉ!ďĉďĉ!": 2197,
      "ććććććĈ!ćĈĈďĉďĉ!!ďĉ": 2198,
      "%&'(ďĉ!!!ďĉďĉďĉ!!ďĉ": 2199,
      "ČČČČ": 2200,
      "ďĉ!ďĉ!ďĉ!": 2201,
      "ććć%Ĉ&'(!": 2202,
      "%ć&Ĉ'(!": 2203,
      "Ĉ!%&'(ďĉ!ďĉďĉďĉďĉďĉ": 2204,
      "ććĈ!Ĉ!ĈĈĈ!Ĉ!Ĉ!ĈĈćĈďĉ!!ďĉďĉ!!!)!)!!!!!!!!!!!!": 2205,
      "ććĈ!ćĈ!ććĈ!ćĈ!ćĈ!ććĈćĈ!Ĉ!Ĉ!Ĉ!ćĈ!ććĈĈĈĈĈĈćĈ!ććĈćĈ!ćĈ!Ĉ!ćĈ!ććĈććĈ!!!!!!ďĉććďĉ%&'(ďĉďĉ!!!!ďĉ!!!ćććććĈ!ĈĈ!ĈĈĈ!Ĉ!Ĉ!Ĉ!Ĉ!Ĉ!Ĉ!Ĉ!Ĉ!Ĉ!Ĉ!Ĉ!ćĈ!ďĉ!ďĉ!!!!!!!!!!!!!!!!": 2206,
      "ćďĉďĉćććĈ!ćĈ!Ĉ!Ĉ!ćĈ!Ĉ!ćĈ!Ĉ!Ĉ!Ĉ!ćĈ!Ĉ!ćĈ!ćĈ!ćĈ!ćĈ!Ĉ!Ĉ!Ĉ!Ĉ!Ĉ!Ĉ!Ĉ!Ĉ!ĈĈ!%&'(ďĉ!!!!!!!!!!!!!!!!!!!!!!!!!!!!!!!!!!!!!!!!!!!!!": 2207,
      "ćććććććććććĈ!ććĈ!Ĉ!ćĈ!Ĉ!": 2208,
      "ĦĦ": 2209,
      "ćĈ!%&'(": 2210,
      "&'(!!!!!!!!!!!!!!!!!!!!!!!!!!!!!!!!!!!!!!!!!!ććććććććććććČďĉďĉććĈ!ćĈ!ćĈ!ćĈ!ćĈćĈćĈ": 2211,
      "ďĉďĉďĉ%&'(Ĉ!Ĉ!ĈĈ!Ĉ!ĈĈĈĈ!Ĉ!ĈĈ!Ĉ!Ĉ!!Ĉ!%&'(ďĉ!ďĉďĉďĉďĉďĉ": 2212,
      "&'(!!!!!!!!!!!!!!!!!!!!!!!!!!!!!!!!!!!!!!!!!!!!!!!!!!!!!!!!!!!!!!)!)!!!!!!!!!!!!!!!!!!!!!!!!!!!!!!!!!!!!!!!!!!!!!!!!!!!!!!!!!!!!!!!!": 2213,
      "ććććććććććććććććććććććććććĈ!ćććĈ!Ĉ!ćĈ!Ĉ!ćĈ!ćĈ!ćĈ!ĈĈ!Ĉ!%&'(": 2214,
      "ćK": 2215,
      "Ĉ!Ĉ!ćĈ!Ĉ": 2216,
      "%&'(!!!!!!!": 2217,
      "&'(!!!!!!!!!!!!!!!!!!!!!!!!!!!!!!!!!!!!!!!!!!!!!!!!!!!!!!!!!!!!!!!!!!!!!!!!!!!!!!!!!!!!!!!!!!!!!!!!!!!!!!!!!!!!!!!!!!!!!!": 2218,
      "ďĉ!!ďĉ!ďĉďĉ!ďĉ!ďĉďĉďĉ!": 2219,
      "Ĉ!ćĈ!ćĈ!Ĉ!Ĉ!ďĉďĉ!!!!!!!": 2220,
      ")!)!!!!!!!!!!!!!!!!!!!!!!!!!!!!!!!!!!!!!!!!!!!!!!!!!!!!!!!!!!!!!!!!!!!!!!!!!!!!!!!!!!%&'(!!!!!!!!!!!!!!!!!!!!!!)!!!!!!!!!!!!!!!!!!!!!!!!!!!!!!!!": 2221,
      "Ĉ!Ĉ!Ĉ!Ĉ!Ĉ!Ĉ!Ĉ!Ĉ!ĈĈĈ!ĈĈ!ĈĈĈ!Ĉ!ĈĈ!Ĉ!Ĉ!": 2222,
      "Ĕ!": 2223,
      "!!ďĉ": 2224,
      "%&'(ďĉ!ďĉ!!ďĉďĉ!!ďĉ!!!!!!)!!!!!!!!)ďĉďĉďĉ!!": 2225,
      "ďĉďĉďĉ!ďĉďĉďĉďĉ": 2226,
      "ďĉ%&'(ďĉ!!": 2227,
      "ď%&'(ĉďĉ!": 2228,
      "ććĈ!Ĉďĉ": 2229,
      "%!!!!!!!!!!!!!!!!!!!!!!!!!!!!!!!!!!": 2230,
      "ćĈ!ćĈ!Ĉ!ĈćĈ!Ĉ!ććĈ!Ĉ!Ĉ!Ĉ!Ĉ!ĈĈ!ćĈ!ćĈ!ćĈćĈ!ćĈ!ćĈćĈ!ćĈćĈ!ććĈćĈ!ćĈćĈ!Ĉ!ććĈćĈ!ĈĈĈĈĈĈćĈ!ććĈććĈ!ćĈ!ĈććĈĈ!Ĉ!ĈĈĈ!ććĈ!Ĉ!Ĉ": 2231,
      "ćććććććĈ!Ĉ!ćĈ!ĈćĈĈ!Ĉ!ćĈ!ĈĈ!ććĈ!ćĈ!ććĈćĈććć!!%&'(ďĉ!ďĉ!!ďĉďĉ!!ďĉ!!!!!!)!!!!!!!!)ďĉďĉďĉ!!": 2232,
      "ćĈ!ĈĈ!ĈĈ!ĈĈ!ĈĈĈĈĈĈĈĈĈĈĈĈĈĈĈĈĈĈĈĈĈĈĈĈĈĈĈĈ!Ĉ!Ĉ!Ĉ!ĈĈĈĈĈĈĈĈĈ!Čďĉ!ćććććććĈ!Ĉ!ććććććĈ!ćĈĈ%&'(ďĉďĉĈ!ĈĈďĉ!!)!)!!!!!!!!!!!!!!!%&'(!ďĉďĉďĉ!ďĉ!ďĉ!ďĉ!ďĉďĉ!!ďĉďĉďĉďĉ": 2233,
      "ďĉćĈ!ćĈ!Ĉ!ććĈ!Ĉ!Ĉ!Ĉ!ćĈĈĈ!Ĉ!ćĈ!Ĉ!ĈĈĈ!ĈĈĈććĈ!ćĈćĈĈĈ!ĈćĈĈĈĈĈĈĈĈććĈćĈĈ!ććĈĈĈĈćĈĈĈĈćĈĈĈĈĈĈĈĈććĈć%&'(ďĉ!": 2234,
      "ćććććććććććĈ!ććĈ!Ĉ!ćĈ!Ĉ!ćĈ!ć!": 2235,
      "ďĉćĈ!Č": 2236,
      "%&ć'(": 2237,
      "ďĉďĉ!!ćććĈ!Ĉ!ćĈ!Ĉ!ĈĈĈĈ!ććĈďĉďĉćććććććć": 2238,
      "!!!!!!!!!!!!!!!!!!!!!!!!!!!!!!!!!!!!!!!ďĉ!ďĉ!!!!!!!!!!!ďĉ!ďĉććććććĈććĈ!%&'(ďĉďĉďĉ!ććĈ!ćďĉďĉďĉďĉďĉďĉďĉďĉ": 2239,
      "ďĉ!!ďĉ%&'(ďĉďĉ": 2240,
      "ďĉďĉďĉ!ććĈ!ćďĉďĉďĉďĉďĉďĉďĉďĉ": 2241,
      "ďĉďĉďĉďĉďĉďĉďĉďĉďĉ%&'(ďĉďĉďĉ": 2242,
      "ďĉ%&'(!!!": 2243,
      "%ď&'(ĉďĉ": 2244,
      "ďĉďĉďĉ%&'(ďĉďĉ!!": 2245,
      "ďĉĈ!Ĉ!Ĉ!Ĉ!Ĉ!ĈĈĈ!ĈĈĈ": 2246,
      "ćďĉ%&'(ććććććĈ!Ĉ!Ĉ!ćĈ!Ĉ!Ĉ!Ĉ!Ĉ!!ĈĈ!ĈććĈ!Ĉ!ĈĈ!ĈĈ!Ĉ!ćĈ!%&'(ďĉĈ!ćĈ!Ĉ!Ĉ!Ĉ!Ĉ!Ĉ!ćĈ!ćĈ!ćĈ!Ĉ!Ĉ!ćĈ!ĈĈĈćĈćĈćĈĈĈćĈ": 2247,
      "ćććĈ!ćć": 2248,
      "ććććć": 2249,
      "%&'(ĉĉĉĉĉĉĉĉĉ": 2250,
      "ďĉ!!ďĉ)!!!)": 2251,
      "ďĉďĉďĉďĉďĉďĉďĉ!!!!!!!!!!!": 2252,
      "%!!!!!!!!!!!!!!!!!!!!!!!!!!!!!!!!!!!!!": 2253,
      "L!M": 2254,
      "ććććĈ!Ĉ!ćĈ!ćĈ!Ĉ!ććĈ!ĈććĈ!Ĉ!ćĈ!ćĈ!Ĉ!Ĉ!ćĈĈ!ďĉďĉďĉďĉ": 2255,
      "%Ĉ!": 2256,
      "BM": 2257,
      "ďĤ": 2258,
      "Ė!": 2259,
      "ďĉďĉď%ĉ&'(": 2260,
      "%&'(ďĉ!!!!!!!!!!!": 2261,
      ")!)!!!!!!!!!!!!!!!!!!": 2262,
      "%&'(ďĉ!!ďĉďĉďĉ": 2263,
      "%&'(ďĉ!!ďĉďĉ!!ďĉ!ďĉ!!ďĉďĉďĉ!ďĉ": 2264,
      "L!LKL!LK": 2265,
      "%&'(ďĉďĉ!ďĉ!!!!!!!!ďĉďĉďĉďĉďĉććććĈ!ćĈ!ĈćĈĈ!Ĉ!Ĉ!Ĉ!ĈćĈĈćĈĈĈĈĈĈ!%&'(ďĉďĉďĉ!))ďĉ!ďĉďĉďĉďĉ": 2266,
      "ćĈ!ććĈ!Ĉ!ĈćĈ!ĈććĈĈĈćĈĈĈćĈ!ĈććĈĈĈćĈĈććĈĈĈćĈ!ĈćĈ!ććĈĈ!Ĉ!ĈĈćĈ!Ĉ!ćććĈ!Ĉ!ćććĈĈćĈ!ĈĈĈ!!ćććć!!!!!!!!!!!!!!!!!!!!%&'(%&'(ďĉďĉďĉ": 2267,
      "ćććĈ!Ĉ!Ĉ!ćĈ!Ĉ!Ĉ!Ĉ!Ĉ!!%&'(ďĉďĉ!ďĉ!!!!!!!!ďĉďĉďĉďĉďĉććććĈ!ćĈ!ĈćĈĈ!Ĉ!Ĉ!Ĉ!ĈćĈĈćĈĈĈĈĈĈ!%&'(ďĉďĉďĉ!))ďĉ!ďĉďĉďĉďĉ": 2268,
      "ďĉďĉďĉďĉďĉ!!ďĉ!!!!ďĉďĉďĉ!ďĉďĉ!": 2269,
      "!!!!!!!!!!!!!!!!!!!!!!!!": 2270,
      "&'(ďĉ!!!!!!!!!!!!!!!!!!!!!!!!!!!!!!!!": 2271,
      "ćĈ!%&'(ďĉ!": 2272,
      ")!)!!!!!!!!!!!!": 2273,
      ")!)!!!!!!!!!!!": 2274,
      "ćĈĈĈĈĈĈĈ": 2275,
      "ďĉďĉ%&'(ďĉ!ďĉ": 2276,
      "ćĈĈĈĈĈĈ!ĈĈ!ĈĈĈćĈĈĈćĈ!ĈĈĈĈ!ĈĈ!Ĉ": 2277,
      "%Ĉ&'(!Ĉ": 2278,
      "ďĉ!ďĉďĉ!Ĉ!Ĉ!ĈĈ!Ĉ!Ĉ!Ĉ!": 2279,
      "Ĉ!Ĉ!Ĉ!Ĉ!Ĉ!ćĈ!ĈĈĈĈćĈ!ćĈ!ćďĉďĉďĉďĉ!": 2280,
      "ďĉćĈ!ćĈ!Ĉ!ććĈ!Ĉ!Ĉ!Ĉ!ćĈĈĈ!Ĉ!ćĈ!Ĉ!ĈĈĈ!ĈĈĈććĈ!ćĈćĈĈĈ!ĈćĈĈĈĈĈĈĈĈććĈćĈĈ!ććĈĈĈĈćĈĈĈĈćĈĈĈĈĈĈĈĈććĈć%&'(ďĉ!ććĈ!ćĈ!Ĉ!ĈĈĈ!ĈĈĈććĈ!ĈĈ!ĈĈĈĈ!ĈĈ!ĈĈĈĈďĉďĉďĉ!!!!!!!!!!ďĉďĉďĉ%&'(ďĉďĉďĉ": 2281,
      "ďĉ%&'(Ĉ!Ĉ!Ĉ!Ĉ!": 2282,
      "ďĉďĉďĉďĉ!ďĉďĉďĉďĉ": 2283,
      "%!&'(!": 2284,
      "!!!!R%&'(": 2285,
      "010101'(3": 2286,
      "&'(!!!!!!!!!!!!!!!!!!!!!!!!!!!": 2287,
      "%!!!!!!!!!&'(": 2288,
      "&'(!!!!!!!!!!!!!!!!!!!!!!!!!!!!!!!!!!!!!!!!!!!!!!!!!!!!!!!!!!!!!!!!!!!!!!!!!!!!!!!!!!!!!!!!!!!!!!!!!!!!!!!!!!!!!!!!!!!!!!!!!!!!!!!!!!!!%!!!!!!!!!!!!!!": 2289,
      "ďĉďĉ!!ďĉ!!!!ďĉďĉďĉďĉ!!!!!!!!!!!!!!!!!!!!!!!!!!!!!!!!!!!!!!!!!!!!!ćććććććĈ!ćĈ!Ĉ!Ĉ!Ĉ!Ĉ!ćĈ!Ĉ!ćĈććĈ": 2290,
      "ććĈ!Ĉ!Ĉ!ćĈ!ďĉďĉďĉďĉďĉďĉćććććććĈ!Ĉ!ććććććĈ!ćĈĈ%&'(ďĉďĉ!!ďĉćććĈ!Ĉ!Ĉ!ćĈ!Ĉ!Ĉ": 2291,
      "ďĉććĈĈĈĈĈďĉďĉ)!)!!ďĉďĉ!!!!!!!!!!!!!!!!!!!!!!!!!!!!!!!!!!!!!!!!!!!!!!!!": 2292,
      "ĥďĉĈ!ĈĈ!": 2293,
      "ďĉ!ďĉććććĈ!ćĈ!ĈĈ!ććĈ!ćĈ!ĈĈ!ćĈ!Ĉ!ćĈ!ďĉ!)ććććććććććććĈ!ććĈ!ćĈ!ćĈ!Ĉ!Ĉ!ćĈ!Ĉ!ćĈ!%&'(ďĉććĈ!Ĉ!Ĉ!Ĉ!ćĈ!Ĉ!!Ĉ!ćĈ!ćĈ!ććĈ!Ĉ!ćĈ!ďĉ!%&'(ććććććććććććććććććććććććććććććććććććććććććććĈ!ćĈ!Ĉ!ĈćĈ!Ĉ!": 2294,
      ")!!": 2295,
      "ć%&'(ććććććĈ!ć": 2296,
      "ćĈĈćĈćĈĈćĈĈ": 2297,
      "ďĉ!%&'(ďĉďĉ!ďĉ!ďĉďĉďĉ!ďĉ!ďĉ!!ďĉ": 2298,
      "00110011": 2299,
      "%&'(ďĉďĉ!ďĉ!!ďĉ!ďĉďĉďĉďĉ!": 2300,
      "ćććĈ!Ĉ!ćĈ!Ĉ!ćĈ!ćĈ!ćĈ!ĈĈ!Ĉ!ćĈ!ćĈ!Ĉ!Ĉ!": 2301,
      "ďĉďĉďĉďĉ!ďĉďĉ!!ďĉďĉďĉďĉďĉďĉďĉ!ďĉ!ďĉć%&'(ććććććĈ!ć": 2302,
      "ďĉďĉďĉďĉ!ďĉďĉ!!ďĉďĉďĉďĉďĉďĉďĉ!ďĉ!ďĉć%&'(ććććććĈ!ćČČďĉďĉďĉ!!!!!ďĉďĉďĉ!ďĉďĉćććććĈ!Ĉ!ćĈĈ": 2303,
      "%Ĉ": 2304,
      "ććć%&'(": 2305,
      "&'(!!!!!!!!!!!!!!!ďĉ!!!!!!!!!!!!!!!!!!!!!!!!!!!!!!!!!!!!!!!!!!!!!!!!!!!!!!!!!!!!!!!!": 2306,
      "!!!!!!!!!!!!ďĉ!!ďĉ!!!!!!!!!!!": 2307,
      "ćďĉ%&'(ďĉ": 2308,
      "ćććĈĈ!ćĈ!Ĉ!ĈćĈĈĈćĈĈĈćĈĈćććććďĉďĉďĉĈ!ĈĈĈĈĈ!ćĈ!Ĉ!ĈćĈĈĈ": 2309,
      "ďĉ!!ďĉďĉďĉ!ďĉ!!!!!!!!!!!!!!!!!!!!!!!!!!!!!!!!!!!!!!!!!!!!!!!!!!!!": 2310,
      "Ĉ!ĈćĈ!Ĉ!Ĉ!ĈćĈ!ććďĉ!Ĉ!ĈćĈ!Ĉ!Ĉ!ĈćĈ!ććďĉďĉ!ďĉďĉ%&'(ćĈ!Ĉ!Ĉ!Ĉ!Ĉ!Ĉďĉ": 2311,
      "777'7777(788888888,-%&+01": 2312,
      "ćĈ!ćĈ!Ĉ!ćĈ!Ĉ!Ĉ!ćĈ!Ĉ!ćďĉ!ďĉďĉďĉďĉďĉďĉďĉďĉ)": 2313,
      "ďĉďĉďĉďďĉĉ": 2314,
      "%ď&'(ĉďĉďĉ!": 2315,
      "ďĉďĉ%&'(ďĉďĉďĉďĉďĉďĉ": 2316,
      "ďďďĉĉĉ": 2317,
      "Ĉ!ĈĈ!ĈĈĈĈ!ĈĈ!ĈďĉĈ!ĈĈĈĈĈĈĈĈ!ĈĈĈ": 2318,
      "&'(!!!!!!!!!!!!!!!!!!!!!!Ĉ!ďĉďĉćĈ!ďĉ!ććĈ!%&'(Ĉ!Ĉ!ĈćĈ!Ĉ!Ĉ!Ĉ!Ĉ!Ĉ!Ĉ!Ĉ!Ĉ!Ĉ!ďĉďĉ!ďĉ%&'(ćććććććććććććććććĈ!Ĉ!ćĈĈ!ćĈ!ćĈ!Ĉ": 2319,
      "ďĉ!ďĉ!!!!!!!!!!!ďĉ!!ďĉďĉďĉďĉďĉďĉ!ďĉďĉďĉďĉďĉďĉ%&'(ďĉďĉ!ďĉďĉďĉćććććĈ!Ĉ!Ĉ!ćĈĈćĈ%&'(ďĉďĉ": 2320,
      "ďĉ!ďĉď%&'(ĉ": 2321,
      "ďĉďĉ!!ďĉ!!ďĉ!!!!!!)!!!!!!!!)!": 2322,
      "!!!!!ďĉďĉďĉ!ďĉďĉćććććĈ!Ĉ!ćĈĈćďĉćĈ!ććĈ!ćĈ!Ĉ": 2323,
      "ďĉ%&'(ďĉďĉ!": 2324,
      "%ď&'(ĉďĉďĉ": 2325,
      "&'(!!!!!!!!!!!!!!!!!!!!!!!!!!!!!!!!!!!!!!!!!!!!!!!!!!!!!!!!!!!!!!!!!!!!!!!!!!!!!!!!!!!!!!!!!!!!!!!!!!!!!!!!!!!!!!!!!!!!!!!!!!!!!%!!!!!!!!!!!": 2326,
      "%&'(ďĉ!!!ďĉďĉďĉďĉďĉďĉďĉďĉ!": 2327,
      "001101010011": 2328,
      "ććććććĈ!ććĈ!Ĉ!Ĉ!ĈćĈ!Ĉ!ĈćĈććĈĈ!ĈĈĈ%&'(ďĉ!!!ďĉďĉďĉďĉďĉďĉďĉďĉ!": 2329,
      "ďĉ!ďĉĈ!Ĉ!ćĈ!Ĉ!ĈĈĈďĉ!ďĉ!!!SĂĄĆ!!ďĉ!!!!!!RTVa!!!S%&'(ĂĄĆ!!!!R!!!S": 2330,
      "&'(ććććććććĈ!ćććĈ!Ĉ!ćĈ!ďĉćĈ!Ĉ!ĈćĈ!ďĉćććććććĈ!ćĈ!%&'(ćďĉ!ďĉďĉ!!!": 2331,
      "ććĈ!Ĉďĉ%&'(Ĉ!Ĉ!ĈĈĈĈĈĈĈĈĈĈĈĈĈĈĈĈĈĈĈĈĈĈĈĈďĉ!ćććććĈ!Ĉ!Ĉ!Ĉ!Ĉ!Ĉ!ćĈ!Ĉ!Ĉ!ćĈ!Ĉ!ćĈ!Ĉ!Ĉ!ćĈ!Ĉ!ćĈ!ćĈ!ćĈ!ćĈ!Ĉ!Ĉ!Ĉć%&'(ďĉ!!!!!!!!!ďĉďĉďĉďĉďĉ)!)ďĉďĉďĉćććĈ!Ĉ!Ĉ!ĈĈ!Ĉ!ćĈ!Ĉ!Ĉ!ĈćĈ!Ĉ!Ĉ!Ĉ": 2332,
      "ćďĉďĉćććĈ!ćĈ!Ĉ!Ĉ!ćĈ!Ĉ!ćĈ!Ĉ!Ĉ!Ĉ!ćĈ!Ĉ!ćĈ!ćĈ!ćĈ!ćĈ!Ĉ!Ĉ!Ĉ!Ĉ!Ĉ!Ĉ!Ĉ!Ĉ!ĈĈ!%&'(ďĉ!!!!!!!!!!!!!!!!!!!!!!!!!!!!!!!!!!!!!!!!!!!!!ďĉďĉďĉďĉďĉ!!ďĉ!!ďĉďĉďĉ)!)": 2333,
      "ďĉ!ďĉĈ!Ĉ!ćĈ!Ĉ!ĈĈĈďĉ!ďĉ!!!SĂĄĆ!!ďĉ!!!!!!RTVa!!!S%&'(ĂĄĆ!!!!R!!!SćććććććĈ!Ĉ!ćĈ!ĈćĈĈ!Ĉ!ćĈ!ĈĈ!ććĈ!ćĈ!ććĈćĈććć!!": 2334,
      "ćďĉ!ďĉďĉďĉďĉ": 2335,
      "ďĉď%ĉ&'(": 2336,
      "Ĉ!ĈĈĈ!ĈĈĈćďĉďĉ!ďĉďĉć%&'(Ĉ!Ĉ!Ĉ!Ĉ!Ĉ!Ĉ!ĈĈĈ!ĈĈĈĈ!ĈĈ!Ĉ!Ĉ!Ĉ!ĈĈĈ!Ĉ!ĈĈ!ĈĈ!Ĉ!Ĉ!Ĉ!Ĉ!Ĉ!ĈĈĈĈ!ĈĈĈĈĈĈĈ!Ĉ!Ĉ!ĈĈ!Ĉ%&'(ďĉĈ!Ĉ!Ĉ!Ĉ!ĈĈĈ!Ĉ!Ĉ!ĈĈĈĈ!Ĉ!ĈĈ!Ĉ!Ĉ!ĈĈĈĈ": 2337,
      "ĈĈĈĈĈĈĈĈĈĈĈĈĈĈ!Ĉ!Ĉ!Ĉ!ĈĈĈĈĈ!Ĉ!Ĉ!Ĉ!Ĉ!Ĉ!ĈĈ!ĈĈ!ĈĈ!ĈĈĈ!ĈĈĈĈĈ!ĈĈĈĈĈĈ!Ĉ!ĈĈ!ĈĈĈĈ!ĈĈĈĈĈĈĈĈ%&'(ďĉćĈ!Ĉ!Ĉ!Ĉ!Ĉ!Ĉ!ĈĈďĉ%&'(!!!": 2338,
      "ć%&'(ďĉďĉćććĈ!ćĈ!Ĉ!Ĉ!ćĈ!Ĉ!ćĈ!Ĉ!Ĉ!Ĉ!ćĈ!Ĉ!ćĈ!ćĈ!ćĈ!ćĈ!Ĉ!Ĉ!Ĉ!Ĉ!Ĉ!Ĉ!Ĉ!Ĉ!ĈĈ!": 2339,
      "ćďĉ!ććććććććĈ!Ĉ!ćĈĈćĈ!ĈĈćĈ!ćĈĈćĈ!Ĉ!ć%&'(ďĉďĉćććĈ!ćĈ!Ĉ!Ĉ!ćĈ!Ĉ!ćĈ!Ĉ!Ĉ!Ĉ!ćĈ!Ĉ!ćĈ!ćĈ!ćĈ!ćĈ!Ĉ!Ĉ!Ĉ!Ĉ!Ĉ!Ĉ!Ĉ!Ĉ!ĈĈ!": 2340,
      "!!!!!!!!!!!!!!ďĉďĉ!ďĉ!)ďĉďĉďĉćďĉďĉ!ďĉďĉďĉ!!ďĉ!!!!%&'(ďĉďĉďĉďĉďĉďĉďĉ!!!!!!!!!!!ďĉ!!!!!!!!!!!!!!!!!!!!!!!!!!!!!!!!!!!!!!!!!!!!!!!!!!!!!!!!!!!!!!!!": 2341,
      "ćĈ!ćććć": 2342,
      "%&'(ďĉ!!!!!!!!!!!!!!!!!!!!!!!!!!!!!!!!!!!!!!!!!!!!!!!!": 2343,
      "ďĉďĉďĉďĉďĉďĉďĉďĉďĉďĉďĉďĉďĉ": 2344,
      "%!!&'(!!!!!!!!!!!!!!!!!!!!!!!!!!!!!!!!!!!!!!!!!!!!!!!!!!!!!!!!!!!!!!!!": 2345,
      "ď!ď!": 2346,
      "ććććĈ!ćĈ!Ĉ!Ĉ!ĈĈ!Ĉ!Ĉ!ĈććĈ!ćďĉććććććććĈ!Ĉ!Ĉ!Ĉ!ćĈĈĈĈ!Ĉ!ćĈ!": 2347,
      "33222323": 2348,
      "ććĈ!Ĉ!ĈĈĈ!!ćĈ!Ĉ!Ĉ!Ĉ!ćďĉďĉ!!ďĉďĉďĉďĉććććĈ!ĈĈ!ćĈ!ĈĈ!Ĉ!Ĉ!ćĈ!ćĈ": 2349,
      "ćĈ!ĈćććććććĈ": 2350,
      "&'(!!!!!!!!!!!!!!!!!!!!!!!!!!!!!!!!!!!!!!!!!!!!!!!!!!!!!!!!!!!!!!!!!!!!!!!!!!!!!!!!!!!!!!!!!!!!!!!!!!!!!!!!!!!!!!!!!!!!!": 2351,
      "ďĉďĉ%&'(ďĉďĉďĉ!!": 2352,
      "ďĉďĉ!ďĉďĉĈ!": 2353,
      "&'Ĉ(!": 2354,
      "ćďĉďĉ%&'(ćććććććĈ!Ĉ!Ĉ!ćĈ!Ĉ!Ĉ!ćďĉ!ććććĈ!ćĈ!Ĉ!Ĉ!ćĈ!Ĉ!Ĉ!Ĉ!ćĈ!Ĉ!Ĉ!Ĉ!ćĈ!Ĉ!ćĈ!ĈćĈ!Ĉ!": 2355,
      "ĈĈĈĈĈĈĈĈĈĈĈĈĈĈ!Ĉ!Ĉ!Ĉ!ĈĈĈĈĈ!Ĉ!Ĉ!Ĉ!Ĉ!Ĉ!ĈĈ!ĈĈ!ĈĈ!ĈĈĈ!ĈĈĈĈĈ!ĈĈĈĈĈĈ!Ĉ!ĈĈ!ĈĈĈĈ!ĈĈĈĈĈĈĈĈ%&'(ďĉćĈ!Ĉ!Ĉ!Ĉ!Ĉ!Ĉ!ĈĈďĉ!!!": 2356,
      "ććććććććććććććććććććććććććĈ!ćććĈ!Ĉ!ćĈ!Ĉ!ćĈ!ćĈ!ćĈ!ĈĈ!Ĉ!%&'(ćĈ!ćĈ!Ĉ!Ĉ!ďĉďĉ!": 2357,
      "%&'(!!!!!!": 2358,
      "ďĉ!!ďĉďĉ!!ďĉ!ďĉ!!": 2359,
      "ďĉďĉďĉććĈ!Ĉ!ćĈĈ!ćĈ!Ĉ!Ĉ!Ĉ!Ĉ!ĈĈĈćĈ!Ĉ!Ĉ!ćďĉććć": 2360,
      "ďĉďĉďĉďĉďĉďĉRTVa": 2361,
      "ďĉďĉ!!!!ďĉďĉ": 2362,
      "ććĈ!Ĉ!Ĉ!Ĉ!Ĉ!Ĉ!ććĈ!ćďĉ!ďĉććććĈ!ćĈ!ĈĈ!ććĈ!ćĈ!ĈĈ!ćĈ!Ĉ!ćĈ!ďĉ!": 2363,
      "ďĈĈĉ": 2364,
      "ćĈ!ĈĈ!ĈĈ!ĈĈ!ĈĈĈĈĈĈĈĈĈĈĈĈĈĈĈĈĈĈĈĈĈĈĈĈĈĈĈĈ!Ĉ!Ĉ!Ĉ!ĈĈĈĈĈĈĈĈĈ!Čďĉ!ćććććććĈ!Ĉ!ććććććĈ!ćĈĈ%&'(ďĉďĉĈ!ĈĈďĉ!!)!)!!!!!!!!!!!!!!!!ďĉďĉďĉ!ďĉ%&'(!ďĉ!ďĉ!ďĉďĉ!!": 2365,
      "ď&'(ĉ": 2366,
      "!!!!!!!!!!ćććććććććććĈ!ĈćĈ!Ĉ!ĈćĈ!ćďĉďĉ!!ćććĈ!Ĉ!ćĈ!Ĉ!ĈĈĈĈ!ććĈ": 2367,
      "%!!!!!!!!!!!!!!!!!!!!!!!!!!!!!!!!!!!!!!!": 2368,
      "&'(!!!!!!!!!!!!!!!!!!!!!!)!)!!!!!!!!!!!!!!!!!!!!!!!!!!!!!!!!!!!!!!!!!!!!!!!!!!!!!!!!!!!!!!!!!!!!!!!!!!!!!!!!": 2369,
      "ďĉ!!!!!!!!!!!!!!!!!!!!!ďĉ": 2370,
      ")!)!!!!!!!!!!!!!!!!!!!!!!!!!!!!!!!!!!!!!!!!!!!!!!!!!!!!!!!!!!!!!!!)!)!!!!!!!!!!!!!!!!!!!!!!!!!!!!!!!!": 2371,
      "ďĉďĉďĉďĉďĉďĉďĉďĉ!!!ďĉďĉďĉďĉććĈ!Ĉ!Ĉ!Ĉ!Ĉ!Ĉ!": 2372,
      "ďĉďĉďĉĈ!Ĉ!Ĉ!Ĉ!Ĉ!ćĈ!ĈĈĈĈćĈ!ćĈ!ć%&'(ďĉďĉďĉďĉ!": 2373,
      "Ĥ!": 2374,
      "%!&'(!!!": 2375,
      "ďďďĉĉ": 2376,
      "ďĉďĉ!!ďĉ!!!!!!!!!": 2377,
      "&'(!!!!!!!!!!!!!!!!!!!!!!!!!!!!!!!!!!!!!!!!!!!!!!!!!!!!!!!!!!!!!!!!!!!!!!!!!!!!!!!!!!!!!!!!!!!!!!!!!!!!!!!!!!!!!!!!!!!!!!!!!!!!!!!!!!!!!!%!!!!!!!!!!!!!!!": 2378,
      "ććććĈ!ćĈ!Ĉ!Ĉ!ćĈ!Ĉ!Ĉ!Ĉ!ćĈ!Ĉ!Ĉ!Ĉ!ćĈ!Ĉ!ćĈ!ĈćĈ!Ĉ!ćĈ!ćĈ!ćĈ!ćĈ!ćĈ!Ĉ!ćĈ!ćĈ!Ĉ!Ĉ!ćĈ!Ĉ!Ĉ!ććĈ!Ĉ!Ĉ!ĈćĈ!Ĉ!ććĈ!ććĈ!ćĈ!Ĉ!ćĈććĈ!Ĉ!%&'(ďĉĈ!Ĉ!Ĉ!Ĉ!Ĉ!Ĉ!ĈĈĈĈĈĈĈĈĈĈĈĈĈĈĈĈĈĈĈĈĈĈĈĈĈĈĈĈĈĈĈĈĈĈĈĈĈĈĈĈĈĈĈĈĈĈĈĈĈ!Ĉ!ĈĈĈĈĈ!Ĉ!Ĉ!": 2379,
      "ďĉ!!ďĉ%&'(ďĉďĉćććĈ!Ĉ!Ĉ!Ĉ!ĈĈĈĈĈĈĈĈĈĈ!ćĈ!Ĉ!ĈćĈĈćĈćĈĈĈćĈĈďĉĈ!ĈĈĈĈ": 2380,
      "ďĉ!!!!!!!": 2381,
      "ďĉďĉććĈ!Ĉ!Ĉ!ćĈ!": 2382,
      "ďĉ!ďĉ!ďĉ%&'(ďĉďĉďĉďĉ": 2383,
      "ďĉďĉďĉćďĉ!ďĉďĉďĉďĉ": 2384,
      "&'(!!!!!!!!!!!!!!!!!!!!!!!!!!!!!!!!!!!!!!!!!!!!!!!!!!!!!!!!!!!!!!!!!!!!!!!!!!!!!!!!!!!!!!!!!!!!!!!!!!!!!!!!!!!!!!!!!!!!!!!!!!!!!%!!!!!!!!!!!!!!!!!!": 2385,
      "ćĈ!Ĉ!ćĈ!ćĈ!Ĉ!ćĈ!Ĉ!ćĈ!Ĉ": 2386,
      "ďĉ!ďĉďĉďĉďĉďĉďĉďĉćďĉ!ďĉďĉďĉďĉ!!ďĉ%&'(ďĉďĉďĉďĉďĉďĉ!ďĉďĉďĉďĉ!!": 2387,
      "ďĉ!ďĉ!ďĉďĉďĉďĉ!": 2388,
      "01000111": 2389,
      "%Ĉ&'(!Ĉ!": 2390,
      "&'(!!!!!!!!!!!!!!!!!!!!!!!!!!!!!!!!!!!!!!!!!!!!!!!!!!!!!!!!!!!!!!!!!!!!!!!!!!!!!!!!!!!!!!!!!!!!!!!!!!!!!!!!!!!!!": 2391,
      "%&'(ďĉďĉ!ďĉďĉďĉďĉďĉďĉďĉďĉ!": 2392,
      "&'(!!!!!!!!!!!!!!!!!!!!!!!!!!!!!!!!!!!!!!!!!!!!!!!!!!!!!!!!!!!!!!!!!!!!!!!!!!!!!!!!!!!": 2393,
      "ć%&'(ďĉ!ďĉďĉ!!!": 2394,
      "ćĈ!Ĉ!ĈćĈ!ďĉćććććććĈ!ćĈ!ć%&'(ďĉ!ďĉďĉ!!!": 2395,
      "ĥďĉĈ!ĈĈ!ďĉćĈ!Č": 2396,
      "C!": 2397,
      "ćĈĈ!Ĉ!": 2398,
      "ćĈĈćĈĈćĈĈćĈćĈĈćĈĈ": 2399,
      "ćĈ!ĈĈ!ćĈ!ĈćććććććĈ": 2400,
      "ďĉ!ďĉďĉďĉďĉďĉďĉďĉďĉ!!": 2401,
      "32232323": 2402,
      "ćććĈ!Ĉ!Ĉ!Ĉ!ĈĈĈĈĈĈĈĈĈĈ!ćĈ!Ĉ!ĈćĈĈćĈćĈĈĈćĈĈ%&'(ďĉĈ!Ĉ!ĈĈĈĈ!Ĉ!Ĉ!ĈĈĈĈĈĈĈĈĈĈ!ĈĈĈ!ĈĈ!ĈĈĈĈ!ĈĈ!ĈďĉĈ!ĈĈĈĈĈĈĈĈ!ĈĈĈ!": 2403,
      "ďĉďĉďĉ)!)ďĉďĉďĉďĉďĉďĉ!!!": 2404,
      "%!!!!!!!!!!!!!!!!!!!!!!!!!!!!!!!!!!!": 2405,
      "ćććĈ!Ĉ!Ĉ!ćĈ!Ĉ!Ĉćďĉďĉďĉďĉ": 2406,
      "ćććććććĈ!ćĈ!Ĉ!Ĉ!Ĉ!Ĉ!ćĈ!Ĉ!ćĈććĈćďĉćĈ!Ĉ!Ĉ!Ĉ!Ĉ!Ĉ!Ĉ!Ĉ!ćĈ!ćĈ!Ĉ!ĈćĈ!Ĉ!ďĉćĈ!": 2407,
      "ć%&'(ćććććĈ!Ĉ!Ĉ!ćĈ!Ĉ!Ĉ!Ĉ!Ĉ!!": 2408,
      "ďĈĈĈĉ": 2409,
      "ďĉďĉďĉĈ!Ĉ!Ĉ!Ĉ!Ĉ!ćĈ!ĈĈĈĈćĈ!ćĈ!ć%&'(ďĉďĉďĉďĉ!ďĉ!ďĉďĉćĈ!Ĉ!Ĉ!ććĈ!ćĈ!Ĉ!Ĉ!ćĈ!Ĉ!ćĈ!ćĈ!ćĈ!ćĈćĈ!Ĉ!ĈĈćĈćĈĈĈĈĈĈĈĈĈĈĈĈ%&'(ďĉ!!ďĉďĉďĉďĉďĉďĉ!ďĉďĉ!ďĉďĉďĉ!!": 2410,
      "3232222222222222222222222222222222222222222244444444%&5555555522222222222222222222222266666666": 2411,
      "ďĉ!!!!!!!!!!!!!!!!!ďĉ": 2412,
      "%!!&'(!!!!!!!!!!!!!!!!!!!!!!!!!!!!!!!!!!!!!!!!!!!!!!!!": 2413,
      "ďĉ!ďĉďĉďĉďĉďĉďĉďĉďĉďĉďĉďĉďĉďĉďĉďĉ": 2414,
      "Ĉ!ďĉ!ďĉďĉďĉďĉďĉ": 2415,
      "ďĉďĉ%&'(ďĉďĉćĈ!ĈĈ!Ĉ!ďĉ!ďĉ!ďĉďĉďĉ!!": 2416,
      "&'(!!!!!!!!!!!!!!!!!!!!!!!!!!!!!!!!!!!!!!!!!!!!!!!!!!!!!!!!!!!!!!!!!!!!!!!!!!!!!!!!!!!!!!!!!!!!!!!!!!!!!!!!!!!!%!!!!!!!!!!!!!!!!!!!!!!": 2417,
      "&'(!!!!!!!!!!!!!!!!!!!!!!!!!!!!!!!!!!!!!!!!!!!!!!!!!!!!!!!!!!!ďĉ!)!)!!!!!!!!!!ďĉ!!!!!!": 2418,
      "A!": 2419,
      "ĉďĉďĉ": 2420,
      "%&'(ćĈ!Ĉ!": 2421,
      "ćĈ!ćĈďĉďĉďĉďĉ!ďĉďĉďĉďĉ!ďĉ!!": 2422,
      "ć%&'(ďĉďĉďĉ": 2423,
      "ďĉ!!!!!ďĉ!ďĉďĉďĉďĉďĉďĉďĉ": 2424,
      "ďĈ!Ĉĉ": 2425,
      "ćĈ!ď": 2426,
      "%!&'(!!!!!!!!!!!!!!!": 2427,
      "ć%&'(!!!!!!!!!!!!!!!!!!!!!!!!!!!!!!!!!!!!!!!!!!!!!!!!!!!!!!!": 2428,
      "ď!ď": 2429,
      "%ć&ć'(": 2430,
      "%&'(ďĉďĉďĉďĉďĉďĉďĉďĉďĉďĉďĉďĉ": 2431,
      "!!!!!!!!!!!!!!!!!!!!!!!!!!!!!!!!!!!!!!!!!!!!!!!!!!!!!!!!!!!!!!!!!!!!!!!!!!!!!!!!!": 2432,
      "ďĉďĉďĉ!!ďĉďĉ!ďĉ!!ďĉććććććĈ!ććĈ!ććĈ!Ĉ!Ĉ!Ĉ!ćććĈ!Ĉ!Ĉ!ććĈćĈ!Ĉ!ĈćĈ!Ĉ!ćĈ!ććĈĈĈĈĈćĈćĈ%&'(ďĉćććććĈ!ĈĈćĈĈćĈďĉćććććććć": 2433,
      "!!!!!!!!!!!!!!!!!!!!!!!!!!!!!!!!!!!ćććććććććććĈ!Ĉ": 2434,
      "!%!!!!!!!!!!!!": 2435,
      "ĈĈĈ!": 2436,
      "Ĉ!Ĉ!Ĉ!Ĉ!ĈĈĈ!ĈĈĈ": 2437,
      "ďĉ!!)ďĉďĉ!": 2438,
      "Ĉ!Ĉ!ĈĈ!Ĉ!Ĉ!": 2439,
      "ďĉ!ďĉ%ď&'(ĉ": 2440,
      "ćććććććććććććććććććććććććć": 2441,
      "ććć%ć&'(": 2442,
      "%!!!!!!!!!!!!!!!!!!!!!!!!!!!!!!!!!!!!!!!!!": 2443,
      "ĈćĈĈćĈćĈĈĈćĈĈďĉ": 2444,
      "&'(!!!!!!!!!!!!!!!!!!!!!!!!!!!!!!!!!!!!!!!!!!!!!!!!!!!!!!!!!!!!!!!!!!!!!!!!!!!!!!!!!!!!!!!!!!!!!!!!!!!!!!!!!!!!!!!!!!!!!!!!!!!!!!!!!!!!!!!!%!!!!!!!!!!": 2445,
      "ďĉďĉďĉďĉ!!!!ďĉ!!ďĉďĉďĉďĉďĉďĉďĉďĉ!ćĈ!Čďĉďĉ!": 2446,
      "ćĈ!Ĉ!ćĈ!ćĈ!Ĉ!ćĈ!Ĉ!ćĈ!ĈćĈĈćĈĈćĈĈćĈćĈĈćĈĈ": 2447,
      "Ėē": 2448,
      "ćĈ!ćĈ!ćĈĈ": 2449,
      "%&'(%&'(%&'(%&'(%&'(%&'(": 2450,
      "ďĉďĉďĉ)!)": 2451,
      "Ĉ!Ĉ!Ĉďĉ!!!!!!!!!!!!!!!!!!!!!!!!!!!!!!!!!!!!!!!!!!!!!!!!!!!!!!!!!!!!!!!!": 2452,
      "ďĉ%&'(ďĉ!": 2453,
      "ďĉ!!!!!!!!!!!!!!!!!!!!!!!": 2454,
      "&'(!!!!!!!!!!!!!!!!!!!!!!!!!!!!!!!!!!!!!!!!!!!!!!!!!!!!!!!!!!!!!!!!!!!!!!!!!!!!!!!!!!!!!!!!!!!!!!!!!!!!!!!!": 2455,
      "ďĉ!!!!!!!!!!!!!!!!!!!!!!!!!!!!!!!!!!!!!!!!!!!!!!!!!!!!!!!!!!!!!!!!!!!!!!!!!!!!!!!!!!!!!!!!!!!!!!!!": 2456,
      "&'(!!!!!!!!!!!!!!!!!!!!!!!!!!!!!!!!!!!!!!!!!!!!!!!!!!!!!!!!!!!!!!!!!!!!!!!!!!!!!!!!!!!!!!!!!!!!!!!!!!!!!!!!!!!!!!!!!!!!!!!!!!!!!!!!!!!!!!%!!!!!!!!!!!!!!!!!!!!!!": 2457,
      "L!LK!LK!LK": 2458,
      "ďĉďĉďĉďĉďĉ!!ďĉ!!ďĉďĉďĉ)!)ďĉďĉďĉďĉďĉ!)!)!ďĉďĉ!!!)!)!!": 2459,
      "ē!Ħ": 2460,
      "ďĉďĉćććććććĈĈććććććĈ!ćĈĈ%&'(ďĉďĉ!!ďĉ!!!!!!!!!!!!!!!!!!!ććĈ!ćĈ!ćĈ!ćďĉ!!!!!!!!!!!!!!!": 2461,
      "ďĉ!!ďĉ)!!!)!!!!!": 2462,
      "!%!!!!!!!!!!!!!!!!!!!!!!": 2463,
      "%&'(ďĉ!ďĉďĉďĉćĈ!Ĉ!Ĉ!Ĉ!ĈĈ!Ĉ!Ĉ!Ĉ!": 2464,
      "%&'(ćććććććććććĈ!ćĈ!!ććĈ!ććĈ!ćĈ!Ĉ!Ĉ!Ĉ!Ĉ!Ĉ!ĈćĈĈĈĈ!ĈććĈ!ććććĈć!!": 2465,
      "%&'(ďĉ!ďĉ!!!!!!!!ććĈ!Ĉ!ĈćĈĈĈććĈĈĈććĈ!Ĉ!Ĉ!Ĉ!Ĉ!Ĉ!ćĈĈ!Ĉ!Ĉ!ćĈĈĈććĈĈ!ćććĈ!ććĈ!ćĈ!ĈĈĈćć!!!!%&'(ďĉ!!ďĉ!!ćĈ!Ĉ!Ĉ!Ĉ!Ĉ!Ĉ!Ĉ!ćĈ!ďĉ!!!!!!!!ďĉ!!!!!ćĈ!ĈćĈ!ćĈ!ĈĈ!ćĈ!Ĉ!ĈĈĈ!ĈĈĈććĈ!": 2466,
      "ćĈĈ!Ĉ": 2467,
      "!!!!!!!!!!!!!!!!!!!!!!!!!!!!!!!!!!!!!!!!!!!!!!!!!!!!!!!!!!!!!!!!!!!!!": 2468,
      "Ĉ!ĈĈ!Ĉ!": 2469,
      "ďĉďĉďĉďĉďĉďĉďĉďĉ!!!": 2470,
      "%!!&'(!!!!!!!!!!!!!!!!!!!!!!!!!!!!!!!!!!!!!!!!!!!!!!!!!!!!!!!!!!!!!!!!!!!!!!!!!!!!!!!!": 2471,
      "ď!Ĉ!ĉ": 2472,
      "ć!Ĉ": 2473,
      "ďĉ!!ďĉďĉďĉďĉďĉďĉ!ďĉďĉďĉďĉďĉďĉ!!": 2474,
      "ćććĈ!Ĉ!Ĉ!Ĉ!ĈĈĈĈĈĈĈĈĈĈ!ćĈ!Ĉ!ĈćĈĈćĈćĈĈĈćĈĈďĉ%&'(": 2475,
      "3222323232222222222222222222222222222222222222222244444444%&5555555522222222222222222222222266666666": 2476,
      "ćĈ!ďĉććĈ!Ĉ!Ĉ!Ĉ!ćĈ!Ĉ!!Ĉ!ćĈ!ćĈ!ććĈ!Ĉ!": 2477,
      "RTVa!!!SĂĄĆ!!!!R!!!SćććććććĈ!Ĉ!ćĈ!ĈćĈĈ!Ĉ!ćĈ!ĈĈ!ććĈ!ćĈ!ććĈćĈććć!!%&'(ďĉ!ďĉ!!ďĉďĉ!!ďĉ!!!!!!)!!!!!!!!)ďĉďĉďĉ!!": 2478,
      "ćĈ!ćĈ!Ĉ!Ĉ!ćĈ!Ĉ!Ĉ!ćĈ!Ĉ!Ĉ!ĈĈćĈĈ!Ĉďĉ!!!!!!!!!!!!!!!!!!!!!!!!!!!!!!!!": 2479,
      "ćďĉ#$ćĈ!ćć%&'(ďĉďĉ!!!!ďĉ!!)ďĉďĉ!ďĉďĉ%&'(!ďĉďĉďĉ!!ďĉďĉćĈ!Čďĉďĉďĉ!ďĉďĉ!ďĉďĉďĉ!ďĉďĉ!ďĉďĉďĉĈ!Ĉ!Ĉ!Ĉ!!Ĉ!Ĉ!Ĉ!Ĉ!!Ĉ!Ĉ!Ĉ": 2480,
      "ďĉďĉ!!ćććĈ!Ĉ!ćĈ!Ĉ!ĈĈĈĈ!ććĈďĉďĉććććććććććććććĈ!ććĈ!Ĉ!Ĉ!ĈćĈ!Ĉ!ĈćĈććĈĈ!ĈĈĈ%&'(ďĉ!!!ďĉďĉďĉďĉďĉďĉďĉďĉ!": 2481,
      "&'(!!!!!!!!!!!!!!!!!!!!!!!!!!!ććććććććććććČďĉďĉććĈ!ćĈ!ćĈ!ćĈ!ćĈćĈćĈćďĉďĉ": 2482,
      "ćďĉ!ďĉďĉďĉďĉ!!": 2483,
      "ďK": 2484,
      "ďĉďĉďĉďĉď%&'(ĉ": 2485,
      "%&'(ĉĉĉĉĉ": 2486,
      "ćďĉ!ďĉďĉďĉ%&'(ďĉďĉďĉďĉďĉ": 2487,
      "ďď!!": 2488,
      "!!!!RTVa": 2489,
      "ććććĈ!Ĉ!ćĈ!ćĈ!Ĉ!ććĈ!ĈććĈ!Ĉ!ćĈ!ćĈ!Ĉ!Ĉ!ćĈĈ!%&'(ďĉďĉďĉďĉ": 2490,
      "ďĉćććďĉ!ďĉďĉ!ďĉďĉćććććďĉ!": 2491,
      "ďĖĉ": 2492,
      "ďĉďĉďĉďĉ%&'(ďĉďĉ!": 2493,
      "ćĈć": 2494,
      "ďĉ!ďĉ%!&'(": 2495,
      "ďĉďĉďĉďĉďĉď%&'(ĉ": 2496,
      "LLLLLLLLLLLL": 2497,
      "%!!!!!!!!!!!!!!!!!!!!!!!!!!!!!!!!!": 2498,
      "&'(!!!!!!!!!!!!!!!!!!!!!!!!!!!!!!!!!!!!!!!!!!!!!!!!!!!!!!!!!!!!!!!!!!!!!!!!!!!!!!!!!!!!!!!!!!!!!!!!!!!!!!!!!!!!!!!!!!!!!!!!!!!!!!!!!!!!!%!!!!!!!!!!!!!!!!!!!!!!!": 2499,
      "Ĉ!Ĉććďĉ!ćĈ!ćĈ": 2500,
      "&'(!!!!ďĉććććĈ!ćĈ!ćĈ!ĈĈ!ććĈ!Ĉ!ČďĉćĈ!ćĈ!ćĈ!ćĈćĈ!ćĈ!Ĉ!ććĈ!ĈĈ!ćĈĈ!Ĉ!ĈćĈ!Ĉ!ĈĈĈĈĈĈććĈ!ćďĉ!!!!!!!!ďĉ!": 2501,
      "!!!!!!!!!!!!!!!!!!!!!!!!!!!!!!!!!!!!!!!!!!!!!!!!!!!!ďĉ!!!!!!!!!!!!": 2502,
      "&'(!!!!ďĉććććĈ!ćĈ!ćĈ!ĈĈ!ććĈ!Ĉ!ČďĉćĈ!ćĈ!ćĈ!ćĈćĈ!ćĈ!Ĉ!ććĈ!ĈĈ!ćĈĈ!Ĉ!ĈćĈ!Ĉ!ĈĈĈĈĈĈććĈ!ćďĉ!!!!!!!!ďĉ!ďĉ!%&'(": 2503,
      "ďĉ!ďĉďĉďĉďĉďĉďĉ!!%&'(ďĉ!ďĉďĉďĉďĉ!!ďĉďĉďĉ!ďĉ!ďĉ!ďĉ%&'(ććďĉďĉ)ćďĉ": 2504,
      "%ĈĈ&'(": 2505,
      "ďĉ!ďĉ!ďĉ!Ĉ!Ĉ!Ĉ!Ĉ!Ĉ!Ĉ!Ĉ!Ĉ!ĈĈĈ!ĈĈ!ĈĈĈ!Ĉ!ĈĈ!Ĉ!Ĉ!": 2506,
      "ďĉ!!!!!!!!!!!!!!!!!!!!!ďĉ!!!!!!!!!!!!!!ďĉďĉďĉďĉ": 2507,
      "ďĉďĉĈ!Ĉďĉ!ďĉ!ďĉ": 2508,
      "ćďĉďĉćć": 2509,
      ")!)!!!!!!!!!!!!!!!!!!!!!!!!!!!!!!!!!!!!!!!!!!!!!!!!!!!!!!!!!!!!!!!!!!!!!!!!!!!!!!!!!!!!!!!!!!!!!!!!!!!!": 2510,
      "&'(!!!!!!!!!!!!!!!!!!!!!!!!!!!!!!!!!!!!!!!!!!!!!!!!!!!!!!!!!!!!!!!!!!!!!!!!!!!!!!!!!!!!!!!!!!!!!!!!!!!!!!!!!!!!!!!!!!!!!!!!!!!!!!!!!!!!!%!!!!!!!!!!!!!!!!!!!!!!": 2511,
      "ćĈ!ććĈ!ćĈ!ĈďĉććććććććććććĈ!ćĈ!Ĉ!Ĉ!Ĉ!Ĉ!Ĉ!Ĉ!Ĉ!Ĉ!!ćĈĈĈĈ!Ĉ!ćĈ!Ĉ!ćĈĈĈćĈ!ĈĈĈĈĈ!Ĉ!ćĈ!ććĈ!ćĈ!ććĈ!ćĈććĈ!ćĈ!ćĈ!ĈćĈĈć%&'(ďĉĈ!ćĈ!Ĉ!Ĉ!ćĈ!Ĉ!Ĉ!ĈĈ!": 2512,
      "ħ)ę": 2513,
      "ď)ĉ": 2514,
      "ćććććĈ!ćĈ!Ĉ!ćĈĈ!Ĉ!Ĉ!Ĉ!ćĈćĈĈćĈ!Ĉ!Ĉ!ćĈ!Ĉ!Ĉ!Ĉ!ćĈ!Ĉ!ďĉ": 2515,
      "L!L": 2516,
      "ďħĉ": 2517,
      "%&'(ďĉĈ!Ĉ!ĈĈĈ!Ĉ!Ĉ!Ĉ!ĈĈĈĈĈ!ĈĈĈĈ!ĈĈĈĈĈĈĈĈĈĈĈĈ!Ĉ!ĈĈĈĈĈĈĈĈĈĈĈĈĈĈĈĈĈĈĈĈĈĈĈĈ!ĈĈĈĈĈĈĈĈĈĈĈĈĈĈĈĈĈĈĈĈĈĈĈ": 2518,
      "ćććććććĈĈ": 2519,
      "ďĉ!ďĉďĉďĉďĉďĉďĉďĉďĉććććĈ!ćĈ!Ĉ!Ĉ!ĈĈ!Ĉ!Ĉ!ĈććĈ!ć%&'(ďĉććććććććĈ!Ĉ!Ĉ!Ĉ!ćĈĈĈĈ!Ĉ!ćĈ!ďĉďĉ": 2520,
      "Ĉ!Ĉ!ĈĈ!Ĉ!Ĉ!Ĉ!ďĉďĉďĉďĉďĉ!ďĉďĉďĉ!": 2521,
      "&'(!!!!!!!!!!!!!!!!!!!!!!!!!!!!!!!!!!!!!!!!!!!!!!": 2522,
      "RTVa!!!SĂĄĆ!!!!R!!!SĈ!ćĈ!ćĈ!Ĉ!Ĉ!": 2523,
      "ďĉďĉďĉďĉďĉ!!ďĉ!!!!!!!ďĉ!!ďĉďĉ!!!": 2524,
      "ćĈ!Ĉ!ćĈ!ćĈ!ćĈ!Ĉ!ććććĈ!ććĈ!ć!": 2525,
      "&'ć(": 2526,
      "Ĉ!%&'(Ĉ!Ĉ!Ĉ!Ĉ!ĈĈĈ!ĈĈĈ": 2527,
      "ćĈ!Ĉ!Ĉ!Ĉ!Ĉ!ĈĈĈ!Ĉ!ĈĈ!Ĉ!ĈĈ!Ĉ!ĈĈ!ĈĈ!Ĉ!ĈĈ!ĈĈ!Ĉ!ĈĈĈ!ĈĈĈĈ!ĈĈĈĈ%&'(ďĉĈ!Ĉ!Ĉ!Ĉ!ĈĈĈĈĈĈĈĈĈĈĈĈĈĈ!Ĉ!Ĉ!Ĉ!Ĉ!ĈĈĈ!ĈĈďĉ!ďĉďĉďĉ": 2528,
      "%&'(!!": 2529,
      "%&'(ďĉ!ďĉďĉďĉďĉ!!!!!!!!!!!!!!!!!!!!!Ĉ!Ĉ!Ĉ": 2530,
      "ďĉ!)": 2531,
      "ćďĉĈ!ćĈ!Ĉ!Ĉ!ćĈ!Ĉ!Ĉ!ĈĈ!": 2532,
      "Ĉ!ćĈ!ć%&'(": 2533,
      "ĈĈ!ĉ": 2534,
      "!!!!!!!!!!!!!!!!!!!!!!!!!!!!!!!!!!!!!!!ďĉďĉććććććĈ!ćććĈ!ćććĈ!ćĈ!ćďĉďĉďĉďĉ!": 2535,
      "ĖĖĖĖ": 2536,
      "&'(!!!!!!!!!!!!!!!!!!!!!!!!!!!!!!!!!!!!!!!!!!!!!!!!!!!!!!!!!!!!!!!!!!!!!!!!!!!!!!!!!!!!!!!!!!!!!!!!!!!!!!!!!!!!!!!!!!!!!!!!!!!!%!!!!!!!!!!!!!!!!!!!": 2537,
      "ććććććććĈ!ćććĈ!Ĉ!ćĈ!%&'(ďĉ": 2538,
      "ćććĈ!Ĉ!Ĉ!Ĉ!Ĉ!ćĈ!Ĉ!Ĉ!ĈćĈ!ćĈĈĈĈĈćĈĈĈĈĈćĈ!ĈĈĈćĈďĉ!": 2539,
      "ćĈ!ĈĈ!ćĈ!ĈćććććććĈćĈ!Ĉ!ćĈ!ćĈ!Ĉ!ćĈ!Ĉ!ćĈ!ĈćĈĈćĈĈćĈĈćĈćĈĈćĈĈ": 2540,
      "ďB": 2541,
      "ďćććĉ": 2542,
      "!!!!!!!!!!!!!!!!!": 2543,
      "ďĉďĉ!!!!!!!!!!!!!!!!!!!!!!!!!!!!!!!!!!!!!!!!!!!!!!!!!!!!!!!!!!!!!!!!": 2544,
      "ďĉďĉ%&ď'(ĉ": 2545,
      "&'(!!": 2546,
      "&'(!!!!!!!": 2547,
      "ćĈ!Ĉ!Č": 2548,
      "ďĉďĉďĉĈ!ĈĈćďĉďĉďĉďĉďĉďĉďĉ!ďĉ!ďĉďĉďĉ!": 2549,
      "%Ĉ&'(ĈĈĈ": 2550,
      "ďĉďĉďĉ%&'(ďĉďĉďĉďĉ": 2551,
      "&'(!!!!!!!!!!!!!!!!!!!!!!!!!!!!!!!!!!!!!!!!!!!!!!!!!!!!!!!!!!!!!!!!!!!!!!!!!!!!!!!!!!!!!!!!!!!!!!!!!!!!!!!": 2552,
      "ďĉ!ďĉ!ďĉććďĉďĉ)": 2553,
      "Ĉ!ďĉďĉćĈ!ďĉ!%&'(": 2554,
      "ćĈ!Ĉ!ćĈĈćďĉćĈ!ććĈ!ćĈ!Ĉ": 2555,
      "ćďĉ!!!!!!!!!ďĉďĉďĉďĉďĉ)!)": 2556,
      "ďĉ!ďĉďĉďĉďĉďĉďĉďĉďĉďĉďĉ!!ććć": 2557,
      "ććććĈ!Ĉ!Ĉ!Ĉ!Ĉ!ĈĈ!Ĉ!ćďĉ!!ďĉďĉćĈ!ćďĉďĉ!ďĉďĉćććććĈ!ćČ": 2558,
      "ćĈ!ĈĈ!ĈĈ!ĈĈ!ĈĈĈĈĈĈĈĈĈĈĈĈĈĈĈĈĈĈĈĈĈĈĈĈĈĈĈĈ!Ĉ!Ĉ!Ĉ!ĈĈĈĈĈĈĈĈĈ!Čďĉ!ćććććććĈ!Ĉ!ććććććĈ!ćĈĈ%&'(ďĉďĉĈ!ĈĈďĉ!!)!)!!!!!!!!!!!!!!!!ďĉďĉďĉ!ďĉ%&'(!ďĉ!ďĉ!ďĉďĉ!!ďĉďĉďĉďĉďĉ!ďĉ!ďĉďĉďĉďĉ": 2559,
      "ćČ": 2560,
      "22222222222222222222222222222222": 2561,
      "ďĉďĉďĉ!!)!)!!!!!!!!!!!!!!!!!!!!!!!!!!!!!!!!!!!!!!!!!!!!!!!!!!!!!!!!!!!!!!!!!!!!!!!!!!!!!!!!!!!!!!!!!!!!!!!!!!!!!!!!!!!!!!!!!!!!!!!!!!!!!!!!": 2562,
      "ćďĉďĉćććććććĈ!Ĉ!Ĉ!ćĈ!Ĉ!Ĉ!ćďĉ!": 2563,
      "&'(!!!!!!!!!!!!!!!!!!!!!!!!!!!!!!!!!!!!!!!!!!!!!!!!!!!!!!!!!!!!!!!!!!!!!!!!!!!!!!!!!!!!!!!!!!!!!!!!!!!!!!!!!!!!!!!!!!!!!!!!!!!!!!!!!!!%!!!!!!!!!!!!!!!": 2564,
      "%&'(!!!!!!!!!!!!!!!!!!!!!!!!!!": 2565,
      "ďĉďĉďĉćććĈ!Ĉ!Ĉ!ĈĈ!Ĉ!ćĈ!Ĉ!Ĉ!ĈćĈ!Ĉ!Ĉ!Ĉćďĉ!ććććććććĈ!Ĉ!ćĈĈćĈ!ĈĈćĈ!ćĈĈćĈ!Ĉ!ć%&'(ďĉďĉćććĈ!ćĈ!Ĉ!Ĉ!ćĈ!Ĉ!ćĈ!Ĉ!Ĉ!Ĉ!ćĈ!Ĉ!ćĈ!ćĈ!ćĈ!ćĈ!Ĉ!Ĉ!Ĉ!Ĉ!Ĉ!Ĉ!Ĉ!Ĉ!ĈĈ!": 2566,
      "Ĉ!Ĉ!Ĉ!Ĉ!!Ĉ!Ĉ!Ĉ!Ĉ!!Ĉ!Ĉ!Ĉďĉďĉďĉ%&'(Ĉ!Ĉ!ĈĈ!Ĉ!ĈĈĈĈ!Ĉ!ĈĈ!Ĉ!Ĉ!!Ĉ!%&'(ďĉ!ďĉďĉďĉďĉďĉ": 2567,
      "ćććĈĈ!ćĈ!Ĉ!ĈćĈĈĈćĈĈĈćĈĈćććććďĉďĉďĉĈ!ĈĈĈĈĈ!ćĈ!Ĉ!ĈćĈĈĈćĈĈĈĈĈ": 2568,
      "ćďĉ%&'(ććććććĈ!Ĉ!Ĉ!ćĈ!Ĉ!Ĉ!Ĉ!Ĉ!!ĈĈ!ĈććĈ!Ĉ!ĈĈ!ĈĈ!Ĉ!ćĈ!%&'(ďĉĈ!ćĈ!Ĉ!Ĉ!Ĉ!Ĉ!Ĉ!ćĈ!ćĈ!ćĈ!Ĉ!Ĉ!ćĈ!ĈĈĈćĈćĈćĈĈĈćĈ%&'(ďĉďĉ!ďĉ!!ďĉ!ďĉďĉďĉďĉ!": 2569,
      "&ď'(": 2570,
      "0000111": 2571,
      "%&'(!!!!!": 2572,
      "ćĈ!Ĉ!Ĉ!ĈĈ!Ĉ": 2573,
      "ďĉďĉďĉďĉ!!!!!!!!!ďĉ!!!!!!!!": 2574,
      "ďĉ!!!ďĉ%&'(ďĉďĉ!!ďĉ": 2575,
      "ďĉ!ďĉďĉ!!ďĉďĉďĉďĉďĉďĉďĉďĉ!": 2576,
      "&'(!!!!!!!!!!!!!!!!!!!!!!!!!!!!!!!!!!!!!!!!!!!!!!!!!!!!!!!!!!!!!!!!!!!!!!!!!!!!!!!!!!!!!!!!!!!!!!!!!!!!!!!!!!!!!!!!!!!!!!!!!!!!!!!!!!!!!!%!!!!!!!!!!!!!!!!!!!!!": 2577,
      "ďĉďĉďĉďĉďĉďĉďĉďĉďĉďĉćďĉďĉďĉďĉ!ććĈ!Ĉ!Ĉ!Ĉ!Ĉ": 2578,
      "%&'(ďĉďĉďĉďĉďĉďĉďĉďĉďĉćććć": 2579,
      "!!!!RTVa!!!SĂĄĆ!": 2580,
      "ďĈĉ": 2581,
      "%!ć&'(": 2582,
      "ďĦĉ": 2583,
      "ć%&'(ćććććĈ!Ĉ!Ĉ!ćĈ!Ĉ!Ĉ!Ĉ!Ĉ!!ĈĈ!ĈććĈ!Ĉ!ĈĈ!ĈĈ!Ĉ!ćĈ!%&'(ďĉĈ!ćĈ!Ĉ!Ĉ!Ĉ!Ĉ!Ĉ!ćĈ!ćĈ!ćĈ!Ĉ!Ĉ!ćĈ!ĈĈĈćĈćĈćĈĈĈćĈ": 2584,
      "ďĉďĉ!ďĉ!!ďĉ!": 2585,
      ")!)!!!!!!!!!!!!!!!!!!!": 2586,
      "Ĉ!Ĉ!Ĉ!!ĈĈ!ĈććĈ!Ĉ!ĈĈ!ĈĈ!Ĉ!ćĈ!": 2587,
      "%!!!&'(!!!!!!!!!!!!!!!!!!!!!!!!!!!!!!!!": 2588,
      "ććććĈ!Ĉ!ćĈ!ćĈ!Ĉ!ććĈ!ĈććĈ!Ĉ!ćĈ!ćĈ!Ĉ!Ĉ!ćĈĈ!ďĉďĉďĉďĉććĈ!Ĉ!ĈĈĈ!!ćĈ!Ĉ!Ĉ!Ĉ!": 2589,
      "%)": 2590,
      "ď!!!": 2591,
      "ďĉ!!%&'(": 2592,
      "ďĉďĉ!ďĉďĉďĉďĉďĉďĉ!": 2593,
      "Ĉ!Ĉ!ĈĈ!Ĉ!ćĈ!Ĉ!": 2594,
      "!!!!!!!!!!!ďĉ!ďĉďĉ!!!!!!!!!!!!!!!!!!!!!!!!!!!!ďĉ!!!!!!!!!!!!!!!!!!!!!!!!!!!!!!!!!!!!!!!!!!!!!!!!!!!!!!!!!": 2595,
      "&'(!!!!!!!!!!!!!!!!!!!!!!!!!!!!!!!!!!!!!!!!!!!!!!!!!!!!!!!!!!!!!!!!!!!!!!!!!!!!!!!!!!!!!!!!!!!!!!!!!!!!!!!!!!!!!!!!!": 2596,
      "ćďĉďĉćććććććĈ!Ĉ!Ĉ!ćĈ!Ĉ!Ĉ!": 2597,
      "ďĉććććććććććććĈ!ćĈ!Ĉ!Ĉ!Ĉ!Ĉ!Ĉ!": 2598,
      "32233": 2599,
      "ććĈ!Ĉ!Ĉ!Ĉ!Ĉďĉďĉďĉďĉďĉďĉďĉďĉ": 2600,
      "ććććĈćĈććĈ!ćĈ!Ĉ!Ĉ!Ĉ!ćĈ!Ĉ!ćĈ!ćĈ!Ĉ!ćĈ!ĈćĈ!ĈĈ!ĈćĈćĈćĈćććĈćĈćććĈćĈćĈ!ĈćĈćĈćĈ": 2601,
      "!!!!!!!!!!!ďĉćććĈ!Ĉ!Ĉ!Ĉ%&'(ďĉ!ďĉďĉďĉďĉ!!!!!!!!!!!!!!!!!!!!!Ĉ!Ĉ!Ĉ": 2602,
      "ć%&'(ďĉďĉććĈ!": 2603,
      "Ĉ!ćĈ!Ĉ!ĈćĈĈĈćĈĈĈĈĈĈ!ĈĈ!ĈĈĈćĈĈĈćĈ!ĈĈĈĈ!ĈĈ!Ĉ": 2604,
      "Ĕ!ďĉďĉďĉďĉ": 2605,
      "ćććĈ!Ĉ": 2606,
      "%&'(ďĉďĉďĉďĉďĉďĉďĉ!": 2607,
      "ćĈ!Ĉ!Ĉ!Ĉ!Ĉ": 2608,
      "ďĉ!!ďĉďĉďĉ%&'(": 2609,
      "ďĉďĉďĉ!!!!": 2610,
      "ďĉ!ďĉďĉďĉćććĈ!Ĉ!Ĉ!ćĈĈĈĈ!ćĈ!ĈĈ!ćĈ!ć": 2611,
      "ĈĈĈĈĈĈĈĈĈĈĈĈĈĈĈĈĈĈĈĈĈĈĈĈĈĈĈĈĈĈĈĈĈĈĈĈĈĈĈĈĈĈĈĈĈĈĈĈĈ!Ĉ!ĈĈĈĈĈ!Ĉ!Ĉ!ďĉĈ!Ĉ!ĈĈĈ!Ĉ!Ĉ!Ĉ!ĈĈĈĈĈ!ĈĈĈĈ!ĈĈĈĈĈĈĈĈĈĈĈĈ!Ĉ!ĈĈĈĈĈĈĈĈĈĈĈĈĈĈĈĈĈĈĈĈĈĈĈĈ!ĈĈĈĈĈĈĈĈĈĈĈĈĈĈĈĈĈĈĈĈĈĈĈ": 2612,
      "ĥ!Ĥ": 2613,
      ")!)!!!!!!!!!!!!!!!!!!!!!!!!!!!!!!!!!!!!!!!!!!!!!!!!!!!!!!!!!!!!!!!!!!!!!!!!!!!!!!!!!!%&'(!!!!!!!!!!!!!!!!!!!!!!)!!!!!!!!!!!!!!!!!!!!!!!!!!!!!!!!ďĉďĉďĉ!ďĉ!!": 2614,
      "ćĈ!ĈĈ!ĈĈ!ĈĈ!ĈĈĈĈĈĈĈĈĈĈĈĈĈĈĈĈĈĈĈĈĈĈĈĈĈĈĈĈ!Ĉ!Ĉ!Ĉ!ĈĈĈĈĈĈĈĈĈ!Čďĉ!ćććććććĈ!Ĉ!ććććććĈ!ćĈĈ%&'(ďĉďĉĈ!ĈĈďĉ!!)!)!!!!!!!!!!!!!!!%&'(!ďĉďĉďĉ!ďĉ!ďĉ!ďĉ!ďĉďĉ!!ďĉďĉďĉďĉďĉ!ďĉ!ďĉ%&'(ďĉďĉďĉďĉ": 2615,
      "ďĉ!ďĉ!ďĉďĉďĉďĉ!ďĉďĉ": 2616,
      "ďĉďĉďĉďĉ!!!!ďĉ!!ďĉďĉďĉďĉďĉďĉďĉďĉ!ćĈ!Čďĉďĉ!%&'(ďĉďĉďĉďĉďĉďĉďĉďĉďĉćććć": 2617,
      "Ĉ!%&'(Ĉ!Ĉ!Ĉ!Ĉ!ĈĈĈ!ĈĈĈćďĉďĉ!ďĉďĉć%&'(Ĉ!Ĉ!Ĉ!Ĉ!Ĉ!Ĉ!ĈĈĈ!ĈĈĈĈ!ĈĈ!Ĉ!Ĉ!Ĉ!ĈĈĈ!Ĉ!ĈĈ!ĈĈ!Ĉ!Ĉ!Ĉ!Ĉ!Ĉ!ĈĈĈĈ!ĈĈĈĈĈĈĈ!Ĉ!Ĉ!ĈĈ!Ĉ%&'(ďĉĈ!Ĉ!Ĉ!Ĉ!ĈĈĈ!Ĉ!Ĉ!ĈĈĈĈ!Ĉ!ĈĈ!Ĉ!Ĉ!ĈĈĈĈ": 2618,
      "Ĉ!ďĉďĉćĈ!ďĉ!%&'(ććĈ!Ĉ!Ĉ!Ĉ": 2619,
      "Ĉ!!!": 2620,
      "ďĉħ": 2621,
      "ćććĈ!ćĈ": 2622,
      "ćć%ć&'(": 2623,
      "ćĈ!ćĈ!ĈĈ!": 2624,
      "ďĉ!ďĉ%&'(!": 2625,
      "ďĉďĉ!!ďĉ%&'(": 2626,
      "Ĉ!Ĉ!Ĉ!Ĉ!Ĉ!Ĉ!Ĉ!ĈĈćĈ": 2627,
      "ďĉďĉďĉ%&'(ćććĈ!Ĉ!Ĉ!Ĉ!Ĉ!Ĉ!Ĉ!Ĉ!Ĉ!Ĉ!ćĈ!ćĈ!Ĉ!ćĈ!Ĉ!Ĉ!ćĈ!Ĉ!": 2628,
      "%!!!!!!!!!!!!!!!!!!!!!!!!!!!!!!!!!!!!!!!!": 2629,
      "ďĉ!ďĉ!ďĉ%&'(ďĉďĉ": 2630,
      ")!!!!!!!!!!!!!!!ďĉďĉďĉ)!)ďĉďĉďĉďĉďĉďĉ!!!": 2631,
      "ďĉ!!ďĉďĉďĉ)!)ďĉďĉďĉďĉďĉ!)!)!ďĉďĉ!!!)!)!!": 2632,
      "ćĈ!Ĉ!ćĈ!Ĉ!ćĈ!Ĉ!Ĉ!Ĉ!Ĉ!ćĈ!ćĈ!ćĈ!ćĈ!ćĈ!Ĉ!ćĈ!ćĈ!Ĉ!ćĈĈćĈ!ĈććĈ!ĈćĈćĈćĈ!ĈćĈĈďĉ%&'(ďĉďĉĈ!Ĉ!Ĉ!Ĉ!ćććĈ!": 2633,
      "ććĈ!Ĉ!Ĉ!ĈćĈ!Ĉ!ĈćĈććĈĈ!ĈĈĈďĉ!!!": 2634,
      "ďďĉ!ĉ": 2635,
      "ďĒ": 2636,
      "!!!!ďĉ!!!ćććććĈ!ĈĈ!ĈĈĈ!Ĉ!Ĉ!Ĉ!Ĉ!Ĉ!Ĉ!Ĉ!Ĉ!Ĉ!Ĉ!Ĉ!ćĈ!ďĉ!ďĉ!!!!!!!!!!!!!!!!": 2637,
      "%&'(!!!": 2638,
      "ĈĈĈĈĈćĈĈ": 2639,
      "ďĉ!!ďĉďĉ!!ďĉ!ďĉ!!ďĉďĉďĉ!ďĉ": 2640,
      "ďĉďĉ!ďĉďĉďĉďĉ!ďĉ!!": 2641,
      "ďĉďĉďĉ!ďĉďĉ!!": 2642,
      "ďĉ%&'(ďĉďĉďĉďĉ": 2643,
      "ďĉ!!!!!!!!!!!!!!!!!!!!!!!!!!!": 2644,
      "Ĉ!ĈĈćďĉďĉďĉďĉďĉďĉďĉ!ďĉ!ďĉďĉďĉ!ďĉ!ďĉďĉďĉĈ!Ĉ!Ĉ!Ĉ!ććĈćć": 2645,
      ">>>>": 2646,
      "ć!!!!!!!!!!!!!!!!!!!!!!!!!!!!!!!!!!!!!!!!!!!!!!!!!!!!!!!%&'(%&'(ďĉ!!ććććććĈććĈ!": 2647,
      "ďĉ!ďĉďĉďĉďĉďĉďĉďĉďĉ!!ďĉďĉďĉďĉ!!!!ďĉ!!": 2648,
      "%ććĈ": 2649,
      ")M": 2650,
      "Lďĉ!": 2651,
      "Ğğ": 2652,
      "ďĉ!!!!RTVa!!!SĂĄĆ!!!!R!!!S": 2653,
      "ďĉďĉďĉďĉďĉďĉďĉďĉ%&'(": 2654,
      "!!!!!!!!!%!&'(": 2655,
      "ď%&'(ĉďĉďĉďĉďĉ": 2656,
      "!!!!!!!!!!!!!!!!!!!!!!!!!!!!!!!!!!!!!!!!!!!!!!!!!!!!!!!!!!!!!!!!!!!!!!!!!!!!!!!!!!!!!!!!!!!!!!!!!!!!!!!!!!!!!!!!!!!!!!!!!!!!!!!!!!!!!!!!!!!!!!!!!!!!!!!!!!!!!!!!!!!!!!!!!!!!!!!!!!!!!!!!!!!!!!!!": 2657,
      "ćĈ!ďĉ!)ććććććććććććĈ!ććĈ!ćĈ!ćĈ!Ĉ!Ĉ!ćĈ!Ĉ!ćĈ!%&'(ďĉććĈ!Ĉ!Ĉ!Ĉ!ćĈ!Ĉ!!Ĉ!ćĈ!ćĈ!ććĈ!Ĉ!": 2658,
      "ććććĈ!ĈĈ%&'(ďĉ!!!!!!!!!!!": 2659,
      ")!!!!!!!!!!!!!!!!!!!!!!!!!!!!!!!!%&'(ďĉďĉďĉ!ďĉ!!ďĉďĉďĉďĉďĉďĉ!ďĉďĉ!!": 2660,
      "ćĈ!ĈĈ!ĈĈĈĈ!Ĉ!Ĉ!ĈĈĈĈĈĈĈĈ!ĈĈĈĈĈďĉ!ďĉďĉ!": 2661,
      "ćĈ!ććĈ!Ĉ!ĈćĈ!ĈććĈĈĈćĈĈĈćĈ!ĈććĈĈĈćĈĈććĈĈĈćĈ!ĈćĈ!ććĈĈ!Ĉ!ĈĈćĈ!Ĉ!ćććĈ!Ĉ!ćććĈĈćĈ!ĈĈĈ!!ćććć!!!!!!!!!!!!!!!!!!!!%&'(%&'(": 2662,
      "ďĉ!ďĉ!!!!!!ďĉďĉ!!!!ďĉďĉďĉććĈ!Ĉ!ćĈĈ!ćĈ!Ĉ!Ĉ!Ĉ!Ĉ!ĈĈĈćĈ!Ĉ!Ĉ!": 2663,
      "ćććććĈ!Ĉ!Ĉ!ćĈĈćĈďĉďĉĈ!Ĉďĉ!ďĉ!ďĉ%&'(ćććććććććććĈ!ćĈ!!ććĈ!ććĈ!ćĈ!Ĉ!Ĉ!Ĉ!Ĉ!Ĉ!ĈćĈĈĈĈ!ĈććĈ!ććććĈć!!": 2664,
      "ďĉ!!!!!!!!!!!!!!!!!!!!!!!!!!!!!!!!!!!!!!!!!!!!!!!!!!!!ďĉ!!!!!!!!!!!!ďĉďĉ%&'(ďĉďĉďĉ!!ďĉ!!!!!!!ďĉ!!ďĉďĉ!!!ďĉďĉďĉďĉďĉ!ďĉ": 2665,
      "ćććĈ!Ĉ!Ĉ!Ĉ!Ĉďĉ!ďĉ!ďĉ!Ĉ!Ĉ!Ĉ!Ĉ!Ĉ!Ĉ!Ĉ!Ĉ!ĈĈĈ!ĈĈ!ĈĈĈ!Ĉ!ĈĈ!Ĉ!Ĉ!": 2666,
      "!!!!!!!!!!!!!!!!!!!!!!!!!!!!!!!!!!!!!!!ďĉ!ďĉ!!!!!!!!!!!ďĉ!ďĉććććććĈććĈ!%&'(ďĉďĉďĉ!ććĈ!ćďĉďĉďĉďĉďĉďĉďĉďĉďĉ!!ďĉ%&'(ďĉďĉćććĈ!Ĉ!Ĉ!Ĉ!ĈĈĈĈĈĈĈĈĈĈ!ćĈ!Ĉ!ĈćĈĈćĈćĈĈĈćĈĈďĉĈ!ĈĈĈĈ": 2667,
      "ėĥĤē": 2668,
      "!!!!!!!!!!!!!!!!!!!!!!!!!!!!!!!!!!!!!": 2669,
      "ćĈ!ďĉďĉďĉďĉďĉďĉďĉďĉďĉďĉďĉďĉ": 2670,
      "ććććććĈ": 2671,
      "ďĉ!ďĉ!ďĉďĉďĉďĉ": 2672,
      "ďĉďĉďĉďĉďĉďĉďĉďĉďĉćććć": 2673,
      "%ď&'(ĉďĉďĉďĉ": 2674,
      "Ĉ!Ĉ!ĈĈĈ!ĈćĈ!": 2675,
      "ćććďĉ!!ďĉďĉďĉ!ďĉ!!!!!!!!!!!!!!!!!!!!!!!!!!!!!!!!!!!!!!!!!!!!!!!!!!!!": 2676,
      "ďĉ!%&'(!": 2677,
      "ďĉďĉďĉďĉďĉ%&'(ďĉďĉďĉ!": 2678,
      "ďĉďĉ!ďĉ!!ďĉ!ďĉďĉďĉďĉ!": 2679,
      "ďĉď%&'(ĉďĉ": 2680,
      "ďĉ!ďĉ!!!ďĉ!!!ćććĈćĈ!ćĈ!ĈĈ!Ĉ!ćĈĈĈĈĈĈĈĈĈĈĈĈĈ!ćĈ!ćĈĈĈĈ!Ĉ%&'(ďĉććďĉďĉ!!ďĉććĈ!ĈĈĈĈĈ!ćďĉďĉ": 2681,
      "ďĉ!!!!!ďĉ!)!)!!!!!!!!!!!!!!ďĉ!!!!!!!!!!!!!!!!!!!!!ďĉ!!!!!!!!!!!!!!ďĉďĉďĉďĉ": 2682,
      "ćďĉćććďĉ!!ďĉďĉďĉ!": 2683,
      "ćććććĈ!Ĉ!Ĉ!ćĈĈćĈďĉďĉććĈ!Ĉ!Ĉ!ćĈ!": 2684,
      "ćĈ!ĈćĈćĈćĈćććĈĈĈĈĈććĈĈććĈćććĈćĈćĈćĈćĈĈćĈĈćĈćĈćĈććĈĈćĈĈĈććĈĈććĈćććĈĈĈĈĈćĈĈćĈćĈĈćĈĈćĈĈĈĈĈćĈćĈĈćĈĈćĈćĈćĈććĈćĈćĈćĈćĈ!ćĈćĈćĈćĈćĈćĈćĈćĈćĈćĈćĈćĈććĈ!Ĉ!ććĈ!ććććĈćĈćĈćĈććććĈ!Ĉ!ććĈ!ĈććććĈćĈćĈćĈćĈćĈćĈćĈćĈćĈ": 2685,
      "ććĈ!ďĉ!ďĉ!!ćĈ!ďĉďĉďĉĈ!Ĉ!Ĉ!Ĉ!Ĉ!ćĈ!ĈĈĈĈćĈ!ćĈ!ć%&'(ďĉďĉďĉďĉ!ďĉ!ďĉďĉćĈ!Ĉ!Ĉ!ććĈ!ćĈ!Ĉ!Ĉ!ćĈ!Ĉ!ćĈ!ćĈ!ćĈ!ćĈćĈ!Ĉ!ĈĈćĈćĈĈĈĈĈĈĈĈĈĈĈĈ%&'(ďĉ!!ďĉďĉďĉďĉďĉďĉ!ďĉďĉ!ďĉďĉďĉ!!": 2686,
      "ďĉďĉďĉďĉďĉďĉR%&'(TVaďĉććĈ!ćććĈćććĈĈ!Ĉ!ćĈ!ććĈćĈ!ćĈ!!Č!!Č!ďĉ!ďĉĈ!Ĉ!ćĈ!Ĉ!ĈĈĈ": 2687,
      "ććĈ!Ĉ!Ĉ!Ĉ!Ĉ!Ĉ!ćĈćĈ!ććććććĈ!ćĈ!ććĈćććĈćććĈĈćĈćĈ!Ĉ!ćĈ!ĈćĈćĈćĈćĈ!Ĉ!ĈćĈ!Ĉ!ćĈĈĈććĈ!Ĉ!ććĈ!ćććĈćĈćĈćĈćĈĈćĈĈćĈćĈćĈćĈ!Ĉ!ĈćĈ!Ĉ!Ĉ!ććććĈćĈććĈ!ćĈ!Ĉ!Ĉ!Ĉ!ćĈ!Ĉ!ćĈ!ćĈ!Ĉ!ćĈ!ĈćĈ!ĈĈ!Ĉ": 2688,
      "ďĉ!ďĉďĉďĉďĉćććĈ!Ĉ!ććĈ!ćĈ!ćČďĉ!!!ďĉ!Ĉ!Ĉ!Ĉ!Ĉ!ĈćĈ!ĈĈ!ĈĈĈ": 2689,
      "Ĉ!Ĉ!Ĉ!Ĉ!Ĉ!ćĈ!ĈĈĈĈćĈ!ćĈ!ćďĉďĉďĉďĉ!ďĉ!ďĉďĉ": 2690,
      "Ĉ!Ĉ!ĈĈ!Ĉ!ćĈ!Ĉ!ĈĈĈĈĈ": 2691,
      "ćďĉ!ďĉďĉďĉďĉďĉďĉďĉ": 2692,
      "Ē!!!!": 2693,
      "ććććĈ!Ĉ": 2694,
      "ďĉďĉďĉďĉ%&'(ďĉďĉ": 2695,
      "ďĉ!ďĉ!ďĉďĉďĉ!": 2696,
      "2322": 2697,
      "ďďĉĉďĉďĉďĉďĉ": 2698,
      "ďĉďĉďĉďĉďĉďĉď%&'(ĉ": 2699,
      "ćććĈ!Ĉ!Ĉ!Ĉďĉ!ďĉďĉďĉďĉ!!!!!!!!!!!!!!!!!!!!!Ĉ!Ĉ!Ĉ": 2700,
      "ćďĉ!ďĉ!!!!!!!!!!!!!!!!!!!!!!!!!!!!!!!!!!!ćććććććććććĈ!Ĉ": 2701,
      "ćććĈ!Ĉ!Ĉ!Ĉ!Ĉ!Ĉ!ćććććĈ!ćĈĈďĉďĉ!!ďĉ!!!!!!!!!": 2702,
      "&'(!!!!!!!!!!!!!!!!!!!!!!!!!!!!!!!!!!!!!!!!!!!!!!!!!!!!!!!!!!!!!!!!!!!!!!!!!!!!!!!!!!!!!!!!!!!!!!!!!!!!!!!!!!!!!!!!!!!!!!!!!!!!!!!!!!!!!!!!%!!!!!!!!!!!!!": 2703,
      "&'(!!!!!!!!!!!!!!!!!!!!!!!!!!!!!!!!!!!!!!!!!!!!!!!!!!!!!!!!!!!!!!!!!!!!!!!!!!!!!!!!!!!!!!!!!!!!!!!!!!!!!!!!!!!!!!!!!!!!!!!!!!!!!!!!!!!!!!!!!%!": 2704,
      "ćććććĈ!Ĉ!Ĉ!Ĉ!Ĉ!Ĉ!ćĈ!Ĉ!Ĉ!ćĈ!Ĉ!ćĈ!Ĉ!Ĉ!ćĈ!Ĉ!ćĈ!ćĈ!ćĈ!ćĈ!Ĉ!Ĉ!Ĉćďĉ!!!!!!!!!": 2705,
      "ćććĈ!Ĉ!Ĉ!ćĈĈĈĈ!ćĈ!Ĉ": 2706,
      "&'(!!!!!!!!!!!!!!!!!!!!!!!!!!!!!!!!!!!!!!!!!!!!!!!!!!!!!!!!!!!!!!)!)!!!!!!!!!!!!!!!!!!!!!!!!!!!!!!!!!!!!!!!!!!!!!!!!!!!!!!!!!!!!!!!!!!!!!!!!!!!!!!!!": 2707,
      "&'(!!!!!!!!!!!!!!!!!!!!!!!!!!!!!!!!!!!!!!!!!!!!!!!!!!!!!!!!!!!!!!!!!!!!!!!!!!!!!!!!!!!!!!!!!!!!!!!!!!!!!!ććććććććĈ!ćććĈ!Ĉ!ćĈ!ďĉ": 2708,
      "ďĉďĉďĉďĉďĉ)!)ďĉďĉďĉćććĈ!Ĉ!Ĉ!ĈĈ!Ĉ!ćĈ!Ĉ!Ĉ!ĈćĈ!Ĉ!Ĉ!Ĉćďĉ!": 2709,
      "ďĉ!ďĉďĉďĉďĉ%&'(ďĉďĉďĉćďĉ!ďĉďĉďĉďĉ!!": 2710,
      "ććĈ!ĈďĉĈ!Ĉ!ĈĈĈĈĈĈĈĈĈĈĈĈĈĈĈĈĈĈĈĈĈĈĈĈ": 2711,
      "ďĉďĉďĉďĉďĉďĉďĉďĉďĉ%&'(ďĉďĉďĉĈ!Ĉ!Ĉ!Ĉ!ĈćĈĈĈ!ĈĈĈćĈćĈĈĈĈĈĈĈćĈĈĈĈĈĈćĈćĈ!ćĈĈ!ďĉ": 2712,
      "%&'(ďĉ!!ďĉďĉ!!ďĉ!ďĉ!!ďĉďĉďĉ!ďĉććĈ!": 2713,
      "&'(!!!!!!!!!!!!!!!ďĉ!!!!!!!!!!!!!!!!!!!!!!!!!!!!!!!!!!!!!!!!!!!!!!!!!!!!!!!!!!!!!!!!!!!!!!!!!!!!!!!!!!!!!!!!!!!!!!!!": 2714,
      "Lďĉ!K": 2715,
      "Ĉ!Ĉ!ĈĈĈ!ĈćĈ!ĈĈĈĈĈćĈĈ": 2716,
      "'7": 2717,
      "ĤĤ": 2718,
      "ďĉ%&ď'(ĉ": 2719,
      "ďĉďĉ!ďĉ!ďĉďĉďĉďĉ": 2720,
      "ďĉďĉďĉď%ĉ&'(": 2721,
      "ććĈćĈ!Ĉ!Ĉ!Ĉ!Ĉ!Ĉ!": 2722,
      ")!)!!!!!!!!!!": 2723,
      "ďĉďĉďĉ!ććĈ!ćďĉďĉďĉďĉ": 2724,
      "MMMMM": 2725,
      "ďĉ!ďĉ)))": 2726,
      "%&'(ďĉććĈ!Ĉ!ĈĈĈ!Ĉ!Ĉ!ĈĈćĈďĉ!!ďĉďĉ!!!)!)!!!!!!!!!!!!": 2727,
      "77'7": 2728,
      "ďĉďĉďĉ!!ďĉďĉďĉ": 2729,
      "ďĉććććĈ!ćĈ!Ĉ!": 2730,
      "ďĉ!!ďĉ!!!!": 2731,
      "ďĉďĉďĉďĉďĉďĉ%ď&'(ĉ": 2732,
      "777777'7": 2733,
      "Ĉ!Ĉ!ćĈĈćĈĈĈĈĈĈĈĈ": 2734,
      "ď!!ĉ": 2735,
      "&'(!!!!!!!!!!!!!!!!!!!!!!!!!!!!!!!!!!!!!!!!!!!!!!!!!!!!!!!!!!!!!!!!!!!!!!!!!!!!!!!!!!!!!!!!!!!!!!!!!!!!!!!!!!!!!!!!!!!!!!!!!!!!!!%!!!!!!!!!!!!!!!!!": 2736,
      ")!)!ďĉďĉ!!!)!)!!ďĉďĉďĉďĉďĉ!!ďĉ!": 2737,
      "Ĉ!Ĉďĉ!ďĉ!ďĉćććććććććććĈ!ćĈ!!ććĈ!ććĈ!ćĈ!Ĉ!Ĉ!Ĉ!Ĉ!Ĉ!ĈćĈĈĈĈ!ĈććĈ!ććććĈć!!": 2738,
      "!ďĉ!!!!!!!!!!!!!!ďĉďĉďĉďĉććććĈ!ćĈ!Ĉ!Ĉ!Ĉ!ćĈ!ĈĈćĈ!ćĈ!Ĉ!Ĉ!ćĈ!ćĈ!Ĉ!ćĈĈćĈ!Ĉ!ććĈ!ĈĈćĈćĈćĈ!Ĉ!ĈćĈĈďĉďĉ!ďĉ%&'(ďĉĈ!ďĉ!ďĉďĉďĉďĉďĉ!ďĉďĉďĉ!!)!)!!!!!!!!!!!!!!!!!!!!ďĉ!!!!!!!!!!!!!!!!!!!!!!!!!!!!!!!!!!!ďĉ!ďĉ": 2739,
      "ďĉďĉďĉďĉ!ďĉďĉ!!!!!!!!!!!!!!!!!!!!!!!!!!!ďĉ!ďĉ!!!!!!": 2740,
      "Ĉ!ĈĈĈ!ĈĈĈĈĈĈĈĈĈĈĈĈĈĈĈĈĈĈ!ďĉ!!ďĉ!ďĉ!!!ďĉďĉćĈ!ĈĈ!ĈĈĈĈ!Ĉ!Ĉ!ĈĈĈĈĈĈĈĈ!ĈĈĈĈĈďĉ!%&'(ďĉďĉ!ďĉ!ďĉďĉďĉ!ďĉ!ďĉ!!ďĉ": 2741,
      "ďĤĉ": 2742,
      "ćĈ!Ĉ!ćĈ!ćĈ!ćĈ!Ĉ!ććććĈ!ććĈ!ć!%&'(ďĉććĈ!Ĉ!ĈĈĈ!Ĉ!Ĉ!ĈĈćĈďĉ!!ďĉďĉ!!!)!)!!!!!!!!!!!!": 2743,
      "00001111": 2744,
      "ďĉďĉ%!&'(": 2745,
      "ďĉďĉ%&'ď(ĉ": 2746,
      "%&'(ďĉďĉďĉďĉďĉďĉ": 2747,
      ")!)ďĉďĉďĉćććĈ!Ĉ!Ĉ!ĈĈ!Ĉ!ćĈ!Ĉ!Ĉ!ĈćĈ!Ĉ!Ĉ!Ĉćďĉ!ććććććććĈ!Ĉ!ćĈĈćĈ!ĈĈćĈ!ćĈĈćĈ!Ĉ!ć%&'(ďĉďĉćććĈ!ćĈ!Ĉ!Ĉ!ćĈ!Ĉ!ćĈ!Ĉ!Ĉ!Ĉ!ćĈ!Ĉ!ćĈ!ćĈ!ćĈ!ćĈ!Ĉ!Ĉ!Ĉ!Ĉ!Ĉ!Ĉ!Ĉ!Ĉ!ĈĈ!": 2748,
      "%!&Ĉ'(!": 2749,
      "))ħ!": 2750,
      "ďĉ!ďĉďĉĈ!Ĉ!": 2751,
      "!!!!!!!!!ććććĈ!ĈĈ%&'(ďĉ!!!!!!!!!!!": 2752,
      "%!&'(!!!!!!!!!!!!!!!!!!!!!!!!!!!!!!!!!!!!!!!!!!!": 2753,
      "ćĈ!Ĉ!ĈćĈ!Ĉ!ćĈ!ććĈĈĈĈĈćĈćĈďĉćććććĈ!ĈĈćĈĈćĈ": 2754,
      "ďĉ!ďĉ!ďĉ!ďĉ!ďĉ!ďĉćććĈ!Ĉ!Ĉ!Ĉ!Ĉ!Ĉ!ćĈ!Ĉ!Ĉ!Ĉ!ćĈ!Ĉ!Ĉ!Ĉćć": 2755,
      "ććĈ!ćććĈ!ćććĈ!ćććĈ!Ĉ!Ĉ!ďĉćććĈ!ćďĉďĉďĉďĉďĉ!!ďĉ!!!!": 2756,
      "ďĉďĉďĉďĉďĉďĉďĉďĉďĉďĉ%&'(ćććĈ!Ĉ!Ĉ!ćĈ!Ĉ!Ĉ!Ĉ!Ĉ!!": 2757,
      "ďĉďĉďĉďĉďĉďĉďĉďĉ!!!ďĉďĉďĉďĉććĈ!Ĉ!Ĉ!Ĉ!Ĉ!Ĉ!ććĈ!ć%&'(": 2758,
      "Ĉ!Ĉ!Ĉ!Ĉ!ĈĈ!Ĉ!Ĉ!Ĉ!": 2759,
      "&'(!!!!!!!!!!!!!!!!!!!!!!!!!!!!!!!!!!!!!!!!!!!!!!!!!!!!!!!!!!!!!!!!!!!!!": 2760,
      "ďĉďĉďĉ!ďĉ%&'(": 2761,
      "ďĉ%&'(Ĉ!ćĈ!Ĉ!Ĉ!Ĉ!Ĉ!Ĉ!ćĈ!ćĈ!ćĈ!Ĉ!Ĉ!ćĈ!ĈĈĈćĈćĈćĈĈĈćĈ": 2762,
      "%&'(%&'(%&'(%&'(%&'(%&'(%&'(%&'(%&'(%&'(%&'(%&'(%&'(%&'(%&'(%&'(%&'(%&'(%&'(%&'(%&'(%&'(%&'(%&'(": 2763,
      "ďĉĈ!Ĉ!Ĉ!Ĉ!ĈĈĈĈĈĈĈĈĈĈĈĈĈĈ!Ĉ!Ĉ!Ĉ!Ĉ!ĈĈĈ!ĈĈ": 2764,
      "ćĈĈĈĈĈĈĈĈććĈćĈĈ!ććĈĈĈĈćĈĈĈĈćĈĈĈĈĈĈĈĈććĈćďĉ!": 2765,
      "ďĉďĉďĉďĉ!ďĉďĉ!!%!&'(": 2766,
      "ďĉ!ďĉďĉďĉďĉďĉďĉ!!ďĉ!ďĉďĉďĉďĉ!!": 2767,
      "&'(!!!!!!!!!!!!!!!!!!!!!!!!!!!!!!!!!!!!!!!!!!!!!!!!!!!!!!!!!!!!!!!!!!!!!!!!!!!!!!!!!!!!!!!!!!!!!!!!!!!!!!!!!!!!!!!!!!!!!!!!!!!!!!!!!!!!!!!!!!!%!!!!!!!!": 2768,
      "ďĉďĉďĉĈ!Ĉ!Ĉ!Ĉ!Ĉ!ćĈ!ĈĈĈĈćĈ!ćĈ!ćďĉďĉďĉďĉ!": 2769,
      "ććććĈ!ćĈ!Ĉ!Ĉ!Ĉ!Ĉ!Ĉ!Ĉ!Ĉ!Ĉ!!ćĈĈĈĈ!Ĉ!ćĈ!Ĉ!ćĈĈĈćĈ!ĈĈĈĈĈ!Ĉ!ćĈ!ććĈ!ćĈ!ććĈ!ćĈććĈ!ćĈ!ćĈ!ĈćĈĈć%&'(ďĉĈ!ćĈ!Ĉ!Ĉ!ćĈ!Ĉ!Ĉ!ĈĈ!ćĈ!": 2770,
      "ććĈĈćĈĈĈććĈĈććĈćććĈĈĈĈĈćĈĈćĈćĈĈćĈĈćĈĈĈĈĈćĈćĈĈćĈĈćĈćĈćĈććĈćĈćĈćĈćĈ!ćĈćĈćĈćĈćĈćĈćĈćĈćĈćĈćĈćĈććĈ!Ĉ!ććĈ!ććććĈćĈćĈćĈććććĈ!Ĉ!ććĈ!ĈććććĈćĈćĈćĈćĈćĈćĈćĈćĈćĈć": 2771,
      "ďĉďĉďĉ!ďĉďĉ!ďĉďĉ!!ďĉ!!ďĉďĉćććĈ!Ĉ!Ĉ!Ĉ!Ĉ!ĈćĈĈ!Ĉ!ĈĈĈćĈćĈ!ććĈ!!%&'(ďĉ!!ďĉďĉďĉ": 2772,
      "ďĉ!ďĉ!!!!ďĉďĉ!!ďĉ!!ďĉ!!!!!!)!!!!!!!!)!": 2773,
      "ďĉďĉćććĈ!Ĉ!Ĉ!Ĉ!Ĉ!Ĉ!ćććććĈ!ćĈĈ%&'(ďĉďĉ!!ďĉ!!!!!!!!!ďĉ!!!!!!!!!!!)!!!!!!!!!!!!!!!ďĉďĉ%&'(ďĉ)!)ďĉďĉďĉďĉďĉďĉ!!!ďĉ!!ďĉ!ďĉ!ććĈ!Ĉ!Ĉ!ććĈ!Ĉ!Ĉ!ĈĈ!Ĉ!!ćĈ!Ĉ!Ĉ!Ĉ!ćĈ!ććĈ!": 2774,
      "ć%ď&'(ĉ": 2775,
      "Ĉĉ": 2776,
      "ĐĐ": 2777,
      "!!)": 2778,
      "ďĉ)": 2779,
      "Ĉ!ćĈ!Ĉ!Ĉ!": 2780,
      "ćĈ!ćĈ!Ĉ!ĈĈ!": 2781,
      "ďĉďĉ!!ďĉďĉďĉďĉďĉďĉďĉďĉ!": 2782,
      "ćďĉď%&'(ĉ": 2783,
      "'(3323": 2784,
      "ďĉďĉďĉ%&'(ďĉďĉďĉďĉďĉďĉďĉďĉďĉďĉćďĉďĉďĉďĉ!ććĈ!Ĉ!Ĉ!Ĉ!Ĉ": 2785,
      "ćĈ!ćďĉďĉďĉďĉďĉ!!ďĉ!!!!ďĉďĉďĉ!ďĉďĉ!": 2786,
      "%Ĉ&'(!Ĉ!Ĉ!": 2787,
      "ćĈ!ďĉ!ďĉďĉďĉ%&'(ďĉďĉďĉďĉďĉďĉďĉďĉďĉďĉćďĉďĉďĉďĉ!ććĈ!Ĉ!Ĉ!Ĉ!Ĉ": 2788,
      "ďĉďĉ!ďĉďĉ%&'(ďĉďĉ!": 2789,
      "ććććććććććććĈ!ćĈ!ĈĈ!ćĈ!ĈćććććććĈćĈ!Ĉ!ćĈ!ćĈ!Ĉ!ćĈ!Ĉ!ćĈ!ĈćĈĈćĈĈćĈĈćĈćĈĈćĈĈ": 2790,
      "&'(!!!!!!!!!!!!!!!!!!!!!!!!!!!!!!!!!!!!!!!!!!!!!!!!!!!!!!!!!!!!!!!!!!!!!!!!!!!!!!!!!!!!!!!!!!!!!!!!!!!!!!!!!!!!!!!!!!!!!!!!!!!!!!!!!!!!!!!%!!!!!!!!!!!": 2791,
      "ććĈ!ćĈ!ććĈ!ćĈ!ćĈ!ććĈćĈ!Ĉ!Ĉ!Ĉ!ćĈ!ććĈĈĈĈĈĈćĈ!ććĈćĈ!ćĈ!Ĉ!ćĈ!ććĈććĈ!!!!!!ďĉćć%&'(ďĉďĉďĉ": 2792,
      "ććććĈ!Ĉ!Ĉ!Ĉ!Ĉ!ĈĈ!Ĉ!ćďĉ!!": 2793,
      "ćďĉ!!!!ćďĉ!ćććććďĉ!ććććĈćććĈ!Ĉ!ĈćĈ!ć": 2794,
      "ćĈćďĉďĉďĉ!!!ďĉďĉďĉďĉ": 2795,
      "&'(!!!!!!!!!!!!!!!!!!!!!!!!!!!!!!!!!!!!!!!!!!!!!!!!!!!!!!!!!!!!!!!!!!!!!!!!!!!!!!!!!!!!!!!!!!!!!!!!!!!!!!!!!!!!!!!!!!!!!!!!!!!!!!!!!!!!!!!!!!!!!!!!!%!!!!!!!!!!!!!!!!!!!!!!!!!!!!!!!!!!!!": 2796,
      "!!!!!!!ďĉ!!ďĉďĉ!!!ďĉďĉďĉďĉďĉ!ďĉććĈ!Ĉ!Ĉ!Ĉ!Ĉ!Ĉ!Ĉ!ĈĈćĈ%&'(ďĉďĉ": 2797,
      "ććĈ!Ĉ!ĈĈĈ!!ćĈ!Ĉ!Ĉ!Ĉ!ćďĉďĉ!!ďĉďĉďĉďĉććććĈ!ĈĈ!ćĈ!ĈĈ!Ĉ!Ĉ!ćĈ!ćĈ%&'(ďĉďĉďĉďĉ": 2798,
      "Ĉ!Ĉ!ćĈĈćĈĈĈĈĈĈĈĈĈ!Ĉ!ĈĈĈ!ĈćĈ!ĈĈĈĈĈćĈĈ": 2799,
      "ćħ": 2800,
      "ćďĉďĉďĉďĉďĉďĉ": 2801,
      "'(;": 2802,
      "ďĉ!!Ĉ!ĈćĈ!Ĉ!Ĉ!ĈćĈ!ććďĉ!Ĉ!ĈćĈ!Ĉ!Ĉ!ĈćĈ!ććďĉďĉ!ďĉďĉ%&'(ćĈ!Ĉ!Ĉ!Ĉ!Ĉ!Ĉ": 2803,
      "ćććĈ!Ĉ!Ĉ!Ĉ!Ĉ!%&'(": 2804,
      "&'(!!!!!!!!!!!!!!!!!!!!!!!!!!!!!!!!!!!!!!!!!!!!!!!!!!!!!!!!!!!!!!!!!!!!!!!!!!!!!!!!!!!!!!!!!!!!!!!!!!!!!!!!!!!!!!!!!!!!!!!!!!!!!!!!!!!!!!!!!!!!!!!!!!!!!!!!!!!!!!!!!!!!!!!": 2805,
      "ďĉ!!!!!!!!!!!!!!!!!!!!!!": 2806,
      "ďĉ!ďĉďĉďĉ!ďĉ!ďĉďĉďĉĈ!Ĉ!Ĉ!Ĉ!ććĈćć": 2807,
      "&'(!!!!!!!!!!!!!!!!!!!!!!!!!!!!!!!!!!!!!!!!!!!!!!!!!!!!!!!!!!!!!!!!!!!!!!!!!!!!!!!!!!!!!!!!!!!!!!!!!!!!!!!!!!!!!!!!!!!!!!!!!!!!!!!!!!!!!!!!!!!!!!!!!!": 2808,
      "ćĈ!ĈćĈĈćĈĈĈĈĈĈĈ": 2809,
      "Ĉ!Ĉ!Ĉ!ĈĈĈĈĈĈĈĈĈĈ!ĈĈĈ!ĈĈ!ĈĈĈĈ!ĈĈ!Ĉ%&'(ďĉĈ!ĈĈĈĈĈĈĈ": 2810,
      "ďĉďĉďĉďĉďĉďĉ%&'(Ĉ!Ĉ!Ĉ!Ĉ!Ĉ!Ĉ!ćďĉďĉďĉćĈ!Ĉ!Ĉ!Ĉ!": 2811,
      "!!!ďĉďĉďĉďĉććĈ!Ĉ!Ĉ!Ĉ!Ĉ!Ĉ!ććĈ!ć": 2812,
      "!!!!!!!!!!!!!!!!!!!%&'(": 2813,
      "!LK!LK!LK!LK!LK!LK!LK!LK!LK!LK!LK!LK!LK!LK!LK!LK!LK!LK!LK!LK!LK!LK!LK!LK!LK!LK!LK!LK!LK!LK!LK!LK": 2814,
      "ďĉďĉďĉďĉ!!!!ďĉ!!ďĉďĉďĉďĉďĉďĉďĉďĉ!ćĈ!Č": 2815,
      "ďĉćĈ!ćĈ!Ĉ!ććĈ!Ĉ!Ĉ!Ĉ!ćĈĈĈ!Ĉ!ćĈ!Ĉ!ĈĈĈ!ĈĈĈććĈ!ćĈćĈĈĈ!ĈćĈĈĈĈĈĈĈĈććĈćĈĈ!ććĈĈĈĈćĈĈĈĈćĈĈĈĈĈĈĈĈććĈć%&'(ďĉ!ććĈ!ćĈ!Ĉ!ĈĈĈ!ĈĈĈććĈ!ĈĈ!ĈĈĈĈ!ĈĈ!ĈĈĈĈďĉďĉďĉ!!!!!!!!!!ďĉďĉďĉ%&'(ďĉďĉďĉĈ!Ĉ!Ĉ!Ĉ!Ĉ!Ĉ!ćďĉďĉďĉćĈ!Ĉ!Ĉ!Ĉ!": 2816,
      "ĈćĈĈćĈćĈĈĈćĈĈďĉĈ!Ĉ!ĈĈĈĈ!Ĉ!Ĉ!ĈĈĈĈĈĈĈĈĈĈ!ĈĈĈ!ĈĈ!ĈĈĈĈ!ĈĈ!Ĉ": 2817,
      "Ĉ!Ĉ!Ĉ!ĈĈĈĈĈĈĈĈĈĈ!ĈĈĈ!ĈĈ!ĈĈĈĈ!ĈĈ!Ĉ%&'(ďĉĈ!ĈĈĈĈĈĈĈĈ!ĈĈĈ": 2818,
      "!!!!!!%!!!!!!!!!!": 2819,
      "%!&'(!!!!!!!!!!!!!!!!!!!!!!!!!!!!!!!!!!!!!!!!!!!!!!!!!!!!!!!!!!!!!!!!!!!!!!!!!!!!!!!!": 2820,
      "ďĉďĉďĉ!!ďĉďĉ!": 2821,
      "ďĉďĉďĉ%&'(ďĉ!ďĉďĉ": 2822,
      "ďĉ!!!!!!!!!!!!!!!!!!!!": 2823,
      "ďĉďĉďĉďĉďĉďĉ!!!!!!!!!!!ďĉ!!!!!!!!!!!!!!!!!!!!!!!!!!!!!!!!!!!!!!!!!!!!!!!!!!!!!!!!!!!!!!!!": 2824,
      "ďĉďĉďĉďĉďĉďĉďĉĈ!Ĉ!Ĉ!Ĉ!Ĉ!Ĉ!Ĉ!ĈĈĈĈĈĈĈ!ĈĈĈĈĈĈĈĈĈĈĈĈĈĈĈĈĈĈĈĈ!": 2825,
      "ďĉďĉďĉďĉďĉďĉďĉ!ďĉ!ďĉďĉďĉďĉ": 2826,
      "ďĉďĉćććććďĉ!": 2827,
      "!ďĉ!!!!": 2828,
      "ďĉďĉďĉďĉďĉďĉďĉďĉ!ćĈ!Čďĉďĉ!": 2829,
      "ďĉďĉďĉ!ďĉ!!!!!!!!!!!!!": 2830,
      "Ĉ!!Ĉ!!": 2831,
      "ćććĈ!Ĉ!Ĉ!Ĉ!Ĉ!ĈćĈĈ!Ĉ!ĈĈĈćĈćĈ!ććĈ!!ďĉ!!ďĉďĉďĉ": 2832,
      "ďĉ!!ďĉ!!!!!!!!)!!!!!!!!)!)!)!!!!!!!!!!!!!!!!!!!!!!!!!!!!!!!!!!!!!!!!!!!!!!!!!!!!!!!!!!!!!!!!!!!!!!!!!!!!!!!!!!!!!!!!!!!!!!!!!!!!!!!!!!": 2833,
      "Ĉ!ĈĈ!ĈĈĈćĈĈĈćĈ!ĈĈĈĈ!ĈĈ!Ĉďĉďĉďĉďĉďĉďĉ!%&'(%&'(Ĉ!Ĉ!ĈĈĈĈĈĈćĈ!ĈĈĈ%&'(ďĉ%&'(%&'(%&'(ďĉďĉďĉďĉ!ďĉďĉ%!!!&'(ďĉďĉďĉ!!ďĉ!ććĈ!Ĉ!Ĉ!Ĉ!Ĉ!ďĉďĉ!ďĉćććććĈ!Ĉ!Ĉ!Ĉ!Ĉ!Ĉ!ďĉ!%&'(ďĉ!!ďĉ!ďĉďĉ!": 2834,
      "ćĈ!Ĉ!ćĈ!ćĈ!ćĈ!Ĉ!ććććĈ!ććĈ!ć!ďĉććĈ!Ĉ!ĈĈĈ!Ĉ!Ĉ!ĈĈćĈ": 2835,
      "ćďĉďĉďĉďĉ!ććĈ!Ĉ!Ĉ!Ĉ!Ĉďĉďĉďĉďĉďĉďĉďĉďĉ": 2836,
      "ćĈ!ćĈ!Ĉ!ćĈĈ!Ĉ!Ĉ!Ĉ!ćĈćĈĈćĈ!Ĉ!Ĉ!ćĈ!Ĉ!Ĉ!Ĉ!ćĈ!Ĉ!%&'(ďĉćĈ!ćĈ!Ĉ!ććĈ!Ĉ!Ĉ!Ĉ!ćĈĈĈ!Ĉ!ćĈ!Ĉ!ĈĈĈ!ĈĈĈććĈ!ćĈćĈĈĈ!ĈćĈĈĈĈĈĈĈĈććĈćĈĈ!ććĈĈĈĈćĈĈĈĈćĈĈĈĈĈĈĈĈććĈćďĉ!": 2837,
      "ććĈ!ďĉ!ďĉ!!ćĈ!%&'(ďĉďĉďĉ": 2838,
      "ďĉ%&'(ďĉďĉďĉďĉďĉďĉ!ďĉďĉďĉďĉ!!ďĉďĉďĉďĉďĉďĉ!": 2839,
      "ććććććććććććććććććććććććććĈ!ćććĈ!Ĉ!ćĈ!Ĉ!ćĈ!ćĈ!ćĈ!ĈĈ!Ĉ!ćĈ!ćĈ!Ĉ!Ĉ!": 2840,
      "ďĉ!!!!!!!!!!!!!!!!!!!!!!!!!!!!!!!!!!!!!!!!!!!!!!!!!!!!!!!!!!!!!!!%&'(%&'(": 2841,
      "!!!!!!!!!!!!ďĉ!!ďĉ!!!!!!!!!!!ďĉďĉ%&'(ďĉďĉćĈ!ĈĈ!Ĉ!ďĉ!ďĉ!ďĉďĉďĉ!!": 2842,
      "ďĉ!ďĉ!!!!!!!!!!!ďĉ!!ďĉďĉďĉďĉďĉďĉ!ďĉďĉďĉďĉďĉďĉ%&'(ďĉďĉ!ďĉďĉďĉćććććĈ!Ĉ!Ĉ!ćĈĈćĈ%&'(ďĉďĉććĈ!Ĉ!Ĉ!ćĈ!ďĉďĉďĉďĉďĉďĉ": 2843,
      "ďKĉ": 2844,
      "ďĉĈ!Ĉ!Ĉ!Ĉ!ĈĈĈĈĈĈĈĈĈĈĈĈĈĈ!Ĉ!Ĉ!Ĉ!Ĉ!ĈĈĈ!ĈĈ%&'(ďĉ!ďĉďĉďĉćĈ!Ĉ!Ĉ!Ĉ!ĈĈ!Ĉ!Ĉ!Ĉ!": 2845,
      "!!!!!!!!!!!!!!!!!!!%&'(ďĉ!ďĉďĉ!!!!!!!!!!!!!!!!!!!!!!!!!!!!ďĉ!!!!!!!!!!!!!!!!!!!!!!!!!!!!!!!!!!!!!!!!!!!!!!!!!!!!!!!!!ďĉ!!!!!!!!!!!!!!!": 2846,
      "ďē": 2847,
      "ďĉ%&'ď(ĉ": 2848,
      "%&'(!!!!": 2849,
      "%&'(ććććĈ!ćĈ!Ĉ!Ĉ!ĈĈ!Ĉ!Ĉ!ĈććĈ!ćďĉććććććććĈ!Ĉ!Ĉ!Ĉ!ćĈĈĈĈ!Ĉ!ćĈ!": 2850,
      "ć%&'(ďĉďĉďĉďĉ": 2851,
      "ć%&'(ďĉďĉ!!ćććĈ!Ĉ!ćĈ!Ĉ!ĈĈĈĈ!ććĈďĉďĉććććććććććććććĈ!ććĈ!Ĉ!Ĉ!ĈćĈ!Ĉ!ĈćĈććĈĈ!ĈĈĈ%&'(ďĉ!!!ďĉďĉďĉďĉďĉďĉďĉďĉ!": 2852,
      ")!)!!!!!!!!!!!!!!!!!!!!!!!!!!!!!!!!!!!!!!!!!!!!!!!!!!!!!!!!!!!!!!!!!!!!!!!!!!!!!!": 2853,
      "MMMMMMMMMMMMMMMMMMMMMMMM": 2854,
      "MMMMMMMMMMMMMMMMMMMMMMMMMMMM": 2855,
      "ďĉ!!!!!!!!!!!!!!!!!!!!!!!!!!!!!!!!!!!!": 2856,
      "&'(!!!!!!!!!!!!!!!!!!!!!!!!!!!!!!!!!!!!!!!!!!!!!!!!!!": 2857,
      "ďĉ!ďĉďĉďĉĈ!ĈĈćďĉďĉďĉďĉďĉďĉďĉ!ďĉ!ďĉďĉďĉ!": 2858,
      "ďĉ!ďĉďĉďĉďĉďĉďĉďĉďĉ%&'(ććććĈ!ćĈ!Ĉ!Ĉ!ĈĈ!Ĉ!Ĉ!ĈććĈ!ćďĉććććććććĈ!Ĉ!Ĉ!Ĉ!ćĈĈĈĈ!Ĉ!ćĈ!": 2859,
      "ćĈ!Ĉ!ĈćĈ!ć%&'(ďĉďĉ!!ćććĈ!Ĉ!ćĈ!Ĉ!ĈĈĈĈ!ććĈďĉďĉććććććććććććććĈ!ććĈ!Ĉ!Ĉ!ĈćĈ!Ĉ!ĈćĈććĈĈ!ĈĈĈ%&'(ďĉ!!!ďĉďĉďĉďĉďĉďĉďĉďĉ!": 2860,
      "&'(!!!!!!!!!!!!!!!!!!!!!!!!!!!!!!!!!!": 2861,
      "ćććĈ!Ĉ!Ĉ!ćĈ!Ĉ!Ĉć%&'(ďĉďĉďĉďĉ": 2862,
      "!!!!!!!!!!!!!!!!!!!!!!!!!!!!!!!!!!!!!!!ďĉ!ďĉ!!!!!!!!!!!ďĉ!ďĉ": 2863,
      "'7777777(788888888,-%&+": 2864,
      "ćďĉďĉććĈ!ďĉďĉďĉďĉ!": 2865,
      "Ĉ!Ĉ!ćĈ!Ĉďĉ!!!!!!!!!": 2866,
      "ć%&'(!!!!!!!!!!!!!!!!!!!!!!!!!!!!!!!!!!!!!!!!!!!!!!!!!!!!!!!%&'(%&'(ďĉ!!ććććććĈććĈ!ďĉćĈ!Ĉ!Č": 2867,
      "ćďĉ#$ćĈ!ćć%&'(ďĉďĉ!!!!ďĉ!!)ďĉďĉ!ďĉďĉ%&'(!ďĉďĉďĉ!!ďĉďĉćĈ!Čďĉďĉďĉ!ďĉďĉ!ďĉďĉďĉ!ďĉďĉ!ďĉďĉďĉĈ!Ĉ!Ĉ!Ĉ!!Ĉ!Ĉ!Ĉ!Ĉ!!Ĉ!Ĉ!Ĉ%&'(": 2868,
      "%Ĉ!Ĉ": 2869,
      ")ĉ": 2870,
      "EFD": 2871,
      "ďĈ!ćĉ": 2872,
      "Ħē": 2873,
      "ďĉďĉććć": 2874,
      "%&'(!!!!!!!!!!!!!!!": 2875,
      "%&'(ćĈ!Ĉ!ćĈ!ćĈ!ćĈ!Ĉ!ććććĈ!ććĈ!ć!ďĉććĈ!Ĉ!ĈĈĈ!Ĉ!Ĉ!ĈĈćĈďĉ!!ďĉďĉ!!!)!)": 2876,
      "%&'(ďĉ!!ďĉ!ďĉďĉ!ďĉ!ďĉďĉďĉ!": 2877,
      "ćĈ!ćĈ!ćĈ!": 2878,
      ")!)!!!!!!!!!ććććĈ!ĈĈ": 2879,
      "ďĉ!ďĉ%&'(ďĉďĉ": 2880,
      "%&'(ĉĉ": 2881,
      "ďĉ!ďĉ!ďĉďĉ!!ďĉ!ďĉ!!": 2882,
      "ć%&'(ďĉ!ďĉďĉ!!": 2883,
      "Ĉ!ĈĈ!ćĈ!ćĈ!": 2884,
      "ĈĈĈĈĈĈĈĈĈĈĈĈĈ": 2885,
      "ďĉ!!!!!!!!!!!!!!!!!!!!!!!!!!!!!!!!!!!!!!!": 2886,
      "ďĉ!ďĉďĉďĉ!!!": 2887,
      "L!LKLLLL": 2888,
      "&'(!!!!!!!!!!!!!!!!!!!!!!!!!!!!!!!!!!!!!!!!!!!!!!!!!!!!!!!!!!!!!!!!!!!!!!!!!!!!!!!!!!!!!!!!!!!!!!!!!!!!!!!!!!!!!!!!!!!!!!!!!!!!!!!!!!!!!!!!!%!!!!!!!!!": 2889,
      "0011010101'(3": 2890,
      "ćććďĉććććććĈ!ććČďĉďĉďĉďĉďĉďĉďĉďĉ!!!": 2891,
      "ďĉ!ďĉĈ!Ĉ!ćĈ!Ĉ!ĈĈĈďĉ!ďĉ!!!SĂĄĆ!!ďĉ!!!!!!RTVa!!!SĂĄĆ!!!!R!!!S": 2892,
      "ćććććĈ!ĈĈćĈĈćĈďĉććććććććĈ!Ĉ!Ĉ!ĈćĈĈ!Ĉ!ĈćĈĈ!ćĈ!Ĉ!ĈĈĈĈćĈĈĈĈćĈĈćĈĈĈĈĈĈćĈĈĈĈćĈĈćĈĈćĈ!ćććĈ!ćć%&'(ďĉďĉ!!!!ďĉďĉ!!!!!!!!!!!!!!!!!!!!!": 2893,
      "ďĉ!ďĉďĉ!ďĉćććĈ!Ĉ!Ĉ!Ĉ!%&'(Ĉ!Ĉ!ćććććĈ!ćĈĈďĉďĉ!!!!!!!!!!!ďĉćććĈ!Ĉ!Ĉ!Ĉ%&'(ďĉ!ďĉďĉďĉďĉ!!!!!!!!!!!!!!!!!!!!!Ĉ!Ĉ!Ĉ": 2894,
      "ďĉćććććĈ!Ĉ!Ĉ!ćĈĈćĈ%&'(ďĉďĉ": 2895,
      "ďĉ!!!!!!!!!!!!!!!!!ďĉ!!!!!!!!!ćććĈ!Ĉ!Ĉ!Ĉ!Ĉ!Ĉ!ĈĈĈĈĈĈĈĈĈĈĈĈ": 2896,
      "!!!!RTVa!!!S": 2897,
      "ćĈ!ććĈ!Ĉ!ĈćĈ!ĈććĈĈĈćĈĈĈćĈ!ĈććĈĈĈćĈĈććĈĈĈćĈ!ĈćĈ!ććĈĈ!Ĉ!ĈĈćĈ!Ĉ!ćććĈ!Ĉ!ćććĈĈćĈ!ĈĈĈ!!ćććć!!!!!!!!!!!!!!!!!!!!%&'(%&'(ďĉďĉďĉ%&'(ćććĈ!Ĉ!Ĉ!Ĉ!Ĉ!Ĉ!Ĉ!Ĉ!Ĉ!Ĉ!ćĈ!ćĈ!Ĉ!ćĈ!Ĉ!Ĉ!ćĈ!Ĉ!": 2898,
      "ćďĉ!ďĉ!!!!!!!!!!!!!!!!!!!!!!!!!!!!!!!!!!!ćććććććććććĈ!ĈćĈ!Ĉ!ĈćĈ!ć%&'(ďĉďĉ!!ćććĈ!Ĉ!ćĈ!Ĉ!ĈĈĈĈ!ććĈďĉďĉććććććććććććććĈ!ććĈ!Ĉ!Ĉ!ĈćĈ!Ĉ!ĈćĈććĈĈ!ĈĈĈ%&'(ďĉ!!!ďĉďĉďĉďĉďĉďĉďĉďĉ!": 2899,
      "322222222222222222222222222222222": 2900,
      "Ėďĉ": 2901,
      "ďĉ!Ħ": 2902,
      "ďĉďĉďĉ!!!": 2903,
      "LLL!LK!LK": 2904,
      "ďĉ%&'(ćććććććć": 2905,
      "ć%&'(ďĉ!ďĉďĉďĉďĉďĉďĉďĉďĉ": 2906,
      "ď!ďď": 2907,
      "ď%ĉ&'(!!": 2908,
      "ďĉďĉ!ďĉ!%&'(ďĉ!!!": 2909,
      "%&'(ďĉ!ćĈ!ćĈďĉďĉďĉďĉ!ďĉďĉďĉďĉ!ďĉ!!": 2910,
      "Ĉ!Ĉ!ĈĈ!Ĉ!Ĉ!ĈĈĈĈćďĉďĉćććććććĈ!Ĉ!Ĉ!ćĈ!Ĉ!Ĉ!ćďĉ!": 2911,
      "ćĈĈĈććĈ!Ĉ!ććĈ!ćććĈćĈćĈćĈćĈĈćĈĈćĈćĈćĈćĈ!Ĉ!ĈćĈ!Ĉ!Ĉ!ććććĈćĈććĈ!ćĈ!Ĉ!Ĉ!Ĉ!ćĈ!Ĉ!ćĈ!ćĈ!Ĉ!ćĈ!ĈćĈ!ĈĈ!ĈćĈćĈćĈćććĈćĈćććĈćĈćĈ!ĈćĈćĈćĈ": 2912,
      "ďĉ!ďĉďĉ!ďĉćććĈ!Ĉ!Ĉ!Ĉ!Ĉ!Ĉ!ćććććĈ!ćĈĈ%&'(ďĉďĉ!!!!!!!!!!!ďĉćććĈ!Ĉ!Ĉ!Ĉ": 2913,
      "%&'(%&'(ďĉ!!ććććććĈććĈ!ďĉćĈ!Ĉ!Čďĉďĉďĉ!": 2914,
      "ććĈ!ćďĉďĉďĉďĉďĉďĉďĉ!!ďĉď%&'(ĉďĉ": 2915,
      ")ďĉďĉďĉďĉďĉďĉďĉ!ďĉ!!ďĉďĉďĉďĉďĉďĉďĉ)!": 2916,
      "ďĉďĉďĉ%&'(ďĉďĉďĉďĉďĉďĉďĉďĉďĉďĉďĉ!ććĈ!ćććĈ!ćććĈ!ćććĈ!Ĉ!Ĉ!ďĉćć": 2917,
      "%&'(ďĉććććććććĈ!Ĉ!Ĉ!ĈćĈĈ!Ĉ!ĈćĈĈ!ćĈ!Ĉ!ĈĈĈĈćĈĈĈĈćĈĈćĈĈĈĈĈĈćĈĈĈĈćĈĈćĈĈćĈ!ćććĈ!ćć": 2918,
      "ćďĉďĉ%&'(ćććććććĈ!Ĉ!Ĉ!ćĈ!Ĉ!Ĉ!ćďĉ!ććććĈ!ćĈ!Ĉ!Ĉ!ćĈ!Ĉ!Ĉ!Ĉ!ćĈ!Ĉ!Ĉ!Ĉ!ćĈ!Ĉ!ćĈ!ĈćĈ!Ĉ!ćĈ!ćĈ!ćĈ!ćĈ!ćĈ!Ĉ!ćĈ!ćĈ!Ĉ!Ĉ!ćĈ!Ĉ!Ĉ!ććĈ!Ĉ!Ĉ!ĈćĈ!Ĉ!": 2919,
      "ćććććććććććććććććććććććććć%&'(Ĉ!": 2920,
      "ćďĉ!ďĉďĉďĉ%&'(ďĉďĉďĉďĉďĉĈ!ĈććĈĈ!Ĉ!ććĈ!Ĉ!ĈĈ!ĈĈĈ": 2921,
      "ćććĈ!Ĉ!Ĉ!ćĈĈĈĈ!ćĈ!ĈĈ!ćĈ!ć%&'(": 2922,
      "!ĉ": 2923,
      "ďĈĈĈĈ": 2924,
      "!!!!!!!!%&'(": 2925,
      "ďĉ%&'(ďĉďĉďĉďĉďĉ": 2926,
      "ćććććććććććććććććććććććććććććććć": 2927,
      "ďĉ!!!!!!!!!!!!!!!!!!!!!!!!!": 2928,
      "ďďĉĉďĉďĉ": 2929,
      "ďĉććĈ!Ĉ!Ĉ!Ĉ!Ĉ!Ĉ!Ĉ!ĈĈćĈ": 2930,
      "ćĈĈĈĈĈĈĈĈĈĈĈĈĈĈ": 2931,
      "ďĉććććććććććććććĈ!ććĈ!Ĉ!Ĉ!ĈćĈ!Ĉ!ĈćĈććĈĈ!ĈĈĈďĉ!!!": 2932,
      "%&'(ďĉďĉďĉ!!!!!ďĉďĉďĉ!ďĉďĉćććććĈ!Ĉ!ćĈĈćďĉćĈ!ććĈ!ćĈ!Ĉ": 2933,
      "ćĈ!Ĉ!Ĉ!Ĉ!Ĉ!Ĉ%&'(ďĉĈ!Ĉ!Ĉ!Ĉ!": 2934,
      "Ĉ!Ĉ!ĈĈĈĈĈĈćĈ!ĈĈĈ%&'(ďĉ%&'(%&'(%&'(ďĉďĉďĉďĉ!ďĉďĉ!!%!&'(": 2935,
      "%ćć&": 2936,
      "Ĉ!ĈĈĈ!ĈĈĈć": 2937,
      "ćććĈ!Ĉ!Ĉ!Ĉ!Ĉ!Ĉ!ćĈ!Ĉ!Ĉ!Ĉ!ćĈ!Ĉ!Ĉ!Ĉććďĉ!ćĈ!ćĈďĉďĉďĉďĉ!": 2938,
      "ďĉďĉ!!ďĉ!!ďĉ!ććĈ!ďĉ!ďĉďĉ!!ďĉďĉ)ďĉďĉ!ďĉďĉ!!ďĉ!!!!ďĉďĉďĉďĉ": 2939,
      "ďĉ!ďĉ!ďĉďĉ!ďĉ!ďĉďĉďĉďĉ!": 2940,
      "ďĉďĉďĉďĉ!ďĉďĉďĉďĉ%&'(!": 2941,
      "Ĉ!Ĉ!ĈĈ!Ĉ!Ĉ!Ĉ!ďĉďĉďĉďĉďĉ!ďĉďĉďĉ!%&'(ćĈ!Ĉ!ćĈ!ćĈ!ćĈ!Ĉ!ććććĈ!ććĈ!ć!ďĉććĈ!Ĉ!ĈĈĈ!Ĉ!Ĉ!ĈĈćĈďĉ!!ďĉďĉ!!!)!)": 2942,
      "Ĕ!ďĉďĉďĉďĉćććďĉ!": 2943,
      "ććĈćĈ!Ĉ!Ĉ!Ĉ!Ĉ!Ĉ!ććĈ!Ĉ!Ĉ!ćĈ!": 2944,
      "ććććććććććććććććććććććććććĈ!ćććĈ!Ĉ!ćĈ!Ĉ!ćĈ!ćĈ!ćĈ!ĈĈ!Ĉ!ćĈ!ćĈ!Ĉ!Ĉ!%&'(ďĉďĉ!ďĉďĉďĉďĉďĉďĉďĉďĉ!": 2945,
      "Ħ!!": 2946,
      "&'(!!!!!!!!!!!!!!!!!!!!!!!!!!!!!!!!!!!!!!!!!!!!!!!!!!!!!!!!!!!!!!!!!!!!!!!!!ććććĈ!ĈĈ%&'(ďĉ!!!!!!!!!!!": 2947,
      "ćĈ!ĈĈ!Ĉ!Ĉ!Ĉ!": 2948,
      "ďĉ!ďĉ!!!!!!!!": 2949,
      "%&'(ďĉ!!!!!!!!!!!!!!!!!!!!!!!!!!!!!!!!": 2950,
      "ďĉ%&'(ďĉďĉďĉďĉďĉďĉďĉ!": 2951,
      "%Ĉ&'(!Ĉ!Ĉ": 2952,
      "%&'(%&'(%&'(%&'(%&'(%&'(%&'(%&'(%&'(%&'(%&'(%&'(%&'(%&'(%&'(%&'(%&'(%&'(%&'(%&'(%&'(%&'(%&'(%&'(%&'(%&'(%&'(%&'(%&'(%&'(%&'(%&'(%&'(%&'(%&'(%&'(%&'(%&'(%&'(%&'(": 2953,
      "%!!!&'(!!!!!!!!!!!!!!!!!!!!!!!!!!!!!!!!!!!!!!!!!!!!!!!!!!!!!!!!!!!!!!!!!!!!!!!!!!!!!!!!!!!!!!!!!!!!!!!!": 2954,
      "&'(!!!!!!!!!!!!!!!!!!!!!!!!!!!!!!!!!!!!!!!!!!!!!!!!!!!!!!!!!!!!": 2955,
      "%!!!!!!!!!!!!!!&'(": 2956,
      "ďĉ!!ďĉďĉďĉĈ!ĈĈĈ!ĈĈĈĈĈĈĈĈĈĈĈĈĈĈĈĈĈĈ!ďĉ!!ďĉ!ďĉ!!!": 2957,
      "&'(!!!!ďĉććććĈ!ćĈ!ćĈ!ĈĈ!ććĈ!Ĉ!ČďĉćĈ!ćĈ!ćĈ!ćĈćĈ!ćĈ!Ĉ!ććĈ!ĈĈ!ćĈĈ!Ĉ!ĈćĈ!Ĉ!ĈĈĈĈĈĈććĈ!ćďĉ!!!!!!!!ďĉ!ďĉ%!&'(": 2958,
      ")!)!!!!!!!!!!!!!!!!!!!!!!!!!!!!!!!!!!!!!!!!!!!!!!!!!!!!!!!!!!!!!!!!!!!!!!!!!!!!!!!!!!!!!!!!!!!!!!!!!!!!!!!!!!!!!!!!!!!!!!!!!": 2959,
      "ďĉ!ďĉććććććĈććĈ!ďĉďĉďĉ!ććĈ!ć": 2960,
      "ćĈ!ĈĈĈ!ĈĈćĈ!Ĉ!Ĉ!ćĈćĈĈĈĈĈćĈĈćĈćĈćĈćĈĈĈćĈĈĈĈĈĈćĈ!Ĉ!ć%&'(ďĉ!!ďĉ!ďĉďĉďĉ!ďĉ!!!!!ďĉ!ďĉďĉďĉďĉ": 2961,
      "ďĉ!ďĉ!!!!!!ďĉďĉ!!!!ďĉďĉďĉććĈ!Ĉ!": 2962,
      "ďĉ!ďĉĈ!Ĉ!ćĈ!Ĉ!ĈĈĈďĉ!ďĉ!!!SĂĄĆ!!ďĉ!!!!!!RTVa!!!S%&'(ĂĄĆ!!!!R!!!SćććććććĈ!Ĉ!ćĈ!ĈćĈĈ!Ĉ!ćĈ!ĈĈ!ććĈ!ćĈ!ććĈćĈććć!!ďĉ!ďĉ!!": 2963,
      "!)": 2964,
      "!!Ĉ": 2965,
      "%&'(ďĉ!ďĉďĉ!ďĉ!ďĉďĉďĉ!": 2966,
      "ďĉďĉďĉďĉ%&'(ďĉ": 2967,
      "ćĈĉ": 2968,
      "ćĈ)!)!!Ĉ!Ĉ!ĈĈ!!!!!": 2969,
      "Ĉ!Ĉ!Ĉ!Ĉ!ĈĈ!": 2970,
      "Ĉ!ĈĈĈĈ!ĈĈĈĈĈ": 2971,
      "ďĉ%&'(!!": 2972,
      "!!!!!!!!!!!!!%!!!!!!!!!!!!!!!!!!!!!!!!!!!!!!!": 2973,
      "23322": 2974,
      "ďďĉĉďĉ": 2975,
      "ďĉ!!!!!!!!ććĈ!Ĉ!ĈćĈĈĈććĈĈĈććĈ!Ĉ!Ĉ!Ĉ!Ĉ!Ĉ!ćĈĈ!Ĉ!Ĉ!ćĈĈĈććĈĈ!ćććĈ!ććĈ!ćĈ!ĈĈĈćć!!!!%&'(ďĉ!!ďĉ!!ćĈ!Ĉ!Ĉ!Ĉ!Ĉ!Ĉ!Ĉ!ćĈ!ďĉ!!!!!!!!ďĉ!!!!!ćĈ!ĈćĈ!ćĈ!ĈĈ!ćĈ!Ĉ!ĈĈĈ!ĈĈĈććĈ!": 2976,
      "ďĉďĉďĉďĉďĉ!!ďĉ!!!!!!!": 2977,
      "ććććććĈ!ććČďĉďĉďĉďĉďĉďĉďĉďĉ!!!ďĉďĉďĉďĉććĈ!Ĉ!Ĉ!Ĉ!Ĉ!Ĉ!ććĈ!ć%&'(": 2978,
      "ďĉďĉďĉďĉďĉ!!ďĉ!!ďĉďĉďĉ)!)ďĉďĉďĉďĉďĉ!": 2979,
      "ćĈ!Ĉ!ćĈĈ!ćĈ!ćĈ!ĈĈ!Ĉ!Ĉ!ćĈ!Ĉ!Ĉ!ććĈ!Ĉ!Ĉ!Ĉ!Ĉ!Ĉ!ćĈćĈ!ććććććĈ!ćĈ!ććĈćććĈćććĈĈćĈćĈ!Ĉ!ćĈ!ĈćĈćĈćĈćĈ!Ĉ!ĈćĈ!Ĉ!": 2980,
      "Ĉ!Ĉ!ĈĈĈĈĈĈćĈ!ĈĈĈ%&'(ďĉ%&'(%&'(%&'(ďĉďĉďĉďĉ!ďĉďĉ!!%!&'(ďĉďĉďĉ!!ďĉ!ććĈ!Ĉ!Ĉ!Ĉ!Ĉ!ďĉďĉ!ďĉćććććĈ!Ĉ!Ĉ!Ĉ!Ĉ!Ĉ!ďĉ!%&'(ďĉ!!ďĉ!ďĉďĉ!": 2981,
      ")Ĉ": 2982,
      "ML": 2983,
      "ćĈ!ďĉďĉďĉĈ!Ĉ!Ĉ!Ĉ!Ĉ!ćĈ!ĈĈĈĈćĈ!ćĈ!ćďĉďĉďĉďĉ!": 2984,
      "ďĉ!))ħ!": 2985,
      "!!!)!)!!!!!!!!!!!!!!!!!!!!!!!!!!!!!!!!!!!!!!)!)!!!!!!!!!!!!!!!!!!!!!!!!!!!!!!!!!!!!": 2986,
      "ďĉďĉďĉćććĈ!Ĉ!Ĉ!Ĉ!ĈĈĈĈĈĈĈĈĈĈ!ćĈ!Ĉ!ĈćĈĈćĈćĈĈĈćĈĈďĉĈ!ĈĈĈĈ": 2987,
      "Ĉ!ćĈ!Ĉ!Ĉ!Ĉ!Ĉ!": 2988,
      "ďĉďĉďĉďĉďĉďĉďĉďĉććććĈ!ćĈ!Ĉ!Ĉ!ĈĈ!Ĉ!Ĉ!ĈććĈ!ć%&'(ďĉććććććććĈ!Ĉ!Ĉ!Ĉ!ćĈĈĈĈ!Ĉ!ćĈ!ďĉďĉ": 2989,
      "Ĉ!ĈĈĈ!ĈĈ!ĈĈĈĈ!ĈĈ!ĈďĉĈ!ĈĈĈĈĈĈĈĈ!ĈĈĈ": 2990,
      "%&'(ďĉďĉćĈ!ćďĉďĉ!ďĉďĉćććććĈ!ćČ": 2991,
      "ďĉďĉďĉďĉďĉďĉďĉ!!!": 2992,
      "ďĉ!ďĉďĉ!%&'(": 2993,
      "%!!!!!!!!!!!!!!!!!!!!!!!!!!!!!!!!!!!!!!!!!!": 2994,
      "ďĉďĉďĉćďĉďĉďĉďĉ!": 2995,
      "ďĉďĉ!ďĉ)))": 2996,
      "Ē!!Ē": 2997,
      "%&'(ďĉďĉďĉ!!!!!!!!!!": 2998,
      "!!!!!!!!!!!!!!!!!!!!!!!!!!!!!!!!!!!!!!!!!!!!!!!!!!!!!!!!!!!!!!!!!!!!!!!!!!!!!!!!!!!": 2999,
      "ćĈ!ĈććĈĈĈćĈĈĈćĈ!ĈććĈĈĈćĈĈććĈĈĈćĈ!ĈćĈ!ććĈĈ!Ĉ!ĈĈćĈ!Ĉ!ćććĈ!Ĉ!ćććĈĈćĈ!ĈĈĈ!!ćććć!!!!!!!!!!!!!!!!!!!!%&'(%&'(ďĉďĉďĉ": 3000,
      "ćććććĈ!Ĉ!Ĉ!ćĈĈćĈďĉďĉĈ!Ĉ": 3001,
      "ććĈĈćĈĈĈććĈĈććĈćććĈĈĈĈĈćĈĈćĈćĈĈćĈĈćĈĈĈĈĈćĈćĈĈćĈĈćĈćĈćĈććĈćĈćĈćĈćĈ!ćĈćĈćĈćĈćĈćĈćĈćĈćĈćĈćĈćĈććĈ!Ĉ!": 3002,
      "ććĈ!ćĈ!Ĉ!ĈĈĈ!ĈĈĈććĈ!ĈĈ!ĈĈĈĈ!ĈĈ!ĈĈĈĈ%&'(ďĉďĉďĉ!!!!!!!!!!": 3003,
      "ďĉ!!!!!!!!!!!!!!!!!!!!!!!!ďĉ!!ďĉďĉďĉďĉďĉ!!ďĉ!ďĉ!": 3004,
      "77'77777(788888888,-%&+": 3005,
      "32222323232222222222222222222222222222222222222222244444444%&5555555522222222222222222222222266666666": 3006,
      "ćććććććććććĈ!ććĈ!Ĉ!ćĈ!Ĉ!ćĈ!ć!ďĉ!!ďĉ)!!!)!!!!!": 3007,
      "ćććĈ!Ĉ!Ĉ!ćĈ!Ĉ!Ĉ!Ĉ!Ĉ!!%&'(ďĉďĉ!ďĉ!!!!!!!!ďĉďĉďĉďĉďĉććććĈ!ćĈ!ĈćĈĈ!Ĉ!Ĉ!Ĉ!ĈćĈĈćĈĈĈĈĈĈ!%&'(ďĉďĉďĉ!))ďĉ!ďĉďĉďĉďĉćďĉ!ďĉďĉďĉ": 3008,
      "ććććĈ!Ĉ!Ĉ!Ĉ!Ĉ!ĈĈ!Ĉ!ćďĉ!!%&'(ďĉďĉćĈ!ćďĉďĉ!ďĉďĉćććććĈ!ćČ": 3009,
      "ďĉďĉ!ďĉ!%&'(ďĉ!!!ďĉ!!!ćććĈćĈ!ćĈ!ĈĈ!Ĉ!ćĈĈĈĈĈĈĈĈĈĈĈĈĈ!ćĈ!ćĈĈĈĈ!Ĉ%&'(ďĉććďĉďĉ!!ďĉććĈ!ĈĈĈĈĈ!ćďĉďĉ": 3010,
      "ćĈĈĈĈĈĈĈĈĈĈĈĈĈĈćĈ!ĈćĈĈćĈĈĈĈĈĈĈ": 3011,
      "ĥ!!": 3012,
      "ććď": 3013,
      "ďĉďĉ!ďĉ!ďĉ": 3014,
      "ćĈĈĈĈćć": 3015,
      "ćďĉ!!!": 3016,
      "!!!!!!!!!!!!!!!%!!!!!!!!!!!!!!": 3017,
      "!!!!!!!!!!!!!!!)!)!!!!!!!!!!!!!!!!!!!!!!!!!!!!!!!!!!!!!!!!!!!!!!!!!!!!!!!!!!!!!!!!!!!!!!!!!!!!!!!!!!!!!": 3018,
      "%Ĉ&'(ĈĈĈĈ": 3019,
      "%!&'(!!!!!!!!!!!!!!!!!!!!!!!!!!!!!!!!!!!!!!!!!!!!!": 3020,
      "ďĉďĉďĉ%&'(ďĉďĉ!": 3021,
      "ďĉ!!ďĉććććććććććććććććććććććĈ!ććĈ!ćĈ!ććĈ!ććććĈ!ćććĈććĈćććĈććććĈććĈććććĈććĈ": 3022,
      "ďĉ!ďĉďĉ%ď&'(ĉ": 3023,
      "%!!!&'(!!!!!!!!!!!!!!!!": 3024,
      "Ĉ!Ĉ!Ĉ!!ďĉďĉ!ďĉ!!!!!!!!ďĉďĉďĉďĉďĉććććĈ!ćĈ!ĈćĈĈ!Ĉ!Ĉ!Ĉ!ĈćĈĈćĈĈĈĈĈĈ!%&'(ďĉďĉďĉ!))ďĉ!ďĉďĉďĉďĉ": 3025,
      "001101010101": 3026,
      "&'(!!!!!!!!!!!!!!!!!!!!!!!!!!!!!!!!!!!!!!!!!!!!!!!!!!!!!": 3027,
      "%&ď'(ĉďĉďĉ": 3028,
      "ćďĈĈ": 3029,
      "!!!!!!!!!!!!!!!!!!!!!!!!!!!!!!!!!!!!!!!!!!!!!)!)!!!!!!!!!!!!!!!!!!!!!!!!!!!!!!": 3030,
      "!!!!!!!!!!!!!!!!!!!!!!!!!!!ďĉ!ďĉ!!!!!!ďĉďĉ!!!!": 3031,
      "ďĉďĉďĉ!!)!)!!!!!!!!!!!!!!!!!!!!ďĉ!!!!!!!!!!!!!!!!!!!!!!!!!!!!!!!!!!!ďĉ!ďĉďĉ!": 3032,
      "ďĉďĉďĉďĉćĈ!ĈĈ!Ĉ!ďĉ!ďĉ!ďĉďĉďĉ!!ďĉ!ďĉ%&'(!": 3033,
      "ćĈ!ďĉ!)ććććććććććććĈ!ććĈ!ćĈ!ćĈ!Ĉ!Ĉ!ćĈ!Ĉ!ćĈ!%&'(ďĉććĈ!Ĉ!Ĉ!Ĉ!ćĈ!Ĉ!!Ĉ!ćĈ!ćĈ!ććĈ!Ĉ!ćĈ!ďĉ!": 3034,
      "ćććććććććććććććććććććććććć%&'(Ĉ!ćććĈ!Ĉ!ćĈ!Ĉ!ćĈ!ćĈ!ćĈ!ĈĈ!Ĉ!ćĈ!ćĈ!Ĉ!Ĉ!": 3035,
      "%ććć": 3036,
      "Ĉ!ćĈ!ćĈ!Ĉ!": 3037,
      "!!!!!!!!!!!!!!!!!!!!!!!!!": 3038,
      "ďĉďĉďĉďĉ!!!": 3039,
      "ĈĈĈĈĈĈĈĈĈĈ": 3040,
      ")!)!!!!!!!!!!ďĉ!!!!!!": 3041,
      "ďĉďĉ!!ďĉďĉďĉďĉććććĈ!ĈĈ!ćĈ!ĈĈ!Ĉ!Ĉ!ćĈ!ćĈ": 3042,
      "ďĉďĉďĉďĉďĉďĉďĉďĉ!ďĉ": 3043,
      "%!&": 3044,
      "ĈĈĈĈĈĈĈĈĈĈĈĈĈĈĈĈĈ!": 3045,
      "ďĉďĉ%&'(ďĉ!!": 3046,
      "22222244444444%&5555555522222222222222222222222266666666": 3047,
      "ďďĉĉďĉďĉďĉ": 3048,
      "232323232222222222222222222222222222222222222222244444444%&5555555522222222222222222222222266666666": 3049,
      "ććććććĈććĈ!ďĉćĈ!Ĉ!Č": 3050,
      "!&'(ďĉ))ďĉħ": 3051,
      "ďĉ%&'(ďĉ!!!!ďĉ!!)ďĉďĉ!": 3052,
      "Ĉ!Ĉ!Ĉ!Ĉ!ććĈććďĉďĉďĉ!!ďĉ!!ďĉ!!!!!!!!)!!!!!!!!)!)!)!!!!!!!!!!!!!!!!!!!!!!!!!!!!!!!!!!!!!!!!!!!!!!!!!!!!!!!!!!!!!!!!!!!!!!!!!!!!!!!!!!!!!!!!!!!!!!!!!!!!!!!!!!": 3053,
      "32322": 3054,
      "ħ)ę!": 3055,
      "Ĉ!ĈĈĈ!ĈĈĈĈĈĈĈĈĈĈĈĈĈĈĈĈĈĈ!ďĉ!!ďĉ!ďĉ!!!ďĉďĉćĈ!ĈĈ!ĈĈĈĈ!Ĉ!Ĉ!ĈĈĈĈĈĈĈĈ!ĈĈĈĈĈ%&'(ďĉ!ďĉďĉ!ďĉ!ďĉďĉďĉ!": 3056,
      "ććĈ!Ĉ!ĈĈĈ!!ćĈ!Ĉ!Ĉ!Ĉ!ćďĉďĉ!!ďĉďĉďĉďĉććććĈ!ĈĈ!ćĈ!ĈĈ!Ĉ!Ĉ!ćĈ!ćĈ%&'(ďĉďĉďĉďĉ!!!!!!!!!ďĉ!!!!!!!!ďĉďĉďĉ!ďĉ!%&'(!!!!!!!!!!!!ďĉ!ďĉ!!!!!!ďĉďĉ!!ďĉ!ďĉďĉ!!": 3057,
      "%&'(ďĉ!!ďĉ!ďĉďĉ!ďĉ!ďĉďĉďĉ!ďĉďĉďĉ!ďĉďĉ!!ďĉďĉďĉ!": 3058,
      "ďĉďĉďĉďĉ!ďĉďĉďĉďĉ%&'(!ďĉ!!Ĉ!ĈćĈ!Ĉ!Ĉ!ĈćĈ!ććďĉ!Ĉ!ĈćĈ!Ĉ!Ĉ!ĈćĈ!ććďĉďĉ!ďĉďĉ%&'(ćĈ!Ĉ!Ĉ!Ĉ!Ĉ!Ĉ": 3059,
      ")!)!!!!!!!!!!ďĉ!!!!!!ćććĈ!Ĉ!Ĉ!Ĉďĉ!!!!!ďĉ!)!)!!!!!!!!!!!!!!": 3060,
      "ćď%&'(ĉ!": 3061,
      "ć%ćĈ&'(!": 3062,
      "ĉĈĈ": 3063,
      "!!%!!!!!!!!!!!": 3064,
      "!!!!ďĉďĉďĉććĈ!Ĉ!ćĈĈ!ćĈ!Ĉ!Ĉ!Ĉ!Ĉ!ĈĈĈćĈ!Ĉ!Ĉ!ćďĉććć": 3065,
      "Ĉ!ćĈ!Ĉ": 3066,
      "ďĉē": 3067,
      "ďĉĈ!Ĉ!": 3068,
      "ććććĈ!Ĉ!Ĉ!Ĉ!": 3069,
      "ďĉďĉďĉďĉ!!!!!!!!!": 3070,
      "ďĉďĉďĉďĉďĉ!ďĉ!!": 3071,
      "ďĉ!!ďĉďĉ%&'(ďĉ!ďĉ": 3072,
      "!!!!!!!!!!!!%!!!!!!!!!!!!!!!!!!!!!!!!!!!!!!!!!!!!!!!!!!!!!!!!": 3073,
      "ććććććććććććććĈ!ććĈ!Ĉ!Ĉ!ĈćĈ!Ĉ!ĈćĈććĈĈ!ĈĈĈďĉ!!!": 3074,
      "ďĉďĉďĉ%!&'(": 3075,
      "ďĉďĉďĉďĉďĉďĉďĉďĉďĉ!!!ďĉ%&'(ďĉďĉ!!ďĉ": 3076,
      "ććĈ!Ĉ!Ĉ!ĈĈ!Ĉ": 3077,
      "!!!!!!!RTVa!!!SĂĄĆďĉćććďĉ!": 3078,
      "ďĉ!ďĉ!%&'(": 3079,
      "ć%&'(ďĉďĉ!ďĉďĉ": 3080,
      "ć%&'(ďĉ!ďĉďĉďĉĈ!ĈĈćďĉďĉďĉďĉďĉďĉďĉ!ďĉ!ďĉďĉďĉ!": 3081,
      "ďĉ!!!!!!!!!!!!!!!!!!!!!!!!!!!!!!": 3082,
      "ďĉ!!!!!!!!!!!!!!!!!!!!!!!!!!!!!!!": 3083,
      "ćĈ!ćďĉďĉďĉďĉćććć": 3084,
      "ďĉ!!ďĉ!!!": 3085,
      "ďĉďĉďĉďĉďĉďĉćĈ!Ĉ!Ĉ!ĈĈ!Ĉ": 3086,
      "!!!SĂĄĆ!!!!R!!!S": 3087,
      "ďĉďĉďĉďĉďĉďĉďĉ%&'(ďĉ": 3088,
      "ď%ĉ&'(ďĉ": 3089,
      "001101'(3": 3090,
      "%!!&'(!!!!!!!!!": 3091,
      "ēēē": 3092,
      "ćĈĈ!ćĈ!ćĈ!ĈĈ!Ĉ!Ĉ!ćĈ!Ĉ!Ĉ!": 3093,
      "ďĉďĉ)ďĉďĉ!ďĉďĉ!!ďĉ!!!!ďĉďĉďĉďĉ!!!!!!!!!!!!!!!!!!!!!!!!!!!!!!!!!!!!!!!!!!!!!ćććććććĈ!ćĈ!Ĉ!Ĉ!Ĉ!Ĉ!ćĈ!Ĉ!ćĈććĈ": 3094,
      "ććĈ!%&'(ďĉ!ďĉ!!ćĈ!": 3095,
      "LLLLLLLLLLLLLLLLLLLLLLLLLLLLLLLLLLLLLLLLLLLLLLLLLLLLLLLLLLLLLLLL": 3096,
      "MMM!!!!!!!!!!!!!!!!!!": 3097,
      "ćććććććććććććććĈ!Ĉ!Ĉ!ćĈ!Ĉ!Ĉ!Ĉ!Ĉ!ćĈ!Ĉ!ćĈ!ćĈ!ćĈ!ćĈ!ćĈ!Ĉ!Ĉ!Ĉ!Ĉ!Ĉ!ćĈ!Ĉ!ććĈ!ćĈ!ĈĈĈ!ĈĈćĈ!Ĉ!Ĉ!ćĈćĈĈĈĈĈćĈĈćĈćĈćĈćĈĈĈćĈĈĈĈĈĈćĈ!Ĉ!ć%&'(ďĉ!!ďĉ!ďĉďĉďĉ!ďĉ!!!!!": 3098,
      "&'(!!!!!!!!!!!!!!!!!!!!!!!!!!!!!!!!!!!!!!!!!!!!!!!!!!!!!!!!!!!!!!!!!!!!!!!!!!!!!!!!!!!!!!!!!!!!!!!!!!!!!!!!!!!!!!!!!!!!!!!!!!!!!!!!!!!!!!!!!!!!!!%!": 3099,
      "ćććĈ!Ĉ!Ĉ!Ĉ!Ĉ!Ĉ!Ĉ!Ĉ!Ĉ!Ĉ!ćĈ!ćĈ!Ĉ!ćĈ!Ĉ!Ĉ!ćĈ!Ĉ!ć%&'(ďĉ!ďĉďĉďĉďĉďĉďĉďĉďĉ": 3100,
      "ďĉďĉďĉďĉďĉ)!)ďĉďĉďĉ!ďĉďĉďĉ!!ďĉďĉďĉďĉ!ďĉ!ďĉ!ďĉ!ďĉ!": 3101,
      "ď%&'(ĉďĉ!ďĉďĉďĉďĉďĉďĉďĉďĉ!ďĉďĉďĉďĉďĉćććććĈ!Ĉ!ćĈ!Ĉ!ćĈ!Ĉ!Ĉ!Ĉ!Ĉ!ćĈ!ćĈ!ćĈ!ćĈ!ćĈ!Ĉ!ćĈ!ćĈ!Ĉ!ćĈĈćĈ!ĈććĈ!ĈćĈćĈćĈ!ĈćĈĈ": 3102,
      "ďĉĈ!Ĉ!Ĉ!Ĉ!Ĉ!ĈĈĈ!ĈĈĈć%&'(ďĉďĉ!ďĉďĉ": 3103,
      "!!!!!!!!!!!!!!ďĉďĉ!ďĉ!)ďĉďĉďĉćďĉďĉ!ďĉďĉďĉ!!ďĉ!!!!%&'(ďĉďĉďĉďĉďĉďĉďĉ!!!!!!!!!!!ďĉ!!!!!!!!!!!!!!!!!!!!!!!!!!!!!!!!!!!!!!!!!!!!!!!!!!!!!!!!!!!!!!!!!%!!!!!!!!!!!!": 3104,
      "ćĈ!Ĉ!ĈćĈ!ďĉćććććććĈ!ćĈ!ć%&'(ďĉ!ďĉďĉ!!!ććććććććććććććććććććććććććĈ!ćććĈ!Ĉ!ćĈ!Ĉ!ćĈ!ćĈ!ćĈ!ĈĈ!Ĉ!%&'(ćĈ!ćĈ!Ĉ!Ĉ!ďĉďĉ!": 3105,
      "ďĉććććĈ!ćĈ!Ĉ!ćĈ!Ĉ!ćĈ!ćĈ!Ĉ!": 3106,
      "ďĉ!ďĉďĉďĉďĉďĉďĉ!!ďĉ!ďĉďĉďĉďĉ!!%&'(ďĉďĉďĉ!": 3107,
      "ććĈ!ďĉ!ďĉ!!ćĈ!%&'(ďĉďĉďĉĈ!Ĉ!Ĉ!Ĉ!Ĉ!ćĈ!ĈĈĈĈćĈ!ćĈ!ćďĉďĉďĉďĉ!ďĉ!ďĉďĉ": 3108,
      "ďĉ!!ďĉďĉ%&'(ďĉ!ďĉ!!!!!!!!!!!!!!!!!!!!!!!!!!!!!!!!!!!!!!!!!!!!!!!!!!!!": 3109,
      "Aē": 3110,
      "ďĐ": 3111,
      "Ĉ!ďĉ": 3112,
      "Ĉ!))": 3113,
      "ďĉććć": 3114,
      "'(!": 3115,
      "ďĉ!!ďĉďĉďĉďĉďĉďĉďĉ)!": 3116,
      "%&'(ďĉćĈ!Ĉ!Č": 3117,
      "%!&'Ĉ(!": 3118,
      "Ĉ!ĈĈĈĈĈ!ćĈ!Ĉ!ĈćĈĈĈćĈĈĈĈĈĈ!ĈĈ!ĈĈĈćĈĈĈćĈ!ĈĈĈĈ!ĈĈ!Ĉ": 3119,
      "ďĉďĉ%&'(ďĉďĉďĉ": 3120,
      "Ĉ!Ĉ!Ĉ!ĉ": 3121,
      "ćĈ!ć%Ĉ&'(!": 3122,
      "ćĈ!Ĉ!Ĉ!Ĉ!Ĉ!Ĉ!ĈĈĈ!ĈĈĈĈ!ĈĈ!Ĉ!Ĉ!Ĉ!ĈĈĈ!Ĉ!ĈĈ!ĈĈ!Ĉ!Ĉ!Ĉ!Ĉ!Ĉ!ĈĈĈĈ!ĈĈĈĈĈĈĈ!Ĉ!Ĉ!ĈĈ!Ĉ%&'(ďĉĈ!Ĉ!Ĉ!Ĉ!ĈĈĈ!Ĉ!Ĉ!ĈĈĈĈ!Ĉ!ĈĈ!Ĉ!Ĉ!ĈĈĈĈ": 3123,
      "%!!!!!!!!!!!!!!!!!!!!!!!!!!!!!!!!!!!!!!!!!!!": 3124,
      "L!LKLL!LK": 3125,
      "ćďĈ!ĉ": 3126,
      "Ĉ!Ĉ!ĈĈ!Ĉ!Ĉ!Ĉ!ďĉďĉďĉďĉďĉ!ďĉ": 3127,
      "ćĈ!ćĈ!ćďĉďĉďĉďĉ!ďĉďĉćććććććĈĈććććććĈ!ćĈĈ%&'(ďĉďĉ!!": 3128,
      "&'(!!!!!!!!!!!!!!!!!!!!!!!!!!!!!!!!!!!)!)!!!!!!!!!!!!!!!!!!!!!!!!!!!!!!!!!!!!!!)!)!!!!!!!!!!!!!!!!!!!!!!!!!!!!!!!!!!!!": 3129,
      "ćććććććĈ!Ĉ!Ĉ!ććĈĈććĈ!ćĈĈďĉďĉ!!!": 3130,
      "ćĈ!ćĈ!ćĈ!ĈĈ!Ĉ!ćĈ!ćĈ!Ĉ!Ĉ!": 3131,
      "ćĈ!Ĉ!ĈĈćĈćĈĈĈĈĈĈĈĈĈĈĈĈďĉ!!ďĉďĉďĉďĉďĉďĉ!": 3132,
      "ďĉďĉďĉď%&'(ĉďĉďĉďĉďĉ": 3133,
      "ćĈ!Čďĉďĉ!ďĉďĉďĉďĉďĉďĉďĉďĉďĉ%&'(": 3134,
      "ďĉ!ďĉ!!ďĉććććććććććććććććććććććĈ!ććĈ!ćĈ!ććĈ!ććććĈ!ćććĈććĈćććĈććććĈććĈććććĈććĈć%&'(ďĉ!!!!!!!!!ďĉďĉďĉ!!ďĉďĉ!ďĉ!!": 3135,
      "ďĉ!ďĉďĉďĉćĈ!Ĉ!Ĉ!Ĉ!ĈĈ!Ĉ!Ĉ!Ĉ!ĈĈĈĈĈĈĈĈĈĈĈĈĈĈ!Ĉ!Ĉ!Ĉ!ĈĈĈĈ": 3136,
      "!!!!!!)!!!!!!!!!!!!!!!!!!!!!!!!!!!!!!!!%&'(ďĉďĉďĉ!ďĉ!!ďĉďĉďĉďĉďĉďĉ!ďĉďĉ!!": 3137,
      "&'(!!!!!!!!!!!!!!!!!!!!!!!!!!!!!)!)!!!!!!!!!!!!!!!!!!!!!!!!!!!!!!!!!!!!!!!!!!!!!!!!!!!!!!!!!!!!!!!!!!!!!!!!!!!!!!!!!!!!!": 3138,
      "ććĈ!ćďĉďĉďĉďĉďĉďĉďĉ!!ďĉďĉ%&'(ďĉ": 3139,
      "ďĉ!ďĉďĉďĉďĉďĉďĉ!!%&'(ďĉ!ďĉďĉďĉďĉ!!ďĉďĉďĉ!ďĉ!ďĉ!ďĉ%&'(ććďĉďĉ)ćďĉć%&'(ćććććĈ!Ĉ!Ĉ!ćĈ!Ĉ!Ĉ!Ĉ!Ĉ!!ĈĈ!ĈććĈ!Ĉ!ĈĈ!ĈĈ!Ĉ!ćĈ!%&'(ďĉĈ!ćĈ!Ĉ!Ĉ!Ĉ!Ĉ!Ĉ!ćĈ!ćĈ!ćĈ!Ĉ!Ĉ!ćĈ!ĈĈĈćĈćĈćĈĈĈćĈ": 3140,
      "32222222222222222222222222222222222222244444444%&5555555522222222222222222222222266666666": 3141,
      "%&'(ďĉďĉďĉ!!ďĉ!!ďĉ!!!!!!!!)!!!!!!!!)!)!)!!!!!!!!!!!!!!!!!!!!!!!!!!!!!!!!!!!!!!!!!!!!!!!!!!!!!!!!!!!!!!!!!!!!!!!!!!!!!!!!!!!!!!!!!!!!!!!!!!!!!!!!!!": 3142,
      "ďĉ!ď%ĉ&'(": 3143,
      "!!!%&'(": 3144,
      "ćĈ!ćĈ!ććĈ!": 3145,
      "ď%&'(ĉďĉ!!": 3146,
      "'(323": 3147,
      "ć%&'(Ĉ!Ĉ!": 3148,
      "ć%&'(ďĉďĉ!!ďĉďĉďĉďĉććććĈ!ĈĈ!ćĈ!ĈĈ!Ĉ!Ĉ!ćĈ!ćĈ": 3149,
      "ďĉ!!!!!!!!!!!!!!!!!!!!!!!!!!": 3150,
      "ď!ďďďď": 3151,
      "ć%&'(ďĉćĈ!Ĉ!Ĉ!Ĉ!Ĉ!Ĉ!Ĉ!Ĉ!ćĈ!ćĈ!Ĉ!ĈćĈ!Ĉ!ďĉćĈ!": 3152,
      "ćďćĉ": 3153,
      "ďĉďĉďĉďĉďĉ)!)ďĉďĉďĉ!ďĉďĉďĉ!!": 3154,
      "ćĈ!ćććĈ!ććĈćĈ!ććĈćććĈ!Ĉ!Ĉ!Ĉ!ćććĈćĈ!ćĈćććĈ!Ĉ!Ĉ!Ĉ!Ĉ!ćĈ!Ĉ!Ĉ!ĈćĈ!ćĈĈĈĈĈćĈĈĈĈĈćĈ!ĈĈĈćĈ%&'(ďĉ!ćććĈ!Ĉ!ćĈ!Ĉ!ĈĈ!Ĉ!ĈćĈĈĈĈĈ!Ĉ!Ĉ!Ĉ!Ĉ!Ĉ!ĈĈĈ!Ĉ!ĈĈĈĈ": 3155,
      "ďĉďĉďĉďĉďĉďĉ!%&'(%&'(Ĉ!Ĉ!ĈĈĈĈĈĈćĈ!ĈĈĈ%&'(ďĉ%&'(%&'(%&'(ďĉďĉďĉďĉ!ďĉďĉ!!%!&'(ďĉďĉďĉ!!ďĉ!ććĈ!Ĉ!Ĉ!Ĉ!Ĉ!ďĉďĉ!ďĉćććććĈ!Ĉ!Ĉ!Ĉ!Ĉ!Ĉ!ďĉ!%&'(ďĉ!!ďĉ!ďĉďĉ!": 3156,
      "%&'(ćďĉ!ďĉďĉďĉĈ!ĈĈćďĉďĉďĉďĉďĉďĉďĉ!ďĉ!ďĉďĉďĉ!": 3157,
      "%M&'(MMMMMMMMMMMMMMMMMMMMMMMMMMMMMMMM": 3158,
      "&'(!!!!!!!!!!!!!!!!!!!!!!!!!!!!!ďĉććĈĈĈĈĈďĉďĉ)!)!!ďĉďĉ!!!!!!!!!!!!!!!!!!!!!!!!!!!!!!!!!!!!!!!!!!!!!!!!": 3159,
      "ćććĈ!Ĉ!Ĉ!Ĉ!ĈĈĈĈĈĈĈĈĈĈ!ćĈ!Ĉ!ĈćĈĈćĈćĈĈĈćĈĈ%&'(ďĉĈ!ĈĈĈĈĈ!Ĉ!Ĉ!ĈĈĈĈĈĈĈĈĈĈ!ĈĈĈ!ĈĈ!ĈĈĈĈ!ĈĈ!ĈďĉĈ!ĈĈĈĈĈĈĈĈ!ĈĈĈ": 3160,
      "ďĉ!!!!!!!!!!!!!!!!!!!!!!!!!!!!!!!!!!!!!!!!!!!!!!!!!!!!ďĉ!!!!!!!!!!!!ďĉďĉ%&'(ďĉďĉďĉ!!ďĉ!!!!!!!ďĉ!!ďĉďĉ!!!ďĉďĉďĉďĉďĉ!ďĉććĈ!Ĉ!Ĉ!Ĉ!Ĉ!Ĉ!Ĉ!ĈĈćĈ%&'(ďĉďĉ": 3161,
      "ć'ć(": 3162,
      "&'(!!!!!!!!!!!!!!!!!!!!!!!!!!!!!!!!!!!!!!!!!!ććććććććććććČďĉďĉććĈ!ćĈ!ćĈ!ćĈ!ćĈćĈćĈćďĉ%&'(ďĉ": 3163,
      "&'(!!!!!!!!!!!!!!!!!!!!!!Ĉ!ďĉďĉćĈ!ďĉ!ććĈ!%&'(Ĉ!Ĉ!ĈćĈ!Ĉ!Ĉ!Ĉ!Ĉ!Ĉ!Ĉ!Ĉ!Ĉ!Ĉ!ďĉďĉ!ďĉ%&'(ćććććććććććććććććĈ!Ĉ!ćĈĈ!ćĈ!ćĈ!ĈĈ!Ĉ!Ĉ!": 3164,
      "ććććĈ!Ĉ!ćĈ!ćĈ!Ĉ!ććĈ!ĈććĈ!Ĉ!ćĈ!ćĈ!Ĉ!Ĉ!ćĈĈ!ďĉďĉďĉďĉććĈ!Ĉ!ĈĈĈ!!ćĈ!Ĉ!Ĉ!Ĉ!ć%&'(ďĉďĉ!!ďĉďĉďĉďĉććććĈ!ĈĈ!ćĈ!ĈĈ!Ĉ!Ĉ!ćĈ!ćĈ": 3165,
      "ďĉ!!ďĉďĉ!!ďĉ!ďĉ!!ďĉďĉďĉ!ďĉććĈ!%&'(ďĉ!ďĉ!!ćĈ!": 3166,
      "-+/,'(": 3167,
      "ĖĦ": 3168,
      "ďĉď!ĉ": 3169,
      "Ĉ!Ĉ!ćććĈ!": 3170,
      "%&'(!!!!!!!!!!!!!!!!!!!!!!!!!!!!!!!!!!!!!!!!!!!!!": 3171,
      "ćĈ!%ć&'(": 3172,
      "MM!!!!!!!!!!!!!!!!!!": 3173,
      "!!!!!!!Ĉ!Ĉ!Ĉďĉ!!!!!!!!!!!!!!!!!!!!!!!!!!!!!!!!!!!!!!!!!!!!!!!!!!!!!!!!!!!!!!!!": 3174,
      "!!!!!!!!!!!!!ďĉ!!!!ďĉďĉďĉďĉďĉďĉďĉďĉďĉďĉ": 3175,
      "Ĉ!Ĉ!Ĉ!%Ĉ&'(!": 3176,
      "!LK!LK!LK": 3177,
      "ďĉďĉďĉ%&'(ćććĈĈ!ćĈ!Ĉ!ĈćĈĈĈćĈĈĈćĈĈćććććďĉďĉďĉĈ!ĈĈĈĈĈ!ćĈ!Ĉ!ĈćĈĈĈćĈĈĈĈĈ": 3178,
      "&'(!!!!!!!!!!!!!!!!!!!!!!!!!!!!!!!!!!!!!!!!!!!!!!!!!!!!!!)!!!!!!!!!!!!!!!!!!!!!!!!!!!!!!!!%&'(ďĉďĉďĉ!ďĉ!!ďĉďĉďĉďĉďĉďĉ!ďĉďĉ!!": 3179,
      "&'(!!!!!!!!!!!!!!!!!!!!!!!!!!!!!!!!!!!!!!!!!!!!!!!!!!!!!!!!!!!!!!!!!!!!!!!!!!!!!!!!!!!!!!!!!!!!!!!!!!!!!!!!!!!": 3180,
      "ďĉďĉďĉ!ďĉďĉ!ďĉďĉ!!!ďĉćĈ!Ĉ!ććĈ!ććĈ!ĈĈ!ććĈ!Ĉ!Ĉ": 3181,
      "ďĉďĉďĉďĉďĉ%&'(ďĉďĉďĉ": 3182,
      "ďĉďďĉĉďĉďĉďĉďĉ": 3183,
      "&'(!!!!!!!!!!!!!!!!!!!!!!!!!!!!!!!!!!!!!!!!!!!!!!!!!!!!!!!!!!!!!!!!!!!!!!!!!!!!!!!!!!!!!!!!!!!!!!!!!!!!!!!!!!!!!!!!!!!!!!!!!!!!!!!!!!!!!!!%!!!!!!!!!!!!": 3184,
      "01010101010101'(3": 3185,
      "ć%&'(ďĉ!ććććććććĈ!Ĉ!ćĈĈćĈ!ĈĈćĈ!ćĈĈćĈ!Ĉ!": 3186,
      "Ĉ!Ĉ!ĈĈĈĈĈ!Ĉ!Ĉ!ďĉĈ!Ĉ!ĈĈĈ!Ĉ!Ĉ!Ĉ!ĈĈĈĈĈ!ĈĈĈĈ!ĈĈĈĈĈĈĈĈĈĈĈĈ!Ĉ!ĈĈĈĈĈĈĈĈĈĈĈĈĈĈĈĈĈĈĈĈĈĈĈĈ!ĈĈĈĈĈĈĈĈĈĈĈĈĈĈĈĈĈĈĈĈĈĈĈ": 3187,
      "Ĉ!ĈĈĈĈĈĈĈĈĈĈĈĈĈĈĈĈĈĈĈĈ!ďĉďĉďĉďĉďĉďĉćďĉ!ďĉ": 3188,
      "ďĉ!!ďĉ!ďĉ!ććĈ!Ĉ!Ĉ!ććĈ!Ĉ!Ĉ!ĈĈ!Ĉ!!ćĈ!Ĉ!Ĉ!Ĉ!ćĈ!ććĈ!ćďĉ!ďĉďĉ!!": 3189,
      "ćĈ!ďĉ!%&'(ďĉďĉďĉďĉďĉďĉďĉďĉďĉďĉďĉďĉďĉ": 3190,
      "ććććĈ!Ĉ!Ĉ!Ĉ!Ĉ!ĈĈ!Ĉ!ćďĉ!": 3191,
      "Ĉ!Ĉ!Ĉ!ćĈ!Ĉ!ćĈ!ćĈ!ćĈ!ćĈ!ćĈ!Ĉ!Ĉ!Ĉ!Ĉ!Ĉ!ćĈ!Ĉ!ććĈ!ćĈ!ĈĈĈ!ĈĈćĈ!Ĉ!Ĉ!ćĈćĈĈĈĈĈćĈĈćĈćĈćĈćĈĈĈćĈĈĈĈĈĈćĈ!Ĉ!ć%&'(ďĉ!!ďĉ!ďĉďĉďĉ!ďĉ!!!!!": 3192,
      "ďĉ!!ďĉďĉďĉďĉďĉ!!ďĉ!ďĉ!ďĉďĉďĉ!ďĉďĉďĉ%&'(ďĉďĉďĉďĉďĉ": 3193,
      "&'(!!!!!!!!!!!!!!!!!!!!!!!!!!!!!!!!!!!!!!!!!!!!!!!!)!)!!!!!!!!ďĉ!ďĉďĉ!!!!!!!!!!!!!!!!!!!!!!!!!!!!!!!!!!!!!!!!!!!!!!!!": 3194,
      "ććććĈ!ĈĈďĉ!!!!!!!!!!!)!)!!!!!!!!!!!!!!!!!!!!!!!!!!!!!!!!": 3195,
      "ćďĉďĉććĈ!ďĉďĉďĉďĉ!ďĉďĉ!!": 3196,
      "ćĈ!Ĉ!ćĈĈ!ćĈ!ćĈ!ĈĈ!Ĉ!Ĉ!ćĈ!Ĉ!Ĉ!ććĈ!Ĉ!Ĉ!Ĉ!Ĉ!Ĉ!ćĈ": 3197,
      "ćććććććĈ!ćĈ!Ĉ!Ĉ!Ĉ!Ĉ!ćĈ!Ĉ!ćĈććĈćďĉćĈ!Ĉ!Ĉ!Ĉ!Ĉ!Ĉ!Ĉ!Ĉ!ćĈ!ćĈ!Ĉ!ĈćĈ!Ĉ!ďĉćĈ!%&'(ďĉďĉďĉďĉďĉďĉďĉďĉďĉďĉďĉďĉ": 3198,
      "Ĉ!ĈĈćďĉďĉďĉďĉďĉďĉďĉ!ďĉ!ďĉďĉďĉ!ďĉ!ďĉďĉďĉĈ!Ĉ!Ĉ!Ĉ!ććĈćć%&'(ďĉďĉďĉ!!ďĉ!!ďĉ!!!!!!!!)!!!!!!!!)!)!)!!!!!!!!!!!!!!!!!!!!!!!!!!!!!!!!!!!!!!!!!!!!!!!!!!!!!!!!!!!!!!!!!!!!!!!!!!!!!!!!!!!!!!!!!!!!!!!!!!!!!!!!!!": 3199,
      "ćďĉ!ďĉďĉďĉďĉďĉďĉďĉ%&'(ďĉ": 3200,
      "&'(!!!!!!!!!!!!!!!!!!!!!!!!!!!!!!!!!!!!!!!!!!!!!!!!!!!!!!!!!!!!!!!!!!!!!!!!!!!!!!!!!!!!!!!!!!!!!!!!!!!!!!!!!!!!!!!!!!!!!!!!!!!!!!!!!!!!!!!!!!!!!!!!!!!!!!!!!!!!!!!!!!!!!!!ććććććććĈ!ćććĈ!Ĉ!ćĈ!%&'(ďĉ": 3201,
      "!!!ďĉďĉďĉďĉććĈ!Ĉ!Ĉ!Ĉ!Ĉ!Ĉ!ććĈ!ćďĉ!ďĉććććĈ!ćĈ!ĈĈ!ććĈ!ćĈ!ĈĈ!ćĈ!Ĉ!": 3202,
      "EF": 3203,
      "ćĉĉ": 3204,
      "!!!!!!!!!!!!!!!!!!!!!!!": 3205,
      "ćĈ!Ĉ!ĉ": 3206,
      "!!!%!!!!!!!!!!!!!": 3207,
      "ďĉďĉ!)": 3208,
      "ďĉďĉ!ď%&'(ĉ!": 3209,
      "ďĉďĉďĉďĉďĉďĉďĉďĉďĉ!ďĉďĉďĉ%&'(": 3210,
      "!!!!!!!!!)!)!!!!!!!!!!!!!!!!!!!!!!!!!!!!!!!!!!!!!!!!!!!!!!!!!!!!!!!!!!!!!!!!!!!!!!!!!!!!!!!!!!!!!!!!!!!!!!!!": 3211,
      "Ĉ!Ĉ!Ĉ!Ĉ!Ĉ!Ĉ!Ĉ!": 3212,
      "ďĉďĉďĉďĉ!ďĉ!ďĉ!ďĉ!ďĉ!ďĉ!ďĉćććĈ!Ĉ!Ĉ!Ĉ!Ĉ!Ĉ!ćĈ!Ĉ!Ĉ!Ĉ!ćĈ!Ĉ!Ĉ!Ĉćć": 3213,
      "ćďĉ!ććććĈ!ćĈ!Ĉ!Ĉ!ćĈ!Ĉ!Ĉ!Ĉ!ćĈ!Ĉ!Ĉ!Ĉ!ćĈ!Ĉ!ćĈ!ĈćĈ!Ĉ!": 3214,
      "Ĉ!ĈĈ!ĈĈ!ĈĈ!ćĈ!ćĈ!": 3215,
      "ďĉďĉďĉďĉďĉďĉćďĉ)ħ": 3216,
      "ďĉ!ďĉďĉď%&'(ĉ": 3217,
      "&'(!!!!!!!!!!!!!!!!!!!!!!!!!!!!!!!!!!!!!!!!!!!!!!!!!!!!": 3218,
      "&'(!!!!!!!!!!!!!!!!!!!!!!!!!!!!!!!!!!!!!!!!!!!!!!!!!!!!!!!": 3219,
      "ďĉ!ďĉ!ďĉćććĈ!Ĉ!Ĉ!Ĉ!Ĉ!Ĉ!ćĈ!Ĉ!Ĉ!Ĉ!ćĈ!Ĉ!Ĉ!Ĉććďĉ!ćĈ!ćĈ": 3220,
      "ďĉďĉďĉďĉďĉ!!ďĉ!ďĉďĉďĉďĉ": 3221,
      "ćĈĈĈĈĈĈĈĈĈĈĈĈĈĈĈĈ!": 3222,
      "ďĉďĉ!ďĉ!!ďĉććććććĈ!ććĈ!ććĈ!Ĉ!Ĉ!Ĉ!ćććĈ!Ĉ!Ĉ!ććĈćĈ!Ĉ!ĈćĈ!Ĉ!ćĈ!ććĈĈĈĈĈćĈćĈ%&'(ďĉćććććĈ!ĈĈćĈĈćĈďĉćććććććć": 3223,
      "Ĉ!Ĉ!Ĉ!Ĉ!ĈćĈĈĈ!ĈĈĈćĈćďĉďĉďĉ!!!": 3224,
      "!&'(ďĉ))ďħĉ": 3225,
      "ćĈ!ĈĈćĈ!ćĈĈćĈ!Ĉ!ćďĉďĉćććĈ!ćĈ!Ĉ!Ĉ!ćĈ!Ĉ!ćĈ!Ĉ!Ĉ!Ĉ!ćĈ!Ĉ!ćĈ!ćĈ!ćĈ!ćĈ!Ĉ!Ĉ!Ĉ!Ĉ!Ĉ!Ĉ!Ĉ!Ĉ!ĈĈ!%&'(ďĉ!!!!!!!!!!!!!!!!!!!!!!!!!!!!!!!!!!!!!!!!!!!!!ďĉďĉďĉďĉďĉ!!ďĉ!!ďĉďĉďĉ)!)": 3226,
      "!!!!!!!!!!!!!!!ďĉ!!!!!!!!!!!!!!!!!!!!!!!!!!!!!!!!!!!!!!!!!!!!!!!!!!!!!!!!!!!!!!!!!!!!!": 3227,
      "ďĉďĉďĉ!!ďĉ!ććĈ!Ĉ!Ĉ!Ĉ!Ĉ!ďĉďĉ!ďĉćććććĈ!Ĉ!Ĉ!Ĉ!Ĉ!Ĉ!ďĉ!%&'(ďĉ!!ďĉ!": 3228,
      "ďĉ!ďĉ!!!SĂĄĆ!!ďĉ!!!!!!RTVa!!!SĂĄĆ!!!!R!!!S": 3229,
      "ćććććććććććććććĈ!Ĉ!Ĉ!ćĈ!Ĉ!Ĉ!Ĉ!Ĉ!ćĈ!Ĉ!ćĈ!ćĈ!ćĈ!ćĈ!": 3230,
      ")!)!!!!!!!!!!!!!!!!!!!!!!!!!!!!!!!!!!!!!!!!!!!!!!!!!!!!!!!!!!!!!!!!!!!!!!!!!!!!!!!!!!!!!!!!!!!!!!!!!!!!!!!!!!!!!!!!!!!!!!!!": 3231,
      "ćďĉďĉ%&'(ďĉďĉ": 3232,
      "ďĉďĉďĉďĉďĉ!ďĉďĉďĉ!ćĈ!Ĉ!ćĈ!ćĈ!ćĈ!Ĉ!ććććĈ!ććĈ!ć!%&'(ďĉććĈ!Ĉ!ĈĈĈ!Ĉ!Ĉ!ĈĈćĈďĉ!!ďĉďĉ!!!)!)!!!!!!!!!!!!": 3233,
      "ďLĉK": 3234,
      "ćććććĈ!ćĈ!Ĉ!ćĈĈ!Ĉ!Ĉ!Ĉ!ćĈćĈĈćĈ!Ĉ!Ĉ!ćĈ!Ĉ!Ĉ!Ĉ!ćĈ!Ĉ!%&'(ďĉćĈ!ćĈ!Ĉ!ććĈ!Ĉ!Ĉ!Ĉ!ćĈĈĈ!Ĉ!ćĈ!Ĉ!ĈĈĈ!ĈĈĈććĈ!ćĈćĈĈĈ!ĈćĈĈĈĈĈĈĈĈććĈćĈĈ!ććĈĈĈĈćĈĈĈĈćĈĈĈĈĈĈĈĈććĈćďĉ!": 3235,
      ")!)!!!!!!!!!!!!ććĈ!ćĈ!ććĈ!ćĈ!ćĈ!ććĈćĈ!Ĉ!Ĉ!Ĉ!ćĈ!ććĈĈĈĈĈĈćĈ!ććĈćĈ!ćĈ!Ĉ!ćĈ!ććĈććĈ!!!!!!ďĉćć%&'(ďĉďĉďĉ": 3236,
      "ďĉććććććććććććĈ!ćĈ!Ĉ!Ĉ!Ĉ!Ĉ!Ĉ!Ĉ!Ĉ!Ĉ!!ćĈĈĈĈ!Ĉ!ćĈ!Ĉ!ćĈĈĈćĈ!ĈĈĈĈ": 3237,
      "32222224%&52226'(78,": 3238,
      "ćďĉďĉďĉ%&'(": 3239,
      "Ĉ!ćĈ!ććĈ!": 3240,
      "ćććć%&'(": 3241,
      "Ĉ!Ĉ!Ĉ!Ĉ!Ĉ!ćĈ!Ĉ!": 3242,
      "ďĉďĉďĉĈ!Ĉ!Ĉ!Ĉ!!Ĉ!Ĉ!Ĉ!Ĉ!!Ĉ!Ĉ!Ĉ": 3243,
      ")!)!!!!!!": 3244,
      "01001011": 3245,
      "ď%&'(ĉ!!!": 3246,
      "ď%&'(ĉ!ďĉ": 3247,
      "ďĉďĉďĉ!!ďĉ!!!!": 3248,
      "ďĉďĉďĉ!!ďĉ!!ďĉ!!!!!!!!)!!!!!!!!)!": 3249,
      "ćďĉ!ďĉďĉ!!!": 3250,
      "ďĉďĉ%&'(Ĉ!Ĉ!ĈĈ!Ĉ!ĈĈĈĈ!Ĉ!ĈĈ!Ĉ!Ĉ!!": 3251,
      "ćĈ!Ĉ!Ĉ!%&'(": 3252,
      "ďĉ!!!ďĉďĉďĉďĉďĉďĉďĉďĉ!": 3253,
      "&'(!!!!!!!!!!!!!!!!!!!!!!!!!!!!!!!!!!!!!!!!!!!!!!!!!!!!!!!!!!!!!!!!!!!!!!!!!!!!!!!!!!!!!!!!!!!!!!!!!!!!!!!!!!!!!!!!!!!!!!!!!!!!!!!!!!!!!!!!!!!!!!!!!!!!": 3254,
      "ďĉĈ!Ĉ!Ĉ!Ĉ!Ĉ!Ĉ": 3255,
      "3223322": 3256,
      "&'(!!!!!!!!!!!!!!!!!!!!!!!!!!!!!!!!!!!!!!!!!!!!!!!!!!!!!!!!!!!!!!!!!!!!!!!!!!!!!!!!!!!!!!!!!!!!!!!!!!!!!!!!!!!!!!!!!!!!!!!!!!!!!!!!!!!!!%!!!!!!!!!!!!!!!!": 3257,
      "&'(!!!!!!!!!!!!!!!!!!!!!!!!!!!!!!!!!!!!!!!!!!!!!!!!!!!!!!!!!!!!!!!!!!!!!!!!!!!!!!!!!!!!!!!!!!!!!!!!!!!!!!!!!!!!!!!!!!!!!!!!!!!!!!!!!!!%!!!!!!!&'(": 3258,
      "ćĈ!ćĈ!ćĈ!ćĈ!Ĉ!Ĉ!Ĉ!Ĉ!Ĉ!Ĉ!Ĉ!Ĉ!ĈĈ!ďĉ!!!!!!!!!!!!!!!!!!!!!!!!!!!!!!!!!!!!!!!!!!!!!": 3259,
      "ďĉďĉďĉďĉďĉďĉćďĉ!ďĉ!!!!!!!!!!!!!!!!!!!!!!!!!!!!!!!!!!!": 3260,
      "ďĉďĉďĉďĉďĉďĉďĉďĉ!!!ďĉďĉďĉďĉććĈ!Ĉ!Ĉ!Ĉ!Ĉ!Ĉ!ććĈ!ć": 3261,
      "ććĈ!Ĉ!Ĉ!Ĉ!Ĉ!Ĉ!ćĈćĈ!ććććććĈ!ćĈ!ććĈćććĈćććĈĈćĈćĈ!Ĉ!ćĈ!ĈćĈćĈćĈćĈ!Ĉ!ĈćĈ!Ĉ!ćĈĈĈććĈ!Ĉ!ććĈ!ćććĈćĈćĈćĈćĈĈćĈĈćĈćĈćĈćĈ!Ĉ!ĈćĈ!Ĉ!Ĉ!ććććĈćĈććĈ!ćĈ!Ĉ!Ĉ!Ĉ!ćĈ!Ĉ!ćĈ!ćĈ!Ĉ!ćĈ!ĈćĈ!ĈĈ!ĈćĈćĈćĈćććĈćĈćććĈćĈ": 3262,
      "%!!!!!!!!!!!!!!!!!!!!!!!!!!!!!!&'(!!!!!!!!!!!!!!!!!!!!!!)!)!!!!!!!!!!!!!!!!!!!!!!!!!!!!!!!!!!!!!!!!!!!!!!!!!!!!!!!!!!!!!!!!!!!!!!!!!!!!!!!!": 3263,
      "3222232323232222222222222222222222222222222222222222244444444%&5555555522222222222222222222222266666666": 3264,
      "ďĉďĉďĉďĉďĉďĉďĉ)!ďĉďĉďĉďĉ%&'(ďĉďĉďĉďĉćććććććććććććććĈ!Ĉ!Ĉ!ćĈ!Ĉ!Ĉ!Ĉ!Ĉ!ćĈ!Ĉ!ćĈ!ćĈ!ćĈ!ćĈ!ćĈ!Ĉ!Ĉ!Ĉ!Ĉ!Ĉ!ćĈ!Ĉ!ććĈ!ćĈ!ĈĈĈ!ĈĈćĈ!Ĉ!Ĉ!": 3265,
      "3322222323232222222222222222222222222222222222222222244444444%&5555555522222222222222222222222266666666": 3266,
      "%Ĉ!&'(": 3267,
      "ć%&'(ďĉďĉććĈ!ďĉďĉďĉďĉ!ďĉďĉ!!ďĉďĉďĉďĉďĉďĉďĉ!ďĉ!ďĉć%&'(ććććććĈ!ćČČďĉďĉďĉ!!!!!ďĉďĉďĉ!ďĉďĉćććććĈ!Ĉ!ćĈĈ": 3268,
      "Ĉ!ďĉďĉćĈ!ďĉ!%&'(ććĈ!Ĉ!Ĉ!ĈćĈ!Ĉ!Ĉ!Ĉ!Ĉ!Ĉ!Ĉ!Ĉ!Ĉ!Ĉ!": 3269,
      "ďĉďĉ!ďĉďĉ%&'(ďĉďĉ!ďĉ!!ďĉďĉďĉďĉďĉďĉ!ďĉďĉďĉďĉďĉďĉ!!": 3270,
      ")!)!!!!!!!!!ććććĈ!ĈĈďĉ!!!!!!!!!!!!!!!!!!!!!!!!!!!!": 3271,
      ")!)!!!!!!!!!!!!!!!!!!!!!!!!!!!!!!!!!!!!!!!!!!!!!!!!!!!!!!!!!!!!!!!!!!!!!!!!!!!!!!!!!!!!!!!!!!!!!!!!!!!!!!!!!!!!!!!!!!!!!!!!!%!!!!!!!!!!!!!!!!!!": 3272,
      "ďĉďĉďĉďĉďĉďĉďĉďĉććććĈ!ćĈ!Ĉ!Ĉ!ĈĈ!Ĉ!Ĉ!ĈććĈ!ć%&'(ďĉććććććććĈ!Ĉ!Ĉ!Ĉ!ćĈĈĈĈ!Ĉ!ćĈ!ďĉďĉćďĉććććććććććććććććĈ!Ĉ!ćĈ!Ĉ!ĈĈ!": 3273,
      "ćĈ!Čďĉďĉ!ďĉďĉďĉďĉďĉďĉďĉďĉďĉ%&'(ćććććĈ!ćĈ!Ĉ!ćĈĈ!Ĉ!Ĉ!Ĉ!ćĈćĈĈćĈ!Ĉ!Ĉ!ćĈ!Ĉ!Ĉ!Ĉ!ćĈ!Ĉ!ďĉ": 3274,
      "'777": 3275,
      "Vb": 3276,
      "!!!!!!!!!!!!!!!!!!!!!!!!!!!!!!": 3277,
      "ććććĈ!ĈĈ!ćĈ!ĈĈ!Ĉ!Ĉ!ćĈ!ćĈ": 3278,
      "ďĉďĉďĉďĉ%&ď'(ĉ": 3279,
      "ććĈćĈ!ĈĈ": 3280,
      "&'(!!!!!!!!!!!!!!!!!!!!!!!!!!!!!!!!!!!!!!!!!!!!!!!!!!!!!!!!!!!!!!!!!%!!!!!!!!!!!!!!!!!!!!!!": 3281,
      "ćććĈ!Ĉ!ććććććĈ!ćĈĈ": 3282,
      "ćććĈ!Ĉ!ćĈ!ďĉ": 3283,
      "ďĉ!ďĉććć": 3284,
      "ćďĉććććććĈ!Ĉ!": 3285,
      "ďĉ!ďĉ!ććĈ!Ĉ!Ĉ!ććĈ!Ĉ!Ĉ!ĈĈ!Ĉ!!ćĈ!Ĉ!Ĉ!Ĉ!ćĈ!ććĈ!ćďĉ!ďĉďĉ!!": 3286,
      "ďĉďĉďĉďĉďĉďĉ!%&'(": 3287,
      "%&-+01'(;": 3288,
      "ććććĈ!ćĈćĈĈ": 3289,
      "7777'777": 3290,
      "ćććććććĈ!ćĈ!Ĉ!ĈćĈ!Ĉ!ććĈ!Ĉ!Ĉ!Ĉ!Ĉ!ĈĈ!ćĈ!ćĈ!ćĈćĈ!ćĈ!ćĈćĈ!ćĈćĈ!ććĈćĈ!ćĈćĈ!Ĉ!ććĈćĈ!ĈĈĈĈĈĈćĈ!ććĈććĈ!ćĈ!ĈććĈĈ!Ĉ!ĈĈĈ!ććĈ!Ĉ!Ĉ": 3291,
      "ćĈććĈćĈ!ćĈ": 3292,
      "!!!!!!!!!!!!!!!!!!!!!!!!!!!!!!!!!!!!!!!!!!!!!ćććććććĈ!ćĈ!Ĉ!Ĉ!Ĉ!Ĉ!ćĈ!Ĉ!ćĈććĈćďĉćĈ!Ĉ!Ĉ!Ĉ!Ĉ!Ĉ!Ĉ!Ĉ!ćĈ!ćĈ!Ĉ!ĈćĈ!Ĉ!": 3293,
      "ďĉĈ!Ĉ!Ĉ!Ĉ!ĈĈ": 3294,
      "Ĉ!ĈĈ!Ĉ!Ĉ!Ĉ!Ĉ!ćĈ!": 3295,
      "ďĉ!!!!!!!!!!!!%!!!!!": 3296,
      "ććććĈ!ćććĈććĈćććĈććććĈććĈććććĈććĈćďĉ!!!!!!!!!": 3297,
      "ĈĈĈĈĈĈćĈ!ććĈćĈ!ćĈ!Ĉ!ćĈ!ććĈććĈ!!!!!!ďĉćć": 3298,
      "ĈĈĈ!Ĉ!Ĉ!ĈĈĈĈ!Ĉ!ĈĈ!Ĉ!Ĉ!ĈĈĈĈćďĉďĉćććććććĈ!Ĉ!Ĉ!ćĈ!Ĉ!Ĉ!": 3299,
      "!!!!!!!!!ďĉ!!!!!!!!!!!)!!!!!!!!!!!!!!!ďĉďĉďĉ)!)": 3300,
      "3232222": 3301,
      "ćĈ!ĈćĈćĈćĈćććĈĈĈĈĈććĈĈććĈćććĈćĈćĈćĈćĈĈćĈĈćĈćĈćĈććĈĈćĈĈĈććĈĈććĈćććĈĈĈĈĈćĈĈćĈćĈĈćĈĈćĈĈĈĈĈćĈćĈĈćĈĈćĈćĈćĈććĈćĈćĈćĈćĈ!ćĈćĈćĈćĈćĈćĈćĈćĈćĈćĈćĈćĈććĈ!Ĉ!": 3302,
      "!!!!!!!!!!!!!!!!!!!ďĉ!ďĉďĉ!!!!!!!!!!!!!!!!!!!!!!!!!!!!": 3303,
      "ďĉďĉďĉďĉďĉďĉR%&'(TVaďĉććĈ!ćććĈćććĈĈ!Ĉ!ćĈ!ććĈćĈ!ćĈ!!Č!!Č!ďĉ!ďĉĈ!Ĉ!ćĈ!Ĉ!ĈĈĈďĉ!ďĉ!!!SĂĄĆ!!ďĉ!!!!!!": 3304,
      ")!)!!!!!!!!!!!!!!!!!!!!!!!!!!!!!!!!!!!!!!!!!!!!!!!!!!!!!!!!!!!!!!!!!!!!!!!!!!!!!!!!!!!!!!!!!!!!!!!!!!!!!!!!!!!!!!!!!!!!!!!!!!!!!!!!!!!!!!!!!!!!!": 3305,
      "ďĉďĉďĉďĉďĉ!ďĉďĉďĉďĉďĉ!ďĉďĉďĉ": 3306,
      "KKKK": 3307,
      "ďĉďĉďĉďĉďĉďĉďĉ!!ďĉďĉďĉ": 3308,
      "Ĉ!ćĈ!ćĈ!Ĉ!Ĉ!ďĉďĉ!!!!!!!RTVa!!!SĂĄĆ": 3309,
      "ćććĈ!Ĉ!Ĉ!Ĉ!ĈĈĈĈĈĈĈĈĈĈ!ćĈ!Ĉ!ĈćĈĈćĈćĈĈĈćĈĈďĉ%&'(Ĉ!ĈĈĈĈĈ!Ĉ!Ĉ!ĈĈĈĈĈĈĈĈĈĈ!ĈĈĈ!ĈĈ!ĈĈĈĈ!ĈĈ!ĈďĉĈ!ĈĈĈĈĈĈĈĈ!ĈĈĈ": 3310,
      "ďĉ!ďĉ!ďĉďĉďĉďĉ!ďĉďĉĥďĉĈ!ĈĈ!ďĉćĈ!Č": 3311,
      "777777'7(788888888,-%&+01": 3312,
      "ćććĈ!Ĉ!Ĉ!Ĉ!Ĉ!%&'(Ĉ!Ĉ!Ĉ!Ĉ!Ĉ!": 3313,
      "ćććĈ!Ĉ!Ĉ!ćĈ!Ĉ!Ĉć%&'(ďĉďĉďĉďĉććĈ!Ĉďĉ%&'(Ĉ!Ĉ!ĈĈĈĈĈĈĈĈĈĈĈĈĈĈĈĈĈĈĈĈĈĈĈĈďĉ!ćććććĈ!Ĉ!Ĉ!Ĉ!Ĉ!Ĉ!ćĈ!Ĉ!Ĉ!ćĈ!Ĉ!ćĈ!Ĉ!Ĉ!ćĈ!Ĉ!ćĈ!ćĈ!ćĈ!ćĈ!Ĉ!Ĉ!Ĉć%&'(ďĉ!!!!!!!!!ďĉďĉďĉďĉďĉ)!)ďĉďĉďĉćććĈ!Ĉ!Ĉ!ĈĈ!Ĉ!ćĈ!Ĉ!Ĉ!ĈćĈ!Ĉ!Ĉ!Ĉ": 3314,
      "ďĉ!ďĉ%&'(ďĉďĉĈ!Ĉ!Ĉ!Ĉ!ććĈćć": 3315,
      "ďĉćććććĈ!Ĉ!Ĉ!ćĈĈćĈ%&'(ďĉďĉĈ!Ĉďĉ!ďĉ!ďĉćććććććććććĈ!ćĈ!!ććĈ!ććĈ!ćĈ!Ĉ!Ĉ!Ĉ!Ĉ!Ĉ!ĈćĈĈĈĈ!ĈććĈ!ććććĈć!!": 3316,
      "ćććĈ!Ĉ!Ĉ!ćĈĈĈĈ!ćĈ!ĈĈ!ćĈ!ć%&'(ďĉďĉďĉďĉďĉćććććĈ!)!)!!Ĉ!Ĉ!ĈĈ!!!!!": 3317,
      "!!!!!!!!!!!!%!!!!!!!!!!!!!!!!!!!!!!!!!!!!!!!!!!!!!!!!!!!!!!!!&'(ćďĉ!ďĉćććĈ!ćĈ!ćĈ!ćĈ!ćĈ!ćĈćĈćĈďĉďĉ!ćććććććĈ!Ĉ!Ĉ!Ĉ!Ĉ!ćĈ!Ĉ!ćĈ!ćĈ!ćĈ!ćĈ!ćĈ!Ĉ!Ĉ!Ĉ!ĈĈ!%&'(ďĉ!!!!!!!!!!!!!!!!!!!!!ďĉďĉďĉďĉĈ!ĈĈĈćĈ!ćĈĈĈ": 3318,
      "ććĈ!Ĉ!Ĉ!ĈĈ!ĈćĈ!ćć": 3319,
      "ďĉ!ďĉ!!!SĂĄĆ!!ďĉ!!!!!!RTVa!!!SĂĄĆ!!!!R!!!SćććććććĈ!Ĉ!": 3320,
      "32222224%&52226'(78,<": 3321,
      "%&-+01'(;32222224%&52226'(78,<": 3322,
      "%K": 3323,
      "C!!!": 3324,
      "Ĉĉ!": 3325,
      "ę!!": 3326,
      "!!!!!!!!%!!!!!!!!!!!!!!!!!": 3327,
      "ďĉĒ": 3328,
      "ďĉď%&'(ĉ!": 3329,
      "ćć%Ĉ&'(!": 3330,
      "ďĉďĉ!!!!!!!!!!!!!!!!!!!!!!!!!!!!!!!!!!!!!!!!!!!!!!!!": 3331,
      "ĈĈ!!": 3332,
      "%&'(Ĉ!Ĉ!Ĉ!Ĉ!": 3333,
      "!!!%!&'(": 3334,
      "!!!%!!!!!!!!!!": 3335,
      "ćĈćĈćĈ!ćĈ!ććĈ!": 3336,
      "ďĉďĉďĉ%&'(ďĉ": 3337,
      "ďĉďĉďĉ%&'ď(ĉ": 3338,
      "Ĉ!ćĈ!Ĉ!%&'(": 3339,
      "Ĉ!ćĈ!Ĉ!Ĉ!ĈĈćĈĈ!Ĉďĉ!!!!!!!!!!!!!!!!!!!!!!!!!!!!!!!!ďĉ!!!!!!!!!!!!!!!!!!ďĉ!!!!!!!!!!!!!!!!!!!ďĉ!!!!!!!!": 3340,
      ")!)!!!!!!!!!": 3341,
      "!!!!!ďĉ!ďĉďĉďĉďĉďĉďĉďĉ": 3342,
      "!!!!!!!%!!!!!!!!!!!!&'(": 3343,
      "ďĉ!ďĉďĉďĉďĉďĉ!": 3344,
      "!!!!!!!!!!!!!ďĉ!ďĉ!!!!!!": 3345,
      "ďĉ!!!!!!!!!!!!!!!!!!!!!!!!!!!!!": 3346,
      "ďďĉĉ!!": 3347,
      "%Ĉ&'(!ĈĈĈ": 3348,
      "ĈĈĈĈĈĈĈĈĈĈ!ĈĈĈĈ!ĈĈĈĈĈ": 3349,
      "ďĉďĉćććććĈ!Ĉ!Ĉ!ćĈĈćĈ": 3350,
      "ďĉ!ďĉďĉďĉ!ďĉ!!!!!ďĉ!ďĉďĉďĉďĉďĉďĉďĉ": 3351,
      "ĈćĈĈćĈćć": 3352,
      "ćďććĉ": 3353,
      "Ĉ!Ĉ!Ĉ!Ĉ!ĈćĈĈĈ!ĈĈĈćĈćĈĈĈĈĈĈĈćĈĈĈĈĈĈ": 3354,
      "Ĉ!Ĉ!Ĉ!ĈĈĈĈ!Ĉ!ĈĈ!Ĉ!Ĉ!ĈĈĈĈćďĉďĉćććććććĈ!Ĉ!Ĉ!ćĈ!Ĉ!Ĉ!ćďĉ!": 3355,
      "ćďĉ%&'(ďĉďĉďĉ": 3356,
      "ććĈ!ćććĈ!ćććĈ!ćććĈ!Ĉ!Ĉ!%&'(ďĉćć": 3357,
      "ćĈĈĈćĈ!ĈĈĈĈ!ĈĈ!Ĉďĉďĉďĉďĉďĉďĉ!%&'(%&'(Ĉ!Ĉ!ĈĈĈĈĈĈćĈ!ĈĈĈ%&'(ďĉ%&'(%&'(%&'(ďĉďĉďĉďĉ!ďĉďĉ%!!!&'(ďĉďĉďĉ!!ďĉ!ććĈ!Ĉ!Ĉ!Ĉ!Ĉ!ďĉďĉ!ďĉćććććĈ!Ĉ!Ĉ!Ĉ!Ĉ!Ĉ!ďĉ!%&'(ďĉ!!ďĉ!ďĉďĉ!": 3358,
      "ćććĈ!Ĉ!Ĉ!Ĉ!ĈĈĈĈĈĈĈĈĈĈ!ćĈ!Ĉ!ĈćĈĈćĈćĈĈĈćĈĈďĉĈ!Ĉ!ĈĈĈĈ!Ĉ!Ĉ!ĈĈĈĈĈĈĈĈĈĈ!ĈĈĈ!ĈĈ!ĈĈĈĈ!ĈĈ!Ĉ": 3359,
      "ććĈĈ!Ĉ!ĈĈĈ!ććĈ!Ĉ!ĈćĈ!ććĈ!Ĉ!ĈćĈ!ĈććĈĈĈćĈĈĈćĈ!ĈććĈĈĈćĈĈććĈĈĈćĈ!ĈćĈ!ććĈĈ!Ĉ!ĈĈćĈ!Ĉ!ćććĈ!Ĉ!ćććĈĈćĈ!ĈĈĈ!!ćććć!!!!!!!!!!!!!!!!!!!!%&'(%&'(ďĉďĉďĉ": 3360,
      "%&'(!!!!!!!!!!!!!!!!!!!!!!!!!!!!!!!!!!!!!!!!!!!!!!!!!!!!!!!!!!!!!!!!!!!!!!!!!!!!!!!!!!!!!!!!!!!!!!!!!!!!!!!!!!!!!!!!!!!!!!!!!!!!!": 3361,
      "ćĈĈĈććĈ!Ĉ!ććĈ!ćććĈćĈćĈćĈćĈĈćĈĈćĈćĈćĈćĈ!Ĉ!ĈćĈ!Ĉ!Ĉ!ććććĈćĈććĈ!ćĈ!Ĉ!Ĉ!Ĉ!ćĈ!Ĉ!ćĈ!ćĈ!Ĉ!ćĈ!ĈćĈ!ĈĈ!ĈćĈćĈćĈćććĈćĈćććĈćĈćĈ!ĈćĈćĈćĈćććĈĈĈĈĈććĈĈććĈćććĈćĈćĈćĈćĈĈćĈĈćĈćĈćĈ": 3362,
      "ććććććććććććććććććććććĈ!ććĈ!ćĈ!ććĈ!ććććĈ!ćććĈććĈćććĈććććĈććĈććććĈććĈćďĉ!!!!!!!!!": 3363,
      "Ĉ!Ĉ!ĈĈĈĈĈĈćĈ!ĈĈĈ%&'(ďĉ%&'(%&'(%&'(ďĉďĉďĉďĉ!ďĉďĉ%!!!&'(ďĉďĉďĉ!!ďĉ!ććĈ!Ĉ!Ĉ!Ĉ!Ĉ!ďĉďĉ!ďĉćććććĈ!Ĉ!Ĉ!Ĉ!Ĉ!Ĉ!ďĉ!%&'(ďĉ!!ďĉ!": 3364,
      "ćććććććĈ!ćČČďĉďĉďĉ!!!!!": 3365,
      "ďĉ!!!!!!!!!%!!!!!!!!": 3366,
      "ďĉ!ďĉďĉ%&'(ďĉďĉďĉďĉďĉ": 3367,
      "ćďĉďĉ!ďĉďĉ!ďĉ)))": 3368,
      "ćďĉ#$ćĈ!ćć%&'(ďĉďĉ!!!!ďĉ!!)ďĉďĉ!ďĉďĉ%&'(!ďĉďĉďĉ!!ďĉďĉćĈ!Čďĉďĉďĉ!ďĉďĉ!ďĉďĉďĉ!ďĉďĉ!ďĉďĉďĉĈ!Ĉ!Ĉ!Ĉ!!": 3369,
      "ďĉďĉďĉďĉďĉďĉďĉ!ďĉ!ďĉćććććććĈ!ćČČďĉďĉďĉ!!!!!": 3370,
      "AAAAAA": 3371,
      "!!!!!!!!!!!!!!!!!!!!!!!!ďĉ!!ďĉďĉďĉďĉďĉ!!ďĉ!ďĉ!ďĉďĉďĉ!": 3372,
      "!!!!R%&'(TVa!!!SĂĄĆ!!!!R!!!S": 3373,
      "ććĈ!Ĉ!Ĉ!Ĉ!Ĉ!Ĉ!ććĈ!ćďĉ!ďĉććććĈ!ćĈ!ĈĈ!ććĈ!ćĈ!ĈĈ!ćĈ!Ĉ!ćĈ!ďĉ!)": 3374,
      "&'(!!!!ďĉććććĈ!ćĈ!ćĈ!ĈĈ!ććĈ!Ĉ!ČďĉćĈ!ćĈ!ćĈ!ćĈćĈ!ćĈ!Ĉ!ććĈ!ĈĈ!ćĈĈ!Ĉ!ĈćĈ!Ĉ!ĈĈĈĈĈĈććĈ!ćďĉ!!!!!!!!ďĉ!ďĉ!%&'(ććĈ!ćďĉďĉďĉďĉďĉďĉďĉ!!": 3375,
      "ćĈćďĉďĉďĉ!!!ďĉďĉďĉďĉ%&'(ďĉ!!ďĉ!ďĉďĉ!ďĉ!ďĉďĉďĉ!ďĉďĉďĉ!ďĉďĉ!!ďĉďĉďĉ!": 3376,
      "%&'(ďĉ!ćĈ!ćĈďĉďĉďĉďĉ!ďĉďĉďĉďĉ!ďĉ!!Ĉ!ĈćĈ!Ĉ!Ĉ!ĈćĈ!ćć": 3377,
      "ćĈćĈćĈ!ćĈ!ććĈ!ćĈććĈćĈ!ćĈ": 3378,
      "!%!&'(!!!!!!!!!!!!!!!": 3379,
      "LM": 3380,
      "ďĈ!Ĉ!Ĉ": 3381,
      "ďĈ!ĈĈ": 3382,
      "!!!!!!!!!!!!!!!!!!!!!!!!!!": 3383,
      "Ĉ!Ĉ!ćĈ": 3384,
      "Ĉ!Ĉ!%Ĉ&'(!": 3385,
      "%&'(\"": 3386,
      "ďĉ!!ďĉďĉ!": 3387,
      "ďĉďĉďĉM": 3388,
      "ďĉďĉďĉ!ćĈ!Ĉ!ćĈ!ćĈ!ćĈ!Ĉ!ććććĈ!ććĈ!ć!ďĉććĈ!Ĉ!ĈĈĈ!Ĉ!Ĉ!ĈĈćĈ": 3389,
      "ććĈ!Ĉ!Ĉ!ĈćĈ!": 3390,
      "ďĉ%&'(ďĉďĉďĉďĉďĉďĉďĉ": 3391,
      "!!!!!!!ďĉďĉ": 3392,
      "LLLLLL!LK": 3393,
      "-%&+01": 3394,
      "ďĉďĉďĉ%&'(ććĈ!Ĉ!ćĈĈ!ćĈ!Ĉ!Ĉ!Ĉ!Ĉ!ĈĈĈćĈ!Ĉ!Ĉ!ćďĉććć": 3395,
      "'(788888888,": 3396,
      "010101'(333": 3397,
      ")!)!!!!!!!!!!!!!!!!!!!!!!!!!!!!!": 3398,
      "ďĉ!!ďĉ!ďĉďĉ!!ďĉďĉďĉďĉďĉďĉďĉďĉ!": 3399,
      "MMMMMMMMMMMMMMMMMMMM": 3400,
      "7777777": 3401,
      "%&'(ďĉďĉ!ďĉďĉ": 3402,
      "%!!!!!!!!!!&'(": 3403,
      "&'(!!!!!!!!!!!!!!!!!!!!!!!!!!!!!!!!!!!!!!!!!!!!!!!!!!!!!!!!!!!!!!!!!!!!!!!!!!!!!!!!!!!!!!!!!!!!!!!!!!!!!!!!!!!!!!!!!!!!!!!!!!!!!!!!!!%!!!!!!!!!!!!": 3404,
      ")!)!!!!!!!!ďĉ!ďĉďĉ!!!!!!!!!!!!!!!!!!!!!!!!!!!!!!!!!!!!!!!!!!!!!!!!!!!!!!!!!!!!!!!!!!!!!!!!!!!!!!!!!": 3405,
      "%!&'(!!!!!!!!!!!!!!!!!!!!!!!!!!!!!!!!!!!!!!!!!": 3406,
      "ćĈĈćĈĈĈĈĈĈćĈĈĈĈćĈĈćĈĈćĈ!ćććĈ!ććďĉďĉ!!!!": 3407,
      "Ĉ!ďĈ!ĉ": 3408,
      "&'Ĉ(": 3409,
      "ćććććććććććĈ!ćĈ!!ććĈ!ććĈ!ćĈ!Ĉ!Ĉ!Ĉ!Ĉ!Ĉ!Ĉ": 3410,
      "ććĈ!Ĉ!ććĈ!ććććĈćĈćĈćĈććććĈ!Ĉ!ććĈ!ĈććććĈćĈćĈćĈćĈćĈćĈćĈćĈćĈć!!!!!!!!!!!!!!!!!!!!!!!!!!!!!!!!!!!!!!!!!!!!!!!!!!!!!!!": 3411,
      "ćďĉ#$ćĈ!ććďĉ%&'(ďĉ!!!!ďĉ!!)ďĉďĉ!": 3412,
      ")!)!!!!!!!!!!!!!!!!!!!!!!!!!!!!!!!!!!!!)!)!!!!!!!!!!!!!!!!!!!!!!!!!!!!!!!!!!!!!!!!!!!!!!!!": 3413,
      "ćĈ!ćĈ!ćĈ!ćĈ!ćĈ!Ĉ!ćĈ!ćĈ!Ĉ!Ĉ!ćĈ!Ĉ!Ĉ!ććĈ!Ĉ!Ĉ!ĈćĈ!Ĉ!ććĈ!ććĈ!ćĈ!Ĉ!ćĈććĈ!Ĉ!%&'(ďĉĈ!Ĉ!Ĉ!Ĉ!Ĉ!Ĉ!ĈĈĈĈĈĈĈĈĈĈĈĈĈĈĈĈĈĈĈĈĈĈĈĈĈĈĈĈĈĈĈĈĈĈĈĈĈĈĈĈĈĈĈĈĈĈĈĈĈ!Ĉ!ĈĈĈĈĈ!Ĉ!Ĉ!ďĉ": 3414,
      "%M&'(MMMMMMMMMMMMMMMMMMMMMMMMMMMMMMMMMMMMMMMMMMMMMMMMMMMMMMMMMMMMMMMM": 3415,
      "&'(!!!!!!!!!!!!!!!!!!!!!!!!!!!!!!!!!!!!!!!!!!!!!!!!)!)!!!!!!!!ďĉ!ďĉďĉ!!!!!!!!!!!!!!!!!!!!!!!!!!!!!!!!!!!!!!!!!!!!!!!!!!!!!!!!!!!!!!!!!%!&'(!!!!!!!!!!!!!!!": 3416,
      "%&'(ďĉ!!!ďĉďĉďĉ!!ďĉćććĈ!Ĉ!Ĉ!Ĉ!": 3417,
      "ćĈ!%&'(ďĉ!)ććććććććććććĈ!ććĈ!ćĈ!ćĈ!Ĉ!Ĉ!ćĈ!Ĉ!": 3418,
      "ďĉ!ďĉďĉďĉďĉďĉďĉďĉďĉďĉďĉ!!ććć%&'(ďĉ": 3419,
      ")!)!!!!!!!!!!!!!!!!!!!!!!!!!!!!!!!!!!!!!!!!!!!!!!!!!!!!!!!!!!!!!!!!!!!!!!!!!!!!!!!!!!%&'(!!!!!!!!!!!!!!!!!!!!!!)!!!!!!!!!!!!!!!!!!!!!!!!!!!!!!!!ďĉďĉďĉ!ďĉ!!ďĉďĉďĉďĉ%&'(ďĉďĉ!": 3420,
      "ć!!!!!!!!!!!!!!!!!!!!!!!!!!!!!!!!!!!!!!!!!!!!!!!!!!!!!!!%&'(%&'(ďĉ!!ććććććĈććĈ!%&'(ďĉćĈ!Ĉ!Č": 3421,
      "ďĉďĉďĉ!ďĉďĉ!ďĉďĉ!!ďĉ!!ďĉďĉćććĈ!Ĉ!Ĉ!Ĉ!Ĉ!ĈćĈĈ!Ĉ!ĈĈĈćĈćĈ!ććĈ!!%&'(ďĉ!!ďĉďĉďĉĈ!ĈĈĈ!ĈĈĈĈĈĈĈĈĈĈĈĈĈĈĈĈĈĈ!ďĉ!!ďĉ!ďĉ!!!": 3422,
      "Ĉ!Ĉ!Ĉ!Ĉ!ĈĈ!ćĈ!Ĉ": 3423,
      "!!!!!!!%!!!!!!!!!!!!&'(ććĈ!ćĈ!ćĈ!ćďĉ!!!!!!!!!!!!!!!ďĉ!!!!!!!!!!!!!!!!!!!!!!!!!!!!!!!!!!!!!!!!!!!!!!!!!!!!!!!!!!!!!!!!": 3424,
      "7777777'(788888888,": 3425,
      "!ĥĤ": 3426,
      "Bďĉ": 3427,
      "Ĉ!ĥ": 3428,
      "ďĉďĉ!!!!RTVa!!!SĂĄĆ!!!!R!!!S": 3429,
      "&'(!!!!!!!!!!!!!!!!!!!!!!!!!!!!!!!!!!!!!!!!!!!!!)!)!!!!!!!!!!!!!!!!!!!!!!!!!!!!!!": 3430,
      "ďĉ!%!&'(": 3431,
      "ćĈććĈ!": 3432,
      "!!!Ħ": 3433,
      "Ĉ!Ĉĉ": 3434,
      "!!!!!!!!!!!!ďĉďĉďĉďĉďĉ!!ďĉ!!!!!!!ďĉ!!ďĉďĉ!!!": 3435,
      "ćĈ!ćĈ!ććććĈćĈ": 3436,
      "%&Ĉ'(": 3437,
      "ďĉďĉ!ďĉďĉ!!": 3438,
      ")!)!!!!!!!": 3439,
      ")!)!!!!!!!!!!!!!": 3440,
      "ďĉďĉďĉďĉďĉďĉďĉďĉďĉďĉ!!": 3441,
      "!!!!!!!!!!!%!!!!!!!!!!!!!!!!!!!!!!!!!!!!!!!!!!!!!!!!!!!!!!!!": 3442,
      "!!!!!!!%!!!!!!!!!!!!!!!!!!": 3443,
      "ďĉ!ďĉďĉďĉďĉďĉďĉďĉ%&'(": 3444,
      "-%&+": 3445,
      "Ĉ!Ĉ!Ĉ!Ĉďĉ!!!!!!!!!!!": 3446,
      "-%&+/,'(#$": 3447,
      "ďĉďĉďĉďĉďĉćććććććĈ!Ĉ!ććććććĈ!ćĈĈ": 3448,
      "ć!Ĉ!": 3449,
      "%!!!!&'(!!!!!!!!!!!!!!!!": 3450,
      "ć%&'(ďĉćĈ!ććĈ!ćĈ!ĈďĉććććććććććććĈ!ćĈ!Ĉ!Ĉ!Ĉ!Ĉ!Ĉ!Ĉ!Ĉ!Ĉ!!ćĈĈĈĈ!Ĉ!ćĈ!Ĉ!ćĈĈĈćĈ!ĈĈĈĈĈ!Ĉ!ćĈ!ććĈ!ćĈ!ććĈ!ćĈććĈ!ćĈ!ćĈ!ĈćĈĈć%&'(ďĉĈ!ćĈ!Ĉ!Ĉ!ćĈ!Ĉ!Ĉ!ĈĈ!": 3451,
      "&'(ďĉćććĈ!Ĉ!Ĉ!Ĉďĉ!ďĉďĉďĉďĉ!!!!!!!!!!!!!!!!!!!!!Ĉ!Ĉ!Ĉ": 3452,
      "ďĉď%&'(ĉ!!": 3453,
      "ĈĈĈ!ĈĈĈććĈ!ĈĈ!ĈĈĈĈ!ĈĈ!ĈĈĈĈďĉďĉďĉ!!!!!!!!!!": 3454,
      "ćććĈĈĈĈĈććĈĈććĈćććĈćĈćĈćĈćĈĈćĈĈćĈćĈćĈććĈĈćĈĈĈććĈĈććĈćććĈĈĈĈĈćĈĈćĈćĈĈćĈĈćĈĈĈĈĈćĈćĈĈćĈĈćĈćĈćĈććĈćĈćĈćĈćĈ!ćĈćĈćĈćĈćĈćĈćĈćĈćĈćĈćĈćĈććĈ!Ĉ!ććĈ!ććććĈćĈćĈćĈććććĈ!Ĉ!ććĈ!ĈććććĈćĈćĈćĈćĈćĈćĈćĈćĈćĈ": 3455,
      "ćććĈĈ!ćĈ!Ĉ!ĈćĈĈĈćĈĈĈćĈĈćććććďĉďĉďĉĈ!ĈĈĈĈĈ!ćĈ!Ĉ!Ĉ": 3456,
      "Ĉ!Ĉ!Ĉ!Ĉ!Ĉ!Ĉ!ćďĉďĉďĉćĈ!Ĉ!Ĉ!Ĉ!ďĉ!!!!!!!!!!!!!!!!!!!!!!!!!!!!!!!!!!!!!!!!!!!!!!!!!!!!": 3457,
      "%!!!!!!!!!!!!!!!!!!!!!!!!!!&'(!!!!!!!!!!!!!!!!!!!!!!!!!!!!!!!!!!!!!!!!!!!!!!!!!!!!!!!!!!!!!!!!!!!!!!!!!!!!!!!!!!!": 3458,
      "7'777777(788888888,-%&+": 3459,
      "ďĉďĉ!ďĉ!!!!!!!!ďĉďĉďĉďĉďĉććććĈ!ćĈ!ĈćĈĈ!Ĉ!Ĉ!Ĉ!ĈćĈĈćĈĈĈĈĈĈ!%&'(ďĉďĉďĉ!))ďĉ!ďĉďĉďĉďĉ%&'(ćďĉ!ďĉďĉďĉĈ!ĈĈćďĉďĉďĉďĉďĉďĉďĉ!ďĉ!ďĉďĉďĉ!": 3460,
      "!!!!!!!%!&'(!!!!!!!!!!!ďĉ!ďĉďĉ!!!!!!!!!!!!!!!!!!!!!!!!!!!!ďĉ!!!!!!!!!!!!!!!!!!!!!!!!!!!!!!!!!!!!!!!!!!!!!!!!!!!!!!!!!": 3461,
      "%&'(ďĉ!!!!!!!!!!!!!!!!!!!!!!!!!!!!!!!!!!!!!!!!!!!!!!!!!!!!!!!!!!!!!!!!!!!!!": 3462,
      "&'(!!!!!!!!!!!!!!!!!!!!!!!!!!!!!!!!!!!!!!!!!!!!!!!!)!)!!!!!!!!ďĉ!ďĉďĉ!!!!!!!!!!!!!!!!!!!!!!!!!!!!!!!!!!!!!!!!!!!!!!!!!!!!!!!!!!!!!!!!!!": 3463,
      "777'7777(788888888,-%&+": 3464,
      "Ĉ!ćĈĈĈ!ĈĈĈ": 3465,
      "ć'Ĉ(!": 3466,
      "ďĉďĉďĉ!!ďĉďĉ!ďĉ!!ďĉććććććĈ!ććĈ!ććĈ!Ĉ!Ĉ!Ĉ!ćććĈ!Ĉ!Ĉ!ććĈćĈ!Ĉ!ĈćĈ!Ĉ!ćĈ!ććĈĈĈĈĈćĈćĈ%&'(ďĉćććććĈ!ĈĈćĈĈćĈďĉććććććććĈ!Ĉ!Ĉ!ĈćĈĈ!Ĉ!ĈćĈĈ!ćĈ!Ĉ!ĈĈĈĈćĈĈĈĈ": 3467,
      "ďĉćććďĉ!ďĉďĉ!ďĉďĉćććććďĉ!ďĉďĉďĉ!ďĉ": 3468,
      "ćććććććĈĈććććććĈ!ćĈĈďĉďĉ!!ďĉ": 3469,
      "322333222323232222222222222222222222222222222222222222244444444%&5555555522222222222222222222222266666666": 3470,
      "ćĈ!ĈĈ!ĈĈ!ĈĈ!ĈĈĈĈĈĈĈĈĈĈĈĈĈĈĈĈĈĈĈĈĈĈĈĈĈĈĈĈ!Ĉ!Ĉ!Ĉ!ĈĈĈĈĈĈĈĈĈ!Čďĉ!ćććććććĈ!Ĉ!ććććććĈ!ćĈĈ%&'(ďĉďĉĈ!ĈĈďĉ!!)!)!!!!!!!!!!!!!!!%&'(!ďĉďĉďĉ!ďĉ!ďĉ!ďĉ!ďĉďĉ!!ďĉďĉďĉďĉďĉ!ďĉ!ďĉ%&'(ďĉďĉďĉďĉćććććĈ!Ĉ!Ĉ!ćĈĈćĈďĉďĉĈ!Ĉ": 3471,
      "ćĈ!Ĉ!ĈćĈ!Ĉ!ćĈ!ććĈĈĈĈĈćĈćĈďĉćććććĈ!ĈĈćĈĈćĈ%&'(ďĉććććććććĈ!Ĉ!Ĉ!ĈćĈĈ!Ĉ!ĈćĈĈ!ćĈ!Ĉ!ĈĈĈĈćĈĈĈĈćĈĈćĈĈĈĈĈĈćĈĈĈĈćĈĈćĈĈćĈ!ćććĈ!ćć": 3472,
      "ďĉďĉćććĈ!Ĉ!Ĉ!Ĉ!Ĉ!Ĉ!ćććććĈ!ćĈĈ%&'(ďĉďĉ!!ďĉ!!!!!!!!!ďĉ!!!!!!!!!!!)!!!!!!!!!!!!!!!ďĉďĉ%&'(ďĉ)!)ďĉďĉďĉďĉďĉďĉ!!!ďĉ!!ďĉ!ďĉ!ććĈ!Ĉ!Ĉ!ććĈ!Ĉ!Ĉ!ĈĈ!Ĉ!!ćĈ!Ĉ!Ĉ!Ĉ!ćĈ!ććĈ!ć%&'(ďĉ!ďĉďĉ!!": 3473,
      "ďĈĈĈĈĉ": 3474,
      "ćĈ!Ĉ!Ĉ!Ĉ!Ĉ!Ĉ%&'(ďĉĈ!Ĉ!Ĉ!Ĉ!Ĉ!ĈĈĈ!ĈĈĈć": 3475,
      "ďĉďĉďĉďĉćĈ!ĈĈ!Ĉ!ďĉ!ďĉ!ďĉďĉďĉ!!ďĉ!ďĉ%&'(!ďĉďĉďĉćďĉ!ďĉďĉďĉďĉ": 3476,
      "ć%&'(ďĉ!ććććććććĈ!Ĉ!ćĈĈćĈ!ĈĈćĈ!ćĈĈćĈ!Ĉ!ćďĉďĉćć": 3477,
      "ćďĉ!ďĉďĉďĉďĉďĉďĉďĉ%&'(ďĉĈ!ĈććĈĈ!Ĉ!ććĈ!Ĉ!ĈĈ!ĈĈĈďĉďĉďĉďĉďĉďĉďĉ": 3478,
      "ććććĈ!ćĈćĈĈćććć": 3479,
      "ďĈĈ!ĉ": 3480,
      "ē!!": 3481,
      "Ĉ!%Ĉ&'(": 3482,
      "ďĉĈ!Ĉ!Ĉ!Ĉ!ĈćĈĈĈ!ĈĈĈ": 3483,
      "ĈĈĈ!Ĉ!Ĉ!Ĉ!ĈĈ!ćĈ!Ĉ": 3484,
      "%&'(ćĈ!ćć": 3485,
      "%&'(!ďĉ": 3486,
      "ćĈ!%Ĉ&'(": 3487,
      "ďĉ!ćĈ!Ĉ!ćĈ!ćĈ!ćĈ!Ĉ!ććććĈ!ććĈ!ć!ďĉććĈ!Ĉ!ĈĈĈ!Ĉ!Ĉ!ĈĈćĈďĉ!!ďĉďĉ!!!)!)": 3488,
      "ćĈćĈ!Ĉ!": 3489,
      "Ĉ!ĈććĈ!Ĉ!Ĉ!ĈĈ!ĈćĈ!ćć": 3490,
      "ďĉ!ďĉ%&'(ďĉďĉďĉďĉ": 3491,
      "ďĉ!ďĉćććĈ!Ĉ!Ĉ!Ĉ!Ĉ!Ĉ!ćććććĈ!ćĈĈ%&'(ďĉďĉ!!!!!!!!!!!ďĉćććĈ!Ĉ!Ĉ!Ĉ": 3492,
      "ďĉďĉďĉďĉďĉďĉďĉďĉďĉďĉďĉďĉ!": 3493,
      "ď%&'(ĉďĉďĉďĉ!": 3494,
      "ďĉďĉďĉďĉ!ďĉďĉ!": 3495,
      "Ĉ!Ĉ!Ĉ!ĈĈ!Ĉ!": 3496,
      "ćĈĈĈĈĈćĈĈĈĈĈĈ": 3497,
      "ĈĈĈĈĈĈĈĈĈĈĈĈĈĈĈ": 3498,
      ")!)!!)!)!!!!!!!!!!!!!!!!!!!!!!!!!!!!!!!!!!!!!!!!!!!!!!!!!!!!!!!!!!!!!!!!!!!!!!!!!!!!!!!!!!!!!!!!!!!!!!!!!!!!": 3499,
      "%&'ď(ĉ!!": 3500,
      "ďĉďĉ!!!!ďĉ!!)ďĉďĉ!": 3501,
      ")ďĉďĉ!ďĉ!ďĉ!ďĉďĉďĉ": 3502,
      "ćććććććććććććććććććććććććććććććĈ!ćĈ!Ĉ!ĈćĈ!Ĉ!ććĈ!Ĉ!Ĉ!Ĉ!Ĉ!ĈĈ!ćĈ!ćĈ!ćĈćĈ!ćĈ!ćĈćĈ!ćĈćĈ!ććĈćĈ!ćĈćĈ!Ĉ!ććĈćĈ!ĈĈĈĈĈĈćĈ!ććĈććĈ!ćĈ!ĈććĈĈ!Ĉ!ĈĈĈ!ććĈ!Ĉ!Ĉ": 3503,
      "%ć&Ĉ'(": 3504,
      "ĖĖĖ": 3505,
      "ďĉď%&'(ĉďĉďĉ": 3506,
      "RTVaďĉććĈ!ćććĈćććĈĈ!Ĉ!ćĈ!ććĈćĈ!ćĈ!!Č!!Č!": 3507,
      ")!)!!!!!!!!!!!!!!!!!!!!!!!!!!!!!!)!)!!!!!!!!!!!!!!!!!!!!!!!!!!!!!!!!!!!!!!!!!!!!!!!!!!!!!!!!!!!!!!!!!!!!!!!!!!!!!!!!!!!!!!!!!": 3508,
      "ćĈ!ććććććĈ!ćĈ!ććĈćććĈćććĈĈćĈćĈ!Ĉ!ćĈ!ĈćĈćĈćĈćĈ!Ĉ!ĈćĈ!Ĉ!ćĈĈĈććĈ!Ĉ!ććĈ!ćććĈćĈćĈćĈćĈĈćĈĈćĈćĈćĈćĈ!Ĉ!ĈćĈ!Ĉ!Ĉ!ććććĈćĈććĈ!ćĈ!Ĉ!Ĉ!Ĉ!ćĈ!Ĉ!ćĈ!ćĈ!Ĉ!ćĈ!ĈćĈ!ĈĈ!ĈćĈćĈćĈćććĈćĈćććĈćĈćĈ!ĈćĈćĈćĈ": 3509,
      "ďĉ%&'(ďĉćďĉććććććććććććććććĈ!Ĉ!ćĈ!Ĉ!ĈĈ!ćĈ!ćććĈ!ććĈćĈ!ććĈćććĈ!Ĉ!Ĉ!Ĉ!ćććĈćĈ!ćĈćććĈ!Ĉ!Ĉ!Ĉ!Ĉ!ćĈ!Ĉ!Ĉ!ĈćĈ!ćĈĈĈĈĈćĈĈĈĈĈćĈ!ĈĈĈćĈ%&'(ďĉ!ćććĈ!Ĉ!ćĈ!Ĉ!ĈĈ!Ĉ!ĈćĈĈĈĈĈ!Ĉ!Ĉ!Ĉ!Ĉ!Ĉ!ĈĈĈ!Ĉ!ĈĈĈĈ": 3510,
      "Ĉ!ćĈ!ćĈ!Ĉ!Ĉ!ďĉďĉ": 3511,
      "ďĉ!!!!ďĉďĉďĉďĉďĉďĉďĉďĉďĉďĉćććĈ!Ĉ!": 3512,
      "ďĉďĉććććććĈ!ćććĈ!ćććĈ!ćĈ!ć%&'(ďĉďĉďĉďĉ!": 3513,
      "%ććĈ&'(!": 3514,
      "ććĈ!ďĉ!ďĉ!!ćĈ!ďĉďĉďĉĈ!Ĉ!Ĉ!Ĉ!Ĉ!ćĈ!ĈĈĈĈćĈ!ćĈ!ć%&'(ďĉďĉďĉďĉ!ďĉ!ďĉďĉćĈ!Ĉ!Ĉ!ććĈ!ćĈ!Ĉ!Ĉ!ćĈ!Ĉ!ćĈ!ćĈ!ćĈ!ćĈćĈ!Ĉ!ĈĈćĈćĈĈĈĈĈĈĈĈĈĈĈĈ%&'(ďĉ!!ďĉďĉďĉďĉďĉďĉ!ďĉďĉ!ďĉďĉďĉ!!ććććĈ!Ĉ!": 3515,
      "ďĉďĉ)ďĉďĉ!ďĉďĉ!!ďĉ!!!!ďĉďĉďĉďĉ!!!!!!!!!!!!!!!!!!!!!!!!!!!!!!!!!!!!!!!!!!!!!ćććććććĈ!ćĈ!Ĉ!Ĉ!Ĉ!Ĉ!ćĈ!Ĉ!ćĈććĈć%&'(ďĉćĈ!Ĉ!Ĉ!Ĉ!Ĉ!Ĉ!Ĉ!Ĉ!ćĈ!ćĈ!Ĉ!ĈćĈ!Ĉ!ďĉćĈ!": 3516,
      "ĈćĈĈćĈćć%&'(%&'(": 3517,
      "'77": 3518,
      "7'77": 3519,
      "Bĉ": 3520,
      "ć%ćć&'(": 3521,
      "Ĉć": 3522,
      "%&'(ď%&'(ĉďĉďĉ": 3523,
      "%&'(ďĉ!ďĉĈ!Ĉ!ćĈ!Ĉ!ĈĈĈďĉ!ďĉ!!!SĂĄĆ!!ďĉ!!!!!!RTVa!!!SĂĄĆ!!!!R!!!S": 3524,
      "ĈĈĈĈĈćĈĈćĈćć%&'(%&'(": 3525,
      "ććććććć": 3526,
      "ďĉďĉďĉ%&ď'(ĉ": 3527,
      "ććĈććĈ": 3528,
      "ćĈĈĈćĈĈĈĈĈĈ!ĈĈ!ĈĈĈćĈĈĈćĈ!ĈĈĈĈ!ĈĈ!Ĉ": 3529,
      "Ĉ!ĈĈ!!": 3530,
      "!!!!!!!!!%!!!!!&'(": 3531,
      "ď%&'(ĉďĉďĉ!!": 3532,
      "ďĉ!ďĉ!ďĉďĉ": 3533,
      "ďĉćććććććĈĈććććććĈ!ćĈĈ": 3534,
      "%!&'(!!!!!!!": 3535,
      ")!)!!!!!!!!!!!!!!!!!!!!!": 3536,
      "77777'77": 3537,
      "ď%ĉ&'(ďĉďĉ": 3538,
      "ććĈććďĉďĉďĉ!!ďĉ!!ďĉ!!!!!!!!)!!!!!!!!)!)!)!!!!!!!!!!!!!!!!!!!!!!!!!!!!!!!!!!!!!!!!!!!!!!!!!!!!!!!!!!!!!!!!!!!!!!!!!!!!!!!!!!!!!!!!!!!!!!!!!!!!!!!!!!": 3539,
      "ĈĈ!ĈććĈ!Ĉ!ĈĈ!ĈĈ!Ĉ!ćĈ!ďĉ%&'(Ĉ!ćĈ!Ĉ!Ĉ!Ĉ!Ĉ!Ĉ!ćĈ!ćĈ!ćĈ!Ĉ!Ĉ!ćĈ!ĈĈĈćĈćĈćĈĈĈćĈ": 3540,
      "%!&'(!!!!!!!!!!!!!!!!!!!!!!!!!!!!!!!!!!!!!": 3541,
      "ďĈćĉ": 3542,
      "ďĉďĉďĉďĉďĉďĉďĉďĉ!!ďĉďĉďĉďĉ!!!!ďĉ!!": 3543,
      "%&'(ďĉĈ!ĈĈĈĈĈĈĈĈ!ĈĈĈ!ďĉ!!!!!!!!!!!!!!!!!!!!!!!!!!!!!!!!": 3544,
      "ČČČČČČČČ": 3545,
      "ďĉďĉďĉ%&'(ďĉďĉ!!ďĉ!ďĉďĉďĉďĉďĉďĉďĉďĉďĉďĉďĉďĉďĉďĉďĉ": 3546,
      "322323232323232222222222222222222222222222222222222222244444444%&5555555522222222222222222222222266666666": 3547,
      "ćĈ!Ĉ!Ĉ!Ĉ!Ĉďĉ!))ħ!": 3548,
      "ďĉďĉďĉďĉ!!!!ďĉ!!ďĉďĉďĉďĉďĉďĉďĉďĉ!ćĈ!Čďĉďĉ!%&'(ďĉďĉďĉďĉďĉďĉďĉďĉďĉćććććĈ!ćĈ!Ĉ!ćĈĈ!Ĉ!Ĉ!Ĉ!ćĈćĈĈćĈ!Ĉ!Ĉ!ćĈ!Ĉ!": 3549,
      "ćĈĈĈĈĈĈĈĈććĈćĈĈ!ććĈĈĈĈćĈĈĈĈćĈĈĈĈĈĈĈĈććĈćďĉ!ććĈ!ćĈ!Ĉ!ĈĈĈ!ĈĈĈććĈ!ĈĈ!ĈĈĈĈ!ĈĈ!ĈĈĈĈ": 3550,
      "ďĉ!!ďĉ!!!ďĉ!!ďĉďĉ": 3551,
      "ďĉ!!ďĉďĉ!!ďĉ!ďĉ!!ďĉďĉďĉ!ďĉććĈ!%&'(ďĉ!ďĉ!!ćĈ!ďĉďĉďĉĈ!Ĉ!Ĉ!Ĉ!Ĉ!ćĈ!ĈĈĈĈćĈ!ćĈ!": 3552,
      "ćĈ!ćĈ!ććććĈćĈćććĈ!ćć": 3553,
      "AM": 3554,
      "ďĉĈ!": 3555,
      "%&'(Ĉ!Ĉ!Ĉ!Ĉ!Ĉ!Ĉ!Ĉ!Ĉ!": 3556,
      "%&'(ďĉďĉďĉďĉ!ďĉďĉďĉďĉ!ďĉ!!": 3557,
      "ćĈ!Ĉ!ć": 3558,
      "ćĈ!Ĉ!Ĉ!ĈĈ!": 3559,
      "!!!!!!!!!!!!ďĉ!!!!!!!!!!!!!!!!!!!!!!!!!!!!!!!!!!!!!!!!!!!!!!!!!!!!!!!!!!!!!!!!": 3560,
      "ďĉďĉďĉćććĈ!Ĉ!Ĉ!ćĈĈĈĈ!ćĈ!ĈĈ!ćĈ!ć": 3561,
      "Ĉ!ćĈ!Ĉ!ĈĈĈĈĈ": 3562,
      "ćďĉ%ď&'(ĉ": 3563,
      "ďĉďĉďĉ%&'(ďĉďĉ": 3564,
      "ćĈ!ćĉ": 3565,
      "%&-+/,'(%&-+/,'(\"": 3566,
      "ćĈ!Ĉ!Ĉ!ćĈ!Ĉ!Ĉ!Ĉ!ćĈ!Ĉ!": 3567,
      "ďĉ!!!!!!!!!!!!!!!!!!!!!!!!!!!!!!!!!!!!!": 3568,
      "%!!!&'(!!!!!!!!!!!!!!!!!!!!!!!!!!!!!!!!!!!!!!!!!!!!!!!!!!!!!!!!!!!!!!!!": 3569,
      "&'(!!!!!!!!!!!!!!!!!!!!!!!!!!!!!!!!!!!!!!!!!!!!!!!!!!!!!!!!!!!!!!!!!!!!!!!!!!!!!!!!!!!!!!!!!!!!!!!!!!!!!!!!!!": 3570,
      "%!!!!!!!!!!!!!!!!!!!!!!!!!!!!!!!!!!!!!!!!!!!!!": 3571,
      "%ć&'(ćććć": 3572,
      "ćĈ!Ĉ!ĈćĈ!Ĉ!ććĈ!Ĉ!Ĉ!Ĉ!Ĉ!ĈĈ!ćĈ!ćĈ!ćĈćĈ!ćĈ!ćĈćĈ!ćĈćĈ!ććĈćĈ!ćĈćĈ!Ĉ!ććĈćĈ!ĈĈĈĈĈĈćĈ!ććĈććĈ!ćĈ!ĈććĈĈ!Ĉ!ĈĈĈ!ććĈ!Ĉ!Ĉ": 3573,
      "ďĉ!ďĉ!!!!!!!!!!!ďĉ!!": 3574,
      "ďĉďĉďĉďĉďĉ%&'(ďĉďĉďĉďĉ!": 3575,
      "&'(!!!!!!!!!!!!!!!!!!!!!!!!!!!!!!!!!!!!!!!!!!!!!!!!!!!!!!!!!!!!!!!!!!!!!!!!!!!!!!!!!!!!!!!!!!!!!!!!!!!!!!!!!!!!!!!!!!!!!!!!!!!!!!!!!!!!%!!!!!!!!!!!!!!!!": 3576,
      "ććĈ!Ĉ!Ĉ!Ĉ!ćĈ!Ĉ!!Ĉ!ćĈ!ćĈ!ććĈ!Ĉ!ćĈ!ďĉ!": 3577,
      "ćććććďĉ!ďĉďĉďĉ!ďĉćďĉ!!!!ćďĉ!": 3578,
      "%ć&'Ĉ(": 3579,
      "ććĈĈćĈĈĈććĈĈććĈćććĈĈĈĈĈćĈĈćĈćĈĈćĈĈćĈĈĈĈĈćĈćĈĈćĈĈćĈćĈćĈććĈćĈćĈćĈćĈ!ćĈćĈćĈćĈćĈćĈćĈćĈćĈćĈćĈćĈćć": 3580,
      "ćĈ!Ĉ!Ĉ!Ĉ!ĈĈ!Ĉ!Ĉ!Ĉ!ĈĈĈĈĈĈĈĈĈĈĈĈĈĈ!Ĉ!Ĉ!Ĉ!ĈĈĈĈĈ!Ĉ!Ĉ!Ĉ!Ĉ!Ĉ!ĈĈ!ĈĈ!ĈĈ!ĈĈĈ!ĈĈĈĈĈ!ĈĈĈĈĈĈ!Ĉ!ĈĈ!ĈĈĈĈ!ĈĈĈĈĈĈĈĈ%&'(ďĉćĈ!Ĉ!Ĉ!Ĉ!Ĉ!Ĉ!ĈĈďĉ%&'(!!!": 3581,
      "ďĉ!!ďĉ!!!!!!!!!!!ďĉ!!ćććććććĈ!Ĉ!Ĉ!ććĈĈććĈ!ćĈĈ%&'(ďĉďĉ!!!ćććććĈ!ćĈ!ććććĈ!ććĈ!ćććĈ!ćććĈćďĉďĉććĈ!": 3582,
      "ćĈ!ĈĈĈ!ĈĈćĈ!Ĉ!Ĉ!ćĈćĈĈĈĈĈćĈĈćĈćĈćĈćĈĈĈćĈĈĈĈĈĈćĈ!Ĉ!ć%&'(ďĉ!!ďĉ!ďĉďĉďĉ!ďĉ!!!!!ďĉ!ďĉďĉďĉďĉďĉďĉďĉ": 3583,
      "ćĈ!)!)!!Ĉ!Ĉ!ĈĈ!!!!!RTVa!!!SĂĄĆ!!!!R!!!SĈ!ćĈ!ćĈ!Ĉ!Ĉ!": 3584,
      "ďĉďĉďĉďĉ!ďĉďĉ!!!!!!!!!!!!!!!!!!!!!!!!!!!ďĉ!ďĉ!!!!!!ďĉďĉ!!!!": 3585,
      "ććććĈ!Ĉ!Ĉ!Ĉ!Ĉ!ĈĈ!Ĉ!ćďĉ!!ďĉďĉćĈ!ć": 3586,
      "&'(!!!!!!!!!!!!!!!!!!!!!!!!!!!!!!!!!!!!!!!!!!!!!!!!!!!!!!!!!!!!!!!!!!!!!!!!!!!)!)!!!!!!!!!!!!!!!!!!!!!!!!!!!!!!!!!!!!!!)!)!!!!!!!!!!!": 3587,
      "332223232323232222222222222222222222222222222222222222244444444%&5555555522222222222222222222222266666666": 3588,
      "ćĈ!ćĈ!Ĉ!Ĉ!ćĈ!Ĉ!Ĉ!ćĈ!Ĉ!Ĉ!ĈĈćĈĈ!Ĉďĉ!!!!!!!!!!!!!!!!!!!!!!!!!!!!!!!!ďĉ!!!!!!!!!!!!!!!!!!ďĉ!!!!!!!!!!!!!!!!!!!": 3589,
      "ďĉ!!ďĉ!!!!!!!!)!!!!!!!!)!)!)!!!!!!!!!!!!!!!!!!!!!!!!!!!!!!!!!!!!!!!!!!!!!!!!!!!!!!!!!!!!!!!!!!!!!!!!!!!!!!!!!!!!!!!!!!!!!!!!!!!!!!!!!!ďĉ!!!!!!!!!!!!!!!!!!!!!!!!": 3590,
      "ďēĉ": 3591,
      "!!!!!!!!!!!!!!!!!!!!!!!!!!!!!!!!!!!!!!!!!!!!!!!!!!!!!!!!!!!!!!!!!!!!!!!!!!!!!!!!!!!%!!!!!!!!": 3592,
      "ĈĈĈĈĈĈĈĈĈĈĈĈĈĈĈĈĈ!ćĈĈĈĈĈĈĈĈĈĈĈĈĈĈćĈ!ĈćĈĈćĈĈĈĈĈĈĈ": 3593,
      "ćĈ!ćďĉďĉďĉďĉćććććĈ!ćČ": 3594,
      "ďĉďĉďĉďĉďĉďĉďĉďĉďĉ!ďĉďĉďĉ%&'(ďĉďĉďĉ!": 3595,
      "ććććĈ!ćĈćĈĈććććĈĈĈĈĈćĈĈćĈćć%&'(%&'(": 3596,
      "!ďĉćććć": 3597,
      "32222222222222222222222222222222222222222244444444%&5555555522222222222222222222222266666666": 3598,
      "Bē": 3599,
      "MďMĉ": 3600,
      "Ĉ!ćĈĈćĈ": 3601,
      "ďĉĈ!Ĉ!Ĉ!Ĉ": 3602,
      "ćĈĈĉ": 3603,
      "ďĉ!!ďĉďĉ!!": 3604,
      "Ĉ!ćĈ!Ĉ!Ĉ!Ĉ!Ĉ!ćĈ!Ĉ!ćĈ!ćĈ!ćĈ!ćĈ!": 3605,
      "ććĈćĈ!Ĉ!Ĉ!": 3606,
      ")!)!!!!!!!!!!!!!!": 3607,
      "ďĉ!ďĉď%ĉ&'(": 3608,
      "ďĉďĉďĉ!!ďĉďĉďĉďĉďĉďĉ!ďĉďĉ!ďĉďĉ!!!ďĉćĈ!Ĉ!ććĈ!ććĈ!ĈĈ!ććĈ!Ĉ!Ĉ": 3609,
      "Ĉ!Ĉ!Ĉ!Ĉ!Ĉ!Ĉ!ĈĈĈĈĈĈĈĈĈĈĈĈĈĈĈĈĈĈĈĈĈĈĈĈĈĈĈĈĈĈĈĈĈĈĈĈĈĈĈĈĈĈĈĈĈĈĈĈĈ!Ĉ!ĈĈĈĈĈ!Ĉ!Ĉ!ďĉĈ!Ĉ!ĈĈĈ!Ĉ!Ĉ!Ĉ!ĈĈĈĈĈ!ĈĈĈĈ!ĈĈĈĈĈĈĈĈĈĈĈĈ!Ĉ!ĈĈĈĈĈĈĈĈĈĈĈĈĈĈĈĈĈĈĈĈĈĈĈĈ!ĈĈĈĈĈĈĈĈĈĈĈĈĈĈĈĈĈĈĈĈĈĈĈ": 3610,
      "%ď&'(ĉďĉďĉďĉ!": 3611,
      "ĉĉ!": 3612,
      "Ĉ!ĈĈ!ĉ": 3613,
      "ďĉ!!ďĉććććććććććććććććććććććĈ!ććĈ!ćĈ!ććĈ!ććććĈ!ćććĈććĈćććĈććććĈććĈććććĈććĈć%&'(ďĉ!!!!!!!!!ďĉďĉďĉ!!ďĉďĉ!ďĉ!!": 3614,
      "ďĉ!!ďĉćććĈ!Ĉ!Ĉ!ćĈ!Ĉ!Ĉćďĉďĉďĉďĉ": 3615,
      "ďĉďĉďĉďĉďĉ!!!": 3616,
      "ććĈ!Ĉ!ĈćĈ!ĈććĈĈĈćĈĈĈćĈ!ĈććĈĈĈćĈĈććĈĈĈćĈ!ĈćĈ!ććĈĈ!Ĉ!ĈĈćĈ!Ĉ!ćććĈ!Ĉ!ćććĈĈćĈ!ĈĈĈ!!ćććć!!!!!!!!!!!!!!!!!!!!%&'(%&'(ďĉďĉďĉ": 3617,
      "%&'(ďĉďĉććććććććććććććĈ!ććĈ!Ĉ!Ĉ!ĈćĈ!Ĉ!ĈćĈććĈĈ!ĈĈĈďĉ!!!": 3618,
      ")!)!!!!!!!!!!!!!!!!!!!!!!!!!!!!!!!!!!!!!!!!!!!!!": 3619,
      "Ĉ!ĈĈĈĈĈĈĈĈ!ĈĈĈ!ďĉ!!!!!!!!!!!!!!!!!!!!!!!!!!!!!!!!": 3620,
      "ĉĉĉĉĉĉ": 3621,
      "%&ď'(ĉďĉ": 3622,
      "ďĉ!!ďĉďĉďĉďĉďĉďĉ!ďĉďĉ!ďĉďĉ!!!ďĉćĈ!Ĉ!ććĈ!ććĈ!ĈĈ!ććĈ!Ĉ!Ĉ": 3623,
      "ďďďď!": 3624,
      "Ĉ!Ĉ!ĈĈ!Ĉ!Ĉ!Ĉ!ďĉďĉďĉďĉ": 3625,
      "ććććććććććććć%&'(": 3626,
      "ďĉďĉ!ďĉďĉ%&'(ćĈ!Ĉ!Ĉ!Ĉ!Ĉ!Ĉ!ĈĈĈ!ĈĈĈĈ!ĈĈ!Ĉ!Ĉ!Ĉ!ĈĈĈ!Ĉ!ĈĈ!ĈĈ!Ĉ!Ĉ!Ĉ!Ĉ!Ĉ!ĈĈĈĈ!ĈĈĈĈĈĈĈ!Ĉ!Ĉ!ĈĈ!Ĉ%&'(ďĉĈ!Ĉ!Ĉ!Ĉ!ĈĈĈ!Ĉ!Ĉ!ĈĈĈĈ!Ĉ!ĈĈ!Ĉ!Ĉ!ĈĈĈĈ": 3627,
      "&'(!!!!!!!!!!!!!!!!!!!!!!!!!!!!!!!!!!!!!!!!!!!!!!!!!!!!!!!!!!!!!!!!!!!!!!!!!!!!!!!!!!!!!!!!!": 3628,
      "Ĉ!ďĉďĉ!ďĉ%&'(": 3629,
      "ďĉććĈ!ďĉďĉďĉďĉ!ďĉďĉ!!ďĉďĉďĉďĉďĉďĉďĉ!ďĉ!ďĉć%&'(ććććććĈ!ćČČďĉďĉďĉ!!!!!ďĉďĉďĉ!ďĉďĉćććććĈ!Ĉ!ćĈĈ": 3630,
      "ďĉďĉďĉďĉďĉ!ďĉććĈ!Ĉ!Ĉ!Ĉ!Ĉ!Ĉ!Ĉ!ĈĈćĈ": 3631,
      "ď!!ď": 3632,
      "ćććĈ!Ĉ!Ĉ!ĈĈ!Ĉ!ćĈ!Ĉ!Ĉ!ĈćĈ!Ĉ!Ĉ!Ĉćďĉ!ććććććććĈ!Ĉ!ćĈĈćĈ!ĈĈćĈ!ćĈĈćĈ!Ĉ!": 3633,
      "ćĈĈćĈĈĈĈĈĈćĈĈĈĈćĈĈćĈĈćĈ!ćććĈ!ććďĉďĉ!!!!ďĉďĉ": 3634,
      "ćććććĈ!ćĈ!ććććĈ!ććĈ!ćććĈ!ćććĈćďĉďĉććĈ!ďĉďĉďĉďĉ!": 3635,
      "Ĉ!ĈĈćďĉďĉďĉďĉďĉďĉďĉ!ďĉ!ďĉďĉďĉ!ďĉ!ďĉďĉďĉ": 3636,
      ")!)!!!!!!!!!!!!!!!!!!!!!!!!!!!!!!!!!!!!!!!!!!!!!!!!!!!!!!!!!!!!!!!!!!!!!!!!!!!!!!!!!!!!!!!!!!!!!!!!!!!!!!!!!!!!!!!!!!!!!!!!!!": 3637,
      "ćććććććććććĈ!ĈćĈ!Ĉ!ĈćĈ!ćďĉďĉ!!ćććĈ!Ĉ!ćĈ!Ĉ!ĈĈĈĈ!ććĈďĉďĉćććććććć": 3638,
      "ďĉ!ďĉďĉďĉćĈ!Ĉ!Ĉ!Ĉ!ĈĈ!Ĉ!Ĉ!Ĉ!ĈĈĈĈĈĈĈĈĈĈĈĈĈĈ!Ĉ!Ĉ!Ĉ!ĈĈĈĈĈ!Ĉ!Ĉ!Ĉ!Ĉ!Ĉ!ĈĈ!ĈĈ!ĈĈ!ĈĈĈ!ĈĈĈĈĈ!ĈĈĈĈĈĈ!Ĉ!ĈĈ!ĈĈĈĈ!ĈĈĈĈĈĈĈĈ%&'(ďĉ": 3639,
      "ďĉďĉďĉďĉďĉćććććĈ!Ĉ!ćĈ!Ĉ!ćĈ!Ĉ!Ĉ!Ĉ!Ĉ!ćĈ!ćĈ!ćĈ!ćĈ!ćĈ!Ĉ!ćĈ!ćĈ!Ĉ!ćĈĈćĈ!ĈććĈ!ĈćĈćĈćĈ!ĈćĈĈ%&'(ďĉďĉďĉ": 3640,
      "ďĉďĉďĉ!ďĉďĉ!ďĉďĉ!!ďĉ!!ďĉďĉćććĈ!Ĉ!Ĉ!Ĉ!Ĉ!ĈćĈĈ!Ĉ!ĈĈĈ": 3641,
      "ćĈ!Ĉ!Ĉ!Ĉ!Ĉ!ĈĈĈ!Ĉ!ĈĈ!Ĉ!ĈĈ!Ĉ!ĈĈ!ĈĈ!Ĉ!ĈĈ!ĈĈ!Ĉ!ĈĈĈ!ĈĈĈĈ!ĈĈĈĈ%&'(ďĉĈ!Ĉ!Ĉ!Ĉ!ĈĈĈĈĈĈĈĈĈĈĈĈĈĈ!Ĉ!Ĉ!Ĉ!Ĉ!ĈĈĈ!ĈĈďĉ!ďĉďĉďĉćĈ!Ĉ!Ĉ!Ĉ!ĈĈ!Ĉ!Ĉ!Ĉ!": 3642,
      "ďĉďĉďĉďĉ%&'(ďĉďĉďĉďĉ!": 3643,
      "ďĉ!ďĉďĉ!!!!!!!!!!!!!!!!!!!!!!!!!!!!ďĉ!!!!!!!!!!!!!!!!!!!!!!!!!!!!!!!!!!!!!!!!!!!!!!!!!!!!!!!!!ďĉ!!!!!!!!!!!!!!!%&'(ďĉ!!!!!!!!!!!!!!!!!!!!!!!!!!!!!!!!!!!!!!!!!!!!!!!!!!!!!!!!!!!!!!!!!!!!!": 3644,
      "ďĉďĉ!ďĉďĉćććććďĉ!ďĉďĉďĉ!ďĉćďĉ!!!!ćďĉ!": 3645,
      "ďĉďĉ!!ďĉ!!ďĉ!ććĈ!ďĉ!ďĉďĉ!!ďĉďĉ)ďĉďĉ!ďĉďĉ!!ďĉ!!!!": 3646,
      "!&'(ďĉ))ħďĉďďĉĉďĉďĉďĉďĉ": 3647,
      "ćĈ!ďĉććĈ!Ĉ!Ĉ!Ĉ!ćĈ!Ĉ!!Ĉ!ćĈ!ćĈ!ććĈ!Ĉ!ćĈ!%&'(ďĉ!": 3648,
      "ćďĉ!ďĉďĉďĉďĉ!!ďĉ%&'(ďĉďĉďĉďĉďĉďĉ!ďĉďĉďĉďĉ!!": 3649,
      "ćĈ!Ĉ!ćĈ!Ĉ!ćĈ!Ĉ!Ĉ!Ĉ!Ĉ!ćĈ!ćĈ!ćĈ!ćĈ!ćĈ!Ĉ!ćĈ!ćĈ!Ĉ!ćĈĈćĈ!ĈććĈ!ĈćĈćĈćĈ!ĈćĈĈďĉ%&'(ďĉďĉĈ!Ĉ!Ĉ!Ĉ!ćććĈ!ďĉ!!ďĉ!!!!!!!!!!!": 3650,
      ")!!!!!!!!!!!!!!!!!!!!!!!!!!!!!!!!%&'(ďĉďĉďĉ!ďĉ!!ďĉďĉďĉďĉďĉďĉ!ďĉďĉ!!ďĉ!!ďĉ!ććĈ!ďĉ!ďĉďĉ!!": 3651,
      "ďĉ!!!!!!!!!!!!!!!!!!!!!!!!!!!!!!!!!!!!!!!!!!!!!!!!!!!!!!!!!!!!!!!%&'(%&'(ďĉ!!!!!!!!!!!!!!!!!!!!!!!!!!!!!!!!!!!!!!!!!!!!!!!!!!!!!!!!!!!!!!!!!!!!!!!!!!!!!!!!!!!!!!!!!!!!!!!!": 3652,
      "ďĉ!ďĉ!%&'(ďĉďĉďĉćďĉ!ďĉďĉďĉďĉ": 3653,
      "322332232323232222222222222222222222222222222222222222244444444%&5555555522222222222222222222222266666666": 3654,
      "%Ē": 3655,
      "ćĉ!": 3656,
      "ďĉ%&'(%&'(%&'(": 3657,
      "ďĉ!ćććĈ!Ĉ!ćĈ!Ĉ!ĈĈ!Ĉ!ĈćĈĈĈĈĈ!Ĉ!Ĉ!Ĉ!Ĉ!Ĉ!ĈĈĈ!Ĉ!ĈĈĈĈ": 3658,
      "!!!!!!!!!!!!!!!!!!!!!!!!!!!!!!!!!!!!!!!!!!!!!!!!!!!!!!!!!!!!!!!!!!!!!!!!!!!!!!!!!!!!": 3659,
      "Ĉ!Ĉ%Ĉ&'(": 3660,
      "!!!!!!!!!!!!%&'(": 3661,
      "ďĉďĉ!ďĉďĉďĉďĉ": 3662,
      "ďĉ!ďĉććĈ!Ĉ!Ĉ!Ĉ!Ĉ!Ĉ!Ĉ!ĈĈćĈ": 3663,
      "ďĉďĉ!!ďĉďĉ!": 3664,
      "ď%&'(ĉďĉďĉďĉďĉďĉďĉďĉ": 3665,
      "!!!!!!!!!!%!&'(": 3666,
      "%ď&'(ĉďĉďĉďĉďĉ!!": 3667,
      "Ĉ!ĈĈ!ććĈĈ": 3668,
      ")))))": 3669,
      "ďĉďĉďĉ%&'(!": 3670,
      "ďĉďĉďĉďĉďĉ%&'(ďĉ": 3671,
      "ĈĈĈĈĈĈĈĈĈĈĈĈĈĈ!": 3672,
      "01010011": 3673,
      "ďĉďĉďĉďĉďĉďĉďĉ!ďĉ%&'(": 3674,
      "%&'(%&'(%&'(%&'(%&'(%&'(%&'(%&'(%&'(%&'(%&'(%&'(%&'(%&'(%&'(%&'(%&'(%&'(%&'(%&'(%&'(%&'(%&'(%&'(%&'(%&'(%&'(%&'(%&'(%&'(%&'(%&'(%&'(%&'(%&'(%&'(%&'(%&'(": 3675,
      ")!)!!ďĉďĉďĉďĉďĉ!!ďĉ!": 3676,
      "%&'ď(ĉďĉ": 3677,
      "ďĉ!!!!ďĉ!!)ďĉďĉ!": 3678,
      "%&'(ďĉďĉďĉďĉďĉ!ďĉďĉďĉ!": 3679,
      "ď!ĉLK": 3680,
      "ćććććććĈ!Ĉ!ććććććĈ!ćĈĈďĉďĉ!!ďĉ": 3681,
      "ďĉďĉďĉďĉććććĈ!ĈĈ!ćĈ!Ĉ": 3682,
      "&'(!!!!!!!!!!!!!!!!!!!!!!!!!!!!!!!!!!!!!!!!!!!!!!!!!!!!!!!!!!!!!!!!!!!!!!!!!!!!!!!!!!!!!!!!!!!!!!!!!!!!!!!!!!!!!!!!!!!!!!!!!!!!!!!!!!!!%!!!!!!!!!!!!!!!!!!!!!!!": 3683,
      "&'(!!!!!!!!!!!!!!!!!!!!!!!!!!!!!!!!!!!!!!!!!!!!!!!!!!!!!!!!!!!!!!!!!!!!!!!!!!!!!!!!!!!!!!!!!!!!!!!!!!!!!!!!!!!!!!!!!!!!!!!!!!!!!!!!!!%!!!!!!!!!!!!!!!!": 3684,
      "Ĉ!Ĉ!Ĉ!ćĈ!ćĈďĉďĉďĉďĉ!!!!!!!!!ďĉ!!!!!!!!": 3685,
      "ććĈ!Ĉ!ĈćĈĈĈććĈĈĈććĈ!Ĉ!Ĉ!Ĉ!Ĉ!Ĉ!ćĈĈ!Ĉ!Ĉ!ćĈĈĈććĈĈ!ćććĈ!ććĈ!ćĈ!ĈĈĈćć!!!!ďĉ!!": 3686,
      "Ĉ!Ĉ!ćĈ!ĈĈćĈ!ćĈ!Ĉ!Ĉ!ćĈ!ćĈ!Ĉ!ćĈĈćĈ!Ĉ!ććĈ!ĈĈćĈćĈćĈ!Ĉ!ĈćĈĈďĉďĉ!ďĉďĉĈ!": 3687,
      "Ĉ!Ĉ!ĈćĈĈĈĈĈ!Ĉ!Ĉ!Ĉ!Ĉ!Ĉ!ĈĈĈ!Ĉ!ĈĈĈĈďĉ!!ďĉďĉ!!ďĉ!ďĉ!!": 3688,
      "&'(ćďĉ!ďĉćććĈ!ćĈ!ćĈ!ćĈ!ćĈ!ćĈćĈćĈďĉďĉ!ćććććććĈ!Ĉ!Ĉ!Ĉ!Ĉ!ćĈ!Ĉ!ćĈ!ćĈ!ćĈ!ćĈ!ćĈ!Ĉ!Ĉ!Ĉ!ĈĈ!%&'(ďĉ!!!!!!!!!!!!!!!!!!!!!ďĉďĉďĉďĉĈ!ĈĈĈćĈ!ćĈĈĈďĉďĉďĉďĉďĉďĉďĉ%&'(ďĉ": 3689,
      "ćĈ!ćĈ!Ĉ!ććĈ!ĈććĈ!Ĉ!ćĈ!ćĈ!Ĉ!Ĉ!ćĈĈ!ďĉďĉďĉďĉććĈ!Ĉ!ĈĈĈ!!ćĈ!Ĉ!Ĉ!Ĉ!ćďĉďĉ!!": 3690,
      "ćĈ!ćĈ!Ĉ!Ĉ!ćĈ!Ĉ!ćĈ!Ĉ!Ĉ!Ĉ!ćĈ!Ĉ!ćĈ!ćĈ!ćĈ!ćĈ!Ĉ!Ĉ!Ĉ!Ĉ!Ĉ!Ĉ!Ĉ!Ĉ!ĈĈ!ďĉ!!!!!!!!!!!!!!!!!!!!!!!!!!!!!!!!!!!!!!!!!!!!!": 3691,
      "R%&'(TVa!!!SĂĄĆ!!!!R!!!S": 3692,
      "ćďĉ!ďĉďĉďĉďĉďĉďĉďĉďĉ)ďĉďĉďĉďĉďĉďĉďĉ!": 3693,
      "ćććďĉććććććĈ!ććČďĉďĉďĉďĉďĉďĉďĉďĉ!!!ďĉďĉďĉďĉ": 3694,
      "ďĉ!!!!ďĉďĉďĉďĉďĉďĉďĉďĉďĉďĉćććĈ!Ĉ!Ĉ!ćĈ!Ĉ!Ĉ!Ĉ!Ĉ!!%&'(ďĉďĉ!ďĉ!!!!!!!!ďĉďĉďĉďĉďĉććććĈ!ćĈ!ĈćĈĈ!Ĉ!Ĉ!Ĉ!ĈćĈĈćĈĈĈĈĈĈ!%&'(ďĉďĉďĉ!))ďĉ!ďĉďĉďĉďĉ": 3695,
      "ďĉďĉďĉ%ď&'(ĉďĉďĉďĉďĉ": 3696,
      "ďĉďĉďĉ!ďĉďĉ!!ďĉďĉďĉ!ďĉďĉďĉďĉďĉďĉďĉďĉ": 3697,
      "ďĉćććććĈ!Ĉ!Ĉ!ćĈĈćĈďĉďĉććĈ!Ĉ!Ĉ!ćĈ!": 3698,
      "ďĉ!ďĉďĉ!Ĉ!Ĉ!ĈĈ!Ĉ!Ĉ!Ĉ!%&'(ďĉďĉďĉďĉďĉ!ďĉďĉďĉ!": 3699,
      "ćďĉ#$ćĈ!ćć%&'(ďĉďĉ!!!!ďĉ!!)ďĉďĉ!ďĉďĉ%&'(!ďĉďĉďĉ!!ďĉďĉćĈ!Čďĉďĉďĉ!ďĉďĉ!ďĉďĉďĉ!ďĉďĉ!ďĉďĉďĉĈ!Ĉ!Ĉ!Ĉ!!Ĉ!Ĉ!Ĉ!Ĉ!!Ĉ!Ĉ!Ĉ%&'(ďĉďĉďĉ%&'(Ĉ!Ĉ!ĈĈ!Ĉ!ĈĈĈĈ!Ĉ!ĈĈ!Ĉ!Ĉ!!Ĉ!": 3700,
      "ďĉďĉďĉ%&'(ďĉďĉďĉďĉďĉďĉďĉďĉďĉďĉďĉ!ććĈ!ćććĈ!ćććĈ!ćććĈ!Ĉ!Ĉ!ďĉćććĈ!ć%&'(": 3701,
      "&'(!!!!!!!!!!!!!!!!!!!!!!!!!!!!!!!!!!!!!!!!!!!!!!!!!!!!!!)!!!!!!!!!!!!!!!!!!!!!!!!!!!!!!!!%&'(ďĉďĉďĉ!ďĉ!!ďĉďĉďĉďĉďĉďĉ!ďĉďĉ!!ďĉ!!ďĉ!ććĈ!": 3702,
      "ďĉďĉ!ď%&'(ĉ!ďĉ!!!ďĉ!!!ćććĈćĈ!ćĈ!ĈĈ!Ĉ!ćĈĈĈĈĈĈĈĈĈĈĈĈĈ!ćĈ!ćĈĈĈĈ!Ĉ%&'(ďĉććďĉďĉ!!ďĉććĈ!ĈĈĈĈĈ!ćďĉďĉ": 3703,
      "!!!!!!!!!!!%!!!!!!!!!!!!!!!!!!!!!!!!!!!!!!!!!!!!!!!!!!!!!!!!!": 3704,
      "Ĉ!ďĉďĉ!ďĉ%&'(ćććććććććććććććć": 3705,
      "ć%ď&'(ĉ!": 3706,
      "ć%ć&'ć(": 3707,
      "Ĉ)!": 3708,
      "Ĉ)!)": 3709,
      "ďĉ!!!!!!!!!ćććĈ!Ĉ!Ĉ!Ĉ!Ĉ!Ĉ!ĈĈĈĈĈĈĈĈĈĈĈĈďĉ!!!!!!!!!!!!!!!!!!!!!!!!!!!!!!!!!!!!!!!!!!!!!!!!!!!!!!!!!!!!!!)!)!!!!!!!!!ććććĈ!ĈĈ%&'(ďĉ!!!!!!!!!!!!!!!!!!!!!!!!!!!!)!)!!!!!!!!!!!!!!!!!!!!!!!!!!!!!!!!)!)!!": 3710,
      "ćĈĉ!": 3711,
      "!!!!!!!!!!!!!!!!!!!!!!!!!!!!!!!!!!!!!!!!!!!!!!!!!!!!!!!!!!!!!!!!!!!!!!!!!!!!!!!!!!!!!!!!!!!!!!!!!!!!!!!!!!!!!!!!": 3712,
      "ćĈ!ćĈ!ďĉďĉďĉďĉďĉďĉ": 3713,
      "ďĉ!ďĉ!!!!!!!!!!!!!!": 3714,
      "!!!!!!!!!!!ďĉ!!!!!!!!!!!!!!!!!!!!!!!!!!!!!!!!!!!!!!!!!!!!!!!!!!!!!!!!!!!!!!!": 3715,
      "%!&'(!!!!!!!!!!!!!!!!!!!!!!!!!!!!!!!!!!!!!!!!!!!!!!!!!!!!!!!!!!!!!!!!!!!!!!!!!!!!!!!!!!!!!!!!!!!!!!!!!!!!!!!!!!!!!!!!!!!!!!!!!!!!": 3716,
      "ďĉ%&'(ďĉďĉďĉ!": 3717,
      "ď%&'(ĉďĉďĉďĉďĉďĉďĉďĉďĉ": 3718,
      "%Ĉ&'(ĈĈĈĈĈĈĈĈ": 3719,
      "ďĉďĉ%&'(ććĈ!Ĉ!Ĉ!ćĈ!ďĉďĉďĉďĉďĉďĉćććććććĈ!Ĉ!ććććććĈ!ćĈĈ%&'(ďĉďĉ!!ďĉćććĈ!Ĉ!Ĉ!ćĈ!Ĉ!Ĉ": 3720,
      "%!&'(!!!!!!!!!!!!!!": 3721,
      "ćĈ!Ĉ!Ĉ!Ĉ!Ĉ!Ĉ!ĈĈĈ!ĈĈĈĈ!ĈĈ!Ĉ!Ĉ!Ĉ!ĈĈ": 3722,
      "%Ĉ&'(!Ĉ!Ĉ!Ĉ!": 3723,
      ")!)!!!!!!!!!!!!!!!!!!!!!!!!!!!!": 3724,
      "ďĉ!!!!!!!!!!!!!!!!!!!!!!!!!!!!!!!!!!!!!!!!!!!!!!!!!!!!!!": 3725,
      "ďĉ!!!!!!!!!!!!!!!!!!!!!!!!!!!!!!!!!!!!!!!!!!!!!!!!!!!!!!!%!&'(": 3726,
      "ďĉďĉćććććĈ!Ĉ!ćĈĈćďĉćĈ!ććĈ!ćĈ!Ĉ": 3727,
      "ćĈĈĈćĈĈďĉ": 3728,
      "ďĉ!ďĉďĉďĉĥ": 3729,
      "%!!!!!!!!!!!!!&'(!!!!!!!!!!!!!!!!!!!!!!!!!!!!!!!!!!!!!!!!!!!!!!!!!!!!!!!!!!!!!!!!!!!!!!!!!!!!!!!!!!!!!!!!!!!!!!!!!!!!!!!!!!!!!!!!!!!!!!!!!!!!!!!!": 3730,
      "ďĉ!!!!!!!!!!!%!&'(!!!!!!!!!!!!!!!!!!!!!!!!!!!!!!!!!!!!!!!!!!!": 3731,
      "ďĉ!ďĉďĉďĉďĉ!!ďĉďĉďĉ!": 3732,
      "ĥĤ!!": 3733,
      "ďĉďĉďĉďĉďĉ%&'(ďĉďĉ": 3734,
      "ďĉďďĉĉďďĉĉ": 3735,
      "ďĉďĉďĉďĉďĉďĉďĉďĉďĉďĉćććĈ!Ĉ!Ĉ!ćĈ!Ĉ!Ĉ!Ĉ!Ĉ!!%&'(ďĉďĉ!ďĉ!!!!!!!!ďĉďĉďĉďĉďĉććććĈ!ćĈ!ĈćĈĈ!Ĉ!Ĉ!Ĉ!ĈćĈĈćĈĈĈĈĈĈ!%&'(ďĉďĉďĉ!))ďĉ!ďĉďĉďĉďĉćďĉ!ďĉďĉďĉ": 3736,
      "00011101000111": 3737,
      "Ĉ!ćĈ!Ĉ!Ĉ!ćĈ!Ĉ!Ĉ!ĈĈ!ćĈ!ďĉ!": 3738,
      "ćďĉďĉ%&'(ćĈ!ćĈ!Ĉ!Ĉ!ćĈ!Ĉ!Ĉ!ćĈ!Ĉ!Ĉ!ĈĈćĈĈ!Ĉďĉ!!!!!!!!!!!!!!!!!!!!!!!!!!!!!!!!ďĉ!!!!!!!!!!!!!!!!!!ďĉ!!!!!!!!!!!!!!!!!!!ďĉ!!!!!!!!": 3739,
      "ćććććććććććĈ!ĈćĈ!Ĉ!ĈćĈ!ćďĉďĉ!!ćććĈ!Ĉ!ćĈ!Ĉ!ĈĈĈĈ!ććĈďĉďĉćććć": 3740,
      "ďĉďĉ%&'(!ďĉďĉďĉ!!ďĉďĉćĈ!Čďĉďĉďĉ!ďĉďĉ!ďĉďĉďĉ!ďĉďĉ!ďĉďĉďĉĈ!Ĉ!Ĉ!Ĉ!!Ĉ!Ĉ!Ĉ!Ĉ!!Ĉ!Ĉ!Ĉ": 3741,
      "!!!!!!!!!!!!ďĉ!!ďĉ!!!!": 3742,
      "Ē!!!ė": 3743,
      "ććĈ!ćďĉďĉďĉďĉďĉďĉďĉ!!ďĉ%&'(ďĉďĉ": 3744,
      "!!!!!!!!!ďĉ!!!!!!!!ďĉďĉďĉ!ďĉ!%&'(!!!!!!!!!!!!ďĉ!ďĉ!!!!!!ďĉďĉ!!ďĉ!ďĉďĉ!!ďĉďĉďĉďĉďĉďĉďĉ%&'(": 3745,
      "ďĉ!ďĉďĉďĉďĉďĉďĉďĉćďĉ!ďĉďĉďĉďĉ!!%&'(ďĉďĉďĉďĉďĉďĉďĉ!": 3746,
      "ććĈ!ć%&'(ďĉďĉďĉďĉďĉďĉďĉďĉďĉ!!!ďĉ%&'(ďĉďĉ!!ďĉ": 3747,
      "ďĉďĉďĉďĉďĉďĉďĉ!ďĉ!ďĉćććććććĈ!ćČČ%&'(ďĉďĉďĉ!!!!!ďĉďĉďĉ!ďĉďĉćććććĈ!Ĉ!ćĈĈćďĉćĈ!ććĈ!ćĈ!Ĉ": 3748,
      "ćĈ!Ĉ!Ĉ!Ĉ!Ĉ!Ĉ!ĈĈďĉ!!!ďĉ!ďĉďĉ!": 3749,
      "ďĉďĉćććĈ!Ĉ!Ĉ!Ĉ!Ĉ!Ĉ!ćććććĈ!ćĈĈ%&'(ďĉďĉ!!ďĉ!!!!!!!!!ďĉ!!!!!!!!!!!)!!!!!!!!!!!!!!!ďĉďĉ%&'(ďĉ)!)ďĉďĉďĉďĉďĉďĉ!!!ďĉ!!ďĉ!ďĉ!ććĈ!Ĉ!Ĉ!ććĈ!Ĉ!": 3750,
      "ďĉćĈ!ćĈ!Ĉ!ććĈ!Ĉ!Ĉ!Ĉ!ćĈĈĈ!Ĉ!ćĈ!Ĉ!ĈĈĈ!ĈĈĈććĈ!ćĈćĈĈĈ!ĈćĈĈĈĈĈĈĈĈććĈćĈĈ!ććĈĈĈĈćĈĈĈĈćĈĈĈĈĈĈĈĈććĈć%&'(ďĉ!ććĈ!ćĈ!Ĉ!ĈĈĈ!ĈĈĈććĈ!ĈĈ!ĈĈĈĈ!ĈĈ!ĈĈĈĈďĉďĉďĉ!!!!!!!!!!ďĉďĉďĉ%&'(ďĉďĉďĉĈ!Ĉ!Ĉ!Ĉ!Ĉ!Ĉ!": 3751,
      "00110101001101'(3": 3752,
      "Ĉ!Ĉ!Ĉ!!ĈĈ!ĈććĈ!Ĉ!ĈĈ!ĈĈ!Ĉ!ćĈ!ďĉ": 3753,
      "ďĉ!ďĉ!ďĉ%&'(ďĉďĉćďĉ!ďĉďĉďĉďĉďĉďĉďĉ%&'(ďĉĈ!ĈććĈĈ!Ĉ!ććĈ!Ĉ!ĈĈ!ĈĈĈďĉďĉďĉďĉďĉďĉďĉ": 3754,
      "!!!!!!%!!!!!!!!!!&'(!!!!!!!!!!!!!!!!!!!!!!!!!!!!!!!ććććĈ!ĈĈďĉ!!!!!!!!!!!": 3755,
      "ć%&'(!!!!!!!!!!!!!!!!!!!!!!!!!!!!!!!!!!!!!!!!!!!!!!!!!!!!!!!%&'(%&'(ďĉ!!ććććććĈććĈ!ďĉćĈ!Ĉ!Č%&'(ďĉďĉďĉ!ććĈ!ćďĉďĉďĉďĉďĉďĉďĉďĉ": 3756,
      "&'(!!!!!!!!!!!!!!!!!!!!!!!!!!!!!!!!!!!!!!!!!!!!!!!!!!!!!!!!!!!!ďĉďĉććććććĈ!ćććĈ!ćććĈ!ćĈ!": 3757,
      "ććććććĈććĈ!ďĉćĈ!Ĉ!Čďĉďĉďĉ!ććĈ!ć": 3758,
      "ďĉ!!!!!!!!!!!!!!!!!!!!!!!!!!!!!!!!!!!!!!!!!!!!!!!!!!!!ďĉ!!!!!!!!!!!!ďĉďĉ%&'(ďĉďĉďĉ!!ďĉ!!!!!!!ďĉ!!ďĉďĉ!!!ďĉďĉďĉďĉďĉ!ďĉććĈ!Ĉ!Ĉ!Ĉ!Ĉ!Ĉ!Ĉ!ĈĈćĈ%&'(ďĉďĉćććĈ!Ĉ!Ĉ!Ĉ!Ĉ!Ĉ!ćććććĈ!ćĈĈ": 3759,
      "!!!ďĉďĉďĉďĉććĈ!Ĉ!Ĉ!Ĉ!Ĉ!Ĉ!ććĈ!ćďĉ!ďĉććććĈ!ćĈ!ĈĈ!ććĈ!ćĈ!ĈĈ!ćĈ!Ĉ!ćĈ!%&'(ďĉ!)ććććććććććććĈ!ććĈ!ćĈ!ćĈ!Ĉ!Ĉ!ćĈ!Ĉ!": 3760,
      "ćďĉ!ććććĈ!ćĈ!Ĉ!Ĉ!ćĈ!Ĉ!Ĉ!Ĉ!ćĈ!Ĉ!Ĉ!Ĉ!ćĈ!Ĉ!ćĈ!ĈćĈ!Ĉ!ćĈ!ćĈ!ćĈ!ćĈ!ćĈ!Ĉ!ćĈ!ćĈ!Ĉ!Ĉ!ćĈ!Ĉ!Ĉ!ććĈ!Ĉ!Ĉ!ĈćĈ!Ĉ!ććĈ!ććĈ!ćĈ!Ĉ!ćĈććĈ!Ĉ!%&'(ďĉĈ!Ĉ!Ĉ!Ĉ!Ĉ!Ĉ!": 3761,
      "%K&'(": 3762,
      "ććĈ!ćććĈ!ćććĈ!ćććĈ!Ĉ!Ĉ!%&'(ďĉćććĈ!ćďĉďĉďĉďĉďĉ!!ďĉ!!!!ďĉďĉďĉ!ďĉďĉ!": 3763,
      "ććĈ!Ĉ!Ĉ!ĈćĈ!%&'(Ĉ!Ĉ!Ĉ!Ĉ!Ĉ!Ĉ!Ĉ!Ĉ!": 3764,
      "ďĉćććććććĈĈććććććĈ!ćĈĈďĉďĉ!!ďĉ": 3765,
      "Ĉ!ćĈ!Ĉ!Ĉ!Ĉ!Ĉ!ćĈ!Ĉ!ćĈ!ćĈ!ćĈ!ćĈ!ĈĈĈ!Ĉ!Ĉ!Ĉ!ĈĈ!ćĈ!Ĉ": 3766,
      "M!!!!!!!!!!!!!!!!!!": 3767,
      "ďćĈ!Ĉ": 3768,
      "!!ďĉďĉ": 3769,
      "!!ććĈ!Ĉ!ĈćĈĈĈććĈĈĈććĈ!Ĉ!Ĉ!Ĉ!Ĉ!Ĉ!ćĈĈ!Ĉ!Ĉ!ćĈĈĈććĈĈ!ćććĈ!ććĈ!ćĈ!ĈĈĈćć!!!!ďĉ!!": 3770,
      "ďĉ%!!&'(": 3771,
      "%&'(Ĉ": 3772,
      "ćĈ%!Ĉ&'(!": 3773,
      "ćĈ'(!": 3774,
      "!!!ďĉ!!!ćććĈćĈ!ćĈ!ĈĈ!Ĉ!ćĈĈĈĈĈĈĈĈĈĈĈĈĈ!ćĈ!ćĈĈĈĈ!Ĉ%&'(ďĉććďĉďĉ!!ďĉććĈ!ĈĈĈĈĈ!ćďĉďĉ": 3775,
      "Ĉ!Ĉ!Ĉ!Ĉ!Ĉ!ĈĈĈ!ĈĈ": 3776,
      "Ĉ!ĈĈĈ!Ĉ!": 3777,
      "%!&'(!!!!!!!!!!!!!!!!!!!!!!!!!!!!!!!!!!!!!!!!!!!!!!!!!!!!!!!!!!!!!!!!!!!!!!!!!!!!!!!!!!!!!!!!!!!!!!!!!!!!!!!!!!!!!!!!!!!!!!!!!!!": 3778,
      "ďĉ%&'(ďĉďĉďĉďĉďĉďĉďĉďĉ": 3779,
      "ďĉ%&'(ćććććĈ!ĈĈćĈĈćĈďĉććććććććĈ!Ĉ!Ĉ!ĈćĈĈ!Ĉ!ĈćĈĈ!ćĈ!Ĉ!ĈĈĈĈćĈĈĈĈćĈĈćĈĈĈĈĈĈćĈĈĈĈćĈĈćĈĈćĈ!ćććĈ!ćć%&'(ďĉďĉ!!!!ďĉďĉ!!!!!!!!!!!!!!!!!!!!!": 3780,
      "ď%&'(ĉďĉďĉďĉďĉďĉďĉ!": 3781,
      "%ďď&'(ĉ": 3782,
      "ćďĉ!ćććććďĉ!ććććĈćććĈ!Ĉ!ĈćĈ!ć": 3783,
      "ćĈ!Ĉ!Ĉ!Ĉ!Ĉ!Ĉ!ĈĈĈ!ĈĈĈĈ!ĈĈ!Ĉ!Ĉ!Ĉ!ĈĈĈ!Ĉ!ĈĈ!Ĉ": 3784,
      "Ĉ!Ĉ!ĈĈĈ!ĈĈ": 3785,
      "ď!ďĉĉ": 3786,
      "ďĉ!!!!!!!!!!!!!!!!!!!!!!!!!!!!!!!!!!!!!!!!!!!!!!!!!!!!!": 3787,
      "ďĉ!ďĉďĉ!ďĉďĉ!!!ďĉćĈ!Ĉ!ććĈ!ććĈ!ĈĈ!ććĈ!Ĉ!Ĉ": 3788,
      "ććĈććďĉďĉďĉ!!ďĉ!!ďĉ!!!!!!!!)!!!!!!!!)!)!)!!!!!!!!!!!!!!!!!!!!!!!!!!!!!!!!!!!!!!!!!!!!!!!!!!!!!!!!!!!!!!!!!!!!!!!!!!!!!!!!!!!!!!!!!!!!!!!!": 3789,
      "ďĉĈ!Ĉ!Ĉ!Ĉ!Ĉ!ćĈĈĈ!ĈĈĈ": 3790,
      "ďĉďĉďĉďĉďĉ%&'(ćććć": 3791,
      "&'(!!!!!!!!!!!!!!!!!!!!!!!!!!!!!!!!!!!!!!!!!!!!!!!!!!!!!!!!!!!!!!!!!!!!!!!!!!!!!!!!!!!!!!!!!!!!!!!!!!!!!!!!!!!!!!!!!!!!!!!!!!!!!!!!!!!!!%!!!!!!!!!!!!!!!": 3792,
      "&'(!!!!!!!!!!!!!!!!!!!!!!!!!!!!!!!!!!!!!!!!!!!!!!!!!!!!!!!!!!!!!!!!!!!!!!!!!!!!!!!!!!": 3793,
      "ćĈĈćĈĈćĈ!ćććĈ!ććďĉďĉ!!!!ďĉďĉ": 3794,
      "&'(!!!!!!!!!!!!!!!!!!!!!!!!!!!!!!!!!!!!!!!!!!!!!!!!!!!!!!!!!!!!!!!!!!!!!!!!!!!!!!!!!!!!!!!!!!!!!!!!!!!!!!!!!!!!!!!!!!!!!!!!!!!!!!!!!!!!!!!!%!!!!!!!!!!!!!!!!!!!!!!!!!!!!!!!!!!!!!!": 3795,
      "ćććĈ!Ĉ!Ĉ!Ĉ!ĈĈĈĈĈĈĈĈĈĈ!ćĈ!Ĉ!ĈćĈĈćĈćĈĈĈćĈĈďĉĈ!Ĉ!ĈĈĈ": 3796,
      "ćĈĈĈĈ!ĈććĈ!ććććĈć!!ďĉ!ďĉďĉďĉďĉďĉďĉ!!": 3797,
      "ĈĈĈĈĈĈĈĈĈĈĈĈĈĈ!Ĉ!Ĉ!Ĉ!Ĉ!ĈĈĈ!ĈĈďĉ!ďĉďĉďĉćĈ!Ĉ!Ĉ!Ĉ!ĈĈ!Ĉ!Ĉ!Ĉ!ĈĈĈĈĈĈĈĈĈĈĈĈĈĈ!Ĉ!Ĉ!Ĉ!ĈĈĈĈ": 3798,
      "ććĈ!Ĉ!Ĉ!Ĉ!Ĉ!ĈĈ!ćĈ!ćĈ!ćĈćĈ!ćĈ!ćĈćĈ!ćĈćĈ!ććĈćĈ!ćĈćĈ!Ĉ!ććĈćĈ!ĈĈĈĈĈĈćĈ!ććĈććĈ!ćĈ!Ĉ": 3799,
      "ćĈćĈćĈćććĈćĈćććĈćĈćĈ!ĈćĈćĈćĈćććĈĈĈĈĈććĈĈććĈćććĈćĈćĈćĈćĈĈćĈĈćĈćĈćĈććĈĈćĈĈĈććĈĈććĈćććĈĈĈĈĈćĈĈćĈćĈĈćĈĈćĈĈĈĈĈćĈćĈĈćĈĈćĈćĈćĈććĈćĈćĈćĈćĈ!ćĈćĈćĈćĈćĈćĈćĈćĈćĈćĈćĈćĈććĈ!Ĉ!": 3800,
      "%&'(Ĉ!Ĉ!ććĈ!ććććĈćĈćĈćĈććććĈ!Ĉ!ććĈ!ĈććććĈćĈćĈćĈćĈćĈćĈćĈćĈćĈ": 3801,
      "ďĉďĉ!!ďĉ!!ďĉďĉćććĈ!Ĉ!Ĉ!Ĉ!Ĉ!ĈćĈĈ!Ĉ!ĈĈĈćĈćĈ!ććĈ!!": 3802,
      "ćććĈ!Ĉ!ććĈ!ćĈ!ćČďĉ!!!ďĉĈ!Ĉ!Ĉ!Ĉ!ĈćĈĈĈ!ĈĈĈ": 3803,
      "ďĉ!!!!!!!!!!!!!!!!!!!!!!!!ďĉ!!ďĉďĉďĉďĉďĉ!!ďĉ!ďĉ!ďĉďĉďĉ!": 3804,
      "ďĉ!ďĉ!ďĉ!ďĉ!ďĉ!ďĉćććĈ!Ĉ!Ĉ!Ĉ!Ĉ!Ĉ!ćĈ!Ĉ!Ĉ!Ĉ!ćĈ!Ĉ!Ĉ!Ĉććďĉ!ćĈ!ćĈ": 3805,
      "ďĉďĉ!%&'(ďĉ!ďĉ!!Ĉ": 3806,
      "!ďĉ!!!!!!!!!!!!!!ďĉďĉďĉďĉććććĈ!ćĈ!Ĉ!Ĉ!Ĉ!ćĈ!ĈĈćĈ!ćĈ!Ĉ!Ĉ!ćĈ!ćĈ!Ĉ!ćĈĈćĈ!Ĉ!ććĈ!ĈĈćĈćĈćĈ!Ĉ!ĈćĈĈďĉďĉ!ďĉ%&'(ďĉĈ!ďĉ!ďĉďĉďĉďĉďĉ!ďĉďĉďĉ!!)!)!!!!!!!!!!!!!!!!!!!!ďĉ!!!!!!!!!!!!!!!!!!!!!!!!!!!!!!!!!!!ďĉ!ďĉďĉ!%&'(": 3807,
      "ďĉ!ďĉďĉ%&'(ďĉ!ďĉ!": 3808,
      "ďĉďĉďĉ%&'(ďĉďĉďĉďĉďĉďĉďĉďĉďĉďĉďĉ!ććĈ!ćććĈ!ćććĈ!ćććĈ!Ĉ!Ĉ!ďĉćććĈ!ć": 3809,
      "ďĉďĉďĉďĉďĉďĉďĉ!!ćććďĉććććććĈ!ććČ": 3810,
      ")ďĉćďĉďĉ!": 3811,
      "ćĈ!ćĈ!Ĉ!ĈćĈ!Ĉ!ććĈ!Ĉ!Ĉ!Ĉ!Ĉ!ĈĈ!ćĈ!ćĈ!ćĈćĈ!ćĈ!ćĈćĈ!ćĈćĈ!ććĈćĈ!ćĈćĈ!Ĉ!ććĈćĈ!ĈĈĈĈĈĈćĈ!ććĈććĈ!ćĈ!ĈććĈĈ!Ĉ!ĈĈĈ!ććĈ!Ĉ!ĈćĈ!ććĈ!Ĉ!ĈćĈ!ĈććĈĈĈćĈĈĈćĈ!ĈććĈĈĈćĈĈććĈĈĈćĈ!ĈćĈ!ććĈĈ!Ĉ!ĈĈćĈ!Ĉ!": 3812,
      "ďĉ%&'(Ĉ!Ĉ!Ĉ!Ĉ!Ĉ!ĈĈĈ!ĈĈĈćďĉďĉ!ďĉďĉć%&'(Ĉ!Ĉ!Ĉ!Ĉ!Ĉ!Ĉ!ĈĈĈ!ĈĈĈĈ!ĈĈ!Ĉ!Ĉ!Ĉ!ĈĈĈ!Ĉ!ĈĈ!ĈĈ!Ĉ!Ĉ!Ĉ!Ĉ!Ĉ!ĈĈĈĈ!ĈĈĈĈĈĈĈ!Ĉ!Ĉ!ĈĈ!Ĉ%&'(ďĉĈ!Ĉ!Ĉ!Ĉ!ĈĈĈ!Ĉ!Ĉ!ĈĈĈĈ!Ĉ!ĈĈ!Ĉ!Ĉ!ĈĈĈĈ": 3813,
      "Ĉ!ĈĈĈ!ĈĈĈćďĉďĉ!ďĉďĉć%&'(Ĉ!Ĉ!Ĉ!Ĉ!Ĉ!Ĉ!ĈĈĈ!ĈĈĈĈ!ĈĈ!Ĉ!Ĉ!Ĉ!ĈĈĈ!Ĉ!ĈĈ!ĈĈ!Ĉ!Ĉ!Ĉ!Ĉ!Ĉ!ĈĈĈĈ!ĈĈĈĈĈĈĈ!Ĉ!Ĉ!ĈĈ!Ĉ%&'(ďĉĈ!Ĉ!Ĉ!Ĉ!ĈĈĈ!Ĉ!Ĉ!ĈĈĈĈ!Ĉ!ĈĈ!Ĉ!Ĉ!ĈĈĈĈćďĉďĉ": 3814,
      "ďĉďĉďĉ!!ďĉďĉ!ďĉ!!ďĉććććććĈ!ććĈ!ććĈ!Ĉ!Ĉ!Ĉ!ćććĈ!Ĉ!Ĉ!ććĈćĈ!Ĉ!ĈćĈ!Ĉ!ćĈ!ććĈĈĈĈĈćĈćĈ%&'(ďĉćććććĈ!ĈĈćĈĈćĈďĉććććććććĈ!Ĉ!Ĉ!Ĉ": 3815,
      "ďĉ%&'(ďĉ!ďĉďĉďĉďĉďĉďĉďĉďĉ!ďĉďĉďĉďĉďĉćććććĈ!Ĉ!ćĈ!Ĉ!ćĈ!Ĉ!Ĉ!Ĉ!Ĉ!ćĈ!ćĈ!ćĈ!ćĈ!ćĈ!Ĉ!ćĈ!ćĈ!Ĉ!ćĈĈćĈ!ĈććĈ!ĈćĈćĈćĈ!ĈćĈĈ": 3816,
      "ďĉ!ďĉďĉďĉďĉďĉďĉďĉďĉććććĈ!ćĈ!Ĉ!Ĉ!ĈĈ!Ĉ!Ĉ!ĈććĈ!ć%&'(ďĉććććććććĈ!Ĉ!Ĉ!Ĉ!ćĈĈĈĈ!Ĉ!ćĈ!ďĉďĉćďĉ": 3817,
      "&'(!!!!!!!!!!!!!!!!!!!!!!!!!!!!!!!!!!!!!!!!!!!!!!!!!!!!!!!!!!!!!!!!!!!!!)!)!!!!!!!!!!!!!!!!!!!!!!!!!!!!!!!!!!!!!!!!!!!!!!!!!!!!!!!!!!!!!!!!": 3818,
      "ďĉďĉ!ďĉďĉ%&'(ďĉďĉ!ďĉ!!ďĉďĉďĉďĉďĉďĉ!ďĉďĉďĉďĉďĉďĉ!!ććććĈ!Ĉ!Ĉ!Ĉ!Ĉ!ĈĈ!Ĉ!ćďĉ!!%&'(ďĉďĉćĈ!ćďĉďĉ!ďĉďĉćććććĈ!ćČ": 3819,
      "7777'777(788888888,-%&+01": 3820,
      "ďĉĈ!Ĉ!Ĉ!Ĉ!ĈĈ%&'(": 3821,
      "ćććĈ!Ĉ!Ĉ!Ĉ!Ĉ!%&'(Ĉ!Ĉ!Ĉ!Ĉ!Ĉ!ćĈ!ćĈ!Ĉ!ćĈ!Ĉ!Ĉ!ćĈ!Ĉ!ćďĉ!ďĉďĉďĉďĉďĉďĉďĉďĉ)": 3822,
      "ććĈ!Ĉ!ććĈ!ććććĈćĈćĈćĈććććĈ!Ĉ!ććĈ!ĈććććĈćĈćĈćĈćĈćĈćĈćĈćĈćĈć!!!!!!!!!!!!!!!!!!!!!!!!!!!!!!!!!!!!!!!!!!!!!!!!!!!!!!!%&'(%&'(": 3823,
      "ďĉďĉďĉďĉ!ďĉďĉ!%&'(!!!!!!!!!!!!!!!!!!!!!!!!!!": 3824,
      "ććĈĈćĈĈĈććĈĈććĈćććĈĈĈĈĈćĈĈćĈćĈĈćĈĈćĈĈĈĈĈćĈćĈĈćĈĈćĈćĈćĈććĈćĈćĈćĈćĈ!ćĈćĈćĈćĈćĈćĈćĈćĈćĈćĈćĈćĈćć%&'(Ĉ!Ĉ!ććĈ!ććććĈćĈćĈćĈććććĈ!Ĉ!ććĈ!ĈććććĈćĈćĈćĈćĈćĈćĈćĈćĈćĈ": 3825,
      "ććććććććććććć%&'(ćććććććććććććććććććććććććććććććĈ!ćĈ!Ĉ!ĈćĈ!Ĉ!ććĈ!Ĉ!Ĉ!Ĉ!Ĉ!ĈĈ!ćĈ!ćĈ!ćĈćĈ!ćĈ!ćĈćĈ!ćĈćĈ!ććĈćĈ!ćĈćĈ!Ĉ!ććĈćĈ!ĈĈĈĈĈĈćĈ!ććĈććĈ!ćĈ!ĈććĈĈ!Ĉ!ĈĈĈ!ććĈ!Ĉ!Ĉ": 3826,
      "ďĉďĉďĉďĉďĉďĉďĉ!ďĉ%&'(ďĉďĉďĉ!!ďĉďĉďĉďĉďĉďĉ!ďĉďĉ!ďĉďĉ!!!ďĉćĈ!Ĉ!ććĈ!ććĈ!ĈĈ!ććĈ!Ĉ!Ĉ": 3827,
      "ć))": 3828,
      "ďLL": 3829,
      "ďĉĖ": 3830,
      "ćĈ!ććĈ!Ĉ!Ĉ!ĈćĈ!Ĉ!ĈćĈććĈĈ!ĈĈĈďĉ!!!": 3831,
      "ďĉďĉďĉďĉ!!!!!!!!!ďĉ!!!!!!!!ďĉďĉďĉ!ďĉ!%&'(!!!!!!!!!!!!ďĉ!ďĉ!!!!!!ďĉďĉ!!": 3832,
      "ćĈćć%&'(": 3833,
      "Ĉ!Ĉ!Ĉ!Ĉ!Ĉ!ď": 3834,
      "ćďĉćďĉ": 3835,
      "!!!!!!!!!!!!!!%!!!!!!!!!!!!!!!!!!!!!!!!!!!!!!": 3836,
      "'(33322": 3837,
      "ďĉďĉďĉ%&'(ćććććĈ!Ĉ!Ĉ!ćĈĈćĈďĉďĉććĈ!Ĉ!Ĉ!ćĈ!": 3838,
      "ćĈ!ćď": 3839,
      ")!)!!!!!!!!!!!!!!!!!!!!!!!!!!!!!!!!!!!!!!!!!!!!!!!!!!!!!!!!!!!!!!!!!!!!!!!!!!!!!!!!!!!!!!!!!!!!!!!!!!!!!!!!!!!!!!!!!!!!!!!": 3840,
      "ďĉďĉďĉďĉďĉFD": 3841,
      "%Ĉ&'(!Ĉ!ćĈ!Ĉ!": 3842,
      "%&'(ďĉďĉććććććĈ!ćććĈ!ćć": 3843,
      "ď!ďďďďďďďď": 3844,
      "ďĉ!!ďĉ!ďĉďĉďĉďĉďĉďĉďĉďĉ": 3845,
      "&'(!!!!!!!!!!!!!!!!!!!!!!!!!!!!!!!!!!!!!!!!!!!!!!!!!!!!!!!!!!!!!!!!!!!!!!!!!!!!!!!!!!!!!!!!!!!!!!!!!!!!!!!!!!!!!!": 3846,
      "&'(!!!!!!!!!!!!!!!!!!!!!!!!!!!!!!!!!!!!!!!!!!!!!!!!!!!!!!!!!!!!!!!!!!!!!!!!!!!!!!!!!!!!!!!!!!!!!!!!!!!!!!!!!!!!!!!": 3847,
      "ďĉ!!!!!!!!!!!!!!!!!!!!!!!!!!!!!!!!!!!!!!!!!!!!!!!!!!!!!!!!!!!!!!!!!!!!!!!!!!!!!!!!!!!!!!!!!!!!!!!!!!!!!!!!!!!!!!!!": 3848,
      "ĉĉĉĉĉ": 3849,
      "ďĉ!!!!ďĉďĉďĉďĉďĉďĉďĉďĉďĉďĉ%&'(ćććĈ!Ĉ!Ĉ!ćĈ!Ĉ!Ĉ!Ĉ!Ĉ!!": 3850,
      "ć!Ĉ!!": 3851,
      "%&'(!ĥĤ": 3852,
      "ďĉďĉďĉ!ďĉććĈ!ďĉ!ďĉ!!ćĈ!": 3853,
      "ď!ĉ!!": 3854,
      "ďĉďĉďĉďĉďĉ%&'(ďĉďĉ!": 3855,
      "%&'(ďĉ!Ĉ!ĈćĈ!Ĉ!Ĉ!ĈćĈ!ćć": 3856,
      "ćďĉ%&'(ćĈ!Ĉ!Ĉ!Ĉ!Ĉ!Ĉ!Ĉ!Ĉ!ćĈ!ćĈ!Ĉ!ĈćĈ!Ĉ!ďĉćĈ!": 3857,
      "&'(!!!!!!!!!!!!!!!!!!!!!!!!!!!!!!!!!!!!!!!!!!!!!!!!!!!!!!!!!!!!!!!!!!!!!!!!!!!!!!!!!!!!!!!!!!!!!!!!!!!!!!!!!!!!!!!!!!!!!!!!!!!!%!!!!!!!!": 3858,
      "ďĉďĉďĉďĉĈ!ĈĈĈćĈ!ćĈĈĈďĉďĉďĉďĉďĉďĉďĉďĉ": 3859,
      "Ĉ!Ĉ!ĈĈĈĈĈĈćĈ!ĈĈĈďĉ%&'(%&'(%&'(": 3860,
      "Ĉ!Ĉ!ćĈ!Ĉ!ĈĈĈďĉ!ďĉ!!!SĂĄĆ!!ďĉ!!!!!!RTVa!!!SĂĄĆ!!!!R!!!SćććććććĈ!Ĉ!": 3861,
      "ďĉććććććĈ!ććĈ!ććĈ!Ĉ!Ĉ!Ĉ!ćććĈ!Ĉ!Ĉ!ććĈćĈ!Ĉ!ĈćĈ!Ĉ!ćĈ!ććĈĈĈĈĈćĈćĈďĉ%&'(ćććććĈ!ĈĈćĈĈćĈďĉććććććććĈ!Ĉ!Ĉ!ĈćĈĈ!Ĉ!ĈćĈĈ!ćĈ!Ĉ!ĈĈĈĈćĈĈĈĈćĈĈćĈĈĈĈĈĈćĈĈĈĈćĈĈćĈĈćĈ!ćććĈ!ćć%&'(ďĉďĉ!!!!ďĉďĉ!!!!!!!!!!!!!!!!!!!!!": 3862,
      "%!!&'(!!!!!!!!!!!!!!!!!!!!!!!!!!!!!": 3863,
      "ďĉďĉćĈ!ĈĈ!ĈĈĈĈ!Ĉ!Ĉ!ĈĈĈĈĈĈĈĈ!ĈĈĈĈĈďĉ!ďĉďĉ!": 3864,
      "ćď%&'(ĉ!!!!!!!!!": 3865,
      "%&'(ďĉ!!!!!!!!!!!!!!!!!!!!!!!!!!!!!!!!!!!!!!!!!!!!!!!!!!!!!!!!!!!!!!!!!!!!!!!!!!!!!!!!!!!!": 3866,
      "ćďĉďĉ!ďĉ!ďĉ)))": 3867,
      "ďĉďĉďĉďĉďĉďĉďĉďĉďĉ%&'(ďĉďĉďĉďĉďĉďĉ": 3868,
      "Ĕĥ!!": 3869,
      "ĔĥćĈ!ćĈ!Ĉ!ĈĈ!": 3870,
      "%&'(!!!!!!!!!!!!!!!!!!!!!!!!!!!!!!!!!!!!!!!!!!!!!!!!!!!!!!": 3871,
      "ďĉďĉďĉ!ććĈ!ćďĉďĉďĉďĉďĉďĉďĉďĉ%&'(ďĉ!!ďĉďĉďĉ": 3872,
      "&'(!!!!!!!!!!!!!!!!!!!!!!!!!!!!!!!!!!!!!!!!!!!!!!!!!!!!!!!!!!!!!!!!!!!!!!!!!!!!!!!!!!!!!!!!!!!!!!!!!!!!!!!!!!!!!%!!!!!!!!!!!!!!!!": 3873,
      "%&'(!!!!!!!!!!!!!!!!!!!!!!!!!!)!!!!!!!!!!!!!!!!!!!!!!!!!!!!!!!!": 3874,
      "ćććĈ!ćĈďĉďĉććć": 3875,
      "ďĉ!ďĉďĉďĉďĉćććĈ!Ĉ!ććĈ!ćĈ!ćČďĉ!!!ďĉ!Ĉ!Ĉ!Ĉ!Ĉ!ĈćĈ!ĈĈ!ĈĈĈćĈćďĉďĉďĉ!!!": 3876,
      "Ĉ!Ĉ!Ĉ!Ĉ!ĈĈ!Ĉ!Ĉ!Ĉ!Ĉ!ćĈ!Ĉ!ĈĈĈĈĈ": 3877,
      "ććććććććććććĈ!ćĈ!ĈĈ!ćĈ!ĈćććććććĈćĈ!Ĉ!ćĈ!ćĈ!Ĉ!ćĈ!Ĉ!ćĈ!ĈćĈĈćĈĈćĈĈćĈćĈĈćĈĈćĈćć": 3878,
      ")!)!!!!!!!!!!!!!!!!!!!!!!!!!!!!!!!!!!!!!!!!!!!!!!!!!!!!!!!!!!!!!!!!!!!!!!!!!!!!!!%&'(!!!!!!!!!!!!!!!!!!!!!!!!!!)!!!!!!!!!!!!!!!!!!!!!!!!!!!!!!!!": 3879,
      "!!!!!!!!!!!!!!!!!!!!!!!!!!!ďĉ!ďĉ!!!!!!ďĉďĉ!!!!ďĉďĉďĉ%&'(ććĈ!Ĉ!ćĈĈ!ćĈ!Ĉ!Ĉ!Ĉ!Ĉ!ĈĈĈćĈ!Ĉ!Ĉ!ćďĉććć": 3880,
      "ďĉďĉďĉďĉ!ďĉ!ďĉ!ďĉ!ďĉ!ďĉ!ďĉćććĈ!Ĉ!Ĉ!Ĉ!Ĉ!Ĉ!ćĈ!Ĉ!Ĉ!Ĉ!ćĈ!Ĉ!Ĉ!Ĉćć%&'(ďĉ!ćĈ!ćĈďĉďĉďĉďĉ!ďĉďĉďĉďĉ!ďĉ!!Ĉ!ĈćĈ!Ĉ!Ĉ!ĈćĈ!ćć": 3881,
      "ććĈ!Ĉ!Ĉ!ĈćĈ!%&'(Ĉ!Ĉ!Ĉ!Ĉ!Ĉ!Ĉ!Ĉ!Ĉ!Ĉ!ďĉďĉ!ďĉ%&'(ćććććććććććććććć": 3882,
      "ďĉĈ!Ĉ!Ĉ!Ĉ!ĈĈ%&'(Ĉ!Ĉ!Ĉ!ĈĈĈĈ!Ĉ!ĈĈ!Ĉ!Ĉ!ĈĈĈĈćďĉďĉćććććććĈ!Ĉ!Ĉ!ćĈ!Ĉ!Ĉ!ćďĉ!": 3883,
      "R!!!S": 3884,
      "ćĈĈĈĈĈĈĈĈĈ": 3885,
      "ĉď": 3886,
      "ĔĈ!ĥ": 3887,
      "ħďĉĉ": 3888,
      "!!!!Ē!": 3889,
      "ďĉćĈ!ćĈ!": 3890,
      "ďĉĈ!Ĉ!Ĉ!Ĉ!Ĉ!Ĉ!": 3891,
      "!!!!!!!!!!!!!!!!!!!!!!!!!!!!!!!!!!!!!!": 3892,
      "ćĈ!)!)!!": 3893,
      "ćććććĈ!Ĉ!": 3894,
      "Ĉ!Ĉ!Ĉďĉďĉďĉ%&'(Ĉ!Ĉ!ĈĈ!Ĉ!ĈĈĈĈ!Ĉ!ĈĈ!Ĉ!Ĉ!!Ĉ!": 3895,
      "%&'(ďĉ!!!!!!!!!!!!!!!!!!!!!!!!!!!!!!!!!!!!!!!!!!!!!!!!!!!!ďĉ!!!!!!!!!!!!": 3896,
      "ćĈ!ćĈ!Ĉ!ĈĈĈ!ĈĈĈććĈ!ĈĈ!ĈĈĈĈ!ĈĈ!ĈĈĈĈďĉďĉďĉ!!!!!!!!!!": 3897,
      "ďĉďĉ!!ďĉďĉďĉďĉ!ďĉďĉ!!!!!!!!!!!!!!!!!!!!!!!!!!!ďĉ!ďĉ!!!!!!": 3898,
      "Ĉ!ĈĈĈćĈćĈĈĈĈĈĈĈćĈĈĈĈĈĈćĈćĈ!ćĈĈ!": 3899,
      "!!!!!!!!!!!%!!!&'(": 3900,
      "%&'(ĉĉĉ": 3901,
      "!LćK": 3902,
      "ďĉ%&'(ďĉďĉďĉďĉ!!": 3903,
      "ďĉ%&'(ćććććĈ!Ĉ!Ĉ!ćĈĈćĈďĉďĉĈ!Ĉďĉ!ďĉ!ďĉ": 3904,
      "Ĉ!ĈĈĈĈćĈ": 3905,
      "ćďĉ%!&'(": 3906,
      "ďĉďĉ%&'(ďĉďĉďĉďĉ": 3907,
      "ďĉďĉďĉ%&'(ďĉďĉďĉ!ďĉďĉ!ďĉďĉ!!!ďĉćĈ!Ĉ!ććĈ!ććĈ!ĈĈ!ććĈ!Ĉ!Ĉ": 3908,
      "%Ĉ&'(!Ĉ!Ĉ!Ĉ!Ĉ!": 3909,
      "ďĉďĉďĉďĉďĉďĉ%&'(ďĉ": 3910,
      "ććć!": 3911,
      "%&'(ďĉďĉćďĉććććććććććććććććĈ!Ĉ!ćĈ!Ĉ!ĈĈ!ćĈ!ćććĈ!ććĈćĈ!ććĈćććĈ!Ĉ!Ĉ!Ĉ!ćććĈćĈ!ćĈćććĈ!Ĉ!Ĉ!Ĉ!Ĉ!ćĈ!Ĉ!Ĉ!ĈćĈ!ćĈĈĈĈĈćĈĈĈĈĈćĈ!ĈĈĈćĈ%&'(ďĉ!ćććĈ!Ĉ!ćĈ!Ĉ!ĈĈ!Ĉ!ĈćĈĈĈĈĈ!Ĉ!Ĉ!Ĉ!Ĉ!Ĉ!ĈĈĈ!Ĉ!ĈĈĈĈ": 3912,
      ")!)!!!!!!!!!!!!!!!!!!!!!!!": 3913,
      "ďĉďĉďĉćďĉďĉ!ďĉďĉďĉ!!ďĉ!!!!": 3914,
      ")ďĉďĉ!ďĉďĉ!!ďĉ!!!!ďĉďĉďĉďĉ!!!!!!!!!!!!!!!!!!!!!!!!!!!!!!!!!!!!!!!!!!!!!ćććććććĈ!ćĈ!Ĉ!Ĉ!Ĉ!Ĉ!ćĈ!Ĉ!ćĈććĈ": 3915,
      "ćďćĈ!ĉ": 3916,
      "Ĉ!Ĉ!ĈĈ!Ĉ!Ĉ!Ĉ!ďĉďĉďĉďĉďĉ!": 3917,
      "%&'(ďĉćććďĉ!": 3918,
      ")!)!!!!!!!!!!!!!!!!!!!!ďĉ!!!!!!!!!!!!!!!!!!!!!!!!!!!!!!!!!!!": 3919,
      "&'(!!!!!!!!!!!!!!!!!!!!!!!!!!!!!!!!!!!!!!!!!!!!!!!!!!!!!!!!!!!!!!!!!!!!!!!!!!!!!!!!!!!!!!!!!!!!!!!!!!!!!!!!!!!!!!!!!!!!!!!!!!!!!!!!!!!!%!!!!!!!!!!!!!!!!!": 3920,
      "ćĈ!ććĈ!Ĉ!ĈćĈ!ĈććĈĈĈćĈĈĈćĈ!ĈććĈĈĈ": 3921,
      "ćďĉďĉďĉĈ!ĈĈĈĈĈ!ćĈ!Ĉ!ĈćĈĈĈćĈĈĈĈĈ": 3922,
      "Ĉ!ďĉ!ďĉďĉďĉďĉďĉ!ďĉďĉďĉ!!)!)!!!!!!!!!!!!!!!!!!!!": 3923,
      "ďĉďĉ!ďĉ!!!!!!!!ďĉďĉďĉďĉďĉććććĈ!ćĈ!ĈćĈĈ!Ĉ!Ĉ!Ĉ!ĈćĈĈćĈĈĈĈĈĈ!%&'(ďĉďĉďĉ!))ďĉ!ďĉďĉďĉďĉć%&'(ďĉ!ďĉďĉďĉĈ!ĈĈćďĉďĉďĉďĉďĉďĉďĉ!ďĉ!ďĉďĉďĉ!": 3924,
      "ďĉďĉďĉ!ďĉďĉ!ďĉďĉ!!ďĉ!!ďĉďĉćććĈ!Ĉ!Ĉ!Ĉ!Ĉ!ĈćĈĈ!Ĉ!ĈĈĈćĈćĈ!ććĈ!!ďĉ!!": 3925,
      "!!!!!!!!!!!!!!!!!!!!!!!!!!!!!!!!!!!!!!!!!!!!!!!!!!!!!!!!!!!!!!!!!!!!!!!!!!!!!!!!!!!!!!!!!!!!!!!!!!!!": 3926,
      "ďćĈĉ!": 3927,
      "ććĈ!ćĈ!ććĈ!ćĈ!ćĈ!ććĈćĈ!Ĉ!Ĉ!Ĉ!ćĈ!ććĈĈĈĈĈĈćĈ!ććĈćĈ!ćĈ!Ĉ!ćĈ!ććĈććĈ!!!!!!ďĉććďĉ%&'(ďĉďĉ!!!!ďĉ!!!ćććććĈ!ĈĈ!ĈĈĈ!Ĉ!Ĉ!Ĉ!Ĉ!Ĉ!Ĉ!Ĉ!Ĉ!Ĉ!Ĉ!Ĉ!ćĈ!ďĉ!ďĉ!!!!!!!!!!!!!!!!ďĉ!!!!!!!!!!!!%!!!!!": 3928,
      "!!!!R%&'(TVa!!!SĂĄĆ": 3929,
      "ćććĈ!Ĉ!Ĉ!Ĉ!ĈĈĈĈĈĈĈĈĈĈ!ćĈ!Ĉ!ĈćĈĈćĈćĈĈĈćĈĈďĉ%&'(Ĉ!Ĉ!ĈĈĈĈ!Ĉ!Ĉ!ĈĈĈĈĈĈĈĈĈĈ!ĈĈĈ!ĈĈ!ĈĈĈĈ!ĈĈ!ĈďĉĈ!ĈĈĈĈĈĈĈĈ!ĈĈĈ!": 3930,
      "!!!!ďĉ!!!ćććććĈ!ĈĈ!ĈĈĈ!Ĉ!Ĉ!Ĉ!Ĉ!Ĉ!Ĉ!Ĉ!Ĉ!Ĉ!Ĉ!Ĉ!ćĈ!ďĉ!ďĉ!!!!!!!!!!!!!!!!ďĉ!!!!!!!!!!!!!!!!!": 3931,
      "ćĈ!ĈĈ!ĈĈĈĈ!Ĉ!Ĉ!ĈĈĈĈĈĈĈĈ!ĈĈĈĈĈďĉ!ďĉďĉ!ďĉ!ďĉďĉ%&'(ďĉ!ďĉ!": 3932,
      "ććĈ!ĈďĉĈ!Ĉ!ĈĈĈĈĈĈĈĈĈĈĈĈĈĈĈĈĈĈĈĈĈĈĈĈ%&'(ďĉ!": 3933,
      "ććĈ!ćďĉďĉďĉďĉďĉďĉďĉ!!ďĉďĉ%&'(ďĉćććĈĈ!ćĈ!Ĉ!ĈćĈĈĈćĈĈĈćĈĈćććććďĉďĉďĉĈ!ĈĈĈĈĈ!ćĈ!Ĉ!ĈćĈĈĈ": 3934,
      "ďĉ!ďĉďĉďĉďĉďĉďĉďĉďĉďĉďĉ!!ććć%&'(ďĉććććććĈ!ććČďĉďĉďĉďĉďĉďĉďĉďĉ!!!ďĉďĉďĉďĉććĈ!Ĉ!Ĉ!Ĉ!Ĉ!Ĉ!ććĈ!ć%&'(": 3935,
      "ďĉďĉďĉ!ďĉďĉ!ďĉďĉ!!ďĉ!!ďĉďĉćććĈ!Ĉ!Ĉ!Ĉ!Ĉ!ĈćĈĈ!Ĉ!ĈĈĈćĈćĈ!ććĈ!!%&'(ďĉ!!ďĉďĉďĉĈ!ĈĈĈ!ĈĈĈĈĈĈĈĈĈĈĈĈĈĈĈĈĈĈ!ďĉ!!ďĉ!ďĉ!!!ďĉďĉ": 3936,
      "&'(!!!!!!!!!!!!!!!!!!!!!!!!!!!!!!!!!!!!!!!!!!!!!!!!!!!!!!!!!!!!!!!!!!!!!!!!!!!)!)!!!!!!!!!!!!!!!!!!!!!!!!!!!!!!!!!!!!!!)!)!!!!!!!!!!!%&'(!!!!!!!!!!!!!!!!": 3937,
      "ć%&ď'(ĉ": 3938,
      "ć%&'ď(ĉ": 3939,
      "ďę": 3940,
      "ďLK": 3941,
      "!!%!!!!!!!!!!!!!!!!!": 3942,
      "!!!!ďĉ!!ďĉ!": 3943,
      "!!!!%!!!!!!!!!!!!!!!!!!!": 3944,
      "!!!!!!!!%!!!!!!!!!!!!!!!!!!!!!!!!": 3945,
      "%&'(Ĉ!Ĉ!ĈĈĈĈĈĈćĈ!ĈĈĈ%&'(ďĉ%&'(%&'(%&'(ďĉďĉďĉďĉ!ďĉďĉ%!!!&'(ďĉďĉďĉ!!ďĉ!ććĈ!Ĉ!Ĉ!Ĉ!Ĉ!ďĉďĉ!ďĉćććććĈ!Ĉ!Ĉ!Ĉ!Ĉ!Ĉ!ďĉ!%&'(ďĉ!!ďĉ!ďĉďĉ!": 3946,
      "ďĉďĉ!ďĉ!ďĉ!!Ĉ": 3947,
      "ďĉďĉ!!ďĉ!ďĉďĉ!!ďĉďĉďĉďĉďĉďĉďĉďĉ!": 3948,
      "Ĉ!ĈĈďĉ!!!": 3949,
      "!!!!!!%!!": 3950,
      "ď%&'(ĉďĉććććććććććććććĈ!ććĈ!Ĉ!Ĉ!ĈćĈ!Ĉ!ĈćĈććĈĈ!ĈĈĈďĉ!!!": 3951,
      "!!!!!!!)!)!!!!!!!!!!!!!!!!!!!!!!!!!!!!!!!!!!!!!!!!!!!!!!!!!!!!!!!!!!!!!!!)!)!!!!!!!!!!!!!!!!!!!!!!!!!!!!!!!!": 3952,
      "%!&'(!!!!!": 3953,
      "ćĈ!Ĉ!Ĉ!ćďĉćććďĉ!!ďĉďĉďĉ!": 3954,
      "ďĉďĉďĉ%&'(Ĉ!Ĉ!Ĉ!Ĉ!!Ĉ!Ĉ!Ĉ!Ĉ!!Ĉ!Ĉ!Ĉďĉďĉďĉ%&'(Ĉ!Ĉ!ĈĈ!Ĉ!ĈĈĈĈ!Ĉ!ĈĈ!Ĉ!Ĉ!!Ĉ!%&'(ďĉ!ďĉďĉďĉďĉďĉ": 3955,
      "ďĉďĉďĉďĉďĉĈ!Ĉ!ćĈ!Ĉďĉ!!!!!!!!!": 3956,
      "Ĉ!ĈĈ!ĈďĉĈ!ĈĈĈĈĈĈĈĈ!ĈĈĈ": 3957,
      "23232323": 3958,
      "ď!ćĉ": 3959,
      ")!)!!!!!!!!!!!!!!!!!!!!!!!!!!": 3960,
      ")!)!!!!!!!!!!!!!!!!ďĉďĉďĉ!ďĉ!ďĉ!": 3961,
      "ďĉďĉďĉďĉďĉďĉďĉ%ď&'(ĉ": 3962,
      "%&'Ĉ(": 3963,
      "ďĉ!!!!!!!!!!!!!!!!!!!ććĈ!ćĈ!ćĈ!": 3964,
      "ćĈ!ććĈćĈ!ćĈćĈ!Ĉ!ććĈćĈ!ĈĈĈĈĈĈćĈ!ććĈććĈ!ćĈ!ĈććĈĈ!Ĉ!ĈĈĈ!ććĈ!Ĉ!Ĉ": 3965,
      "ďďďďďď": 3966,
      "ďĉ!!!!!!!!!!!!!!!!!!!!!!!!!!!!!!!!!!!!!!!!!!!!!!!!!!!!ďĉ!ďĉ!!!!!!!!!!!ďĉ!!ďĉďĉďĉďĉďĉďĉ!": 3967,
      "00011011": 3968,
      "&'(!!!!!!!!!!!!!!!!!!!!!!!!!!!!!!!!!!!!!!!!!!!!!!!!!!!!!!!!!!!!!!!!!!!!!!!!!!!!!!!!!!!!!!!!!!!!!!!!!!!!!!!!!!!!!!!!!!!!!!!!!!!!!!!!!!!!!!!%!!!!!!!!!!!!!": 3969,
      "ćĈ!ĈĈĈćĈćĈćĈĈĈćĈďĉďĉ!ďĉ!!ďĉ!ďĉďĉďĉďĉ!": 3970,
      "&'(!!!!!!!!!!!!!!!!!!!!!!!!!!!!!!!!!!!!!!!!!!!!!!!!!!!!!!!!!!!!!!!!!!!!!!!!!!!!!!!!!!!!!!!!!!!!!!!!!!!!!!!!!!!!!!!!!!!!!!!!!!!!!!!!!!%!!!!!!!!&'(": 3971,
      "%ćć&'ć(": 3972,
      "ćĈ!ĈćĈĈ!Ĉ!ćĈ!ĈĈ!ććĈ!ćĈ!ććĈćĈććć!!ďĉ!ďĉ!!ďĉďĉ!!ďĉ!!!!!!)!!!!!!!!)ďĉďĉďĉ!!": 3973,
      "ďĉďĉ!!ďĉ!!!!!!)!!!!!!!!)ďĉďĉďĉ!!": 3974,
      "ćććććććććććććććĈ!Ĉ!Ĉ!ćĈ!Ĉ!Ĉ!Ĉ!Ĉ!ćĈ!Ĉ!": 3975,
      "Ĉ!Ĉ!Ĉ!Ĉ!ĈĈ!Ĉ!ĈĈ!Ĉ!ćĈ!Ĉ!ĈĈĈĈĈ": 3976,
      "ćĈ!ćĈ!Ĉ!Ĉ!ćĈ!Ĉ!Ĉ!ćĈ!Ĉ!Ĉ!ĈĈćĈĈ!Ĉ": 3977,
      "!!!!!!!!!!!!!!!!!!!!!Ĉ!Ĉ!Ĉďĉ!!!!!!!!!!!!!!!!!!!!!!!!!!!!!!!!": 3978,
      "RTVa!!!S%&'(ĂĄĆ!!!!R!!!SĈ!ćĈ!ćĈ!Ĉ!Ĉ!ďĉďĉ": 3979,
      "&'(!!!!!!!!!!!!!!!!!!!!!!!!!!!!!!!!!!!!!!!!!!!!!!!!!!!!!!!!!!!!!!!!!!!!!!!!!!!!!!!!!!!!!!!!!!!!!!!!!!!!!!!!!!!!!!!!!!!!!!!!!!!!!!!!!!!!!!!!!!!!!%!!": 3980,
      ")!)!!!!!!!!!!!!!!!!!!!!!!!!!!!!!!!!!!!!!!!!!!!!!!!!!!!!!!!!!!!!!!!!!!!!!!!!!!!!!!!!!!%&'(!!!!!!!!!!!!!!!!!!!!!!)!!!!!!!!!!!!!!!!!!!!!!!!!!!!!!!!ďĉďĉďĉ!": 3981,
      "ďĉďĉďĉďĉďĉďĉďĉďĉďĉ%&'(ďĉďĉďĉĈ!Ĉ!Ĉ!Ĉ!ĈćĈĈĈ!ĈĈĈćĈćĈĈĈĈĈĈĈćĈĈĈĈĈĈćĈćĈ!ćĈĈ!": 3982,
      "ďĉďĉďĉďĉďĉ!!ďĉ!!!!ďĉďĉďĉ!ďĉďĉ!ďĉďĉ!!ďĉ!!ďĉďĉ": 3983,
      "ďĉďĉďĉďĉďĉ!!ďĉ!!ďĉďĉďĉ)!)ďĉďĉďĉďĉďĉ!)!)!ďĉďĉ!!!)!)!!ďĉďĉďĉ%&'(ďĉďĉ!!ďĉ!ďĉďĉďĉďĉďĉďĉďĉďĉďĉďĉďĉďĉďĉďĉďĉ": 3984,
      "ććććĈ!Ĉ!ćĈ!ćĈ!Ĉ!ććĈ!ĈććĈ!Ĉ!ćĈ!ćĈ!Ĉ!Ĉ!ćĈĈ!%&'(ďĉďĉďĉďĉććĈ!Ĉ!ĈĈĈ!!ćĈ!Ĉ!Ĉ!Ĉ!ćďĉďĉ!!": 3985,
      "&'(!!!!ďĉććććĈ!ćĈ!ćĈ!ĈĈ!ććĈ!Ĉ!ČďĉćĈ!ćĈ!ćĈ!ćĈćĈ!ćĈ!Ĉ!ććĈ!ĈĈ!ćĈĈ!Ĉ!ĈćĈ!Ĉ!ĈĈĈĈĈĈććĈ!ćďĉ!!!!!!!!ďĉ!ď%&'(ĉ!": 3986,
      "ďĉďĉďĉďĉďĉďĉR%&'(TVaďĉććĈ!ćććĈćććĈĈ!Ĉ!ćĈ!ććĈćĈ!ćĈ!!Č!!Č!ďĉ!ďĉĈ!Ĉ!ćĈ!Ĉ!ĈĈĈďĉ!ďĉ": 3987,
      ")!)!ďĉďĉ!!!)!)!!ďĉďĉďĉďĉďĉ!!ďĉ!ďĉďĉďĉďĉďĉďĉďĉďĉďĉ%&'(ďĉďĉďĉďĉďĉďĉ": 3988,
      "ďĉďĉďĉďĉďĉďĉ%&'(Ĉ!Ĉ!Ĉ!Ĉ!Ĉ!Ĉ!ćďĉďĉďĉćĈ!Ĉ!Ĉ!Ĉ!ďĉ!!!!!!!!!!!!!!!!!!!!!!!!!!!!!!!!!!!!!!!!!!!!!!!!!!!!ďĉ!!!!!!!!!!!!ďĉďĉ%&'(ďĉďĉďĉ!!ďĉ!!!!!!!ďĉ!!ďĉďĉ!!!ďĉďĉďĉďĉďĉ!ďĉ": 3989,
      "ďĉďĉďĉďĉďĉ!!ďĉ!!ďĉďĉďĉ)!)ďĉďĉďĉďĉďĉ!)!)!": 3990,
      "ďĉ!!ďĉďĉ%&'(ďĉ!ďĉ!!!!!!!!!!!!!!!!!!!!!!!!!!!!!!!!!!!!!!!!!!!!!!!!!!!!ďĉ!ďĉ!!!!!!!!!!!ďĉ!!ďĉďĉďĉďĉďĉďĉ!": 3991,
      "ćĈĈĈĈĈĈĈĈĈĈĈĈĈĈĈĈ!ĈĈĈĈĈĈĈĈĈĈĈĈĈĈĈĈĈ!ćĈĈĈĈĈĈĈĈĈĈĈĈĈĈćĈ!ĈćĈĈćĈĈĈĈĈĈĈ": 3992,
      ")!)!!!!!!!!!!!!!!!!!!!!!!!!!!!!!!!!!!!!!!!!!!!!!!!!!!!!!!!!!!!!!!!!!!!!!!!!!!!!!!!!!!!!!!!!!!!!!!!!!!!!!!!!!!!!!!!!!!!!!!!!%!!!!!!!!!!!!!!!!!!!": 3993,
      "%&'(ďĉďĉďĉďĉ!ďĉďĉďĉďĉ!ďĉ!!Ĉ!ĈćĈ!Ĉ!Ĉ!ĈćĈ!ććďĉ!Ĉ!ĈćĈ!Ĉ!Ĉ!ĈćĈ!ćć": 3994,
      "ďĉďĉďĉ!ďĉďĉ!ďĉďĉ!!ďĉ!!ďĉďĉćććĈ!Ĉ!Ĉ!Ĉ!Ĉ!ĈćĈĈ!Ĉ!ĈĈĈćĈ": 3995,
      "ďĉ!!!!!!!!!!!!!!!!!!!!!!!!!!!!!!!!!!!!!!!!!!!!!!!!!!!!!!!%!&'(!!!!!!!!!!!!!ďĉ!!!!ďĉďĉďĉďĉďĉďĉďĉďĉďĉďĉ": 3996,
      ")%!&'(": 3997,
      "BL": 3998,
      "ćA": 3999,
      "Ĉćĉ": 4000,
      "ĈĈ!Ĉ!ĈĈ!Ĉ!ćĈ!Ĉ!ĈĈĈĈĈ": 4001,
      "ď!!!!!!!!!": 4002,
      "ďĉ%ď&'(ĉ!": 4003,
      "ćĈ!ćĈćĈćĈ!ćĈ!ććĈ!ćĈććĈćĈ!ćĈ": 4004,
      "ďĉďĉďĉďĉď%ĉ&'(": 4005,
      "ďĉ!ćććĈ!Ĉ!ćĈ!Ĉ!Ĉ": 4006,
      "222232222222222222222222222222222222222222244444444%&5555555522222222222222222222222266666666": 4007,
[...]
