{
  "version": "1.0",
  "truncation": null,
  "padding": null,
  "added_tokens": [
    {
      "id": 0,
      "content": "[CLS]",
      "single_word": false,
      "lstrip": false,
      "rstrip": false,
      "normalized": false,
      "special": true
    },
    {
      "id": 1,
      "content": "[MASK]",
      "single_word": false,
      "lstrip": false,
      "rstrip": false,
      "normalized": false,
      "special": true
    },
    {
      "id": 2,
      "content": "[SEP]",
      "single_word": false,
      "lstrip": false,
      "rstrip": false,
      "normalized": false,
      "special": true
    },
    {
      "id": 3,
      "content": "[PAD]",
      "single_word": false,
      "lstrip": false,
      "rstrip": false,
      "normalized": false,
      "special": true
    }
  ],
  "normalizer": null,
  "pre_tokenizer": null,
  "post_processor": null,
  "decoder": null,
  "model": {
    "type": "BPE",
    "dropout": null,
    "unk_token": null,
    "continuing_subword_prefix": null,
    "end_of_word_suffix": null,
    "fuse_unk": false,
    "byte_fallback": false,
    "vocab": {
      "[CLS]": 0,
      "[MASK]": 1,
      "[SEP]": 2,
      "[PAD]": 3,
      "!": 4,
      "\"": 5,
      "#": 6,
      "$": 7,
      "%": 8,
      "&": 9,
      "'": 10,
      "(": 11,
      ")": 12,
      "*": 13,
      "+": 14,
      ",": 15,
      "-": 16,
      ".": 17,
      "/": 18,
      "0": 19,
      "1": 20,
      "2": 21,
      "3": 22,
      "4": 23,
      "5": 24,
      "6": 25,
      "7": 26,
      "8": 27,
      "9": 28,
      ":": 29,
      ";": 30,
      "<": 31,
      "=": 32,
      ">": 33,
      "?": 34,
      "@": 35,
      "A": 36,
      "B": 37,
      "C": 38,
      "D": 39,
      "E": 40,
      "F": 41,
      "G": 42,
      "H": 43,
      "I": 44,
      "J": 45,
      "K": 46,
      "L": 47,
      "M": 48,
      "N": 49,
      "O": 50,
      "P": 51,
      "Q": 52,
      "R": 53,
      "S": 54,
      "T": 55,
      "U": 56,
      "V": 57,
      "W": 58,
      "X": 59,
      "Y": 60,
      "Z": 61,
      "[": 62,
      "\\": 63,
      "]": 64,
      "^": 65,
      "_": 66,
      "`": 67,
      "a": 68,
      "b": 69,
      "c": 70,
      "d": 71,
      "e": 72,
      "f": 73,
      "g": 74,
      "h": 75,
      "i": 76,
      "j": 77,
      "k": 78,
      "l": 79,
      "m": 80,
      "n": 81,
      "o": 82,
      "p": 83,
      "q": 84,
      "r": 85,
      "s": 86,
      "t": 87,
      "u": 88,
      "v": 89,
      "w": 90,
      "x": 91,
      "y": 92,
      "z": 93,
      "{": 94,
      "|": 95,
      "}": 96,
      "~": 97,
      "Ā": 98,
      "ā": 99,
      "Ă": 100,
      "ă": 101,
      "Ą": 102,
      "ą": 103,
      "Ć": 104,
      "ć": 105,
      "Ĉ": 106,
      "ĉ": 107,
      "Ċ": 108,
      "ċ": 109,
      "Č": 110,
      "č": 111,
      "Ď": 112,
      "ď": 113,
      "Đ": 114,
      "đ": 115,
      "Ē": 116,
      "ē": 117,
      "Ĕ": 118,
      "ĕ": 119,
      "Ė": 120,
      "ė": 121,
      "Ę": 122,
      "ę": 123,
      "Ě": 124,
      "ě": 125,
      "Ĝ": 126,
      "ĝ": 127,
      "Ğ": 128,
      "ğ": 129,
      "Ġ": 130,
      "ġ": 131,
      "Ģ": 132,
      "ģ": 133,
      "Ĥ": 134,
      "ĥ": 135,
      "Ħ": 136,
      "ħ": 137,
      "Ĩ": 138,
      "ĩ": 139,
      "Ī": 140,
      "ī": 141,
      "Ĭ": 142,
      "ĭ": 143,
      "Į": 144,
      "į": 145,
      "İ": 146,
      "ı": 147,
      "Ĳ": 148,
      "ĳ": 149,
      "Ĵ": 150,
      "ĵ": 151,
      "Ķ": 152,
      "ķ": 153,
      "ĸ": 154,
      "Ĺ": 155,
      "ĺ": 156,
      "Ļ": 157,
      "!!": 158,
      "!!!!": 159,
      "!!!!!!!!": 160,
      "Ĉ!": 161,
      "ďĉ": 162,
      "!!!!!!!!!!!!!!!!": 163,
      "ćć": 164,
      "ďĉďĉ": 165,
      "ĈĈ": 166,
      "Ĉ!Ĉ!": 167,
      "'(": 168,
      "&'(": 169,
      "%&'(": 170,
      "ćĈ!": 171,
      "22": 172,
      "ĈĈĈĈ": 173,
      "ćććć": 174,
      "ćĈ!Ĉ!": 175,
      "ďĉďĉďĉďĉ": 176,
      "ďĉ!": 177,
      "ćĈ": 178,
      "2222": 179,
      "%&'(%&'(": 180,
      "!!!": 181,
      "Ĉ!Ĉ!Ĉ!Ĉ!": 182,
      "Ĉ!Ĉ": 183,
      "ćĈĈ": 184,
      "ććĈ!": 185,
      "ďĉ!!": 186,
      "ĈĈĈĈĈĈĈĈ": 187,
      "ćĈćĈ": 188,
      "MM": 189,
      "!!!!!!!!!!!!!!!!!!!!!!!!": 190,
      "ĈĈĈ": 191,
      "ćĈ!ćĈ!": 192,
      "%&": 193,
      "ďĉďĉ!": 194,
      "ćććććććć": 195,
      ")!": 196,
      "%&'(%&'(%&'(%&'(": 197,
      "&'(!!!!!!!!!!!!!!!!": 198,
      "ďĉďĉďĉ": 199,
      "Ĉ!ćĈ!Ĉ!": 200,
      "22222222": 201,
      "ććĈ": 202,
      "!!!!!!!!!!!!!!!!!!!!": 203,
      "LL": 204,
      ")!)": 205,
      "ćĈ!Ĉ": 206,
      "Ĉ!Ĉ!Ĉ": 207,
      "ćććĈ!Ĉ!": 208,
      "ďĉďĉďĉ!": 209,
      "!!!!!!!!!!!!!!!!!!!!!!!!!!!!": 210,
      "MMMM": 211,
      "ďĉ!!!!!!!!": 212,
      "ćĈ!ćĈ!Ĉ!": 213,
      "ďĉďĉ!!": 214,
      "01": 215,
      "Ĉ!ĈĈĈ": 216,
      "ćĈĈĈ": 217,
      "ďĉ!!!!!!!!!!!!!!!!": 218,
      "ďĉďĉďĉďĉďĉďĉďĉďĉ": 219,
      "Ĉ!ĈĈ": 220,
      "ďĉ%&'(": 221,
      "44": 222,
      "55": 223,
      "66": 224,
      "88": 225,
      "ďĉ!!!!": 226,
      "ćĈĈĈĈ": 227,
      "ććĈ!Ĉ!": 228,
      "+/": 229,
      "+/,": 230,
      "+/,'(": 231,
      "ďĉ!ďĉ!": 232,
      "!%": 233,
      "!!!!!!!!!!!!": 234,
      "%&'(ďĉ": 235,
      "%&'(ĉ": 236,
      "2222222222222222": 237,
      "%&-": 238,
      "!L": 239,
      "!!!%": 240,
      "!LK": 241,
      "ď%&'(ĉ": 242,
      "!!%": 243,
      "ćďĉ!": 244,
      "Ĉ!ĈĈĈĈ": 245,
      "77": 246,
      ")!)!!!!!!!!!!!!!!!!": 247,
      "LLLL": 248,
      "ĈĈĈĈĈĈĈĈĈĈĈĈĈĈĈĈ": 249,
      "ďĉďĉďĉ!!": 250,
      "ćĈ!ćć": 251,
      "!&'(!!!!!!!!!!!!!!!!": 252,
      "ďĉćććć": 253,
      "ćĈćĈćĈ": 254,
      "Ĉ!Ĉ!Ĉ!Ĉ!Ĉ!Ĉ!": 255,
      "!!&'(!!!!!!!!!!!!!!!!": 256,
      "Ĉ!Ĉ!ćĈ!Ĉ!": 257,
      "ďĉďĉďĉďĉ!": 258,
      "&'(ĉ": 259,
      "MMMMMMMM": 260,
      "Ĉ&'(": 261,
      "ď&'(ĉ": 262,
      "ćĈ!ććĈ": 263,
      "ćĈ!ćĈ": 264,
      "!&'(": 265,
      "-%&": 266,
      "%ď&'(ĉ": 267,
      "%Ĉ&'(": 268,
      "ďĉ!ďĉďĉďĉďĉ": 269,
      "ć%&'(": 270,
      "23": 271,
      "!!!S": 272,
      "ďĉďĉ%&'(": 273,
      "ĉĉ": 274,
      "!!!&'(!!!!!!!!!!!!!!!!": 275,
      "ćĈćĈćĈćĈ": 276,
      "ćććĈ": 277,
      "Ĉ!Ĉ!Ĉ!": 278,
      "%&-+/,'(": 279,
      "ĈćĈĈ": 280,
      "ćććććććććććććććć": 281,
      "'(3": 282,
      "!LK!LK": 283,
      "ďĉćć": 284,
      "Ĉ!ĈĈ!": 285,
      "ďď": 286,
      "Ĉ!Ĉ!Ĉ!Ĉ": 287,
      "))": 288,
      "+01": 289,
      "ďĉďĉďĉ%&'(": 290,
      "4444": 291,
      "5555": 292,
      "6666": 293,
      "8888": 294,
      "ćĈ!Ĉ!Ĉ!": 295,
      "-%&+/,'(": 296,
      "-%&+/,'(-%&+/,'(": 297,
      "ćĈ!ć": 298,
      "ďĉ!!!": 299,
      "ćĈ!Ĉ!Ĉ": 300,
      "ćĈ!ććĈ!": 301,
      "ććććĈ": 302,
      "ććććććĈ!": 303,
      "ćĈ!Ĉ!Ĉ!Ĉ!Ĉ!Ĉ!": 304,
      "ďĉĉ": 305,
      "ďĉďĉ!!!": 306,
      "ćĈĈĈĈĈ": 307,
      "ćććććććĈ!Ĉ!": 308,
      "222222": 309,
      "ćďĉ": 310,
      "'(7": 311,
      "ćĈ!ĈĈĈ": 312,
      "ďĉďĉďĉďĉďĉďĉ!": 313,
      "ĄĆ": 314,
      "ĂĄĆ": 315,
      "222": 316,
      "4%&": 317,
      "5222": 318,
      "6'(7": 319,
      "ďĉ!!ďĉ!": 320,
      "4%&5222": 321,
      "4%&52226'(7": 322,
      "2222224%&52226'(7": 323,
      "8,": 324,
      "ććĈ!Ĉ!Ĉ!Ĉ!": 325,
      "2222224%&52226'(78,": 326,
      "%&-+01": 327,
      "ďĉ!!!!!!!!!!!!": 328,
      "ďďĉĉ": 329,
      "TV": 330,
      "ćĈĈćĈĈ": 331,
      "'(32222224%&52226'(78,": 332,
      "TVa": 333,
      "%&-+01'(32222224%&52226'(78,": 334,
      "Ĉ!ĈĈ!Ĉ": 335,
      "%Ĉ&'(!": 336,
      "ĈĈĈĈĈĈĈĈĈĈĈĈ": 337,
      "ďĉďĉďĉďĉďĉďĉ": 338,
      "ďĉ!!!!!!": 339,
      "Ĉ!Ĉ!ĈĈ": 340,
      "ććĈ!ć": 341,
      "0101": 342,
      "%&-+/,'(%&-+/,'(": 343,
      "ćĈ!Ĉ!Ĉ!ćĈ!Ĉ!": 344,
      "ććĈ!Ĉ": 345,
      "ďĉ!ďĉ": 346,
      "LLLLLLLL": 347,
      "ďĉďĉďĉďĉďĉ": 348,
      "Ĉ!ćĈ!": 349,
      "Ĉ!ćć": 350,
      "ďĉ!!!!!!!!!!!": 351,
      "ćĈ!Ĉ!Ĉ!Ĉ!": 352,
      "2323": 353,
      "!!!SĂĄĆ": 354,
      "Ĉ!Ĉ!Ĉ!ćĈ!Ĉ!": 355,
      "ććĈ!ćć": 356,
      "ćĈ!ćĈ!ćĈ!ćĈ!": 357,
      "222222222222222222222222": 358,
      "ď!": 359,
      "RTVa": 360,
      "!!&'(": 361,
      "!!!!!!!!!!!!!!!!!!!!!": 362,
      "ďĉ!ďĉ!!": 363,
      "ćĈĈćĈ": 364,
      "ććććĈ!": 365,
      "ďĉďĉ!!!!": 366,
      "ććć": 367,
      "!!!&'(": 368,
      "MMMMMMMMMMMMMMMM": 369,
      "#$": 370,
      "ĈĈĈĈĈĈ": 371,
      "ćĈ!ćĈ!Ĉ": 372,
      "ćĈ!ĈĈ": 373,
      "%ć": 374,
      "ďĉ!ďĉďĉ": 375,
      "ďĉďĉďĉďĉďĉďĉďĉ": 376,
      "ććĈĈĈ": 377,
      "ćĈ!ďĉ!": 378,
      "ĈĈĈĈĈĈĈĈĈ": 379,
      "%ĉ": 380,
      "ĈĈĈ!ĈĈĈ": 381,
      "ďĉďĉďĉďĉďĉďĉďĉ!": 382,
      "%&'": 383,
      "ććĈ!Ĉ!Ĉ": 384,
      "Ĉ!ĈćĈ!Ĉ!": 385,
      "ćććĈ!Ĉ!Ĉ!Ĉ!Ĉ!Ĉ!": 386,
      "ď%ĉ": 387,
      "7777": 388,
      "ĉ!": 389,
      "ććććĈ!ćĈ!Ĉ!": 390,
      "%!&'(": 391,
      ")!)!!": 392,
      "%&'(!!!!!!!!!!!!!!!!": 393,
      "ćĈ!ćĈ!Ĉ!Ĉ!": 394,
      "011": 395,
      "Ĉ!Ĉ!Ĉ!!": 396,
      "ď%ĉ&'(": 397,
      "ćĈĈ%&'(": 398,
      ")!)!!!!!!!!": 399,
      "ćďĉďĉ": 400,
      "ććĈĈ": 401,
      "ďĉ!!!!!!!!!": 402,
      "Ĉ!ćĈ!Ĉ": 403,
      "ďĉďĉćććć": 404,
      "ćĈ!ćĈ!Ĉ!Ĉ!ćĈ!Ĉ!": 405,
      "ďĉďĉ!ďĉ!": 406,
      "0011": 407,
      "RTVa!!!SĂĄĆ": 408,
      "!!!!!!!!!!!!!!!!!!!!!!%": 409,
      "ďĉďĉďĉďĉďĉ!!": 410,
      "ďĉ!!!!!": 411,
      "ćććĈ!Ĉ!Ĉ!Ĉ!": 412,
      "ďĉďĉďĉďĉďĉ!": 413,
      "!!!!R": 414,
      "ď'(": 415,
      "!!!!!": 416,
      "!!!!!!!!!!!!!!!!!!!!!%": 417,
      "!!!!!!!!!!!!!!!!!!!!!!!!!!!!!": 418,
      "!!)!": 419,
      "33": 420,
      "ćĈĈĈĈĈĈ": 421,
      "!!!ďĉ!": 422,
      "Ĉ!ććĈ!Ĉ!": 423,
      "ĈĈĈĈ!": 424,
      "!LK!LK!LK!LK": 425,
      "!!!!!!!!!!!!!!!!!!!!%": 426,
      "%&ď'(": 427,
      "!!!!!!!!!!!!!!!!!!!!!!!!%": 428,
      "ćĈĈĈćĈĈ": 429,
      "!!!!!!!!!!!!!!!!!!!!!!!%": 430,
      "!!!ďĉ!!!!!!!!!!!!!!!!": 431,
      "ďĉďĉďĉ!ďĉďĉ!": 432,
      "#.": 433,
      "!!)!)!!!!!!!!!!!!!!!!": 434,
      "Ĉ!ćĈ!Ĉ!Ĉ": 435,
      "!!!!!!!!!!!!!!!!!!!!!!!!!%": 436,
      "$#$": 437,
      "ď(": 438,
      "ďĉ!%&'(": 439,
      "ććĈ!ćĈ!ćĈ!": 440,
      "#..": 441,
      "!!!!R!!!S": 442,
      "Ĉ!ĈĈĈĈĈĈĈ": 443,
      "!!!!!!!!!!!!!!!!!!!!!!!!!!": 444,
      "ććĈćć": 445,
      "ĈćĈĈćĈ": 446,
      "ććĈ!ććĈ!": 447,
      "$#$!!)!": 448,
      "!!!!!!!!!!!!!!!!!!!!!!!!!!!!%": 449,
      "%&-+/,'(#..": 450,
      "Ĉ!Ĉ!ĈĈĈ": 451,
      "!!!!!!!!!!!!!!!!!!!!!!!!!!!%": 452,
      "%&'ď(": 453,
      "Ĉ!Ĉ!ĈĈ!Ĉ": 454,
      "ćĈĈćĈĈćĈćĈćĈ": 455,
      "ĈĈ!": 456,
      "ĈĈĈ!Ĉ!": 457,
      "ćććĈ!Ĉ!Ĉ!": 458,
      "ćĈ!ćĈ!ćĈ!ćĈ!ćĈ!Ĉ!": 459,
      "ďĉďĉďĉďĉďĉďĉďĉďĉ!": 460,
      "ĉĉĉĉ": 461,
      "ĈĈĈĈĈ": 462,
      "%&'(ďĉ!": 463,
      "Ĉ!ĈĈćĈ": 464,
      "%&-+/,'(#..$#$!!)!": 465,
      "Ĉ!ĈćĈ!Ĉ!Ĉ!Ĉ": 466,
      "!!!!!!!!!!!!!!!!!!!%": 467,
      "ďĉććĈ!": 468,
      "ćĈ!Ĉ!Ĉ!Ĉ!ćĈ!Ĉ!": 469,
      "ďĉďĉďĉďĉďĉćććć": 470,
      "Ĉ!ĈĈ!ĈĈĈ": 471,
      "!!!!!!!!!!!!!!!!!%": 472,
      "%&'(ďĉ!!": 473,
      "ćććĈ!Ĉ!Ĉ!Ĉ": 474,
      "!!!!!!!!!!!!!!!!!!!!!!!!!!%": 475,
      "Ĉ!Ĉ!Ĉ!Ĉ!Ĉ!Ĉ!Ĉ!Ĉ!": 476,
      "ćććććććććć": 477,
      "%ć&'(": 478,
      "ćĉ": 479,
      "%&5555": 480,
      "44444444": 481,
      "5555222222222222222222222222": 482,
      "66666666": 483,
      "8888,": 484,
      "88888888,": 485,
      "44444444%&5555": 486,
      "%&ď'(ĉ": 487,
      "!!!!!!!!!!!!!!!!!!%": 488,
      "ćďĉďĉďĉ": 489,
      "ďĉ!ďĉďĉ!!": 490,
      "!!!!!!!!!!!!!!!!!!!!!!!!!": 491,
      ")!!!!!!!!": 492,
      "!!!!!!": 493,
      "(7": 494,
      "(788888888,": 495,
      "Ĉ!ććĈ!": 496,
      "ćĈĈ!": 497,
      "%&'ď(ĉ": 498,
      "ććĈ!Ĉ!Ĉ!Ĉ!Ĉ!Ĉ!": 499,
      "!!!!!!!!!!!!!!!": 500,
      "%!": 501,
      "ďĉďĉďĉďĉ%&'(": 502,
      "244444444%&5555": 503,
      "ďĉďĉďĉďĉ!!": 504,
      "ćĈ!ćĈĈ": 505,
      "(788888888,-%&": 506,
      "ďĉ!ďĉďĉďĉ": 507,
      "ćĈĈĈĈĈĈĈĈ": 508,
      "!!!!!!!!!!!!!!!!%": 509,
      "ć!": 510,
      "ćĈćĈĈ": 511,
      "Ĉ!Ĉ!ćĈ!": 512,
      "Ĉ!ĈĈĈĈĈ": 513,
      "%&'(ďĉďĉďĉ!": 514,
      "Ĉ!Ĉ!Ĉ!Ĉ!ĈćĈĈ": 515,
      "ćĈ!Č": 516,
      "!!!!!!!!!!!!!!!!!!": 517,
      "ćĈććĈ": 518,
      "ĈĈ!Ĉ!Ĉ!Ĉ!": 519,
      "Ĉ!ĈĈĈ!": 520,
      "ćĈĈĈĈĈĈĈĈĈĈĈĈ": 521,
      "ćĈ!ćČ": 522,
      "L!LK": 523,
      "ď%&'(ĉ!": 524,
      "ĈĈĈĈĈĈĈĈĈĈĈ": 525,
      ")ďĉďĉ!": 526,
      "ćĈ!ćĈ!ćĈ": 527,
      "ćďĉďĉ!": 528,
      "ćĈ!ĈĈ!Ĉ!": 529,
      "'7777": 530,
      "ćĈ!Ĉ!ćĈ!Ĉ!": 531,
      "%&'(ďĉďĉ": 532,
      "ćĈ!Ĉ!ĈćĈ!Ĉ!": 533,
      "ććććĈ!Ĉ!": 534,
      "ćććĈĈ": 535,
      "ćďĉďĉďĉďĉ!": 536,
      "!!Č": 537,
      "ććććĈććĈ": 538,
      "ćĈĈ!Ĉ!Ĉ": 539,
      "ćĈ!ćĈ!ćĈ!ćĈ": 540,
      "ćĈćĈćĈćĈćĈćĈćĈćĈ": 541,
      "ćĈ!ćĈćĈćĈ": 542,
      ")!)!!!!!!!!!!!!": 543,
      "ćĈĈĈĈĈĈĈĈććĈ": 544,
      "ććĈ!ćććĈ!ćć": 545,
      "LLLLLLLLLLLLLLLL": 546,
      "ćĈ!ćĈ!Ĉ!ćĈĈ": 547,
      "Ĉ!ĈĈĈĈ!": 548,
      "ććĈććĈ!": 549,
      "ćĈĈ!ćĈ!Ĉ!": 550,
      "ććĈ!ććććĈ": 551,
      "ĈĈĈ!ĈĈĈććĈ!": 552,
      "&'(!": 553,
      "ććććĈ!ĈĈ": 554,
      "ćĈĈĈĈ!Ĉ": 555,
      "ĈĈĈĈćĈĈĈĈ": 556,
      "ĈĈĈĈĈĈĈĈĈĈĈĈĈĈĈĈĈĈĈĈ": 557,
      "ćĈćĈĈĈĈ": 558,
      "!!!!!!!!!": 559,
      "ďĉď%&'(ĉ": 560,
      "ďĉ!!ďĉďĉďĉďĉďĉďĉ!": 561,
      "!!ďĉ!!!!!!": 562,
      "ćććĈćĈ": 563,
      "ćĈ!ćĈ!ćĈ!ćĈ!Ĉ!": 564,
      "ćĈ!ĈććĈĈĈ": 565,
      "Ĉ!ĈĈĈĈĈĈ": 566,
      "ĈćĈ!Ĉ!": 567,
      "ćĈćĈćĈćĈćĈĈćĈĈćĈćĈćĈ": 568,
      "!!!)!)!!!!!!!!!!!!!!!!": 569,
      "RTVa!!!SĂĄĆ!!!!R!!!S": 570,
      "ćĈ!ĈĈ!Ĉ": 571,
      "ćĈ!ććĈćĈ!ćĈ": 572,
      "!!ćĈ!Ĉ!Ĉ!Ĉ!": 573,
      "ćĈ!Ĉ!ććĈ!": 574,
      "ććĈĈććĈćć": 575,
      "Ĉ!ĈćĈ!Ĉ!Ĉ!ĈćĈ!ćć": 576,
      "!!ďĉďĉďĉďĉ": 577,
      "ćććĈ!Ĉ!ćĈ!Ĉ!": 578,
      "ĈĈĈĈĈĈćĈ!ććĈ": 579,
      "ďĉćĈ!Ĉ!": 580,
      "%&'(!": 581,
      "ććĈ!ćĈ!ććĈ!": 582,
      "Ĉ!Ĉ!Ĉ!Ĉ!!": 583,
      "ĈĈĈĈĈĈĈĈĈĈĈĈĈĈ!Ĉ!Ĉ!Ĉ!": 584,
      "ĈćĈĈćĈćĈĈĈćĈĈ": 585,
      "ćď": 586,
      "ĈĈĈĈĈĈĈĈĈĈ!ćĈ!Ĉ!": 587,
      "ďďďď": 588,
      "ćĈ!ĈćĈćĈćĈ": 589,
      "ďĉ!!ďĉďĉ": 590,
      "Ĉ!ĈĈ!ĈĈĈĈ!ĈĈ!Ĉ": 591,
      "ćĈ!Ĉ!Ĉ!ćĈĈćĈ": 592,
      "Ĉ!Ĉ!Ĉ!ĈĈĈĈĈĈĈĈĈ": 593,
      "ď!ĉ": 594,
      "ććććććĈ!ćĈĈ%&'(": 595,
      "Ĉ!ćĈ!Ĉ!ĈćĈĈĈ": 596,
      "%ćĈ": 597,
      "ďĉďĉďĉďĉďĉ%&'(": 598,
      "!!!!!!!!!!!!!!!!!!!!!!!": 599,
      "ďĉďĉ!ďĉ%&'(": 600,
      "ćććĈ!Ĉ!Ĉ!Ĉ!ĈĈĈĈĈĈĈĈĈĈ!ćĈ!Ĉ!": 601,
      "Ĉ!ĈĈĈ!ĈĈ!ĈĈĈĈ!ĈĈ!Ĉ": 602,
      "ďĉ!ďĉďĉďĉďĉďĉďĉďĉďĉ": 603,
      "!!!!!!!!!!!!!!!!!!!!!!": 604,
      "ďĉ!!!!!!!!!!!!!!!!!!!": 605,
      "!!!!!!!!!!!": 606,
      "ďĉďĉ!!!!!!!!!!!!!!!!": 607,
      "ďĉćććććć": 608,
      "ćććććććććććććććććććććććć": 609,
      "ćććććć": 610,
      "(788888888,-%&+01": 611,
      "&'": 612,
      "ďĉ!!ďĉďĉ!!!": 613,
      "ďĉ%ď&'(ĉ": 614,
      "ďĉďĉďĉďĉ!ďĉďĉ": 615,
      "ĥĤ": 616,
      "Ĉ!Ĉ!ĈĈ!Ĉ!Ĉ!Ĉ!": 617,
      "ćććććććĈ!Ĉ!Ĉ!ćĈ!Ĉ!": 618,
      "ďĉ!!ďĉďĉďĉ": 619,
      "ďĉćććććććć": 620,
      "%&'(ďĉďĉ!": 621,
      "Ĉ!ĈćĈ!": 622,
      "Ĉ!!": 623,
      "!!!!!!!!&'(!!!!!!!!!!!!!!!!": 624,
      "%&'(ďĉ!!!!!!!!!!!!!!!!": 625,
      "!ďĉ": 626,
      "Ē!!": 627,
      "ďĉďĉďĉďĉďĉďĉďĉ!ďĉ!": 628,
      "ďĉĈ!ĈĈĈĈĈĈĈ": 629,
      "ďĉďĉ!ďĉ": 630,
      "Ĉ(": 631,
      "Ĉ!ĉ": 632,
      "ďĉĈ!Ĉ!Ĉ!Ĉ!": 633,
      "ĖĖ": 634,
      "%&'(ďĉĈ!Ĉ!Ĉ!Ĉ!": 635,
      "ćďĉ%&'(": 636,
      ")!!!!!!!!)!": 637,
      "ĈĈ!Ĉ": 638,
      "ďĉďĉďĉ!!ďĉ!": 639,
      "ćććĈ!": 640,
      "Ĉ'(": 641,
      "ďĉďďĉĉ": 642,
      "!!!!!!!!!!!!!!!!!!!": 643,
      "ďĉďĉ!!ďĉďĉďĉďĉ": 644,
      "322": 645,
      "ćĈĈĈĈĈćĈĈĈĈĈ": 646,
      "!ďĉ!": 647,
      "ććĈ!Ĉ!Ĉ!Ĉ": 648,
      "ćććĈ!Ĉ!Ĉ!Ĉ!Ĉ!Ĉ!ćććć": 649,
      "Ĉ!Ĉ!ćĈ!Ĉ": 650,
      "ćććććććććććć": 651,
      "01'(3": 652,
      "ďĉďĉďĉďĉďĉ)!)": 653,
      "!!!!!!&'(!!!!!!!!!!!!!!!!": 654,
      "232222222222222222": 655,
      "ďĉ%&'(ďĉďĉ": 656,
      "%&'(ďĉďĉďĉ": 657,
      "ďĉďĉďĉ!ďĉ!ďĉ!": 658,
      "ćććććĈ!Ĉ!Ĉ!ćĈĈćĈ": 659,
      "ďĉďĉďĉ!!ďĉďĉ": 660,
      "!LK!LK!LK!LK!LK!LK!LK!LK": 661,
      "ćĈ!ĈĈ!ĈĈĈ": 662,
      "AA": 663,
      ")!)!": 664,
      "!!!!!!!!!!&'(!!!!!!!!!!!!!!!!": 665,
      "!!!!&'(!!!!!!!!!!!!!!!!": 666,
      "!!!!!!!&'(!!!!!!!!!!!!!!!!": 667,
      "Ĉ!Ĉ!ĈĈ!Ĉ!": 668,
      "Ĉ!ĈĈ!Ĉ!Ĉ!Ĉ!": 669,
      "ďĉďĉďĉďĉďĉďĉďĉďĉďĉďĉ": 670,
      "ďĉďĉďĉ!!ďĉ!!!!": 671,
      "ďĉďĉ!ďĉ!ďĉďĉďĉ!": 672,
      "%&'(ďĉćć": 673,
      "!!!!!!!": 674,
      "ďĉďĉ!!ďĉ": 675,
      "ďĉďĉďĉďĉďĉďĉ%&'(": 676,
      "32323": 677,
      "ć(": 678,
      "Ĉ!Ĉ!ĈĈ!": 679,
      "ďĉććć": 680,
      "!!!!!!!!!!": 681,
      "ďĉď": 682,
      "ćĈ!ćĈ!Ĉ!ĈćĈ!Ĉ!": 683,
      "ćććććććĈ!Ĉ!ććććććĈ!ćĈĈ%&'(": 684,
      "Ĉ!ĈĈĈ!ĈĈ!ĈĈĈĈ!ĈĈ!ĈďĉĈ!ĈĈĈĈĈĈĈ": 685,
      "ćĈ!ĈĈĈĈ": 686,
      "ďĉďĉ!!ďĉ!!!!": 687,
      "!!Ĉ!": 688,
      "Ĉ!Ĉ!Ĉ!Ĉ!ĈćĈĈĈ!ĈĈĈ": 689,
      "ćććĈ!ćć": 690,
      "Ĉ!ĈĈĈ!Ĉ!Ĉ": 691,
      "!!!!!&'(!!!!!!!!!!!!!!!!": 692,
      "ďĉ!!ďĉ!!!!!!!!": 693,
      "ďĉďĉ!ďĉďĉćććć": 694,
      "ććććĈćĈ": 695,
      "!!!!!!!!!!!!!!!!!!!!!!!!!!!": 696,
      "%ď&'(ĉ!": 697,
      "%&'(ďĉďĉďĉďĉďĉďĉďĉďĉ": 698,
      "ććĈ!Ĉ!Ĉ!ćĈ!": 699,
      "777": 700,
      "ďĉ!ďĉďĉďĉďĉďĉďĉďĉ": 701,
      "ďĉ!!!!!ďĉ!": 702,
      "ćĈ!Ĉ!Ĉ!Ĉ!Ĉ!": 703,
      "ďĉďĉ!ďĉ!!": 704,
      "Ĉ!ćĈ!Ĉ!Ĉ!ćĈ!Ĉ!": 705,
      "!!!!!!!&'(": 706,
      "ććĈ!Ĉ!Ĉ!Ĉ!Ĉ!Ĉ!ćĈ": 707,
      "ć!!": 708,
      "Čďĉ": 709,
      "ććććććĈ!ćĈĈ": 710,
      "Ĉ!Ĉ!Ĉ!ĈĈĈ": 711,
      "ďĉ))": 712,
      "ćĈĈĈćĈ": 713,
      "Čďĉďĉ": 714,
      "ć%&'(ďĉ!": 715,
      "%!Ĉ&'(": 716,
      "ććććććĈććĈ!": 717,
      "ććĈ!ĈĈ!": 718,
      "ĈćĈĈćĈćĈĈĈćĈĈďĉ": 719,
      "ďĉďĉ)": 720,
      "ćĈ!Ĉ!ĈĈ": 721,
      "ćĈ!Ĉ!ĈćĈ!": 722,
      "Ĉ!ććĈĈ": 723,
      "Ĉ(!": 724,
      "Ĉ!ĈĈ!Ĉ!": 725,
      "ć%&'(ďĉ": 726,
      "%!!!&'(": 727,
      "%&'(%&'(%&'(": 728,
      "ćĈćĈćĈ!Ĉ!": 729,
      "ĈĈĈĈĈ!": 730,
      "ćććĈćć": 731,
      "Ĉ!Ĉ!Ĉ!Ĉ!ĈĈĈĈ": 732,
      "ććććććććććććĈ!": 733,
      "ććĈ!ćďĉďĉďĉďĉďĉďĉďĉďĉ": 734,
      "ďĉĈ!": 735,
      "Ĉ!ćĈ!Ĉ!Ĉ!Ĉ!Ĉ!!": 736,
      "00011": 737,
      "Ĉ!Ĉ!Ĉ!Ĉ!Ĉ!Ĉ!Ĉ": 738,
      "ďĉďĉ!!ďĉ!ďĉ!!": 739,
      "Ĉ!ćĈ!ĈćĈ": 740,
      "ć%Ĉ&'(!": 741,
      "Ĉ!ĈĈ!Ĉ!Ĉ!Ĉ": 742,
      "ćĈ!ĈćĈ": 743,
      ")ďĉďĉďĉ": 744,
      "Ĉ!Ĉ!ćĈĈ": 745,
      "ćĈ!ćĈ!ćďĉďĉďĉďĉ!": 746,
      "ČČ": 747,
      "ćĈ!ĈćĈ!Ĉ!": 748,
      "ćĈćĈ!ćĈ": 749,
      "ďĉďĉďĉ!!)!)": 750,
      "ćĈ!Ĉ!ćĈ": 751,
      "ďĉ!!ďĉ!!!!!!!!!!!": 752,
      ")!!!!!!!!!!!!!!!!": 753,
      "ćĈ!ćĈ!ćĈ!Ĉ!": 754,
      "ďĉďĉďĉďĉďĉďĉ!ďĉďĉ!": 755,
      "Ĉ'(!": 756,
      "Ĉ!ďĉďĉ": 757,
      "Ĉ!ĈĈĈ!ĈĈ": 758,
      "ććĈ!Ĉ!Ĉ!Ĉ!Ĉ": 759,
      "Čďĉ!": 760,
      "ďĉ!!!ćććć": 761,
      "ććĈ!Ĉ!Ĉ!Ĉ!Ĉ!": 762,
      "!!!!ďĉ!!": 763,
      "Ĉ!%&'(ďĉďĉďĉ!": 764,
      "ćĈĈĈććĈ": 765,
      "ćĈĈĈĈĈćĈ": 766,
      "%ćĈ&'(!": 767,
      "%&'(ďĉ!ďĉďĉďĉďĉ": 768,
      "Ĉ!ćĈ!ćĈ!Ĉ": 769,
      "ćĈ!ĈććĈ": 770,
      "!!ćććć": 771,
      "ćĈććć": 772,
      "Ĉ!ĈććĈ": 773,
      ")!)!!!!!!!!!!!!!!": 774,
      "!ććććĈ!ĈĈ": 775,
      "Ē!": 776,
      "Ĉ!Ĉ!ĈĈĈĈĈĈ": 777,
      "ćĈ!ćĈĈĈ": 778,
      "Ĉ!Ĉ!Ĉ!ĈĈ!Ĉ": 779,
      "%&'(ďĉďĉ!!!!": 780,
      "ďĉ!!!ďĉ!": 781,
      "ďĉďĉ!ďĉćććć": 782,
      "ćĈĈććĈĈĈ": 783,
      "ćĈćĈćĈćĈćĈ": 784,
      "ćĈĈĈććĈĈĈ": 785,
      "ćććĈććĈ": 786,
      "ĈĈĈĈĈĈĈĈĈ!": 787,
      "ćććĈ!Ĉ!ćĈ!": 788,
      "ďĉććććĈ!ćĈ!ćĈ!Ĉ": 789,
      "ďĉćććĈ!ćĈ!ćĈ!ćĈ!": 790,
      "ćĈ!ćĈ!ĈĈ!Ĉ!": 791,
      "Ĉ!ććĈ!Ĉ!Čďĉ": 792,
      "ćĈ!ćĈ!ćĈ!ćĈćĈ!ćĈ!Ĉ!": 793,
      "ćĈ!ćĈćĈćĈďĉďĉ!": 794,
      "ććĈ!Ĉ!Ĉ!Ĉ!Ĉ!ďĉďĉ!ďĉćććć": 795,
      "ďĉććććĈ!ćĈ!ćĈ!ĈĈ!ććĈ!Ĉ!Čďĉ": 796,
      "Ĉ!ĈĈĈćĈ!ćĈĈĈ": 797,
      "Ĉ!Ĉ!Ĉ!Ĉ!ĈćĈĈćĈĈĈĈĈ": 798,
      "ćĈ!ćĈ!ćĈ!ćĈćĈ!ćĈ!Ĉ!ććĈ!ĈĈ!": 799,
      "ćĈ!ćĈćĈćĈďĉďĉ!ćććććććĈ!Ĉ!": 800,
      "ćĈ!Ĉ!ĈĈĈĈĈĈ": 801,
      "Ĉ!ćĈ!Ĉ!ĈĈĈ!ĈĈĈććĈ!": 802,
      "ććĈćĈćĈćĈ": 803,
      "ćďĉ!ďĉćććĈ!ćĈ!ćĈ!ćĈ!": 804,
      "ĈĈĈĈĈĈĈĈĈĈĈĈĈĈĈĈĈĈĈĈĈĈĈĈĈĈĈ": 805,
      "ćĈ!ćććĈ!ćć": 806,
      "Ĉ!ĈĈ!ććĈ!Ĉ!Ĉ": 807,
      "ćĈ!ććĈ!ćĈ!ććĈ!": 808,
      "ďĉďĉďĉďĉďĉććććĈ!ćĈ!ĈćĈ": 809,
      "ĈĈćĈćĈćĈ!Ĉ!": 810,
      "Ĉ!Ĉ!ĈĈĈĈ": 811,
      "ćĈ!ćĈ!ććĈ!Ĉ!": 812,
      "ćĈ!ćĈ!ćĈ!Ĉ!Ĉ!": 813,
      "ććĈ!Ĉ!ĈĈĈ!Ĉ!": 814,
      "ĈĈĈĈĈĈĈĈĈĈĈĈĈĈĈĈĈĈĈĈĈĈĈĈ": 815,
      "ććĈ!Ĉ!ĈćĈĈĈććĈĈĈ": 816,
      "ćĈ!Ĉ!ććĈ!ĈĈćĈćĈćĈ!Ĉ!": 817,
      "ćććććććĈ!ćĈ!Ĉ!": 818,
      "ćĈĈĈĈĈćĈĈĈĈĈćĈ!ĈĈĈ": 819,
      "Ĉ!Ĉ!ĈĈĈĈĈĈćĈ!ĈĈĈ": 820,
      "ććĈ!Ĉ!ĈĈĈ!Ĉ!Ĉ!ĈĈćĈ": 821,
      "ćĈ!Ĉ!ććĈ!ĈĈćĈćĈćĈ!Ĉ!ĈćĈĈ": 822,
      "ďĉďĉ!ďĉďĉ%&'(": 823,
      "ććĈ!ćĈ!ćĈ!ćĈ!ćĈćĈćĈ": 824,
      "ćĈĈ!Ĉ!ĈćĈ!Ĉ!ĈĈĈĈĈĈ": 825,
      "ćĈĈĈććĈ!Ĉ!": 826,
      "ĈĈĈĈĈĈĈĈĈĈĈĈĈĈĈĈĈĈ!": 827,
      "ćĈ!ĈĈĈĈ!ĈĈ!Ĉ": 828,
      "ććĈ!ććĈ!ĈĈ!ććĈ!Ĉ!Ĉ": 829,
      "Ĉ!ććĈ!ćĈ!Ĉ": 830,
      "ćĈ!ćććĈ!Ĉ!Ĉ!": 831,
      "ćĈ!Ĉ!ćĈĈ": 832,
      "ďĉďĉ!ďĉďĉ": 833,
      "Ĉ!ćććĈ!ććĈ!": 834,
      "ććććĈ!ććĈ!ć": 835,
      "ćĈ!ćĈ!Ĉ!Ĉ!ćĈ!ćĈ!Ĉ!ćĈĈ": 836,
      "ććĈĈćĈĈĈ": 837,
      "ĈĈĈĈĈĈĈĈĈĈĈĈĈĈĈĈĈĈĈĈĈĈĈ": 838,
      "ďĉ!!!!!ďĉ!)!)!!!!!!!!!!!!!!": 839,
      "ćććĈćććĈĈćĈ": 840,
      "ććĈćĈćĈćĈćĈ!": 841,
      "ćććććććĈ!ćĈ!Ĉ!Ĉ!Ĉ!Ĉ!ćĈ!Ĉ!": 842,
      "ćĈĈ!Ĉ!ĈćĈ!Ĉ!ĈĈĈĈĈĈććĈ!ć": 843,
      "!!!!!!!!!&'(!!!!!!!!!!!!!!!!": 844,
      "ćĈ!Ĉ!!Ĉ!": 845,
      "ćććĈĈ!Ĉ!": 846,
      "Ĉ!Ĉ!Ĉ!ćĈĈĈććĈ": 847,
      "ćĈ!ĈĈĈćć": 848,
      "ēē": 849,
      "ćĈ!ććććććĈ!": 850,
      "ćĈ!Ĉ!Ĉ!Ĉ!Ĉ!Ĉ!Ĉ!Ĉ!": 851,
      "Ĉ!Ĉ!Ĉ!Ĉ!ĈĈĈĈĈĈĈĈĈ!": 852,
      "ćĈ!ćĈ!ććĈ": 853,
      "ďĉ!!!!!!!!ďĉ!!!!!": 854,
      "Ĉ!ćĈ!ćĈĈĈĈ!Ĉ": 855,
      "ćĈ!ćĈ!ĈĈ!ćĈ!Ĉ!ĈĈĈ!ĈĈĈććĈ!": 856,
      "ĈĈĈĈ!ććĈ": 857,
      "Ĉ!%&'(ďĉďĉďĉ!))": 858,
      "Ĉ!ćććĈ!ććĈ!ćĈ!ĈĈĈćć": 859,
      ")!!!!!!!!!!!!!!!": 860,
      "Ĉ!Ĉ!Ĉ!Ĉ!Ĉ!Ĉ!ĈĈĈ!Ĉ!": 861,
      "ďĉ!!!ćććĈ": 862,
      "Ĉ!Ĉ!Ĉ!ćĈ!Ĉ!ćĈ!ćĈ!ćĈ!ćĈ!ćĈ!Ĉ!": 863,
      "Ĉ!ĈĈĈ!ĈĈĈĈĈĈĈĈĈĈĈĈĈĈĈĈĈĈ!": 864,
      "!!Č!!Č": 865,
      "ććććĈćĈććĈ!": 866,
      "Ĉ!ĈĈĈĈ!Ĉ": 867,
      "!%!!!!!!!!!!!!!!!!": 868,
      "ďĉććĈĈĈĈĈ": 869,
      "ďĉ!!ďĉ!ććĈ!": 870,
      "Ĉ!ććĈ!Ĉ!Ĉ": 871,
      "ććĈ!ćććĈ!ćććĈ!ćććĈ!Ĉ!Ĉ!": 872,
      "ďĉ!!ďĉ!!!!!!!!)!!!!!!!!)!": 873,
      "ćĈĈĈććĈ!Ĉ!ććĈ!ćć": 874,
      "ććććĈ!Ĉ!Ĉ!Ĉ!": 875,
      "Ĉ!Ĉćć": 876,
      "ćĈćĈćĈĈĈćĈ": 877,
      "ćććĈ!Ĉ!Ĉ": 878,
      "%&'(TVa": 879,
      "ćĈ!Ĉ!ććĈ": 880,
      "ćĈćĈ!ććĈ": 881,
      "ćĈĈ!ćć": 882,
      "ćĈ!ĈćĈ!ćĈ!ĈĈ!ćĈ!Ĉ!ĈĈĈ!ĈĈĈććĈ!": 883,
      "Ĉ!ĈĈĈ!ĈĈĈĈ": 884,
      "ďĉ%&'(!": 885,
      "ćĈćĈĈĈ!Ĉ": 886,
      "Ĉ!ĈĈĈĈ!ĈĈĈĈĈĈĈĈ": 887,
      "ćĈćĈĈĈĈĈĈĈ": 888,
      "ćĈ!ććććććĈ!ćĈ!ććĈ": 889,
      "ćĈĈĈ!Ĉ!ćĈ!Ĉ!": 890,
      "ćĈ!ćĈ!!": 891,
      "ďĉ!ďĉďĉďĉďĉďĉ!": 892,
      "ćććĈććććĈććĈ": 893,
      "ćĈĈćĈĈćĈĈĈĈĈćĈ": 894,
      "ćĈ!ćĈ!ćĈ!ćĈ!ćĈ!Ĉ!ćĈ!ćĈ!Ĉ!ćĈĈ": 895,
      "Ĉ!Ĉ!Ĉ!Ĉ!Ĉ!Ĉ!Ĉ!Ĉ!Ĉ!Ĉ!Ĉ!Ĉ!": 896,
      "ĈĈ!ĈććĈ!Ĉ!Ĉ": 897,
      "Ĉ!Ĉ!ĈĈ!Ĉ!Ĉ!ĈĈĈĈ": 898,
      "ČďĉďĉććĈ!ćĈ!ćĈ!ćĈ!ćĈćĈćĈ": 899,
      "Ĉ!ććĈĈććĈ!": 900,
      "!!ďĉ!!!!!!!!!!!!!!!!!!!": 901,
      "ďĉďĉďĉďĉďĉďĉ!!!": 902,
      "ćĈ!ĈććĈ!Ĉ": 903,
      "Ĉ!Ĉ!ĈĈ!Ĉ!ĈĈĈ": 904,
      "Ĉ!Ĉ!ĈĈ!Ĉ!ĈĈ!Ĉ": 905,
      "Ĉ!ĈĈĈĈ!ĈĈĈĈ": 906,
      "ććććĈ!ćććĈććĈ": 907,
      "ćĈ!ćĈ!ćĈ!Ĉ!ććććĈ!ććĈ!ć": 908,
      "ćććĈćććĈĈćĈćĈ!Ĉ!": 909,
      "ćĈ!Ĉ!!Ĉ!ćĈ!ćĈ!ććĈ!Ĉ!": 910,
      "Ĉ!Ĉ!Ĉ!Ĉ!ĈĈĈĈĈĈĈĈĈ!Čďĉ!": 911,
      "Ĉ!ĈĈ!Ĉ!ćĈ!": 912,
      "ćĈ!ĈĈĈ!!ćććć": 913,
      "ććĈ!Ĉ!Ĉ!Ĉ!Ĉ!ĈĈ!": 914,
      "ććĈ!ĈććććĈ": 915,
      "ćĈĈĈćĈĈćććć": 916,
      "ćććĈ!Ĉ!Ĉ!ććĈ": 917,
      "ćĈĈ!Ĉ!Ĉ!Ĉ!": 918,
      "Ĉ!ćĈ!Ĉ!Ĉ!Ĉ!Ĉ!Ĉ!": 919,
      "ćĈ!ĈćĈ!ććĈ": 920,
      "Ĉ!Ĉ!ćĈ!Ĉ!ĈĈĈ": 921,
      "ćĈĈćĈĈćĈ!ćććĈ!ćć": 922,
      "Ĉ!ććĈ!ćĈ!ććĈ": 923,
      "ćĈ!ĈĈ!Ĉ!ďĉ!ďĉ!": 924,
      "ćĈćĈćĈćĈćĈćĈćĈćĈćĈćĈćĈćĈ": 925,
      "Ĉ!ĈĈĈĈ!ĈĈ!ĈĈĈĈ": 926,
      "ćĈĈĈĈ!Ĉ!ćĈ!Ĉ!": 927,
      "ćĈĈĈĈ!Ĉ!ćĈ!": 928,
      "ćĈĈĈćĈ!ĈĈĈĈ": 929,
      "ćĈćĈćĈćĈĈĈ": 930,
      "ćĈćĈćĈććććĈ!Ĉ!": 931,
      "ćĈ!ĈĈćĈ!ćĈ!Ĉ!Ĉ!ćĈ!ćĈ!Ĉ!ćĈĈ": 932,
      "ććĈ!ćĈ!ćĈ!ĈćĈĈ": 933,
      "ćĈĈćĈĈćĈćĈćĈććĈćĈćĈćĈćĈ!": 934,
      "ćĈććĈ!ćĈ!ćĈ!ĈćĈĈ": 935,
      "ćĈćĈćĈ!Ĉ": 936,
      "ććĈ!Ĉ!Ĉ!ććĈ!Ĉ!": 937,
      "Ĉ!Ĉ!Ĉ!ćĈ!Ĉ!ćĈ!ćĈ!ćĈ!ćĈ!": 938,
      "Ĉ!Ĉ!ĈĈ!ĈĈ!Ĉ!ĈĈ": 939,
      "ććĈ!ćććĈ!ćććĈ": 940,
      "ćććĈ!Ĉ!ćĈ!Ĉ!ĈĈĈĈ!ććĈ": 941,
      "ćććĈććććĈććĈććććĈććĈ": 942,
      "Ĉ!ĈĈĈ!Ĉ!Ĉ!Ĉ!Ĉ!Ĉ!Ĉ!Ĉ!Ĉ!Ĉ!Ĉ!Ĉ!": 943,
      "ćĈćĈćĈćĈćĈćĈćĈćĈćĈ": 944,
      "ććĈ!ĈććĈ!Ĉ!": 945,
      "Ĉ!ĈĈĈĈĈĈĈĈ!ĈĈĈĈĈ": 946,
      "ĈĈĈĈĈćĈćĈ": 947,
      "ćććĈ!Ĉ!ćććĈĈ": 948,
      "ćĈ!ćććĈ!ććĈ": 949,
      "Ĉ!Ĉ!ĈĈćĈ!Ĉ!": 950,
      "ďĉďĉďĉďĉďĉ!!ďĉ!!!!": 951,
      "Ĉ!ĈĈĈĈĈĈĈ!Ĉ!Ĉ!ĈĈ!Ĉ": 952,
      "ďĉ!!)ďĉďĉ!": 953,
      "ćĈĈĈĈĈćĈĈćĈ": 954,
      "!&'(ďĉ))": 955,
      "Ĉ!ĈĈ!ĈĈ!ĈĈĈ!ĈĈĈĈ": 956,
      "ćĈ!Ĉ!Ĉ!Ĉ!ćĈ!ćć": 957,
      ")!)!!!!!!!!!!ďĉ!!!!!!": 958,
      "ďĉďĉďĉďĉďĉ!!ďĉ!ďĉ!": 959,
      "ĈĈĈĈĈĈĈĈĈĈĈĈ!Ĉ!": 960,
      "ćĈććć!!": 961,
      "ćććĈĈĈĈĈ": 962,
      "Ĉ!Ĉ!ĈĈ!Ĉ!Ĉ!!": 963,
      "ćĈ!ćĈ!Ĉ!ćĈ!Ĉ": 964,
      "ććĈ!Ĉ!Ĉ!Ĉ!ćĈĈĈ!Ĉ!ćĈ!Ĉ!": 965,
      "ććććĈ!ććĈ!ćććĈ!ćććĈ": 966,
      "ćĈ!ĈĈĈ!ĈĈ": 967,
      "ćĈ!ĈĈćĈĈćĈ": 968,
      "ćććĈ!Ĉ!Ĉ!ĈĈ!Ĉ!ćĈ!Ĉ!": 969,
      "Ĉ!ĈĈĈĈĈĈ!Ĉ!Ĉ": 970,
      "ćĈććĈĈ!ĈĈĈ": 971,
      "ĈĈĈĈćĈĈĈĈćĈĈĈĈĈĈĈĈććĈ": 972,
      "ćććĈĈ!Ĉ!ćĈ!ććĈćĈ!ćĈ": 973,
      "ććĈ!ćĈ!Ĉ!Ĉ!ćĈ!Ĉ!": 974,
      "ććĈ!Ĉ!ĈĈĈ": 975,
      "Ĉ!Ĉ!ćĈ!Ĉ!Ĉ!Ĉ!ćĈ!Ĉ!": 976,
      "ćĈ!ććĈććĈ": 977,
      "ćĈ!Ĉ!Ĉ!Ĉ!Ĉ!Ĉ!ĈĈ": 978,
      "ćĈ!Ĉ!Ĉ!Ĉ!Ĉ!Ĉ!Ĉ!ćĈ!": 979,
      "ćĈ!ĈĈĈćĈćĈćĈĈĈćĈ": 980,
      "Ĉ!ćĈ!ĈĈĈĈ": 981,
      "ćĈ!ĈĈćĈ!ćĈĈ": 982,
      "ćććććććććććĈ!Ĉ": 983,
      ")!!!!!!!!)": 984,
      "ćĈ!ćĈ!ćĈćĈ!ćĈ!ćĈ": 985,
      "Ĉ!ćĈ!Ĉ!ĈćĈĈĈćĈĈĈćĈĈćććć": 986,
      "000111": 987,
      "ććććĈćĈććĈ!ćĈ!Ĉ!Ĉ!Ĉ!ćĈ!Ĉ!": 988,
      "!!!!!!!!!!!ďĉ!!!!!!!!!!!!!!!!": 989,
      "ďĉďĉĈ!ĈĈ": 990,
      "ćĈĈĈćĈ!ĈććĈĈĈ": 991,
      "Ĉ!Ĉ!Ĉ!Ĉ!Ĉ!Ĉ!Ĉ!ĈĈ!": 992,
      "01010101": 993,
      ")!)!!!!!!!!!ććććĈ!ĈĈ": 994,
      "ďĉćĈ!Ĉ!ććĈ!ććĈ!ĈĈ!ććĈ!Ĉ!Ĉ": 995,
      "Ĉ!Ĉ!ćĈ!ĈĈ!ććĈ!ćĈ!ććĈ": 996,
      "ďĉ!!!ćććĈćĈ!ćĈ!ĈĈ!Ĉ!": 997,
      "ćĈĈĈĈĈĈćĈĈĈĈ": 998,
      "Ĉ!ććĈ!ćĈ!ĈĈ!ćĈ!Ĉ!": 999,
      "!!!!!!!!!!!!!!!!!": 1000,
      "Ĉ!Ĉ!Ĉ!ĈĈĈĈĈĈĈĈ!ĈĈĈĈĈ": 1001,
      "ćććććććĈ!Ĉ!Ĉ!ććĈĈććĈ!": 1002,
      "ććĈ!ĈĈ!ĈĈĈĈ!ĈĈ!ĈĈĈĈ": 1003,
      "ćććĈ!Ĉ!Ĉ!Ĉ!Ĉ!Ĉ!ĈĈĈĈĈĈĈĈĈĈĈĈ": 1004,
      "ććĈ!ććććĈćĈćĈćĈććććĈ!Ĉ!": 1005,
      "ćććĈćććĈĈćĈćĈ!Ĉ!ćĈ!ĈćĈćĈćĈ": 1006,
      "ćĈ!ćććĈ!ććĈćĈ!ććĈ": 1007,
      "Ĉ!Ĉ!ĈĈĈĈĈĈĈĈĈĈĈĈĈĈĈĈĈĈĈĈĈĈĈĈ": 1008,
      "ćĈĈ!Ĉ!ĈĈĈ": 1009,
      "Ĉ!ĈĈ!Ĉ!Ĉ!Ĉ!ĈĈ": 1010,
      "ććĈĈćĈĈĈććĈĈććĈćć": 1011,
      "ćĈ!Ĉ!ććĈćĈ!": 1012,
      "Ĉ!Ĉ!ĈĈ!Ĉ!ĈĈĈĈ!Ĉ!ĈĈ!Ĉ!Ĉ!!": 1013,
      "Ĉ!Ĉ!ĈĈ!ĈĈ!Ĉ!ĈĈĈ!ĈĈĈĈ!ĈĈĈĈ": 1014,
      "ďĉďĉďĉďĉĈ!ĈĈĈćĈ!ćĈĈĈ": 1015,
      "ďĉďĉ!!ćććĈ!Ĉ!ćĈ!Ĉ!ĈĈĈĈ!ććĈ": 1016,
      "Ĉ!Ĉ!ĈĈĈĈ!Ĉ!Ĉ!ĈĈĈĈĈĈĈĈĈ": 1017,
      "ćĈ!Ĉ!ćĈ!Ĉ!ćĈ!Ĉ!Ĉ!Ĉ!Ĉ!": 1018,
      "Ĉ!ĈĈĈĈ!ĈĈĈĈĈĈĈĈĈĈĈĈ!Ĉ!": 1019,
      "ććĈ!Ĉ!Ĉ!Ĉ!Ĉ!Ĉ!ćĈĈ!Ĉ!Ĉ!ćĈĈĈććĈ": 1020,
      "ćĈćĈĈĈ!ĈćĈĈĈĈĈĈĈĈććĈ": 1021,
      "ďćĉ": 1022,
      "!!!!!&'(": 1023,
      "%&'(ďĉ!!!": 1024,
      "ćĈĈĈĈĈĈĈĈĈĈĈĈĈ!ćĈ!ćĈĈĈĈ!Ĉ": 1025,
      "ďĉďĉďĉ!!ďĉďĉćĈ!Č": 1026,
      "ćĈ!Ĉ!ĈĈćĈ": 1027,
      "Ĉ!Ĉ!Ĉ!Ĉ!Ĉ!Ĉ!ĈĈ!ĈĈ!ĈĈ!ĈĈĈ!ĈĈĈĈ": 1028,
      "ćĈĈććĈĈĈćĈ!ĈćĈ!ććĈ": 1029,
      "ćĈĈĈĈ!Ĉ!ćĈ!Ĉ!ćĈĈĈćĈ!ĈĈĈĈ": 1030,
      "ćĈ!Ĉ!Ĉ!Ĉ!Ĉ!Ĉ": 1031,
      "ćĈ!ćĈ!ćĈ!ĈĈ!Ĉ!": 1032,
      "ďĉďĉďĉ!ďĉ": 1033,
      "ćĈ!ćĈ!Ĉ!ććĈ!ĈććĈ!Ĉ!": 1034,
      "ćĈĈĈĈĈćĈĈĈĈĈćĈ!ĈĈĈćĈ": 1035,
      "ĈĈ!ĈććĈ!Ĉ!ĈĈ!ĈĈ!Ĉ!ćĈ!": 1036,
      "ćĈ!ĈććĈ!ĈćĈćĈćĈ!Ĉ": 1037,
      "ćććĈ!Ĉ!ćććĈĈćĈ!ĈĈĈ!!ćććć": 1038,
      "ďĉ!ďĉ!ďĉ!ďĉ!": 1039,
      "ćĈ!ćĈ!ćĈ!ćĈ!Ĉ!Ĉ!Ĉ": 1040,
      "Ĉ!ďĉďĉćĈ!ďĉ!": 1041,
      "ćĈ!ĈććĈĈ!Ĉ!ĈĈ": 1042,
      "ćĈćĈćĈćĈĈĈćĈĈĈĈĈĈ": 1043,
      "ćććĈ!Ĉ!Ĉ!ćĈ!Ĉ!Ĉ": 1044,
      "Ĉ!Ĉ!Ĉ!Ĉ!Ĉ!Ĉ!ĈĈĈ": 1045,
      "Ĉ!Ĉ!ĈĈĈ!Ĉ!Ĉ!Ĉ!ĈĈĈĈ": 1046,
      "ććĈ!ćďĉďĉďĉďĉ": 1047,
      "ććĈ!ćĈ!ćĈ!ć": 1048,
      "ćĈĈ!ćĈ!Ĉ!ĈĈĈĈćĈĈĈĈ": 1049,
      "ćĈ!ćĈ!ććĈćĈ!Ĉ!Ĉ!Ĉ!ćĈ!ćć": 1050,
      "ćĈ!ćĈ!Ĉ!ćĈ!ĈćĈ!ĈĈ!Ĉ": 1051,
      "ćĈ!ćĈ!ćĈćĈ!ćĈ!ćĈćĈ!ćĈ": 1052,
      "Ĉ!Ĉ!Ĉ!Ĉ!Ĉ!ćĈ!ĈĈĈĈ": 1053,
      "ćĈ!ććĈĈĈĈĈćĈćĈ": 1054,
      "Ĉ!Ĉ!Ĉ!ćĈ!ćĈ": 1055,
      "ććććććĈ!ćććĈ!ćć": 1056,
      "ććĈ!Ĉ!Ĉ!Ĉ!ćććĈ!Ĉ!Ĉ!ććĈ": 1057,
      "ďĉććĈ!ĈĈĈĈĈ!": 1058,
      "ćĈćĈĈĈĈĈćĈĈ": 1059,
      "Ĉ!Ĉ!Ĉ!Ĉ!Ĉ!Ĉ!ĈĈĈ!Ĉ!ĈĈĈĈ": 1060,
      "ćĈĈ!Ĉ!Ĉ!Ĉ!ćĈćĈĈ": 1061,
      "Ĉ!ĈĈĈĈĈĈ!Ĉ!ĈĈ!ĈĈĈĈ!ĈĈĈĈĈĈĈĈ": 1062,
      "ćććććďĉ!": 1063,
      "ććĈ!ććććĈć!!": 1064,
      "ćĈćĈĈĈĈĈĈĈćĈĈĈĈĈĈ": 1065,
      "ććććććććĈ!Ĉ!Ĉ!Ĉ!": 1066,
      "Ĉ!Ĉ!ĈćĈĈĈĈ": 1067,
      "ćĈĈĈćĈ!ĈĈĈĈ!ĈĈ!Ĉ": 1068,
      "ĈĈĈĈĈĈĈĈĈĈĈĈĈĈĈĈĈĈĈĈĈĈĈĈ!": 1069,
      "ćĈĈĈĈĈćĈĈćĈćĈĈćĈĈćĈĈĈĈĈćĈ": 1070,
      "Ĉ!Ĉďĉ!!!!!!!!!!!!!!!!": 1071,
      "ćĈ!ćĈ!ććććĈ!ććĈ!ćććĈ!ćććĈ": 1072,
      "ććććććććĈ!": 1073,
      "ććććććććććććććććććććććĈ!": 1074,
      "ďĉďĉ!!!)!)!!": 1075,
      "ććĈ!Ĉ!ĈĈĈ!!ćĈ!Ĉ!Ĉ!Ĉ!": 1076,
      "ćĈ!ććĈććĈ!!!!!!": 1077,
      "Ĉ!ĈĈĈĈĈĈĈĈĈĈĈĈĈĈĈĈ": 1078,
      "ćććĈćććĈĈ!Ĉ!ćĈ!ććĈćĈ!ćĈ": 1079,
      "ćĈ!Ĉ!ĈćĈććĈĈ!ĈĈĈ": 1080,
      "ĈĈĈ!ĈĈĈććĈ!ĈĈ!ĈĈĈĈ!ĈĈ!ĈĈĈĈ": 1081,
      "ĈĈĈĈĈĈćĈ!ććĈććĈ!": 1082,
      "Ĉ!ĈććĈĈ!Ĉ!": 1083,
      "Ĉ!%&'(ďĉďĉďĉ!))ďĉ!ďĉďĉďĉďĉ": 1084,
      "ćĈ!ĈĈćĈ!ćĈĈćĈ!Ĉ!": 1085,
      "ćĈ!Ĉ!ćĈ!ćĈ!ćĈ!Ĉ!ććććĈ!ććĈ!ć": 1086,
      "ďĉďĉďĉ!ďĉďĉ!ďĉďĉďĉ!ďĉďĉ!": 1087,
      "ćĈĈ!ćĈ!Ĉ!Ĉ!Ĉ!Ĉ!ĈĈĈ": 1088,
      "!!ćĈ!Ĉ!Ĉ!Ĉ!ćĈ!ććĈ!": 1089,
      "!!Č!!Č!": 1090,
      "ćĈĈ!ććĈĈĈĈćĈĈĈĈćĈĈĈĈĈĈĈĈććĈ": 1091,
      "ćĈ!ĈĈĈ!ĈĈćĈ!Ĉ!Ĉ!": 1092,
      "ćĈćĈćĈćććĈćĈ": 1093,
      "!!!SĂĄĆ!!ďĉ!!!!!!": 1094,
      "ćććĈćĈ!ćĈ": 1095,
      "ďĉ!!!!!!)!!!!!!!!)": 1096,
      "ćĈĈ!ćĈ!ćĈ!Ĉ": 1097,
      "ćĈ!ĈććĈĈĈćĈĈĈćĈ!ĈććĈĈĈ": 1098,
      "Ĉ!ćĈ!Ĉ!Ĉ!ćĈ!Ĉ!Ĉ!ĈĈ!": 1099,
      "ćĈ!ĈćĈĈ!Ĉ!ćĈ!ĈĈ!ććĈ!ćĈ!ććĈ": 1100,
      "ďĉ!!!ćććććĈ!Ĉ": 1101,
      "ććĈ!ĈććććĈćĈćĈćĈćĈćĈćĈćĈćĈćĈ": 1102,
      "ćĈ!Ĉ!Ĉ!ććĈ!ćĈ!Ĉ!Ĉ!ćĈ!Ĉ!": 1103,
      "ććĈ!Ĉ!ĈĈ!ĈĈĈ": 1104,
      "ćĈ!Ĉ!ćĈććĈ!Ĉ!": 1105,
      "Ĉ!Ĉ!ĈĈ!Ĉ!ĈĈĈĈ!Ĉ!ĈĈ!Ĉ!Ĉ!!Ĉ!": 1106,
      "Ĉ!Ĉ!ćĈ!ććĈ!ćĈ!ććĈ!": 1107,
      "ďĉďĉ!!ďĉććĈ!ĈĈĈĈĈ!": 1108,
      "ďĉććććĈ!ćĈ!Ĉ": 1109,
      "Ĉ!Ĉ!ćĈ!Ĉ!ĈĈ!": 1110,
      "Ĉ!Ĉďĉ!ďĉ!": 1111,
      "LL!LK": 1112,
      "ďĉ!!!!!!!!!!!!!!ďĉďĉďĉďĉ": 1113,
      "ĈĈĈ!ĈĈĈĈ!ĈĈ!Ĉ!Ĉ!Ĉ!ĈĈ": 1114,
      "ćĈ!Ĉ!ĈćĈ!Ĉ!ćĈĈĈććĈ!Ĉ!ććĈ!ćć": 1115,
      "ćĈ!ććĈ!ćĈ!Ĉ": 1116,
      ")!)!!!!!!!!ďĉ!ďĉďĉ": 1117,
      "ćĈ!ćĈ!Ĉ!Ĉ!ćĈ!Ĉ!Ĉ!ććĈ!Ĉ!": 1118,
      "ććĈĈććĈćććĈćĈćĈćĈćĈĈćĈĈćĈćĈćĈ": 1119,
      "ćĈ!ĈćĈ!Ĉ!ćĈ!ćĈ!ćĈ!ćĈ!ćĈ!Ĉ!": 1120,
      "ćĈćĈ!ććĈ!!": 1121,
      "ćĈ!Ĉ!ĈĈćĈćĈĈĈĈĈĈĈĈĈĈĈĈ": 1122,
      "Ĉ!Ĉ!ĈĈĈĈĈ!Ĉ!Ĉ!": 1123,
      "ćĈĈććĈĈĈćĈ!ĈćĈ!ććĈĈ!Ĉ!ĈĈćĈ!Ĉ!": 1124,
      "!!!ďĉďĉďĉďĉ": 1125,
      "ćĈĈćĈĈĈĈĈĈćĈĈĈĈ": 1126,
      "ćććĈ!Ĉ!Ĉ!Ĉ!Ĉ!Ĉ": 1127,
      "ćĈ!Ĉ!Ĉ!Ĉ!Ĉ!Ĉ!Ĉ": 1128,
      "ĈĈĈĈĈĈĈĈĈĈĈĈĈĈ!Ĉ!Ĉ!Ĉ!ĈĈĈĈ": 1129,
      "Ĉ!ĈćĈ!ćĈĈĈĈĈćĈĈĈĈĈćĈ!ĈĈĈćĈ": 1130,
      "ćĈ!ĈĈ!ĈĈĈĈ!Ĉ!Ĉ!ĈĈĈĈĈĈĈĈ!ĈĈĈĈĈ": 1131,
      "Ĉ!Ĉ!ĈĈĈĈĈĈćĈ!ĈĈĈ%&'(ďĉ": 1132,
      "ďĉ!ďĉ!!!!!!!!!!!": 1133,
      "ćĈćĈ!ćĈĈ!": 1134,
      "Ĉ!ćĈ!Ĉ!Ĉ!Ĉ!Ĉ!Ĉ!ćĈ!ćĈ!ćĈ!Ĉ!Ĉ!": 1135,
      "ććććććććĈ!Ĉ!Ĉ!Ĉ!ćĈĈĈĈ!Ĉ!ćĈ!": 1136,
      "Ĉ!Ĉ!Ĉ!Ĉ!Ĉ": 1137,
      "ććĈ!ćĈ!Ĉ!": 1138,
      "ćĈ!ćĈ!Ĉ!ćĈĈ!Ĉ!Ĉ!Ĉ!ćĈćĈĈ": 1139,
      ")))": 1140,
      "%&'(ďĉććďĉďĉ!!ďĉććĈ!ĈĈĈĈĈ!": 1141,
      "ď!!": 1142,
      "Ĉ!Ĉ!Ĉ!Ĉ!Ĉ!Ĉ!Ĉ!!": 1143,
      "!!!!!!!!!!!!!!!!!!!!!!!ďĉ!": 1144,
      "ćĈ!Ĉ!Ĉ!ćĈ!Ĉ!ćĈ!ćĈ!ćĈ!ćĈ!Ĉ!Ĉ!Ĉ": 1145,
      "ćĈ!ćĈ!Ĉ!Ĉ!ćĈĈ!": 1146,
      "ĈĈĈĈĈĈćĈ!ććĈćĈ!ćĈ!Ĉ!": 1147,
      "ďĉďĉďĉďĉďĉďĉďĉ!ďĉ!ďĉďĉďĉ!": 1148,
      "!!!!!!!!!!!!!!!!)!)!!": 1149,
      "ćĈ!ćĈ!Ĉ!ćĈ!Ĉ!Ĉ!ćĈ!Ĉ!": 1150,
      "ďĉććććććĈ!ććĈ!": 1151,
      ")!)!!ďĉďĉ!!!!!!!!!!!!!!!!": 1152,
      "ćĈĈ!Ĉ!ĈćĈĈ!ćĈ!Ĉ!ĈĈĈĈćĈĈĈĈ": 1153,
      "!!!!!!&'(": 1154,
      "ćććĈ!Ĉ!Ĉ!Ĉ!Ĉ!ćĈ!Ĉ!": 1155,
      "ćĈ!Ĉ!ĈćĈ!Ĉ!ćĈ!ććĈĈĈĈĈćĈćĈ": 1156,
      "%&'(%&'(ďĉ!!": 1157,
      "ćĈ!Ĉ!Ĉ!Ĉ!Ĉ!Ĉ!ďĉ!%&'(": 1158,
      "ćĈ!ĈĈ!ĈĈ!ĈĈ!": 1159,
      "ćĈ!Ĉ!Ĉ!Ĉ!Ĉ!Ĉ!ďĉ!%&'(ďĉ!!ďĉ!": 1160,
      "ćĈ!Ĉ!ĈćĈ!Ĉ!Ĉ!": 1161,
      "ćĈ!ćććĈ!ććĈćĈ!ććĈćććĈ!Ĉ!Ĉ!Ĉ!": 1162,
      "R%&'(TVa": 1163,
      "Ĉ!Ĉ!Ĉ!Ĉ!ćććĈ!": 1164,
      "ćďĉ#$": 1165,
      "ćĈ!ćĈ!Ĉ!Ĉ!ćĈ!Ĉ!ćĈ!": 1166,
      "ćĈ!ććĈćĈ!ćĈćĈ!Ĉ!ććĈćĈ!": 1167,
      "ććĈ!ćĈ!ććĈ!ććććĈ!ćććĈććĈ": 1168,
      "ćĈ!ćĈ!!ććĈ!ććĈ!": 1169,
      "ććććććććććććććććĈ!Ĉ!ćĈ!Ĉ!ĈĈ!": 1170,
      "ďĉ!!ďĉďĉďĉ)!)": 1171,
      "ćććććĈ!Ĉ!Ĉ!Ĉ!Ĉ!Ĉ!": 1172,
      "Ĉ!ĈĈ!Ĉ!!ćĈ!Ĉ!Ĉ!Ĉ!ćĈ!ććĈ!": 1173,
      "ćĈ!Ĉ!Ĉ!Ĉ!Ĉ!ĈĈĈ!Ĉ!Ĉ": 1174,
      "ćĈ!Ĉ!Ĉ!Ĉ!ćĈ!Ĉ!ćĈ!ćĈ!ćĈ!ćĈ!Ĉ!": 1175,
      "ďĉćććććććĈ!ćĈ!": 1176,
      ")ććććććććććććĈ!": 1177,
      "%&'(ďĉ!!ďĉ!!": 1178,
      "ćĈĈĈĈ!ĈććĈ!ććććĈć!!": 1179,
      "Ĉ!ĈĈĈĈĈĈĈĈĈĈĈĈĈĈĈĈĈĈĈĈ!": 1180,
      "ďĉććććĈ!ćĈ!ĈĈ!ććĈ!ćĈ!ĈĈ!ćĈ!Ĉ!": 1181,
      "ďĉ!!ďĉďĉďĉďĉďĉ!!ďĉ!ďĉ!": 1182,
      "ďĉ!!!!!!!!!!!!!!!": 1183,
      ")!)!ďĉďĉ!!!)!)!!": 1184,
      "ćĈ!ććĈććĈ!!!!!!ďĉćć": 1185,
      "ĈĈĈĈĈĈćĈ!ććĈććĈ!ćĈ!ĈććĈĈ!Ĉ!ĈĈ": 1186,
      "%ćć": 1187,
      "ďĉćććĈ!Ĉ!Ĉ!Ĉ": 1188,
      "ćććĈĈ!ćĈ!Ĉ!ĈćĈĈĈćĈĈĈćĈĈćććć": 1189,
      "ćĈ!ďĉ!ďĉ!!!!!!!!!!!!!!!!": 1190,
      "ďĉďĉćććććĈ!Ĉ!ćĈĈ": 1191,
      "ććććććććĈ!Ĉ!ćĈĈ": 1192,
      "%&'(ďĉ!!!!!!!!!!!!!!!!!!!!!": 1193,
      "Ĉ!ĈĈ!ćĈ!Ĉ": 1194,
      "ďĉ!ďĉĈ!Ĉ!ćĈ!Ĉ!ĈĈĈ": 1195,
      "ććććĈ!ćĈ!Ĉ!Ĉ!ćĈ!Ĉ!": 1196,
      "ďĉďĉďĉďĉ!!!!!!!!!!!!!!!!": 1197,
      "ďĉďĉ!ďĉ!)ďĉďĉďĉ": 1198,
      "ćĈćĈĈĈĈĈćĈĈćĈćĈćĈćĈĈĈćĈĈĈĈĈĈ": 1199,
      "ćďĉ!ďĉďĉďĉďĉ!!": 1200,
      "ćĈ!ććĈ!Ĉ!Ĉ": 1201,
      "ďĉďĉďĉďĉ!ďĉďĉ!!": 1202,
      "%ć&'": 1203,
      "ćďĉďĉďĉĈ!ĈĈĈĈ": 1204,
      "ĈĈĈĈĈĈĈĈĈĈĈĈĈĈ!Ĉ!Ĉ!Ĉ!Ĉ!ĈĈĈ!ĈĈ": 1205,
      "ćććĈ!Ĉ!ćĈ!Ĉ!Ĉ": 1206,
      "ďĉďĉďĉďĉ!ďĉ!!": 1207,
      "ćĈ!ćĈĈ%&'(": 1208,
      "ďĉďĉďĉ!ďĉďĉďĉ!!": 1209,
      "ďĉďĉ!!ďĉ!!ďĉďĉ": 1210,
      "ććĈ!Ĉ!ććĈ!ććććĈćĈćĈćĈććććĈ!Ĉ!": 1211,
      "ćĈ!Ĉ!Ĉ!Ĉ!Ĉ!Ĉ!Ĉ!Ĉ!Ĉ!Ĉ!": 1212,
      "Ĉ!ĈććĈĈ!Ĉ!ććĈ!Ĉ!ĈĈ!ĈĈĈ": 1213,
      ")ććććććććććććĈ!ććĈ!": 1214,
      "Ĉ!Ĉ!Ĉ!Ĉ!Ĉ!Ĉ!ĈĈĈĈĈĈĈĈĈĈĈĈĈĈĈĈ": 1215,
      "Ĉ!ĈĈćĈĈ!Ĉďĉ!!!!!!!!!!!!!!!!": 1216,
      "ćďĉďĉďĉďĉ!ććĈ!Ĉ!Ĉ!Ĉ!Ĉ": 1217,
      "Ĉ!Ĉ!Ĉ!Ĉ!!Ĉ!Ĉ!Ĉ": 1218,
      "ććććććććĈ!ćććĈ!Ĉ!ćĈ!": 1219,
      "ćĈĈ!ćĈ!Ĉ!Ĉ!Ĉ!Ĉ!ĈĈĈćĈ!Ĉ!Ĉ!": 1220,
      "ćďĉ!!!!!!!!!": 1221,
      "ććĈ!Ĉ!ĈĈĈ!Ĉ!Ĉ!ĈĈćĈďĉ!!ďĉďĉ!!!": 1222,
      "ďĉďĉďĉďĉďĉďĉďĉ%&'(": 1223,
      "ďĉ!Ĉ!ĈćĈ!Ĉ!Ĉ!ĈćĈ!ćć": 1224,
      "ďĉ!ďĉ!!!SĂĄĆ!!ďĉ!!!!!!": 1225,
      "%ć&": 1226,
      "ďĉďĉ!!ďĉ!!!!!!)!!!!!!!!)": 1227,
      "Ĉ!ĈĈć": 1228,
      "Ĉ!Ĉ!Ĉ!Ĉ!Ĉ!Ĉ!Ĉ!ĈĈĈĈĈĈ": 1229,
      "ďĉďĉĈ!ĈĈďĉ!!": 1230,
      "ćĈĈ!Ĉ!ĈĈĈćĈćĈ!ććĈ!!": 1231,
      "ćććććĈ!Ĉ!Ĉ!Ĉ!Ĉ!Ĉ!ćĈ!Ĉ!Ĉ!ćĈ!Ĉ!": 1232,
      "ďĉććććććććććććććććććććććĈ!": 1233,
      "ďĉďĉććććććĈ!ćććĈ!ćć": 1234,
      "ďĉ!!ďĉ!ďĉ!": 1235,
      "ćĈ!Ĉ!Ĉ!Ĉ!Ĉ!Ĉ!ćĈ!Ĉ!ććĈ!": 1236,
      "Ĉ!ĈćĈ!Ĉ!ććĈ!ććĈ!": 1237,
      "ďĉććĈ!ćććĈćććĈĈ!Ĉ!ćĈ!ććĈćĈ!ćĈ": 1238,
      "ćććĈ!Ĉ!Ĉ!Ĉ!Ĉ!Ĉ!ćĈ!Ĉ!Ĉ!Ĉ!ćĈ!Ĉ!": 1239,
      "Ĉ!Ĉ!ĈĈ!ĈĈ!Ĉ!Ĉ!Ĉ!Ĉ!Ĉ!ĈĈĈ": 1240,
      "%&'(%&'(ďĉ!!ććććććĈććĈ!": 1241,
      "ććććĈ!ćĈ!Ĉ!Ĉ!ĈĈ!Ĉ!Ĉ!Ĉ": 1242,
      "ććććĈ!ćĈ!Ĉ!Ĉ!Ĉ!Ĉ!Ĉ!Ĉ!Ĉ!Ĉ!!": 1243,
      "ďĉďĉďĉďĉ!ďĉďĉ%!!!&'(": 1244,
      "ďĉ!!ďĉ!ććĈ!ďĉ!ďĉďĉ!!": 1245,
      "ćĈćĈćĈćććĈćĈćććĈćĈ": 1246,
      "ďĈ!ĉ": 1247,
      "Ĉ!ćďĉ!": 1248,
      "ďĉďĉď%&'(ĉ": 1249,
      "!!!!!!!!!!!!!!": 1250,
      "ĈĈĈ!Ĉ!Ĉ!ĈĈĈ": 1251,
      "ććĈ!Ĉ!Ĉ!ĈćĈ!Ĉ!ĈćĈććĈĈ!ĈĈĈ": 1252,
      "ďĈ": 1253,
      "ćććććććććććććććĈ!Ĉ!Ĉ!ćĈ!Ĉ!": 1254,
      "ćććććććććććĈ!ćĈ!!ććĈ!ććĈ!": 1255,
      "Ĉ!ćććĈ!ććĈ!ćĈ!ĈĈĈćć!!!!": 1256,
      "ďĉďĉ)ďĉďĉ!": 1257,
      "ďĉďĉďĉďĉďĉďĉćďĉ!": 1258,
      "ććććĈ!Ĉ!ćĈ!ćĈ!Ĉ!ććĈ!ĈććĈ!Ĉ!": 1259,
      "ďĉďĉ!ďĉ%&'(ćććććććććććććććć": 1260,
      "ćĈ!Ĉ!!Ĉ!ćĈ!ćĈ!ććĈ!Ĉ!ćĈ!ďĉ!": 1261,
      "ďĉ!!!!!!!!!!!)!!!!!!!!!!!!!!!": 1262,
      "ďĉ!!!!!!!!!!!!!%": 1263,
      "ďĉ!!ćććććććĈ!Ĉ!Ĉ!ććĈĈććĈ!": 1264,
      "ďĉďĉ%&'(!": 1265,
      "ććććĈ!ĈĈ!ćĈ!Ĉ": 1266,
      "ďĉ!!!!!!ďĉďĉ!!": 1267,
      "3322": 1268,
      "ćĈćĈĈĈĈĈĈĈćĈĈĈĈĈĈćĈćĈ!ćĈĈ!": 1269,
      "%&'(Ĉ!Ĉ!": 1270,
      "ćććććĈ!Ĉ!Ĉ!ćĈĈćĈďĉďĉ": 1271,
      "ďĉćĈ!": 1272,
      "!!!ďĉ!!ďĉďĉ!!!": 1273,
      ")!)ďĉďĉďĉďĉďĉďĉ!!!": 1274,
      "ććĈ!Ĉ!Ĉ!Ĉ!Ĉ!Ĉ!ććĈ!": 1275,
      "L!LK!LK": 1276,
      "ďĉ!ďĉ!!ćĈ!": 1277,
      "ĈĈĈ!Ĉ!Ĉ!ĈĈĈĈ!Ĉ!ĈĈ!Ĉ!Ĉ!ĈĈĈĈ": 1278,
      "ćććĈ!ćĈ!Ĉ!Ĉ!ćĈ!Ĉ!": 1279,
      "ćććććĈ!ćĈ!ććććĈ!ććĈ!ćććĈ!ćććĈ": 1280,
      "ďĉďĉďĉď%&'(ĉ": 1281,
      "ďĉ!!!!!!!!ććĈ!Ĉ!ĈćĈĈĈććĈĈĈ": 1282,
      "ďĉććĈ!Ĉ!Ĉ!Ĉ!Ĉ!Ĉ!": 1283,
      "ććććĈ!ćĈ!Ĉ!Ĉ!Ĉ!": 1284,
      "ďĉďĉďĉďĉććĈ!Ĉ!ĈĈĈ!!ćĈ!Ĉ!Ĉ!Ĉ!": 1285,
      ")!)!!!!!!!!!ććććĈ!ĈĈ%&'(ďĉ": 1286,
      "ćďĉććć": 1287,
      "Ĉ!ĈĈĈ!ĈĈĈ": 1288,
      "!!)!)!!!!!!!!!ććććĈ!ĈĈ%&'(ďĉ": 1289,
      "ćććĈ!Ĉ!Ĉ!Ĉ!Ĉ!Ĉ!ćććććĈ!ćĈĈ%&'(": 1290,
      "ćććĈ!Ĉ!ććĈ!": 1291,
      "ďĉ!!ďĉ!ďĉ!!!": 1292,
      "ćććĈ!Ĉ!ćĈ!Ĉ!ćĈ!ćĈ!ćĈ!ĈĈ!Ĉ!": 1293,
      "ćďĉ!!!!": 1294,
      "ďĉďĉ!!ďĉďĉďĉ!": 1295,
      "%&'(ďĉćĈ!Ĉ!Ĉ!Ĉ!Ĉ!Ĉ!ĈĈ": 1296,
      "ćĈ!Ĉ!ĈćĈ!ć": 1297,
      "2323232222222222222222": 1298,
      "ćďĉďĉďĉćĈ!Ĉ!Ĉ!Ĉ!": 1299,
      "!!!!&'(": 1300,
      "ćĈ!ĈćĈćĈćĈćććĈĈĈĈĈ": 1301,
      "ććĈ!ćććĈ!ćććĈ!ćććĈ!Ĉ!Ĉ!ďĉćć": 1302,
      "ćććĈ!Ĉ!ćĈ!Ĉ!ĈĈ!Ĉ!ĈćĈĈĈĈ": 1303,
      "ćĈ!Ĉ!ćĈĈ!ćĈ!ćĈ!Ĉ": 1304,
      "ĉĉĉĉĉĉĉĉ": 1305,
      "ćĈ!Ĉ!Ĉ!Ĉ!ĈĈ!Ĉ!Ĉ!Ĉ!": 1306,
      "ďĉďĉďĉďĉďĉďĉ!%&'(%&'(": 1307,
      "ďĉ!!!!!!ďĉďĉ!!!!": 1308,
      "Ĉ!ĈćĈ!Ĉ!ććĈ!ććĈ!ćĈ!Ĉ!ćĈććĈ!Ĉ!": 1309,
      "ďĉ!ćĈ!ćĈ": 1310,
      "ďĉďĉďĉ!!)!)!!!!!!!!!!!!!!!!": 1311,
      "ć%&'(ďĉ!!!!!!!!!": 1312,
      "!!!!!!!!!!!!!!!!!!!!%&'(%&'(": 1313,
      "ćĈĈĈĈ!ćĈ!Ĉ": 1314,
      "))))": 1315,
      "!!!!!!!!!ďĉ!!!!!!!!": 1316,
      "Ĉ!ććĈ!Ĉ!ĈćĈ!ććĈ!Ĉ!Ĉ": 1317,
      "ććććĈ!Ĉ!Ĉ!Ĉ!Ĉ!ĈĈ!Ĉ!": 1318,
      "ćĈ!ĈĈ!Ĉ!ďĉ!ďĉ!ďĉďĉďĉ!!": 1319,
      "ćććĈ!Ĉ!ććĈ!ćĈ!ćČ": 1320,
      "ćĈ!Ĉ!Ĉ!ćĈ!Ĉ!Ĉ!Ĉ!ćĈ!Ĉ!": 1321,
      "RTVa!!!S": 1322,
      "ďĉďĉďĉćććĈ!Ĉ!Ĉ!ĈĈ!Ĉ!ćĈ!Ĉ!": 1323,
      "ďĉ!!ďĉ!ďĉďĉďĉ!": 1324,
      "ćĈ!Čďĉďĉ!": 1325,
      "ćććĈćĈ!ćĈćććĈ!Ĉ!Ĉ!Ĉ!Ĉ!ćĈ!Ĉ!": 1326,
      "LK": 1327,
      "ďĉďĉďĉ!ďĉďĉćććććĈ!Ĉ!ćĈĈ": 1328,
      "ďĉďĉďĉďĉďĉďĉďĉ)!": 1329,
      "ďĉďĉ!ďĉ!)ďĉďĉďĉćďĉďĉ!": 1330,
      "Ĉ!ĈćĈ!Ĉ!Ĉ!Ĉćďĉ!": 1331,
      "ćĈćĈ!ććććććĈ!ćĈ!ććĈ": 1332,
      "ććććĈćććĈ!Ĉ!Ĉ": 1333,
      "ďĉďĉ!!!!!!!!!!!": 1334,
      "Ĉ!Ĉ!Ĉ!Ĉ!ććĈćć": 1335,
      "Ĉ!Ĉććďĉ!ćĈ!ćĈ": 1336,
      "Ĉ!ĈĈĈĈĈ!Ĉ!Ĉ!ĈĈĈĈĈĈĈĈĈ": 1337,
      "Ĉ!Ĉ!Ĉ!Ĉ!Ĉ!Ĉ!ćďĉďĉďĉćĈ!Ĉ!Ĉ!Ĉ!": 1338,
      "Ĉ!Ĉ!Ĉ!Ĉ!!Ĉ!Ĉ!Ĉ!Ĉ!!Ĉ!Ĉ!Ĉ": 1339,
      "ďĉććĈ!Ĉ!Ĉ!Ĉ!Ĉ!Ĉ!Ĉ!ĈĈćĈ": 1340,
      "ćďĉ#$ćĈ!ćć": 1341,
      "ćććďĉćććć": 1342,
      "ćĈććĈćďĉ": 1343,
      "ćĈ!Ĉ!ĈćĈ!ďĉćććććććĈ!ćĈ!": 1344,
      "L!": 1345,
      "!!!%!&'(!!!!!!!!!!!!!!!!": 1346,
      "ďĉďĉ!!ďĉ!ďĉ!!ďĉďĉďĉ!": 1347,
      "ćććććććććććĈ!ĈćĈ!Ĉ!ĈćĈ!ć": 1348,
      "ďĉďĉďĉ!!!!!": 1349,
      "!!%!!!!!!!!!!!!!!!!": 1350,
      "ĂĄĆ!!!!R!!!S": 1351,
      "ďĉďĉ!!ďĉ!!ďĉďĉćććĈ!Ĉ!Ĉ!Ĉ!Ĉ!Ĉ": 1352,
      "!!!!!!!!&'(": 1353,
      "!!!!!!!!!!!!!!!!!!!!!Ĉ!Ĉ!Ĉ": 1354,
      "ďĉćĈ!Ĉ!Č": 1355,
      "Ĉ!Ĉ!ĉ": 1356,
      "ćĈ!ćĈ!Ĉ!ćĈ!Ĉ!Ĉ!ćĈ!Ĉ!ćďĉ!": 1357,
      "ćĈ!ćĈ!Ĉ!Ĉ!ćĈ!Ĉ!Ĉ!ćĈ!Ĉ!": 1358,
      ")!)!!Ĉ!Ĉ!ĈĈ": 1359,
      "Ĉ!ĈĈ!ĈĈĈćĈĈĈćĈ!ĈĈĈĈ!ĈĈ!Ĉ": 1360,
      "!!Č!!Č!ďĉ!ďĉĈ!Ĉ!ćĈ!Ĉ!ĈĈĈ": 1361,
      "ďĉďĉ%ď&'(ĉ": 1362,
      "!!!%!&'(": 1363,
      "%!Ĉ&'(!": 1364,
      "ćďĉďĉďĉďĉ": 1365,
      "ććććććććććććććććććććććććććĈ!": 1366,
      "323": 1367,
      "Čďĉďĉďĉďĉďĉďĉďĉďĉ": 1368,
      "!!!!!!!!!!!!!!!!!!!ďĉ!": 1369,
      "ďĉ!!!!ďĉďĉďĉďĉďĉďĉďĉďĉďĉďĉ": 1370,
      "ďĉďĉďĉ!ďĉ!%&'(": 1371,
      "ďĉ!!!!!!!!!!!ďĉ!": 1372,
      "ďĉďĉ)ďĉďĉ!ďĉďĉ!!ďĉ!!!!": 1373,
      "ďĉďĉ!!ďĉćććĈ!Ĉ!Ĉ!ćĈ!Ĉ!Ĉ": 1374,
      "Ĉ!ćĈ!ć": 1375,
      "Ĉ!ćĈ!ćĈ!Ĉ!Ĉ!": 1376,
      "00110101": 1377,
      "ďĉďĉ!ďĉ!!ďĉććććććĈ!ććĈ!": 1378,
      "ďĉ!ďĉďĉďĉďĉďĉ!ďĉďĉďĉ!!)!)": 1379,
      "ććććĈ!ĈĈ!ćĈ!ĈĈ!Ĉ!Ĉ!ćĈ!ćĈ": 1380,
      "ďĉćććďĉ!": 1381,
      "ďĉďĉďĉďĉďĉ!!ďĉ!!ďĉďĉďĉ)!)": 1382,
      "ćĈ!ĉ": 1383,
      "ďĉďĉďĉďĉďĉ!ďĉďĉďĉďĉ": 1384,
      "ďĉ!!!ďĉ!!!ćććĈćĈ!ćĈ!ĈĈ!Ĉ!": 1385,
      "ćĈ!ďĉ!)ććććććććććććĈ!ććĈ!": 1386,
      "ćďĉďĉ%&'(": 1387,
      "ććĉ": 1388,
      "ďĉďĉďĉ!ďĉďĉďĉ!!ďĉďĉďĉďĉ!": 1389,
      "ďĉććććććĈććĈ!": 1390,
      "ďĉďĉďĉ!!!!!!!!!!": 1391,
      "ďĉďĉ!!ďĉ!!!!!!!!!": 1392,
      "(788888888,-%&+": 1393,
      "%ćĈ&'(": 1394,
      "ďĉďĉ!%&'(": 1395,
      "ďĉďĉďĉććĈ!Ĉ!": 1396,
      "ďĉ!!)ďĉďĉ!ďĉďĉ%&'(!": 1397,
      ")!)!!Ĉ!Ĉ!ĈĈ!!!!!": 1398,
      "ďĉ!!ďĉ!ďĉ!ććĈ!Ĉ!Ĉ!ććĈ!Ĉ!": 1399,
      "ćććďĉććććććĈ!ćć": 1400,
      "!!!%!!!!!!!!!!!!": 1401,
      "ćććććďĉ!ććććĈćććĈ!Ĉ!Ĉ": 1402,
      "ďĉ!!!!!!ďĉďĉ!!ďĉ!ďĉďĉ!!": 1403,
      "ďĉďĉďĉĈ!Ĉ!Ĉ!Ĉ!Ĉ!ćĈ!ĈĈĈĈ": 1404,
      "ďĉďĉ!ďĉďĉ%&'(ćĈ!Ĉ!Ĉ!Ĉ!Ĉ!Ĉ": 1405,
      "MMM": 1406,
      "LLL!LK": 1407,
      "ďĉ%&'(ďĉďĉďĉďĉďĉďĉ!": 1408,
      "ćććĈ!Ĉ!Ĉ!ćĈĈĈĈ!ćĈ!Ĉ": 1409,
      "ďĉćććććććĈ!ćČ": 1410,
      "ćďĉćććďĉ!!": 1411,
      ")ďĉďĉďĉďĉďĉďĉďĉ!": 1412,
      "Ĉ!ććĈ!Ĉ!Ĉ!Ĉ!Ĉ!Ĉ!": 1413,
      "ćĈ!ćĈ!Ĉ!ĈćĈ!Ĉ!ďĉćĈ!": 1414,
      "ćććććĈ!ćĈĈ": 1415,
      "ďĉďĉ!ďĉ!!!!!!!!": 1416,
      "ćĈććĈćďĉćĈ!Ĉ!Ĉ!Ĉ!Ĉ!Ĉ!Ĉ!Ĉ!": 1417,
      "ććĈ!%&'(": 1418,
      "ć'(": 1419,
      "ďĉďĉďĉ%&'(ďĉďĉďĉ": 1420,
      "ćĈ!ĈĈ!Ĉ!ďĉ!ďĉ!ďĉďĉďĉ!!ďĉ!ďĉ!": 1421,
      "ććććĈ!Ĉ!Ĉ!Ĉ!Ĉ!ĈĈ!Ĉ!ć": 1422,
      "Ĉ!ć": 1423,
      "ďĉďĉďĉ!ććĈ!ć": 1424,
      "ďĉďĉ!!ďĉ!!ďĉ!ććĈ!ďĉ!ďĉďĉ!!": 1425,
      "ďĉ!!ďĉďĉďĉďĉďĉ!!ďĉ!ďĉ!ďĉďĉďĉ!": 1426,
      "ćďĉďĉ!!ďĉďĉďĉďĉ": 1427,
      "ćććććĈ!ĈĈćĈĈćĈ": 1428,
      "ćććĈ!Ĉ!Ĉ!ćĈ!Ĉ!Ĉ!Ĉ!Ĉ!!": 1429,
      "ď%ĉ&'(!": 1430,
      "ďĉďĉďĉďĉďĉ!)!)!ďĉďĉ!!!)!)!!": 1431,
      "ďĉććććććććĈ!Ĉ!Ĉ!Ĉ": 1432,
      "ďĉ!!ďĉ!ďĉďĉďĉďĉ!": 1433,
      "ďĉďĉďĉďĉďĉ!ďĉ!": 1434,
      "ć%&'(ďĉďĉ": 1435,
      "ćć%&'(": 1436,
      "ďĉ!ďĉďĉďĉďĉďĉďĉ!!": 1437,
      "ćďĉćĈ!ććĈ!ćĈ!Ĉ": 1438,
      "Ĉ!ď": 1439,
      "ćďĉďĉďĉĈ!ĈĈĈĈĈ!ćĈ!Ĉ!ĈćĈĈĈ": 1440,
      "%!!&'(": 1441,
      "ďĉĈ!Ĉ!ĈĈĈ!Ĉ!Ĉ!Ĉ!ĈĈĈĈ": 1442,
      "ďĉďĉ%&'(ďĉ": 1443,
      "ďĉ!ďĉďĉ!": 1444,
      "ćĈĈ%&'(ďĉďĉ!!!": 1445,
      "ďĉďĉďĉďĉďĉ!ďĉďĉďĉ!": 1446,
      "Ĉ!ćďĉ!ććććĈ!ćĈ!Ĉ!Ĉ!ćĈ!Ĉ!": 1447,
      "ćĈ!Ĉ!ć%&'(": 1448,
      "!!!!!!!!!!!!ďĉ!": 1449,
      "ććĈ!Ĉ!Ĉ!Ĉ!Ĉ!Ĉ!ććĈ!ćďĉ!": 1450,
      "ďĉďĉ!!!!!!!!!!!ďĉćććĈ!Ĉ!Ĉ!Ĉ": 1451,
      "ďĉďĉďĉ!ďĉ!%&'(!!!!!!!!!!!!ďĉ!": 1452,
      "ďĉćĈ!ćĈ!Ĉ!": 1453,
      "ććććććććĈ!ćććĈ!Ĉ!ćĈ!ďĉ": 1454,
      "ććććććććććććććĈ!": 1455,
      "ďĉćććććććĈ!ćČČ": 1456,
      "ćĈ!Ĉ!ć%&'(ďĉ!!ďĉ!ďĉďĉďĉ!": 1457,
      "ďĉďĉďĉďĉďĉďĉďĉďĉďĉ%&'(": 1458,
      "00101": 1459,
      "ďĉďĉďĉďĉďĉďĉ!!": 1460,
      "ćććĈ!Ĉ!Ĉ!Ĉ!Ĉ!Ĉ!ćććććĈ!ćĈĈ": 1461,
      "ďĉďĉďĉ%ď&'(ĉ": 1462,
      "ďĉ%!&'(": 1463,
      "ďĉďĉćććććććĈĈ": 1464,
      "Ĉ!ĈĈ!Ĉ!!ćĈ!Ĉ!Ĉ!Ĉ!ćĈ!ććĈ!ćďĉ!": 1465,
      "ćććĈ!Ĉ!Ĉ!Ĉ!Ĉ!Ĉ!Ĉ!Ĉ!Ĉ!Ĉ!": 1466,
      "ć%&'(ďĉĈ!ćĈ!Ĉ!Ĉ!ćĈ!Ĉ!Ĉ!ĈĈ!": 1467,
      "ććĈ!ĈććććĈćĈćĈćĈćĈćĈćĈćĈćĈćĈć": 1468,
      "ďĉďĉ!ďĉďĉďĉ": 1469,
      "ďĉ)": 1470,
      "ďĉďĉďďĉĉ": 1471,
      "7'7777": 1472,
      "ďĉ!!!!!!!!ďĉ!": 1473,
      "666666667'7777": 1474,
      "RTVa!!!S%&'(": 1475,
      "666666667'777777": 1476,
      "ē!": 1477,
      "ħ)": 1478,
      "ďĉďĉďĉďĉ%&'(ďĉďĉďĉďĉ": 1479,
      "!!!!!!!)!)!!!!!!!!!!!!!!!!": 1480,
      "ďĉďĉ!!ďĉ!ďĉ!!ďĉďĉďĉ!ďĉććĈ!": 1481,
      "ć%Ĉ&'(": 1482,
      "ććĈ!Ĉďĉ%&'(": 1483,
      "ďĉďĉďĉďĉďĉďĉ!ďĉďĉ!ďĉďĉďĉ!!": 1484,
      "ćĈććć!!ďĉ!ďĉ!!": 1485,
      "ćď%&'(ĉ": 1486,
      "Ĉ!ćĈ": 1487,
      "ďĉďĉďĉďĉďĉ!!ďĉ!": 1488,
      "ďĉďĉďĉďĉ!!!!!!!!!ďĉ!!!!!!!!": 1489,
      "ďĉďĉďĉďĉďĉďĉR%&'(TVa": 1490,
      "ďĉ!!!!!!!!!!!!!!!!!!!!!!!!": 1491,
      ")!)!!!!": 1492,
      "77'7777": 1493,
      "Ĉ!Ĉ!Ĉ!ćĈ!Ĉ!Ĉ!ććĈ!Ĉ!Ĉ!Ĉ!Ĉ!Ĉ!": 1494,
      "6666666677'7777": 1495,
      "ďĉĈ!ďĉ!ďĉďĉďĉďĉďĉ!ďĉďĉďĉ!!)!)": 1496,
      "6666666677'77777": 1497,
      "!!!!!!)!)!!!!!!!!!!!!!!!!": 1498,
      "ďĉďĉć%&'(": 1499,
      "Ĉ!Ĉ!Ĉ!Ĉ!Ĉ!Ĉ!ĈĈĈ!Ĉ!ĈĈĈĈďĉ!!": 1500,
      "!!!ďĉ!!ďĉďĉ!!!ďĉďĉďĉďĉďĉ!": 1501,
      "ććĈ!ćĈ!ćĈ!ćďĉ!!!!!!!!!!!!": 1502,
      "ćććććďĉ!ććććĈćććĈ!Ĉ!ĈćĈ!ć": 1503,
      "FD": 1504,
      "ĥ!": 1505,
      "ćďĉ!!!!ćďĉ!": 1506,
      "666666667777": 1507,
      "!!%!!!!!!!!!!!!": 1508,
      "!ď": 1509,
      "ďĉďĉćďĉ": 1510,
      ")Ĉ": 1511,
      "ĈĈ!ĈććĈ!Ĉ!ĈĈ!ĈĈ!Ĉ!ćĈ!%&'(ďĉ": 1512,
      "Ĉ!Ĉďĉ!ďĉ!ďĉ": 1513,
      "ďĉ!!ďĉ!ďĉ!!!ďĉďĉ": 1514,
      "%&'(ćďĉ!": 1515,
      "%&'(ďĉććĈ!Ĉ!Ĉ!Ĉ!": 1516,
      "!!!!!!Ĉ!ďĉďĉćĈ!ďĉ!": 1517,
      "ć%ć&'(": 1518,
      "ććććććĈ!Ĉ!": 1519,
      "!%!&'(!!!!!!!!!!!!!!!!": 1520,
      "!!!%!!!!!!!!!!!!!!!!": 1521,
      "66666666'7777": 1522,
      "66666666'7777777": 1523,
      "ďĉ!!!!!!!!!!!!!!!!!!!!!": 1524,
      "ďĉďĉďĉďĉ!ďĉ!!Ĉ!ĈćĈ!Ĉ!Ĉ!ĈćĈ!ćć": 1525,
      "%&'(Ĉ!Ĉ!Ĉ!Ĉ!": 1526,
      "Ĉ!Ĉ!ĈćĈ!Ĉ!Ĉ!Ĉ!Ĉ!Ĉ!Ĉ!Ĉ!Ĉ!Ĉ!": 1527,
      "M&'(": 1528,
      "ďĉĦ": 1529,
      "010011": 1530,
      "%&'ď(ĉ!": 1531,
      "!!!!ďĉ!!ďĉďĉďĉďĉďĉďĉďĉďĉ!": 1532,
      "ďĉďĉ!!!!ďĉ!!!ćććććĈ!Ĉ": 1533,
      "323232222222222222222": 1534,
      "ďĉ%&'(ďĉďĉďĉďĉďĉďĉ!ďĉďĉďĉďĉ!!": 1535,
      "001011": 1536,
      "Ē!!!": 1537,
      "!!!%&'(": 1538,
      "ďĉ!ďĉďĉďĉďĉ!!": 1539,
      "ďĉďĉďĉĈ!Ĉ!Ĉ!Ĉ!!Ĉ!Ĉ!Ĉ!Ĉ!!Ĉ!Ĉ!Ĉ": 1540,
      "ćďĉďĉććĈ!": 1541,
      "ćĈĈćĈĈćĈ!ćććĈ!ććďĉďĉ!!!!": 1542,
      "ďĉ!!ďĉ!!!!!!": 1543,
      "ćďĉďĉ!ďĉďĉć%&'(": 1544,
      "ćĈ!ĈĈćĈ!ćĈĈćĈ!Ĉ!ćďĉďĉ": 1545,
      "ćďĉďĉ!ďĉďĉć%&'(Ĉ!Ĉ!Ĉ!Ĉ!Ĉ!Ĉ!": 1546,
      "ććććĈ!ćĈ!Ĉ!ĈćĈ!Ĉ!": 1547,
      "ćĈ!ĈććĈ!ĈćĈćĈćĈ!ĈćĈĈ%&'(": 1548,
      "RTVa!!!S%&'(ĂĄĆ!!!!R!!!S": 1549,
      "Lĉ": 1550,
      "ďĉďĉ!!!!!!!!!!!!!!!!!!!!!": 1551,
      "ďĉďĉ!ďĉďĉ!": 1552,
      "ćĈ!ćďĉďĉ!ďĉďĉćććć": 1553,
      "RTVa!!!SĂĄĆďĉćććďĉ!": 1554,
      "ČďĉďĉććĈ!ćĈ!ćĈ!ćĈ!ćĈćĈćĈćďĉďĉ": 1555,
      "ćďĉ#$ćĈ!ćć%&'(ďĉďĉ!!!!": 1556,
      "ďĉďĉďĉďĉ%ď&'(ĉ": 1557,
      "ććĈ!ćďĉ": 1558,
      "ďĉďĉďĉ!ďĉďĉ!!ďĉďĉďĉ!": 1559,
      "ďĉďĉ!ďĉ!ďĉďĉďĉ!ďĉ!ďĉ!!": 1560,
      "ďĉ!ďĉ!ďĉ!ďĉ!ďĉ!ďĉ": 1561,
      "!!!!!!!!!&'(": 1562,
      "ćďĉ!ććĈ!ćĈ!Ĉ!": 1563,
      "ďĉďĉďĉ!!ďĉ": 1564,
      "ćĈćďĉďĉďĉ": 1565,
      "ćĈ!ĈćĈĈ": 1566,
      "!!!!!!!!!!!!!": 1567,
      "ĉĉĉ": 1568,
      "!ďĉ!!!!!!!!!!!!!!ďĉďĉďĉďĉ": 1569,
      "Mĉ": 1570,
      "ćĈ!)!)!!Ĉ!Ĉ!ĈĈ!!!!!": 1571,
      "ďĉďĉ!ďĉďĉćććććďĉ!": 1572,
      "ďĉććĈĈĈĈĈďĉďĉ": 1573,
      "ććććĈ!ćĈ!Ĉ!Ĉ!ĈĈ!Ĉ!Ĉ!ĈććĈ!ć": 1574,
      "ďĉ!ďĉďĉďĉďĉćććĈ!Ĉ!ććĈ!ćĈ!ćČ": 1575,
      "ďĉďĉ!!ďĉ!!!!!!!!!!!!!!!!!!!": 1576,
      "ďĉ%&'(ćć": 1577,
      "ćĈ!Ĉ!ćĈ!ćĈ!Ĉ!": 1578,
      "ďĉ!ďĉďĉďĉ%&'(": 1579,
      "!!!!!!!!!!!!!!!!ďĉďĉďĉ!": 1580,
      "ďĈĈ": 1581,
      "ď%&'(ĉďĉďĉ": 1582,
      "Čďĉďĉďĉďĉďĉďĉďĉďĉ!!!ďĉďĉďĉďĉ": 1583,
      "ćććĈ!Ĉ!Ĉ!ćĈĈĈĈ!ćĈ!ĈĈ!ćĈ!ć": 1584,
      "ćĈ!ćďĉďĉ!ďĉďĉćććććĈ!ćČ": 1585,
      "%&'(ćććććććććććććććć": 1586,
      "%&'ć(": 1587,
      "%&ď'(ĉ!": 1588,
      "ďĉďĉĉ": 1589,
      "ď%&'(ĉ!!": 1590,
      "ďĉ%&'(ďĉďĉďĉďĉ": 1591,
      "ććććĈ!ĈĈďĉ!!!!!!!!!!!": 1592,
      "ćććććĈ!ćĈ!Ĉ!ćĈĈ!Ĉ!Ĉ!Ĉ!ćĈćĈĈ": 1593,
      "%Ĉ&'(Ĉ": 1594,
      "MMMMMMMMMMMMMMMMMMMMMMMM": 1595,
      "ććĈ!Ĉ!Ĉ!ćĈ!ďĉďĉďĉďĉďĉďĉ": 1596,
      "ďĉďĉććććććććććććććĈ!": 1597,
      "!!!ďĉ!ďĉ!!!!!!ďĉďĉ!!!!": 1598,
      "ď)": 1599,
      "ďĉ%&'(ďĉ!!": 1600,
      "%&'(ďĉćććććĈ!ĈĈćĈĈćĈ": 1601,
      "ďĉ!ďĉďĉ!!ďĉďĉďĉďĉďĉ!ďĉ!": 1602,
      "ććĈ!ćďĉďĉďĉďĉďĉďĉďĉ!!": 1603,
      "%ćć&'(": 1604,
      "ďĉ!!!!!ďĉ!ďĉďĉďĉďĉďĉďĉďĉ": 1605,
      "ďĉďĉćććććććĈĈććććććĈ!ćĈĈ%&'(": 1606,
      "!!!!!!!!!!!!!!!!)!)!!)!)": 1607,
      "%M&'(": 1608,
      "!!!)": 1609,
      "AB": 1610,
      "ďĉď%ĉ&'(": 1611,
      "Ĉ!Ĉ!!": 1612,
      "Ē!!Ė": 1613,
      "!)": 1614,
      "!ďĉ!!": 1615,
      "ďĉďĉďĉ%&'(ďĉďĉďĉďĉďĉďĉďĉďĉ": 1616,
      "KK": 1617,
      "ďĉ%&'(ďĉ": 1618,
      "ďĉďĉďĉďĉďĉďĉ%&'(ďĉďĉ!ďĉďĉďĉ": 1619,
      ">>": 1620,
      "ć)": 1621,
      "ĉĈ": 1622,
      "ďĉćĈ!ĈĈ!ĈĈ!ĈĈ!": 1623,
      "%&'(Ĉ!": 1624,
      "ďĉďĉ!!!!!!!": 1625,
      "ć%&'(ďĉ!!!!!!!!!ďĉďĉďĉ!!": 1626,
      "Ĉ!Ĉććďĉ!ćĈ!ćĈďĉďĉďĉďĉ!": 1627,
      "!%!&'(": 1628,
      "23232222222222222222": 1629,
      "!!!!!!Ĉ!ďĉďĉćĈ!ďĉ!ććĈ!%&'(": 1630,
      "ďĉ!!!!!!!!ďĉ!ďĉ!": 1631,
      "%&'(Ĉ!Ĉ!ćććććĈ!ćĈĈ": 1632,
      "ďĉďĉďĉĈ!Ĉ!Ĉ!Ĉ!Ĉ!ćĈ!ĈĈĈĈćĈ!ćĈ!": 1633,
      "%&'(%&'(%&'(%&'(%&'(%&'(": 1634,
      "ďĉ%&'(ďĉ!": 1635,
      "ďĉďĉďĉ%&'(Ĉ!Ĉ!Ĉ!Ĉ!ćććĈ!": 1636,
      "!!!!!!!!!!!!!!!!!!%&'(": 1637,
      ")ďĉďĉďĉďĉďĉďĉďĉ!ďĉ!!": 1638,
      "ĒĒ": 1639,
      "ďĉďĉ!!ďĉďĉďĉďĉďĉ!ďĉ!": 1640,
      "ďď!": 1641,
      "ćďĉďĉćććććććĈ!Ĉ!Ĉ!ćĈ!Ĉ!": 1642,
      "!ďĉ!)!)!!!!!!!!!!ďĉ!!!!!!": 1643,
      "ďĉ!!!!!!!!!!!!!%!!!!!!!&'(": 1644,
      "Ĉ!Ĉ!Ĉ!Ĉ!ććĈććďĉďĉďĉ!!": 1645,
      "Ĉ!ĈĈĈďĉ": 1646,
      "Ĉ!ĈĈĈ!ďĉ!!!!!!!!!!!!!!!!": 1647,
      "01'(333": 1648,
      "ďĉďĉ!ďĉ!ďĉ!": 1649,
      ")!)!!!!!!!!!!!!ććĈ!ćĈ!ććĈ!": 1650,
      "Ĉ!%Ĉ&'(!": 1651,
      "ćĈ!ćĈ!ćďĉďĉďĉďĉ!ďĉ!ďĉďĉ": 1652,
      "ďĉďĉďĉ!ďĉćďĉ!!!!ćďĉ!": 1653,
      "ďMĉ": 1654,
      "Ĉ!)": 1655,
      "ĈĈĈĈĈĈĈ": 1656,
      "ďĉďĉ%&'(ďĉďĉďĉ!!ďĉ!!!!": 1657,
      "ćĈ!!": 1658,
      "ďďĉĉ!": 1659,
      "ď!ĉ!": 1660,
      "ďĉďĉ!ďĉćććĈ!Ĉ!Ĉ!Ĉ!": 1661,
      "!!!!!!!!!!!&'(": 1662,
      "ćĈ!Ĉ!Ĉ!Ĉ": 1663,
      "!!!!!!!!!!&'(": 1664,
      "%&Ĉ'(!": 1665,
      "ćĈ!ĈććĈ!ĈćĈćĈćĈ!ĈćĈĈ": 1666,
      "ďĈ!Ĉ": 1667,
      "%&'(ďĉ!ďĉ!!": 1668,
      "32222": 1669,
      "ďĉďĉććććććĈ!ćććĈ!ćććĈ!ćĈ!": 1670,
      "%&'(ďĉďĉďĉďĉďĉďĉďĉ": 1671,
      "!!%!&'(!!!!!!!!!!!!!!!!": 1672,
      "66666666777": 1673,
      "ďĉććĈĈĈĈĈ%&'(ďĉďĉ": 1674,
      "ćĈ!ĈĈĈćĈćĈćĈĈĈćĈďĉďĉ!": 1675,
      "ďĉ!!ďĉ!!!!!!)!!!!!!!!)!": 1676,
      "66666666777'7777": 1677,
      "ćďĉćććć": 1678,
      "%&'Ĉ(!": 1679,
      "ďĉ%&'(ććďĉďĉ)": 1680,
      "ć%&'(ďĉďĉďĉďĉ!": 1681,
      "ďĉďĉďĉďĉďĉď%&'(ĉ": 1682,
      "ĉ!!": 1683,
      "ĈĈĈ!Ĉ": 1684,
      "!!%!!&'(": 1685,
      "ćĈ!ćďĉďĉďĉďĉďĉ!!ďĉ!!!!": 1686,
      "ďĉďĉďĉ!ďĉ!ďĉ!ďĉ%&'(ććďĉďĉ)": 1687,
      "ďĈ!Ĉ!ĉ": 1688,
      "ďĉďĉďĉĈ!ĈĈć": 1689,
      "ďĉďĉďĉďĉďĉ%ď&'(ĉ": 1690,
      "ďĉ!ďĉďĉďĉćĈ!Ĉ!Ĉ!Ĉ!ĈĈ!Ĉ!Ĉ!Ĉ!": 1691,
      "ďĉ!!!!!!!!!!!ďĉ!ďĉććććććĈććĈ!": 1692,
      "ćĈćďĉďĉďĉ!!!": 1693,
      ")ħ": 1694,
      "ćL": 1695,
      "ę!": 1696,
      "!!!!RTVa!!!SĂĄĆ": 1697,
      "ďĉ!!!!RTVa!!!SĂĄĆ": 1698,
      "ďĉďĉ%&'(ďĉ)!)ďĉďĉďĉďĉďĉďĉ!!!": 1699,
      "đđ": 1700,
      "%&'(ďĉ!!!!!!!!!!!": 1701,
      "ďĉďĉďĉ!ďĉ!!!!!!!!!!!!!!!!": 1702,
      "ďĉďĉ%&'(ďĉďĉ": 1703,
      "!!!SĂĄĆ!!!!R!!!S": 1704,
      "%!ć": 1705,
      "ĈćĈĈćĈćĈĈĈćĈĈ%&'(ďĉ": 1706,
      "Ħ!": 1707,
      "!!%!!&'(!!!!!!!!!!!!!!!!": 1708,
      "!!&'(!!!!": 1709,
      "ďĉććĈ!Ĉ!Ĉ!Ĉ!Ĉ!Ĉ!Ĉ!ĈĈćĈďĉďĉ": 1710,
      "ćĈ!%Ĉ&'(!": 1711,
      "ďĉďĉďĉďĉď%&'(ĉ": 1712,
      "ďĉďĉďĉćďĉ!": 1713,
      "%ć&'ć(": 1714,
      "Ħ%&'(%&'(%&'(%&'(": 1715,
      "ćĈ!%&'(ďĉ!": 1716,
      "ććĈ!Ĉ!ćĈ!Ĉ!": 1717,
      "!!!!!!!!!!!!ďĉ!!": 1718,
      ")!)ďĉďĉďĉ!ďĉďĉďĉ!!ďĉďĉďĉďĉ!": 1719,
      "ďĉ%&'(ďĉďĉ!!!!ďĉ!!!ćććććĈ!Ĉ": 1720,
      "!!!!!!!!!!!!!&'(": 1721,
      "ďĉďĉďĉďĉďĉďĉďĉďĉďĉ": 1722,
      "ħ!": 1723,
      "!%!!!!!!!!": 1724,
      "ďĉďĉ%&'(ďĉ!": 1725,
      "ďĉććĈ!Ĉ!Ĉ!Ĉ!": 1726,
      "ćććĈĈććććććĈ!ćĈĈ": 1727,
      "ććććĈ!ĈĈ%&'(ďĉ!!!!!!!!!!!": 1728,
      "Ĉ!ćĈĈ": 1729,
      "!!!!!!!!!!!!!!!!!&'(": 1730,
      "ćĈĈćĈĈćĈ!ćććĈ!ćć%&'(ďĉďĉ!!!!": 1731,
      "L&'(": 1732,
      "ďĉďĉďĉďĉďĉďĉ!ďĉďĉ!ďĉďĉ!!!": 1733,
      "ďLĉ": 1734,
      "ēĖ": 1735,
      "ďĉ!!!!RTVa!!!SĂĄĆ!!!!R!!!S": 1736,
      "Ĉ!Ĉ!Ĉ!Ĉ!ĈćĈ!ĈĈ!ĈĈĈ": 1737,
      "ėĥĤ": 1738,
      "ďĉďĉďĉĈ!Ĉ!Ĉ!Ĉ!ĈćĈĈĈ!ĈĈĈ": 1739,
      "ďĉ%&'(ďĉďĉ!!ďĉ": 1740,
      "ďĉćććććĈ!ćĈ!Ĉ!ćĈĈ!Ĉ!Ĉ!Ĉ!ćĈćĈĈ": 1741,
      "ćććććććĈ!Ĉ!ććććććĈ!ćĈĈ": 1742,
      "ćććĈ!Ĉ!Ĉ!Ĉ!Ĉ": 1743,
      "!%!!!!!!!!!!!!": 1744,
      "ććĈ!ćďĉďĉďĉďĉďĉďĉďĉďĉďĉ!!": 1745,
      "ććććĈ!Ĉ!Ĉ!Ĉ!Ĉ!ĈĈ!Ĉ!ćďĉ!!ďĉďĉ": 1746,
      "%ď": 1747,
      "&Ĉ'(!": 1748,
      "BB": 1749,
      "!!!!ďĉ!!!ćććććĈ!Ĉ": 1750,
      ")!)!!!!!!!!!!!!!!!": 1751,
      "ďďĉĉďďĉĉ": 1752,
      "ďĉĉĉ": 1753,
      ")!)!!!!!!!!!!!!!!!!ďĉďĉďĉ!": 1754,
      "'(333": 1755,
      "%&'(!ďĉďĉďĉ!ďĉ!ďĉ!": 1756,
      "ďććĉ": 1757,
      "ĥďĉ": 1758,
      "ďĉ%&'(ďĉďĉ!": 1759,
      "Ħĉ": 1760,
      "ďĉ!ďĉ!ďĉďĉ!!ďĉďĉďĉďĉďĉ!ďĉ!": 1761,
      "ďďď": 1762,
      "ďĉ%&'(ďĉďĉĈ!Ĉ!Ĉ!Ĉ!ćććĈ!": 1763,
      "!!%!&'(": 1764,
      "ďĉ!!!!!!!!!!!!!!!!!": 1765,
      "%&'(ďĉ!ďĉďĉďĉ": 1766,
      "!!!ććććĈ!ĈĈďĉ!!!!!!!!!!!": 1767,
      "ďďĉ!": 1768,
      "ďćĈ!ĉ": 1769,
      "!!!!RTVa!!!SĂĄĆ!!!!R!!!S": 1770,
      "!!!!!!!!!!!!!!!!%&'(ďĉďĉďĉ!": 1771,
      "ď%&'(ĉďĉ!": 1772,
      "ďĉććďĉďĉ)": 1773,
      "ććććććĈ!Ĉ!Ĉ!ćĈ!Ĉ!Ĉ!Ĉ!Ĉ!!": 1774,
      "ďćĈ": 1775,
      "ďĉďĉďĉďĉďĉďĉďĉďĉďĉďĉ%&'(": 1776,
      "!!!%!!!!!!!!!!!!!!!!!!!!": 1777,
      "ďĉ!!!!!!!!!!!!%": 1778,
      "!!!!!!!!!!!!!!!!!!!%&'(": 1779,
      "ć'": 1780,
      "!!%&'(!!!!!!!!!!!!!!!!": 1781,
      "ćĈ!Ĉ!ćĈ!Ĉ": 1782,
      "ďĉďĉ!ďĉďĉďĉďĉ!": 1783,
      "ďĉďĉďĉďĉďĉďĉďĉďĉďĉďĉďĉďĉ": 1784,
      "ć%&'(ćććć": 1785,
      "ďĉ!ďĉďĉďĉďĉďĉďĉďĉďĉďĉďĉ!!": 1786,
      "!!!!!!!!!!!!!!!!!!!ďĉ!ďĉďĉ!": 1787,
      "!!!!!!!!!!!!!!!!&'(": 1788,
      "%&'(ďĉ!ďĉ!": 1789,
      "LL!LK!LK": 1790,
      "%&'(ďĉćĈ!ćĈ!Ĉ!": 1791,
      "ćďĉ!ďĉďĉďĉďĉďĉďĉďĉďĉ": 1792,
      "ďĉćććććĈ!ĈĈćĈĈćĈ": 1793,
      "ć%&'(ďĉďĉďĉďĉ": 1794,
      "ćĈ!ćĈ!Ĉ!Ĉ!ďĉďĉ!": 1795,
      "ďďďďďďďď": 1796,
      "!&'(ďĉ))ħ": 1797,
      "ćĈĈ!Ĉ!ĈĈĈćĈćĈ!ććĈ!!ďĉ!!ďĉďĉďĉ": 1798,
      "%&'(ćďĉ!ďĉďĉ!!!": 1799,
      "M!": 1800,
      "ďďĉďĉĉ": 1801,
      "332222": 1802,
      "AAAA": 1803,
      "%ć&'Ĉ(!": 1804,
      "LLL": 1805,
      "%&'(ďĉćććććććć": 1806,
      "%&'(ďĉĈ!ĈĈĈĈĈĈĈ": 1807,
      "LLLL!LK": 1808,
      "ďĉďĉďĉ!!ďĉďĉďĉ": 1809,
      "ćĈ!Ĉ!Ĉ!ćĈ!Ĉ!Ĉ!Ĉ!Ĉ!!": 1810,
      "ćććććĈ!Ĉ!Ĉ!ćĈĈćĈ%&'(ďĉďĉ": 1811,
      "!ĥĤ": 1812,
      "ďĖ": 1813,
      "ħĉ": 1814,
      "Ĉ!ćĉ": 1815,
      "ďĉďĉďĉďĉďĉďĉďĉďĉ!!ďĉďĉďĉďĉ": 1816,
      "%&'(ďĉ!ďĉďĉďĉďĉ!!": 1817,
      "ććććĈ!ćĈ!Ĉ!Ĉ!ĈĈ!Ĉ!Ĉ!ĈććĈ!ćďĉ": 1818,
      "Ĕĥ": 1819,
      "Ĥ))))": 1820,
      "ććććć": 1821,
      "%Ĉ&'(ĈĈ": 1822,
      "ďĉďĉ%&'(ďĉďĉďĉďĉ": 1823,
      "ćĈ!ćďĉďĉďĉďĉ": 1824,
      "ć%&'(ďĉ!!!!!!!!!ďĉďĉďĉďĉďĉ)!)": 1825,
      "ćČČ": 1826,
      "ĈćĈ": 1827,
      "!!%&'(": 1828,
      "ćĈĈćĈĈćĈ": 1829,
      "ćććĉ": 1830,
      "ćććććććććććĈ!": 1831,
      "ďĉďĉ!ďĉďĉĈ!": 1832,
      "ďĉ!ďĉďĉďĉĈ!Ĉ!Ĉ!Ĉ!ććĈćć": 1833,
      "32323232222222222222222": 1834,
      "Ĉ!ĈćĈ!ćĈĈĈĈĈćĈĈĈĈĈćĈ!ĈĈĈćĈďĉ!": 1835,
      "ďĉ!ďĉ!!!!": 1836,
      "%Ĉ&'(!Ĉ": 1837,
      "Ĉ!ĈĈĈ!Ĉ!ĈĈ!Ĉ!Ĉ!": 1838,
      "ććĈ!ćďĉďĉďĉďĉďĉďĉďĉ!!ďĉďĉ": 1839,
      "ďĉďĉďĉďĉďĉďĉćďĉ!ďĉ": 1840,
      "!!!!!!!!!!!!!!!!ďĉďĉďĉ!ďĉ!!": 1841,
      "ćććććććĈ": 1842,
      "ĈĈĈĉ": 1843,
      "ďĉ%&'(ďĉďĉďĉ": 1844,
      "ďĉ!ďĉ!!Ĉ": 1845,
      "Ĉ!Ĉ!Ĉ!Ĉ!Ĉ!Ĉ!Ĉ!Ĉ!ĈĈĈ!Ĉ": 1846,
      "%ĈĈ": 1847,
      "ććĈĈĈĈ": 1848,
      "ď%&'(ĉďĉ": 1849,
      "ďĉćććććććĈ!ćČČďĉďĉďĉ!!!!!": 1850,
      "ĦĦ": 1851,
      "!!)": 1852,
      "ČČČČ": 1853,
      "ďĉ)!!!)": 1854,
      "ĈĈ!Ĉ!": 1855,
      "ďĉďĉ!ďĉďĉ!ďĉ!": 1856,
      "ďĉ!ďĉ!ďĉ!": 1857,
      "%&'(ďĉ!ďĉďĉďĉďĉďĉćĈ!ĈĈ!ĈĈ!ĈĈ!": 1858,
      "ďĉ!!!!!!ďĉďĉ!!!!ďĉďĉďĉććĈ!Ĉ!": 1859,
      "ćććććććććććĈ!ććĈ!Ĉ!ćĈ!Ĉ!": 1860,
      "ćć!": 1861,
      "ć%&'(ďĉ!ććĈ!ćĈ!Ĉ!": 1862,
      "%ć&Ĉ'(!": 1863,
      "ćććďĉććććććĈ!ććČ": 1864,
      "ćK": 1865,
      "ćďĉ!!": 1866,
      "ďĉćĈ!Č": 1867,
      "ćĈ!ćĈ!Ĉ!ĈćĈ!Ĉ!ććĈ!Ĉ!Ĉ!Ĉ!Ĉ!ĈĈ!": 1868,
      "ďĉ!!!ďĉ!Ĉ!Ĉ!Ĉ!Ĉ!ĈćĈ!ĈĈ!ĈĈĈ": 1869,
      "ćČČďĉďĉďĉ!!!!!": 1870,
      "Ĕ!": 1871,
      "ćĈ!ĈĈ!ćĈ!Ĉ": 1872,
      "ďĉďĉďĉďĉďĉďĉďĉ!ďĉ!ďĉ": 1873,
      "ćĈ!Ĉ!Ĉ!ćĈĈćĈďĉďĉ": 1874,
      "ćĈććć!!%&'(ďĉ!ďĉ!!": 1875,
      "Ĉ!ćĈ!ćĈ!Ĉ!Ĉ!ďĉďĉ!!!!!!!": 1876,
      "ćććććććććććĈ!ććĈ!Ĉ!ćĈ!Ĉ!ćĈ!ć": 1877,
      "ćććďĉ!": 1878,
      "%&ć'(": 1879,
      "ćďĉ)ħ": 1880,
      "%&'(ďĉ!!!ďĉďĉďĉ!!ďĉ": 1881,
      "%M&'(MMMMMMMMMMMMMMMM": 1882,
      "32222222222222222": 1883,
      "ĉďĉ": 1884,
      "ďĉďĉďĉ!ććĈ!ćďĉďĉďĉďĉďĉďĉďĉďĉ": 1885,
      "ď%&'(ĉďĉďĉ!": 1886,
      "ďĉďĉďĉ%&'(ďĉďĉ!!": 1887,
      "ďĉĈ!Ĉ!Ĉ!Ĉ!Ĉ!ĈĈĈ!ĈĈĈ": 1888,
      "ćĈ!ććĈ!ćĈ!Ĉďĉćććććććć": 1889,
      "L!M": 1890,
      "BM": 1891,
      "ćĈ!ć%&'(": 1892,
      "ďĉ!ďĉďĉ!ďĉ!ďĉďĉďĉ!": 1893,
      "Ĉ!Ĉ!Ĉďĉ!!!!!!!!!!!!!!!!": 1894,
      "!%!!&'(": 1895,
      "%&'(ĉĉĉĉĉĉĉĉĉ": 1896,
      "B!": 1897,
      "%&'(ćĈ!Ĉ!": 1898,
      "%&'(ďĉ!!ďĉďĉďĉ": 1899,
      "L!LKL!LK": 1900,
      "%&'(ďĉďĉ!ďĉ!!!!!!!!": 1901,
      "ďĉ%&ď'(ĉ": 1902,
      "ďĉďĉďĉďĉďĉďĉďĉďĉďĉ!ďĉďĉďĉďĉ": 1903,
      "ćĈĈĈĈĈĈĈ": 1904,
      "ć%&'(ććććććĈ!": 1905,
      "ďĉďĉ%&'(ďĉďĉďĉďĉďĉďĉ": 1906,
      "ćďĉďĉ!!!!!!!!": 1907,
      "%Ĉ!": 1908,
      "ďĉďĉ!!ďĉ!!ďĉ!!!!!!)!!!!!!!!)!": 1909,
      "ďĉďĉďĉďĉďĉďĉďĉďĉ)": 1910,
      "ďĉ%&'(Ĉ!Ĉ!Ĉ!Ĉ!": 1911,
      "ďĉ%&'(!!!ďĉ!": 1912,
      "010101'(3": 1913,
      "ĥďĉĈ!ĈĈ!": 1914,
      "ďĉ%&'ď(ĉ": 1915,
      "ďĉďĉďĉďďĉĉ": 1916,
      "MMMMM": 1917,
      "ďĉ!ďĉ%ď&'(ĉ": 1918,
      "00110011": 1919,
      "ďĉ!%&'(ďĉďĉ!ďĉ!ďĉďĉďĉ!ďĉ!ďĉ!!": 1920,
      "%&'(ďĉďĉ!ďĉ!!ďĉ!ďĉďĉďĉďĉ!": 1921,
      "ć%&'(ććććććĈ!ćČČďĉďĉďĉ!!!!!": 1922,
      "%Ĉ": 1923,
      "%&'(ćĈ!ćĈ!Ĉ!Ĉ!ďĉďĉ!": 1924,
      "ďĉ%&'(ďĉ!!!!": 1925,
      "ćĈććĈ!ćĈ!ćĈ!ĈćĈĈćďĉ": 1926,
      "ďĤ": 1927,
      "ďďďĉĉĉ": 1928,
      "ďĉďĉďĉ%&'(ďĉďĉďĉďĉ": 1929,
      "ďĉďĉďĉ%&'(ďĉďĉďĉďĉďĉ": 1930,
      "!!!!!!!!!!!!!!!!!!!!!!!!!!ďĉ": 1931,
      "ďĉďĉď%ĉ&'(": 1932,
      "ďĉďĉ!ďĉďĉ!!!": 1933,
      "%&'(ďĉ!!!ďĉďĉďĉďĉďĉďĉďĉďĉ!": 1934,
      "ćććććĈ!Ĉ!Ĉ!ćĈĈćĈďĉďĉĈ!Ĉďĉ!ďĉ!": 1935,
      "%&'(ďĉćĈ!Ĉ!Ĉ!Ĉ!Ĉ!Ĉ!ĈĈďĉ!!!ďĉ!": 1936,
      "001101010011": 1937,
      "ććĈ!ďĉďĉďĉďĉ!ďĉďĉ!!": 1938,
      "ćĈ!ĈĈćĈ!ćĈĈćĈ!Ĉ!ć%&'(ďĉďĉ": 1939,
      "Ė!": 1940,
      "!!!!!!!!!!!!!!!!!!!!%&'(": 1941,
      "!!!%!!&'(!!!!!!!!!!!!!!!!": 1942,
      "ďĉ!!ďĉ!ďĉďĉ!ďĉ!ďĉďĉďĉ!": 1943,
      "ď!ď!": 1944,
      "&'Ĉ(!": 1945,
      "ććĈ!ćĈ!ćĈ!ćďĉ!!!!!!!!!!!!!!!": 1946,
      "33222323": 1947,
      "ćĈ!ćććć": 1948,
      ")ďĉďĉ!ďĉ!ďĉ!": 1949,
      "ďĉćććĈ!Ĉ!Ĉ!Ĉďĉ!ďĉďĉďĉďĉ": 1950,
      "ćďĉďĉ%&'(ćććććććĈ!Ĉ!Ĉ!ćĈ!Ĉ!": 1951,
      "!!!!!!!!!!ďĉďĉďĉďĉ": 1952,
      "!!!!!!!!!!!!&'(": 1953,
      "ďĉďĉďĉ%&'(!": 1954,
      "ďĉďĉďĉďĉďĉďĉRTVa": 1955,
      "ććĈ!Ĉďĉ": 1956,
      "ďĉď%&'(ĉďĉ": 1957,
      "ďĈĈĉ": 1958,
      "ćĈ!Ĉ!Ĉ!Ĉ!Ĉ": 1959,
      "ďĉďĉ!!ďĉďĉďĉďĉ!ďĉďĉ": 1960,
      "!!%!!!!!!!!!!!!!!!!!!!!": 1961,
      "ćĈ!ćĈ!Ĉ!Ĉ!%&'(ďĉďĉ!": 1962,
      "!!!!!!!!!!!!!!!!!%!&'(": 1963,
      "ć%&'(ďĉďĉďĉďĉ!ďĉ!ďĉďĉ": 1964,
      "ćĈ!ćĈ!ćĈĈ": 1965,
      "Ĉ!ĈĈĈďĉ!!!!!!!!!!!!!!!!": 1966,
      "ď%&'(ĉďĉďĉďĉ": 1967,
      "ďďďĉĉ": 1968,
      "ćĈĈćĈĈćĈĈćĈ": 1969,
      "!!!!!!!!!!!!!!!!!!!!!!!%!&'(": 1970,
      "ďĈĈĈĉ": 1971,
      "ďĉďĉďĉ)!)ďĉďĉďĉďĉďĉďĉ!!!": 1972,
      "ďĉ!ďĉďĉďĉďĉďĉ": 1973,
      "!!!!!!!!!!!!!!!)!)": 1974,
      "!!!!!!!!!!!ďĉ!ďĉďĉ": 1975,
      "ćĈ!Ĉ!ćĈ!ćĈ!Ĉ!ćĈ!Ĉ!ćĈ!Ĉ": 1976,
      "%L&'(": 1977,
      "ďďĉ": 1978,
      "ćĈ!ď": 1979,
      "ćĈĈ!Ĉ!": 1980,
      "ďĉďĉďĉ)!)": 1981,
      "01000111": 1982,
      "!%ď&'(ĉ": 1983,
      "%ď&'(ĉ!!": 1984,
      "%ď&'(ĉďĉďĉ!": 1985,
      "Ĉ!ĈĈ!ĈĈ!ĈĈ!": 1986,
      "ć%&'(ďĉ!ďĉďĉ!!!": 1987,
      "ćĈ!ĈĈĈćĈćĈćĈĈĈćĈďĉďĉ!ďĉ!!ďĉ!": 1988,
      "ĥďĉĈ!ĈĈ!ďĉćĈ!Č": 1989,
      "ďĦĉ": 1990,
      "ď%&'(ĉďĉ!!": 1991,
      "%ď&'(ĉďĉ": 1992,
      "ć%&'(ďĉďĉďĉ": 1993,
      "ď!ď": 1994,
      "ć!Ĉ": 1995,
      "32232323": 1996,
      "3232222222222222222": 1997,
      "ćĈĈďĉďĉ!!!": 1998,
      "!!!%ď&'(ĉ": 1999,
      "ď%&'(ĉ!!!!!!!!!!!!!!!!": 2000,
      "ďĉďĉ%&'(ďĉ!!": 2001,
      "ćďĉć%&'(ćććć": 2002,
      "!!!&'(!!!!": 2003,
      "!!!!!!!!!!!!!!!!%!!!!!!!!!!!!": 2004,
      "ďĉ)!!!)!!!!!": 2005,
      "ćĈ!ĈĈ!ćĈ!ĈćććććććĈ": 2006,
      "ćĈĈćĈĈćĈĈćĈćĈĈćĈĈćĈ": 2007,
      "ďĉ%": 2008,
      "ćććĈ!Ĉ!Ĉ!Ĉ!Ĉ!": 2009,
      "ćĈĈćĈĈćĈ!ćććĈ!ććďĉďĉ!!!!ďĉďĉ": 2010,
      "Ĉ!ĈĈĈ!Ĉ!ĈĈ!Ĉ!Ĉ!ćďĉďĉ!": 2011,
      ")ďĉ": 2012,
      "!!!%!!!!!!!!!!!!!!!!!!!!!!!!": 2013,
      "ćĈ!ćĈďĉďĉďĉďĉ!": 2014,
      "ďĉ!ďĉ%!&'(": 2015,
      "ĈĈĈĈĈďĉ!ďĉ!": 2016,
      "ďĉ!!ďĉďĉďĉďĉďĉďĉ!ďĉďĉ!!": 2017,
      "ďĈ!Ĉĉ": 2018,
      "Ĉ!%&'(": 2019,
      "ďĉ!ďĉďĉ!ďĉ!": 2020,
      "ćĈć": 2021,
      "MMMMMMM": 2022,
      "ć%&'(!!!!!!!!!!!!!!!!": 2023,
      "(788888888,-%&+01000111": 2024,
      "Ħē": 2025,
      "ćććććććććććććććććććććććććć": 2026,
      "ď!ďď": 2027,
      "3222323232222222222222222": 2028,
      "Ėē": 2029,
      "ććććććĈ!ćć": 2030,
      "ďĉ!!!!!!!!!!!!!ďĉ!": 2031,
      "ćććĈ!Ĉ!Ĉ!ćĈ!Ĉ!Ĉćďĉďĉďĉďĉ": 2032,
      "%ć&ć'(": 2033,
      "L!LK!LK!LK": 2034,
      "ħ)ę": 2035,
      "ďĉďĉďĉďĉ%&'(ďĉ": 2036,
      "!!!%&'(!!!!!!!!!!!!!!!!": 2037,
      "ďĉďĉďĉ!!!!!!!!!!!!!!!!": 2038,
      "ďĉ!!!!!!!!%&'(ďĉ!": 2039,
      "ďĉďĉ!!ďĉďĉďĉďĉ!": 2040,
      "!%!!&'(!!!!!!!!!!!!!!!!": 2041,
      "ď!Ĉ!ĉ": 2042,
      "!!!ďĉ!)!)!!!!!!!!!!ďĉ!!!!!!": 2043,
      "ĈćĈĈćĈćĈĈĈćĈĈďĉ%&'(": 2044,
      "(788888888,-%&+0101010101": 2045,
      "ďK": 2046,
      "!!ďĉ!!!!!!!!!!!!!!!!": 2047,
      "Ĉ!Ĉ!Ĉ!Ĉ!Ĉ!Ĉ": 2048,
      "%&'(ĉĉĉĉĉ": 2049,
      "%ď&'(ĉďĉďĉ": 2050,
      "ďĉ!!!!!%&'(": 2051,
      "!!!!!ďĉďĉďĉ!ďĉďĉćććććĈ!Ĉ!ćĈĈ": 2052,
      "!!!!!!!!!!!!!!!!!!%!!!!!!!!": 2053,
      "ćĈ!ćĈ!Ĉ!Ĉ!ćĈĈ!%&'(": 2054,
      "ĥ!Ĥ": 2055,
      "C!": 2056,
      "ćĈ!%&'(": 2057,
      "ďĉ!!ďĉďĉďĉ!ďĉ!!!!!!!!!!!!!!!!": 2058,
      "ďĉ!!!!ďĉďĉďĉ!ďĉďĉ!": 2059,
      "LLLLLLLLLLLL": 2060,
      "&'ć(": 2061,
      "ďĈĉ": 2062,
      "ďĉ!!!!!!!!ďĉ!ďĉ!%&'(": 2063,
      "ďĖĉ": 2064,
      "%ĈĈ&'(": 2065,
      "L!L": 2066,
      "ďħĉ": 2067,
      "ďĉďĉ%!&'(": 2068,
      "!!!!!!!!!!!!!!&'(": 2069,
      "!!!!!!!!!!!!ďĉ!!ďĉ!!!!!!!!!!!": 2070,
      "ď%&'(ĉďĉďĉďĉďĉ": 2071,
      "ďĉ!ďĉďĉďĉďĉ%&'(ďĉďĉďĉ": 2072,
      "ďĉ!!!!!!!!!!!!!!": 2073,
      "ććĈććďĉďĉďĉ!!": 2074,
      "ďĉććććććĈććĈ!ďĉďĉďĉ!ććĈ!ć": 2075,
      "ď)ĉ": 2076,
      "ďĉ!ďĉďĉďĉďĉďĉďĉďĉďĉďĉďĉ!!ććć": 2077,
      "%&'(ďĉďĉďĉ!!": 2078,
      "%&'(ďĉĈ!Ĉ!ĈĈĈ!Ĉ!Ĉ!Ĉ!ĈĈĈĈ": 2079,
      "Ĉ!Ĉ!ĈĈ!Ĉ!Ĉ!Ĉ!ďĉďĉďĉďĉďĉ!": 2080,
      "ďĉĈ!%&'(Ĉ!Ĉ!Ĉ!Ĉ!": 2081,
      "ďĉććďĉďĉ)ćďĉ%&'(": 2082,
      "ďĉĈ!%&'(Ĉ!Ĉ!Ĉ!Ĉ!ĈĈĈ!ĈĈĈ": 2083,
      "ďĉďĉďĉďĉďĉ!ďĉďĉ": 2084,
      "ďĉ!!!!!!!!%": 2085,
      "ďĉďĉ!!ďĉ%&'(": 2086,
      "%&'(ďĉćĈ!Ĉ!ĈćĈ!ďĉćććććććĈ!ćĈ!": 2087,
      "Ĉ!ćĈ!ć%&'(": 2088,
      "ĖĖĖĖ": 2089,
      "ćďĉ!!!!!!!!!ďĉďĉďĉďĉďĉ)!)": 2090,
      "ćććĈ!Ĉ!Ĉ!Ĉ!Ĉďĉ!ďĉ!ďĉ!": 2091,
      "%!!!!!!&'(": 2092,
      "Ĉ!ćĈ!ćĈ!Ĉ!": 2093,
      "ďĉďĉďĉďĉćĈ!ĈĈ!Ĉ!ďĉ!ďĉ!": 2094,
      "!!%!!!!!!!!!!!!!!!!!!!!!!!!": 2095,
      "%Ĉ&'(ĈĈĈ": 2096,
      "ĈĈ!ĉ": 2097,
      "ĈćĈĈćĈćĈĈĈćĈĈďĉĈ!ĈĈĈĈ": 2098,
      "ćĈ!Ĉ!ćĈ!ćĈ!ćĈ!Ĉ!ććććĈ!ććĈ!ć!": 2099,
      "ďďĉ!ĉ": 2100,
      "A!": 2101,
      "ďĉćĈ!ćĈ!Ĉ!Ĉ!ćĈ!Ĉ!Ĉ!ćĈ!Ĉ!": 2102,
      "ĈĈĈ!": 2103,
      "!%!!!!!!!!!!!!!!!!!!!!": 2104,
      "!%!!!&'(!!!!!!!!!!!!!!!!": 2105,
      "ďĉ!!!ďĉ%&'(ďĉďĉ!!ďĉ": 2106,
      "%Ĉ&'(!Ĉ!": 2107,
      "%Ĉ&'(!Ĉ!Ĉ!": 2108,
      "Ĉ!ĈĈćĈďĉďĉ": 2109,
      "%&'(!ĥĤ": 2110,
      "%!ć&'(": 2111,
      "&ď'(": 2112,
      "0000111": 2113,
      "Bĉ": 2114,
      "ďĉħ": 2115,
      "ćĈ!Ĉ!Ĉ!ĈĈ!Ĉ": 2116,
      "ďĉ!!ďĉďĉďĉďĉďĉďĉďĉ)!": 2117,
      ")!)ďĉďĉďĉćććĈ!Ĉ!Ĉ!ĈĈ!Ĉ!ćĈ!Ĉ!": 2118,
      "ďĉ!ďĉ!ďĉďĉďĉďĉ!ďĉďĉ": 2119,
      "ďĉććĈ!ďĉ!ďĉ!!ćĈ!": 2120,
      "ďĉďĉďĉďĉ%&'(ďĉďĉ!": 2121,
      "ćĈ!Čďĉďĉ!%&'(ďĉďĉďĉďĉďĉďĉďĉďĉ": 2122,
      "ďĉďĉ%&ď'(ĉ": 2123,
      "%&'(ďĉďĉďĉ%&'(": 2124,
      "ćĈ!Ĉ!Č": 2125,
      "!!!%!!&'(": 2126,
      "Ĉ!Ĉ!Ĉ!!ĈĈ!ĈććĈ!Ĉ!ĈĈ!ĈĈ!Ĉ!ćĈ!": 2127,
      "ćĈ!Ĉ!ćĈĈ!ćĈ!ćĈ!ĈĈ!Ĉ!Ĉ!": 2128,
      "ďĉćĈ!Ĉ!Čďĉďĉďĉ!": 2129,
      "ć%&'(ďĉĈ!ćĈ!Ĉ!Ĉ!ćĈ!Ĉ!Ĉ!ĈĈ!ćĈ!": 2130,
      "ćďĉďĉ!!!!": 2131,
      "Ĉ!Ĉ!ĈĈ!Ĉ!ćĈ!Ĉ!": 2132,
      "ďĉďĉďĉ!ďĉďĉďĉďĉ": 2133,
      "ďĉďĉďĉ!ďĉďĉ!!": 2134,
      "32233": 2135,
      "%&'(ďĉďĉďĉďĉďĉďĉďĉďĉďĉďĉďĉďĉ": 2136,
      "Ĉ!ďĉďĉćĈ!ďĉ!%&'(": 2137,
      "Ĕ!ďĉďĉďĉďĉ": 2138,
      "ćČ": 2139,
      "!!Ĉ": 2140,
      "ďĉĈ!Ĉ!": 2141,
      "&'(!!!!": 2142,
      "%&'(ďĉďĉďĉďĉďĉďĉďĉ!": 2143,
      "ďĉďĉ!)": 2144,
      "ćććĈ!Ĉ!Ĉ!ćĈ!Ĉ!": 2145,
      "ďĉďĉďĉďĉďĉďĉďĉďĉ%&'(": 2146,
      ")!)!!!!!!!!!!!!!!!!!": 2147,
      "%Ĉ&'(!Ĉ!Ĉ!Ĉ!Ĉ!": 2148,
      "ćĈ!Ĉ!Ĉ!Ĉ!ďĉ!!!!!!!!!!!!!!!!": 2149,
      "ď!!ĉ": 2150,
      "R%&'(TVa!!!SĂĄĆ!!!!R!!!S": 2151,
      "ćĈĈ!Ĉ!ĈĈĈćĈćĈ!ććĈ!!ďĉ!!": 2152,
      "ć%&'(ďĉďĉććĈ!ďĉďĉďĉďĉ!ďĉďĉ!!": 2153,
      "ććĈ!ďĉ!ďĉ!!ćĈ!": 2154,
      "ďĉďĉďĉďĉďĉďĉďĉďĉ!!": 2155,
      "ďĉďĉďĉďĉďĉďĉďĉďĉďĉďĉ!!": 2156,
      "ďĉ%&'(ďĉďĉďĉďĉďĉďĉďĉ": 2157,
      "ďĉďĉďĉďĉďĉďĉď%&'(ĉ": 2158,
      "Ĉ!ćĈ!Ĉ!Ĉ!ćĈ!Ĉ!Ĉ!ĈĈ!ćĈ!ďĉ!": 2159,
      "ď!!!": 2160,
      "ďćććĉ": 2161,
      "ĤĤ": 2162,
      "ďĉē": 2163,
      "ďĉćććĈ!Ĉ!Ĉ!ćĈ!Ĉ!Ĉćďĉďĉďĉďĉ": 2164,
      "ĈĈĈĈĈćĈĈ": 2165,
      "ćĈćć": 2166,
      "ďĉďĉ!ďĉďĉďĉ!!": 2167,
      "ďĉ!!!!!!!!!%": 2168,
      "ććć%ć&'(": 2169,
      "!!!!ďĉ!!ďĉďĉďĉďĉďĉďĉďĉďĉ!ćĈ!Č": 2170,
      "ďĉďĉ!ďĉďĉćććććďĉ!ďĉďĉďĉ!ďĉ": 2171,
      ">>>>": 2172,
      "Lďĉ!": 2173,
      "Ğğ": 2174,
      "ďĉ!ďĉďĉďĉ!": 2175,
      "ďĉ!ďĉ!ďĉďĉďĉ!": 2176,
      "!%!!!!!!!!!!!!!!!!!!!!!!!!": 2177,
      "ďĉ!!!%&'(": 2178,
      "ďĉ!!!ďĉďĉďĉďĉďĉďĉďĉďĉ!": 2179,
      "ďĉďĉďĉďĉďĉďĉ%ď&'(ĉ": 2180,
      "ďĉďĉ!ďĉ!ďĉďĉďĉďĉ!": 2181,
      "!!!!!!!!!!!!!!!!!!!ďĉ!ďĉďĉ": 2182,
      "ćďĉćććďĉ!!ďĉďĉďĉ!": 2183,
      "ććććĈ!Ĉ!Ĉ!Ĉ!Ĉ!ĈĈ!Ĉ!ćďĉ!!": 2184,
      "ćďĉćĈ!ććĈ!ćĈ!Ĉďĉćććććććć": 2185,
      "\"%&-+/,'(%&-+/,'(": 2186,
      "%ććĈ": 2187,
      "!!!!!!!ďĉ!!!!!!!!!!!!!!!!": 2188,
      "ćĈ!ďĉďĉďĉďĉďĉďĉďĉďĉďĉďĉďĉďĉ": 2189,
      "ďĉďĉďĉď%ĉ&'(": 2190,
      "ćďĉ!ďĉ!!!!!!!!!!!!!!!!": 2191,
      "Ĉ!Ĉ!ĈĈĈ!ĈćĈ!": 2192,
      "ďĉďĉďĉďĉďĉ%&'(ďĉďĉďĉ!": 2193,
      "Ĉ!ĈĈĈ!ĈĈĈćďĉďĉ!": 2194,
      "ėĥĤē": 2195,
      "Ĉ!ďĉďĉćĈ!ďĉ!%&'(ććĈ!Ĉ!Ĉ!Ĉ": 2196,
      "ď!!!!!!!!!!!!!!!!": 2197,
      "Ē!!!!": 2198,
      "ćććĈ!Ĉ": 2199,
      "ćććĈ!ćĈ": 2200,
      "ďĉďĉ!ďĉ!!ďĉďĉďĉďĉďĉďĉ!": 2201,
      "ďĉďĉďĉćććĈ!Ĉ!Ĉ!Ĉ!Ĉ!Ĉ!Ĉ!Ĉ!Ĉ!Ĉ!": 2202,
      "!!!%!!!&'(": 2203,
      "2322": 2204,
      "ďĉďĉ!!!!RTVa!!!SĂĄĆ!!!!R!!!S": 2205,
      "ć%&'(ďĉćĈ!ććĈ!ćĈ!Ĉďĉćććććććć": 2206,
      "ććććĈ!ĈĈ!ćĈ!ĈĈ!Ĉ!Ĉ!ćĈ!ćĈ%&'(": 2207,
      "%&'(Ĉ!Ĉ!Ĉ!Ĉ!Ĉ!": 2208,
      "Lďĉ!K": 2209,
      "Ĉ!Ĉ!ĈĈĈ!ĈćĈ!ĈĈĈĈĈćĈĈ": 2210,
      "'7": 2211,
      "ďĒ": 2212,
      "ďĉ!!%&'(": 2213,
      "ććĈćĈ!Ĉ!Ĉ!Ĉ!Ĉ!Ĉ!": 2214,
      "ďĉďĉ!!ďĉďĉďĉďĉďĉďĉďĉďĉ!": 2215,
      "77'7": 2216,
      "ďĉććććĈ!ćĈ!Ĉ!": 2217,
      "ďĉ!ďĉďĉďĉďĉďĉďĉďĉďĉ%&'(": 2218,
      "Ĉ!Ĉ!ćĈĈćĈĈĈĈĈĈĈĈ": 2219,
      "66666666777777'7": 2220,
      "%&'(ďĉććććććććĈ!Ĉ!Ĉ!Ĉ": 2221,
      "ďĤĉ": 2222,
      "00001111": 2223,
      "ćďĉďĉ!!": 2224,
      "ććĈ!ćďĉ!": 2225,
      "ďĉ%&'(ďĉďĉďĉďĉďĉďĉďĉďĉ": 2226,
      "!!%!!!&'(!!!!!!!!!!!!!!!!": 2227,
      "ďĉćććććććĈĈććććććĈ!ćĈĈ": 2228,
      "))ħ!": 2229,
      "%!&'(ďĉďĉďĉ!!ďĉ!": 2230,
      "%!&Ĉ'(!": 2231,
      "ďĉĈ!Ĉ!Ĉ!Ĉ!Ĉ!Ĉ": 2232,
      "ććĈ!Ĉ!Ĉ!Ĉ!Ĉ!Ĉ!ććĈ!ć%&'(ďĉ!": 2233,
      "ćĈ!Ĉ!ćĈĈ!ćĈ!ćĈ!ĈĈ!Ĉ!Ĉ!ćĈ!Ĉ!": 2234,
      ")M": 2235,
      "ďĉď!ĉ": 2236,
      "Ĉ!Ĉ!Ĉ!Ĉ!ĈĈ!Ĉ!Ĉ!Ĉ!": 2237,
      "ďĉďĉďĉ%!&'(": 2238,
      "ďĉ%&'(!!!!!!!!!!!!!!!!": 2239,
      "ćďĉ!ďĉďĉďĉĈ!ĈĈć": 2240,
      "ď!Ĉ": 2241,
      "ďĉďĉďĉďĉ%&'(ďĉďĉ": 2242,
      "%&'(ďĉďĉďĉ!ďĉ!ďĉ!": 2243,
      "Ĉ!ĈĈĈ!ďĉ": 2244,
      "ćďćĉ": 2245,
      "%&'(%&'(%&'(ďĉďĉďĉďĉ!ďĉďĉ!!": 2246,
      "ďĉ!!!ďĉ!Ĉ!Ĉ!Ĉ!Ĉ!ĈćĈĈĈ!ĈĈĈ": 2247,
      "!ĉ": 2248,
      "ć%ď&'(ĉ": 2249,
      "ĐĐ": 2250,
      "%&'(ďĉďĉďĉďĉ!": 2251,
      "!!!!!!!!!!!!!!!!!!!!!!!!!&'(": 2252,
      "ćĈ!ćĈ!ćĈ!": 2253,
      "Ĉ!Ĉ!ĈĈ!Ĉ!Ĉ!": 2254,
      "ćĈ!ćĈ!Ĉ!ĈĈ!": 2255,
      "ćďĉ!ďĉďĉďĉ": 2256,
      "'(3323": 2257,
      "ďďĉĉďĉďĉďĉďĉ": 2258,
      "ďĉ!ďĉď%&'(ĉ": 2259,
      "!!!&'(ćďĉ!ďĉćććĈ!ćĈ!ćĈ!ćĈ!": 2260,
      "ćĈ!ďĉ!ďĉďĉďĉ%&'(": 2261,
      "ďĉ!ďĉďĉ!!ďĉďĉďĉďĉ!ďĉďĉ": 2262,
      "%&'(ďĉďĉďĉ!!!!ďĉ!!!ćććććĈ!Ĉ": 2263,
      "!!!!!!!&'()!)!!!!!!!!!!!!!!!!": 2264,
      "Ĉ!Ĉ!ĈĈ!Ĉ!ĈĈĈĈ!Ĉ!ĈĈ!Ĉ!Ĉ!!Ĉ!ďĉ!": 2265,
      "ďĉćććććććĈ!ćČČ%&'(ďĉďĉďĉ": 2266,
      "!ďĉ!!ďĉ)!!!)!!!!!": 2267,
      "ćĈ!Ĉ!Ĉ!ćĈĈćĈďĉďĉććĈ!Ĉ!Ĉ!ćĈ!": 2268,
      "%!&'(!!!!!!!!!!!!!!!!": 2269,
      "ďĉď%&'(ĉ!": 2270,
      "'(;": 2271,
      "ćĈ!Ĉ!ć": 2272,
      "ďĉ!ďĉ)))": 2273,
      "%&'(ďĉďĉćďĉ": 2274,
      "ďĉććććććććććććććĈ!": 2275,
      "Ĉ!ćććĈ!ććĈ!ćĈ!ĈĈĈćć!!!!ďĉ!!": 2276,
      "ćĈ!Ĉ!Ĉ!Ĉ!Ĉ!Ĉ!ĈĈďĉ!!!ďĉ!": 2277,
      "ďĉ!ďĉ!ďĉ!ďĉ!ďĉ!": 2278,
      "ćĈ!ĈćĈĈćĈĈĈĈĈĈĈ": 2279,
      "Ħ!!": 2280,
      "ďĉďĉććć": 2281,
      "ďĉďĉ%&'ď(ĉ": 2282,
      "ććććĈ!Ĉ": 2283,
      "%&'(%&'(ďĉ!!!!!!!!!!!!!!!!": 2284,
      "!!!%&'(%&'(ďĉ!!!!!!!!!!!!!!!!": 2285,
      "!!!!!!!!!!!!!!!!!!!!!!!!!!&'(": 2286,
      "!!!!!!!!!!!!!!!!!!!!!&'(": 2287,
      "ćĈ!ĈĈ!Ĉ!Ĉ!Ĉ!": 2288,
      "!!%!!!&'(": 2289,
      "ďĉďĉ%&'(ďĉďĉďĉ!": 2290,
      "ďĉďĉďĉ%&'(ďĉ!ďĉďĉ": 2291,
      "%Ĉ&'(!Ĉ!Ĉ": 2292,
      "ćďĉďĉ!!!!!!!!!!!!!!!!!!!%&'(": 2293,
      "!!!ďĉ!ďĉ!!!!!!": 2294,
      "ďĉ!ďĉďĉďĉĈ!ĈĈć": 2295,
      "ćĈ!Ĉ!Ĉ!ćĈĈćĈ%&'(ďĉďĉ": 2296,
      "ďĉďĉďĉďĉďĉ%&'(ďĉďĉďĉ": 2297,
      "Ĉ!!Ĉ!!": 2298,
      "!ďĉććĈ!Ĉ!ĈĈĈ!Ĉ!Ĉ!ĈĈćĈ": 2299,
      "%&'(ďĉďĉďĉĈ!Ĉ!Ĉ!Ĉ!Ĉ!ćĈ!ĈĈĈĈ": 2300,
      "ćďĉďĉććĈ!ďĉďĉďĉďĉ!": 2301,
      "!!!!!!!!!!!!ďĉ!!ďĉ!!!!": 2302,
      "ďKĉ": 2303,
      "Ĉ!ćĈ!ć%&'(ďĉďĉďĉďĉďĉćććć": 2304,
      ")ĉ": 2305,
      "ćħ": 2306,
      "ćć%ć&'(": 2307,
      "ćććććĈ!ćČ": 2308,
      "ďĉďĉ!ďĉďĉďĉďĉ!ďĉ!!": 2309,
      "ďĉ!ďĉ!ďĉ!!": 2310,
      "ďĉďĉďĉ!!ďĉďĉďĉďĉ": 2311,
      "ďď!!": 2312,
      "ĈĈĈĈĈĈĈĈĈĈĈĈĈ": 2313,
      "ćĈ!Ĉ!ĈćĈ!ć%&'(": 2314,
      "ćććććććććććĈ!ĈćĈ!Ĉ!ĈćĈ!ć%&'(": 2315,
      "ć%&'(ďĉďĉďĉďĉććĈ!Ĉďĉ%&'(": 2316,
      "EFD": 2317,
      "ďĈ!ćĉ": 2318,
      "ćĈĉ": 2319,
      "ďĉ!!!!!!!!!!!%": 2320,
      "ďĉďĉďĉďĉďĉďĉďĉďĉďĉďĉ!": 2321,
      "ďĉ%&'(ďĉďĉďĉďĉďĉďĉ": 2322,
      "%&'(ĉĉ": 2323,
      "%Ĉ&'(ĈĈĈĈĈĈĈĈĈĈĈĈĈĈĈĈ": 2324,
      "ć%&'(ďĉ!ďĉďĉ!!ďĉďĉďĉďĉ!ďĉďĉ": 2325,
      "ďĉďĉ%&'(ďĉďĉďĉ": 2326,
      "ďĉ!!!!!!!!!!!!!": 2327,
      "ďĉďĉćććććďĉ!": 2328,
      "L!LKLLLL": 2329,
      "ďĉďďĉĉďĉďĉďĉďĉ": 2330,
      "Ĉ!Ĉ!ćĈ!Ĉďĉ!!!!!!!!!": 2331,
      "0011010101'(3": 2332,
      "ďĉďĉďĉďĉďĉ!ďĉďĉďĉďĉďĉ!ďĉďĉďĉ": 2333,
      "(788888888,-%&+0011": 2334,
      "!!!%!!!!!!!!!!!!&'(": 2335,
      "ďĉďĉďĉďĉďĉ!ďĉďĉďĉ!%&'(": 2336,
      "ćďĉďĉćććććććĈ!Ĉ!Ĉ!ćĈ!Ĉ!Ĉ!": 2337,
      "ćďĉććććććĈ!Ĉ!": 2338,
      "Ĕ!ďĉďĉďĉďĉćććďĉ!": 2339,
      "ďĉ!ďĉ%&'(ďĉďĉ": 2340,
      "LLL!LK!LK": 2341,
      "ďĉ%&'(ćććććććć": 2342,
      "ć%&'(ďĉ!ďĉďĉďĉďĉďĉďĉďĉďĉ": 2343,
      "ďĉććć%&'(": 2344,
      "%&'(ďĉ!ćĈ!ćĈďĉďĉďĉďĉ!": 2345,
      "Ĉ!ćĈ!Ĉ!ĈćĈĈĈćĈĈĈĈĈ": 2346,
      "(788888888,-%&+010011": 2347,
      "ďĉďĉ!ďĉ)))": 2348,
      "Ĉ!Ĉćć%&'(ďĉ!ćĈ!ćĈďĉďĉďĉďĉ!": 2349,
      "ďĉ!ďĉ!!!!!!!!!!!ďĉ!!": 2350,
      "%&'(ďĉĈ!ĈĈĈĈĈĈĈĈ!ĈĈĈďĉ": 2351,
      "ďĉďĉ!ďĉďĉ!ďĉ!%&'(ďĉ!!!": 2352,
      "ďĉ!!!!!!!!!!!!!ďĉ!ďĉ!!!!!!": 2353,
      "ďē": 2354,
      "ďĈĈĈĈ": 2355,
      "ďĉćĈ!Ĉ!ĈćĈ!ďĉćććććććĈ!ćĈ!": 2356,
      "ďĉďĉďĉďĉďĉ!ďĉ": 2357,
      "ďĉ!!!!!!!!ďĉ!ďĉ%!&'(": 2358,
      "ďĉďĉďĉ%&'(ďĉďĉ!": 2359,
      "ćĈĈĈĈĈĈ!ĈĈ!ĈĈĈ": 2360,
      "ďĉ!%&'(!": 2361,
      "ďĉććĈ!ďĉďĉďĉďĉ!ďĉďĉ!!": 2362,
      "ďĉďĉďĉďĉ%&'(!ďĉ!!": 2363,
      "ćĈĈĈĈĈĈĈĈĈĈĈĈĈĈ": 2364,
      "ďĉĈ!ĈĈĈĈĈĈĈĈ!ĈĈĈďĉ": 2365,
      "ćĈ!Ĉ!Ĉ!Ĉ!Ĉ!Ĉ%&'(ďĉĈ!Ĉ!Ĉ!Ĉ!": 2366,
      "ććĈćĈ!Ĉ!Ĉ!Ĉ!Ĉ!Ĉ!ććĈ!Ĉ!Ĉ!ćĈ!": 2367,
      "%Ĉ!Ĉ": 2368,
      "Ĉ!!!": 2369,
      "ďĉďĉďĉďĉď%ĉ&'(": 2370,
      "ďĉ!%": 2371,
      "ďĉďĉďĉĈ!Ĉ!Ĉ!Ĉ!!": 2372,
      "MMMMMM": 2373,
      "ďĉ%&'(ďĉďĉďĉďĉďĉďĉďĉ!": 2374,
      "2222222222222222222222": 2375,
      "ďĉďĉďĉďĉďĉďĉ!ďĉďĉďĉďĉďĉ)!)": 2376,
      "ďĉďĉďĉďĉďĉďĉďĉ%&'(ďĉ": 2377,
      "ĖĖĖ": 2378,
      ")!)!!!!!!!!!ććććĈ!ĈĈďĉ": 2379,
      "%ćć&": 2380,
      "ďĉ!!ćććććććĈ!Ĉ!Ĉ!ććĈĈććĈ!ćĈĈ": 2381,
      "ćďĉďĉćććććććĈ!Ĉ!Ĉ!ćĈ!Ĉ!Ĉ!ćďĉ!": 2382,
      "ćĈĈćĈĈćĈĈćĈćĈĈćĈĈćĈćć%&'(": 2383,
      "AM": 2384,
      "ďĉĈ!Ĉ!ĈĈĈĈ!Ĉ!Ĉ!ĈĈĈĈĈĈĈĈĈ": 2385,
      "ďĉďĉ!!ďĉ!ďĉďĉďĉďĉ!!": 2386,
      "Ĉ!ĈĈĈĈ!ĈĈĈĈĈ": 2387,
      "23322": 2388,
      "Ē!!Ē": 2389,
      "ćďĉďĉďĉďĉďĉďĉ": 2390,
      "Ĥ!": 2391,
      "ďĉĒ": 2392,
      "!!!!!!!!!!!!!!!!!!&'(": 2393,
      "%&'(!!!!!": 2394,
      "ďĉďĉďĉďĉćććĈ!Ĉ!ććĈ!ćĈ!ćČ": 2395,
      "ďĉ!ďĉććććććĈććĈ!ďĉďĉďĉ!ććĈ!ć": 2396,
      "ďĉ!))ħ!": 2397,
      "ćĈĈ!Ĉ": 2398,
      "ćĈ)!)!!Ĉ!Ĉ!ĈĈ!!!!!": 2399,
      "ďĉďĉďĉ%&ď'(ĉ": 2400,
      "ďĉďĉďĉćďĉďĉďĉďĉ!ććĈ!Ĉ!Ĉ!Ĉ!Ĉ": 2401,
      "ďĉ%&'(!!": 2402,
      "Ĉ!Ĉ!Ĉ!Ĉ!Ĉ!Ĉ!Ĉ!": 2403,
      "ćďĉď%&'(ĉ": 2404,
      "ďďĉĉďĉďĉďĉ": 2405,
      "!!!!!!!!!!!!!!!!!!!!!ďĉ!!!!": 2406,
      "ćĈĈćĈďĉďĉ": 2407,
      "ćĈ!ćĈ!Ĉ!Ĉ!ď%&'(ĉďĉ!": 2408,
      "Ĉ!Ĉ!Ĉ!!ďĉďĉ!ďĉ!!!!!!!!": 2409,
      "ćďĉďĉ!ďĉďĉďĉ!!ďĉ!!!!": 2410,
      "(788888888,-%&+01001101010011": 2411,
      "ďĉďĉďĉ!!ďĉ!ďĉ%&'(!": 2412,
      "ďĉćĈ!Ĉ!Čďĉďĉďĉ!ććĈ!ć": 2413,
      "Čďĉďĉďĉďĉďĉďĉďĉďĉ!!!": 2414,
      "ē!Ħ": 2415,
      "32222323232222222222222222": 2416,
      "ďĉ!ďĉ!!Ĉďĉ!ďĉ!!!!": 2417,
      "ďĉĖ": 2418,
      "%&'(ďĉďĉďĉďĉďĉďĉ": 2419,
      "ćĈ!ďĉďĉďĉĈ!Ĉ!Ĉ!Ĉ!Ĉ!ćĈ!ĈĈĈĈ": 2420,
      "Ĉ!Ĉ!Ĉ!Ĉ!Ĉ!": 2421,
      "ćĈĈĈĈćć": 2422,
      "!!!%!!!!!&'(!!!!!!!!!!!!!!!!": 2423,
      "!!%!!!!!&'(": 2424,
      "%Ĉ&'(ĈĈĈĈ": 2425,
      "ďĉďĉďĉďĉďĉďĉďĉ!!!": 2426,
      "ćďĈĈ": 2427,
      "ćďććĉ": 2428,
      "ďĉ%&'(ďĉďĉćďĉ!": 2429,
      "Ĉ!Ĉ!Ĉ!ĈĈĈĈ!Ĉ!ĈĈ!Ĉ!Ĉ!ĈĈĈĈ": 2430,
      "ďĉďĉďĉ!!ďĉ!ďĉ%&'(!ďĉďĉďĉćďĉ!": 2431,
      "ćď%&'(ĉ!": 2432,
      "ĉĈĈ": 2433,
      "ĥ!!": 2434,
      "Ĉ!Ĉ!ďĉďĉ!": 2435,
      "!!!%!!!!!&'(": 2436,
      "ć%&'(ďĉ!ďĉďĉďĉĈ!ĈĈć": 2437,
      "232323232222222222222222": 2438,
      "ć!Ĉ!": 2439,
      "(788888888,-%&+010101": 2440,
      "!&'(ďĉ))ďĉħ": 2441,
      "32322": 2442,
      "%!!&'(!!!!!!!!!!!!!!!!": 2443,
      "%&'(ďĉ!ďĉ!!ćĈ!": 2444,
      "ććććććĈ": 2445,
      "ćĈ!ćĈ!ććĈ!": 2446,
      "ďĉďĉďĉćććĈ!Ĉ!Ĉ!Ĉ!Ĉ!Ĉ!": 2447,
      "ďĉďĉďĉ!ďĉďĉďĉďĉďĉ)!)": 2448,
      "ďĉďĉďĉďĉďĉďĉďĉďĉďĉ!": 2449,
      "ďĉďĉďĉďĉďĉďĉďĉďĉďĉďĉďĉďĉďĉ": 2450,
      "ďĉ%&'(ďĉďĉďĉďĉďĉ": 2451,
      "ććĈ!Ĉ!Ĉ!ĈĈ!Ĉ": 2452,
      "ďĉ!ďĉ!ďĉ": 2453,
      "!!%ď&'(ĉ": 2454,
      "ć%&'(ďĉďĉ!ďĉďĉ": 2455,
      "ďĉďĉďĉďĉďĉďĉćĈ!Ĉ!Ĉ!ĈĈ!Ĉ": 2456,
      "001101'(3": 2457,
      "ďĉ%ď&'(ĉ!!": 2458,
      "ēēē": 2459,
      "ďĉďĉďĉďĉďĉ!!ďĉ!!!!!!!": 2460,
      "ćĈ!Ĉ!ĈĈćĈćĈĈĈĈĈĈĈĈĈĈĈĈďĉ!!": 2461,
      "ďĉćććććććĈ!ćĈ!ćďĉ!": 2462,
      "ćďĉ!!!!!!!!!ďĉďĉďĉ!!": 2463,
      "(788888888,-%&+0": 2464,
      "ćďĉćććďĉ!!ďĉďĉ%&'(ďĉ!": 2465,
      "ďĉ!ďĉďĉďĉ%&'(ďĉďĉďĉďĉ": 2466,
      "ćĈćďĉďĉďĉ!!!ďĉďĉďĉďĉ%&'(": 2467,
      "ďĉććććĈ!ćĈ!Ĉ!ćĈ!Ĉ!ćĈ!ćĈ!Ĉ!": 2468,
      ")!!": 2469,
      "Aē": 2470,
      "'(!": 2471,
      "ďĉ!!ďĉďĉďĉďĉ": 2472,
      "ĈĈĈĈĈĈĈĈĈĈ": 2473,
      "!!!!!!!!!!!!!!!!!!!!!!&'(": 2474,
      "%&'(ďĉćĈ!Ĉ!Č": 2475,
      "Ĉ!ĈĈĈĈĈ!ćĈ!Ĉ!ĈćĈĈĈćĈĈĈĈĈ": 2476,
      "Ĉ!Ĉ!Ĉ!ĉ": 2477,
      "ďďĉĉďĉďĉ": 2478,
      "ďĉďĉďĉďĉďĉ!!ďĉ!ďĉďĉďĉďĉ": 2479,
      "ďĉďĉďĉďĉďĉ!ďĉďĉďĉ": 2480,
      "%&'(ďĉ!ďĉďĉ!ďĉ!ďĉďĉďĉ!ďĉ!ďĉ!!": 2481,
      "%!&": 2482,
      "%!&'Ĉ(!": 2483,
      "L!LKLL!LK": 2484,
      "ćďĈ!ĉ": 2485,
      "LM": 2486,
      "ć%ćĈ&'(!": 2487,
      "Ĉ)": 2488,
      "ććććććć": 2489,
      "ďĉďĉďĉććĈ!Ĉďĉ%&'(": 2490,
      "ďĉ%&'(ďĉďĉďĉďĉ!": 2491,
      "ć%&'(Ĉ!Ĉ!": 2492,
      "ć%&'(ďĉďĉ!!ďĉďĉďĉďĉ": 2493,
      "'(323": 2494,
      "ćĈ!ć%Ĉ&'(!": 2495,
      "ďďĉĉ!!": 2496,
      "ď!ďďďď": 2497,
      "ďĉďĉďĉďĉďĉďĉďĉ!!!!!!!!!!!": 2498,
      "ď%ĉ&'(!!": 2499,
      "ćĈććĈć%&'(ďĉ": 2500,
      "%&'(ďĉďĉďĉ!!!!!!!!!!ďĉďĉďĉďĉ": 2501,
      "!!!%!&'(!!!!!!!!!!!ďĉ!ďĉďĉ": 2502,
      "%&'(ćďĉ!ďĉďĉďĉĈ!ĈĈć": 2503,
      "ć'ć(": 2504,
      "ćĈććĈć%&'(ďĉćĈ!Ĉ!Ĉ!Ĉ!Ĉ!Ĉ!Ĉ!Ĉ!": 2505,
      "%ććć": 2506,
      "%!!!!&'(": 2507,
      "-+/,'(": 2508,
      "ē!!": 2509,
      "ĖĦ": 2510,
      "ďĉĈ!Ĉ!Ĉ!Ĉ!ĈćĈĈĈ!ĈĈĈ": 2511,
      "ććď": 2512,
      "Ĉ!Ĉ!ćććĈ!": 2513,
      "ćĈ!%ć&'(": 2514,
      "ćććććĈ!)!)!!Ĉ!Ĉ!ĈĈ!!!!!": 2515,
      "ďĉďĉďĉďĉ%&ď'(ĉ": 2516,
      "ďĉ!ďĉďĉďĉďĉďĉĈ!Ĉ!Ĉ!Ĉ!": 2517,
      "!LK!LK!LK": 2518,
      "ćĈ!Ĉ!Ĉ!ćĈ!Ĉ!Ĉ!Ĉ!": 2519,
      "ďĉďĉďĉďĉďĉćĈ!ĈĈ!ĈĈ!ĈĈ!": 2520,
      "ďĉďĉďĉďĉďĉ!)!)!": 2521,
      "!!!!!!!!!!!!!!!!!!!!!%!&'(": 2522,
      "ďĉďĉďĉ!ďĉďĉ!ďĉďĉ!!!": 2523,
      "Ĉ!ĈćĈ!Ĉ!Ĉ!Ĉć%&'(ďĉ!": 2524,
      "LLLLLLLLLLLLLLLLLLLL": 2525,
      "ďĉď%&'(ĉ!!": 2526,
      "ďĈćĉ": 2527,
      "ďĉćĈ!Ĉ!Č%&'(ďĉďĉďĉ!": 2528,
      "ďĉďĉďĉ%&'(ďĉďĉďĉĈ!Ĉ!Ĉ!Ĉ!Ĉ!Ĉ!": 2529,
      "ćďĉćĈ!ććĈ!ćĈ!Ĉ%&'(ďĉćććććććć": 2530,
      "ħ)ę!": 2531,
      "ćĈ!ć%&'(ďĉďĉďĉďĉďĉ!!ďĉ!!!!": 2532,
      "ďĉ%&'(!!!ďĉ!ďĉďĉ!ďĉ": 2533,
      "EF": 2534,
      "ďĐ": 2535,
      "ďĉćĈ!ćĈ!": 2536,
      "ćććć%&'(": 2537,
      "ćĈ!Ĉ!ĉ": 2538,
      "ďĉďĉďĉďĉ!!!!!!!!!": 2539,
      "ďĉďĉďĉďĉďĉďĉďĉďĉďĉ!ďĉďĉďĉ%&'(": 2540,
      "%&'(ďĉ!!!ďĉ!": 2541,
      "ďĉďĉ%&'(!!!": 2542,
      "ďĉďĉďĉďĉďĉďĉ!%&'(": 2543,
      "ďĉďĉďĉďĉďĉďĉćďĉ)ħ": 2544,
      "ďĉďĉďĉďĉďĉďĉďĉćďĉ!ďĉďĉďĉďĉ!!": 2545,
      "ćĈ!ďĉ!)": 2546,
      "ď%ĉ&'(!!!!!!!!!!!!!!!!": 2547,
      "ćĈĈĈĈĈĈĈĈĈĈĈĈĈĈĈĈ!": 2548,
      "ďĉďĉďĉďĉďĉ%&'(ďĉďĉ!": 2549,
      "!&'(ďĉ))ďħĉ": 2550,
      "%&'(ďĉćĈ!Ĉ!Ĉ!Ĉ!Ĉ!Ĉ!ĈĈďĉ!!!": 2551,
      "Ĉ!ćĈ!ćĈ!Ĉ!Ĉ!ďĉďĉ!!!!": 2552,
      "ćďĉďĉ%&'(ďĉďĉ": 2553,
      "3222232323232222222222222222": 2554,
      "!!!ććććĈ!ĈĈďĉ!!!!!!!!!!!)!)": 2555,
      "ďĉ%&'(ďĉ!!!!ďĉ!!)ďĉďĉ!": 2556,
      "Ĉ!ĈĈ!ĈĈ!ĈĈ!ćĈ!ćĈ!": 2557,
      "32222224%&52226'(78,": 2558,
      "ďĉĈ!Ĉ!Ĉ!Ĉ": 2559,
      "%&'(ďĉďĉďĉďĉďĉďĉćďĉ!": 2560,
      "ďĉ!Ħ": 2561,
      "ćĈććĈ!": 2562,
      "!!!Ħ": 2563,
      "ďĉďĉďĉ%&'ď(ĉ": 2564,
      "ďĉďĉďĉćććĈ!Ĉ!Ĉ!Ĉ!Ĉ!": 2565,
      "ďĉ!!!!!!!!ďĉ!%&'(": 2566,
      "ďĉďĉ!!ďĉďĉďĉďĉďĉďĉďĉ!ďĉ!": 2567,
      "ďĉďĉ!!ďĉďĉ)ďĉďĉ!ďĉďĉ!!ďĉ!!!!": 2568,
      "ďĉďĉ!!ďĉďĉďĉ%&'(ďĉ!ďĉďĉ": 2569,
      "01001011": 2570,
      "ď%&'(ĉďĉďĉďĉ!": 2571,
      "ďĉďĉďĉďĉ!ďĉďĉďĉďĉ": 2572,
      "ďĉďĉďĉ%&'(ďĉďĉďĉďĉďĉ!": 2573,
      "ďĉďĉďĉďĉďĉďĉďĉďĉ!ćĈ!Čďĉďĉ!": 2574,
      "!!!!!!!!!ďĉ!ďĉďĉ": 2575,
      "3223322": 2576,
      "3322222323232222222222222222": 2577,
      "Ĉ!Ĉ!ĈĈ!Ĉ!ćĈ!Ĉ!ĈĈĈĈĈďĉ!ďĉ!": 2578,
      "'777": 2579,
      "Vb": 2580,
      "ćĉĉ": 2581,
      "ćďĉďĉďĉ%&'(": 2582,
      "Ĉ!ćĈ!ććĈ!": 2583,
      "Ĉ!ďĉ!ďĉďĉďĉďĉďĉ!ďĉďĉďĉ!!)!)": 2584,
      "ćć%&'(%&'(": 2585,
      "ććć%&'(": 2586,
      "ďĉ!%ď&'(ĉ": 2587,
      "Ĉ!Ĉĉ": 2588,
      "ďĉ!!ďĉďĉ!": 2589,
      "ććĈćĈ!ĈĈ": 2590,
      "!!!!!!!!!!!!!!!!!!!!&'(": 2591,
      "ćććĈ!Ĉ!ććććććĈ!ćĈĈ": 2592,
      "ďĉďĉďĉ!ććĈ!ćďĉďĉďĉďĉ": 2593,
      "ćĈĈĈćĈĈĈĈĈ": 2594,
      "Ĉ!ĈĈĈ!Ĉ": 2595,
      "!!!%!!!&'(!!!!!!!!!!!!!!!!": 2596,
      "%&-+01'(;": 2597,
      "ććććĈ!ćĈćĈĈ": 2598,
      "$#$!!)!%&-+/,'(#..$#$!!)!": 2599,
      "ďĉďĉďĉďĉďĉďĉďĉďĉ!ďĉďĉďĉ%&'(": 2600,
      "ććĈ!Ĉ!Ĉ!Ĉ!Ĉ!Ĉ!Ĉ!ĈĈćĈďĉďĉ": 2601,
      "ćĈććĈćĈ!ćĈ": 2602,
      "&'Ĉ(": 2603,
      "ďĉĈ!Ĉ!Ĉ!Ĉ!ĈĈ": 2604,
      "Ĉ!ĈĈ!Ĉ!Ĉ!Ĉ!Ĉ!ćĈ!": 2605,
      "ććĈ!Ĉ!Ĉ!Ĉ!Ĉďĉďĉďĉďĉďĉďĉďĉďĉ": 2606,
      "!!!!!&'(ďĉ!!!!!!!!!": 2607,
      "3232222": 2608,
      "666666667777'777": 2609,
      "KKKK": 2610,
      "%Ĉ!&'(": 2611,
      "ććĈ!Ĉ!Ĉ!ĈĈ!ĈćĈ!ćć": 2612,
      "32222224%&52226'(78,<": 2613,
      "%K": 2614,
      "Ĉć": 2615,
      "ďĈ!Ĉ!Ĉ": 2616,
      "ĈĈĈ!Ĉ!Ĉ!Ĉ!Ĉ": 2617,
      "%&'(!!!!!!!": 2618,
      "ćĈ!Ĉ!ććĈ!ćć": 2619,
      "ďĉďĉďĉďĉďĉ!!!!!!!!!!!!!!!!": 2620,
      "ďĉ!ďĉďĉďĉďĉ!": 2621,
      "ďĉ!)!)!!!!!!!!!!ďĉ!!!!!!": 2622,
      "!!!RTVa!!!SĂĄĆďĉćććďĉ!": 2623,
      "ćĈćĈćĈ!ćĈ!ććĈ!": 2624,
      "ďĉďĉďĉ!!!!": 2625,
      "Ĉ!ćĈ!Ĉ!%&'(": 2626,
      "ďĉ%&'(ďĉďĉďĉ!!": 2627,
      "ĈĈĈĈĈĈĈĈĈĈĈĈĈĈĈĈĈ!": 2628,
      "ćĈ!Ĉ!Ĉ!%&'(": 2629,
      "%Ĉ&'(!ĈĈĈ": 2630,
      "%Ĉ&'(!Ĉ!Ĉ!Ĉ!": 2631,
      "ĈĈĈĈĈĈĈĈĈĈ!ĈĈĈĈ!ĈĈĈĈĈ": 2632,
      ")!)!!)!)!!!!!!!!!!!!!!!!": 2633,
      "ďĉ!!!!!ďĉ!ďĉďĉďĉďĉ": 2634,
      "%&'(ďĉ!ďĉďĉďĉďĉďĉďĉďĉďĉ": 2635,
      "ćĈ!ćĈ!Ĉ!ĈćĈ!Ĉ!%&'(ďĉ": 2636,
      "!!!!!!!!!!!!!!!!!)!)": 2637,
      "ďĉďĉ!%&'(Ĉ!Ĉ!ĈĈ!Ĉ!Ĉ!Ĉ!": 2638,
      "ćĈ!%&'(ďĉ!)ććććććććććććĈ!ććĈ!": 2639,
      "AAAAAA": 2640,
      "ćĈćĈćĈ!ćĈ!ććĈ!ćĈććĈćĈ!ćĈ": 2641,
      "Bď": 2642,
      "ć%ćć&'(": 2643,
      "ĉďĉďĉ": 2644,
      "!!ććĈ!Ĉ!ĈćĈĈĈććĈĈĈ": 2645,
      "Ĉ!ćĈĈ!": 2646,
      "%&'(\"": 2647,
      "%&'(ďĉ!ďĉĈ!Ĉ!ćĈ!Ĉ!ĈĈĈ": 2648,
      "ćĈ!ćĈ!ććććĈćĈ": 2649,
      "ććĈ!Ĉ!Ĉ!ĈćĈ!": 2650,
      "%&'(ďĉććććććĈ!ćć": 2651,
      "ćďĉ!ďĉďĉ!!!": 2652,
      "-%&+01": 2653,
      "ďĉďĉďĉ%&'(ććĈ!Ĉ!": 2654,
      "'(788888888,": 2655,
      "010101'(333": 2656,
      "Ĉ!Ĉ!Ĉ!Ĉ!Ĉ!Ĉ!Ĉ!Ĉ!Ĉ!": 2657,
      "%&'(ďĉďĉ!ďĉďĉ": 2658,
      "%&'(ďĉďĉďĉćďĉ!": 2659,
      "777'(788888888,": 2660,
      "ďĉ!!!!!ďĉ!ďĉďĉ%&'(ďĉďĉďĉďĉ": 2661,
      "ćĈ!ćĈ!ćĈ!ĈĈ!Ĉ!ćĈ!ćĈ!Ĉ!Ĉ!": 2662,
      "!!Č!!Č!%&'(ďĉ!ďĉĈ!Ĉ!ćĈ!Ĉ!ĈĈĈ": 2663,
      "!!!!!!!!&'(ďĉ!!!!!!!!!": 2664,
      "666666667777777'(788888888,": 2665,
      "ćďĉďĉććĈ!ďĉďĉďĉďĉ!ďĉďĉ!!": 2666,
      "ďĉ%&'(ďĉćďĉ": 2667,
      "C!!!": 2668,
      "ćďĉ!!!": 2669,
      "ďĈĈ!ĉ": 2670,
      "Ĉ!ĥ": 2671,
      "ďĉB": 2672,
      "ćććďĉ": 2673,
      "ďĉďĉĈ!ĈććĈĈ!Ĉ!ććĈ!Ĉ!ĈĈ!ĈĈĈ": 2674,
      "%&'(ćĈ!ćć": 2675,
      "ĈĈĈĈĈćĈĈćĈ": 2676,
      "ďĉ!ď%&'(ĉ": 2677,
      "%&Ĉ'(": 2678,
      "ďĉďĉ!!ďĉ!!": 2679,
      "ďĉďĉďĉďĉďĉďĉďĉďĉďĉďĉďĉďĉ!": 2680,
      "!!!!!!!!!!!!!!!&'(": 2681,
      ")!)!!!!!!!!!!!!!!!!!!": 2682,
      "ďĉďĉďĉďĉ!ďĉ!ďĉ!ďĉ!ďĉ!ďĉ!ďĉ": 2683,
      "-%&+": 2684,
      "ďĉ!ďĉďĉďĉďĉďĉďĉďĉ%&'(": 2685,
      "ďĉ!ďĉďĉďĉďĉďĉćĈ!ĈĈ!ĈĈ!ĈĈ!": 2686,
      "-%&+/,'(#$": 2687,
      "%Ĉ&'(!Ĉ!ćĈ!Ĉ!": 2688,
      "ďĉ!ďĉćĈ!ćĈ!": 2689,
      "ďĉďĉ!ďĉ!ďĉ!!!!!!!!!!!!!!!!": 2690,
      "ďĉďĉďĉ!ďĉďĉ!ďĉďĉ!!ďĉ!!ďĉďĉ": 2691,
      "%ć&'(ćććć": 2692,
      "ćďĉďĉďĉĈ!ĈĈĈĈĈ!ćĈ!Ĉ!Ĉ": 2693,
      "%ć&Ĉ'(": 2694,
      "ćďĉćĈ!ććĈ!ćĈ!Ĉďĉ%&'(ćććććććć": 2695,
      "Ĉ!ćĈĈĈ!ĈĈĈ": 2696,
      "ć'Ĉ(!": 2697,
      "ďĈĈĈĈĉ": 2698,
      "ććććĈ!ćĈćĈĈćććć": 2699,
      "ć&'(": 2700,
      "ę!!": 2701,
      "Ğ%&'(%&'(%&'(%&'(": 2702,
      "ďĉđ": 2703,
      "ďĉďĉ!!!!!!!!": 2704,
      "%&'(!!ďĉďĉďĉďĉ": 2705,
      "ďĉďĉďĉďĉďĉ!ďĉ!!": 2706,
      "ćĈćĈ!Ĉ!": 2707,
      "Ĉ!Ĉ!Ĉ!Ĉ!Ĉ!ĈĈ!Ĉ!": 2708,
      "Ĉ!ĈććĈ!Ĉ!Ĉ!ĈĈ!ĈćĈ!ćć": 2709,
      "ďĉďĉďĉ!!!": 2710,
      "ććĈććĈ": 2711,
      "ďĉ!ďĉ!ďĉďĉ!": 2712,
      "ć%&'(ďĉďĉďĉďĉďĉďĉďĉďĉ": 2713,
      "Ĉ!Ĉ!Ĉ!ĈĈ!Ĉ!": 2714,
      "ďĉ!!!ďĉ!!ďĉďĉ": 2715,
      "ćĈĈĈĈĈćĈĈĈĈĈĈ": 2716,
      "ćďĉ%!&'(": 2717,
      "ďĉďĉďĉďĉďĉďĉďĉ%ď&'(ĉ": 2718,
      "!!!!!!!!!!!!!!!!!!!!!!!!!!ďĉ!": 2719,
      "ć%&'(ďĉ!ććććĈ!ćĈ!Ĉ!Ĉ!ćĈ!Ĉ!": 2720,
      "Ĉ!ĈĈ!ĈĈĈćĈĈĈćĈ!ĈĈĈĈ!ĈĈ!Ĉ%&'(": 2721,
      "ćďĉďĉ!!ďĉďĉďĉďĉććććĈ!ĈĈ!ćĈ!Ĉ": 2722,
      "ďĉććĈĈĈĈĈďĉďĉ)!)!!": 2723,
      ")ďĉďĉ!ďĉ!ďĉ!ďĉďĉďĉ": 2724,
      "ĈĈĈ!Ĉ!Ĉ!Ĉ!ĈĈ!ćĈ!Ĉ": 2725,
      "ćĈ!ćĈ!ććććĈćĈćććĈ!ćć": 2726,
      "!ĥ": 2727,
      "!ďĉ!ďĉďĉ": 2728,
      "'77": 2729,
      "7'77": 2730,
      "!!!!!!!!!!!!!!!!!!!&'(": 2731,
      "ďĉďĉď%&'(ĉ!": 2732,
      "Ĉ!Ĉ!ćĈ": 2733,
      "%&'(!!!!": 2734,
      "%&'(ďĉďĉďĉďĉ": 2735,
      "ćĈ!%Ĉ&'(": 2736,
      "ćććććĈ!Ĉ!ćĈ!Ĉ!ćĈ!Ĉ!Ĉ!Ĉ!Ĉ!": 2737,
      "Ĉ!Ĉ!Ĉďĉďĉďĉ%&'(": 2738,
      "ďĉďĉďĉ!ďĉććĈ!ďĉ!ďĉ!!ćĈ!": 2739,
      "ďĉ%&'(ďĉďĉďĉ!": 2740,
      "ďĉ%&'(ďĉďĉďĉďĉ!!": 2741,
      "ďĉ!!!!!%": 2742,
      "ďĉďĉďĉ!!ćććďĉććććććĈ!ćć": 2743,
      "Ĉ!Ĉ!Ĉ!%Ĉ&'(!": 2744,
      "Ĉ!Ĉ!Ĉ!Ĉďĉ!!!!!!!!!!!": 2745,
      "ćďĉ%ď&'(ĉ": 2746,
      "ďĉďĉďĉďĉďĉď%ĉ&'(": 2747,
      "%&'ď(ĉ!!": 2748,
      "ćĈ!Ĉ!ĈćĈ!Ĉ!ććĈ!Ĉ!Ĉ!Ĉ!Ĉ!ĈĈ!": 2749,
      "ĈĈ!ĈććĈ!Ĉ!ĈĈ!ĈĈ!Ĉ!ćĈ!ďĉ%&'(": 2750,
      ")!)!!!!!%": 2751,
      "6666666677777'77": 2752,
      "ďĉďĉ!!!!!!!!!!!!!!!!!!!!!)!)": 2753,
      "%&'(%&'(%&'(%&'(%&'(%&'(!ĥĤ": 2754,
      "ćĈ!%&'(ďĉ!ćććććććććććććććć": 2755,
      "ČČČČČČČČ": 2756,
      "ćĈ!Ĉ!Ĉ!Ĉ!Ĉďĉ!))ħ!": 2757,
      "ďĉćĈ!Ĉ!Čďĉďĉďĉ!ććĈ!": 2758,
      "%ććĈ&'(!": 2759,
      "ĈĈĈĈĈćĈĈćĈćć%&'(%&'(": 2760,
      "%)": 2761,
      "ć%ć&'ć(": 2762,
      "ďĈ!ĈĈ": 2763,
      "ďĉć": 2764,
      "ďĉďĉćććććććć": 2765,
      "ćććććććĈĈććććććĈ!ćĈĈ": 2766,
      "ćĈ!Ĉ!Ĉ!ĈĈ!": 2767,
      "!!!!!!!!!!!!!!!!!!!!!!!!&'(": 2768,
      "ďĉďĉďĉĈ!Ĉ!": 2769,
      "ććĈćĈ!Ĉ!Ĉ!": 2770,
      "ďĉďĉďĉ!ďĉ!": 2771,
      "ď%&'(ĉďĉďĉďĉďĉďĉďĉďĉďĉ": 2772,
      "ďĉďĉďĉ%&'(ďĉďĉ": 2773,
      "ććĈ!Ĉ!ĈćĈ!ĈććĈĈĈćĈĈĈćĈ!ĈććĈĈĈ": 2774,
      "!!!!!!!!!!!!!!!!%!!&'(": 2775,
      "&'(!ďĉ!)!)!!!!!!!!!!ďĉ!!!!!!": 2776,
      "ďĉďĉ!ďĉ%!&'(": 2777,
      "ćĈćĈćĈćĈćĈćĈćĈćĈćĈćĈćĈćĈćć": 2778,
      "ćććććĈ!Ĉ!Ĉ!ćĈĈćĈďĉďĉĈ!Ĉ": 2779,
      "Ĉ!Ĉććďĉ!ćĈ!ćĈ%&'(ďĉďĉďĉďĉ!": 2780,
      "(788888888,-%&+000111": 2781,
      "ćĈ!ćďĉďĉďĉďĉćććććĈ!ćČ": 2782,
      "!ďĉćććć": 2783,
      "ML": 2784,
      "MďMĉ": 2785,
      "%&'(Ĉ!Ĉ!ĈĈĈĈĈĈćĈ!ĈĈĈ%&'(ďĉ": 2786,
      "ćĈĈĉ": 2787,
      "%&'(%&'(%&'(%&'(%&'(!ĥĤ": 2788,
      "ďĉ%&'(ćĈ!Ĉ!Ĉ!Ĉ!Ĉ!Ĉ!ĈĈďĉ!!!ďĉ!": 2789,
      "!!%!!!!!!&'(!!!!!!!!!!!!!!!!": 2790,
      "ć%&'(ćććććććććććććććććććććććć": 2791,
      "ďĉďĉ%&'(ďĉďĉ!": 2792,
      "ďĉďĉ%&'(ďĉďĉďĉ!!": 2793,
      "ďĉďĉ%&'(ćĈ!Ĉ!Ĉ!Ĉ!Ĉ!Ĉ!": 2794,
      "ďĉďĉ%&'(ďĉďĉďĉ!!ďĉ!": 2795,
      "ďĉďĉďĉ%&'(ďĉďĉďĉ!": 2796,
      "ďĉ!!ďĉ!ďĉďĉďĉďĉďĉďĉďĉďĉ": 2797,
      "ďĉ!ďĉďĉ%ď&'(ĉ": 2798,
      "ďĉďĉďĉďĉďĉďĉďĉď%&'(ĉ": 2799,
      "ĉ!Ĉ": 2800,
      "ďĉ!%&'(ďĉďĉďĉďĉďĉďĉďĉďĉ": 2801,
      "ĉĉĉĉĉĉ": 2802,
      "ďĉďĉďĉďĉ%&'(ďĉďĉďĉďĉ!": 2803,
      "!!!!!!!!!!!!!!!!!!MMMMMMMM": 2804,
      "%&'(ďĉďĉććććććććććććććĈ!": 2805,
      "ďĉ!!ďĉďĉďĉďĉďĉďĉ!ďĉďĉ!ďĉďĉ!!!": 2806,
      "ćďĈ": 2807,
      "ďĉ!ďĉďĉďĉďĉďĉďĉďĉďĉ!!ďĉďĉďĉďĉ": 2808,
      "ďĉ%ď&'(ĉ!": 2809,
      "ćďĉ%&'(ďĉďĉďĉććĈ!Ĉďĉ%&'(": 2810,
      "!ďĉ!)": 2811,
      "ć%Ĉ&'(!Ĉ!": 2812,
      "!!!!!!!!!!!!!!!!!!!!!Ĉ!Ĉ!Ĉďĉ": 2813,
      "ďĉďĉďĉďĉďĉ!ďĉďĉďĉďĉďĉ": 2814,
      "ďĉďĉ!ďĉďĉ!ď%&'(ĉ!": 2815,
      "!&'(ďĉ))ħďĉďďĉĉďĉďĉďĉďĉ": 2816,
      ")ďĉćďĉďĉ!": 2817,
      "ć%&'(ďĉďĉ!ďĉďĉćĈ!Ĉ!Ĉ!Ĉ!Ĉ!Ĉ!": 2818,
      "Bē": 2819,
      "ć%&ď'(ĉ": 2820,
      "Ĉ!%Ĉ&'(": 2821,
      "%&'(ďĉďĉďĉďĉďĉ!ďĉďĉďĉ!": 2822,
      "%&'(!!!!!!!!!!!ďĉ!ďĉďĉ": 2823,
      "%&'(Ĉ!Ĉ!Ĉ!Ĉ!Ĉ!Ĉ!Ĉ!Ĉ!Ĉ!": 2824,
      "ďĉ!ćććĈ!Ĉ!ćĈ!Ĉ!ĈĈ!Ĉ!ĈćĈĈĈĈ": 2825,
      "ćďĉ!ćććććďĉ!ććććĈćććĈ!Ĉ!ĈćĈ!ć": 2826,
      "LLLLLL!LK": 2827,
      "Ĉ!ĈĈ!ććĈĈ": 2828,
      "ĈĈĈĈĈĈĈĈĈĈĈĈĈĈĈ": 2829,
      "ĈĈĈĈĈĈĈĈĈĈĈĈĈĈ!": 2830,
      ")!)!!!!!!!!!!!%&'(": 2831,
      "!!!!R%&'(TVa": 2832,
      ")ďĉďĉ!ďĉďĉ!!ďĉ!!!!": 2833,
      "ď!ĉLK": 2834,
      "ďĉďĉďĉďĉďĉ%&'(ďĉďĉ": 2835,
      "(788888888,-%&+01001011": 2836,
      "(788888888,-%&+0100110011": 2837,
      "ďĉďďĉĉďďĉĉ": 2838,
      "!!!!!!!!!!!!!!!!!!!ďĉ!ďĉ": 2839,
      "ďĉďĉ!ďĉ!ďĉ!ďĉďĉ!!ďĉ!ďĉ!!": 2840,
      "ďēĉ": 2841,
      "%&'(ćĈ!ććďĉďĉ!!!!": 2842,
      "ć))": 2843,
      "ďćĈ!Ĉ": 2844,
      "ćć%Ĉ&'(!": 2845,
      "ĈĈ!!": 2846,
      "%&'(Ĉ": 2847,
      "Ĉ!ćĈ!Ĉ!ĈćĈĈćĈćĈĈĈćĈĈďĉ": 2848,
      "ďĉďĉďĉ!ďĉ!!!!!!!!!!!!!": 2849,
      "!!!%!!!!!!&'(!!!!!!!!!!!!!!!!": 2850,
      "ďĉďĉďĉ!!ćććďĉććććććĈ!ććČ": 2851,
      "ďĉďĉ%&'(ďĉ!ďĉ!ďĉ!!": 2852,
      "ďĉ!!!ďĉĈ!Ĉ!Ĉ!Ĉ!ĈćĈĈĈ!ĈĈĈ": 2853,
      "ďĉďĉďĉďĉďĉ%&ď'(ĉ": 2854,
      "ććć%Ĉ&'(!": 2855,
      "ďĉďĉďĉďĉ!!ďĉďĉďĉ": 2856,
      "ćććĈćĈćĈ!ĈćĈćĈćĈćććĈĈĈĈĈ": 2857,
      "ćććććĈ!Ĉ!Ĉ!ćĈĈćĈďĉďĉ%&'(": 2858,
      "ďĉ!ďĉďĉďĉďĉďĉďĉďĉćďĉ!": 2859,
      "Ĉ!ĈĈ!Ĉ!Ĉ!ĈććĈ!ćďĉ": 2860,
      "ď!!ď": 2861,
      "R%&'(TVa!!!SĂĄĆ": 2862,
      "%ć&'Ĉ(": 2863,
      "ć%&'(ďĉďĉćććććććĈ!Ĉ!Ĉ!ćĈ!Ĉ!": 2864,
      "ďĉ%&'(Ĉ!Ĉ!Ĉ!Ĉ!Ĉ!ĈĈĈ!ĈĈĈ": 2865,
      "ćďĉďĉ%&'(ďĉďĉććĈ!Ĉďĉ": 2866,
      "%K&'(": 2867,
      "!)!)!!!!!!!!!!!!!!!!": 2868,
      "ćĉ!": 2869,
      "ćď%ĉ&'(": 2870,
      "ć%&'ď(ĉ": 2871,
      "Ĉ!ć!": 2872,
      "ďĉĈ": 2873,
      "ďĉ%!!&'(": 2874,
      "%&'(Ĉ!Ĉ!Ĉ!ĈĈĈĈ!Ĉ!ĈĈ!Ĉ!Ĉ!ĈĈĈĈ": 2875,
      "ďĉ!ĉ": 2876,
      "ćĈĉ!": 2877,
      "ćĈ'(!": 2878,
      "!!!ďĉ!!!ćććĈćĈ!ćĈ!ĈĈ!Ĉ!": 2879,
      "Ĉ!Ĉ!Ĉ!Ĉ!Ĉ!ĈĈĈ!ĈĈ": 2880,
      "Ĉ!Ĉ%Ĉ&'(": 2881,
      "ďĉďĉ!%&'(!": 2882,
      "Ĉ!ĈĈ!!": 2883,
      "Ĉ!ĈĈĈ!Ĉ!": 2884,
      "ďĉ%&'(ďĉ!ďĉ": 2885,
      "ďĉ%&'(ćććććĈ!ĈĈćĈĈćĈ": 2886,
      "ďĉ!ďĉ!ććĈ!Ĉ!Ĉ!ććĈ!Ĉ!": 2887,
      "!%!!!!&'(!!!!!!!!!!!!!!!!": 2888,
      "ćĈćĈćĈćććĈĈĈĈĈ": 2889,
      "Ĉ&'(!": 2890,
      "ďĉ!ďĉďĉďĉďĉďĉćććć": 2891,
      "Ĉ!Ĉ!ĈĈĈ!ĈĈ": 2892,
      "ďĉďĉďĉďĉďĉ%&'ď(ĉ": 2893,
      "ď!ďĉĉ": 2894,
      "ďĉďĉďĉďĉďĉďĉďĉ!ďĉ%&'(ďĉďĉďĉ!!": 2895,
      "%&'(ďĉ!!ďĉ!!!!!!!!!!!": 2896,
      "%&'(ďĉ!!ďĉďĉďĉďĉďĉďĉďĉ)!": 2897,
      "Ĉ!ĈĈĈ!%&'(ďĉ!!!!!!!!!!!!!!!!": 2898,
      "ďĉĈ!Ĉ!Ĉ!Ĉ!Ĉ!ćĈĈĈ!ĈĈĈ": 2899,
      "Ĉ!ćĈ!Ĉ!Ĉ!Ĉ!Ĉ!!ďĉďĉ!ďĉ!!!!!!!!": 2900
    },
    "merges": [
      "! !",
      "!! !!",
      "!!!! !!!!",
      "Ĉ !",
      "ď ĉ",
      "!!!!!!!! !!!!!!!!",
      "ć ć",
      "ďĉ ďĉ",
      "Ĉ Ĉ",
      "Ĉ! Ĉ!",
      "' (",
      "& '(",
      "% &'(",
      "ć Ĉ!",
      "2 2",
      "ĈĈ ĈĈ",
      "ćć ćć",
      "ć Ĉ!Ĉ!",
      "ďĉďĉ ďĉďĉ",
      "ďĉ !",
      "ć Ĉ",
      "22 22",
      "%&'( %&'(",
      "!! !",
      "Ĉ!Ĉ! Ĉ!Ĉ!",
      "Ĉ! Ĉ",
      "ć ĈĈ",
      "ćć Ĉ!",
      "ďĉ !!",
      "ĈĈĈĈ ĈĈĈĈ",
      "ćĈ ćĈ",
      "M M",
      "!!!!!!!!!!!!!!!! !!!!!!!!",
      "ĈĈ Ĉ",
      "ćĈ! ćĈ!",
      "% &",
      "ďĉďĉ !",
      "ćććć ćććć",
      ") !",
      "%&'(%&'( %&'(%&'(",
      "&'( !!!!!!!!!!!!!!!!",
      "ďĉďĉ ďĉ",
      "Ĉ! ćĈ!Ĉ!",
      "2222 2222",
      "ćć Ĉ",
      "!!!!!!!!!!!!!!!! !!!!",
      "L L",
      ")! )",
      "ćĈ! Ĉ",
      "Ĉ!Ĉ! Ĉ",
      "ćć ćĈ!Ĉ!",
      "ďĉďĉ ďĉ!",
      "!!!!!!!!!!!!!!!!!!!!!!!! !!!!",
      "MM MM",
      "ďĉ !!!!!!!!",
      "ćĈ! ćĈ!Ĉ!",
      "ďĉďĉ !!",
      "0 1",
      "Ĉ! ĈĈĈ",
      "ćĈĈ Ĉ",
      "ďĉ !!!!!!!!!!!!!!!!",
      "ďĉďĉďĉďĉ ďĉďĉďĉďĉ",
      "Ĉ! ĈĈ",
      "ďĉ %&'(",
      "4 4",
      "5 5",
      "6 6",
      "8 8",
      "ďĉ !!!!",
      "ć ĈĈĈĈ",
      "ćć Ĉ!Ĉ!",
      "+ /",
      "+/ ,",
      "+/, '(",
      "ďĉ! ďĉ!",
      "! %",
      "!!!!!!!! !!!!",
      "%&'( ďĉ",
      "%&'( ĉ",
      "22222222 22222222",
      "%& -",
      "! L",
      "!!! %",
      "!L K",
      "ď %&'(ĉ",
      "!! %",
      "ć ďĉ!",
      "Ĉ! ĈĈĈĈ",
      "7 7",
      ")!) !!!!!!!!!!!!!!!!",
      "LL LL",
      "ĈĈĈĈĈĈĈĈ ĈĈĈĈĈĈĈĈ",
      "ďĉďĉ ďĉ!!",
      "ćĈ! ćć",
      "! &'(!!!!!!!!!!!!!!!!",
      "ďĉ ćććć",
      "ćĈćĈ ćĈ",
      "Ĉ!Ĉ!Ĉ!Ĉ! Ĉ!Ĉ!",
      "!! &'(!!!!!!!!!!!!!!!!",
      "Ĉ!Ĉ! ćĈ!Ĉ!",
      "ďĉďĉďĉďĉ !",
      "&'( ĉ",
      "MMMM MMMM",
      "Ĉ &'(",
      "ď &'(ĉ",
      "ćĈ! ććĈ",
      "ćĈ! ćĈ",
      "! &'(",
      "- %&",
      "% ď&'(ĉ",
      "% Ĉ&'(",
      "ďĉ! ďĉďĉďĉďĉ",
      "ć %&'(",
      "2 3",
      "!!! S",
      "ďĉďĉ %&'(",
      "ĉ ĉ",
      "!!! &'(!!!!!!!!!!!!!!!!",
      "ćĈćĈ ćĈćĈ",
      "ćć ćĈ",
      "Ĉ!Ĉ! Ĉ!",
      "%&- +/,'(",
      "Ĉ ćĈĈ",
      "ćććććććć ćććććććć",
      "'( 3",
      "!LK !LK",
      "ďĉ ćć",
      "Ĉ!Ĉ Ĉ!",
      "ď ď",
      "Ĉ!Ĉ! Ĉ!Ĉ",
      ") )",
      "+ 01",
      "ďĉďĉďĉ %&'(",
      "44 44",
      "55 55",
      "66 66",
      "88 88",
      "ćĈ!Ĉ! Ĉ!",
      "-%& +/,'(",
      "-%&+/,'( -%&+/,'(",
      "ćĈ! ć",
      "ďĉ !!!",
      "ćĈ!Ĉ! Ĉ",
      "ćĈ! ććĈ!",
      "ćććć Ĉ",
      "ćććć ććĈ!",
      "ćĈ!Ĉ! Ĉ!Ĉ!Ĉ!Ĉ!",
      "ďĉ ĉ",
      "ďĉďĉ !!!",
      "ćĈĈĈĈ Ĉ",
      "ćććć ćććĈ!Ĉ!",
      "2222 22",
      "ć ďĉ",
      "'( 7",
      "ćĈ! ĈĈĈ",
      "ďĉďĉďĉďĉ ďĉďĉ!",
      "Ą Ć",
      "Ă ĄĆ",
      "22 2",
      "4 %&",
      "5 222",
      "6 '(7",
      "ďĉ!! ďĉ!",
      "4%& 5222",
      "4%&5222 6'(7",
      "222222 4%&52226'(7",
      "8 ,",
      "ćć Ĉ!Ĉ!Ĉ!Ĉ!",
      "2222224%&52226'(7 8,",
      "%&- +01",
      "ďĉ!!!!!!!! !!!!",
      "ď ďĉĉ",
      "T V",
      "ćĈĈ ćĈĈ",
      "'(3 2222224%&52226'(78,",
      "TV a",
      "%&-+01 '(32222224%&52226'(78,",
      "Ĉ!Ĉ Ĉ!Ĉ",
      "%Ĉ&'( !",
      "ĈĈĈĈĈĈĈĈ ĈĈĈĈ",
      "ďĉďĉďĉďĉ ďĉďĉ",
      "ďĉ!!!! !!",
      "Ĉ!Ĉ! ĈĈ",
      "ććĈ! ć",
      "01 01",
      "%&-+/,'( %&-+/,'(",
      "ćĈ!Ĉ! Ĉ!ćĈ!Ĉ!",
      "ćć Ĉ!Ĉ",
      "ďĉ! ďĉ",
      "LLLL LLLL",
      "ďĉďĉďĉďĉ ďĉ",
      "Ĉ! ćĈ!",
      "Ĉ! ćć",
      "ďĉ!!!!!!!! !!!",
      "ćĈ!Ĉ! Ĉ!Ĉ!",
      "23 23",
      "!!!S ĂĄĆ",
      "Ĉ!Ĉ! Ĉ!ćĈ!Ĉ!",
      "ććĈ! ćć",
      "ćĈ!ćĈ! ćĈ!ćĈ!",
      "2222222222222222 22222222",
      "ď !",
      "R TVa",
      "!! &'(",
      "!!!!!!!!!!!!!!!!!!!! !",
      "ďĉ! ďĉ!!",
      "ćĈĈ ćĈ",
      "ćććć Ĉ!",
      "ďĉďĉ !!!!",
      "ćć ć",
      "!!! &'(",
      "MMMMMMMM MMMMMMMM",
      "# $",
      "ĈĈĈĈ ĈĈ",
      "ćĈ!ćĈ! Ĉ",
      "ćĈ! ĈĈ",
      "% ć",
      "ďĉ! ďĉďĉ",
      "ďĉďĉďĉďĉ ďĉďĉďĉ",
      "ćć ĈĈĈ",
      "ćĈ! ďĉ!",
      "ĈĈĈĈĈĈĈĈ Ĉ",
      "% ĉ",
      "ĈĈ Ĉ!ĈĈĈ",
      "ďĉďĉďĉďĉ ďĉďĉďĉ!",
      "%& '",
      "ćć Ĉ!Ĉ!Ĉ",
      "Ĉ!Ĉ ćĈ!Ĉ!",
      "ćććĈ!Ĉ! Ĉ!Ĉ!Ĉ!Ĉ!",
      "ď %ĉ",
      "77 77",
      "ĉ !",
      "ćććć Ĉ!ćĈ!Ĉ!",
      "% !&'(",
      ")!) !!",
      "%&'( !!!!!!!!!!!!!!!!",
      "ćĈ!ćĈ!Ĉ! Ĉ!",
      "01 1",
      "Ĉ!Ĉ!Ĉ !!",
      "ď%ĉ &'(",
      "ćĈĈ %&'(",
      ")!) !!!!!!!!",
      "ć ďĉďĉ",
      "ćć ĈĈ",
      "ďĉ!!!!!!!! !",
      "Ĉ! ćĈ!Ĉ",
      "ďĉďĉ ćććć",
      "ćĈ!ćĈ!Ĉ! Ĉ!ćĈ!Ĉ!",
      "ďĉďĉ! ďĉ!",
      "0 011",
      "RTVa !!!SĂĄĆ",
      "!!!!!!!!!!!!!!!!!!!! !!%",
      "ďĉďĉďĉďĉ ďĉ!!",
      "ďĉ!!!! !",
      "ćććĈ!Ĉ! Ĉ!Ĉ!",
      "ďĉďĉďĉďĉ ďĉ!",
      "!!!! R",
      "ď '(",
      "!!!! !",
      "!!!!!!!!!!!!!!!!!!!! !%",
      "!!!!!!!!!!!!!!!!!!!!!!!!!!!! !",
      "!! )!",
      "3 3",
      "ćĈĈĈĈ ĈĈ",
      "!!! ďĉ!",
      "Ĉ! ććĈ!Ĉ!",
      "ĈĈĈ Ĉ!",
      "!LK!LK !LK!LK",
      "!!!!!!!!!!!!!!!!!!!! %",
      "%& ď'(",
      "!!!!!!!!!!!!!!!!!!!!!!!! %",
      "ćĈĈĈ ćĈĈ",
      "!!!!!!!!!!!!!!!!!!!! !!!%",
      "!!! ďĉ!!!!!!!!!!!!!!!!",
      "ďĉďĉďĉ! ďĉďĉ!",
      "# .",
      "!! )!)!!!!!!!!!!!!!!!!",
      "Ĉ!ćĈ!Ĉ! Ĉ",
      "!!!!!!!!!!!!!!!!!!!!!!!! !%",
      "$ #$",
      "ď (",
      "ďĉ! %&'(",
      "ććĈ! ćĈ!ćĈ!",
      "#. .",
      "!!!!R !!!S",
      "Ĉ!ĈĈĈĈ ĈĈĈ",
      "!!!!!!!!!!!!!!!!!!!!!!!! !!",
      "ććĈ ćć",
      "ĈćĈĈ ćĈ",
      "ććĈ! ććĈ!",
      "$#$ !!)!",
      "!!!!!!!!!!!!!!!!!!!!!!!!!!!! %",
      "%&-+/,'( #..",
      "Ĉ!Ĉ! ĈĈĈ",
      "!!!!!!!!!!!!!!!!!!!!!!!! !!!%",
      "%&' ď(",
      "Ĉ!Ĉ!Ĉ Ĉ!Ĉ",
      "ćĈĈćĈĈ ćĈćĈćĈ",
      "Ĉ Ĉ!",
      "ĈĈ Ĉ!Ĉ!",
      "ćććĈ!Ĉ! Ĉ!",
      "ćĈ!ćĈ!ćĈ!ćĈ! ćĈ!Ĉ!",
      "ďĉďĉďĉďĉďĉďĉďĉďĉ !",
      "ĉĉ ĉĉ",
      "ĈĈĈĈ Ĉ",
      "%&'( ďĉ!",
      "Ĉ!ĈĈ ćĈ",
      "%&-+/,'(#.. $#$!!)!",
      "Ĉ!ĈćĈ!Ĉ! Ĉ!Ĉ",
      "!!!!!!!!!!!!!!!! !!!%",
      "ďĉ ććĈ!",
      "ćĈ!Ĉ! Ĉ!Ĉ!ćĈ!Ĉ!",
      "ďĉďĉďĉďĉ ďĉćććć",
      "Ĉ!Ĉ Ĉ!ĈĈĈ",
      "!!!!!!!!!!!!!!!! !%",
      "%&'( ďĉ!!",
      "ćććĈ!Ĉ! Ĉ!Ĉ",
      "!!!!!!!!!!!!!!!!!!!!!!!! !!%",
      "Ĉ!Ĉ!Ĉ!Ĉ! Ĉ!Ĉ!Ĉ!Ĉ!",
      "ćććććććć ćć",
      "%ć &'(",
      "ć ĉ",
      "%& 5555",
      "4444 4444",
      "5555 222222222222222222222222",
      "6666 6666",
      "8888 ,",
      "8888 8888,",
      "44444444 %&5555",
      "%&ď'( ĉ",
      "!!!!!!!!!!!!!!!! !!%",
      "ć ďĉďĉďĉ",
      "ďĉ! ďĉďĉ!!",
      "!!!!!!!!!!!!!!!!!!!!!!!! !",
      ") !!!!!!!!",
      "!!!! !!",
      "( 7",
      "(7 88888888,",
      "Ĉ! ććĈ!",
      "ćĈ Ĉ!",
      "%&'ď( ĉ",
      "ćć Ĉ!Ĉ!Ĉ!Ĉ!Ĉ!Ĉ!",
      "!!!!!!!!!!!! !!!",
      "% !",
      "ďĉďĉďĉďĉ %&'(",
      "2 44444444%&5555",
      "ďĉďĉďĉďĉ !!",
      "ćĈ! ćĈĈ",
      "(788888888, -%&",
      "ďĉ! ďĉďĉďĉ",
      "ć ĈĈĈĈĈĈĈĈ",
      "!!!!!!!!!!!!!!!! %",
      "ć !",
      "ćĈ ćĈĈ",
      "Ĉ!Ĉ! ćĈ!",
      "Ĉ!ĈĈĈĈ Ĉ",
      "%&'( ďĉďĉďĉ!",
      "Ĉ!Ĉ!Ĉ!Ĉ! ĈćĈĈ",
      "ćĈ! Č",
      "!!!!!!!!!!!!!!!! !!",
      "ćĈ ććĈ",
      "Ĉ Ĉ!Ĉ!Ĉ!Ĉ!",
      "Ĉ!ĈĈ Ĉ!",
      "ć ĈĈĈĈĈĈĈĈĈĈĈĈ",
      "ćĈ!ć Č",
      "L !LK",
      "ď%&'(ĉ !",
      "ĈĈĈĈĈĈĈĈ ĈĈĈ",
      ") ďĉďĉ!",
      "ćĈ!ćĈ! ćĈ",
      "ć ďĉďĉ!",
      "ćĈ!Ĉ Ĉ!Ĉ!",
      "' 7777",
      "ćĈ!Ĉ! ćĈ!Ĉ!",
      "%&'( ďĉďĉ",
      "ćĈ!Ĉ!Ĉ ćĈ!Ĉ!",
      "ćććć Ĉ!Ĉ!",
      "ćć ćĈĈ",
      "ć ďĉďĉďĉďĉ!",
      "!! Č",
      "ććććĈ ććĈ",
      "ćĈ Ĉ!Ĉ!Ĉ",
      "ćĈ!ćĈ! ćĈ!ćĈ",
      "ćĈćĈćĈćĈ ćĈćĈćĈćĈ",
      "ćĈ! ćĈćĈćĈ",
      ")!) !!!!!!!!!!!!",
      "ćĈĈĈĈĈĈĈĈ ććĈ",
      "ććĈ!ćć ćĈ!ćć",
      "LLLLLLLL LLLLLLLL",
      "ćĈ!ćĈ!Ĉ! ćĈĈ",
      "Ĉ!ĈĈĈ Ĉ!",
      "ććĈ ććĈ!",
      "ćĈ Ĉ!ćĈ!Ĉ!",
      "ććĈ! ććććĈ",
      "ĈĈĈ!ĈĈĈ ććĈ!",
      "&'( !",
      "ćććć Ĉ!ĈĈ",
      "ćĈĈĈ Ĉ!Ĉ",
      "ĈĈĈĈ ćĈĈĈĈ",
      "ĈĈĈĈĈĈĈĈĈĈĈĈĈĈĈĈ ĈĈĈĈ",
      "ćĈ ćĈĈĈĈ",
      "!!!!!!!! !",
      "ďĉ ď%&'(ĉ",
      "ďĉ!! ďĉďĉďĉďĉďĉďĉ!",
      "!! ďĉ!!!!!!",
      "ćć ćĈćĈ",
      "ćĈ!ćĈ! ćĈ!ćĈ!Ĉ!",
      "ćĈ!Ĉ ććĈĈĈ",
      "Ĉ!ĈĈĈĈ ĈĈ",
      "Ĉ ćĈ!Ĉ!",
      "ćĈćĈćĈćĈ ćĈĈćĈĈćĈćĈćĈ",
      "!!! )!)!!!!!!!!!!!!!!!!",
      "RTVa!!!SĂĄĆ !!!!R!!!S",
      "ćĈ!Ĉ Ĉ!Ĉ",
      "ćĈ!ććĈ ćĈ!ćĈ",
      "!! ćĈ!Ĉ!Ĉ!Ĉ!",
      "ćĈ!Ĉ! ććĈ!",
      "ććĈĈ ććĈćć",
      "Ĉ!ĈćĈ!Ĉ!Ĉ!Ĉ ćĈ!ćć",
      "!! ďĉďĉďĉďĉ",
      "ćććĈ!Ĉ! ćĈ!Ĉ!",
      "ĈĈĈĈĈĈ ćĈ!ććĈ",
      "ďĉ ćĈ!Ĉ!",
      "%&'( !",
      "ććĈ! ćĈ!ććĈ!",
      "Ĉ!Ĉ!Ĉ!Ĉ !!",
      "ĈĈĈĈĈĈĈĈĈĈĈĈ ĈĈ!Ĉ!Ĉ!Ĉ!",
      "ĈćĈĈćĈ ćĈĈĈćĈĈ",
      "ć ď",
      "ĈĈĈĈĈĈĈĈĈ Ĉ!ćĈ!Ĉ!",
      "ďď ďď",
      "ćĈ!Ĉ ćĈćĈćĈ",
      "ďĉ!! ďĉďĉ",
      "Ĉ!ĈĈ!ĈĈĈ Ĉ!ĈĈ!Ĉ",
      "ćĈ!Ĉ!Ĉ! ćĈĈćĈ",
      "Ĉ!Ĉ!Ĉ! ĈĈĈĈĈĈĈĈĈ",
      "ď! ĉ",
      "ććććććĈ! ćĈĈ%&'(",
      "Ĉ!ćĈ!Ĉ!Ĉ ćĈĈĈ",
      "% ćĈ",
      "ďĉďĉďĉďĉ ďĉ%&'(",
      "!!!!!!!!!!!!!!!!!!!! !!!",
      "ďĉďĉ! ďĉ%&'(",
      "ćććĈ!Ĉ!Ĉ!Ĉ! ĈĈĈĈĈĈĈĈĈĈ!ćĈ!Ĉ!",
      "Ĉ!ĈĈ Ĉ!ĈĈ!ĈĈĈĈ!ĈĈ!Ĉ",
      "ďĉ! ďĉďĉďĉďĉďĉďĉďĉďĉ",
      "!!!!!!!!!!!!!!!!!!!! !!",
      "ďĉ!!!!!!!!!!!!!!!! !!!",
      "!!!!!!!! !!!",
      "ďĉďĉ !!!!!!!!!!!!!!!!",
      "ďĉćććć ćć",
      "ćććććććććććććććć ćććććććć",
      "ćććć ćć",
      "(788888888,-%& +01",
      "& '",
      "ďĉ!! ďĉďĉ!!!",
      "ďĉ %ď&'(ĉ",
      "ďĉďĉďĉďĉ! ďĉďĉ",
      "ĥ Ĥ",
      "Ĉ!Ĉ!Ĉ Ĉ!Ĉ!Ĉ!Ĉ!",
      "ćććććććĈ!Ĉ! Ĉ!ćĈ!Ĉ!",
      "ďĉ!! ďĉďĉďĉ",
      "ďĉ ćććććććć",
      "%&'( ďĉďĉ!",
      "Ĉ!Ĉ ćĈ!",
      "Ĉ !!",
      "!!!!!!!! &'(!!!!!!!!!!!!!!!!",
      "%&'( ďĉ!!!!!!!!!!!!!!!!",
      "! ďĉ",
      "Ē !!",
      "ďĉďĉďĉďĉďĉďĉďĉ! ďĉ!",
      "ďĉ Ĉ!ĈĈĈĈĈĈĈ",
      "ďĉďĉ! ďĉ",
      "Ĉ (",
      "Ĉ! ĉ",
      "ďĉ Ĉ!Ĉ!Ĉ!Ĉ!",
      "Ė Ė",
      "%&'(ďĉ Ĉ!Ĉ!Ĉ!Ĉ!",
      "ć ďĉ%&'(",
      ")!!!!!!!! )!",
      "Ĉ Ĉ!Ĉ",
      "ďĉďĉďĉ!! ďĉ!",
      "ćć ćĈ!",
      "Ĉ '(",
      "ďĉ ďďĉĉ",
      "!!!!!!!!!!!!!!!! !!!",
      "ďĉďĉ!! ďĉďĉďĉďĉ",
      "3 22",
      "ćĈĈĈĈĈ ćĈĈĈĈĈ",
      "! ďĉ!",
      "ććĈ!Ĉ! Ĉ!Ĉ",
      "ćććĈ!Ĉ!Ĉ!Ĉ!Ĉ!Ĉ! ćććć",
      "Ĉ!Ĉ! ćĈ!Ĉ",
      "ćććććććć ćććć",
      "01 '(3",
      "ďĉďĉďĉďĉďĉ )!)",
      "!!!! !!&'(!!!!!!!!!!!!!!!!",
      "23 2222222222222222",
      "ďĉ%&'( ďĉďĉ",
      "%&'( ďĉďĉďĉ",
      "ďĉďĉďĉ! ďĉ!ďĉ!",
      "ćććć ćĈ!Ĉ!Ĉ!ćĈĈćĈ",
      "ďĉďĉďĉ!! ďĉďĉ",
      "!LK!LK!LK!LK !LK!LK!LK!LK",
      "ćĈ!Ĉ Ĉ!ĈĈĈ",
      "A A",
      ")! )!",
      "!!!!!!!! !!&'(!!!!!!!!!!!!!!!!",
      "!!!! &'(!!!!!!!!!!!!!!!!",
      "!!!! !!!&'(!!!!!!!!!!!!!!!!",
      "Ĉ!Ĉ!Ĉ Ĉ!Ĉ!",
      "Ĉ!Ĉ Ĉ!Ĉ!Ĉ!Ĉ!",
      "ďĉďĉďĉďĉďĉďĉďĉďĉ ďĉďĉ",
      "ďĉďĉďĉ!! ďĉ!!!!",
      "ďĉďĉ!ďĉ! ďĉďĉďĉ!",
      "%&'(ďĉ ćć",
      "!!!! !!!",
      "ďĉďĉ!! ďĉ",
      "ďĉďĉďĉďĉ ďĉďĉ%&'(",
      "3 2323",
      "ć (",
      "Ĉ!Ĉ!Ĉ Ĉ!",
      "ďĉćć ć",
      "!!!!!!!! !!",
      "ďĉ ď",
      "ćĈ!ćĈ!Ĉ! ĈćĈ!Ĉ!",
      "ćććććććĈ!Ĉ! ććććććĈ!ćĈĈ%&'(",
      "Ĉ!ĈĈĈ!ĈĈ!ĈĈĈĈ!ĈĈ!Ĉ ďĉĈ!ĈĈĈĈĈĈĈ",
      "ćĈ! ĈĈĈĈ",
      "ďĉďĉ!! ďĉ!!!!",
      "!! Ĉ!",
      "Ĉ!Ĉ!Ĉ!Ĉ!ĈćĈĈ Ĉ!ĈĈĈ",
      "ćć ćĈ!ćć",
      "Ĉ!ĈĈ Ĉ!Ĉ!Ĉ",
      "!!!! !&'(!!!!!!!!!!!!!!!!",
      "ďĉ!! ďĉ!!!!!!!!",
      "ďĉďĉ! ďĉďĉćććć",
      "ććććĈ ćĈ",
      "!!!!!!!!!!!!!!!!!!!!!!!! !!!",
      "%ď&'(ĉ !",
      "%&'( ďĉďĉďĉďĉďĉďĉďĉďĉ",
      "ććĈ!Ĉ! Ĉ!ćĈ!",
      "77 7",
      "ďĉ!ďĉďĉďĉďĉ ďĉďĉďĉ",
      "ďĉ!!!!! ďĉ!",
      "ćĈ!Ĉ! Ĉ!Ĉ!Ĉ!",
      "ďĉďĉ! ďĉ!!",
      "Ĉ!ćĈ!Ĉ! Ĉ!ćĈ!Ĉ!",
      "!!!! !!!&'(",
      "ććĈ!Ĉ!Ĉ!Ĉ!Ĉ!Ĉ! ćĈ",
      "ć !!",
      "Č ďĉ",
      "ććććććĈ! ćĈĈ",
      "Ĉ!Ĉ! Ĉ!ĈĈĈ",
      "ďĉ ))",
      "ćĈĈĈ ćĈ",
      "Č ďĉďĉ",
      "ć%&'( ďĉ!",
      "%! Ĉ&'(",
      "ćććć ććĈććĈ!",
      "ćć Ĉ!ĈĈ!",
      "ĈćĈĈćĈćĈĈĈćĈĈ ďĉ",
      "ďĉďĉ )",
      "ćĈ!Ĉ! ĈĈ",
      "ćĈ!Ĉ!Ĉ ćĈ!",
      "Ĉ!ćć ĈĈ",
      "Ĉ( !",
      "Ĉ!Ĉ Ĉ!Ĉ!",
      "ć %&'(ďĉ",
      "% !!!&'(",
      "%&'(%&'( %&'(",
      "ćĈćĈ ćĈ!Ĉ!",
      "ĈĈĈĈ Ĉ!",
      "ćććĈ ćć",
      "Ĉ!Ĉ!Ĉ!Ĉ! ĈĈĈĈ",
      "ćććććććć ććććĈ!",
      "ććĈ!ć ďĉďĉďĉďĉďĉďĉďĉďĉ",
      "ďĉ Ĉ!",
      "Ĉ!ćĈ!Ĉ! Ĉ!Ĉ!Ĉ!!",
      "0 0011",
      "Ĉ!Ĉ!Ĉ!Ĉ! Ĉ!Ĉ!Ĉ",
      "ďĉďĉ!! ďĉ!ďĉ!!",
      "Ĉ!ćĈ!Ĉ ćĈ",
      "ć %Ĉ&'(!",
      "Ĉ!Ĉ Ĉ!Ĉ!Ĉ!Ĉ",
      "ćĈ!Ĉ ćĈ",
      ") ďĉďĉďĉ",
      "Ĉ!Ĉ! ćĈĈ",
      "ćĈ!ćĈ! ćďĉďĉďĉďĉ!",
      "Č Č",
      "ćĈ!Ĉ ćĈ!Ĉ!",
      "ćĈ ćĈ!ćĈ",
      "ďĉďĉďĉ!! )!)",
      "ćĈ!Ĉ! ćĈ",
      "ďĉ!! ďĉ!!!!!!!!!!!",
      ") !!!!!!!!!!!!!!!!",
      "ćĈ!ćĈ! ćĈ!Ĉ!",
      "ďĉďĉďĉďĉďĉďĉ! ďĉďĉ!",
      "Ĉ'( !",
      "Ĉ! ďĉďĉ",
      "Ĉ!ĈĈ Ĉ!ĈĈ",
      "ććĈ!Ĉ!Ĉ!Ĉ! Ĉ",
      "Č ďĉ!",
      "ďĉ!!! ćććć",
      "ććĈ!Ĉ!Ĉ!Ĉ! Ĉ!",
      "!!!! ďĉ!!",
      "Ĉ! %&'(ďĉďĉďĉ!",
      "ćĈĈĈ ććĈ",
      "ćĈĈĈĈĈ ćĈ",
      "%ćĈ &'(!",
      "%&'( ďĉ!ďĉďĉďĉďĉ",
      "Ĉ! ćĈ!ćĈ!Ĉ",
      "ćĈ!Ĉ ććĈ",
      "!! ćććć",
      "ćĈ ććć",
      "Ĉ!Ĉ ććĈ",
      ")!)!!!!!!!!!!!! !!",
      "! ććććĈ!ĈĈ",
      "Ē !",
      "Ĉ!Ĉ! ĈĈĈĈĈĈ",
      "ćĈ! ćĈĈĈ",
      "Ĉ!Ĉ!Ĉ!Ĉ Ĉ!Ĉ",
      "%&'( ďĉďĉ!!!!",
      "ďĉ!!! ďĉ!",
      "ďĉďĉ! ďĉćććć",
      "ćĈĈ ććĈĈĈ",
      "ćĈćĈ ćĈćĈćĈ",
      "ćĈĈĈ ććĈĈĈ",
      "ćććĈ ććĈ",
      "ĈĈĈĈĈĈĈĈ Ĉ!",
      "ćććĈ!Ĉ! ćĈ!",
      "ďĉćććć Ĉ!ćĈ!ćĈ!Ĉ",
      "ďĉćć ćĈ!ćĈ!ćĈ!ćĈ!",
      "ćĈ!ćĈ!Ĉ Ĉ!Ĉ!",
      "Ĉ!ććĈ!Ĉ! Čďĉ",
      "ćĈ!ćĈ!ćĈ!ćĈ ćĈ!ćĈ!Ĉ!",
      "ćĈ!ćĈćĈćĈ ďĉďĉ!",
      "ććĈ!Ĉ!Ĉ!Ĉ!Ĉ! ďĉďĉ!ďĉćććć",
      "ďĉććććĈ!ćĈ!ćĈ!Ĉ Ĉ!ććĈ!Ĉ!Čďĉ",
      "Ĉ!ĈĈĈ ćĈ!ćĈĈĈ",
      "Ĉ!Ĉ!Ĉ!Ĉ!ĈćĈĈ ćĈĈĈĈĈ",
      "ćĈ!ćĈ!ćĈ!ćĈćĈ!ćĈ!Ĉ! ććĈ!ĈĈ!",
      "ćĈ!ćĈćĈćĈďĉďĉ! ćććććććĈ!Ĉ!",
      "ćĈ!Ĉ! ĈĈĈĈĈĈ",
      "Ĉ!ćĈ!Ĉ! ĈĈĈ!ĈĈĈććĈ!",
      "ććĈ ćĈćĈćĈ",
      "ćďĉ! ďĉćććĈ!ćĈ!ćĈ!ćĈ!",
      "ĈĈĈĈĈĈĈĈĈĈĈĈĈĈĈĈ ĈĈĈĈĈĈĈĈĈĈĈ",
      "ćĈ!ćć ćĈ!ćć",
      "Ĉ!ĈĈ! ććĈ!Ĉ!Ĉ",
      "ćĈ!ććĈ! ćĈ!ććĈ!",
      "ďĉďĉďĉďĉďĉćććć Ĉ!ćĈ!ĈćĈ",
      "ĈĈ ćĈćĈćĈ!Ĉ!",
      "Ĉ!Ĉ! ĈĈĈĈ",
      "ćĈ!ćĈ! ććĈ!Ĉ!",
      "ćĈ!ćĈ! ćĈ!Ĉ!Ĉ!",
      "ććĈ!Ĉ! ĈĈĈ!Ĉ!",
      "ĈĈĈĈĈĈĈĈĈĈĈĈĈĈĈĈ ĈĈĈĈĈĈĈĈ",
      "ććĈ!Ĉ!Ĉ ćĈĈĈććĈĈĈ",
      "ćĈ!Ĉ!ććĈ! ĈĈćĈćĈćĈ!Ĉ!",
      "ćććććć ćĈ!ćĈ!Ĉ!",
      "ćĈĈĈĈĈćĈĈĈĈĈ ćĈ!ĈĈĈ",
      "Ĉ!Ĉ!ĈĈĈĈĈĈ ćĈ!ĈĈĈ",
      "ććĈ!Ĉ!ĈĈĈ!Ĉ! Ĉ!ĈĈćĈ",
      "ćĈ!Ĉ!ććĈ!ĈĈćĈćĈćĈ!Ĉ! ĈćĈĈ",
      "ďĉďĉ! ďĉďĉ%&'(",
      "ććĈ!ćĈ!ćĈ! ćĈ!ćĈćĈćĈ",
      "ćĈĈ!Ĉ!Ĉ ćĈ!Ĉ!ĈĈĈĈĈĈ",
      "ćĈĈĈ ććĈ!Ĉ!",
      "ĈĈĈĈĈĈĈĈĈĈĈĈĈĈĈĈ ĈĈ!",
      "ćĈ!ĈĈĈ Ĉ!ĈĈ!Ĉ",
      "ććĈ!ćć Ĉ!ĈĈ!ććĈ!Ĉ!Ĉ",
      "Ĉ!ććĈ! ćĈ!Ĉ",
      "ćĈ! ćććĈ!Ĉ!Ĉ!",
      "ćĈ!Ĉ! ćĈĈ",
      "ďĉďĉ! ďĉďĉ",
      "Ĉ!ćć ćĈ!ććĈ!",
      "ććććĈ! ććĈ!ć",
      "ćĈ!ćĈ!Ĉ!Ĉ! ćĈ!ćĈ!Ĉ!ćĈĈ",
      "ććĈĈ ćĈĈĈ",
      "ĈĈĈĈĈĈĈĈĈĈĈĈĈĈĈĈĈĈĈĈ ĈĈĈ",
      "ďĉ!!!!!ďĉ! )!)!!!!!!!!!!!!!!",
      "ćććĈćć ćĈĈćĈ",
      "ććĈćĈćĈćĈ ćĈ!",
      "ćććććććĈ!ćĈ!Ĉ! Ĉ!Ĉ!Ĉ!ćĈ!Ĉ!",
      "ćĈĈ!Ĉ!ĈćĈ!Ĉ!ĈĈĈĈĈĈ ććĈ!ć",
      "!!!!!!!! !&'(!!!!!!!!!!!!!!!!",
      "ćĈ!Ĉ !!Ĉ!",
      "ćććĈ Ĉ!Ĉ!",
      "Ĉ!Ĉ!Ĉ! ćĈĈĈććĈ",
      "ćĈ!ĈĈĈ ćć",
      "ē ē",
      "ćĈ! ććććććĈ!",
      "ćĈ!Ĉ! Ĉ!Ĉ!Ĉ!Ĉ!Ĉ!Ĉ!",
      "Ĉ!Ĉ!Ĉ!Ĉ! ĈĈĈĈĈĈĈĈĈ!",
      "ćĈ!ćĈ! ććĈ",
      "ďĉ!!!!!!!! ďĉ!!!!!",
      "Ĉ!ćĈ! ćĈĈĈĈ!Ĉ",
      "ćĈ!ćĈ!Ĉ Ĉ!ćĈ!Ĉ!ĈĈĈ!ĈĈĈććĈ!",
      "ĈĈĈĈ! ććĈ",
      "Ĉ!%&'(ďĉďĉďĉ! ))",
      "Ĉ!ćććĈ!ććĈ! ćĈ!ĈĈĈćć",
      ") !!!!!!!!!!!!!!!",
      "Ĉ!Ĉ!Ĉ!Ĉ!Ĉ!Ĉ! ĈĈĈ!Ĉ!",
      "ďĉ!!! ćććĈ",
      "Ĉ!Ĉ!Ĉ!ćĈ!Ĉ! ćĈ!ćĈ!ćĈ!ćĈ!ćĈ!Ĉ!",
      "Ĉ!ĈĈĈ! ĈĈĈĈĈĈĈĈĈĈĈĈĈĈĈĈĈĈ!",
      "!!Č !!Č",
      "ććććĈćĈ ććĈ!",
      "Ĉ!ĈĈĈ Ĉ!Ĉ",
      "!% !!!!!!!!!!!!!!!!",
      "ďĉćć ĈĈĈĈĈ",
      "ďĉ!!ďĉ! ććĈ!",
      "Ĉ!ćć Ĉ!Ĉ!Ĉ",
      "ććĈ!ćććĈ!ćć ćĈ!ćććĈ!Ĉ!Ĉ!",
      "ďĉ!!ďĉ!!!!!!!! )!!!!!!!!)!",
      "ćĈĈĈććĈ!Ĉ! ććĈ!ćć",
      "ćććć Ĉ!Ĉ!Ĉ!Ĉ!",
      "Ĉ!Ĉ ćć",
      "ćĈćĈ ćĈĈĈćĈ",
      "ćććĈ!Ĉ! Ĉ",
      "%&'( TVa",
      "ćĈ!Ĉ! ććĈ",
      "ćĈ ćĈ!ććĈ",
      "ćĈ Ĉ!ćć",
      "ćĈ!Ĉ ćĈ!ćĈ!ĈĈ!ćĈ!Ĉ!ĈĈĈ!ĈĈĈććĈ!",
      "Ĉ!ĈĈ Ĉ!ĈĈĈĈ",
      "ďĉ%&'( !",
      "ćĈćĈĈ Ĉ!Ĉ",
      "Ĉ!ĈĈĈĈ! ĈĈĈĈĈĈĈĈ",
      "ćĈćĈĈĈĈ ĈĈĈ",
      "ćĈ!ććććććĈ! ćĈ!ććĈ",
      "ćĈĈ Ĉ!Ĉ!ćĈ!Ĉ!",
      "ćĈ!ćĈ !!",
      "ďĉ!ďĉďĉďĉďĉ ďĉ!",
      "ćććĈ ććććĈććĈ",
      "ćĈĈćĈĈ ćĈĈĈĈĈćĈ",
      "ćĈ!ćĈ!ćĈ!ćĈ!ćĈ!Ĉ! ćĈ!ćĈ!Ĉ!ćĈĈ",
      "Ĉ!Ĉ!Ĉ!Ĉ!Ĉ!Ĉ!Ĉ!Ĉ! Ĉ!Ĉ!Ĉ!Ĉ!",
      "ĈĈ!Ĉ ććĈ!Ĉ!Ĉ",
      "Ĉ!Ĉ!ĈĈ!Ĉ! Ĉ!ĈĈĈĈ",
      "Čďĉďĉ ććĈ!ćĈ!ćĈ!ćĈ!ćĈćĈćĈ",
      "Ĉ!ććĈĈ ććĈ!",
      "!! ďĉ!!!!!!!!!!!!!!!!!!!",
      "ďĉďĉďĉďĉ ďĉďĉ!!!",
      "ćĈ!Ĉ ććĈ!Ĉ",
      "Ĉ!Ĉ!Ĉ Ĉ!Ĉ!ĈĈĈ",
      "Ĉ!Ĉ!Ĉ Ĉ!Ĉ!ĈĈ!Ĉ",
      "Ĉ!ĈĈĈ Ĉ!ĈĈĈĈ",
      "ććććĈ! ćććĈććĈ",
      "ćĈ!ćĈ!ćĈ!Ĉ! ććććĈ!ććĈ!ć",
      "ćććĈćććĈĈćĈ ćĈ!Ĉ!",
      "ćĈ!Ĉ!!Ĉ! ćĈ!ćĈ!ććĈ!Ĉ!",
      "Ĉ!Ĉ!Ĉ!Ĉ!ĈĈĈĈĈĈĈĈĈ! Čďĉ!",
      "Ĉ!Ĉ Ĉ!Ĉ!ćĈ!",
      "ćĈ!ĈĈĈ !!ćććć",
      "ććĈ!Ĉ!Ĉ!Ĉ! Ĉ!ĈĈ!",
      "ććĈ!Ĉ ććććĈ",
      "ćĈĈĈćĈĈ ćććć",
      "ćććĈ!Ĉ!Ĉ! ććĈ",
      "ćĈ Ĉ!Ĉ!Ĉ!Ĉ!",
      "Ĉ!ćĈ!Ĉ! Ĉ!Ĉ!Ĉ!Ĉ!",
      "ćĈ!Ĉ ćĈ!ććĈ",
      "Ĉ!Ĉ!ćĈ!Ĉ! ĈĈĈ",
      "ćĈĈćĈĈ ćĈ!ćććĈ!ćć",
      "Ĉ!ććĈ! ćĈ!ććĈ",
      "ćĈ!ĈĈ!Ĉ! ďĉ!ďĉ!",
      "ćĈćĈćĈćĈćĈćĈćĈćĈ ćĈćĈćĈćĈ",
      "Ĉ!ĈĈĈĈ!Ĉ Ĉ!ĈĈĈĈ",
      "ćĈĈĈ Ĉ!Ĉ!ćĈ!Ĉ!",
      "ćĈĈĈ Ĉ!Ĉ!ćĈ!",
      "ćĈĈĈ ćĈ!ĈĈĈĈ",
      "ćĈćĈćĈ ćĈĈĈ",
      "ćĈćĈćĈ ććććĈ!Ĉ!",
      "ćĈ!ĈĈ ćĈ!ćĈ!Ĉ!Ĉ!ćĈ!ćĈ!Ĉ!ćĈĈ",
      "ććĈ!ćĈ!ćĈ! ĈćĈĈ",
      "ćĈĈćĈĈćĈćĈćĈ ććĈćĈćĈćĈćĈ!",
      "ćĈ ććĈ!ćĈ!ćĈ!ĈćĈĈ",
      "ćĈćĈ ćĈ!Ĉ",
      "ććĈ!Ĉ! Ĉ!ććĈ!Ĉ!",
      "Ĉ!Ĉ!Ĉ!ćĈ!Ĉ! ćĈ!ćĈ!ćĈ!ćĈ!",
      "Ĉ!Ĉ!ĈĈ!Ĉ Ĉ!Ĉ!ĈĈ",
      "ććĈ!ćććĈ!ćć ćĈ",
      "ćććĈ!Ĉ!ćĈ!Ĉ! ĈĈĈĈ!ććĈ",
      "ćććĈććććĈććĈ ććććĈććĈ",
      "Ĉ!ĈĈ Ĉ!Ĉ!Ĉ!Ĉ!Ĉ!Ĉ!Ĉ!Ĉ!Ĉ!Ĉ!Ĉ!Ĉ!",
      "ćĈćĈćĈćĈ ćĈćĈćĈćĈćĈ",
      "ććĈ!Ĉ ććĈ!Ĉ!",
      "Ĉ!ĈĈĈĈĈĈĈ Ĉ!ĈĈĈĈĈ",
      "ĈĈĈĈĈ ćĈćĈ",
      "ćććĈ!Ĉ! ćććĈĈ",
      "ćĈ!ćć ćĈ!ććĈ",
      "Ĉ!Ĉ!ĈĈ ćĈ!Ĉ!",
      "ďĉďĉďĉďĉďĉ!! ďĉ!!!!",
      "Ĉ!ĈĈĈĈĈĈ Ĉ!Ĉ!Ĉ!ĈĈ!Ĉ",
      "ďĉ!! )ďĉďĉ!",
      "ćĈĈĈĈ ĈćĈĈćĈ",
      "!&'( ďĉ))",
      "Ĉ!ĈĈ!Ĉ Ĉ!ĈĈĈ!ĈĈĈĈ",
      "ćĈ!Ĉ!Ĉ!Ĉ! ćĈ!ćć",
      ")!)!!!!!!!! !!ďĉ!!!!!!",
      "ďĉďĉďĉďĉďĉ!! ďĉ!ďĉ!",
      "ĈĈĈĈĈĈĈĈĈĈĈ Ĉ!Ĉ!",
      "ćĈććć !!",
      "ćć ćĈĈĈĈĈ",
      "Ĉ!Ĉ!Ĉ Ĉ!Ĉ!Ĉ!!",
      "ćĈ!ćĈ!Ĉ! ćĈ!Ĉ",
      "ććĈ!Ĉ!Ĉ!Ĉ! ćĈĈĈ!Ĉ!ćĈ!Ĉ!",
      "ććććĈ! ććĈ!ćććĈ!ćććĈ",
      "ćĈ!ĈĈ Ĉ!ĈĈ",
      "ćĈ!ĈĈ ćĈĈćĈ",
      "ćććĈ!Ĉ!Ĉ!Ĉ Ĉ!Ĉ!ćĈ!Ĉ!",
      "Ĉ!ĈĈĈĈĈ Ĉ!Ĉ!Ĉ",
      "ćĈććĈ Ĉ!ĈĈĈ",
      "ĈĈĈĈćĈĈĈĈ ćĈĈĈĈĈĈĈĈććĈ",
      "ćććĈĈ!Ĉ! ćĈ!ććĈćĈ!ćĈ",
      "ććĈ! ćĈ!Ĉ!Ĉ!ćĈ!Ĉ!",
      "ććĈ!Ĉ! ĈĈĈ",
      "Ĉ!Ĉ!ćĈ!Ĉ! Ĉ!Ĉ!ćĈ!Ĉ!",
      "ćĈ!ććĈ ććĈ",
      "ćĈ!Ĉ!Ĉ!Ĉ!Ĉ!Ĉ! ĈĈ",
      "ćĈ!Ĉ!Ĉ!Ĉ!Ĉ!Ĉ! Ĉ!ćĈ!",
      "ćĈ!ĈĈĈ ćĈćĈćĈĈĈćĈ",
      "Ĉ!ćĈ! ĈĈĈĈ",
      "ćĈ!ĈĈ ćĈ!ćĈĈ",
      "ćććććććććć ćĈ!Ĉ",
      ")!!!!!!!! )",
      "ćĈ!ćĈ!ćĈ ćĈ!ćĈ!ćĈ",
      "Ĉ!ćĈ!Ĉ!ĈćĈĈĈ ćĈĈĈćĈĈćććć",
      "00011 1",
      "ććććĈćĈććĈ! ćĈ!Ĉ!Ĉ!Ĉ!ćĈ!Ĉ!",
      "!!!!!!!! !!!ďĉ!!!!!!!!!!!!!!!!",
      "ďĉďĉ Ĉ!ĈĈ",
      "ćĈĈĈ ćĈ!ĈććĈĈĈ",
      "Ĉ!Ĉ!Ĉ!Ĉ!Ĉ!Ĉ! Ĉ!ĈĈ!",
      "0101 0101",
      ")!)!!!!!!!! !ććććĈ!ĈĈ",
      "ďĉćĈ!Ĉ! ććĈ!ććĈ!ĈĈ!ććĈ!Ĉ!Ĉ",
      "Ĉ!Ĉ!ćĈ!Ĉ Ĉ!ććĈ!ćĈ!ććĈ",
      "ďĉ!!!ćććĈ ćĈ!ćĈ!ĈĈ!Ĉ!",
      "ćĈĈĈĈĈĈ ćĈĈĈĈ",
      "Ĉ!ććĈ!ćĈ!Ĉ Ĉ!ćĈ!Ĉ!",
      "!!!!!!!!!!!!!!!! !",
      "Ĉ!Ĉ! Ĉ!ĈĈĈĈĈĈĈĈ!ĈĈĈĈĈ",
      "ćććććććĈ!Ĉ! Ĉ!ććĈĈććĈ!",
      "ććĈ!Ĉ Ĉ!ĈĈĈĈ!ĈĈ!ĈĈĈĈ",
      "ćććĈ!Ĉ!Ĉ!Ĉ!Ĉ!Ĉ! ĈĈĈĈĈĈĈĈĈĈĈĈ",
      "ććĈ!ććććĈ ćĈćĈćĈććććĈ!Ĉ!",
      "ćććĈćććĈĈćĈćĈ!Ĉ! ćĈ!ĈćĈćĈćĈ",
      "ćĈ!ćććĈ!ććĈ ćĈ!ććĈ",
      "Ĉ!Ĉ! ĈĈĈĈĈĈĈĈĈĈĈĈĈĈĈĈĈĈĈĈĈĈĈĈ",
      "ćĈ Ĉ!Ĉ!ĈĈĈ",
      "Ĉ!ĈĈ!Ĉ!Ĉ!Ĉ! ĈĈ",
      "ććĈĈćĈĈĈ ććĈĈććĈćć",
      "ćĈ!Ĉ!ććĈ ćĈ!",
      "Ĉ!Ĉ!ĈĈ!Ĉ!ĈĈĈ Ĉ!Ĉ!ĈĈ!Ĉ!Ĉ!!",
      "Ĉ!Ĉ!ĈĈ!ĈĈ!Ĉ!ĈĈ Ĉ!ĈĈĈĈ!ĈĈĈĈ",
      "ďĉďĉďĉďĉ Ĉ!ĈĈĈćĈ!ćĈĈĈ",
      "ďĉďĉ!! ćććĈ!Ĉ!ćĈ!Ĉ!ĈĈĈĈ!ććĈ",
      "Ĉ!Ĉ!ĈĈĈ Ĉ!Ĉ!Ĉ!ĈĈĈĈĈĈĈĈĈ",
      "ćĈ!Ĉ!ćĈ!Ĉ! ćĈ!Ĉ!Ĉ!Ĉ!Ĉ!",
      "Ĉ!ĈĈĈĈ! ĈĈĈĈĈĈĈĈĈĈĈĈ!Ĉ!",
      "ććĈ!Ĉ!Ĉ!Ĉ!Ĉ!Ĉ!ćĈ Ĉ!Ĉ!Ĉ!ćĈĈĈććĈ",
      "ćĈćĈĈĈ!Ĉ ćĈĈĈĈĈĈĈĈććĈ",
      "ď ćĉ",
      "!!!! !&'(",
      "%&'(ďĉ !!!",
      "ćĈĈĈĈĈĈĈĈĈĈĈĈ Ĉ!ćĈ!ćĈĈĈĈ!Ĉ",
      "ďĉďĉďĉ!!ďĉďĉ ćĈ!Č",
      "ćĈ!Ĉ!ĈĈ ćĈ",
      "Ĉ!Ĉ!Ĉ!Ĉ!Ĉ!Ĉ!Ĉ Ĉ!ĈĈ!ĈĈ!ĈĈĈ!ĈĈĈĈ",
      "ćĈĈććĈĈĈ ćĈ!ĈćĈ!ććĈ",
      "ćĈĈĈĈ!Ĉ!ćĈ!Ĉ! ćĈĈĈćĈ!ĈĈĈĈ",
      "ćĈ!Ĉ! Ĉ!Ĉ!Ĉ!Ĉ",
      "ćĈ!ćĈ! ćĈ!ĈĈ!Ĉ!",
      "ďĉďĉďĉ! ďĉ",
      "ćĈ!ćĈ!Ĉ! ććĈ!ĈććĈ!Ĉ!",
      "ćĈĈĈĈĈćĈĈĈĈĈćĈ!ĈĈĈ ćĈ",
      "ĈĈ!ĈććĈ!Ĉ!Ĉ Ĉ!ĈĈ!Ĉ!ćĈ!",
      "ćĈ!ĈććĈ!Ĉ ćĈćĈćĈ!Ĉ",
      "ćććĈ!Ĉ!ćććĈĈ ćĈ!ĈĈĈ!!ćććć",
      "ďĉ!ďĉ! ďĉ!ďĉ!",
      "ćĈ!ćĈ!ćĈ!ćĈ!Ĉ! Ĉ!Ĉ",
      "Ĉ!ďĉďĉ ćĈ!ďĉ!",
      "ćĈ!ĈććĈ Ĉ!Ĉ!ĈĈ",
      "ćĈćĈćĈćĈĈĈ ćĈĈĈĈĈĈ",
      "ćććĈ!Ĉ! Ĉ!ćĈ!Ĉ!Ĉ",
      "Ĉ!Ĉ!Ĉ!Ĉ!Ĉ!Ĉ! ĈĈĈ",
      "Ĉ!Ĉ!ĈĈ Ĉ!Ĉ!Ĉ!Ĉ!ĈĈĈĈ",
      "ććĈ!ć ďĉďĉďĉďĉ",
      "ććĈ!ćĈ!ćĈ! ć",
      "ćĈĈ!ćĈ!Ĉ! ĈĈĈĈćĈĈĈĈ",
      "ćĈ!ćĈ!ććĈ ćĈ!Ĉ!Ĉ!Ĉ!ćĈ!ćć",
      "ćĈ!ćĈ!Ĉ!ćĈ!Ĉ ćĈ!ĈĈ!Ĉ",
      "ćĈ!ćĈ!ćĈćĈ!ćĈ!ćĈ ćĈ!ćĈ",
      "Ĉ!Ĉ!Ĉ!Ĉ! Ĉ!ćĈ!ĈĈĈĈ",
      "ćĈ!ćć ĈĈĈĈĈćĈćĈ",
      "Ĉ!Ĉ!Ĉ! ćĈ!ćĈ",
      "ććććććĈ! ćććĈ!ćć",
      "ććĈ!Ĉ!Ĉ!Ĉ! ćććĈ!Ĉ!Ĉ!ććĈ",
      "ďĉććĈ! ĈĈĈĈĈ!",
      "ćĈćĈĈĈĈ ĈćĈĈ",
      "Ĉ!Ĉ!Ĉ!Ĉ!Ĉ!Ĉ!ĈĈĈ!Ĉ! ĈĈĈĈ",
      "ćĈĈ!Ĉ!Ĉ!Ĉ! ćĈćĈĈ",
      "Ĉ!ĈĈĈĈĈĈ!Ĉ!Ĉ Ĉ!ĈĈĈĈ!ĈĈĈĈĈĈĈĈ",
      "ćććć ćďĉ!",
      "ććĈ!ććććĈ ć!!",
      "ćĈćĈĈĈĈĈĈĈ ćĈĈĈĈĈĈ",
      "ćććććććć Ĉ!Ĉ!Ĉ!Ĉ!",
      "Ĉ!Ĉ!Ĉ ćĈĈĈĈ",
      "ćĈĈĈ ćĈ!ĈĈĈĈ!ĈĈ!Ĉ",
      "ĈĈĈĈĈĈĈĈĈĈĈĈĈĈĈĈĈĈĈĈ ĈĈĈĈ!",
      "ćĈĈĈĈĈćĈĈćĈ ćĈĈćĈĈćĈĈĈĈĈćĈ",
      "Ĉ!Ĉ ďĉ!!!!!!!!!!!!!!!!",
      "ćĈ!ćĈ! ććććĈ!ććĈ!ćććĈ!ćććĈ",
      "ćććććććć Ĉ!",
      "ćććććććććććććććć ććććććĈ!",
      "ďĉďĉ!!! )!)!!",
      "ććĈ!Ĉ!ĈĈĈ !!ćĈ!Ĉ!Ĉ!Ĉ!",
      "ćĈ!ććĈććĈ !!!!!!",
      "Ĉ! ĈĈĈĈĈĈĈĈĈĈĈĈĈĈĈĈ",
      "ćććĈ ćććĈĈ!Ĉ!ćĈ!ććĈćĈ!ćĈ",
      "ćĈ!Ĉ!Ĉ ćĈććĈĈ!ĈĈĈ",
      "ĈĈĈ!ĈĈĈ ććĈ!ĈĈ!ĈĈĈĈ!ĈĈ!ĈĈĈĈ",
      "ĈĈĈĈĈĈćĈ!ććĈ ććĈ!",
      "Ĉ!ĈććĈ Ĉ!Ĉ!",
      "Ĉ!%&'(ďĉďĉďĉ!)) ďĉ!ďĉďĉďĉďĉ",
      "ćĈ!ĈĈćĈ!ćĈĈ ćĈ!Ĉ!",
      "ćĈ!Ĉ! ćĈ!ćĈ!ćĈ!Ĉ!ććććĈ!ććĈ!ć",
      "ďĉďĉďĉ!ďĉďĉ! ďĉďĉďĉ!ďĉďĉ!",
      "ćĈĈ!ćĈ!Ĉ! Ĉ!Ĉ!Ĉ!ĈĈĈ",
      "!!ćĈ!Ĉ!Ĉ!Ĉ! ćĈ!ććĈ!",
      "!!Č!!Č !",
      "ćĈĈ!ćć ĈĈĈĈćĈĈĈĈćĈĈĈĈĈĈĈĈććĈ",
      "ćĈ!ĈĈĈ!ĈĈ ćĈ!Ĉ!Ĉ!",
      "ćĈćĈćĈ ćććĈćĈ",
      "!!!SĂĄĆ !!ďĉ!!!!!!",
      "ćććĈ ćĈ!ćĈ",
      "ďĉ!!!!!! )!!!!!!!!)",
      "ćĈĈ! ćĈ!ćĈ!Ĉ",
      "ćĈ!ĈććĈĈĈ ćĈĈĈćĈ!ĈććĈĈĈ",
      "Ĉ!ćĈ!Ĉ!Ĉ!ćĈ!Ĉ! Ĉ!ĈĈ!",
      "ćĈ!ĈćĈ Ĉ!Ĉ!ćĈ!ĈĈ!ććĈ!ćĈ!ććĈ",
      "ďĉ!!!ćććć ćĈ!Ĉ",
      "ććĈ!ĈććććĈ ćĈćĈćĈćĈćĈćĈćĈćĈćĈ",
      "ćĈ!Ĉ!Ĉ! ććĈ!ćĈ!Ĉ!Ĉ!ćĈ!Ĉ!",
      "ććĈ!Ĉ!Ĉ Ĉ!ĈĈĈ",
      "ćĈ!Ĉ!ćĈ ććĈ!Ĉ!",
      "Ĉ!Ĉ!ĈĈ!Ĉ!ĈĈĈĈ!Ĉ!ĈĈ!Ĉ!Ĉ!! Ĉ!",
      "Ĉ!Ĉ! ćĈ!ććĈ!ćĈ!ććĈ!",
      "ďĉďĉ!! ďĉććĈ!ĈĈĈĈĈ!",
      "ďĉćććć Ĉ!ćĈ!Ĉ",
      "Ĉ!Ĉ!ćĈ!Ĉ! ĈĈ!",
      "Ĉ!Ĉ ďĉ!ďĉ!",
      "LL !LK",
      "ďĉ!!!!!!!!!!!! !!ďĉďĉďĉďĉ",
      "ĈĈĈ!ĈĈĈ Ĉ!ĈĈ!Ĉ!Ĉ!Ĉ!ĈĈ",
      "ćĈ!Ĉ!ĈćĈ!Ĉ! ćĈĈĈććĈ!Ĉ!ććĈ!ćć",
      "ćĈ!ććĈ! ćĈ!Ĉ",
      ")!)!!!!!!!! ďĉ!ďĉďĉ",
      "ćĈ!ćĈ!Ĉ!Ĉ!ćĈ!Ĉ! Ĉ!ććĈ!Ĉ!",
      "ććĈĈććĈćć ćĈćĈćĈćĈćĈĈćĈĈćĈćĈćĈ",
      "ćĈ!ĈćĈ!Ĉ! ćĈ!ćĈ!ćĈ!ćĈ!ćĈ!Ĉ!",
      "ćĈćĈ!ććĈ !!",
      "ćĈ!Ĉ!ĈĈćĈ ćĈĈĈĈĈĈĈĈĈĈĈĈ",
      "Ĉ!Ĉ!ĈĈĈĈ Ĉ!Ĉ!Ĉ!",
      "ćĈĈććĈĈĈćĈ!ĈćĈ!ććĈ Ĉ!Ĉ!ĈĈćĈ!Ĉ!",
      "!!! ďĉďĉďĉďĉ",
      "ćĈĈ ćĈĈĈĈĈĈćĈĈĈĈ",
      "ćććĈ!Ĉ! Ĉ!Ĉ!Ĉ!Ĉ",
      "ćĈ!Ĉ!Ĉ!Ĉ!Ĉ!Ĉ! Ĉ",
      "ĈĈĈĈĈĈĈĈĈĈĈĈĈĈ!Ĉ!Ĉ!Ĉ! ĈĈĈĈ",
      "Ĉ!ĈćĈ! ćĈĈĈĈĈćĈĈĈĈĈćĈ!ĈĈĈćĈ",
      "ćĈ!ĈĈ!ĈĈĈ Ĉ!Ĉ!Ĉ!ĈĈĈĈĈĈĈĈ!ĈĈĈĈĈ",
      "Ĉ!Ĉ!ĈĈĈĈĈĈćĈ!ĈĈĈ %&'(ďĉ",
      "ďĉ! ďĉ!!!!!!!!!!!",
      "ćĈćĈ!ćĈ Ĉ!",
      "Ĉ!ćĈ!Ĉ!Ĉ!Ĉ!Ĉ!Ĉ! ćĈ!ćĈ!ćĈ!Ĉ!Ĉ!",
      "ććććććććĈ!Ĉ!Ĉ!Ĉ! ćĈĈĈĈ!Ĉ!ćĈ!",
      "Ĉ!Ĉ!Ĉ!Ĉ! Ĉ",
      "ććĈ! ćĈ!Ĉ!",
      "ćĈ!ćĈ!Ĉ! ćĈĈ!Ĉ!Ĉ!Ĉ!ćĈćĈĈ",
      ")) )",
      "%&'(ďĉćć ďĉďĉ!!ďĉććĈ!ĈĈĈĈĈ!",
      "ď !!",
      "Ĉ!Ĉ!Ĉ!Ĉ! Ĉ!Ĉ!Ĉ!!",
      "!!!!!!!!!!!!!!!!!!!! !!!ďĉ!",
      "ćĈ!Ĉ!Ĉ!ćĈ!Ĉ! ćĈ!ćĈ!ćĈ!ćĈ!Ĉ!Ĉ!Ĉ",
      "ćĈ!ćĈ!Ĉ!Ĉ! ćĈĈ!",
      "ĈĈĈĈĈĈćĈ!ććĈ ćĈ!ćĈ!Ĉ!",
      "ďĉďĉďĉďĉďĉďĉďĉ!ďĉ! ďĉďĉďĉ!",
      "!!!!!!!!!!!!!!!! )!)!!",
      "ćĈ!ćĈ!Ĉ! ćĈ!Ĉ!Ĉ!ćĈ!Ĉ!",
      "ďĉćććć ććĈ!ććĈ!",
      ")!)!! ďĉďĉ!!!!!!!!!!!!!!!!",
      "ćĈĈ!Ĉ!Ĉ ćĈĈ!ćĈ!Ĉ!ĈĈĈĈćĈĈĈĈ",
      "!!!! !!&'(",
      "ćććĈ!Ĉ! Ĉ!Ĉ!Ĉ!ćĈ!Ĉ!",
      "ćĈ!Ĉ!ĈćĈ!Ĉ! ćĈ!ććĈĈĈĈĈćĈćĈ",
      "%&'(%&'( ďĉ!!",
      "ćĈ!Ĉ!Ĉ!Ĉ!Ĉ!Ĉ! ďĉ!%&'(",
      "ćĈ!ĈĈ!Ĉ Ĉ!ĈĈ!",
      "ćĈ!Ĉ!Ĉ!Ĉ!Ĉ!Ĉ!ďĉ!%&'( ďĉ!!ďĉ!",
      "ćĈ!Ĉ!Ĉ ćĈ!Ĉ!Ĉ!",
      "ćĈ!ćććĈ!ććĈćĈ!ććĈ ćććĈ!Ĉ!Ĉ!Ĉ!",
      "R %&'(TVa",
      "Ĉ!Ĉ!Ĉ!Ĉ! ćććĈ!",
      "ćďĉ #$",
      "ćĈ!ćĈ!Ĉ!Ĉ!ćĈ!Ĉ! ćĈ!",
      "ćĈ!ććĈćĈ!ćĈ ćĈ!Ĉ!ććĈćĈ!",
      "ććĈ!ćĈ!ććĈ! ććććĈ!ćććĈććĈ",
      "ćĈ!ćĈ!! ććĈ!ććĈ!",
      "ćććććććććććććććć Ĉ!Ĉ!ćĈ!Ĉ!ĈĈ!",
      "ďĉ!!ďĉďĉďĉ )!)",
      "ćććć ćĈ!Ĉ!Ĉ!Ĉ!Ĉ!Ĉ!",
      "Ĉ!ĈĈ!Ĉ !!ćĈ!Ĉ!Ĉ!Ĉ!ćĈ!ććĈ!",
      "ćĈ!Ĉ!Ĉ!Ĉ! Ĉ!ĈĈĈ!Ĉ!Ĉ",
      "ćĈ!Ĉ!Ĉ!Ĉ!ćĈ!Ĉ! ćĈ!ćĈ!ćĈ!ćĈ!Ĉ!",
      "ďĉćććććć ćĈ!ćĈ!",
      ") ććććććććććććĈ!",
      "%&'(ďĉ!! ďĉ!!",
      "ćĈĈĈĈ!Ĉ ććĈ!ććććĈć!!",
      "Ĉ!ĈĈĈĈĈĈĈĈĈĈĈĈĈĈĈĈ ĈĈĈĈ!",
      "ďĉććććĈ!ćĈ!Ĉ Ĉ!ććĈ!ćĈ!ĈĈ!ćĈ!Ĉ!",
      "ďĉ!! ďĉďĉďĉďĉďĉ!!ďĉ!ďĉ!",
      "ďĉ!!!!!!!!!!!! !!!",
      ")!)! ďĉďĉ!!!)!)!!",
      "ćĈ!ććĈććĈ!!!!!! ďĉćć",
      "ĈĈĈĈĈĈćĈ!ććĈććĈ! ćĈ!ĈććĈĈ!Ĉ!ĈĈ",
      "% ćć",
      "ďĉ ćććĈ!Ĉ!Ĉ!Ĉ",
      "ćććĈ Ĉ!ćĈ!Ĉ!ĈćĈĈĈćĈĈĈćĈĈćććć",
      "ćĈ!ďĉ! ďĉ!!!!!!!!!!!!!!!!",
      "ďĉďĉćććć ćĈ!Ĉ!ćĈĈ",
      "ćććććććć Ĉ!Ĉ!ćĈĈ",
      "%&'(ďĉ !!!!!!!!!!!!!!!!!!!!!",
      "Ĉ!ĈĈ! ćĈ!Ĉ",
      "ďĉ!ďĉ Ĉ!Ĉ!ćĈ!Ĉ!ĈĈĈ",
      "ććććĈ!ćĈ!Ĉ! Ĉ!ćĈ!Ĉ!",
      "ďĉďĉďĉďĉ !!!!!!!!!!!!!!!!",
      "ďĉďĉ!ďĉ! )ďĉďĉďĉ",
      "ćĈćĈĈĈĈĈćĈĈ ćĈćĈćĈćĈĈĈćĈĈĈĈĈĈ",
      "ćďĉ! ďĉďĉďĉďĉ!!",
      "ćĈ!ćć Ĉ!Ĉ!Ĉ",
      "ďĉďĉďĉďĉ! ďĉďĉ!!",
      "%ć &'",
      "ćďĉďĉďĉ Ĉ!ĈĈĈĈ",
      "ĈĈĈĈĈĈĈĈĈĈĈĈĈĈ!Ĉ!Ĉ!Ĉ! Ĉ!ĈĈĈ!ĈĈ",
      "ćććĈ!Ĉ! ćĈ!Ĉ!Ĉ",
      "ďĉďĉďĉďĉ! ďĉ!!",
      "ćĈ! ćĈĈ%&'(",
      "ďĉďĉďĉ! ďĉďĉďĉ!!",
      "ďĉďĉ!! ďĉ!!ďĉďĉ",
      "ććĈ!Ĉ! ććĈ!ććććĈćĈćĈćĈććććĈ!Ĉ!",
      "ćĈ!Ĉ!Ĉ!Ĉ!Ĉ!Ĉ! Ĉ!Ĉ!Ĉ!Ĉ!",
      "Ĉ!ĈććĈĈ!Ĉ! ććĈ!Ĉ!ĈĈ!ĈĈĈ",
      ")ććććććććććććĈ! ććĈ!",
      "Ĉ!Ĉ!Ĉ!Ĉ!Ĉ!Ĉ! ĈĈĈĈĈĈĈĈĈĈĈĈĈĈĈĈ",
      "Ĉ!ĈĈćĈ Ĉ!Ĉďĉ!!!!!!!!!!!!!!!!",
      "ćďĉďĉďĉďĉ! ććĈ!Ĉ!Ĉ!Ĉ!Ĉ",
      "Ĉ!Ĉ!Ĉ!Ĉ!! Ĉ!Ĉ!Ĉ",
      "ććććććććĈ! ćććĈ!Ĉ!ćĈ!",
      "ćĈĈ!ćĈ!Ĉ!Ĉ!Ĉ!Ĉ!ĈĈĈ ćĈ!Ĉ!Ĉ!",
      "ć ďĉ!!!!!!!!!",
      "ććĈ!Ĉ!ĈĈĈ!Ĉ!Ĉ!ĈĈćĈ ďĉ!!ďĉďĉ!!!",
      "ďĉďĉďĉďĉ ďĉďĉďĉ%&'(",
      "ďĉ! Ĉ!ĈćĈ!Ĉ!Ĉ!ĈćĈ!ćć",
      "ďĉ!ďĉ !!!SĂĄĆ!!ďĉ!!!!!!",
      "%ć &",
      "ďĉďĉ!! ďĉ!!!!!!)!!!!!!!!)",
      "Ĉ!ĈĈ ć",
      "Ĉ!Ĉ!Ĉ!Ĉ!Ĉ!Ĉ! Ĉ!ĈĈĈĈĈĈ",
      "ďĉďĉĈ!ĈĈ ďĉ!!",
      "ćĈĈ!Ĉ!ĈĈĈ ćĈćĈ!ććĈ!!",
      "ćććććĈ!Ĉ!Ĉ!Ĉ!Ĉ!Ĉ! ćĈ!Ĉ!Ĉ!ćĈ!Ĉ!",
      "ďĉ ććććććććććććććććććććććĈ!",
      "ďĉďĉ ććććććĈ!ćććĈ!ćć",
      "ďĉ!! ďĉ!ďĉ!",
      "ćĈ!Ĉ!Ĉ!Ĉ!Ĉ!Ĉ! ćĈ!Ĉ!ććĈ!",
      "Ĉ!ĈćĈ!Ĉ! ććĈ!ććĈ!",
      "ďĉććĈ! ćććĈćććĈĈ!Ĉ!ćĈ!ććĈćĈ!ćĈ",
      "ćććĈ!Ĉ!Ĉ!Ĉ!Ĉ!Ĉ! ćĈ!Ĉ!Ĉ!Ĉ!ćĈ!Ĉ!",
      "Ĉ!Ĉ!ĈĈ!Ĉ Ĉ!Ĉ!Ĉ!Ĉ!Ĉ!Ĉ!ĈĈĈ",
      "%&'(%&'(ďĉ!! ććććććĈććĈ!",
      "ććććĈ!ćĈ!Ĉ! Ĉ!ĈĈ!Ĉ!Ĉ!Ĉ",
      "ććććĈ!ćĈ!Ĉ! Ĉ!Ĉ!Ĉ!Ĉ!Ĉ!Ĉ!Ĉ!!",
      "ďĉďĉďĉďĉ!ďĉďĉ %!!!&'(",
      "ďĉ!!ďĉ!ććĈ! ďĉ!ďĉďĉ!!",
      "ćĈćĈćĈćććĈćĈ ćććĈćĈ",
      "ď Ĉ!ĉ",
      "Ĉ! ćďĉ!",
      "ďĉďĉ ď%&'(ĉ",
      "!!!!!!!!!!!! !!",
      "ĈĈĈ!Ĉ! Ĉ!ĈĈĈ",
      "ććĈ!Ĉ!Ĉ!Ĉ ćĈ!Ĉ!ĈćĈććĈĈ!ĈĈĈ",
      "ď Ĉ",
      "ćććććććć ćććććććĈ!Ĉ!Ĉ!ćĈ!Ĉ!",
      "ćććććććććć ćĈ!ćĈ!!ććĈ!ććĈ!",
      "Ĉ!ćććĈ!ććĈ!ćĈ!ĈĈĈćć !!!!",
      "ďĉďĉ )ďĉďĉ!",
      "ďĉďĉďĉďĉďĉďĉ ćďĉ!",
      "ććććĈ!Ĉ! ćĈ!ćĈ!Ĉ!ććĈ!ĈććĈ!Ĉ!",
      "ďĉďĉ!ďĉ%&'( ćććććććććććććććć",
      "ćĈ!Ĉ!!Ĉ!ćĈ!ćĈ!ććĈ!Ĉ! ćĈ!ďĉ!",
      "ďĉ!!!!!!!!!!! )!!!!!!!!!!!!!!!",
      "ďĉ!!!!!!!!!!!! !%",
      "ďĉ!! ćććććććĈ!Ĉ!Ĉ!ććĈĈććĈ!",
      "ďĉďĉ%&'( !",
      "ćććć Ĉ!ĈĈ!ćĈ!Ĉ",
      "ďĉ!!!!!! ďĉďĉ!!",
      "33 22",
      "ćĈćĈĈĈĈĈĈĈćĈĈĈĈĈĈ ćĈćĈ!ćĈĈ!",
      "%&'( Ĉ!Ĉ!",
      "ćććććĈ!Ĉ!Ĉ!ćĈĈćĈ ďĉďĉ",
      "ďĉ ćĈ!",
      "!!! ďĉ!!ďĉďĉ!!!",
      ")!) ďĉďĉďĉďĉďĉďĉ!!!",
      "ććĈ!Ĉ!Ĉ!Ĉ!Ĉ!Ĉ! ććĈ!",
      "L !LK!LK",
      "ďĉ!ďĉ!! ćĈ!",
      "ĈĈĈ!Ĉ!Ĉ!ĈĈĈ Ĉ!Ĉ!ĈĈ!Ĉ!Ĉ!ĈĈĈĈ",
      "ćć ćĈ!ćĈ!Ĉ!Ĉ!ćĈ!Ĉ!",
      "ćććć ćĈ!ćĈ!ććććĈ!ććĈ!ćććĈ!ćććĈ",
      "ďĉďĉďĉ ď%&'(ĉ",
      "ďĉ!!!!!!!! ććĈ!Ĉ!ĈćĈĈĈććĈĈĈ",
      "ďĉćć Ĉ!Ĉ!Ĉ!Ĉ!Ĉ!Ĉ!",
      "ććććĈ!ćĈ!Ĉ! Ĉ!Ĉ!",
      "ďĉďĉďĉďĉ ććĈ!Ĉ!ĈĈĈ!!ćĈ!Ĉ!Ĉ!Ĉ!",
      ")!)!!!!!!!!!ććććĈ!ĈĈ %&'(ďĉ",
      "ć ďĉććć",
      "Ĉ!ĈĈ Ĉ!ĈĈĈ",
      "!! )!)!!!!!!!!!ććććĈ!ĈĈ%&'(ďĉ",
      "ćććĈ!Ĉ!Ĉ!Ĉ!Ĉ!Ĉ!ćććć ćĈ!ćĈĈ%&'(",
      "ćććĈ!Ĉ! ććĈ!",
      "ďĉ!!ďĉ! ďĉ!!!",
      "ćććĈ!Ĉ!ćĈ!Ĉ! ćĈ!ćĈ!ćĈ!ĈĈ!Ĉ!",
      "ć ďĉ!!!!",
      "ďĉďĉ!! ďĉďĉďĉ!",
      "%&'(ďĉ ćĈ!Ĉ!Ĉ!Ĉ!Ĉ!Ĉ!ĈĈ",
      "ćĈ!Ĉ!Ĉ ćĈ!ć",
      "2323 232222222222222222",
      "ćďĉďĉďĉ ćĈ!Ĉ!Ĉ!Ĉ!",
      "!!!! &'(",
      "ćĈ!ĈćĈćĈćĈ ćććĈĈĈĈĈ",
      "ććĈ!ćććĈ!ćććĈ!ćććĈ!Ĉ!Ĉ! ďĉćć",
      "ćććĈ!Ĉ!ćĈ!Ĉ!Ĉ Ĉ!Ĉ!ĈćĈĈĈĈ",
      "ćĈ!Ĉ! ćĈĈ!ćĈ!ćĈ!Ĉ",
      "ĉĉĉĉ ĉĉĉĉ",
      "ćĈ!Ĉ! Ĉ!Ĉ!ĈĈ!Ĉ!Ĉ!Ĉ!",
      "ďĉďĉďĉďĉďĉďĉ! %&'(%&'(",
      "ďĉ!!!!!! ďĉďĉ!!!!",
      "Ĉ!ĈćĈ!Ĉ!ććĈ!ććĈ! ćĈ!Ĉ!ćĈććĈ!Ĉ!",
      "ďĉ! ćĈ!ćĈ",
      "ďĉďĉďĉ!! )!)!!!!!!!!!!!!!!!!",
      "ć%&'( ďĉ!!!!!!!!!",
      "!!!!!!!!!!!!!!!!!!!! %&'(%&'(",
      "ćĈĈĈ Ĉ!ćĈ!Ĉ",
      ")) ))",
      "!!!!!!!!! ďĉ!!!!!!!!",
      "Ĉ!ććĈ!Ĉ!Ĉ ćĈ!ććĈ!Ĉ!Ĉ",
      "ććććĈ!Ĉ!Ĉ!Ĉ! Ĉ!ĈĈ!Ĉ!",
      "ćĈ!ĈĈ!Ĉ!ďĉ!ďĉ! ďĉďĉďĉ!!",
      "ćććĈ!Ĉ!ććĈ! ćĈ!ćČ",
      "ćĈ!Ĉ!Ĉ!ćĈ!Ĉ! Ĉ!Ĉ!ćĈ!Ĉ!",
      "RTVa !!!S",
      "ďĉďĉďĉ ćććĈ!Ĉ!Ĉ!ĈĈ!Ĉ!ćĈ!Ĉ!",
      "ďĉ!!ďĉ! ďĉďĉďĉ!",
      "ćĈ!Č ďĉďĉ!",
      "ćććĈćĈ!ćĈ ćććĈ!Ĉ!Ĉ!Ĉ!Ĉ!ćĈ!Ĉ!",
      "L K",
      "ďĉďĉďĉ! ďĉďĉćććććĈ!Ĉ!ćĈĈ",
      "ďĉďĉďĉďĉďĉďĉďĉ )!",
      "ďĉďĉ!ďĉ!)ďĉďĉďĉ ćďĉďĉ!",
      "Ĉ!ĈćĈ!Ĉ!Ĉ!Ĉ ćďĉ!",
      "ćĈ ćĈ!ććććććĈ!ćĈ!ććĈ",
      "ććććĈ ćććĈ!Ĉ!Ĉ",
      "ďĉďĉ !!!!!!!!!!!",
      "Ĉ!Ĉ!Ĉ!Ĉ! ććĈćć",
      "Ĉ!Ĉćć ďĉ!ćĈ!ćĈ",
      "Ĉ!ĈĈĈĈ Ĉ!Ĉ!Ĉ!ĈĈĈĈĈĈĈĈĈ",
      "Ĉ!Ĉ!Ĉ!Ĉ!Ĉ!Ĉ! ćďĉďĉďĉćĈ!Ĉ!Ĉ!Ĉ!",
      "Ĉ!Ĉ!Ĉ!Ĉ!! Ĉ!Ĉ!Ĉ!Ĉ!!Ĉ!Ĉ!Ĉ",
      "ďĉććĈ!Ĉ!Ĉ!Ĉ!Ĉ!Ĉ! Ĉ!ĈĈćĈ",
      "ćďĉ#$ ćĈ!ćć",
      "ććć ďĉćććć",
      "ćĈććĈ ćďĉ",
      "ćĈ!Ĉ!ĈćĈ! ďĉćććććććĈ!ćĈ!",
      "L !",
      "!!!% !&'(!!!!!!!!!!!!!!!!",
      "ďĉďĉ!!ďĉ!ďĉ!! ďĉďĉďĉ!",
      "ćććććććććććĈ!Ĉ ćĈ!Ĉ!ĈćĈ!ć",
      "ďĉďĉďĉ !!!!!",
      "!!% !!!!!!!!!!!!!!!!",
      "ĂĄĆ !!!!R!!!S",
      "ďĉďĉ!!ďĉ!!ďĉďĉ ćććĈ!Ĉ!Ĉ!Ĉ!Ĉ!Ĉ",
      "!!!!!!!! &'(",
      "!!!!!!!!!!!!!!!!!!!!! Ĉ!Ĉ!Ĉ",
      "ďĉćĈ!Ĉ! Č",
      "Ĉ!Ĉ! ĉ",
      "ćĈ!ćĈ!Ĉ!ćĈ!Ĉ!Ĉ!ćĈ!Ĉ! ćďĉ!",
      "ćĈ!ćĈ!Ĉ!Ĉ!ćĈ!Ĉ! Ĉ!ćĈ!Ĉ!",
      ")!)!! Ĉ!Ĉ!ĈĈ",
      "Ĉ!ĈĈ!ĈĈĈ ćĈĈĈćĈ!ĈĈĈĈ!ĈĈ!Ĉ",
      "!!Č!!Č! ďĉ!ďĉĈ!Ĉ!ćĈ!Ĉ!ĈĈĈ",
      "ďĉďĉ %ď&'(ĉ",
      "!!!% !&'(",
      "%!Ĉ&'( !",
      "ć ďĉďĉďĉďĉ",
      "ćććććććććććććććććććććććć ććĈ!",
      "3 23",
      "Č ďĉďĉďĉďĉďĉďĉďĉďĉ",
      "!!!!!!!!!!!!!!!! !!!ďĉ!",
      "ďĉ!!!! ďĉďĉďĉďĉďĉďĉďĉďĉďĉďĉ",
      "ďĉďĉďĉ! ďĉ!%&'(",
      "ďĉ!!!!!!!!!!! ďĉ!",
      "ďĉďĉ)ďĉďĉ! ďĉďĉ!!ďĉ!!!!",
      "ďĉďĉ!!ďĉ ćććĈ!Ĉ!Ĉ!ćĈ!Ĉ!Ĉ",
      "Ĉ! ćĈ!ć",
      "Ĉ! ćĈ!ćĈ!Ĉ!Ĉ!",
      "0011 0101",
      "ďĉďĉ!ďĉ!! ďĉććććććĈ!ććĈ!",
      "ďĉ!ďĉďĉďĉďĉďĉ! ďĉďĉďĉ!!)!)",
      "ććććĈ!ĈĈ!ćĈ!Ĉ Ĉ!Ĉ!Ĉ!ćĈ!ćĈ",
      "ďĉćć ćďĉ!",
      "ďĉďĉďĉďĉďĉ!! ďĉ!!ďĉďĉďĉ)!)",
      "ćĈ! ĉ",
      "ďĉďĉďĉďĉ ďĉ!ďĉďĉďĉďĉ",
      "ďĉ!!! ďĉ!!!ćććĈćĈ!ćĈ!ĈĈ!Ĉ!",
      "ćĈ!ďĉ! )ććććććććććććĈ!ććĈ!",
      "ć ďĉďĉ%&'(",
      "ćć ĉ",
      "ďĉďĉďĉ!ďĉďĉďĉ!! ďĉďĉďĉďĉ!",
      "ďĉćććć ććĈććĈ!",
      "ďĉďĉďĉ !!!!!!!!!!",
      "ďĉďĉ!! ďĉ!!!!!!!!!",
      "(788888888,-%& +",
      "%ćĈ &'(",
      "ďĉďĉ! %&'(",
      "ďĉďĉďĉ ććĈ!Ĉ!",
      "ďĉ!!)ďĉďĉ! ďĉďĉ%&'(!",
      ")!)!!Ĉ!Ĉ!ĈĈ !!!!!",
      "ďĉ!!ďĉ!ďĉ! ććĈ!Ĉ!Ĉ!ććĈ!Ĉ!",
      "ćććďĉćććć ććĈ!ćć",
      "!!!% !!!!!!!!!!!!",
      "ćććććďĉ! ććććĈćććĈ!Ĉ!Ĉ",
      "ďĉ!!!!!!ďĉďĉ!! ďĉ!ďĉďĉ!!",
      "ďĉďĉďĉ Ĉ!Ĉ!Ĉ!Ĉ!Ĉ!ćĈ!ĈĈĈĈ",
      "ďĉďĉ!ďĉďĉ%&'( ćĈ!Ĉ!Ĉ!Ĉ!Ĉ!Ĉ",
      "MM M",
      "LL L!LK",
      "ďĉ%&'( ďĉďĉďĉďĉďĉďĉ!",
      "ćććĈ!Ĉ!Ĉ! ćĈĈĈĈ!ćĈ!Ĉ",
      "ďĉćććććć ćĈ!ćČ",
      "ćďĉććć ďĉ!!",
      ") ďĉďĉďĉďĉďĉďĉďĉ!",
      "Ĉ!ćć Ĉ!Ĉ!Ĉ!Ĉ!Ĉ!Ĉ!",
      "ćĈ!ćĈ!Ĉ!ĈćĈ!Ĉ! ďĉćĈ!",
      "ćććć ćĈ!ćĈĈ",
      "ďĉďĉ! ďĉ!!!!!!!!",
      "ćĈććĈćďĉ ćĈ!Ĉ!Ĉ!Ĉ!Ĉ!Ĉ!Ĉ!Ĉ!",
      "ććĈ! %&'(",
      "ć '(",
      "ďĉďĉďĉ%&'( ďĉďĉďĉ",
      "ćĈ!ĈĈ!Ĉ!ďĉ!ďĉ!ďĉďĉďĉ!! ďĉ!ďĉ!",
      "ććććĈ!Ĉ!Ĉ!Ĉ!Ĉ!ĈĈ!Ĉ! ć",
      "Ĉ! ć",
      "ďĉďĉďĉ! ććĈ!ć",
      "ďĉďĉ!! ďĉ!!ďĉ!ććĈ!ďĉ!ďĉďĉ!!",
      "ďĉ!!ďĉďĉďĉďĉďĉ!!ďĉ!ďĉ! ďĉďĉďĉ!",
      "ć ďĉďĉ!!ďĉďĉďĉďĉ",
      "ćććć ćĈ!ĈĈćĈĈćĈ",
      "ćććĈ!Ĉ! Ĉ!ćĈ!Ĉ!Ĉ!Ĉ!Ĉ!!",
      "ď%ĉ&'( !",
      "ďĉďĉďĉďĉďĉ! )!)!ďĉďĉ!!!)!)!!",
      "ďĉćććććććć Ĉ!Ĉ!Ĉ!Ĉ",
      "ďĉ!!ďĉ! ďĉďĉďĉďĉ!",
      "ďĉďĉďĉďĉ ďĉ!ďĉ!",
      "ć%&'( ďĉďĉ",
      "ćć %&'(",
      "ďĉ!ďĉďĉďĉďĉ ďĉďĉ!!",
      "ćďĉ ćĈ!ććĈ!ćĈ!Ĉ",
      "Ĉ! ď",
      "ćďĉďĉďĉĈ!ĈĈĈĈ Ĉ!ćĈ!Ĉ!ĈćĈĈĈ",
      "% !!&'(",
      "ďĉ Ĉ!Ĉ!ĈĈĈ!Ĉ!Ĉ!Ĉ!ĈĈĈĈ",
      "ďĉďĉ %&'(ďĉ",
      "ďĉ! ďĉďĉ!",
      "ćĈĈ%&'( ďĉďĉ!!!",
      "ďĉďĉďĉďĉďĉ! ďĉďĉďĉ!",
      "Ĉ!ćďĉ! ććććĈ!ćĈ!Ĉ!Ĉ!ćĈ!Ĉ!",
      "ćĈ!Ĉ! ć%&'(",
      "!!!!!!!!!!!! ďĉ!",
      "ććĈ!Ĉ!Ĉ!Ĉ!Ĉ!Ĉ!ććĈ! ćďĉ!",
      "ďĉďĉ!!!!!!!!!!! ďĉćććĈ!Ĉ!Ĉ!Ĉ",
      "ďĉďĉďĉ!ďĉ!%&'( !!!!!!!!!!!!ďĉ!",
      "ďĉ ćĈ!ćĈ!Ĉ!",
      "ććććććććĈ!ćććĈ!Ĉ!ćĈ! ďĉ",
      "ćććććććć ććććććĈ!",
      "ďĉćććććććĈ!ćČ Č",
      "ćĈ!Ĉ!ć%&'( ďĉ!!ďĉ!ďĉďĉďĉ!",
      "ďĉďĉďĉďĉďĉďĉďĉďĉ ďĉ%&'(",
      "0 0101",
      "ďĉďĉďĉďĉ ďĉďĉ!!",
      "ćććĈ!Ĉ!Ĉ!Ĉ!Ĉ!Ĉ!ćććć ćĈ!ćĈĈ",
      "ďĉďĉďĉ %ď&'(ĉ",
      "ďĉ %!&'(",
      "ďĉďĉćććć ćććĈĈ",
      "Ĉ!ĈĈ!Ĉ!!ćĈ!Ĉ!Ĉ!Ĉ!ćĈ!ććĈ! ćďĉ!",
      "ćććĈ!Ĉ!Ĉ!Ĉ!Ĉ!Ĉ! Ĉ!Ĉ!Ĉ!Ĉ!",
      "ć%&'(ďĉ Ĉ!ćĈ!Ĉ!Ĉ!ćĈ!Ĉ!Ĉ!ĈĈ!",
      "ććĈ!ĈććććĈćĈćĈćĈćĈćĈćĈćĈćĈćĈ ć",
      "ďĉďĉ! ďĉďĉďĉ",
      "ďĉ )",
      "ďĉďĉ ďďĉĉ",
      "7 '7777",
      "ďĉ!!!!!!!! ďĉ!",
      "66666666 7'7777",
      "RTVa!!!S %&'(",
      "666666667'7777 77",
      "ē !",
      "ħ )",
      "ďĉďĉďĉďĉ%&'( ďĉďĉďĉďĉ",
      "!!!! !!!)!)!!!!!!!!!!!!!!!!",
      "ďĉďĉ!!ďĉ!ďĉ!!ďĉďĉďĉ! ďĉććĈ!",
      "ć %Ĉ&'(",
      "ććĈ!Ĉ ďĉ%&'(",
      "ďĉďĉďĉďĉďĉďĉ!ďĉďĉ! ďĉďĉďĉ!!",
      "ćĈććć!! ďĉ!ďĉ!!",
      "ć ď%&'(ĉ",
      "Ĉ! ćĈ",
      "ďĉďĉďĉďĉ ďĉ!!ďĉ!",
      "ďĉďĉďĉďĉ !!!!!!!!!ďĉ!!!!!!!!",
      "ďĉďĉďĉďĉďĉďĉ R%&'(TVa",
      "ďĉ !!!!!!!!!!!!!!!!!!!!!!!!",
      ")!) !!!!",
      "77 '7777",
      "Ĉ!Ĉ!Ĉ!ćĈ!Ĉ! Ĉ!ććĈ!Ĉ!Ĉ!Ĉ!Ĉ!Ĉ!",
      "66666666 77'7777",
      "ďĉĈ! ďĉ!ďĉďĉďĉďĉďĉ!ďĉďĉďĉ!!)!)",
      "6666666677'7777 7",
      "!!!! !!)!)!!!!!!!!!!!!!!!!",
      "ďĉďĉ ć%&'(",
      "Ĉ!Ĉ!Ĉ!Ĉ!Ĉ!Ĉ!ĈĈĈ!Ĉ!ĈĈĈĈ ďĉ!!",
      "!!!ďĉ!!ďĉďĉ!!! ďĉďĉďĉďĉďĉ!",
      "ććĈ!ćĈ!ćĈ!ć ďĉ!!!!!!!!!!!!",
      "ćććććďĉ!ććććĈćććĈ!Ĉ!Ĉ ćĈ!ć",
      "F D",
      "ĥ !",
      "ćďĉ!!!! ćďĉ!",
      "66666666 7777",
      "!!% !!!!!!!!!!!!",
      "! ď",
      "ďĉďĉ ćďĉ",
      ") Ĉ",
      "ĈĈ!ĈććĈ!Ĉ!ĈĈ!ĈĈ!Ĉ!ćĈ! %&'(ďĉ",
      "Ĉ!Ĉďĉ!ďĉ! ďĉ",
      "ďĉ!!ďĉ!ďĉ!!! ďĉďĉ",
      "%&'( ćďĉ!",
      "%&'(ďĉ ććĈ!Ĉ!Ĉ!Ĉ!",
      "!!!!!! Ĉ!ďĉďĉćĈ!ďĉ!",
      "ć %ć&'(",
      "ćććć ććĈ!Ĉ!",
      "!% !&'(!!!!!!!!!!!!!!!!",
      "!!!% !!!!!!!!!!!!!!!!",
      "66666666 '7777",
      "66666666'7777 777",
      "ďĉ !!!!!!!!!!!!!!!!!!!!!",
      "ďĉďĉďĉďĉ!ďĉ!! Ĉ!ĈćĈ!Ĉ!Ĉ!ĈćĈ!ćć",
      "%&'( Ĉ!Ĉ!Ĉ!Ĉ!",
      "Ĉ!Ĉ!Ĉ ćĈ!Ĉ!Ĉ!Ĉ!Ĉ!Ĉ!Ĉ!Ĉ!Ĉ!Ĉ!",
      "M &'(",
      "ďĉ Ħ",
      "01 0011",
      "%&'ď( ĉ!",
      "!!!!ďĉ!! ďĉďĉďĉďĉďĉďĉďĉďĉ!",
      "ďĉďĉ!!!! ďĉ!!!ćććććĈ!Ĉ",
      "32323 2222222222222222",
      "ďĉ%&'(ďĉďĉďĉďĉďĉďĉ! ďĉďĉďĉďĉ!!",
      "00101 1",
      "Ē !!!",
      "!!! %&'(",
      "ďĉ!ďĉďĉďĉďĉ !!",
      "ďĉďĉďĉ Ĉ!Ĉ!Ĉ!Ĉ!!Ĉ!Ĉ!Ĉ!Ĉ!!Ĉ!Ĉ!Ĉ",
      "ćďĉďĉ ććĈ!",
      "ćĈĈćĈĈćĈ!ćććĈ!ćć ďĉďĉ!!!!",
      "ďĉ!! ďĉ!!!!!!",
      "ćďĉďĉ! ďĉďĉć%&'(",
      "ćĈ!ĈĈćĈ!ćĈĈćĈ!Ĉ! ćďĉďĉ",
      "ćďĉďĉ!ďĉďĉć%&'( Ĉ!Ĉ!Ĉ!Ĉ!Ĉ!Ĉ!",
      "ććććĈ!ćĈ!Ĉ! ĈćĈ!Ĉ!",
      "ćĈ!ĈććĈ!ĈćĈćĈćĈ!Ĉ ćĈĈ%&'(",
      "RTVa!!!S%&'( ĂĄĆ!!!!R!!!S",
      "L ĉ",
      "ďĉďĉ !!!!!!!!!!!!!!!!!!!!!",
      "ďĉďĉ! ďĉďĉ!",
      "ćĈ!ć ďĉďĉ!ďĉďĉćććć",
      "RTVa!!!SĂĄĆ ďĉćććďĉ!",
      "ČďĉďĉććĈ!ćĈ!ćĈ!ćĈ!ćĈćĈćĈ ćďĉďĉ",
      "ćďĉ#$ćĈ!ćć %&'(ďĉďĉ!!!!",
      "ďĉďĉďĉďĉ %ď&'(ĉ",
      "ććĈ! ćďĉ",
      "ďĉďĉďĉ! ďĉďĉ!!ďĉďĉďĉ!",
      "ďĉďĉ!ďĉ!ďĉďĉďĉ! ďĉ!ďĉ!!",
      "ďĉ!ďĉ!ďĉ!ďĉ! ďĉ!ďĉ",
      "!!!!!!!! !&'(",
      "ćďĉ! ććĈ!ćĈ!Ĉ!",
      "ďĉďĉďĉ!! ďĉ",
      "ćĈ ćďĉďĉďĉ",
      "ćĈ!Ĉ ćĈĈ",
      "!!!!!!!!!!!! !",
      "ĉĉ ĉ",
      "! ďĉ!!!!!!!!!!!!!!ďĉďĉďĉďĉ",
      "M ĉ",
      "ćĈ! )!)!!Ĉ!Ĉ!ĈĈ!!!!!",
      "ďĉďĉ!ďĉďĉćććć ćďĉ!",
      "ďĉććĈĈĈĈĈ ďĉďĉ",
      "ććććĈ!ćĈ!Ĉ!Ĉ!ĈĈ!Ĉ!Ĉ!Ĉ ććĈ!ć",
      "ďĉ!ďĉďĉďĉďĉ ćććĈ!Ĉ!ććĈ!ćĈ!ćČ",
      "ďĉďĉ!! ďĉ!!!!!!!!!!!!!!!!!!!",
      "ďĉ%&'( ćć",
      "ćĈ!Ĉ! ćĈ!ćĈ!Ĉ!",
      "ďĉ! ďĉďĉďĉ%&'(",
      "!!!!!!!!!!!!!!!! ďĉďĉďĉ!",
      "ď ĈĈ",
      "ď%&'(ĉ ďĉďĉ",
      "Čďĉďĉďĉďĉďĉďĉďĉďĉ !!!ďĉďĉďĉďĉ",
      "ćććĈ!Ĉ!Ĉ!ćĈĈĈĈ!ćĈ!Ĉ Ĉ!ćĈ!ć",
      "ćĈ!ćďĉďĉ!ďĉďĉćććć ćĈ!ćČ",
      "%&'( ćććććććććććććććć",
      "%&' ć(",
      "%&ď'( ĉ!",
      "ďĉďĉ ĉ",
      "ď%&'(ĉ !!",
      "ďĉ%&'( ďĉďĉďĉďĉ",
      "ććććĈ!ĈĈ ďĉ!!!!!!!!!!!",
      "ćććć ćĈ!ćĈ!Ĉ!ćĈĈ!Ĉ!Ĉ!Ĉ!ćĈćĈĈ",
      "%Ĉ&'( Ĉ",
      "MMMMMMMMMMMMMMMM MMMMMMMM",
      "ććĈ!Ĉ!Ĉ!ćĈ! ďĉďĉďĉďĉďĉďĉ",
      "ďĉďĉ ććććććććććććććĈ!",
      "!!!ďĉ! ďĉ!!!!!!ďĉďĉ!!!!",
      "ď )",
      "ďĉ%&'( ďĉ!!",
      "%&'(ďĉ ćććććĈ!ĈĈćĈĈćĈ",
      "ďĉ!ďĉďĉ!! ďĉďĉďĉďĉďĉ!ďĉ!",
      "ććĈ!ćďĉďĉďĉďĉ ďĉďĉďĉ!!",
      "%ćć &'(",
      "ďĉ!!!!! ďĉ!ďĉďĉďĉďĉďĉďĉďĉ",
      "ďĉďĉćććććććĈĈ ććććććĈ!ćĈĈ%&'(",
      "!!!!!!!!!!!!!!!!)!)!! )!)",
      "% M&'(",
      "!!! )",
      "A B",
      "ďĉ ď%ĉ&'(",
      "Ĉ!Ĉ !!",
      "Ē!! Ė",
      "! )",
      "! ďĉ!!",
      "ďĉďĉďĉ%&'( ďĉďĉďĉďĉďĉďĉďĉďĉ",
      "K K",
      "ďĉ%&'( ďĉ",
      "ďĉďĉďĉďĉďĉďĉ%&'( ďĉďĉ!ďĉďĉďĉ",
      "> >",
      "ć )",
      "ĉ Ĉ",
      "ďĉ ćĈ!ĈĈ!ĈĈ!ĈĈ!",
      "%&'( Ĉ!",
      "ďĉďĉ!!!! !!!",
      "ć%&'(ďĉ!!!!!!!!! ďĉďĉďĉ!!",
      "Ĉ!Ĉććďĉ!ćĈ!ćĈ ďĉďĉďĉďĉ!",
      "!% !&'(",
      "2323 2222222222222222",
      "!!!!!!Ĉ!ďĉďĉćĈ!ďĉ! ććĈ!%&'(",
      "ďĉ!!!!!!!! ďĉ!ďĉ!",
      "%&'(Ĉ!Ĉ! ćććććĈ!ćĈĈ",
      "ďĉďĉďĉĈ!Ĉ!Ĉ!Ĉ!Ĉ!ćĈ!ĈĈĈĈ ćĈ!ćĈ!",
      "%&'(%&'(%&'(%&'( %&'(%&'(",
      "ďĉ%&'( ďĉ!",
      "ďĉďĉďĉ%&'( Ĉ!Ĉ!Ĉ!Ĉ!ćććĈ!",
      "!!!!!!!!!!!!!!!!!! %&'(",
      ")ďĉďĉďĉďĉďĉďĉďĉ! ďĉ!!",
      "Ē Ē",
      "ďĉďĉ!!ďĉďĉďĉďĉ ďĉ!ďĉ!",
      "ďď !",
      "ćďĉďĉ ćććććććĈ!Ĉ!Ĉ!ćĈ!Ĉ!",
      "!ďĉ! )!)!!!!!!!!!!ďĉ!!!!!!",
      "ďĉ!!!!!!!!!!!!!% !!!!!!!&'(",
      "Ĉ!Ĉ!Ĉ!Ĉ!ććĈćć ďĉďĉďĉ!!",
      "Ĉ!ĈĈĈ ďĉ",
      "Ĉ!ĈĈĈ! ďĉ!!!!!!!!!!!!!!!!",
      "01'(3 33",
      "ďĉďĉ! ďĉ!ďĉ!",
      ")!)!!!!!!!!!!!! ććĈ!ćĈ!ććĈ!",
      "Ĉ! %Ĉ&'(!",
      "ćĈ!ćĈ!ćďĉďĉďĉďĉ! ďĉ!ďĉďĉ",
      "ďĉďĉďĉ!ďĉ ćďĉ!!!!ćďĉ!",
      "ď Mĉ",
      "Ĉ! )",
      "ĈĈĈĈ ĈĈĈ",
      "ďĉďĉ%&'( ďĉďĉďĉ!!ďĉ!!!!",
      "ćĈ !!",
      "ďďĉĉ !",
      "ď! ĉ!",
      "ďĉďĉ!ďĉ ćććĈ!Ĉ!Ĉ!Ĉ!",
      "!!!!!!!! !!!&'(",
      "ćĈ!Ĉ! Ĉ!Ĉ",
      "!!!!!!!! !!&'(",
      "%& Ĉ'(!",
      "ćĈ!ĈććĈ!ĈćĈćĈćĈ!Ĉ ćĈĈ",
      "ď Ĉ!Ĉ",
      "%&'( ďĉ!ďĉ!!",
      "3 2222",
      "ďĉďĉććććććĈ!ćććĈ!ćć ćĈ!ćĈ!",
      "%&'( ďĉďĉďĉďĉďĉďĉďĉ",
      "!!% !&'(!!!!!!!!!!!!!!!!",
      "66666666 777",
      "ďĉććĈĈĈĈĈ %&'(ďĉďĉ",
      "ćĈ!ĈĈĈćĈćĈćĈĈĈćĈ ďĉďĉ!",
      "ďĉ!!ďĉ!!!!!! )!!!!!!!!)!",
      "66666666777 '7777",
      "ć ďĉćććć",
      "%&' Ĉ(!",
      "ďĉ%&'(ćć ďĉďĉ)",
      "ć%&'( ďĉďĉďĉďĉ!",
      "ďĉďĉďĉďĉďĉ ď%&'(ĉ",
      "ĉ !!",
      "ĈĈ Ĉ!Ĉ",
      "!!% !!&'(",
      "ćĈ!ć ďĉďĉďĉďĉďĉ!!ďĉ!!!!",
      "ďĉďĉďĉ!ďĉ!ďĉ! ďĉ%&'(ććďĉďĉ)",
      "ď Ĉ!Ĉ!ĉ",
      "ďĉďĉďĉ Ĉ!ĈĈć",
      "ďĉďĉďĉďĉďĉ %ď&'(ĉ",
      "ďĉ!ďĉďĉďĉ ćĈ!Ĉ!Ĉ!Ĉ!ĈĈ!Ĉ!Ĉ!Ĉ!",
      "ďĉ!!!!!!!!!!!ďĉ! ďĉććććććĈććĈ!",
      "ćĈćďĉďĉďĉ !!!",
      ") ħ",
      "ć L",
      "ę !",
      "!!!! RTVa!!!SĂĄĆ",
      "ďĉ!!!! RTVa!!!SĂĄĆ",
      "ďĉďĉ%&'(ďĉ )!)ďĉďĉďĉďĉďĉďĉ!!!",
      "đ đ",
      "%&'( ďĉ!!!!!!!!!!!",
      "ďĉďĉďĉ! ďĉ!!!!!!!!!!!!!!!!",
      "ďĉďĉ%&'( ďĉďĉ",
      "!!!SĂĄĆ !!!!R!!!S",
      "%! ć",
      "ĈćĈĈćĈćĈĈĈćĈĈ %&'(ďĉ",
      "Ħ !",
      "!!% !!&'(!!!!!!!!!!!!!!!!",
      "!!&'( !!!!",
      "ďĉććĈ!Ĉ!Ĉ!Ĉ!Ĉ!Ĉ!Ĉ!ĈĈćĈ ďĉďĉ",
      "ćĈ! %Ĉ&'(!",
      "ďĉďĉďĉďĉ ď%&'(ĉ",
      "ďĉďĉďĉ ćďĉ!",
      "%ć&' ć(",
      "Ħ %&'(%&'(%&'(%&'(",
      "ćĈ! %&'(ďĉ!",
      "ććĈ!Ĉ! ćĈ!Ĉ!",
      "!!!!!!!!!!!! ďĉ!!",
      ")!) ďĉďĉďĉ!ďĉďĉďĉ!!ďĉďĉďĉďĉ!",
      "ďĉ%&'( ďĉďĉ!!!!ďĉ!!!ćććććĈ!Ĉ",
      "!!!!!!!!!!!! !&'(",
      "ďĉďĉďĉďĉďĉďĉďĉďĉ ďĉ",
      "ħ !",
      "!% !!!!!!!!",
      "ďĉďĉ%&'( ďĉ!",
      "ďĉćć Ĉ!Ĉ!Ĉ!Ĉ!",
      "ćććĈĈ ććććććĈ!ćĈĈ",
      "ććććĈ!ĈĈ %&'(ďĉ!!!!!!!!!!!",
      "Ĉ! ćĈĈ",
      "!!!!!!!!!!!!!!!! !&'(",
      "ćĈĈćĈĈćĈ!ćććĈ!ćć %&'(ďĉďĉ!!!!",
      "L &'(",
      "ďĉďĉďĉďĉďĉďĉ!ďĉďĉ! ďĉďĉ!!!",
      "ď Lĉ",
      "ē Ė",
      "ďĉ!!!! RTVa!!!SĂĄĆ!!!!R!!!S",
      "Ĉ!Ĉ!Ĉ!Ĉ!Ĉ ćĈ!ĈĈ!ĈĈĈ",
      "ė ĥĤ",
      "ďĉďĉďĉ Ĉ!Ĉ!Ĉ!Ĉ!ĈćĈĈĈ!ĈĈĈ",
      "ďĉ%&'( ďĉďĉ!!ďĉ",
      "ďĉćććć ćĈ!ćĈ!Ĉ!ćĈĈ!Ĉ!Ĉ!Ĉ!ćĈćĈĈ",
      "ćććććććĈ!Ĉ! ććććććĈ!ćĈĈ",
      "ćććĈ!Ĉ! Ĉ!Ĉ!Ĉ",
      "!% !!!!!!!!!!!!",
      "ććĈ!ćďĉďĉďĉďĉďĉďĉďĉďĉ ďĉ!!",
      "ććććĈ!Ĉ!Ĉ!Ĉ!Ĉ!ĈĈ!Ĉ!ć ďĉ!!ďĉďĉ",
      "% ď",
      "& Ĉ'(!",
      "B B",
      "!!!! ďĉ!!!ćććććĈ!Ĉ",
      ")!) !!!!!!!!!!!!!!!",
      "ďďĉĉ ďďĉĉ",
      "ďĉ ĉĉ",
      ")!)!!!!!!!!!!!!!!!! ďĉďĉďĉ!",
      "'(3 33",
      "%&'(! ďĉďĉďĉ!ďĉ!ďĉ!",
      "ď ććĉ",
      "ĥ ďĉ",
      "ďĉ%&'( ďĉďĉ!",
      "Ħ ĉ",
      "ďĉ!ďĉ! ďĉďĉ!!ďĉďĉďĉďĉďĉ!ďĉ!",
      "ďď ď",
      "ďĉ%&'(ďĉďĉ Ĉ!Ĉ!Ĉ!Ĉ!ćććĈ!",
      "!!% !&'(",
      "ďĉ!!!!!!!!!!!!!!!! !",
      "%&'(ďĉ! ďĉďĉďĉ",
      "!!! ććććĈ!ĈĈďĉ!!!!!!!!!!!",
      "ď ďĉ!",
      "ď ćĈ!ĉ",
      "!!!! RTVa!!!SĂĄĆ!!!!R!!!S",
      "!!!!!!!!!!!!!!!! %&'(ďĉďĉďĉ!",
      "ď%&'(ĉ ďĉ!",
      "ďĉćć ďĉďĉ)",
      "ććććććĈ!Ĉ! Ĉ!ćĈ!Ĉ!Ĉ!Ĉ!Ĉ!!",
      "ď ćĈ",
      "ďĉďĉďĉďĉďĉďĉďĉďĉ ďĉďĉ%&'(",
      "!!!% !!!!!!!!!!!!!!!!!!!!",
      "ďĉ!!!!!!!!!!!! %",
      "!!!!!!!!!!!!!!!!!!! %&'(",
      "ć '",
      "!! %&'(!!!!!!!!!!!!!!!!",
      "ćĈ!Ĉ! ćĈ!Ĉ",
      "ďĉďĉ! ďĉďĉďĉďĉ!",
      "ďĉďĉďĉďĉďĉďĉďĉďĉ ďĉďĉďĉďĉ",
      "ć%&'( ćććć",
      "ďĉ!ďĉďĉďĉďĉďĉďĉďĉďĉ ďĉďĉ!!",
      "!!!!!!!!!!!!!!!!!!!ďĉ! ďĉďĉ!",
      "!!!!!!!!!!!!!!!! &'(",
      "%&'( ďĉ!ďĉ!",
      "LL !LK!LK",
      "%&'(ďĉ ćĈ!ćĈ!Ĉ!",
      "ćďĉ! ďĉďĉďĉďĉďĉďĉďĉďĉ",
      "ďĉćććć ćĈ!ĈĈćĈĈćĈ",
      "ć%&'( ďĉďĉďĉďĉ",
      "ćĈ!ćĈ!Ĉ!Ĉ! ďĉďĉ!",
      "ďďďď ďďďď",
      "!&'(ďĉ)) ħ",
      "ćĈĈ!Ĉ!ĈĈĈćĈćĈ!ććĈ!! ďĉ!!ďĉďĉďĉ",
      "%&'(ćďĉ! ďĉďĉ!!!",
      "M !",
      "ď ďĉďĉĉ",
      "33 2222",
      "AA AA",
      "%ć&' Ĉ(!",
      "LL L",
      "%&'(ďĉ ćććććććć",
      "%&'(ďĉ Ĉ!ĈĈĈĈĈĈĈ",
      "LLLL !LK",
      "ďĉďĉďĉ!! ďĉďĉďĉ",
      "ćĈ!Ĉ!Ĉ!ćĈ!Ĉ! Ĉ!Ĉ!Ĉ!!",
      "ćććććĈ!Ĉ!Ĉ!ćĈĈćĈ %&'(ďĉďĉ",
      "! ĥĤ",
      "ď Ė",
      "ħ ĉ",
      "Ĉ! ćĉ",
      "ďĉďĉďĉďĉďĉďĉďĉďĉ !!ďĉďĉďĉďĉ",
      "%&'(ďĉ!ďĉďĉďĉďĉ !!",
      "ććććĈ!ćĈ!Ĉ!Ĉ!ĈĈ!Ĉ!Ĉ!Ĉ ććĈ!ćďĉ",
      "Ĕ ĥ",
      "Ĥ ))))",
      "ćććć ć",
      "%Ĉ&'( ĈĈ",
      "ďĉďĉ%&'( ďĉďĉďĉďĉ",
      "ćĈ!ć ďĉďĉďĉďĉ",
      "ć%&'(ďĉ!!!!!!!!! ďĉďĉďĉďĉďĉ)!)",
      "ć ČČ",
      "Ĉ ćĈ",
      "!! %&'(",
      "ćĈĈćĈĈ ćĈ",
      "ććć ĉ",
      "ćććććććććć ćĈ!",
      "ďĉďĉ!ďĉďĉ Ĉ!",
      "ďĉ!ďĉďĉďĉ Ĉ!Ĉ!Ĉ!Ĉ!ććĈćć",
      "32323 232222222222222222",
      "Ĉ!ĈćĈ!ćĈĈĈĈĈćĈĈĈĈĈćĈ!ĈĈĈćĈ ďĉ!",
      "ďĉ! ďĉ!!!!",
      "%Ĉ&'(! Ĉ",
      "Ĉ!ĈĈĈ!Ĉ!Ĉ Ĉ!Ĉ!Ĉ!",
      "ććĈ!ćďĉďĉďĉďĉ ďĉďĉďĉ!!ďĉďĉ",
      "ďĉďĉďĉďĉďĉďĉćďĉ! ďĉ",
      "!!!!!!!!!!!!!!!!ďĉďĉďĉ! ďĉ!!",
      "ćććć ćććĈ",
      "ĈĈĈ ĉ",
      "ďĉ%&'( ďĉďĉďĉ",
      "ďĉ!ďĉ!! Ĉ",
      "Ĉ!Ĉ!Ĉ!Ĉ!Ĉ!Ĉ!Ĉ!Ĉ! ĈĈĈ!Ĉ",
      "% ĈĈ",
      "ćć ĈĈĈĈ",
      "ď%&'(ĉ ďĉ",
      "ďĉćććććććĈ!ćČČ ďĉďĉďĉ!!!!!",
      "Ħ Ħ",
      "!! )",
      "ČČ ČČ",
      "ďĉ) !!!)",
      "Ĉ Ĉ!Ĉ!",
      "ďĉďĉ! ďĉďĉ!ďĉ!",
      "ďĉ!ďĉ! ďĉ!",
      "%&'(ďĉ!ďĉďĉďĉďĉ ďĉćĈ!ĈĈ!ĈĈ!ĈĈ!",
      "ďĉ!!!!!!ďĉďĉ!!!! ďĉďĉďĉććĈ!Ĉ!",
      "ćććććććććććĈ! ććĈ!Ĉ!ćĈ!Ĉ!",
      "ćć !",
      "ć%&'(ďĉ! ććĈ!ćĈ!Ĉ!",
      "%ć& Ĉ'(!",
      "ćććďĉććććććĈ!ćć Č",
      "ć K",
      "ć ďĉ!!",
      "ďĉ ćĈ!Č",
      "ćĈ!ćĈ!Ĉ!ĈćĈ!Ĉ! ććĈ!Ĉ!Ĉ!Ĉ!Ĉ!ĈĈ!",
      "ďĉ!!!ďĉ! Ĉ!Ĉ!Ĉ!Ĉ!ĈćĈ!ĈĈ!ĈĈĈ",
      "ćČČ ďĉďĉďĉ!!!!!",
      "Ĕ !",
      "ćĈ!Ĉ Ĉ!ćĈ!Ĉ",
      "ďĉďĉďĉďĉďĉďĉďĉ! ďĉ!ďĉ",
      "ćĈ!Ĉ!Ĉ!ćĈĈćĈ ďĉďĉ",
      "ćĈććć!! %&'(ďĉ!ďĉ!!",
      "Ĉ!ćĈ!ćĈ!Ĉ!Ĉ! ďĉďĉ!!!!!!!",
      "ćććććććććććĈ!ććĈ!Ĉ!ćĈ!Ĉ! ćĈ!ć",
      "ćć ćďĉ!",
      "%& ć'(",
      "ćďĉ )ħ",
      "%&'(ďĉ!!! ďĉďĉďĉ!!ďĉ",
      "%M&'( MMMMMMMMMMMMMMMM",
      "3 2222222222222222",
      "ĉ ďĉ",
      "ďĉďĉďĉ! ććĈ!ćďĉďĉďĉďĉďĉďĉďĉďĉ",
      "ď%&'(ĉ ďĉďĉ!",
      "ďĉďĉďĉ%&'( ďĉďĉ!!",
      "ďĉĈ!Ĉ!Ĉ!Ĉ! Ĉ!ĈĈĈ!ĈĈĈ",
      "ćĈ!ććĈ!ćĈ!Ĉ ďĉćććććććć",
      "L! M",
      "B M",
      "ćĈ! ć%&'(",
      "ďĉ! ďĉďĉ!ďĉ!ďĉďĉďĉ!",
      "Ĉ!Ĉ!Ĉ ďĉ!!!!!!!!!!!!!!!!",
      "!% !!&'(",
      "%&'(ĉ ĉĉĉĉĉĉĉĉ",
      "B !",
      "%&'( ćĈ!Ĉ!",
      "%&'(ďĉ!! ďĉďĉďĉ",
      "L!LK L!LK",
      "%&'(ďĉďĉ! ďĉ!!!!!!!!",
      "ďĉ %&ď'(ĉ",
      "ďĉďĉďĉďĉďĉďĉďĉďĉ ďĉ!ďĉďĉďĉďĉ",
      "ćĈĈĈĈ ĈĈĈ",
      "ć%&'( ććććććĈ!",
      "ďĉďĉ%&'( ďĉďĉďĉďĉďĉďĉ",
      "ćďĉďĉ !!!!!!!!",
      "% Ĉ!",
      "ďĉďĉ!! ďĉ!!ďĉ!!!!!!)!!!!!!!!)!",
      "ďĉďĉďĉďĉďĉďĉďĉďĉ )",
      "ďĉ%&'( Ĉ!Ĉ!Ĉ!Ĉ!",
      "ďĉ%&'( !!!ďĉ!",
      "0101 01'(3",
      "ĥďĉ Ĉ!ĈĈ!",
      "ďĉ %&'ď(ĉ",
      "ďĉďĉďĉ ďďĉĉ",
      "MMMM M",
      "ďĉ!ďĉ %ď&'(ĉ",
      "0011 0011",
      "ďĉ!%&'( ďĉďĉ!ďĉ!ďĉďĉďĉ!ďĉ!ďĉ!!",
      "%&'(ďĉďĉ! ďĉ!!ďĉ!ďĉďĉďĉďĉ!",
      "ć%&'(ććććććĈ! ćČČďĉďĉďĉ!!!!!",
      "% Ĉ",
      "%&'( ćĈ!ćĈ!Ĉ!Ĉ!ďĉďĉ!",
      "ďĉ%&'( ďĉ!!!!",
      "ćĈććĈ!ćĈ!ćĈ!ĈćĈĈ ćďĉ",
      "ď Ĥ",
      "ďď ďĉĉĉ",
      "ďĉďĉďĉ%&'( ďĉďĉďĉďĉ",
      "ďĉďĉďĉ%&'( ďĉďĉďĉďĉďĉ",
      "!!!!!!!!!!!!!!!!!!!!!!!!!! ďĉ",
      "ďĉďĉ ď%ĉ&'(",
      "ďĉďĉ! ďĉďĉ!!!",
      "%&'(ďĉ!!! ďĉďĉďĉďĉďĉďĉďĉďĉ!",
      "ćććććĈ!Ĉ!Ĉ!ćĈĈćĈďĉďĉ Ĉ!Ĉďĉ!ďĉ!",
      "%&'(ďĉćĈ!Ĉ!Ĉ!Ĉ!Ĉ!Ĉ!ĈĈ ďĉ!!!ďĉ!",
      "00110101 0011",
      "ććĈ! ďĉďĉďĉďĉ!ďĉďĉ!!",
      "ćĈ!ĈĈćĈ!ćĈĈćĈ!Ĉ! ć%&'(ďĉďĉ",
      "Ė !",
      "!!!!!!!!!!!!!!!!!!!! %&'(",
      "!!!% !!&'(!!!!!!!!!!!!!!!!",
      "ďĉ!!ďĉ! ďĉďĉ!ďĉ!ďĉďĉďĉ!",
      "ď! ď!",
      "&' Ĉ(!",
      "ććĈ!ćĈ!ćĈ!ć ďĉ!!!!!!!!!!!!!!!",
      "3322 2323",
      "ćĈ! ćććć",
      ")ďĉďĉ! ďĉ!ďĉ!",
      "ďĉćććĈ!Ĉ!Ĉ!Ĉ ďĉ!ďĉďĉďĉďĉ",
      "ćďĉďĉ%&'( ćććććććĈ!Ĉ!Ĉ!ćĈ!Ĉ!",
      "!!!!!!!! !!ďĉďĉďĉďĉ",
      "!!!!!!!!!!!! &'(",
      "ďĉďĉďĉ%&'( !",
      "ďĉďĉďĉďĉďĉďĉ RTVa",
      "ććĈ!Ĉ ďĉ",
      "ďĉď%&'(ĉ ďĉ",
      "ďĈĈ ĉ",
      "ćĈ!Ĉ! Ĉ!Ĉ!Ĉ",
      "ďĉďĉ!! ďĉďĉďĉďĉ!ďĉďĉ",
      "!!% !!!!!!!!!!!!!!!!!!!!",
      "ćĈ!ćĈ!Ĉ!Ĉ! %&'(ďĉďĉ!",
      "!!!!!!!!!!!!!!!!!% !&'(",
      "ć%&'(ďĉďĉďĉďĉ! ďĉ!ďĉďĉ",
      "ćĈ!ćĈ! ćĈĈ",
      "Ĉ!ĈĈĈ ďĉ!!!!!!!!!!!!!!!!",
      "ď%&'(ĉ ďĉďĉďĉ",
      "ďď ďĉĉ",
      "ćĈĈćĈĈ ćĈĈćĈ",
      "!!!!!!!!!!!!!!!!!!!!!!!% !&'(",
      "ď ĈĈĈĉ",
      "ďĉďĉďĉ )!)ďĉďĉďĉďĉďĉďĉ!!!",
      "ďĉ!ďĉďĉďĉďĉ ďĉ",
      "!!!!!!!!!!!!!!! )!)",
      "!!!!!!!!!!! ďĉ!ďĉďĉ",
      "ćĈ!Ĉ!ćĈ!ćĈ!Ĉ! ćĈ!Ĉ!ćĈ!Ĉ",
      "% L&'(",
      "ď ďĉ",
      "ćĈ! ď",
      "ćĈ Ĉ!Ĉ!",
      "ďĉďĉďĉ )!)",
      "01 000111",
      "!% ď&'(ĉ",
      "%ď&'(ĉ !!",
      "%ď&'(ĉ ďĉďĉ!",
      "Ĉ!ĈĈ!Ĉ Ĉ!ĈĈ!",
      "ć%&'(ďĉ! ďĉďĉ!!!",
      "ćĈ!ĈĈĈćĈćĈćĈĈĈćĈďĉďĉ! ďĉ!!ďĉ!",
      "ĥďĉĈ!ĈĈ! ďĉćĈ!Č",
      "ď Ħĉ",
      "ď%&'(ĉ ďĉ!!",
      "%ď&'(ĉ ďĉ",
      "ć%&'( ďĉďĉďĉ",
      "ď! ď",
      "ć! Ĉ",
      "322 32323",
      "3 232222222222222222",
      "ćĈĈ ďĉďĉ!!!",
      "!!!% ď&'(ĉ",
      "ď%&'(ĉ !!!!!!!!!!!!!!!!",
      "ďĉďĉ%&'( ďĉ!!",
      "ćďĉ ć%&'(ćććć",
      "!!!&'( !!!!",
      "!!!!!!!!!!!!!!!!% !!!!!!!!!!!!",
      "ďĉ)!!!) !!!!!",
      "ćĈ!ĈĈ!ćĈ!Ĉ ćććććććĈ",
      "ćĈĈćĈĈćĈĈćĈ ćĈĈćĈĈćĈ",
      "ďĉ %",
      "ćććĈ!Ĉ! Ĉ!Ĉ!Ĉ!",
      "ćĈĈćĈĈćĈ!ćććĈ!ććďĉďĉ!!!! ďĉďĉ",
      "Ĉ!ĈĈĈ!Ĉ!ĈĈ!Ĉ!Ĉ! ćďĉďĉ!",
      ") ďĉ",
      "!!!% !!!!!!!!!!!!!!!!!!!!!!!!",
      "ćĈ!ćĈ ďĉďĉďĉďĉ!",
      "ďĉ!ďĉ %!&'(",
      "ĈĈĈĈĈ ďĉ!ďĉ!",
      "ďĉ!!ďĉďĉďĉďĉďĉďĉ! ďĉďĉ!!",
      "ďĈ!Ĉ ĉ",
      "Ĉ! %&'(",
      "ďĉ! ďĉďĉ!ďĉ!",
      "ćĈ ć",
      "MMMM MMM",
      "ć%&'( !!!!!!!!!!!!!!!!",
      "(788888888,-%&+01 000111",
      "Ħ ē",
      "ćććććććććććććććć ćććććććććć",
      "ď! ďď",
      "322 2323232222222222222222",
      "Ė ē",
      "ććććććĈ! ćć",
      "ďĉ!!!!!!!!!!!! !ďĉ!",
      "ćććĈ!Ĉ!Ĉ!ćĈ!Ĉ!Ĉ ćďĉďĉďĉďĉ",
      "%ć& ć'(",
      "L!LK!LK !LK",
      "ħ) ę",
      "ďĉďĉďĉďĉ %&'(ďĉ",
      "!!! %&'(!!!!!!!!!!!!!!!!",
      "ďĉďĉďĉ !!!!!!!!!!!!!!!!",
      "ďĉ!!!!!!!! %&'(ďĉ!",
      "ďĉďĉ!! ďĉďĉďĉďĉ!",
      "!% !!&'(!!!!!!!!!!!!!!!!",
      "ď! Ĉ!ĉ",
      "!!!ďĉ! )!)!!!!!!!!!!ďĉ!!!!!!",
      "ĈćĈĈćĈćĈĈĈćĈĈ ďĉ%&'(",
      "(788888888,-%&+01 01010101",
      "ď K",
      "!! ďĉ!!!!!!!!!!!!!!!!",
      "Ĉ!Ĉ!Ĉ!Ĉ! Ĉ!Ĉ",
      "%&'(ĉ ĉĉĉĉ",
      "%ď&'(ĉ ďĉďĉ",
      "ďĉ!!!!! %&'(",
      "!!!!! ďĉďĉďĉ!ďĉďĉćććććĈ!Ĉ!ćĈĈ",
      "!!!!!!!!!!!!!!!!!!% !!!!!!!!",
      "ćĈ!ćĈ!Ĉ!Ĉ!ćĈĈ! %&'(",
      "ĥ! Ĥ",
      "C !",
      "ćĈ! %&'(",
      "ďĉ!! ďĉďĉďĉ!ďĉ!!!!!!!!!!!!!!!!",
      "ďĉ!!!! ďĉďĉďĉ!ďĉďĉ!",
      "LLLLLLLL LLLL",
      "&' ć(",
      "ďĈ ĉ",
      "ďĉ!!!!!!!!ďĉ!ďĉ! %&'(",
      "ďĖ ĉ",
      "%ĈĈ &'(",
      "L !L",
      "ď ħĉ",
      "ďĉďĉ %!&'(",
      "!!!!!!!!!!!! !!&'(",
      "!!!!!!!!!!!! ďĉ!!ďĉ!!!!!!!!!!!",
      "ď%&'(ĉ ďĉďĉďĉďĉ",
      "ďĉ!ďĉďĉďĉďĉ %&'(ďĉďĉďĉ",
      "ďĉ!!!!!!!!!!!! !!",
      "ććĈćć ďĉďĉďĉ!!",
      "ďĉććććććĈććĈ! ďĉďĉďĉ!ććĈ!ć",
      "ď) ĉ",
      "ďĉ!ďĉďĉďĉďĉďĉďĉďĉďĉďĉďĉ!! ććć",
      "%&'( ďĉďĉďĉ!!",
      "%&'(ďĉ Ĉ!Ĉ!ĈĈĈ!Ĉ!Ĉ!Ĉ!ĈĈĈĈ",
      "Ĉ!Ĉ!ĈĈ!Ĉ!Ĉ!Ĉ! ďĉďĉďĉďĉďĉ!",
      "ďĉĈ! %&'(Ĉ!Ĉ!Ĉ!Ĉ!",
      "ďĉććďĉďĉ) ćďĉ%&'(",
      "ďĉĈ!%&'(Ĉ!Ĉ!Ĉ!Ĉ! ĈĈĈ!ĈĈĈ",
      "ďĉďĉďĉďĉ ďĉ!ďĉďĉ",
      "ďĉ!!!!!!!! %",
      "ďĉďĉ!! ďĉ%&'(",
      "%&'(ďĉ ćĈ!Ĉ!ĈćĈ!ďĉćććććććĈ!ćĈ!",
      "Ĉ!ćĈ! ć%&'(",
      "ĖĖ ĖĖ",
      "ćďĉ!!!!!!!!! ďĉďĉďĉďĉďĉ)!)",
      "ćććĈ!Ĉ!Ĉ!Ĉ!Ĉ ďĉ!ďĉ!ďĉ!",
      "% !!!!!!&'(",
      "Ĉ! ćĈ!ćĈ!Ĉ!",
      "ďĉďĉďĉďĉ ćĈ!ĈĈ!Ĉ!ďĉ!ďĉ!",
      "!!% !!!!!!!!!!!!!!!!!!!!!!!!",
      "%Ĉ&'( ĈĈĈ",
      "ĈĈ! ĉ",
      "ĈćĈĈćĈćĈĈĈćĈĈďĉ Ĉ!ĈĈĈĈ",
      "ćĈ!Ĉ!ćĈ!ćĈ!ćĈ!Ĉ!ććććĈ!ććĈ!ć !",
      "ďďĉ! ĉ",
      "A !",
      "ďĉ ćĈ!ćĈ!Ĉ!Ĉ!ćĈ!Ĉ!Ĉ!ćĈ!Ĉ!",
      "ĈĈ Ĉ!",
      "!% !!!!!!!!!!!!!!!!!!!!",
      "!% !!!&'(!!!!!!!!!!!!!!!!",
      "ďĉ!!! ďĉ%&'(ďĉďĉ!!ďĉ",
      "%Ĉ&'(! Ĉ!",
      "%Ĉ&'(! Ĉ!Ĉ!",
      "Ĉ!ĈĈćĈ ďĉďĉ",
      "%&'(! ĥĤ",
      "%!ć &'(",
      "& ď'(",
      "0 000111",
      "B ĉ",
      "ďĉ ħ",
      "ćĈ!Ĉ! Ĉ!ĈĈ!Ĉ",
      "ďĉ!! ďĉďĉďĉďĉďĉďĉďĉ)!",
      ")!) ďĉďĉďĉćććĈ!Ĉ!Ĉ!ĈĈ!Ĉ!ćĈ!Ĉ!",
      "ďĉ!ďĉ! ďĉďĉďĉďĉ!ďĉďĉ",
      "ďĉććĈ! ďĉ!ďĉ!!ćĈ!",
      "ďĉďĉďĉďĉ%&'( ďĉďĉ!",
      "ćĈ!Čďĉďĉ! %&'(ďĉďĉďĉďĉďĉďĉďĉďĉ",
      "ďĉďĉ %&ď'(ĉ",
      "%&'( ďĉďĉďĉ%&'(",
      "ćĈ!Ĉ! Č",
      "!!!% !!&'(",
      "Ĉ!Ĉ!Ĉ!! ĈĈ!ĈććĈ!Ĉ!ĈĈ!ĈĈ!Ĉ!ćĈ!",
      "ćĈ!Ĉ!ćĈĈ!ćĈ!ćĈ!Ĉ Ĉ!Ĉ!Ĉ!",
      "ďĉćĈ!Ĉ!Č ďĉďĉďĉ!",
      "ć%&'(ďĉĈ!ćĈ!Ĉ!Ĉ!ćĈ!Ĉ!Ĉ!ĈĈ! ćĈ!",
      "ć ďĉďĉ!!!!",
      "Ĉ!Ĉ!Ĉ Ĉ!Ĉ!ćĈ!Ĉ!",
      "ďĉďĉďĉ! ďĉďĉďĉďĉ",
      "ďĉďĉďĉ! ďĉďĉ!!",
      "322 33",
      "%&'(ďĉďĉďĉďĉďĉďĉďĉďĉ ďĉďĉďĉďĉ",
      "Ĉ!ďĉďĉćĈ!ďĉ! %&'(",
      "Ĕ! ďĉďĉďĉďĉ",
      "ć Č",
      "!! Ĉ",
      "ďĉ Ĉ!Ĉ!",
      "&'( !!!!",
      "%&'( ďĉďĉďĉďĉďĉďĉďĉ!",
      "ďĉďĉ! )",
      "ćććĈ!Ĉ! Ĉ!ćĈ!Ĉ!",
      "ďĉďĉďĉďĉďĉďĉďĉďĉ %&'(",
      ")!)!!!!!!!!!!!!!!!! !",
      "%Ĉ&'(! Ĉ!Ĉ!Ĉ!Ĉ!",
      "ćĈ!Ĉ!Ĉ!Ĉ! ďĉ!!!!!!!!!!!!!!!!",
      "ď!! ĉ",
      "R%&'(TVa !!!SĂĄĆ!!!!R!!!S",
      "ćĈĈ!Ĉ!ĈĈĈćĈćĈ!ććĈ!! ďĉ!!",
      "ć%&'(ďĉďĉ ććĈ!ďĉďĉďĉďĉ!ďĉďĉ!!",
      "ććĈ! ďĉ!ďĉ!!ćĈ!",
      "ďĉďĉďĉďĉďĉďĉďĉďĉ !!",
      "ďĉďĉďĉďĉďĉďĉďĉďĉ ďĉďĉ!!",
      "ďĉ%&'( ďĉďĉďĉďĉďĉďĉďĉ",
      "ďĉďĉďĉďĉďĉďĉ ď%&'(ĉ",
      "Ĉ!ćĈ!Ĉ!Ĉ!ćĈ!Ĉ!Ĉ!ĈĈ! ćĈ!ďĉ!",
      "ď !!!",
      "ď ćććĉ",
      "Ĥ Ĥ",
      "ďĉ ē",
      "ďĉ ćććĈ!Ĉ!Ĉ!ćĈ!Ĉ!Ĉćďĉďĉďĉďĉ",
      "ĈĈĈĈ ĈćĈĈ",
      "ćĈ ćć",
      "ďĉďĉ! ďĉďĉďĉ!!",
      "ďĉ!!!!!!!! !%",
      "ććć %ć&'(",
      "!!!!ďĉ!!ďĉďĉďĉďĉďĉďĉďĉďĉ! ćĈ!Č",
      "ďĉďĉ!ďĉďĉćććććďĉ! ďĉďĉďĉ!ďĉ",
      ">> >>",
      "L ďĉ!",
      "Ğ ğ",
      "ďĉ! ďĉďĉďĉ!",
      "ďĉ!ďĉ! ďĉďĉďĉ!",
      "!% !!!!!!!!!!!!!!!!!!!!!!!!",
      "ďĉ!!! %&'(",
      "ďĉ!!! ďĉďĉďĉďĉďĉďĉďĉďĉ!",
      "ďĉďĉďĉďĉďĉďĉ %ď&'(ĉ",
      "ďĉďĉ!ďĉ! ďĉďĉďĉďĉ!",
      "!!!!!!!!!!!!!!!!!!! ďĉ!ďĉďĉ",
      "ćďĉćććďĉ!! ďĉďĉďĉ!",
      "ććććĈ!Ĉ!Ĉ!Ĉ!Ĉ!ĈĈ!Ĉ!ć ďĉ!!",
      "ćďĉćĈ!ććĈ!ćĈ!Ĉ ďĉćććććććć",
      "\" %&-+/,'(%&-+/,'(",
      "% ććĈ",
      "!!!! !!!ďĉ!!!!!!!!!!!!!!!!",
      "ćĈ! ďĉďĉďĉďĉďĉďĉďĉďĉďĉďĉďĉďĉ",
      "ďĉďĉďĉ ď%ĉ&'(",
      "ćďĉ! ďĉ!!!!!!!!!!!!!!!!",
      "Ĉ!Ĉ!ĈĈ Ĉ!ĈćĈ!",
      "ďĉďĉďĉďĉďĉ%&'( ďĉďĉďĉ!",
      "Ĉ!ĈĈĈ!ĈĈĈ ćďĉďĉ!",
      "ėĥĤ ē",
      "Ĉ!ďĉďĉćĈ!ďĉ!%&'( ććĈ!Ĉ!Ĉ!Ĉ",
      "ď !!!!!!!!!!!!!!!!",
      "Ē !!!!",
      "ćć ćĈ!Ĉ",
      "ćć ćĈ!ćĈ",
      "ďĉďĉ! ďĉ!!ďĉďĉďĉďĉďĉďĉ!",
      "ďĉďĉďĉ ćććĈ!Ĉ!Ĉ!Ĉ!Ĉ!Ĉ!Ĉ!Ĉ!Ĉ!Ĉ!",
      "!!!% !!!&'(",
      "23 22",
      "ďĉďĉ!!!! RTVa!!!SĂĄĆ!!!!R!!!S",
      "ć%&'(ďĉ ćĈ!ććĈ!ćĈ!Ĉďĉćććććććć",
      "ććććĈ!ĈĈ!ćĈ!ĈĈ!Ĉ!Ĉ!ćĈ!ćĈ %&'(",
      "%&'(Ĉ!Ĉ!Ĉ!Ĉ! Ĉ!",
      "Lďĉ! K",
      "Ĉ!Ĉ!ĈĈĈ!ĈćĈ! ĈĈĈĈĈćĈĈ",
      "' 7",
      "ď Ē",
      "ďĉ!! %&'(",
      "ććĈ ćĈ!Ĉ!Ĉ!Ĉ!Ĉ!Ĉ!",
      "ďĉďĉ!! ďĉďĉďĉďĉďĉďĉďĉďĉ!",
      "77 '7",
      "ďĉćććć Ĉ!ćĈ!Ĉ!",
      "ďĉ!ďĉďĉďĉďĉďĉďĉďĉďĉ %&'(",
      "Ĉ!Ĉ!ćĈĈ ćĈĈĈĈĈĈĈĈ",
      "666666667777 77'7",
      "%&'(ďĉćććććććć Ĉ!Ĉ!Ĉ!Ĉ",
      "ďĤ ĉ",
      "0000111 1",
      "ć ďĉďĉ!!",
      "ććĈ! ćďĉ!",
      "ďĉ%&'( ďĉďĉďĉďĉďĉďĉďĉďĉ",
      "!!% !!!&'(!!!!!!!!!!!!!!!!",
      "ďĉćććć ćććĈĈććććććĈ!ćĈĈ",
      ")) ħ!",
      "%!&'( ďĉďĉďĉ!!ďĉ!",
      "%! &Ĉ'(!",
      "ďĉĈ!Ĉ!Ĉ!Ĉ! Ĉ!Ĉ",
      "ććĈ!Ĉ!Ĉ!Ĉ!Ĉ!Ĉ!ććĈ! ć%&'(ďĉ!",
      "ćĈ!Ĉ!ćĈĈ!ćĈ!ćĈ!Ĉ Ĉ!Ĉ!Ĉ!ćĈ!Ĉ!",
      ") M",
      "ďĉ ď!ĉ",
      "Ĉ!Ĉ!Ĉ!Ĉ! ĈĈ!Ĉ!Ĉ!Ĉ!",
      "ďĉďĉďĉ %!&'(",
      "ďĉ%&'( !!!!!!!!!!!!!!!!",
      "ćďĉ! ďĉďĉďĉĈ!ĈĈć",
      "ď! Ĉ",
      "ďĉďĉďĉďĉ%&'( ďĉďĉ",
      "%&'(ďĉďĉďĉ! ďĉ!ďĉ!",
      "Ĉ!ĈĈĈ! ďĉ",
      "ćď ćĉ",
      "%&'(%&'(%&'( ďĉďĉďĉďĉ!ďĉďĉ!!",
      "ďĉ!!!ďĉ! Ĉ!Ĉ!Ĉ!Ĉ!ĈćĈĈĈ!ĈĈĈ",
      "! ĉ",
      "ć %ď&'(ĉ",
      "Đ Đ",
      "%&'( ďĉďĉďĉďĉ!",
      "!!!!!!!!!!!!!!!!!!!!!!!! !&'(",
      "ćĈ!ćĈ! ćĈ!",
      "Ĉ!Ĉ!Ĉ Ĉ!Ĉ!Ĉ!",
      "ćĈ!ćĈ!Ĉ! ĈĈ!",
      "ćďĉ! ďĉďĉďĉ",
      "'(3 323",
      "ďďĉĉ ďĉďĉďĉďĉ",
      "ďĉ!ďĉ ď%&'(ĉ",
      "!!!&'( ćďĉ!ďĉćććĈ!ćĈ!ćĈ!ćĈ!",
      "ćĈ!ďĉ! ďĉďĉďĉ%&'(",
      "ďĉ!ďĉďĉ!! ďĉďĉďĉďĉ!ďĉďĉ",
      "%&'(ďĉďĉďĉ !!!!ďĉ!!!ćććććĈ!Ĉ",
      "!!!!!!!&'( )!)!!!!!!!!!!!!!!!!",
      "Ĉ!Ĉ!ĈĈ!Ĉ!ĈĈĈĈ!Ĉ!ĈĈ!Ĉ!Ĉ!!Ĉ! ďĉ!",
      "ďĉćććććććĈ!ćČČ %&'(ďĉďĉďĉ",
      "!ďĉ!! ďĉ)!!!)!!!!!",
      "ćĈ!Ĉ!Ĉ!ćĈĈćĈďĉďĉ ććĈ!Ĉ!Ĉ!ćĈ!",
      "% !&'(!!!!!!!!!!!!!!!!",
      "ďĉ ď%&'(ĉ!",
      "'( ;",
      "ćĈ!Ĉ! ć",
      "ďĉ!ďĉ )))",
      "%&'(ďĉďĉ ćďĉ",
      "ďĉćććććććć ććććććĈ!",
      "Ĉ!ćććĈ!ććĈ!ćĈ!ĈĈĈćć !!!!ďĉ!!",
      "ćĈ!Ĉ!Ĉ!Ĉ!Ĉ!Ĉ!ĈĈ ďĉ!!!ďĉ!",
      "ďĉ!ďĉ!ďĉ!ďĉ! ďĉ!",
      "ćĈ!ĈćĈĈ ćĈĈĈĈĈĈĈ",
      "Ħ !!",
      "ďĉďĉ ććć",
      "ďĉďĉ %&'ď(ĉ",
      "ćććć Ĉ!Ĉ",
      "%&'(%&'( ďĉ!!!!!!!!!!!!!!!!",
      "!!! %&'(%&'(ďĉ!!!!!!!!!!!!!!!!",
      "!!!!!!!!!!!!!!!!!!!!!!!! !!&'(",
      "!!!!!!!!!!!!!!!!!!!! !&'(",
      "ćĈ!Ĉ Ĉ!Ĉ!Ĉ!Ĉ!",
      "!!% !!!&'(",
      "ďĉďĉ%&'( ďĉďĉďĉ!",
      "ďĉďĉďĉ%&'( ďĉ!ďĉďĉ",
      "%Ĉ&'(! Ĉ!Ĉ",
      "ćďĉďĉ !!!!!!!!!!!!!!!!!!!%&'(",
      "!!!ďĉ! ďĉ!!!!!!",
      "ďĉ!ďĉďĉďĉ Ĉ!ĈĈć",
      "ćĈ!Ĉ!Ĉ!ćĈĈćĈ %&'(ďĉďĉ",
      "ďĉďĉďĉďĉďĉ%&'( ďĉďĉďĉ",
      "Ĉ!! Ĉ!!",
      "!ďĉ ććĈ!Ĉ!ĈĈĈ!Ĉ!Ĉ!ĈĈćĈ",
      "%&'(ďĉďĉďĉ Ĉ!Ĉ!Ĉ!Ĉ!Ĉ!ćĈ!ĈĈĈĈ",
      "ćďĉďĉććĈ! ďĉďĉďĉďĉ!",
      "!!!!!!!!!!!!ďĉ!! ďĉ!!!!",
      "ďK ĉ",
      "Ĉ!ćĈ!ć%&'( ďĉďĉďĉďĉďĉćććć",
      ") ĉ",
      "ć ħ",
      "ćć %ć&'(",
      "ćććć ćĈ!ćČ",
      "ďĉďĉ! ďĉďĉďĉďĉ!ďĉ!!",
      "ďĉ!ďĉ! ďĉ!!",
      "ďĉďĉďĉ!! ďĉďĉďĉďĉ",
      "ďď !!",
      "ĈĈĈĈĈĈĈĈĈĈĈĈ Ĉ",
      "ćĈ!Ĉ!ĈćĈ! ć%&'(",
      "ćććććććććććĈ!Ĉ ćĈ!Ĉ!ĈćĈ!ć%&'(",
      "ć%&'(ďĉďĉďĉďĉ ććĈ!Ĉďĉ%&'(",
      "E FD",
      "ď Ĉ!ćĉ",
      "ćĈ ĉ",
      "ďĉ!!!!!!!! !!!%",
      "ďĉďĉďĉďĉďĉďĉďĉďĉ ďĉďĉ!",
      "ďĉ%&'( ďĉďĉďĉďĉďĉďĉ",
      "%&'(ĉ ĉ",
      "%Ĉ&'( ĈĈĈĈĈĈĈĈĈĈĈĈĈĈĈĈ",
      "ć%&'( ďĉ!ďĉďĉ!!ďĉďĉďĉďĉ!ďĉďĉ",
      "ďĉďĉ%&'( ďĉďĉďĉ",
      "ďĉ!!!!!!!!!!!! !",
      "ďĉďĉćććć ćďĉ!",
      "L!LK LLLL",
      "ďĉďďĉĉ ďĉďĉďĉďĉ",
      "Ĉ!Ĉ!ćĈ!Ĉ ďĉ!!!!!!!!!",
      "00110101 01'(3",
      "ďĉďĉďĉďĉďĉ!ďĉďĉďĉďĉ ďĉ!ďĉďĉďĉ",
      "(788888888,-%&+ 0011",
      "!!!%!!!!!!!!!!!! &'(",
      "ďĉďĉďĉďĉďĉ!ďĉďĉďĉ! %&'(",
      "ćďĉďĉćććććććĈ!Ĉ!Ĉ!ćĈ!Ĉ! Ĉ!",
      "ćďĉćććć ććĈ!Ĉ!",
      "Ĕ!ďĉďĉďĉďĉ ćććďĉ!",
      "ďĉ! ďĉ%&'(ďĉďĉ",
      "LL L!LK!LK",
      "ďĉ%&'( ćććććććć",
      "ć%&'( ďĉ!ďĉďĉďĉďĉďĉďĉďĉďĉ",
      "ďĉćć ć%&'(",
      "%&'(ďĉ! ćĈ!ćĈďĉďĉďĉďĉ!",
      "Ĉ!ćĈ!Ĉ!ĈćĈĈĈ ćĈĈĈĈĈ",
      "(788888888,-%&+01 0011",
      "ďĉďĉ!ďĉ )))",
      "Ĉ!Ĉćć %&'(ďĉ!ćĈ!ćĈďĉďĉďĉďĉ!",
      "ďĉ!ďĉ!!!!!!!!!!! ďĉ!!",
      "%&'(ďĉĈ!ĈĈĈĈĈĈĈ Ĉ!ĈĈĈďĉ",
      "ďĉďĉ!ďĉďĉ!ďĉ! %&'(ďĉ!!!",
      "ďĉ!!!!!!!!!!!!!ďĉ! ďĉ!!!!!!",
      "ď ē",
      "ď ĈĈĈĈ",
      "ďĉ ćĈ!Ĉ!ĈćĈ!ďĉćććććććĈ!ćĈ!",
      "ďĉďĉďĉďĉ ďĉ!ďĉ",
      "ďĉ!!!!!!!! ďĉ!ďĉ%!&'(",
      "ďĉďĉďĉ%&'( ďĉďĉ!",
      "ćĈĈĈĈĈ Ĉ!ĈĈ!ĈĈĈ",
      "ďĉ!%&'( !",
      "ďĉććĈ! ďĉďĉďĉďĉ!ďĉďĉ!!",
      "ďĉďĉďĉďĉ%&'( !ďĉ!!",
      "ćĈĈĈĈĈĈĈĈĈĈĈĈ ĈĈ",
      "ďĉĈ!ĈĈĈĈĈĈĈ Ĉ!ĈĈĈďĉ",
      "ćĈ!Ĉ!Ĉ!Ĉ!Ĉ!Ĉ %&'(ďĉĈ!Ĉ!Ĉ!Ĉ!",
      "ććĈćĈ!Ĉ!Ĉ!Ĉ!Ĉ!Ĉ! ććĈ!Ĉ!Ĉ!ćĈ!",
      "% Ĉ!Ĉ",
      "Ĉ !!!",
      "ďĉďĉďĉďĉ ď%ĉ&'(",
      "ďĉ! %",
      "ďĉďĉďĉ Ĉ!Ĉ!Ĉ!Ĉ!!",
      "MMMM MM",
      "ďĉ%&'( ďĉďĉďĉďĉďĉďĉďĉ!",
      "2222222222222222 222222",
      "ďĉďĉďĉďĉďĉďĉ! ďĉďĉďĉďĉďĉ)!)",
      "ďĉďĉďĉďĉďĉďĉďĉ %&'(ďĉ",
      "ĖĖ Ė",
      ")!)!!!!!!!!!ććććĈ!ĈĈ ďĉ",
      "%ćć &",
      "ďĉ!!ćććććććĈ!Ĉ!Ĉ!ććĈĈććĈ! ćĈĈ",
      "ćďĉďĉćććććććĈ!Ĉ!Ĉ!ćĈ!Ĉ! Ĉ!ćďĉ!",
      "ćĈĈćĈĈćĈĈćĈćĈĈćĈĈćĈ ćć%&'(",
      "A M",
      "ďĉ Ĉ!Ĉ!ĈĈĈĈ!Ĉ!Ĉ!ĈĈĈĈĈĈĈĈĈ",
      "ďĉďĉ!! ďĉ!ďĉďĉďĉďĉ!!",
      "Ĉ!ĈĈĈ Ĉ!ĈĈĈĈĈ",
      "23 322",
      "Ē!! Ē",
      "ć ďĉďĉďĉďĉďĉďĉ",
      "Ĥ !",
      "ďĉ Ē",
      "!!!!!!!!!!!!!!!! !!&'(",
      "%&'( !!!!!",
      "ďĉďĉďĉďĉ ćććĈ!Ĉ!ććĈ!ćĈ!ćČ",
      "ďĉ! ďĉććććććĈććĈ!ďĉďĉďĉ!ććĈ!ć",
      "ďĉ! ))ħ!",
      "ćĈ Ĉ!Ĉ",
      "ćĈ )!)!!Ĉ!Ĉ!ĈĈ!!!!!",
      "ďĉďĉďĉ %&ď'(ĉ",
      "ďĉďĉďĉ ćďĉďĉďĉďĉ!ććĈ!Ĉ!Ĉ!Ĉ!Ĉ",
      "ďĉ%&'( !!",
      "Ĉ!Ĉ!Ĉ!Ĉ!Ĉ!Ĉ! Ĉ!",
      "ćďĉ ď%&'(ĉ",
      "ďďĉĉ ďĉďĉďĉ",
      "!!!!!!!!!!!!!!!!!!!!! ďĉ!!!!",
      "ćĈĈćĈ ďĉďĉ",
      "ćĈ!ćĈ!Ĉ!Ĉ! ď%&'(ĉďĉ!",
      "Ĉ!Ĉ!Ĉ!! ďĉďĉ!ďĉ!!!!!!!!",
      "ćďĉďĉ! ďĉďĉďĉ!!ďĉ!!!!",
      "(788888888,-%&+01 001101010011",
      "ďĉďĉďĉ!!ďĉ! ďĉ%&'(!",
      "ďĉćĈ!Ĉ!Č ďĉďĉďĉ!ććĈ!ć",
      "Čďĉďĉďĉďĉďĉďĉďĉďĉ !!!",
      "ē! Ħ",
      "32222 323232222222222222222",
      "ďĉ!ďĉ!!Ĉ ďĉ!ďĉ!!!!",
      "ďĉ Ė",
      "%&'( ďĉďĉďĉďĉďĉďĉ",
      "ćĈ! ďĉďĉďĉĈ!Ĉ!Ĉ!Ĉ!Ĉ!ćĈ!ĈĈĈĈ",
      "Ĉ!Ĉ!Ĉ!Ĉ! Ĉ!",
      "ćĈĈĈĈ ćć",
      "!!!% !!!!!&'(!!!!!!!!!!!!!!!!",
      "!!% !!!!!&'(",
      "%Ĉ&'( ĈĈĈĈ",
      "ďĉďĉďĉďĉďĉďĉďĉ !!!",
      "ćď ĈĈ",
      "ćď ććĉ",
      "ďĉ%&'(ďĉďĉ ćďĉ!",
      "Ĉ!Ĉ!Ĉ!ĈĈĈ Ĉ!Ĉ!ĈĈ!Ĉ!Ĉ!ĈĈĈĈ",
      "ďĉďĉďĉ!!ďĉ!ďĉ%&'(! ďĉďĉďĉćďĉ!",
      "ć ď%&'(ĉ!",
      "ĉ ĈĈ",
      "ĥ !!",
      "Ĉ!Ĉ! ďĉďĉ!",
      "!!!% !!!!!&'(",
      "ć%&'( ďĉ!ďĉďĉďĉĈ!ĈĈć",
      "2323 23232222222222222222",
      "ć! Ĉ!",
      "(788888888,-%&+01 0101",
      "!&'(ďĉ)) ďĉħ",
      "323 22",
      "% !!&'(!!!!!!!!!!!!!!!!",
      "%&'( ďĉ!ďĉ!!ćĈ!",
      "ćććć ććĈ",
      "ćĈ!ćĈ! ććĈ!",
      "ďĉďĉďĉ ćććĈ!Ĉ!Ĉ!Ĉ!Ĉ!Ĉ!",
      "ďĉďĉďĉ! ďĉďĉďĉďĉďĉ)!)",
      "ďĉďĉďĉďĉďĉďĉďĉďĉ ďĉ!",
      "ďĉďĉďĉďĉďĉďĉďĉďĉ ďĉďĉďĉďĉďĉ",
      "ďĉ%&'( ďĉďĉďĉďĉďĉ",
      "ććĈ!Ĉ! Ĉ!ĈĈ!Ĉ",
      "ďĉ!ďĉ! ďĉ",
      "!!% ď&'(ĉ",
      "ć%&'( ďĉďĉ!ďĉďĉ",
      "ďĉďĉďĉďĉďĉďĉ ćĈ!Ĉ!Ĉ!ĈĈ!Ĉ",
      "0011 01'(3",
      "ďĉ%ď&'(ĉ !!",
      "ēē ē",
      "ďĉďĉďĉďĉďĉ!!ďĉ!!!! !!!",
      "ćĈ!Ĉ!ĈĈćĈćĈĈĈĈĈĈĈĈĈĈĈĈ ďĉ!!",
      "ďĉćććććććĈ!ćĈ! ćďĉ!",
      "ćďĉ!!!!!!!!! ďĉďĉďĉ!!",
      "(788888888,-%&+ 0",
      "ćďĉćććďĉ!! ďĉďĉ%&'(ďĉ!",
      "ďĉ!ďĉďĉďĉ%&'( ďĉďĉďĉďĉ",
      "ćĈćďĉďĉďĉ!!! ďĉďĉďĉďĉ%&'(",
      "ďĉććććĈ!ćĈ!Ĉ! ćĈ!Ĉ!ćĈ!ćĈ!Ĉ!",
      ") !!",
      "A ē",
      "'( !",
      "ďĉ!! ďĉďĉďĉďĉ",
      "ĈĈĈĈĈĈĈĈ ĈĈ",
      "!!!!!!!!!!!!!!!!!!!! !!&'(",
      "%&'(ďĉ ćĈ!Ĉ!Č",
      "Ĉ!ĈĈĈĈ Ĉ!ćĈ!Ĉ!ĈćĈĈĈćĈĈĈĈĈ",
      "Ĉ!Ĉ!Ĉ! ĉ",
      "ďďĉĉ ďĉďĉ",
      "ďĉďĉďĉďĉďĉ!! ďĉ!ďĉďĉďĉďĉ",
      "ďĉďĉďĉďĉďĉ! ďĉďĉďĉ",
      "%&'(ďĉ! ďĉďĉ!ďĉ!ďĉďĉďĉ!ďĉ!ďĉ!!",
      "%! &",
      "%! &'Ĉ(!",
      "L!LK LL!LK",
      "ćď Ĉ!ĉ",
      "L M",
      "ć %ćĈ&'(!",
      "Ĉ )",
      "ćććć ććć",
      "ďĉďĉďĉ ććĈ!Ĉďĉ%&'(",
      "ďĉ%&'( ďĉďĉďĉďĉ!",
      "ć%&'( Ĉ!Ĉ!",
      "ć%&'( ďĉďĉ!!ďĉďĉďĉďĉ",
      "'(3 23",
      "ćĈ!ć %Ĉ&'(!",
      "ďďĉĉ !!",
      "ď! ďďďď",
      "ďĉďĉďĉďĉďĉďĉďĉ !!!!!!!!!!!",
      "ď%ĉ&'( !!",
      "ćĈććĈ ć%&'(ďĉ",
      "%&'(ďĉďĉďĉ !!!!!!!!!!ďĉďĉďĉďĉ",
      "!!!%!&'( !!!!!!!!!!!ďĉ!ďĉďĉ",
      "%&'(ćďĉ! ďĉďĉďĉĈ!ĈĈć",
      "ć' ć(",
      "ćĈććĈć%&'(ďĉ ćĈ!Ĉ!Ĉ!Ĉ!Ĉ!Ĉ!Ĉ!Ĉ!",
      "% ććć",
      "% !!!!&'(",
      "- +/,'(",
      "ē !!",
      "Ė Ħ",
      "ďĉ Ĉ!Ĉ!Ĉ!Ĉ!ĈćĈĈĈ!ĈĈĈ",
      "ćć ď",
      "Ĉ!Ĉ! ćććĈ!",
      "ćĈ! %ć&'(",
      "ćććć ćĈ!)!)!!Ĉ!Ĉ!ĈĈ!!!!!",
      "ďĉďĉďĉďĉ %&ď'(ĉ",
      "ďĉ!ďĉďĉďĉďĉ ďĉĈ!Ĉ!Ĉ!Ĉ!",
      "!LK!LK !LK",
      "ćĈ!Ĉ!Ĉ!ćĈ!Ĉ! Ĉ!Ĉ!",
      "ďĉďĉďĉďĉďĉ ćĈ!ĈĈ!ĈĈ!ĈĈ!",
      "ďĉďĉďĉďĉďĉ! )!)!",
      "!!!!!!!!!!!!!!!!!!!!!% !&'(",
      "ďĉďĉďĉ!ďĉďĉ! ďĉďĉ!!!",
      "Ĉ!ĈćĈ!Ĉ!Ĉ!Ĉ ć%&'(ďĉ!",
      "LLLLLLLLLLLLLLLL LLLL",
      "ďĉď%&'(ĉ !!",
      "ďĈ ćĉ",
      "ďĉćĈ!Ĉ!Č %&'(ďĉďĉďĉ!",
      "ďĉďĉďĉ%&'(ďĉďĉďĉ Ĉ!Ĉ!Ĉ!Ĉ!Ĉ!Ĉ!",
      "ćďĉćĈ!ććĈ!ćĈ!Ĉ %&'(ďĉćććććććć",
      "ħ) ę!",
      "ćĈ!ć%&'( ďĉďĉďĉďĉďĉ!!ďĉ!!!!",
      "ďĉ%&'(!!!ďĉ! ďĉďĉ!ďĉ",
      "E F",
      "ď Đ",
      "ďĉ ćĈ!ćĈ!",
      "ćććć %&'(",
      "ćĈ!Ĉ! ĉ",
      "ďĉďĉďĉďĉ !!!!!!!!!",
      "ďĉďĉďĉďĉďĉďĉďĉďĉ ďĉ!ďĉďĉďĉ%&'(",
      "%&'(ďĉ !!!ďĉ!",
      "ďĉďĉ%&'( !!!",
      "ďĉďĉďĉďĉďĉďĉ! %&'(",
      "ďĉďĉďĉďĉďĉďĉ ćďĉ)ħ",
      "ďĉďĉďĉďĉďĉďĉďĉ ćďĉ!ďĉďĉďĉďĉ!!",
      "ćĈ!ďĉ! )",
      "ď%ĉ &'(!!!!!!!!!!!!!!!!",
      "ćĈĈĈĈĈĈĈĈĈĈĈĈ ĈĈĈĈ!",
      "ďĉďĉďĉďĉďĉ%&'( ďĉďĉ!",
      "!&'(ďĉ)) ďħĉ",
      "%&'(ďĉćĈ!Ĉ!Ĉ!Ĉ!Ĉ!Ĉ!ĈĈ ďĉ!!!",
      "Ĉ!ćĈ!ćĈ!Ĉ!Ĉ! ďĉďĉ!!!!",
      "ćďĉďĉ%&'( ďĉďĉ",
      "32222 32323232222222222222222",
      "!!!ććććĈ!ĈĈďĉ!!!!!!!!!!! )!)",
      "ďĉ%&'(ďĉ!!!! ďĉ!!)ďĉďĉ!",
      "Ĉ!ĈĈ!ĈĈ!ĈĈ! ćĈ!ćĈ!",
      "3 2222224%&52226'(78,",
      "ďĉ Ĉ!Ĉ!Ĉ!Ĉ",
      "%&'( ďĉďĉďĉďĉďĉďĉćďĉ!",
      "ďĉ! Ħ",
      "ćĈ ććĈ!",
      "!!! Ħ",
      "ďĉďĉďĉ %&'ď(ĉ",
      "ďĉďĉďĉ ćććĈ!Ĉ!Ĉ!Ĉ!Ĉ!",
      "ďĉ!!!!!!!! ďĉ!%&'(",
      "ďĉďĉ!! ďĉďĉďĉďĉďĉďĉďĉ!ďĉ!",
      "ďĉďĉ!! ďĉďĉ)ďĉďĉ!ďĉďĉ!!ďĉ!!!!",
      "ďĉďĉ!! ďĉďĉďĉ%&'(ďĉ!ďĉďĉ",
      "01 001011",
      "ď%&'(ĉ ďĉďĉďĉ!",
      "ďĉďĉďĉďĉ! ďĉďĉďĉďĉ",
      "ďĉďĉďĉ%&'( ďĉďĉďĉďĉďĉ!",
      "ďĉďĉďĉďĉďĉďĉďĉďĉ! ćĈ!Čďĉďĉ!",
      "!!!!!!!!! ďĉ!ďĉďĉ",
      "322 3322",
      "332222 2323232222222222222222",
      "Ĉ!Ĉ!ĈĈ!Ĉ!ćĈ!Ĉ! ĈĈĈĈĈďĉ!ďĉ!",
      "' 777",
      "V b",
      "ć ĉĉ",
      "ć ďĉďĉďĉ%&'(",
      "Ĉ! ćĈ!ććĈ!",
      "Ĉ! ďĉ!ďĉďĉďĉďĉďĉ!ďĉďĉďĉ!!)!)",
      "ćć %&'(%&'(",
      "ćć ć%&'(",
      "ďĉ! %ď&'(ĉ",
      "Ĉ!Ĉ ĉ",
      "ďĉ!! ďĉďĉ!",
      "ććĈ ćĈ!ĈĈ",
      "!!!!!!!!!!!!!!!!!!!! &'(",
      "ćććĈ!Ĉ! ććććććĈ!ćĈĈ",
      "ďĉďĉďĉ! ććĈ!ćďĉďĉďĉďĉ",
      "ćĈĈĈ ćĈĈĈĈĈ",
      "Ĉ!ĈĈ Ĉ!Ĉ",
      "!!!% !!!&'(!!!!!!!!!!!!!!!!",
      "%&-+01 '(;",
      "ććććĈ! ćĈćĈĈ",
      "$#$!!)! %&-+/,'(#..$#$!!)!",
      "ďĉďĉďĉďĉďĉďĉďĉďĉ! ďĉďĉďĉ%&'(",
      "ććĈ!Ĉ!Ĉ!Ĉ!Ĉ!Ĉ! Ĉ!ĈĈćĈďĉďĉ",
      "ćĈććĈ ćĈ!ćĈ",
      "&' Ĉ(",
      "ďĉĈ!Ĉ!Ĉ!Ĉ! ĈĈ",
      "Ĉ!ĈĈ!Ĉ!Ĉ!Ĉ! Ĉ!ćĈ!",
      "ććĈ!Ĉ!Ĉ!Ĉ!Ĉ ďĉďĉďĉďĉďĉďĉďĉďĉ",
      "!!!!!&'( ďĉ!!!!!!!!!",
      "323 2222",
      "666666667777 '777",
      "KK KK",
      "%Ĉ! &'(",
      "ććĈ!Ĉ!Ĉ!ĈĈ!Ĉ ćĈ!ćć",
      "32222224%&52226'(78, <",
      "% K",
      "Ĉ ć",
      "ď Ĉ!Ĉ!Ĉ",
      "ĈĈ Ĉ!Ĉ!Ĉ!Ĉ!Ĉ",
      "%&'( !!!!!!!",
      "ćĈ!Ĉ! ććĈ!ćć",
      "ďĉďĉďĉďĉ ďĉ!!!!!!!!!!!!!!!!",
      "ďĉ! ďĉďĉďĉďĉ!",
      "ďĉ! )!)!!!!!!!!!!ďĉ!!!!!!",
      "!!! RTVa!!!SĂĄĆďĉćććďĉ!",
      "ćĈćĈ ćĈ!ćĈ!ććĈ!",
      "ďĉďĉďĉ !!!!",
      "Ĉ!ćĈ!Ĉ! %&'(",
      "ďĉ%&'( ďĉďĉďĉ!!",
      "ĈĈĈĈĈĈĈĈĈĈĈĈĈĈĈĈ Ĉ!",
      "ćĈ!Ĉ!Ĉ! %&'(",
      "%Ĉ&'(! ĈĈĈ",
      "%Ĉ&'(! Ĉ!Ĉ!Ĉ!",
      "ĈĈĈĈĈĈĈĈĈ Ĉ!ĈĈĈĈ!ĈĈĈĈĈ",
      ")!)!! )!)!!!!!!!!!!!!!!!!",
      "ďĉ!!!!! ďĉ!ďĉďĉďĉďĉ",
      "%&'(ďĉ! ďĉďĉďĉďĉďĉďĉďĉďĉ",
      "ćĈ!ćĈ!Ĉ!ĈćĈ!Ĉ! %&'(ďĉ",
      "!!!!!!!!!!!!!!!!! )!)",
      "ďĉďĉ!%&'( Ĉ!Ĉ!ĈĈ!Ĉ!Ĉ!Ĉ!",
      "ćĈ!%&'(ďĉ! )ććććććććććććĈ!ććĈ!",
      "AAAA AA",
      "ćĈćĈćĈ!ćĈ!ććĈ! ćĈććĈćĈ!ćĈ",
      "B ď",
      "ć %ćć&'(",
      "ĉ ďĉďĉ",
      "!! ććĈ!Ĉ!ĈćĈĈĈććĈĈĈ",
      "Ĉ! ćĈĈ!",
      "%&'( \"",
      "%&'( ďĉ!ďĉĈ!Ĉ!ćĈ!Ĉ!ĈĈĈ",
      "ćĈ!ćĈ! ććććĈćĈ",
      "ććĈ!Ĉ! Ĉ!ĈćĈ!",
      "%&'(ďĉ ććććććĈ!ćć",
      "ćďĉ! ďĉďĉ!!!",
      "-%& +01",
      "ďĉďĉďĉ%&'( ććĈ!Ĉ!",
      "'(7 88888888,",
      "0101 01'(333",
      "Ĉ!Ĉ!Ĉ!Ĉ!Ĉ!Ĉ!Ĉ!Ĉ! Ĉ!",
      "%&'(ďĉďĉ! ďĉďĉ",
      "%&'(ďĉďĉďĉ ćďĉ!",
      "777 '(788888888,",
      "ďĉ!!!!!ďĉ! ďĉďĉ%&'(ďĉďĉďĉďĉ",
      "ćĈ!ćĈ!ćĈ!ĈĈ!Ĉ! ćĈ!ćĈ!Ĉ!Ĉ!",
      "!!Č!!Č! %&'(ďĉ!ďĉĈ!Ĉ!ćĈ!Ĉ!ĈĈĈ",
      "!!!!!!!!&'( ďĉ!!!!!!!!!",
      "666666667777 777'(788888888,",
      "ćďĉďĉććĈ! ďĉďĉďĉďĉ!ďĉďĉ!!",
      "ďĉ%&'(ďĉ ćďĉ",
      "C !!!",
      "ć ďĉ!!!",
      "ď ĈĈ!ĉ",
      "Ĉ! ĥ",
      "ďĉ B",
      "ćć ćďĉ",
      "ďĉďĉ Ĉ!ĈććĈĈ!Ĉ!ććĈ!Ĉ!ĈĈ!ĈĈĈ",
      "%&'( ćĈ!ćć",
      "ĈĈĈĈ ĈćĈĈćĈ",
      "ďĉ! ď%&'(ĉ",
      "%& Ĉ'(",
      "ďĉďĉ!! ďĉ!!",
      "ďĉďĉďĉďĉďĉďĉďĉďĉ ďĉďĉďĉďĉ!",
      "!!!!!!!!!!!! !!!&'(",
      ")!)!!!!!!!!!!!!!!!! !!",
      "ďĉďĉďĉďĉ! ďĉ!ďĉ!ďĉ!ďĉ!ďĉ!ďĉ",
      "-%& +",
      "ďĉ!ďĉďĉďĉďĉ ďĉďĉďĉ%&'(",
      "ďĉ!ďĉďĉďĉďĉ ďĉćĈ!ĈĈ!ĈĈ!ĈĈ!",
      "-%&+/,'( #$",
      "%Ĉ&'(! Ĉ!ćĈ!Ĉ!",
      "ďĉ!ďĉ ćĈ!ćĈ!",
      "ďĉďĉ!ďĉ! ďĉ!!!!!!!!!!!!!!!!",
      "ďĉďĉďĉ!ďĉďĉ! ďĉďĉ!!ďĉ!!ďĉďĉ",
      "%ć&'( ćććć",
      "ćďĉďĉďĉĈ!ĈĈĈĈ Ĉ!ćĈ!Ĉ!Ĉ",
      "%ć& Ĉ'(",
      "ćďĉćĈ!ććĈ!ćĈ!Ĉ ďĉ%&'(ćććććććć",
      "Ĉ!ćĈĈ Ĉ!ĈĈĈ",
      "ć' Ĉ(!",
      "ďĈĈĈĈ ĉ",
      "ććććĈ!ćĈćĈĈ ćććć",
      "ć &'(",
      "ę !!",
      "Ğ %&'(%&'(%&'(%&'(",
      "ďĉ đ",
      "ďĉďĉ !!!!!!!!",
      "%&'( !!ďĉďĉďĉďĉ",
      "ďĉďĉďĉďĉ ďĉ!ďĉ!!",
      "ćĈ ćĈ!Ĉ!",
      "Ĉ!Ĉ!Ĉ!Ĉ! Ĉ!ĈĈ!Ĉ!",
      "Ĉ!Ĉ ććĈ!Ĉ!Ĉ!ĈĈ!ĈćĈ!ćć",
      "ďĉďĉďĉ !!!",
      "ććĈ ććĈ",
      "ďĉ!ďĉ! ďĉďĉ!",
      "ć%&'( ďĉďĉďĉďĉďĉďĉďĉďĉ",
      "Ĉ!Ĉ!Ĉ!Ĉ Ĉ!Ĉ!",
      "ďĉ!!! ďĉ!!ďĉďĉ",
      "ćĈĈĈĈĈ ćĈĈĈĈĈĈ",
      "ćďĉ %!&'(",
      "ďĉďĉďĉďĉďĉďĉďĉ %ď&'(ĉ",
      "!!!!!!!!!!!!!!!!!!!!!!!!!! ďĉ!",
      "ć%&'(ďĉ! ććććĈ!ćĈ!Ĉ!Ĉ!ćĈ!Ĉ!",
      "Ĉ!ĈĈ!ĈĈĈćĈĈĈćĈ!ĈĈĈĈ!ĈĈ!Ĉ %&'(",
      "ćďĉďĉ!!ďĉďĉďĉďĉ ććććĈ!ĈĈ!ćĈ!Ĉ",
      "ďĉććĈĈĈĈĈďĉďĉ )!)!!",
      ")ďĉďĉ!ďĉ!ďĉ! ďĉďĉďĉ",
      "ĈĈĈ!Ĉ!Ĉ!Ĉ!Ĉ Ĉ!ćĈ!Ĉ",
      "ćĈ!ćĈ!ććććĈćĈ ćććĈ!ćć",
      "! ĥ",
      "! ďĉ!ďĉďĉ",
      "' 77",
      "7 '77",
      "!!!!!!!!!!!!!!!! !!!&'(",
      "ďĉďĉ ď%&'(ĉ!",
      "Ĉ!Ĉ! ćĈ",
      "%&'( !!!!",
      "%&'( ďĉďĉďĉďĉ",
      "ćĈ! %Ĉ&'(",
      "ćććć ćĈ!Ĉ!ćĈ!Ĉ!ćĈ!Ĉ!Ĉ!Ĉ!Ĉ!",
      "Ĉ!Ĉ!Ĉ ďĉďĉďĉ%&'(",
      "ďĉďĉďĉ! ďĉććĈ!ďĉ!ďĉ!!ćĈ!",
      "ďĉ%&'( ďĉďĉďĉ!",
      "ďĉ%&'( ďĉďĉďĉďĉ!!",
      "ďĉ!!!! !%",
      "ďĉďĉďĉ!! ćććďĉććććććĈ!ćć",
      "Ĉ!Ĉ!Ĉ! %Ĉ&'(!",
      "Ĉ!Ĉ!Ĉ!Ĉ ďĉ!!!!!!!!!!!",
      "ćďĉ %ď&'(ĉ",
      "ďĉďĉďĉďĉďĉ ď%ĉ&'(",
      "%&'ď(ĉ !!",
      "ćĈ!Ĉ!ĈćĈ!Ĉ! ććĈ!Ĉ!Ĉ!Ĉ!Ĉ!ĈĈ!",
      "ĈĈ!ĈććĈ!Ĉ!ĈĈ!ĈĈ!Ĉ!ćĈ! ďĉ%&'(",
      ")!)!!!! !%",
      "666666667777 7'77",
      "ďĉďĉ!!!!!!!!!!!!!!!!!!!!! )!)",
      "%&'(%&'(%&'(%&'(%&'(%&'( !ĥĤ",
      "ćĈ!%&'(ďĉ! ćććććććććććććććć",
      "ČČČČ ČČČČ",
      "ćĈ!Ĉ!Ĉ!Ĉ!Ĉ ďĉ!))ħ!",
      "ďĉćĈ!Ĉ!Čďĉďĉďĉ! ććĈ!",
      "%ććĈ &'(!",
      "ĈĈĈĈĈćĈĈćĈ ćć%&'(%&'(",
      "% )",
      "ć %ć&'ć(",
      "ď Ĉ!ĈĈ",
      "ďĉ ć",
      "ďĉďĉ ćććććććć",
      "ćććć ćććĈĈććććććĈ!ćĈĈ",
      "ćĈ!Ĉ! Ĉ!ĈĈ!",
      "!!!!!!!!!!!!!!!!!!!!!!!! &'(",
      "ďĉďĉďĉ Ĉ!Ĉ!",
      "ććĈ ćĈ!Ĉ!Ĉ!",
      "ďĉďĉďĉ! ďĉ!",
      "ď%&'(ĉ ďĉďĉďĉďĉďĉďĉďĉďĉ",
      "ďĉďĉďĉ%&'( ďĉďĉ",
      "ććĈ!Ĉ!Ĉ ćĈ!ĈććĈĈĈćĈĈĈćĈ!ĈććĈĈĈ",
      "!!!!!!!!!!!!!!!!% !!&'(",
      "&'(! ďĉ!)!)!!!!!!!!!!ďĉ!!!!!!",
      "ďĉďĉ!ďĉ %!&'(",
      "ćĈćĈćĈćĈćĈćĈćĈćĈćĈćĈćĈćĈ ćć",
      "ćććććĈ!Ĉ!Ĉ!ćĈĈćĈďĉďĉ Ĉ!Ĉ",
      "Ĉ!Ĉććďĉ!ćĈ!ćĈ %&'(ďĉďĉďĉďĉ!",
      "(788888888,-%&+ 000111",
      "ćĈ!ćďĉďĉďĉďĉ ćććććĈ!ćČ",
      "! ďĉćććć",
      "M L",
      "M ďMĉ",
      "%&'( Ĉ!Ĉ!ĈĈĈĈĈĈćĈ!ĈĈĈ%&'(ďĉ",
      "ćĈĈ ĉ",
      "%&'(%&'(%&'(%&'( %&'(!ĥĤ",
      "ďĉ%&'( ćĈ!Ĉ!Ĉ!Ĉ!Ĉ!Ĉ!ĈĈďĉ!!!ďĉ!",
      "!!% !!!!!!&'(!!!!!!!!!!!!!!!!",
      "ć%&'( ćććććććććććććććććććććććć",
      "ďĉďĉ%&'( ďĉďĉ!",
      "ďĉďĉ%&'( ďĉďĉďĉ!!",
      "ďĉďĉ%&'( ćĈ!Ĉ!Ĉ!Ĉ!Ĉ!Ĉ!",
      "ďĉďĉ%&'( ďĉďĉďĉ!!ďĉ!",
      "ďĉďĉďĉ%&'( ďĉďĉďĉ!",
      "ďĉ!!ďĉ! ďĉďĉďĉďĉďĉďĉďĉďĉ",
      "ďĉ!ďĉďĉ %ď&'(ĉ",
      "ďĉďĉďĉďĉďĉďĉďĉ ď%&'(ĉ",
      "ĉ! Ĉ",
      "ďĉ!%&'( ďĉďĉďĉďĉďĉďĉďĉďĉ",
      "ĉĉĉĉ ĉĉ",
      "ďĉďĉďĉďĉ%&'( ďĉďĉďĉďĉ!",
      "!!!!!!!!!!!!!!!!!! MMMMMMMM",
      "%&'(ďĉďĉ ććććććććććććććĈ!",
      "ďĉ!!ďĉďĉďĉďĉďĉďĉ! ďĉďĉ!ďĉďĉ!!!",
      "ćď Ĉ",
      "ďĉ!ďĉďĉďĉďĉďĉďĉďĉďĉ !!ďĉďĉďĉďĉ",
      "ďĉ%ď&'(ĉ !",
      "ćďĉ%&'( ďĉďĉďĉććĈ!Ĉďĉ%&'(",
      "!ďĉ! )",
      "ć%Ĉ&'(! Ĉ!",
      "!!!!!!!!!!!!!!!!!!!!!Ĉ!Ĉ!Ĉ ďĉ",
      "ďĉďĉďĉďĉďĉ!ďĉďĉďĉďĉ ďĉ",
      "ďĉďĉ!ďĉďĉ! ď%&'(ĉ!",
      "!&'(ďĉ))ħ ďĉďďĉĉďĉďĉďĉďĉ",
      ")ďĉ ćďĉďĉ!",
      "ć%&'(ďĉďĉ!ďĉďĉ ćĈ!Ĉ!Ĉ!Ĉ!Ĉ!Ĉ!",
      "B ē",
      "ć %&ď'(ĉ",
      "Ĉ! %Ĉ&'(",
      "%&'( ďĉďĉďĉďĉďĉ!ďĉďĉďĉ!",
      "%&'( !!!!!!!!!!!ďĉ!ďĉďĉ",
      "%&'( Ĉ!Ĉ!Ĉ!Ĉ!Ĉ!Ĉ!Ĉ!Ĉ!Ĉ!",
      "ďĉ! ćććĈ!Ĉ!ćĈ!Ĉ!ĈĈ!Ĉ!ĈćĈĈĈĈ",
      "ćďĉ! ćććććďĉ!ććććĈćććĈ!Ĉ!ĈćĈ!ć",
      "LLLL LL!LK",
      "Ĉ!ĈĈ! ććĈĈ",
      "ĈĈĈĈĈĈĈĈĈĈĈĈ ĈĈĈ",
      "ĈĈĈĈĈĈĈĈĈĈĈĈ ĈĈ!",
      ")!)!!!!!!!! !!!%&'(",
      "!!!!R %&'(TVa",
      ")ďĉďĉ! ďĉďĉ!!ďĉ!!!!",
      "ď!ĉ LK",
      "ďĉďĉďĉďĉďĉ%&'( ďĉďĉ",
      "(788888888,-%&+01 001011",
      "(788888888,-%&+01 00110011",
      "ďĉďďĉĉ ďďĉĉ",
      "!!!!!!!!!!!!!!!!!!! ďĉ!ďĉ",
      "ďĉďĉ!ďĉ!ďĉ! ďĉďĉ!!ďĉ!ďĉ!!",
      "ďē ĉ",
      "%&'(ćĈ!ćć ďĉďĉ!!!!",
      "ć ))",
      "ď ćĈ!Ĉ",
      "ćć %Ĉ&'(!",
      "ĈĈ !!",
      "%&'( Ĉ",
      "Ĉ!ćĈ!Ĉ! ĈćĈĈćĈćĈĈĈćĈĈďĉ",
      "ďĉďĉďĉ! ďĉ!!!!!!!!!!!!!",
      "!!!% !!!!!!&'(!!!!!!!!!!!!!!!!",
      "ďĉďĉďĉ!! ćććďĉććććććĈ!ććČ",
      "ďĉďĉ%&'( ďĉ!ďĉ!ďĉ!!",
      "ďĉ!!! ďĉĈ!Ĉ!Ĉ!Ĉ!ĈćĈĈĈ!ĈĈĈ",
      "ďĉďĉďĉďĉďĉ %&ď'(ĉ",
      "ććć %Ĉ&'(!",
      "ďĉďĉďĉďĉ!! ďĉďĉďĉ",
      "ćććĈćĈ ćĈ!ĈćĈćĈćĈćććĈĈĈĈĈ",
      "ćććććĈ!Ĉ!Ĉ!ćĈĈćĈ ďĉďĉ%&'(",
      "ďĉ!ďĉďĉďĉďĉďĉďĉďĉ ćďĉ!",
      "Ĉ!ĈĈ!Ĉ!Ĉ!Ĉ ććĈ!ćďĉ",
      "ď!! ď",
      "R%&'(TVa !!!SĂĄĆ",
      "%ć&' Ĉ(",
      "ć%&'(ďĉďĉ ćććććććĈ!Ĉ!Ĉ!ćĈ!Ĉ!",
      "ďĉ%&'(Ĉ!Ĉ!Ĉ!Ĉ! Ĉ!ĈĈĈ!ĈĈĈ",
      "ćďĉďĉ%&'(ďĉďĉ ććĈ!Ĉďĉ",
      "%K &'(",
      "! )!)!!!!!!!!!!!!!!!!",
      "ć ĉ!",
      "ć ď%ĉ&'(",
      "ć %&'ď(ĉ",
      "Ĉ! ć!",
      "ďĉ Ĉ",
      "ďĉ %!!&'(",
      "%&'( Ĉ!Ĉ!Ĉ!ĈĈĈĈ!Ĉ!ĈĈ!Ĉ!Ĉ!ĈĈĈĈ",
      "ďĉ! ĉ",
      "ćĈ ĉ!",
      "ćĈ '(!",
      "!!! ďĉ!!!ćććĈćĈ!ćĈ!ĈĈ!Ĉ!",
      "Ĉ!Ĉ!Ĉ!Ĉ! Ĉ!ĈĈĈ!ĈĈ",
      "Ĉ!Ĉ %Ĉ&'(",
      "ďĉďĉ! %&'(!",
      "Ĉ!ĈĈ !!",
      "Ĉ!ĈĈ Ĉ!Ĉ!",
      "ďĉ%&'( ďĉ!ďĉ",
      "ďĉ%&'( ćććććĈ!ĈĈćĈĈćĈ",
      "ďĉ!ďĉ! ććĈ!Ĉ!Ĉ!ććĈ!Ĉ!",
      "!% !!!!&'(!!!!!!!!!!!!!!!!",
      "ćĈćĈćĈ ćććĈĈĈĈĈ",
      "Ĉ&'( !",
      "ďĉ!ďĉďĉďĉďĉ ďĉćććć",
      "Ĉ!Ĉ!ĈĈ Ĉ!ĈĈ",
      "ďĉďĉďĉďĉďĉ %&'ď(ĉ",
      "ď! ďĉĉ",
      "ďĉďĉďĉďĉďĉďĉďĉ! ďĉ%&'(ďĉďĉďĉ!!",
      "%&'(ďĉ!! ďĉ!!!!!!!!!!!",
      "%&'(ďĉ!! ďĉďĉďĉďĉďĉďĉďĉ)!",
      "Ĉ!ĈĈĈ! %&'(ďĉ!!!!!!!!!!!!!!!!",
      "ďĉĈ!Ĉ!Ĉ!Ĉ! Ĉ!ćĈĈĈ!ĈĈĈ",
      "Ĉ!ćĈ!Ĉ!Ĉ!Ĉ!Ĉ!! ďĉďĉ!ďĉ!!!!!!!!"
    ]
  }
}