{
  "version": "1.0",
  "truncation": null,
  "padding": null,
  "added_tokens": [
    {
      "id": 0,
      "content": "[CLS]",
      "single_word": false,
      "lstrip": false,
      "rstrip": false,
      "normalized": false,
      "special": true
    },
    {
      "id": 1,
      "content": "[MASK]",
      "single_word": false,
      "lstrip": false,
      "rstrip": false,
      "normalized": false,
      "special": true
    },
    {
      "id": 2,
      "content": "[SEP]",
      "single_word": false,
      "lstrip": false,
      "rstrip": false,
      "normalized": false,
      "special": true
    },
    {
      "id": 3,
      "content": "[PAD]",
      "single_word": false,
      "lstrip": false,
      "rstrip": false,
      "normalized": false,
      "special": true
    }
  ],
  "normalizer": null,
  "pre_tokenizer": null,
  "post_processor": null,
  "decoder": null,
  "model": {
    "type": "BPE",
    "dropout": null,
    "unk_token": null,
    "continuing_subword_prefix": null,
    "end_of_word_suffix": null,
    "fuse_unk": false,
    "byte_fallback": false,
    "vocab": {
      "[CLS]": 0,
      "[MASK]": 1,
      "[SEP]": 2,
      "[PAD]": 3,
      "!": 4,
      "\"": 5,
      "#": 6,
      "$": 7,
      "%": 8,
      "&": 9,
      "'": 10,
      "(": 11,
      ")": 12,
      "*": 13,
      "+": 14,
      ",": 15,
      "-": 16,
      ".": 17,
      "/": 18,
      "0": 19,
      "1": 20,
      "2": 21,
      "3": 22,
      "4": 23,
      "5": 24,
      "6": 25,
      "7": 26,
      "8": 27,
      "9": 28,
      ":": 29,
      ";": 30,
      "<": 31,
      "=": 32,
      ">": 33,
      "?": 34,
      "@": 35,
      "A": 36,
      "B": 37,
      "C": 38,
      "D": 39,
      "E": 40,
      "F": 41,
      "G": 42,
      "H": 43,
      "I": 44,
      "J": 45,
      "K": 46,
      "L": 47,
      "M": 48,
      "N": 49,
      "O": 50,
      "P": 51,
      "Q": 52,
      "R": 53,
      "S": 54,
      "T": 55,
      "U": 56,
      "V": 57,
      "W": 58,
      "X": 59,
      "Y": 60,
      "Z": 61,
      "[": 62,
      "\\": 63,
      "]": 64,
      "^": 65,
      "_": 66,
      "`": 67,
      "a": 68,
      "b": 69,
      "c": 70,
      "d": 71,
      "e": 72,
      "f": 73,
      "g": 74,
      "h": 75,
      "i": 76,
      "j": 77,
      "k": 78,
      "l": 79,
      "m": 80,
      "n": 81,
      "o": 82,
      "p": 83,
      "q": 84,
      "r": 85,
      "s": 86,
      "t": 87,
      "u": 88,
      "v": 89,
      "w": 90,
      "x": 91,
      "y": 92,
      "z": 93,
      "{": 94,
      "|": 95,
      "}": 96,
      "~": 97,
      "Ā": 98,
      "ā": 99,
      "Ă": 100,
      "ă": 101,
      "Ą": 102,
      "ą": 103,
      "Ć": 104,
      "ć": 105,
      "Ĉ": 106,
      "ĉ": 107,
      "Ċ": 108,
      "ċ": 109,
      "Č": 110,
      "č": 111,
      "Ď": 112,
      "ď": 113,
      "Đ": 114,
      "đ": 115,
      "Ē": 116,
      "ē": 117,
      "Ĕ": 118,
      "ĕ": 119,
      "Ė": 120,
      "ė": 121,
      "Ę": 122,
      "ę": 123,
      "Ě": 124,
      "ě": 125,
      "Ĝ": 126,
      "ĝ": 127,
      "Ğ": 128,
      "ğ": 129,
      "Ġ": 130,
      "ġ": 131,
      "Ģ": 132,
      "ģ": 133,
      "Ĥ": 134,
      "ĥ": 135,
      "Ħ": 136,
      "ħ": 137,
      "Ĩ": 138,
      "ĩ": 139,
      "Ī": 140,
      "ī": 141,
      "Ĭ": 142,
      "ĭ": 143,
      "Į": 144,
      "į": 145,
      "İ": 146,
      "ı": 147,
      "Ĳ": 148,
      "ĳ": 149,
      "Ĵ": 150,
      "ĵ": 151,
      "Ķ": 152,
      "ķ": 153,
      "ĸ": 154,
      "Ĺ": 155,
      "ĺ": 156,
      "Ļ": 157,
      "!!": 158,
      "!!!!": 159,
      "!!!!!!!!": 160,
      "Ĉ!": 161,
      "ďĉ": 162,
      "!!!!!!!!!!!!!!!!": 163,
      "ćć": 164,
      "ďĉďĉ": 165,
      "ĈĈ": 166,
      "Ĉ!Ĉ!": 167,
      "'(": 168,
      "&'(": 169,
      "!!!!!!!!!!!!!!!!!!!!!!!!!!!!!!!!": 170,
      "%&'(": 171,
      "ćĈ!": 172,
      "22": 173,
      "ĈĈĈĈ": 174,
      "ćććć": 175,
      "ćĈ!Ĉ!": 176,
      "ďĉďĉďĉďĉ": 177,
      "ďĉ!": 178,
      "ćĈ": 179,
      "2222": 180,
      "%&'(%&'(": 181,
      "!!!": 182,
      "Ĉ!Ĉ!Ĉ!Ĉ!": 183,
      "Ĉ!Ĉ": 184,
      "ćĈĈ": 185,
      "ććĈ!": 186,
      "ďĉ!!": 187,
      "ĈĈĈĈĈĈĈĈ": 188,
      "ćĈćĈ": 189,
      "MM": 190,
      "ĈĈĈ": 191,
      "!!!!!!!!!!!!": 192,
      "ćĈ!ćĈ!": 193,
      "%&": 194,
      "ďĉďĉ!": 195,
      "ćććććććć": 196,
      ")!": 197,
      "%&'(%&'(%&'(%&'(": 198,
      "ďĉďĉďĉ": 199,
      "&'(!!!!!!!!!!!!!!!!!!!!!!!!!!!!!!!!": 200,
      "Ĉ!ćĈ!Ĉ!": 201,
      "22222222": 202,
      "ććĈ": 203,
      "LL": 204,
      ")!)": 205,
      "ćĈ!Ĉ": 206,
      "Ĉ!Ĉ!Ĉ": 207,
      "ćććĈ!Ĉ!": 208,
      "ďĉďĉďĉ!": 209,
      "MMMM": 210,
      "ďĉ!ďĉ": 211,
      "%&'(ďĉ": 212,
      "ćĈ!ćĈ!Ĉ!": 213,
      "ďĉďĉ!!": 214,
      "01": 215,
      "Ĉ!ĈĈĈ": 216,
      "ćĈĈĈ": 217,
      "!!!!!!!!!!!!!!!!!!!!": 218,
      "%&'(%&'(%&'(%&'(%&'(%&'(%&'(%&'(": 219,
      "ďĉďĉďĉďĉďĉďĉďĉďĉ": 220,
      "Ĉ!ĈĈ": 221,
      "44": 222,
      "55": 223,
      "66": 224,
      "88": 225,
      "ćĈĈĈĈ": 226,
      "ććĈ!Ĉ!": 227,
      "!!!!!!!!!!!": 228,
      "+/": 229,
      "+/,": 230,
      "+/,'(": 231,
      "!!!!!!!!!!!!!!!!!!!!!!!!!!!!": 232,
      "!%": 233,
      "%&'(ĉ": 234,
      "2222222222222222": 235,
      "%&-": 236,
      "!L": 237,
      "ďĉ!!!!": 238,
      "!!!!!!!!!!!!!!!!!!!!!!!!!!!!!!!!!!!!": 239,
      "!LK": 240,
      "ďĉ%&'(": 241,
      "ď%&'(ĉ": 242,
      "!!%": 243,
      "ďĉ!ďĉďĉďĉďĉ": 244,
      "Ĉ!ĈĈĈĈ": 245,
      "77": 246,
      "LLLL": 247,
      "ĈĈĈĈĈĈĈĈĈĈĈĈĈĈĈĈ": 248,
      "ďĉďĉďĉ!!": 249,
      "ćĈ!ćć": 250,
      "ćĈćĈćĈ": 251,
      "ćďĉ": 252,
      "!&'(!!!!!!!!!!!!!!!!!!!!!!!!!!!!!!!!": 253,
      "ďĉ!ďĉ!": 254,
      "Ĉ!Ĉ!Ĉ!Ĉ!Ĉ!Ĉ!": 255,
      "ďĉ!!!!!!!!!!!!!!!!!!!!!!!!!!!!!!!!": 256,
      "!&'(": 257,
      "Ĉ!Ĉ!ćĈ!Ĉ!": 258,
      "&'(ĉ": 259,
      "!!!!!!!!!!!!!!!!!!!!!!!!": 260,
      "MMMMMMMM": 261,
      "Ĉ&'(": 262,
      "!!!%": 263,
      "ď&'(ĉ": 264,
      "ćĈ!ććĈ": 265,
      "ćĈ!ćĈ": 266,
      "!!&'(!!!!!!!!!!!!!!!!!!!!!!!!!!!!!!!!": 267,
      ")!)!!!!!!!!!!!!!!!!!!!!!!!!!!!!!!!!": 268,
      "-%&": 269,
      "%ď&'(ĉ": 270,
      "ďĉďĉďĉďĉ!": 271,
      "%Ĉ&'(": 272,
      "23": 273,
      "!!!S": 274,
      "ĉĉ": 275,
      "ćďĉ!": 276,
      "ďĉďĉ%&'(": 277,
      "ćĈćĈćĈćĈ": 278,
      "ďĉćććć": 279,
      "ćććĈ": 280,
      "Ĉ!Ĉ!Ĉ!": 281,
      "%&-+/,'(": 282,
      "ĈćĈĈ": 283,
      "ćććććććććććććććć": 284,
      "'(3": 285,
      "ć%&'(": 286,
      "!LK!LK": 287,
      "Ĉ!ĈĈ!": 288,
      "ďď": 289,
      "Ĉ!Ĉ!Ĉ!Ĉ": 290,
      "!ďĉ": 291,
      "ććććććĈ!": 292,
      "))": 293,
      "+01": 294,
      "4444": 295,
      "5555": 296,
      "6666": 297,
      "8888": 298,
      "ćĈ!Ĉ!Ĉ!": 299,
      "-%&+/,'(": 300,
      "ďĉďĉďĉ%&'(": 301,
      "-%&+/,'(-%&+/,'(": 302,
      "ćĈ!Ĉ!Ĉ": 303,
      "ćĈ!ććĈ!": 304,
      "ćĈ!ć": 305,
      "ććććĈ": 306,
      "ćĈ!Ĉ!Ĉ!Ĉ!Ĉ!Ĉ!": 307,
      "ďĉĉ": 308,
      "ďĉďĉ!!!": 309,
      "!!!&'(!!!!!!!!!!!!!!!!!!!!!!!!!!!!!!!!": 310,
      "ćĈĈĈĈĈ": 311,
      "ććĈ!Ĉ!Ĉ!Ĉ!": 312,
      "ďĉ!!!!!!!!": 313,
      "ćććććććĈ!Ĉ!": 314,
      "222222": 315,
      "'(7": 316,
      "ćĈ!ĈĈĈ": 317,
      "ďĉďĉďĉďĉďĉďĉ!": 318,
      "ĄĆ": 319,
      "ĂĄĆ": 320,
      "222": 321,
      "4%&": 322,
      "5222": 323,
      "6'(7": 324,
      "4%&5222": 325,
      "4%&52226'(7": 326,
      "2222224%&52226'(7": 327,
      "8,": 328,
      "2222224%&52226'(78,": 329,
      "%&-+01": 330,
      "ďďĉĉ": 331,
      "TV": 332,
      "ćĈĈćĈĈ": 333,
      "'(32222224%&52226'(78,": 334,
      "TVa": 335,
      "%&-+01'(32222224%&52226'(78,": 336,
      "ďĉďĉďĉďĉďĉ": 337,
      "Ĉ!ĈĈ!Ĉ": 338,
      "%Ĉ&'(!": 339,
      "ĈĈĈĈĈĈĈĈĈĈĈĈ": 340,
      "ććććĈ!": 341,
      "ďĉďĉďĉďĉďĉďĉ": 342,
      "Ĉ!Ĉ!ĈĈ": 343,
      "!!&'(": 344,
      "ďĉ!!!": 345,
      "0101": 346,
      "ććĈ!Ĉ": 347,
      "%&-+/,'(%&-+/,'(": 348,
      "ćĈ!Ĉ!Ĉ!ćĈ!Ĉ!": 349,
      "ććć": 350,
      "!!ďĉ": 351,
      "LLLLLLLL": 352,
      "Ĉ!ćĈ!": 353,
      "!!!!!!!!!!!!!!!": 354,
      "ććĈ!Ĉ!Ĉ": 355,
      "ććĈ!ć": 356,
      "ćĈ!Ĉ!Ĉ!Ĉ!": 357,
      "2323": 358,
      "!!!SĂĄĆ": 359,
      "Ĉ!Ĉ!Ĉ!ćĈ!Ĉ!": 360,
      "ćĈ!ćĈ!ćĈ!ćĈ!": 361,
      "%&'(ďĉďĉ": 362,
      "222222222222222222222222": 363,
      "ďĉ!ďĉ!!": 364,
      "RTVa": 365,
      "ď!": 366,
      "ććĈĈ": 367,
      "ćĈĈćĈ": 368,
      "MMMMMMMMMMMMMMMM": 369,
      "ďĉ!ďĉďĉ": 370,
      "#$": 371,
      "!!!!!!!!!": 372,
      "ĈĈĈĈĈĈ": 373,
      "ďĉ!ďĉďĉ!": 374,
      "ĈĈ!": 375,
      "%!&'(": 376,
      "ććĈĈĈ": 377,
      "ćĈ!ĈĈ": 378,
      "%ć": 379,
      "ďĉ!ďĉďĉďĉ!": 380,
      "ććĈ!ćć": 381,
      "ďĉďĉďĉďĉďĉďĉďĉ": 382,
      "%ĉ": 383,
      "ĈĈĈ!ĈĈĈ": 384,
      "ďĉďĉďĉďĉďĉďĉďĉ!": 385,
      "ďĉďĉďĉďĉďĉ!!": 386,
      "ĈĈĈĈĈĈĈĈĈ": 387,
      "%&'": 388,
      "Ĉ!ĈćĈ!Ĉ!": 389,
      "%&'(ďĉ!!": 390,
      "ćććĈ!Ĉ!Ĉ!Ĉ!Ĉ!Ĉ!": 391,
      "!!!!!!!": 392,
      "ď%ĉ": 393,
      "7777": 394,
      "ććććĈ!ćĈ!Ĉ!": 395,
      "!!!!!!!!!!!!!!!!!!!!!!!!!!!": 396,
      "ćďĉďĉ": 397,
      ")!)!!": 398,
      "ććĈ!Ĉ!Ĉ!Ĉ!Ĉ!Ĉ!": 399,
      "ćĈ!ćĈ!Ĉ!Ĉ!": 400,
      "011": 401,
      "ď%ĉ&'(": 402,
      "Ĉ!Ĉ!Ĉ!!": 403,
      "ďĉ!!!!!!": 404,
      "ĉ!": 405,
      "-%&+/,'(-%&+/,'(-%&+/,'(-%&+/,'(": 406,
      "!!!!!!!!!!": 407,
      "ďĉďĉćććć": 408,
      "ćĈ!ćĈ!Ĉ!Ĉ!ćĈ!Ĉ!": 409,
      "0011": 410,
      "RTVa!!!SĂĄĆ": 411,
      "%&'(!!!!!!!!!!!!!!!!!!!!!!!!!!!!!!!!": 412,
      "ćĈĈ!": 413,
      "!!!!R": 414,
      "!!!!!": 415,
      "!!!!!!!!!!!!!": 416,
      "ćććĈ!Ĉ!Ĉ!Ĉ!": 417,
      "ćĈ!ďĉ!": 418,
      "ď'(": 419,
      "ćĈ!ćĈ!Ĉ": 420,
      "33": 421,
      "ďĉ!!!!!": 422,
      "!!)!": 423,
      "ćĈĈĈĈĈĈ": 424,
      "ćĈ!ćĈĈ": 425,
      "ĈĈĈĈ!": 426,
      "!LK!LK!LK!LK": 427,
      "!!!!!!!!!!!!!!!!!!!!!": 428,
      "%&ď'(": 429,
      "ćĈĈĈćĈĈ": 430,
      "ďĉďĉďĉ!ďĉďĉ!": 431,
      "#.": 432,
      "$#$": 433,
      "ď(": 434,
      "!!!!!!": 435,
      "Ĉ!ćĈ!Ĉ!Ĉ": 436,
      "ćĈ!ĈĈ!": 437,
      "ććĈ!ćĈ!ćĈ!": 438,
      "#..": 439,
      "!!!!R!!!S": 440,
      "!!!!!!!!!!!!!!!!!!!": 441,
      "Ĉ!ĈĈĈĈĈĈĈ": 442,
      "ććĈćć": 443,
      "ĈćĈĈćĈ": 444,
      "ććĈ!ććĈ!": 445,
      "$#$!!)!": 446,
      "%&-+/,'(#..": 447,
      "Ĉ!Ĉ!ĈĈĈ": 448,
      "%&'ď(": 449,
      "Ĉ!Ĉ!ĈĈ!Ĉ": 450,
      "ďĉ!ďĉďĉďĉ": 451,
      "ćĈĈćĈĈćĈćĈćĈ": 452,
      "ďĉďĉ!!ďĉ": 453,
      "ĈĈĈ!Ĉ!": 454,
      "ďĉ!ďĉďĉďĉďĉďĉďĉďĉďĉ": 455,
      "ćććĈ!Ĉ!Ĉ!": 456,
      "ććććććĈ!ćĈĈ": 457,
      "ćĈ!ćĈ!ćĈ!ćĈ!ćĈ!Ĉ!": 458,
      "ĉĉĉĉ": 459,
      "ĈĈĈĈĈ": 460,
      "Ĉ!ĈĈćĈ": 461,
      "%&-+/,'(#..$#$!!)!": 462,
      "Ĉ!ĈćĈ!Ĉ!Ĉ!Ĉ": 463,
      "ćĈ!Ĉ!Ĉ!Ĉ!ćĈ!Ĉ!": 464,
      "%!!!!": 465,
      "Ĉ!ĈĈ!ĈĈĈ": 466,
      "!!!!!!!!!!!!!!": 467,
      "!!!!!!!!!!!!!!!!!!!!!!!!!!!!!!": 468,
      "ćććĈ!Ĉ!Ĉ!Ĉ": 469,
      "ďĉ!ďĉ!ďĉ": 470,
      "ďĉ!ďĉďĉ!!": 471,
      "Ĉ!Ĉ!Ĉ!Ĉ!Ĉ!Ĉ!Ĉ!Ĉ!": 472,
      "%ć&'(": 473,
      "ćććććć": 474,
      "ćććććććććć": 475,
      "%&ď'(ĉ": 476,
      "ćĉ": 477,
      "%&-+/,'(#..$#$!!)!%&-+/,'(#..$#$!!)!": 478,
      "ďĉďĉ!!!!": 479,
      "ďĉďĉďĉďĉďĉćććć": 480,
      "%&5555": 481,
      "44444444": 482,
      "5555222222222222222222222222": 483,
      "66666666": 484,
      "8888,": 485,
      "88888888,": 486,
      "%&55555555222222222222222222222222": 487,
      "ćďĉďĉďĉ": 488,
      "%&-+/,'(%&-+/,'(%&-+/,'(%&-+/,'(": 489,
      "!!!&'(": 490,
      "%&'ď(ĉ": 491,
      "(7": 492,
      "(788888888,": 493,
      ")!!!!!!!!": 494,
      "%&'(ďĉďĉďĉ!": 495,
      "ďĉďĉďĉďĉďĉďĉďĉďĉ!": 496,
      "!!!!!!!!!!!!!!!!!!!!!!!!!!!!!!!!!!!!!!%": 497,
      "%!": 498,
      "244444444": 499,
      "222222222222222222222222244444444": 500,
      "ćďĉ!ďĉ": 501,
      "(788888888,-%&": 502,
      "ďĉćć": 503,
      "ćĈĈĈĈĈĈĈĈ": 504,
      "%&'(ďĉďĉ!": 505,
      "ćĈćĈĈ": 506,
      "Ĉ!Ĉ!ćĈ!": 507,
      "Ĉ!ĈĈĈĈĈ": 508,
      "Ĉ!Ĉ!Ĉ!Ĉ!ĈćĈĈ": 509,
      "ćĈ!Č": 510,
      "%&'(!": 511,
      "ć!": 512,
      "ćĈććĈ": 513,
      "ďĉ!!ďĉ": 514,
      "Ĉ!ĈĈĈ!": 515,
      "ĈĈ!Ĉ!Ĉ!Ĉ!": 516,
      "%!!!!!!!!!!!!": 517,
      "!!!!!!!!!!!!!%": 518,
      "ćĈĈĈĈĈĈĈĈĈĈĈĈ": 519,
      "ćĈ!ćČ": 520,
      "Ĉ!ćĈ!ćĈ!": 521,
      "ďĉďĉ!!ďĉ!!": 522,
      "L!LK": 523,
      "ćĈ!ĈćĈ": 524,
      "ďĉďĉďĉć": 525,
      "ĈĈĈĈĈĈĈĈĈĈĈ": 526,
      ")ďĉďĉ!": 527,
      "Ĉ!ććĈ!Ĉ!": 528,
      "ćĈ!ćĈ!ćĈ": 529,
      "%&'(ďĉďĉďĉďĉ": 530,
      "ćĈ!ĈĈ!Ĉ!": 531,
      "ćććććĈ!ćĈĈ": 532,
      "'7777": 533,
      "ćĈ!Ĉ!ćĈ!Ĉ!": 534,
      "ćĈ!Ĉ!ĈćĈ!Ĉ!": 535,
      "ććććĈ!Ĉ!": 536,
      "&'(!": 537,
      "!!Č": 538,
      "ććććĈććĈ": 539,
      "ćĈćĈćĈćĈćĈćĈćĈćĈ": 540,
      "ćĈ!ćĈćĈćĈ": 541,
      "ćĈĈ!Ĉ!Ĉ": 542,
      "ćĈĈĈĈĈĈĈĈććĈ": 543,
      "ćĈ!ćĈ!ćĈ!ćĈ": 544,
      "!!!!!!!!!!!!!!!!!!!!!!!!!!!!!!!!!!!!!%": 545,
      "ććĈ!ćććĈ!ćć": 546,
      "ććĈ!ćĈ!Ĉ": 547,
      "LLLLLLLLLLLLLLLL": 548,
      "ćĈ!ćĈ!Ĉ!ćĈĈ": 549,
      "!!!!!!!!!%": 550,
      "ććĈ!ććććĈ": 551,
      "Ĉ!ĈĈĈĈ!": 552,
      "ćĈĈ!ćĈ!Ĉ!": 553,
      "ĈĈĈ!ĈĈĈććĈ!": 554,
      "ććććĈ!ĈĈ": 555,
      "ćĈĈĈĈ!Ĉ": 556,
      "ĈĈĈĈćĈĈĈĈ": 557,
      "ććĈććĈ!": 558,
      "ĈĈĈĈĈĈĈĈĈĈĈĈĈĈĈĈĈĈĈĈ": 559,
      "ćĈ!Ĉ!ććĈ!": 560,
      "ďĉ!!!!!!!!!!!!!!!!": 561,
      "ćĈćĈĈĈĈ": 562,
      "ć%&'(ďĉ": 563,
      "ďĉ!)!)": 564,
      "ďĉ!!ďĉďĉďĉďĉďĉďĉ!": 565,
      "%!!!!!!!!": 566,
      "ćććĈćĈ": 567,
      "ćĈ!ĈććĈĈĈ": 568,
      "Ĉ!ĈĈĈĈĈĈ": 569,
      "ćĈćĈćĈćĈćĈĈćĈĈćĈćĈćĈ": 570,
      "ĈćĈ!Ĉ!": 571,
      "!!!!!!!!!!!!!!!!!!!!!!!!!!!!!%": 572,
      "ĈĈĈĈĈĈĈĈĈĈĈĈĈĈĈĈĈĈĈĈĈĈĈĈĈĈĈĈĈĈĈĈ": 573,
      "RTVa!!!SĂĄĆ!!!!R!!!S": 574,
      "ćĈ!ĈĈ!Ĉ": 575,
      "ďĉďĉďĉ!ďĉ": 576,
      "ćĈ!ććĈćĈ!ćĈ": 577,
      "!!ćĈ!Ĉ!Ĉ!Ĉ!": 578,
      "ććĈĈććĈćć": 579,
      "Ĉ!ĈćĈ!Ĉ!Ĉ!ĈćĈ!ćć": 580,
      "!!!!ďĉ!!": 581,
      "ćĈ!ćĈ!ćĈ!ćĈ!Ĉ!": 582,
      "ćććĈ!Ĉ!ćĈ!Ĉ!": 583,
      "ććĈ!ćĈ!ććĈ!": 584,
      "ĈĈĈĈĈĈćĈ!ććĈ": 585,
      "Ĉ!Ĉ!Ĉ!Ĉ!!": 586,
      "!!!!!!!!!!!!!!!!!!!!!!": 587,
      "ĈĈĈĈĈĈĈĈĈĈĈĈĈĈ!Ĉ!Ĉ!Ĉ!": 588,
      "ĈćĈĈćĈćĈĈĈćĈĈ": 589,
      "ćďĉďĉďĉďĉ!": 590,
      "ććććććĈ!ćć": 591,
      "ĈĈĈĈĈĈĈĈĈĈ!ćĈ!Ĉ!": 592,
      "ćććĈĈ": 593,
      "ďĉćĈ!Ĉ!": 594,
      "ďĉďĉďĉďĉďĉ!": 595,
      "!!!!!!!!!!!!!!!!!!": 596,
      "ćĈ!ĈćĈćĈćĈ": 597,
      "ďďďď": 598,
      "ďĉ!ďĉ!!!!!!!!!!!": 599,
      "ď%&'(ĉ!": 600,
      "ď!ĉ": 601,
      "Ĉ!ĈĈ!ĈĈĈĈ!ĈĈ!Ĉ": 602,
      "ćĈ!Ĉ!Ĉ!ćĈĈćĈ": 603,
      "ććĈ!Ĉ!Ĉ!Ĉ!Ĉ!Ĉ!ćĈ": 604,
      "!!!!!!!!!!!!!!!!!!!!!!!!!!!!!!!": 605,
      "ĈĈĈĈĈĈĈĈĈĈ!ĈĈ": 606,
      "Ĉ!ćĈ!Ĉ!ĈćĈĈĈ": 607,
      "%ćĈ": 608,
      "ćććĈ!Ĉ!Ĉ!Ĉ!ĈĈĈĈĈĈĈĈĈĈ!ćĈ!Ĉ!": 609,
      "ďĉ!ďĉďĉďĉďĉ!!": 610,
      "ććććććĈććĈ!": 611,
      "ćď": 612,
      "!!!!!!!!!!!!!!%": 613,
      "!!!!!!!!!!!!!!!!!!!!!!!!!!!!!!%": 614,
      "ćććććććććććććććććććććććć": 615,
      "ďĉďĉ!ďĉďĉďĉ!!": 616,
      "(788888888,-%&+01": 617,
      "ďĉ!ďĉ!!!!!!": 618,
      "Ĉ!Ĉ!Ĉ!ĈĈĈĈĈĈĈĈĈĈ!ĈĈ": 619,
      "&'": 620,
      "ďĉ!!ďĉďĉ!!!": 621,
      "ćććććććĈ!Ĉ!Ĉ!ćĈ!Ĉ!": 622,
      "ďĉďĉ!ďĉ": 623,
      "%!!!!!!!!!!!!!!!!": 624,
      "ĥĤ": 625,
      "Ĉ!Ĉ!ĈĈ!Ĉ!Ĉ!Ĉ!": 626,
      "!!!!!!!!!!!!!!!!!!!!!!!!!!!!!!!!!!!%": 627,
      "ćććććććĈ!Ĉ!ććććććĈ!ćĈĈ": 628,
      "ďĉďĉ!!!!!!!!!!!!!!!!!!!!!!!!!!!!!!!!": 629,
      ")!)!!!!!!!!!!!!!!!!!!!!!!!!!!!!!!!!!!!!": 630,
      "ďĉďĉ!ďĉ!!": 631,
      "!!!!!!!!!!%": 632,
      "MMMMMMMMMMMMMMMMMMMMMMMMMMMMMMMM": 633,
      "Ĉ!ĈćĈ!": 634,
      "ďĉ!!ďĉďĉďĉ": 635,
      "!!!!!!!!!!!!!!!!!!!!!!!!!!!!!!!!!%": 636,
      "ďĉćććććććć": 637,
      "Ĉ!!": 638,
      "%&'(ďĉďĉďĉďĉďĉďĉďĉďĉ": 639,
      "!!!!!!!!!!!!!!!!!!!!!!!!!%": 640,
      "ćĈ!ĈćĈĈ": 641,
      "ććĈ!ćďĉ": 642,
      "!!!!!!!!!!!!!!!!!!!!!!!!!!!!!!!!!!%": 643,
      "!!!!!!!!!!!!!!!!!!!!!!!!!!!!!!!!!!!!!!!": 644,
      "ďĉĈ!ĈĈĈĈĈĈĈ": 645,
      "Ĉ!Ĉ!Ĉ!ĈĈĈĈĈĈĈĈĈĈ!ĈĈĈ!ĈĈ!ĈĈĈĈ!ĈĈ!Ĉ": 646,
      "Ĉ(": 647,
      "!!!!!!!!!!!!!!!%": 648,
      "ďĉĈ!Ĉ!Ĉ!Ĉ!": 649,
      "%&'(ďĉ!!!!!!!!!!!!!!!!!!!!!!!!!!!!!!!!": 650,
      "Ĉ!ĉ": 651,
      ")!)!!!!!!!!!!!!!!!!!!!!": 652,
      "!!ďĉćć": 653,
      "ćććĈ!": 654,
      "ĖĖ": 655,
      "%&'(ďĉĈ!Ĉ!Ĉ!Ĉ!": 656,
      ")!!!!!!!!)!": 657,
      "ĈĈ!Ĉ": 658,
      "ďĉďĉ!ďĉďĉ": 659,
      "!!!!!!!!!!!!!!!!!!!!!!!!!!%": 660,
      ")!)!!!!!!!!!!!!!!!!": 661,
      "!!!!!!!!!!!!!!!!!!!!!!!!!!!!!!!%": 662,
      "ďĉďĉďĉďĉďĉ%&'(": 663,
      "ďĉďĉ!ďĉ!": 664,
      "Ĉ'(": 665,
      "%!&'(!!!!!!!!!!!!!!!!!!!!!!!!!!!!!!!!": 666,
      "%&'(ďĉ!": 667,
      "ďĉďĉďĉďĉ!ďĉďĉ": 668,
      "322": 669,
      "ćĈĈĈĈĈćĈĈĈĈĈ": 670,
      "ććĈ!Ĉ!Ĉ!Ĉ": 671,
      "Ē!!": 672,
      "ďĉďĉďĉďĉ!!": 673,
      "ćććććććććććć": 674,
      "01'(3": 675,
      "ćććĈ!Ĉ!Ĉ!Ĉ!Ĉ!Ĉ!ćććććĈ!ćĈĈ": 676,
      "ďĉďĉćććĈ!Ĉ!": 677,
      "ďĉďĉďĉďĉďĉ)!)": 678,
      "ďĉ!ďĉďĉďĉďĉ!": 679,
      "232222222222222222": 680,
      "%!!!&'(": 681,
      "ćććććĈ!Ĉ!Ĉ!ćĈĈćĈ": 682,
      "%&'(ďĉćć": 683,
      "!LK!LK!LK!LK!LK!LK!LK!LK": 684,
      "%ď&'(ĉ!": 685,
      "ćĈ!ĈĈ!ĈĈĈ": 686,
      ")!)!": 687,
      "!!!!!!!!!!!!!!!!!!!!!!!%": 688,
      "AA": 689,
      "%&'(ďĉďĉďĉ": 690,
      "ďĉ!ććĈ!": 691,
      "Ĉ!Ĉ!ĈĈ!Ĉ!": 692,
      "Ĉ!ĈĈ!Ĉ!Ĉ!Ĉ!": 693,
      "!!!!!!!&'(": 694,
      "!!!!!!!!!!!!!!!!!%": 695,
      "ďĉďĉďĉďĉďĉďĉ%&'(": 696,
      "Ĉ!ćć": 697,
      "ćĈ!ďĉ": 698,
      "ďĉďĉďĉ!!ďĉďĉ": 699,
      "%!!!!!!!!!!!!!!!!!!!!": 700,
      "32323": 701,
      "ć(": 702,
      "Čďĉ": 703,
      "ďĉ!!ďĉ!!!!!!!!": 704,
      "ćĈ!ćĈ!Ĉ!ĈćĈ!Ĉ!": 705,
      "Ĉ!Ĉ!ĈĈ!": 706,
      "!!!!!!!!!!!!!!!!!!!!!%": 707,
      "ćĈ!ĈĈĈĈ": 708,
      "ďĉďĉ!!ďĉ!!!!": 709,
      "!!!!!!!!!!!!!!!!!!!!!!!": 710,
      "Ĉ!Ĉ!Ĉ!Ĉ!ĈćĈĈĈ!ĈĈĈ": 711,
      "ďĉ!%&'(": 712,
      "Ĉ!ĈĈĈ!Ĉ!Ĉ": 713,
      "ďĉďĉ!ďĉďĉćććć": 714,
      "ććććĈćĈ": 715,
      "ďĉďďĉĉ": 716,
      "%&'(ďĉ!!!": 717,
      "ććĈ!Ĉ!Ĉ!ćĈ!": 718,
      "777": 719,
      "ćĈ!Ĉ!Ĉ!Ĉ!Ĉ!": 720,
      "Ĉ!ćĈ!Ĉ!Ĉ!ćĈ!Ĉ!": 721,
      "ć!!": 722,
      "!!!!!!!!!ććććĈ!ĈĈ": 723,
      "%!!&'(!!!!!!!!!!!!!!!!!!!!!!!!!!!!!!!!": 724,
      "ďĉďĉďĉďĉćććć": 725,
      "ďĉď%&'(ĉ": 726,
      "ďĉďĉ!ďĉďĉ%&'(": 727,
      "ďĉ!ďĉ!!!": 728,
      "Čďĉďĉ": 729,
      "ďĉ))": 730,
      "Ĉ!Ĉ!Ĉ!ĈĈĈ": 731,
      "ćĈĈĈćĈ": 732,
      "ćďĉ!!": 733,
      "ćĈ!ĈćĈ!Ĉ!": 734,
      "%!Ĉ&'(": 735,
      "Ĉ!ďĉďĉ!": 736,
      "ććĈ!ĈĈ!": 737,
      "ďĉďĉ)": 738,
      "%&'(%&'(%&'(": 739,
      "ĈćĈĈćĈćĈĈĈćĈĈďĉ": 740,
      "ćĈ!Ĉ!ĈĈ": 741,
      "Ĉ!Ĉ!Ĉ!Ĉ!Ĉ!Ĉ": 742,
      ")!)!!!!!!!!": 743,
      "ćĈ!Ĉ!ĈćĈ!": 744,
      "Ĉ(!": 745,
      "Ĉ!Ĉ!ĈĈĈ!": 746,
      "ćĈ!Ĉ!!": 747,
      "%&'(ďĉ!!ďĉ!ďĉďĉ!": 748,
      "ďĉććĈ!": 749,
      "ďĉ!!!!!!!": 750,
      "ććććććććććććĈ!": 751,
      "!!!!!!!!!ďĉ": 752,
      "ĈĈĈĈĈ!": 753,
      "ćďĉ%&'(": 754,
      "Ĉ!Ĉ!Ĉ!Ĉ!ĈĈĈĈ": 755,
      "ćĈćĈćĈ!Ĉ!": 756,
      "ćććĈćć": 757,
      "ďĉ!!!!!!!!!!!": 758,
      "ććĈ!ćďĉďĉďĉďĉďĉďĉďĉďĉ": 759,
      "%!!&'(": 760,
      "Ĉ!ćĈ!ĈćĈ": 761,
      "00011": 762,
      "ďĉď": 763,
      "Ĉ!Ĉ!Ĉ!Ĉ!Ĉ!Ĉ!Ĉ": 764,
      "ďĉ!!ďĉ!!!!!!!!!!!": 765,
      "Ĉ!ĈĈ!Ĉ!Ĉ!Ĉ": 766,
      "Ĉ!ćĈ!Ĉ!Ĉ!Ĉ!Ĉ!!": 767,
      "Ĉ!ććĈĈ": 768,
      "Ĉ!Ĉ!ćĈĈ": 769,
      "ćĈ!ćĈ!ćďĉďĉďĉďĉ!": 770,
      "ČČ": 771,
      "ćĈćĈ!ćĈ": 772,
      "Ĉ!ďĉďĉ": 773,
      "!!!!!!!!!!!!!!!!!!!%": 774,
      "ćĈ!Ĉ!ćĈ": 775,
      "!!!ďĉďĉďĉďĉ": 776,
      "ďĉďĉďĉ!!ďĉ!": 777,
      "Ĉ'(!": 778,
      "%!!!!!!!!!!!!!!!!!!!!!!!!!!!!!!!!": 779,
      "ďĉ!!!!!!!!!!!!": 780,
      "ďĉďĉ!!ďĉ!ďĉ!!": 781,
      "Ĉ!Ĉ!ćĈ!ĈĈ!": 782,
      "Ĉ!ĈĈĈ!ĈĈ": 783,
      "Ĉ!%&'(ďĉďĉďĉ!": 784,
      "ćĈĈĈććĈ": 785,
      "ćĈĈĈĈĈćĈ": 786,
      ")!!!!!!!!!!!!!!!!!!!!!!!!!!!!!!!!": 787,
      "Ĉ!ďĉ!ďĉďĉďĉďĉ": 788,
      "ćĈććć": 789,
      "Ĉ!ĈććĈ": 790,
      "Ĉ!Ĉ!ĈĈĈĈĈĈ": 791,
      "ćĈ!ćĈĈĈ": 792,
      "Ĉ!Ĉ!Ĉ!ĈĈ!Ĉ": 793,
      "ďĉ!!!ćććć": 794,
      "%ćĈ&'(!": 795,
      "!!ćććć": 796,
      "Ĉ!Č": 797,
      "ćĈ!ćĈ!ćĈ!Ĉ!": 798,
      "Ē!": 799,
      "ćĈĈććĈĈĈ": 800,
      "ććĈ!ćĈĈ": 801,
      "ćĈćĈćĈćĈćĈ": 802,
      "Ĉ!ďĉďĉ!ďĉćććć": 803,
      "ć%Ĉ&'(!": 804,
      "ćĈĈĈććĈĈĈ": 805,
      "ćććĈććĈ": 806,
      "ĈĈ!ććĈ!Ĉ!": 807,
      "!!!!!!!!!!!!!!!!!!%": 808,
      "ćććĈ!ćĈ!": 809,
      "ćććĈ!ćĈ!ćĈ!ćĈ!": 810,
      "ďĉććććĈ!ćĈ!ćĈ!": 811,
      "ććĈ!Ĉ!Ĉ!Ĉ!Ĉ!ďĉďĉ!ďĉćććć": 812,
      "ćĈ!ćĈ!ĈĈ!Ĉ!": 813,
      "ćĈ!ćĈćĈćĈďĉďĉ!": 814,
      "ćĈ!ćĈ!ćĈ!ćĈćĈ!ćĈ!Ĉ!": 815,
      "ČďĉćĈ!ćĈ!ćĈ!ćĈćĈ!ćĈ!Ĉ!": 816,
      "ĈĈ!ććĈ!Ĉ!ČďĉćĈ!ćĈ!ćĈ!ćĈćĈ!ćĈ!Ĉ!": 817,
      "ćććĈ!ćĈ!ćĈ!ćĈ!ćĈ!ćĈćĈćĈďĉďĉ!": 818,
      "ććĈ!Ĉ!Ĉ!Ĉ!Ĉ!ďĉďĉ!ďĉćććććĈ!Ĉ!Ĉ!Ĉ!Ĉ!Ĉ!": 819,
      "Ĉ!ĈĈĈćĈ!ćĈĈĈ": 820,
      "ďĉďĉďĉďĉďĉććććĈ!ćĈ!ĈćĈ": 821,
      "Ĉ!Ĉ!Ĉ!Ĉ!ĈćĈĈćĈĈĈĈĈ": 822,
      "ĈĈ!ććĈ!Ĉ!ČďĉćĈ!ćĈ!ćĈ!ćĈćĈ!ćĈ!Ĉ!ććĈ!ĈĈ!": 823,
      "ćććĈ!ćĈ!ćĈ!ćĈ!ćĈ!ćĈćĈćĈďĉďĉ!ćććććććĈ!Ĉ!": 824,
      "ćĈ!Ĉ!ĈĈĈĈĈĈ": 825,
      "ďĉďĉďĉďĉĈ!ĈĈĈćĈ!ćĈĈĈ": 826,
      "Ĉ!ćĈ!Ĉ!ĈĈĈ!ĈĈĈććĈ!": 827,
      "ććĈćĈćĈćĈ": 828,
      "!!!!!!!!!!!!!!!!!!!!!!%": 829,
      "ćĈ!ćććĈ!ćć": 830,
      "Ĉ!ĈĈ!ććĈ!Ĉ!Ĉ": 831,
      "ćĈ!ććĈ!ćĈ!ććĈ!": 832,
      "ĈĈćĈćĈćĈ!Ĉ!": 833,
      "Ĉ!Ĉ!ĈĈĈĈ": 834,
      "ććĈ!ĈĈĈĈĈ!": 835,
      "ććĈ!Ĉ!ĈĈĈ!Ĉ!": 836,
      "ććĈ!Ĉ!ĈćĈĈĈććĈĈĈ": 837,
      "ćććććććĈ!ćĈ!Ĉ!": 838,
      "ćĈ!Ĉ!ććĈ!ĈĈćĈćĈćĈ!Ĉ!": 839,
      "ćĈĈĈĈĈćĈĈĈĈĈćĈ!ĈĈĈ": 840,
      "Ĉ!Ĉ!ĈĈĈĈĈĈćĈ!ĈĈĈ": 841,
      "ććĈ!Ĉ!ĈĈĈ!Ĉ!Ĉ!ĈĈćĈ": 842,
      "ćĈ!Ĉ!ććĈ!ĈĈćĈćĈćĈ!Ĉ!ĈćĈĈ": 843,
      "ĈĈĈĈĈĈĈĈĈĈĈĈĈĈĈĈĈĈĈĈĈĈĈĈĈĈĈ": 844,
      "ććĈ!ćĈ!ćĈ!ćĈ!ćĈćĈćĈ": 845,
      "ćĈĈ!Ĉ!ĈćĈ!Ĉ!ĈĈĈĈĈĈ": 846,
      "ćĈ!ćĈ!Ĉ!ćĈĈćĈ!Ĉ!ććĈ!ĈĈćĈćĈćĈ!Ĉ!ĈćĈĈ": 847,
      "ĈĈĈĈĈĈĈĈĈ!Č": 848,
      "ćĈĈĈććĈ!Ĉ!": 849,
      "ĈĈĈĈĈĈĈĈĈĈĈĈĈĈĈĈĈĈ!": 850,
      "ćĈ!ĈĈĈĈ!ĈĈ!Ĉ": 851,
      "ććĈ!ććĈ!ĈĈ!ććĈ!Ĉ!Ĉ": 852,
      "!!!!ďĉććććĈ!ćĈ!ćĈ!": 853,
      "ćĈ!ćććĈ!Ĉ!Ĉ!": 854,
      "ćĈ!Ĉ!ćĈĈ": 855,
      "ćĈ!ćĈ!ćĈ!Ĉ!Ĉ!": 856,
      "ććććĈ!ććĈ!ć": 857,
      "ććĈĈćĈĈĈ": 858,
      "ĈĈĈĈĈĈĈĈĈĈĈĈĈĈĈĈĈĈĈĈĈĈĈ": 859,
      "Ĉ!ćććĈ!ććĈ!": 860,
      "ćććĈćććĈĈćĈ": 861,
      "ććĈćĈćĈćĈćĈ!": 862,
      "ćććććććĈ!ćĈ!Ĉ!Ĉ!Ĉ!Ĉ!ćĈ!Ĉ!": 863,
      "ććĈ!ćĈ!ććĈ": 864,
      "ćććĈĈ!Ĉ!": 865,
      "Ĉ!Ĉ!Ĉ!ćĈĈĈććĈ": 866,
      "ďĉ!!!!!!!!!": 867,
      "ćĈ!ĈĈĈćć": 868,
      "ēē": 869,
      "ćĈ!ććććććĈ!": 870,
      "ćĈ!Ĉ!Ĉ!Ĉ!Ĉ!Ĉ!Ĉ!Ĉ!": 871,
      "ćĈ!ćĈ!ććĈ": 872,
      "Ĉ!ćĈ!ćĈĈĈĈ!Ĉ": 873,
      "ćĈ!ćĈ!ĈĈ!ćĈ!Ĉ!ĈĈĈ!ĈĈĈććĈ!": 874,
      "ĈĈĈĈ!ććĈ": 875,
      "Ĉ!%&'(ďĉďĉďĉ!))": 876,
      "Ĉ!Ĉ!Ĉ!Ĉ!ĈćĈĈćĈĈĈĈĈĈ!%&'(ďĉďĉďĉ!))": 877,
      "Ĉ!ćććĈ!ććĈ!ćĈ!ĈĈĈćć": 878,
      ")!!!!!!!!!!!!!!!": 879,
      "Ĉ!Ĉ!Ĉ!Ĉ!ĈĈĈĈĈĈĈĈĈ!Č": 880,
      "Ĉ!Ĉ!Ĉ!Ĉ!Ĉ!Ĉ!ĈĈĈ!Ĉ!": 881,
      "Ĉ!Ĉ!Ĉ!ćĈ!Ĉ!ćĈ!ćĈ!ćĈ!ćĈ!ćĈ!Ĉ!": 882,
      "Ĉ!ĈĈĈ!ĈĈĈĈĈĈĈĈĈĈĈĈĈĈĈĈĈĈ!": 883,
      "!!Č!": 884,
      "ććććĈćĈććĈ!": 885,
      "!!ďĉ!!!!!!": 886,
      "Ĉ!Ĉćć": 887,
      "ććććććććĈ!": 888,
      "Ĉ!ĈĈĈĈ!Ĉ": 889,
      "ććĈ!Ĉ!Ĉ!Ĉ!Ĉ": 890,
      "ďĉ!!!ćććĈ": 891,
      "ććĈ!ćďĉďĉďĉďĉ": 892,
      "ććĈ!ćććĈ!ćććĈ!ćććĈ!Ĉ!Ĉ!": 893,
      "ćĈ!Ĉ!!Ĉ!ćĈ!ćĈ!": 894,
      "ćĈĈĈććĈ!Ĉ!ććĈ!ćć": 895,
      "ďćĉ": 896,
      "ćĈćĈćĈĈĈćĈ": 897,
      "Ĉ!ĈĈ!ĈĈĈĈĈĈĈĈĈĈĈĈĈĈĈĈĈĈĈĈĈĈĈĈĈĈĈ": 898,
      "!!ďĉ!!!!!!!!!!!!!!!!!!!": 899,
      "ďĉ!!!!!ćĈ!Ĉ": 900,
      "ćććććććĈ!ćĈ!Ĉ!Ĉ!Ĉ!Ĉ!ćĈ!Ĉ!ćĈććĈ": 901,
      "%&'(TVa": 902,
      "ćĈ!Ĉ!ććĈ": 903,
      "ćĈćĈ!ććĈ": 904,
      "Ĉ!ĈĈĈ!ĈĈĈĈ": 905,
      "ćĈ!ćĈ!!": 906,
      "ćĈćĈĈĈ!Ĉ": 907,
      "ćĈ!ćĈ!Ĉ!ćĈĈćĈ!Ĉ": 908,
      "Ĉ!ĈĈĈĈ!ĈĈĈĈĈĈĈĈ": 909,
      "ćĈćĈĈĈĈĈĈĈ": 910,
      "Ĉ!Ĉ!Ĉ!ćĈĈĈććĈĈ!ćććĈ!ććĈ!ćĈ!ĈĈĈćć": 911,
      "ćĈ!ććććććĈ!ćĈ!ććĈ": 912,
      "Ĉ!Ĉ!Ĉ!Ĉ!ćĈ!": 913,
      "ćĈĈĈ!Ĉ!ćĈ!Ĉ!": 914,
      "ĈĈĈĈĈĈĈĈĈĈĈĈĈĈĈĈĈĈĈĈĈĈĈĈ": 915,
      "ćććĈććććĈććĈ": 916,
      "ćĈĈćĈĈćĈĈĈĈĈćĈ": 917,
      "ďĉ!ďĉďĉ!!!!!!!!!!!!!!!!!!!!!!!!!!!!": 918,
      "ććĈ!ććććĈćĈćĈćĈ": 919,
      "ććĈ!ćďĉ!!!!!!!!": 920,
      "ĈĈ!ĈććĈ!Ĉ!Ĉ": 921,
      "Ĉ!Ĉ!ĈĈ!Ĉ!Ĉ!ĈĈĈĈ": 922,
      "ČďĉďĉććĈ!ćĈ!ćĈ!ćĈ!ćĈćĈćĈ": 923,
      "ćĈ!Ĉ!!Ĉ!ćĈ!ćĈ!ććĈ!Ĉ!": 924,
      "ďĉďĉď%&'(ĉ": 925,
      "Ĉ!Ĉ!ĈĈ!Ĉ!ĈĈĈ": 926,
      "Ĉ!Ĉ!ĈĈ!Ĉ!ĈĈ!Ĉ": 927,
      "ćććĈ!Ĉ!Ĉ": 928,
      "Ĉ!ĈĈĈĈ!ĈĈĈĈ": 929,
      "ďĉ!ďĉďĉďĉďĉďĉďĉďĉ": 930,
      "ććććĈ!ćććĈććĈ": 931,
      "ćććĈćććĈĈćĈćĈ!Ĉ!": 932,
      "Ĉ!Ĉ!Ĉ!Ĉ!ĈĈĈĈĈĈĈĈĈ!Čďĉ!": 933,
      "Ĉ!ĈĈ!Ĉ!ćĈ!": 934,
      "ďĉďĉ!ďĉ%&'(": 935,
      "ććĈ!Ĉ!Ĉ!Ĉ!Ĉ!ĈĈ!": 936,
      "ćĈ!ĈĈĈ!!ćććć": 937,
      "ććĈ!ĈććććĈ": 938,
      "ćĈĈĈćĈĈćććć": 939,
      "ćććĈ!Ĉ!Ĉ!ććĈ": 940,
      "ććĈĈĈĈćĈĈĈĈ": 941,
      "ćĈĈ!Ĉ!Ĉ!Ĉ!": 942,
      "ćĈ!ĈćĈ!ććĈ": 943,
      "Ĉ!Ĉ!ćĈ!Ĉ!ĈĈĈ": 944,
      "ćĈĈćĈĈćĈ!ćććĈ!ćć": 945,
      "ćĈ!ĈĈćĈ!ćĈ!Ĉ!Ĉ!": 946,
      "ćĈćĈćĈćĈćĈćĈćĈćĈćĈćĈćĈćĈ": 947,
      "ććĈ!ćĈ!ĈĈ!ćĈ!Ĉ!": 948,
      "Ĉ!ććĈĈććĈ!ćĈĈ": 949,
      "Ĉ!ĈĈĈĈ!ĈĈ!ĈĈĈĈ": 950,
      "ďĉ!!!!!ćĈ!ĈćĈ!ćĈ!ĈĈ!ćĈ!Ĉ!ĈĈĈ!ĈĈĈććĈ!": 951,
      "Ĉ!ćĈ!Ĉ!Ĉ!Ĉ!Ĉ!Ĉ!": 952,
      "ćĈĈĈĈ!Ĉ!ćĈ!Ĉ!": 953,
      "ćĈĈĈĈ!Ĉ!ćĈ!": 954,
      "ćĈĈĈćĈ!ĈĈĈĈ": 955,
      "ćĈćĈćĈćĈĈĈ": 956,
      "ďĉ!!!!!ďĉ!)!)": 957,
      "ććĈ!ćĈ!ćĈ!ĈćĈĈ": 958,
      "ćĈĈćĈĈćĈćĈćĈććĈćĈćĈćĈćĈ!": 959,
      "ćĈ!ćĈ!ćĈ!ćĈ!ćĈ!Ĉ!ćĈ!ćĈ!Ĉ!ćĈĈćĈ!Ĉ": 960,
      "ćĈ!ĈĈ!Ĉ!ďĉ!ďĉ!": 961,
      "ćĈĈ!Ĉ!ĈćĈ!Ĉ!ĈĈĈĈĈĈććĈ!ćďĉ!!!!!!!!": 962,
      "ćććďĉ": 963,
      "ćĈććĈ!ćĈ!ćĈ!ĈćĈĈ": 964,
      "ććĈ!Ĉ!Ĉ!ććĈ!Ĉ!": 965,
      "Ĉ!Ĉ!Ĉ!ćĈ!Ĉ!ćĈ!ćĈ!ćĈ!ćĈ!": 966,
      "Ĉ!Ĉ!ĈĈ!ĈĈ!Ĉ!ĈĈ": 967,
      "ććĈ!ćććĈ!ćććĈ": 968,
      "ćććĈ!Ĉ!ćĈ!Ĉ!ĈĈĈĈ!ććĈ": 969,
      "!!!!!!!!!ććććĈ!ĈĈ%&'(ďĉ": 970,
      "ćććĈććććĈććĈććććĈććĈ": 971,
      "ćĈ!Ĉ!Ĉ!Ĉ!Ĉ!Ĉ": 972,
      "Ĉ!ĈĈĈ!Ĉ!Ĉ!Ĉ!Ĉ!Ĉ!Ĉ!Ĉ!": 973,
      "ćĈćĈćĈćĈćĈćĈćĈćĈćĈ": 974,
      "ććĈ!ĈććĈ!Ĉ!": 975,
      "Ĉ!ĈĈĈĈĈĈĈĈ!ĈĈĈĈĈ": 976,
      "ĈĈĈĈĈćĈćĈ": 977,
      "!!Č!!Č!": 978,
      "ďĉďĉďĉďĉďĉ!ďĉ": 979,
      "ććĈ!ćĈ!Ĉ!Ĉ!ćĈ!Ĉ!": 980,
      "ćććĈ!Ĉ!ćććĈĈ": 981,
      "ćĈ!ćććĈ!ććĈ": 982,
      "Ĉ!Ĉ!ĈĈćĈ!Ĉ!": 983,
      "ććĈ!ĈćĈćĈ": 984,
      ")!!!!!!!!)": 985,
      "Ĉ!ĈĈĈĈĈĈĈ!Ĉ!Ĉ!ĈĈ!Ĉ": 986,
      "ćĈĈĈĈĈćĈĈćĈ": 987,
      "!&'(ďĉ))": 988,
      "Ĉ!ĈĈ!ĈĈ!ĈĈĈ!ĈĈĈĈ": 989,
      "ćĈ!Ĉ!Ĉ!Ĉ!ćĈ!ćć": 990,
      "!!!!!!!!!!ďĉ!!!!!!": 991,
      "ĈĈĈĈĈĈĈĈĈĈĈĈ!Ĉ!": 992,
      "ćććĈĈĈĈĈ": 993,
      "Ĉ!Ĉ!ĈĈ!Ĉ!Ĉ!!": 994,
      "ćĈ!ćĈ!Ĉ!ćĈ!Ĉ": 995,
      "!!!!!!!!!!!!!!!!!!!!!!!!!": 996,
      "ććĈ!Ĉ!Ĉ!Ĉ!ćĈĈĈ!Ĉ!ćĈ!Ĉ!": 997,
      "ććććĈ!ććĈ!ćććĈ!ćććĈ": 998,
      "Ĉ!ćĈ!ďĉ!!!!!!!!": 999,
      "ćĈ!ĈĈĈ!ĈĈ": 1000,
      "ćĈ!ĈĈćĈĈćĈ": 1001,
      "ćććĈ!Ĉ!Ĉ!ĈĈ!Ĉ!ćĈ!Ĉ!": 1002,
      "Ĉ!ĈĈĈĈĈĈ!Ĉ!Ĉ": 1003,
      "ćĈććĈĈ!ĈĈĈ": 1004,
      "ććććĈ!Ĉ!ććĈ!ĈććććĈ": 1005,
      "ććĈ!ćĈ!ććĈćĈććć": 1006,
      "ćććĈĈ!Ĉ!ćĈ!ććĈćĈ!ćĈ": 1007,
      "ććĈ!Ĉ!ĈĈĈ": 1008,
      "Ĉ!Ĉ!ćĈ!Ĉ!Ĉ!Ĉ!ćĈ!Ĉ!": 1009,
      "ćĈ!ććĈććĈ": 1010,
      "ćĈ!Ĉ!Ĉ!Ĉ!Ĉ!Ĉ!ĈĈ": 1011,
      "ćĈ!ĈĈĈćĈćĈćĈĈĈćĈ": 1012,
      "Ĉ!ćĈ!ĈĈĈĈ": 1013,
      "ćĈ!ĈĈćĈ!ćĈĈ": 1014,
      "ćććććććććććĈ!Ĉ": 1015,
      "Ĉ!ćĈ!Ĉ!ĈćĈĈĈćĈĈĈćĈĈćććć": 1016,
      "000111": 1017,
      "Ĉ!ĈĈĈ!ĈĈĈĈĈĈĈĈĈĈĈĈĈĈĈĈĈĈ!ďĉ!!": 1018,
      "ććććĈćĈććĈ!ćĈ!Ĉ!Ĉ!Ĉ!ćĈ!Ĉ!": 1019,
      "ććĈ!Ĉ!Ĉ!Ĉ!Ĉ!ĈĈ!ćĈ!ćĈ!ćĈ": 1020,
      "ććĈĈ!Ĉ!ĈĈĈ!": 1021,
      "ćĈĈĈćĈ!ĈććĈĈĈ": 1022,
      "Ĉ!Ĉ!Ĉ!Ĉ!Ĉ!Ĉ!Ĉ!ĈĈ!": 1023,
      "01010101": 1024,
      "ćĈ!ĈćĈĈ!Ĉ!ćĈ!ĈĈ!": 1025,
      "ćĈĈĈĈĈĈĈĈććĈćĈĈ!": 1026,
      "ćĈ!ćĈ!ćĈ!Ĉ!ććććĈ!ććĈ!ć": 1027,
      "Ĉ!Ĉ!Ĉ!ćĈ!Ĉ!ćĈ!ćĈ!ćĈ!ćĈ!ćĈ!Ĉ!Ĉ!Ĉ!ĈĈ!": 1028,
      "ćĈĈĈĈĈĈćĈĈĈĈ": 1029,
      "ććĈ!Ĉ!ĈćĈĈĈććĈĈĈććĈ!Ĉ!Ĉ!Ĉ!Ĉ!Ĉ!ćĈ": 1030,
      "ďĉ!!!ćććĈćĈ!ćĈ!ĈĈ!Ĉ!": 1031,
      "ćĈ!ććććććĈ!ćĈ!ććĈćććĈćććĈĈćĈćĈ!Ĉ!": 1032,
      "Ĉ!Ĉ!Ĉ!ĈĈĈĈĈĈĈĈ!ĈĈĈĈĈ": 1033,
      "!!!!!!!!!!!!!!ďĉ": 1034,
      "ćććććććĈ!Ĉ!Ĉ!ććĈĈććĈ!ćĈĈ": 1035,
      "ććĈ!ĈĈ!ĈĈĈĈ!ĈĈ!ĈĈĈĈ": 1036,
      "ćććĈ!Ĉ!Ĉ!Ĉ!Ĉ!Ĉ!ĈĈĈĈĈĈĈĈĈĈĈĈ": 1037,
      "ćĈ!ćĈ!ćĈćĈ!ćĈ": 1038,
      "ďĉćĈ!Ĉ!ććĈ!ććĈ!ĈĈ!ććĈ!Ĉ!Ĉ": 1039,
      "ćĈ!ćććĈ!ććĈćĈ!ććĈ": 1040,
      "Ĉ!Ĉ!ĈĈĈĈĈĈĈĈĈĈĈĈĈĈĈĈĈĈĈĈĈĈĈĈ": 1041,
      "ćĈĈ!Ĉ!ĈĈĈ": 1042,
      "ććĈ!Ĉ!Ĉ!Ĉ!ćĈ!Ĉ!!Ĉ!ćĈ!ćĈ!ććĈ!Ĉ!": 1043,
      "Ĉ!ĈĈ!Ĉ!Ĉ!Ĉ!ĈĈ": 1044,
      "ććĈĈćĈĈĈććĈĈććĈćć": 1045,
      "ćĈ!Ĉ!ććĈćĈ!": 1046,
      "Ĉ!Ĉ!ĈĈ!Ĉ!ĈĈĈĈ!Ĉ!ĈĈ!Ĉ!Ĉ!!": 1047,
      "ććĈĈĈĈćĈĈĈĈćĈĈĈĈĈĈĈĈććĈ": 1048,
      "Ĉ!Ĉ!ĈĈ!ĈĈ!Ĉ!ĈĈĈ!ĈĈĈĈ!ĈĈĈĈ": 1049,
      "ďĉďĉ!!ćććĈ!Ĉ!ćĈ!Ĉ!ĈĈĈĈ!ććĈ": 1050,
      "!!!!!!!!!!!!!!!!!!!!!!!!!!!!!!)!)": 1051,
      "ćĈ!Ĉ!ćĈ!Ĉ!ćĈ!Ĉ!Ĉ!Ĉ!Ĉ!": 1052,
      "Ĉ!ĈĈĈĈ!ĈĈĈĈĈĈĈĈĈĈĈĈ!Ĉ!": 1053,
      "ćĈĈĈĈĈĈĈĈĈĈĈĈĈ!ćĈ!ćĈĈĈĈ!Ĉ": 1054,
      "ćĈ!Ĉ!ĈĈćĈ": 1055,
      "Ĉ!Ĉ!Ĉ!Ĉ!Ĉ!Ĉ!ĈĈ!ĈĈ!ĈĈ!ĈĈĈ!ĈĈĈĈ": 1056,
      "ćĈĈććĈĈĈćĈ!ĈćĈ!ććĈ": 1057,
      "ćĈĈĈĈ!Ĉ!ćĈ!Ĉ!ćĈĈĈćĈ!ĈĈĈĈ": 1058,
      "ćĈ!ćĈ!Ĉ!ććĈ!ĈććĈ!Ĉ!": 1059,
      "Ĉ!ďĉďĉćĈ!ďĉ!": 1060,
      "ćĈĈĈĈĈćĈĈĈĈĈćĈ!ĈĈĈćĈ": 1061,
      "ćĈĈĈććĈ!Ĉ!ććĈ!ćććĈćĈćĈćĈćĈĈćĈĈćĈćĈćĈ": 1062,
      "ćĈĈćĈĈćĈĈĈĈĈćĈćĈĈćĈĈćĈćĈćĈććĈćĈćĈćĈćĈ!": 1063,
      "ĈĈ!ĈććĈ!Ĉ!ĈĈ!ĈĈ!Ĉ!ćĈ!": 1064,
      "ćććĈ!Ĉ!ćććĈĈćĈ!ĈĈĈ!!ćććć": 1065,
      "ćďĉďĉďĉďĉďĉďĉďĉ!": 1066,
      "ďĉďĉďĉďĉďĉďĉ!!!": 1067,
      "ćĈ!ĈĈ!ĈĈĈ!Ĉ!Ĉ!Ĉ!Ĉ!Ĉ!Ĉ!Ĉ!": 1068,
      "ćĈ!Čďĉďĉďĉ!ďĉďĉ!": 1069,
      "ćĈćĈćĈćĈĈĈćĈĈĈĈĈĈ": 1070,
      "ććĈ!ĈćĈćĈćĈ!ĈćĈĈ": 1071,
      "ćĈ!ćĈ!ćĈ!ĈĈ!Ĉ!": 1072,
      "Ĉ!Ĉ!Ĉ!Ĉ!Ĉ!Ĉ!ĈĈĈ": 1073,
      "ćĈ!Ĉ!Ĉ!Ĉ!Ĉ!Ĉ!Ĉ!ćĈ!ďĉ!!!!!!!!": 1074,
      "Ĉ!Ĉ!ĈĈĈ!Ĉ!Ĉ!Ĉ!ĈĈĈĈ": 1075,
      "ććĈ!Ĉ!ĈĈ!ĈĈĈ": 1076,
      "ćĈ!ĈĈ!ććĈ!ćĈ!ĈĈ!ćĈ!Ĉ!": 1077,
      "ćĈĈ!ćĈ!Ĉ!ĈĈĈĈćĈĈĈĈ": 1078,
      "ććććććĈ!ćććĈ!ćć": 1079,
      "ćĈ!ćĈ!ććĈćĈ!Ĉ!Ĉ!Ĉ!ćĈ!ćć": 1080,
      "ćĈ!ćĈ!Ĉ!ćĈ!ĈćĈ!ĈĈ!Ĉ": 1081,
      "Ĉ!Ĉ!Ĉ!Ĉ!Ĉ!ćĈ!ĈĈĈĈ": 1082,
      "ćććĈ!Ĉ!Ĉ!ćĈ!Ĉ!Ĉ": 1083,
      "ćĈ!ććĈĈĈĈĈćĈćĈ": 1084,
      "Ĉ!Ĉ!Ĉ!ćĈ!ćĈ": 1085,
      "ććĈ!Ĉ!Ĉ!Ĉ!ćććĈ!Ĉ!Ĉ!ććĈ": 1086,
      "ĈĈĈ!ĈĈĈććĈ!ćĈćĈĈĈ!Ĉ": 1087,
      "ćĈćĈĈĈĈĈćĈĈ": 1088,
      "Ĉ!Ĉ!Ĉ!Ĉ!Ĉ!Ĉ!ĈĈĈ!Ĉ!ĈĈĈĈ": 1089,
      "ććććĈ!ćććĈććĈćććĈććććĈććĈććććĈććĈ": 1090,
      "ćĈĈ!Ĉ!Ĉ!Ĉ!ćĈćĈĈ": 1091,
      "Ĉ!ĈĈĈĈĈĈ!Ĉ!ĈĈ!ĈĈĈĈ!ĈĈĈĈĈĈĈĈ": 1092,
      "ďĉ%ď&'(ĉ": 1093,
      "%&'(ďĉďĉ!!ďĉ": 1094,
      "ćććććďĉ!": 1095,
      "ďĉďĉďĉ!!)!)!!!!!!!!!!!!!!!!!!!!": 1096,
      "ďĉďĉ!ďĉ!)": 1097,
      "ćĈćĈĈĈĈĈĈĈćĈĈĈĈĈĈ": 1098,
      "ććććććććĈ!Ĉ!Ĉ!Ĉ!": 1099,
      "Ĉ!Ĉ!ĈćĈĈĈĈ": 1100,
      "ćĈĈĈćĈ!ĈĈĈĈ!ĈĈ!Ĉ": 1101,
      "ĈĈĈĈĈĈĈĈĈĈĈĈĈĈĈĈĈĈĈĈĈĈĈĈ!": 1102,
      "ćĈ!ćĈ!ćĈ!ćĈ!Ĉ!Ĉ!Ĉ": 1103,
      "ćĈ!ĈćĈćĈćĈćĈ!Ĉ!ĈćĈ!Ĉ!": 1104,
      "ććĈ!ććććĈćĈćĈćĈććććĈ!Ĉ!ććĈ!ĈććććĈ": 1105,
      "Ĉ!ĈĈďĉ!!": 1106,
      "ććĈ!ććććĈć!!": 1107,
      "ćĈ!ććĈ!ćĈ!ććĈ!ćĈććĈ!ćĈ!ćĈ!ĈćĈĈ": 1108,
      "ććĈ!ĈĈĈĈĈ!ćďĉďĉ": 1109,
      "ććĈ!ćĈ!ććĈćĈććć!!": 1110,
      "ććĈ!Ĉ!ĈĈĈ!!ćĈ!Ĉ!Ĉ!Ĉ!": 1111,
      "ďĉ!!!!!!!!!!!!!!!!!!!!!!!!!!!!!!!!!!!": 1112,
      "ćććĈćććĈĈ!Ĉ!ćĈ!ććĈćĈ!ćĈ": 1113,
      "ćĈ!Ĉ!ĈćĈććĈĈ!ĈĈĈ": 1114,
      "ĈĈĈ!ĈĈĈććĈ!ĈĈ!ĈĈĈĈ!ĈĈ!ĈĈĈĈ": 1115,
      "Ĉ!ĈĈćĈĈ!Ĉ": 1116,
      "Ĉ!ĈććĈĈ!Ĉ!": 1117,
      "Ĉ!Ĉ!ĈĈ!Ĉ!ĈĈ!ĈĈ!Ĉ!ĈĈ!ĈĈ!Ĉ!ĈĈĈ!ĈĈĈĈ!ĈĈĈĈ": 1118,
      "ćĈ!ĈĈćĈ!ćĈĈćĈ!Ĉ!": 1119,
      "ćĈ!Ĉ!ćĈ!ćĈ!ćĈ!Ĉ!ććććĈ!ććĈ!ć": 1120,
      "ććććććććććććććććććććććĈ!": 1121,
      ")))": 1122,
      "ďĉďĉ!!!)!)!!": 1123,
      "ćĈĈ!ćĈ!Ĉ!Ĉ!Ĉ!Ĉ!ĈĈĈ": 1124,
      "!!ćĈ!Ĉ!Ĉ!Ĉ!ćĈ!ććĈ!": 1125,
      "ćĈ!ĈĈĈ!ĈĈćĈ!Ĉ!Ĉ!": 1126,
      "ćĈ!ćĈ!Ĉ!ćĈ!ććĈććĈ": 1127,
      "ćĈćĈćĈćććĈćĈ": 1128,
      "!!!SĂĄĆ!!ďĉ!!!!!!": 1129,
      ")!)!!!!!!!!ďĉ!ďĉďĉ": 1130,
      "ćććĈćĈ!ćĈ": 1131,
      "ďĉ!!!!!!!!ďĉďĉďĉďĉďĉććććĈ!ćĈ!ĈćĈ": 1132,
      "ćĈ!ćĈ!ćĈ!ćĈ!ćĈ!Ĉ!ćĈ!ćĈ!Ĉ!Ĉ!ćĈ!Ĉ!": 1133,
      "ćĈ!ĈććĈĈĈćĈĈĈćĈ!ĈććĈĈĈ": 1134,
      "Ĉ!ćĈ!Ĉ!Ĉ!ćĈ!Ĉ!Ĉ!ĈĈ!": 1135,
      "ććĈĈćĈĈĈććĈĈććĈćććĈĈĈĈĈćĈĈćĈ": 1136,
      "!!!!!!ďĉćć": 1137,
      "ďĉ%&'(ďĉďĉ": 1138,
      "ĈĈĈĈĈĈĈĈĈĈĈĈĈĈĈĈĈĈĈĈ!": 1139,
      "ćĈ!Ĉ!Ĉ!ććĈ!ćĈ!Ĉ!Ĉ!ćĈ!Ĉ!": 1140,
      "!!!!!!!!!!!!!!ďĉďĉďĉďĉ": 1141,
      "ćĈ!Ĉ!ćĈććĈ!Ĉ!": 1142,
      "ćĈ!ĈĈ!Ĉ!ďĉ!ďĉ!ďĉďĉďĉ!!": 1143,
      "Ĉ!Ĉ!ćĈ!Ĉ!ĈĈ!": 1144,
      "Ĉ!Ĉ!Ĉ!!ćĈĈĈĈ!Ĉ!ćĈ!Ĉ!ćĈĈĈćĈ!ĈĈĈĈ": 1145,
      "ćĈ!Ĉ!ććĈćĈ!ĈĈĈĈĈĈćĈ!ććĈ": 1146,
      "LL!LK": 1147,
      "ďĉ!ďĉ!ďĉ!ďĉ!": 1148,
      "ĈĈĈ!ĈĈĈĈ!ĈĈ!Ĉ!Ĉ!Ĉ!ĈĈ": 1149,
      "ďĉďĉďĉďĉďĉ!!ďĉ!ďĉ!": 1150,
      "ććĈ!Ĉ!Ĉ!Ĉ!Ĉ!ĈĈ!ćĈ!ćĈ!ćĈćĈ!ćĈ!ćĈćĈ!ćĈ": 1151,
      "!!!!!!!!!!!ďĉ": 1152,
      "ćĈ!ććĈ!ćĈ!Ĉ": 1153,
      "ććĈĈććĈćććĈćĈćĈćĈćĈĈćĈĈćĈćĈćĈ": 1154,
      "ććććććććććććČďĉďĉććĈ!ćĈ!ćĈ!ćĈ!ćĈćĈćĈ": 1155,
      "ďĉ!!ďĉ!!!!!!!!)!!!!!!!!)!": 1156,
      "ććĈĈ!Ĉ!ĈĈĈ!ććĈ!Ĉ!Ĉ": 1157,
      "ćĈ!Ĉ!ĈĈćĈćĈĈĈĈĈĈĈĈĈĈĈĈ": 1158,
      "!!!!!!!!!!!!!!!!!": 1159,
      "Ĉ!Ĉ!ćĈ!ĈĈćĈ!ćĈ!Ĉ!Ĉ!": 1160,
      "ďĉ!ďĉ!!!!!!!!!!!!!!!!": 1161,
      "Ĉ!Ĉ!ĈĈĈĈĈ!Ĉ!Ĉ!": 1162,
      "ćĈćĈ!ććĈ!!": 1163,
      "ćĈĈććĈĈĈćĈ!ĈćĈ!ććĈĈ!Ĉ!ĈĈćĈ!Ĉ!": 1164,
      "ćĈ!ĈĈ!ĈĈĈ!Ĉ!Ĉ!Ĉ!Ĉ!Ĉ!Ĉ!Ĉ!Ĉ!Ĉ!Ĉ!Ĉ!ćĈ!": 1165,
      "ď!!": 1166,
      "ćĈĈćĈĈĈĈĈĈćĈĈĈĈ": 1167,
      "ćĈ!Ĉ!Ĉ!Ĉ!Ĉ!Ĉ!Ĉ": 1168,
      "ďĉ!!!!!!)!!!!!!!!)": 1169,
      "ĈĈĈĈĈĈĈĈĈĈĈĈĈĈ!Ĉ!Ĉ!Ĉ!ĈĈĈĈ": 1170,
      "Ĉ!ĈćĈ!ćĈĈĈĈĈćĈĈĈĈĈćĈ!ĈĈĈćĈ": 1171,
      "ćĈ!ĈĈ!ĈĈĈĈ!Ĉ!Ĉ!ĈĈĈĈĈĈĈĈ!ĈĈĈĈĈ": 1172,
      "Ĉ!Ĉ!ĈĈĈĈĈĈćĈ!ĈĈĈ%&'(ďĉ": 1173,
      "ćĈĈĈĈĈĈĈĈĈĈĈĈĈ!ćĈ!ćĈĈĈĈ!Ĉ%&'(ďĉćć": 1174,
      "ćĈ!ćĈ!Ĉ!ććĈ!Ĉ!Ĉ!Ĉ!ćĈĈĈ!Ĉ!ćĈ!Ĉ!": 1175,
      "ćĈ!ćĈ!ćĈ!ćĈ!Ĉ!Ĉ!Ĉ!Ĉ!Ĉ!Ĉ!Ĉ!Ĉ!ĈĈ!": 1176,
      "ćĈćĈ!ćĈĈ!": 1177,
      "Ĉ!ćĈ!Ĉ!Ĉ!Ĉ!Ĉ!Ĉ!ćĈ!ćĈ!ćĈ!Ĉ!Ĉ!": 1178,
      "ććććććććĈ!Ĉ!Ĉ!Ĉ!ćĈĈĈĈ!Ĉ!ćĈ!": 1179,
      "Ĉ!Ĉ!ĈĈĈĈĈĈćĈ!ĈĈĈ%&'(ďĉ%&'(%&'(%&'(": 1180,
      "ćĈ!ćĈ!Ĉ!ćĈĈ!Ĉ!Ĉ!Ĉ!ćĈćĈĈ": 1181,
      "ďĉććććććĈ!ććĈ!": 1182,
      "Ĉ!ĈĈĈĈĈĈ!Ĉ!ĈĈ!ĈĈĈĈ!ĈĈĈĈĈĈĈĈ%&'(ďĉ": 1183,
      "%!!!!!!!!!!!!!!!!!!!!!!!!": 1184,
      "ďĉďĉ!!!ďĉćĈ!Ĉ!ććĈ!ććĈ!ĈĈ!ććĈ!Ĉ!Ĉ": 1185,
      "ćĈ!Ĉ!Ĉ!ćĈ!Ĉ!ćĈ!ćĈ!ćĈ!ćĈ!Ĉ!Ĉ!Ĉ": 1186,
      "ćĈ!ćĈ!Ĉ!Ĉ!ćĈĈ!": 1187,
      "ććĈ!Ĉ!Ĉ!Ĉ!Ĉ!ďĉďĉ!ďĉćććććĈ!Ĉ!Ĉ!Ĉ!Ĉ!Ĉ!ďĉ!": 1188,
      "ćĈ!Čďĉďĉďĉ!ďĉďĉ!ďĉďĉďĉ!ďĉďĉ!": 1189,
      "Ĉ!Ĉ!Ĉ!Ĉ!Ĉ!Ĉ!ĈĈĈĈ!ĈĈĈĈĈĈĈ!Ĉ!Ĉ!ĈĈ!Ĉ": 1190,
      "ćĈ!ćĈ!Ĉ!ćĈ!Ĉ!Ĉ!ćĈ!Ĉ!": 1191,
      "ććĈ!ćĈ!ćĈ!ćďĉ": 1192,
      "ćĈĈ!Ĉ!ĈćĈĈ!ćĈ!Ĉ!ĈĈĈĈćĈĈĈĈ": 1193,
      "ďĉ!!!!!ďĉ!)!)!!!!!!!!!!!!!!ďĉ": 1194,
      "ćććĈ!Ĉ!Ĉ!Ĉ!Ĉ!ćĈ!Ĉ!": 1195,
      "%&'(ďĉ!!!!!!!!!!!!!!!!!!!!!": 1196,
      "!!!!!!!!!!!!!!!!!!!!!!!!!ďĉ": 1197,
      "ćĈ!Ĉ!ĈćĈ!Ĉ!ćĈ!ććĈĈĈĈĈćĈćĈ": 1198,
      "%&'(%&'(ďĉ!!": 1199,
      "ćĈ!ćĈ!ććĈćĈ!Ĉ!Ĉ!Ĉ!ćĈ!ććĈĈĈĈĈĈćĈ!ććĈ": 1200,
      "!!!!!!!!!!!)!!!!!!!!!!!!!!!": 1201,
      "ćĈ!Ĉ!ĈćĈ!Ĉ!Ĉ!": 1202,
      "ćĈĈ!ćĈ!ćĈ!Ĉ": 1203,
      "Ĉ!ććĈ!Ĉ!Ĉ!ĈćĈ!Ĉ!": 1204,
      "Ĉ!Ĉ!Ĉ!Ĉ!Ĉ!ĈĈ!Ĉ!": 1205,
      "Ĉ!Ĉ!ćĈ!Ĉ!Ĉ!Ĉ!ćĈ!Ĉ!ćĈ!ĈćĈ!Ĉ!": 1206,
      "ćĈĈĈĈĈĈĈĈććĈćĈĈ!ććĈĈĈĈćĈĈĈĈćĈĈĈĈĈĈĈĈććĈ": 1207,
      "ćĈ!ćććĈ!ććĈćĈ!ććĈćććĈ!Ĉ!Ĉ!Ĉ!": 1208,
      "Ĉ!Ĉ!Ĉ!Ĉ!ćććĈ!": 1209,
      "ćďĉ#$": 1210,
      "ćĈ!ćĈ!!ććĈ!ććĈ!": 1211,
      "ććććććććććććććććććććććĈ!ććĈ!ćĈ!ććĈ!": 1212,
      "ććććććććććććććććĈ!Ĉ!ćĈ!Ĉ!ĈĈ!": 1213,
      ")ććććććććććććĈ!": 1214,
      "Ĉ!Ĉ!ćĈ!ććĈ!ćĈ!ććĈ!ćĈććĈ!ćĈ!ćĈ!ĈćĈĈ": 1215,
      "ćććććĈ!Ĉ!Ĉ!Ĉ!Ĉ!Ĉ!": 1216,
      "ććĈ!ćĈ!ćĈ!Ĉ!Ĉ!ćĈ!Ĉ!": 1217,
      "ďĉćććććććĈ!ćĈ!": 1218,
      "Ĉ!ĈĈ!Ĉ!!ćĈ!Ĉ!Ĉ!Ĉ!ćĈ!ććĈ!": 1219,
      "ćĈ!Ĉ!Ĉ!Ĉ!Ĉ!ĈĈĈ!Ĉ!Ĉ": 1220,
      "Ĉ!ĈĈĈĈĈĈĈĈĈĈĈĈĈĈĈĈĈĈĈĈ!": 1221,
      "%&'(ďĉ!!ďĉ!!": 1222,
      "ćĈ!ĈĈ!ĈĈ!ĈĈ!ĈĈĈĈĈĈĈĈĈĈĈĈĈĈĈĈĈĈĈĈĈĈĈĈĈĈĈ": 1223,
      "%ćć": 1224,
      "ććĈ!Ĉ!Ĉ!Ĉ!Ĉ!Ĉ!Ĉ!ĈĈćĈ": 1225,
      "ćĈĈĈĈ!ĈććĈ!ććććĈć!!": 1226,
      "ćĈ!ćĈ!ććććĈ!ććĈ!ćććĈ!ćććĈ": 1227,
      "ćććĈĈ!ćĈ!Ĉ!ĈćĈĈĈćĈĈĈćĈĈćććć": 1228,
      ")!)!ďĉďĉ!!!)!)!!": 1229,
      "ćććĈ!Ĉ!Ĉ!ĈĈ!Ĉ!ćĈ!Ĉ!Ĉ!ĈćĈ!Ĉ!Ĉ!Ĉ": 1230,
      "ććććććććĈ!Ĉ!ćĈĈ": 1231,
      "ćĈ!ćĈ!Ĉ!Ĉ!ćĈ!Ĉ!ćĈ!Ĉ!Ĉ!Ĉ!ćĈ!Ĉ!": 1232,
      "ćĈćĈćĈćĈćĈćĈćĈćĈćĈćĈćĈćĈććĈ!Ĉ!": 1233,
      "ďĉďĉďĉ!ďĉďĉćććć": 1234,
      "ďĉ!ďĉĈ!Ĉ!ćĈ!Ĉ!ĈĈĈ": 1235,
      "ććććĈ!ćĈ!Ĉ!Ĉ!ćĈ!Ĉ!": 1236,
      "ćĈ!ĈćĈĈ!Ĉ!ćĈ!ĈĈ!ććĈ!ćĈ!ććĈćĈććć!!": 1237,
      "Ĉ!Ĉ!ĈćĈĈĈĈĈ!Ĉ!Ĉ!Ĉ!Ĉ!Ĉ!ĈĈĈ!Ĉ!ĈĈĈĈ": 1238,
      "ćććĈćććĈĈ!Ĉ!ćĈ!ććĈćĈ!ćĈ!!Č!!Č!": 1239,
      "ććććĈ!ćĈ!ĈĈ!ććĈ!ćĈ!ĈĈ!ćĈ!Ĉ!": 1240,
      "ćććććććĈ!Ĉ!ććććććĈ!ćĈĈ%&'(ďĉďĉ": 1241,
      "ćĈ!Ĉ!Ĉ!Ĉ!Ĉ!Ĉ!Ĉ!Ĉ!ćĈ!ćĈ!Ĉ!ĈćĈ!Ĉ!": 1242,
      "ćĈćĈĈĈĈĈćĈĈćĈćĈćĈćĈĈĈćĈĈĈĈĈĈ": 1243,
      "ćĈ!Ĉ!ććĈćĈ!ĈĈĈĈĈĈćĈ!ććĈććĈ!ćĈ!Ĉ": 1244,
      "ćĈ!ććĈ!Ĉ!Ĉ": 1245,
      "%ć&'": 1246,
      "ćďĉďĉďĉĈ!ĈĈĈĈ": 1247,
      "ĈĈĈĈĈĈĈĈĈĈĈĈĈĈ!Ĉ!Ĉ!Ĉ!Ĉ!ĈĈĈ!ĈĈ": 1248,
      "ćĈĈćĈĈĈĈĈĈćĈĈĈĈćĈĈćĈĈćĈ!ćććĈ!ćć": 1249,
      "ćććĈ!Ĉ!ćĈ!Ĉ!Ĉ": 1250,
      "Ĉ!ĈĈ!ćĈ!Ĉ": 1251,
      "ććććććĈ!ććČ": 1252,
      "ććććććććĈ!ćććĈ!Ĉ!": 1253,
      "Ĉ!ď": 1254,
      "ďĉďĉďĉ!ďĉďĉďĉ!!": 1255,
      "ćďĉććć": 1256,
      "ćĈ!Ĉ!Ĉ!Ĉ!Ĉ!Ĉ!Ĉ!Ĉ!Ĉ!Ĉ!": 1257,
      "Ĉ!ĈććĈĈ!Ĉ!ććĈ!Ĉ!ĈĈ!ĈĈĈ": 1258,
      "ćĈ!Ĉ!Ĉ!ććĈ!ćĈ!Ĉ!Ĉ!ćĈ!Ĉ!ćĈ!ćĈ!ćĈ!ćĈ": 1259,
      "ďĉďĉ!!ďĉ!!!!!!)!!!!!!!!)": 1260,
      "ďĉďĉďĉďĉ!ďĉ!!": 1261,
      "Ĉ!Ĉ!Ĉ!Ĉ!!Ĉ!Ĉ!Ĉ": 1262,
      "ćĈĈ!ćĈ!Ĉ!Ĉ!Ĉ!Ĉ!ĈĈĈćĈ!Ĉ!Ĉ!": 1263,
      "ďĉ!!!!ďĉďĉďĉďĉďĉďĉďĉďĉ": 1264,
      "ććĈ!Ĉ!ĈĈĈ!Ĉ!Ĉ!ĈĈćĈďĉ!!ďĉďĉ!!!": 1265,
      "ďĉ!Ĉ!ĈćĈ!Ĉ!Ĉ!ĈćĈ!ćć": 1266,
      "ďĉ!ďĉ!!!SĂĄĆ!!ďĉ!!!!!!": 1267,
      "ďĉďĉ%&'(!": 1268,
      "Ĉ!Ĉ!Ĉ!ĈćĈĈ!Ĉ!ĈĈĈ": 1269,
      "%ć&": 1270,
      "ďĉĈ!ĈĈĈĈĈĈĈĈ!ĈĈĈ": 1271,
      "ćĈ!ćĈ!Ĉ!ćĈĈ!Ĉ!Ĉ!Ĉ!ćĈćĈĈćĈ!Ĉ!Ĉ!ćĈ!Ĉ!": 1272,
      "Ĉ!ĈĈćďĉďĉďĉďĉďĉďĉďĉ!": 1273,
      "Ĉ!Ĉ!Ĉ!Ĉ!Ĉ!Ĉ!Ĉ!ĈĈĈĈĈĈ": 1274,
      "ćććććĈ!Ĉ!Ĉ!Ĉ!Ĉ!Ĉ!ćĈ!Ĉ!Ĉ!ćĈ!Ĉ!": 1275,
      "ďĉďĉććććććĈ!ćććĈ!ćć": 1276,
      "Ĉ!Ĉďĉ!ďĉ!ďĉ": 1277,
      "ććĈ!ććĈ!ćĈ!Ĉ!ćĈććĈ!Ĉ!": 1278,
      "ćĈ!ćĈ!Ĉ!ćĈ!ĈćĈ!ĈĈ!ĈćĈćĈćĈćććĈćĈ": 1279,
      "ďĉďĉ)ďĉďĉ!": 1280,
      "Ĉ!Ĉ!Ĉ!Ĉ!Ĉ!Ĉ!Ĉ!!ćĈĈĈĈ!Ĉ!ćĈ!Ĉ!ćĈĈĈćĈ!ĈĈĈĈ": 1281,
      "ćććĈ!Ĉ!Ĉ!Ĉ!Ĉ!Ĉ!ćĈ!Ĉ!Ĉ!Ĉ!ćĈ!Ĉ!": 1282,
      "ćććććććĈ!Ĉ!Ĉ!ćĈ!Ĉ!Ĉ!": 1283,
      "ďĉďĉ%ď&'(ĉ": 1284,
      "ćĈ!ćĈ!Ĉ!ććĈ!ĈććĈ!Ĉ!ćĈ!ćĈ!Ĉ!Ĉ!ćĈĈ!": 1285,
      "ćĈ!ćĈ!Ĉ!ćĈ!ććĈććĈ!!!!!!ďĉćć": 1286,
      "%&'(%&'(ďĉ!!ććććććĈććĈ!": 1287,
      "ćĈ!Ĉ!ĈćĈ!Ĉ!Ĉ!ććććĈćĈććĈ!ćĈ!Ĉ!Ĉ!Ĉ!ćĈ!Ĉ!": 1288,
      "ďĉďĉďĉ!!ďĉ!!ďĉ!!!!!!!!)!!!!!!!!)!": 1289,
      "ďĉďĉďĉďĉďĉďĉďĉ!ďĉ!ďĉ": 1290,
      "ććććĈ!ćĈ!Ĉ!Ĉ!ĈĈ!Ĉ!Ĉ!Ĉ": 1291,
      "ďĉďĉ!!ďĉććĈ!ĈĈĈĈĈ!ćďĉďĉ": 1292,
      "ďĉďĉďĉďĉ!ďĉďĉ%!!!&'(": 1293,
      "ďĉććććććĈ!ććĈ!ććĈ!Ĉ!Ĉ!Ĉ!ćććĈ!Ĉ!Ĉ!ććĈ": 1294,
      "ďĉďĉďĉďĉ!ďĉďĉ%!!!&'(ďĉďĉďĉ!!ďĉ!": 1295,
      "ćĈ!Ĉ!Ĉ!Ĉ!Ĉ!Ĉ!ćĈ!Ĉ!ććĈ!": 1296,
      "ĈĈĈ!Ĉ!Ĉ!ĈĈĈ": 1297,
      "ććĈ!Ĉ!Ĉ!ĈćĈ!Ĉ!ĈćĈććĈĈ!ĈĈĈ": 1298,
      "R%&'(TVa": 1299,
      "ďĉďĉďĉďĉ!ďĉďĉ!!": 1300,
      "ćććććććććććĈ!ćĈ!!ććĈ!ććĈ!": 1301,
      "ćććĈĈĈĈĈććĈĈććĈćććĈćĈćĈćĈćĈĈćĈĈćĈćĈćĈ": 1302,
      "ćĈ!Ĉ!ĈĈĈ!ĈĈĈććĈ!ĈĈ!ĈĈĈĈ!ĈĈ!ĈĈĈĈ": 1303,
      "ďĉ!!ďĉ!ďĉ!": 1304,
      "ďĉďĉ!!ďĉ!!ďĉ!ććĈ!": 1305,
      "ďĉ!)!)!!!!!!!!!!ďĉ!!!!!!": 1306,
      "Ĉ!Ĉ!Ĉ!ćĈĈĈććĈĈ!ćććĈ!ććĈ!ćĈ!ĈĈĈćć!!!!": 1307,
      "ćććććććććććććććĈ!Ĉ!Ĉ!ćĈ!Ĉ!": 1308,
      "ďĉďĉďĉď%&'(ĉ": 1309,
      "ďĉďĉ!!ďĉďĉďĉ!": 1310,
      "ďĉ!!ďĉďĉďĉ)!)": 1311,
      "ďĉ!!ďĉďĉďĉďĉďĉ!!ďĉ!ďĉ!": 1312,
      "ďĉ!!ćććććććĈ!Ĉ!Ĉ!ććĈĈććĈ!ćĈĈ": 1313,
      ")!)!!!!!!!!!!!!!!!!!!!!!!!!!!!!!!": 1314,
      "ćďĉććććććććććććććććĈ!Ĉ!ćĈ!Ĉ!ĈĈ!": 1315,
      "!!ďĉ!!!!!!!!!!!!!!!!!!!ďĉ!!!!!!!!": 1316,
      "ćďĉďĉ!!": 1317,
      "%&'(Ĉ!Ĉ!": 1318,
      "ćććććĈ!ćĈ!ććććĈ!ććĈ!ćććĈ!ćććĈ": 1319,
      "ćĈĈĈĈ!": 1320,
      "3322": 1321,
      "ćĈćĈĈĈĈĈĈĈćĈĈĈĈĈĈćĈćĈ!ćĈĈ!": 1322,
      "ćďĉ!!!!!!!!!": 1323,
      "ćććććĈ!Ĉ!Ĉ!ćĈĈćĈďĉďĉ": 1324,
      "ĈĈĈ!ĈĈĈĈ!ĈĈ!Ĉ!Ĉ!Ĉ!ĈĈĈ!Ĉ!ĈĈ!Ĉ": 1325,
      "ćććććććĈ!Ĉ!ććććććĈ!ćĈĈ%&'(ďĉďĉĈ!ĈĈďĉ!!": 1326,
      ")!)ďĉďĉďĉďĉďĉďĉ!!!": 1327,
      "L!LK!LK": 1328,
      "ćďĉ!!!!": 1329,
      "ććĈ!ćĈ!ćĈ!ćďĉ!!!!!!!!!!!!!!!": 1330,
      "ĈĈĈ!Ĉ!Ĉ!ĈĈĈĈ!Ĉ!ĈĈ!Ĉ!Ĉ!ĈĈĈĈ": 1331,
      "ćďĉďĉďĉďĉ": 1332,
      "!!!!!!!!!ďĉ!!!!!!!!": 1333,
      "ďĉ%&'(!": 1334,
      "!!!!&'(!!!!!!!!!!!!!!!!!!!!!!!!!!!!!!!!": 1335,
      "Ĉ!%&'(": 1336,
      "ďĉ!ďĉććććĈ!ćĈ!ĈĈ!ććĈ!ćĈ!ĈĈ!ćĈ!Ĉ!": 1337,
      "Ĉ!ĈĈĈ!ĈĈĈ": 1338,
      "!!!!!!!!!!!!!!!!!!!!!!!!!!!!!!!!!!!!!": 1339,
      "ćĈ!ćććĈ!ććĈćĈ!ććĈćććĈ!Ĉ!Ĉ!Ĉ!ćććĈćĈ!ćĈ": 1340,
      "ććĈ!ćĈ!ćČ": 1341,
      "ďĉ!ďĉďĉďĉďĉďĉďĉ!!": 1342,
      "ććĈ!Ĉ!Ĉ!ććĈ!Ĉ!Ĉ!ĈĈ!Ĉ!!ćĈ!Ĉ!Ĉ!Ĉ!ćĈ!ććĈ!": 1343,
      "Ĉ!ćĈ!Ĉ!Ĉ!ĈĈćĈĈ!Ĉ": 1344,
      "ďĉ!ďĉ!!ćĈ!": 1345,
      "ććĈ!Ĉ!Ĉ!Ĉ!ćĈ!Ĉ!!Ĉ!ćĈ!ćĈ!ććĈ!Ĉ!ćĈ!ďĉ!": 1346,
      "!ďĉ!!!!!!!!!!!!!!ďĉďĉďĉďĉ": 1347,
      "ćććĈ!Ĉ!ćĈ!Ĉ!ćĈ!ćĈ!ćĈ!ĈĈ!Ĉ!": 1348,
      ")ććććććććććććĈ!ććĈ!ćĈ!ćĈ!Ĉ!Ĉ!ćĈ!Ĉ!": 1349,
      "2323232222222222222222": 1350,
      "ďĉ!ďĉďĉďĉ!ďĉ!!!!!": 1351,
      "ćďĉďĉďĉćĈ!Ĉ!Ĉ!Ĉ!": 1352,
      "ćĈ!%&'(ďĉ": 1353,
      "ććććĈ!Ĉ!Ĉ!Ĉ!Ĉ!ĈĈ!Ĉ!": 1354,
      "ććĈ!ćććĈ!ćććĈ!ćććĈ!Ĉ!Ĉ!ďĉćć": 1355,
      "ććććććććĈ!Ĉ!ćĈĈćĈ!ĈĈćĈ!ćĈĈćĈ!Ĉ!": 1356,
      "ĈĈĈĈĈĈĈĈĈĈĈĈĈĈĈĈĈ!Ĉ!ĈĈĈĈĈ!Ĉ!Ĉ!": 1357,
      "Ĉ!Ĉ!Ĉ!ĈćĈĈ!Ĉ!ĈćĈĈ!ćĈ!Ĉ!ĈĈĈĈćĈĈĈĈ": 1358,
      "%&'(ďĉĈ!Ĉ!Ĉ!Ĉ!Ĉ!Ĉ!": 1359,
      "ćĈ!Ĉ!ĈćĈ!ć": 1360,
      "ććććĈ!ćĈ!Ĉ!Ĉ!Ĉ!ćĈ!ĈĈćĈ!ćĈ!Ĉ!Ĉ!": 1361,
      "ĉĉĉĉĉĉĉĉ": 1362,
      "Ĉ!ĈćĈ!Ĉ!Ĉ!ĈćĈ!ććďĉ!Ĉ!ĈćĈ!Ĉ!Ĉ!ĈćĈ!ćć": 1363,
      "ććĈ!Ĉ!ĈĈĈ!Ĉ!Ĉ!ĈĈćĈďĉ!!ďĉďĉ!!!)!)": 1364,
      "ćĈ!Ĉ!Ĉ!Ĉ!ĈĈ!Ĉ!Ĉ!Ĉ!": 1365,
      "ďĉďĉďĉďĉďĉďĉ!%&'(%&'(": 1366,
      "ćććĈćĈćĈ!ĈćĈćĈćĈ": 1367,
      "ďĉććĈ!ćććĈćććĈĈ!Ĉ!ćĈ!ććĈćĈ!ćĈ!!Č!!Č!": 1368,
      "ďĉďĉ!ďĉ!)ďĉďĉďĉć": 1369,
      "ďĉ!ćĈ!ćĈ": 1370,
      "ďĉďĉďĉďĉďĉďĉćďĉ!ďĉ": 1371,
      "ć%&'(ďĉ!!!!!!!!!": 1372,
      "!!!!!!!!!!!!!!!!!!!!%&'(%&'(": 1373,
      "ďĉćĈ!": 1374,
      "))))": 1375,
      "ćććĈ!Ĉ!Ĉ!Ĉ!Ĉ!Ĉ!ćĈ!Ĉ!Ĉ!Ĉ!ćĈ!Ĉ!Ĉ!Ĉćć": 1376,
      "ććďĉďĉ)": 1377,
      "ďĉďĉďĉďĉ!!!!ďĉ!!": 1378,
      "ďĉďĉďĉ%&'(Ĉ!Ĉ!ĈĈ!Ĉ!ĈĈĈĈ!Ĉ!ĈĈ!Ĉ!Ĉ!!": 1379,
      "RTVa!!!S": 1380,
      "Ĉ!Ĉ!ĈĈĈĈĈĈĈĈĈĈĈĈĈĈĈĈĈĈĈĈĈĈĈĈďĉ!": 1381,
      "Ĉ!ĈĈćďĉďĉďĉďĉďĉďĉďĉ!ďĉ!ďĉďĉďĉ!": 1382,
      "Ĉ!Ĉ!Ĉ!Ĉ!Ĉ": 1383,
      "LK": 1384,
      "ďĉďĉďĉďĉďĉďĉďĉ)!": 1385,
      "ďĉďĉďĉ!ďĉďĉ!ďĉďĉ!!ďĉ!!": 1386,
      "ďĉďĉďĉ!ďĉďĉćććććĈ!Ĉ!ćĈĈ": 1387,
      "ććĈ!Ĉ!ćĈĈ!ćĈ!Ĉ!Ĉ!Ĉ!Ĉ!ĈĈĈćĈ!Ĉ!Ĉ!": 1388,
      "ććĈ!%&'(": 1389,
      "ďĉďĉďĉćććĈ!Ĉ!Ĉ!ĈĈ!Ĉ!ćĈ!Ĉ!Ĉ!ĈćĈ!Ĉ!Ĉ!Ĉ": 1390,
      "ććććĈćććĈ!Ĉ!Ĉ": 1391,
      "ćĈćĈĈĈĈĈćĈĈćĈćĈćĈćĈĈĈćĈĈĈĈĈĈćĈ!Ĉ!": 1392,
      "Ĉ!Ĉ!Ĉ!Ĉ!ććĈćć": 1393,
      "ďĉďĉćććĈ!Ĉ!Ĉ!Ĉ!Ĉ!ĈćĈĈ!Ĉ!ĈĈĈ": 1394,
      "ćĈ!ććĈ!Ĉ!ĈćĈ!ĈććĈĈĈćĈĈĈćĈ!ĈććĈĈĈ": 1395,
      "ćććĈ!Ĉ!ććĈ!ćĈ!ćČ": 1396,
      "ďĉ!ďĉ!!!!!!ďĉďĉ!!": 1397,
      "ďĉ!!!!!!!ďĉ!!ďĉďĉ!!!": 1398,
      "ćĈ!Ĉ!Ĉ!Ĉ!Ĉ!Ĉ!ĈćĈĈĈĈ!ĈććĈ!ććććĈć!!": 1399,
      "ďĉ%&'(ďĉ": 1400,
      "ćĈ!Ĉ!ćĈĈ!ćĈ!ćĈ!Ĉ": 1401,
      "Ĉ!Ĉ!Ĉ!Ĉ!!Ĉ!Ĉ!Ĉ!Ĉ!!Ĉ!Ĉ!Ĉ": 1402,
      "ćććĈĈććććććĈ!ćĈĈ": 1403,
      "ďĉ!ďĉ!!!!!!!!!!!ďĉ!ďĉ": 1404,
      "Ĉ!ĈĈĈ!ĈĈĈĈĈĈĈĈĈĈĈĈĈĈĈĈĈĈ!ďĉ!!ďĉ!ďĉ!!!": 1405,
      "Ĉ!ĈĈ!ćĈ!ĈĈ!Ĉ!Ĉ!ćĈ!ćĈ": 1406,
      "ćććĈ!ćĈ!Ĉ!Ĉ!ćĈ!Ĉ!ćĈ!Ĉ!Ĉ!Ĉ!ćĈ!Ĉ!": 1407,
      "!!!!ďĉ!!)ďĉďĉ!": 1408,
      "ćďĉ#$ćĈ!ćć": 1409,
      "ććććććććććććććććććććććććććĈ!": 1410,
      "ćĈ!Ĉ!ĈćĈ!ďĉćććććććĈ!ćĈ!": 1411,
      "L!": 1412,
      "ĂĄĆ!!!!R!!!S": 1413,
      "ćĈ!Čďĉďĉ!": 1414,
      "!!!!!!!!!!!!!!!!!!!!ďĉ!ďĉ!!!!!!!!!!!": 1415,
      "ďĈ": 1416,
      "ďĉ!ďĉďĉďĉ!!)!)!!!!!!!!!!!!!!!!!!!!": 1417,
      "!!!!!!!!!!!!!!!!!!!!!!!!!!": 1418,
      "ďĉďĉ!ďĉďĉďĉ!!ďĉ!!!!": 1419,
      "ćććććććććććĈ!ĈćĈ!Ĉ!ĈćĈ!ć": 1420,
      "ďĉďĉ%&'(ďĉ": 1421,
      "Ĉ!Ĉ!ĉ": 1422,
      "ďĉ!ďĉ!!ďĉďĉ!!ďĉ!!!!!!)!!!!!!!!)": 1423,
      "ďĉ!ďĉďĉ!ďĉ": 1424,
      "!!!!!!!!!!!!!!!!!!!!!Ĉ!Ĉ!Ĉ": 1425,
      "ďĉďĉ)ďĉďĉ!ďĉďĉ!!ďĉ!!!!": 1426,
      "ćććććććĈ!ćĈ!Ĉ!Ĉ!Ĉ!Ĉ!ćĈ!Ĉ!ćĈććĈćďĉ": 1427,
      "ďĉďĉ!ďĉ%&'(ćććććććććććććććć": 1428,
      "ćĈ!Ĉ!Ĉ!Ĉ!Ĉ!Ĉ!ćĈ!Ĉ!ććĈ!ćĈ!ĈĈĈ!ĈĈćĈ!Ĉ!Ĉ!": 1429,
      "!!!!!!!!!!!!!!!!!!!!ďĉ!!!!!!!!!!!!": 1430,
      "ďĉ!ďĉ!!!!!!ďĉďĉ!!!!": 1431,
      "Ĉ!ććĈ!Ĉ!Ĉ!ĈćĈ!Ĉ!ććĈ!ććĈ!ćĈ!Ĉ!ćĈććĈ!Ĉ!": 1432,
      "ďĉďĉďĉ!!!!!!!!!!": 1433,
      ")!)!!Ĉ!Ĉ!ĈĈ": 1434,
      "Ĉ!ĈĈ!ĈĈĈćĈĈĈćĈ!ĈĈĈĈ!ĈĈ!Ĉ": 1435,
      "ććĈ!Ĉ!ĈĈĈ!!ćĈ!Ĉ!Ĉ!Ĉ!ćďĉďĉ!!": 1436,
      "ćĈ!Ĉ!ćĈ!ćĈ!ćĈ!Ĉ!ććććĈ!ććĈ!ć!ďĉ": 1437,
      "ďĈ!ĉ": 1438,
      "ďĉďĉďĉďĉďĉďĉďĉ%&'(": 1439,
      "!!!!!ďĉďĉďĉ!ďĉďĉćććććĈ!Ĉ!ćĈĈ": 1440,
      "%!Ĉ&'(!": 1441,
      "323": 1442,
      "ććććććĈ!Ĉ!": 1443,
      "ďĉďĉďĉ!ďĉ!ďĉ!": 1444,
      "%&'(ďĉďĉ!!!": 1445,
      "ćďĉďĉďĉďĉ!ććĈ!Ĉ!Ĉ!Ĉ!Ĉ": 1446,
      "Ĉ!ćĈ!ćĈ!Ĉ!Ĉ!": 1447,
      "!!!!!!!!!!!!!!!!!!!!!!!!!!!!!!!!!!!!!!": 1448,
      "00110101": 1449,
      "ďĉďĉďĉďĉďĉćććććĈ!Ĉ!ćĈ!Ĉ!ćĈ!Ĉ!Ĉ!Ĉ!Ĉ!": 1450,
      "ćĈ!Čďĉďĉďĉ!ďĉďĉ!ďĉďĉďĉ!ďĉďĉ!ďĉďĉďĉ": 1451,
      "ććĉ": 1452,
      "ćĈ!ĉ": 1453,
      "ďĉďĉďĉďĉďĉ!!ďĉ!!ďĉďĉďĉ)!)": 1454,
      "ćććĈ!Ĉ!Ĉ!Ĉďĉ!!!!!ďĉ!)!)!!!!!!!!!!!!!!ďĉ": 1455,
      "LLLLLLLLLLLLLLLLLLLLLLLLLLLLLLLL": 1456,
      "%ćĈ&'(": 1457,
      "ć%&'(ďĉ!!": 1458,
      "%!!!&'(!!!!!!!!!!!!!!!!!!!!!!!!!!!!!!!!": 1459,
      "ćďĉďĉ%&'(": 1460,
      "ďĉďĉďĉ!ďĉďĉďĉ!!ďĉďĉďĉďĉ!": 1461,
      "Ĉ!Ĉ!Ĉ!ćĈ!Ĉ!Ĉ!": 1462,
      "ćććĈ!Ĉ!Ĉ!ćĈĈĈĈ!": 1463,
      "Ĉ!Ĉ!Ĉ!Ĉ!ćććĈ!ďĉ!!ďĉ!!!!!!!!!!!": 1464,
      "ďĉ!ďĉ!!ďĉ": 1465,
      "(788888888,-%&+": 1466,
      "ďĉćĈ!Ĉ!Č": 1467,
      "ďĉďĉďĉćććĈ!Ĉ!Ĉ!Ĉ!ĈĈĈĈĈĈĈĈĈĈ!ćĈ!Ĉ!": 1468,
      "!!!!!!!!!!!ďĉćććĈ!Ĉ!Ĉ!Ĉ": 1469,
      "ďĉďĉ%&'(!ďĉďĉďĉ!!ďĉďĉ": 1470,
      ")!)!!Ĉ!Ĉ!ĈĈ!!!!!": 1471,
      "ďĉďĉćĈ!ĈĈ!ĈĈĈĈ!Ĉ!Ĉ!ĈĈĈĈĈĈĈĈ!ĈĈĈĈĈ": 1472,
      "Ĉ!Ĉ!Ĉ!Ĉ!Ĉ!Ĉ!ćďĉďĉďĉćĈ!Ĉ!Ĉ!Ĉ!": 1473,
      "ććĈ!Ĉ!Ĉ!Ĉ!Ĉ!Ĉ!ććĈ!ć": 1474,
      "ćĈ!ćĈ!Ĉ!Ĉ!ćĈ!Ĉ!Ĉ!ćĈ!Ĉ!Ĉ!ĈĈćĈĈ!Ĉ": 1475,
      "ćććććďĉ!ććććĈćććĈ!Ĉ!Ĉ": 1476,
      "ďĉďĉďĉĈ!Ĉ!Ĉ!Ĉ!Ĉ!ćĈ!ĈĈĈĈ": 1477,
      "ďĉďĉ!ďĉďĉ%&'(ćĈ!Ĉ!Ĉ!Ĉ!Ĉ!Ĉ": 1478,
      ")ďĉďĉďĉďĉďĉďĉďĉ!": 1479,
      "MMM": 1480,
      "LLL!LK": 1481,
      "ďĉ!ďĉďĉďĉďĉďĉ": 1482,
      "ćďĉ!ďĉďĉďĉďĉďĉďĉďĉďĉ": 1483,
      "ćďĉ!ććććĈ!ćĈ!Ĉ!Ĉ!ćĈ!Ĉ!": 1484,
      "ďĉďĉ!%&'(": 1485,
      "ďĉ%&'(ďĉďĉďĉďĉďĉďĉ!": 1486,
      "ďĉďĉ%&'(ďĉďĉďĉ!!": 1487,
      "ďĉďĉ!ďĉ%&'(ďĉ": 1488,
      "ďĉĈ!ĈĈĈĈĈĈĈĈ!ĈĈĈ!": 1489,
      "ć'(": 1490,
      "ďĉďĉďĉ!ďĉ!%&'(": 1491,
      "ďĉďĉďĉ%&'(ďĉďĉďĉ": 1492,
      "ďĉďĉ!ďĉ!!!!!!!!ďĉďĉďĉďĉďĉććććĈ!ćĈ!ĈćĈ": 1493,
      "ćććććććĈ!ćČ": 1494,
      "!!!!!!!!!!!!!!!!)!)!!!!!!!!ďĉ!ďĉďĉ": 1495,
      "!!!!!!!!!!!!!!!!!!!!!!!!!!!!!": 1496,
      "ďĉ!ďĉďĉ!ďĉ!ďĉďĉďĉ!": 1497,
      "ćććććĈ!ĈĈćĈĈćĈ": 1498,
      "ďĉ!ďĉďĉďĉ%&'(": 1499,
      "ďĉ%&'(ďĉďĉďĉ": 1500,
      "ććććććĈ!ććĈ!Ĉ!Ĉ!ĈćĈ!Ĉ!ĈćĈććĈĈ!ĈĈĈ": 1501,
      "ďĉćććďĉ!": 1502,
      "ďĉ!ďĉććććĈ!ćĈ!ĈĈ!ććĈ!ćĈ!ĈĈ!ćĈ!Ĉ!ćĈ!ďĉ!": 1503,
      "ďĉďĉćććĈ!Ĉ!Ĉ!Ĉ!Ĉ!ĈćĈĈ!Ĉ!ĈĈĈćĈćĈ!ććĈ!!": 1504,
      "!!!!!&'(": 1505,
      "ďĉďĉďĉ!!ďĉďĉ!ďĉ!!": 1506,
      "ć%&'(ďĉďĉ": 1507,
      "!!!!&'(": 1508,
      "ďĉďĉďĉďĉďĉďĉ!!": 1509,
      "ď%ĉ&'(!": 1510,
      "ćĈćĈćĈćĈćĈćĈćĈćĈćĈć": 1511,
      "ďĉďĉďďĉĉ": 1512,
      "ďĉ!ďĉďĉ%&'(": 1513,
      "ďĉ!ďĉďĉďĉćĈ!Ĉ!Ĉ!Ĉ!ĈĈ!Ĉ!Ĉ!Ĉ!": 1514,
      "ćććďĉććććććĈ!ććČ": 1515,
      "ćďĉćĈ!ććĈ!ćĈ!Ĉ": 1516,
      "ďĉ!ďĉĈ!Ĉ!ćĈ!Ĉ!ĈĈĈďĉ!ďĉ!!!SĂĄĆ!!ďĉ!!!!!!": 1517,
      "ććććććććĈ!ćććĈ!Ĉ!ćĈ!ďĉ": 1518,
      "ćďĉ!ďĉďĉ!!": 1519,
      "ćďĉďĉďĉĈ!ĈĈĈĈĈ!ćĈ!Ĉ!ĈćĈĈĈ": 1520,
      "ďĉĈ!Ĉ!ĈĈĈ!Ĉ!Ĉ!Ĉ!ĈĈĈĈ": 1521,
      "ćďĉćććďĉ!!": 1522,
      "ďĉ!!ćććććććĈ!Ĉ!Ĉ!ććĈĈććĈ!ćĈĈ%&'(ďĉďĉ!!!": 1523,
      "!!!!!!!!!!!!ďĉ!ďĉ!!!!!!ďĉďĉ!!": 1524,
      "ć%&'(ďĉ!": 1525,
      "ďĉ!ďĉ!ďĉ!ďĉ!ďĉ!ďĉ": 1526,
      "ďĉďĉ!!ďĉ!!ďĉ!ććĈ!ďĉ!ďĉďĉ!!": 1527,
      "ćććĈ!Ĉ!ććĈ!ćĈ!ćČďĉ!!!": 1528,
      "ďĉďĉďĉďĉďĉ!!ďĉ!!!!": 1529,
      "ďĉďĉďĉćďĉ!ďĉďĉďĉďĉ!!": 1530,
      "ćć%&'(": 1531,
      "ďĉďĉ!!ďĉ!ďĉ!!ďĉďĉďĉ!ďĉ": 1532,
      "00101": 1533,
      "ďĉďĉďĉ%&'(ďĉďĉďĉďĉďĉďĉďĉďĉ": 1534,
      "ďĉ!!!!!!!!!ćććĈ!Ĉ!Ĉ!Ĉ!Ĉ!Ĉ!ĈĈĈĈĈĈĈĈĈĈĈĈ": 1535,
      "ćď%&'(ĉ": 1536,
      "ďĉďĉďĉďĉ%&'(ďĉďĉďĉďĉ": 1537,
      "ďĉ!!ďĉďĉďĉďĉďĉ!!ďĉ!ďĉ!ďĉďĉďĉ!": 1538,
      "ć%&'(ďĉĈ!ćĈ!Ĉ!Ĉ!ćĈ!Ĉ!Ĉ!ĈĈ!": 1539,
      "ďĉďĉ!ďĉďĉďĉ": 1540,
      "!ďĉ!!!!!!!!!!!)!!!!!!!!!!!!!!!": 1541,
      "ďĉďĉćććććććć": 1542,
      "ćććĈ!Ĉ!Ĉ!Ĉ!Ĉ!Ĉ!Ĉ!Ĉ!Ĉ!Ĉ!": 1543,
      "ć%&'(ďĉ!!ďĉ!ďĉďĉďĉ!ďĉ!!!!!": 1544,
      "ć%Ĉ&'(": 1545,
      "ďĉ!ďĉ!!!!!!!!": 1546,
      "ćććććĈ!ĈĈćĈĈćĈďĉćććććććć": 1547,
      "ďĉďĉďĉ!ććĈ!ć": 1548,
      "7'7777": 1549,
      "ććĈ!ďĉ!ďĉ!!ćĈ!": 1550,
      "666666667'7777": 1551,
      "ďĉďĉďĉďĉďĉ!)!)!ďĉďĉ!!!)!)!!": 1552,
      "ĈćĈĈćĈćĈĈĈćĈĈďĉĈ!ĈĈĈĈ": 1553,
      "RTVa!!!S%&'(": 1554,
      "666666667'777777": 1555,
      "ħ)": 1556,
      "ďĉďĉďĉ%ď&'(ĉ": 1557,
      "%&'(ďĉďĉ!!!!ďĉ!!)ďĉďĉ!": 1558,
      "ć)": 1559,
      "ē!": 1560,
      "!!!!!!!!!!!!&'(": 1561,
      ")!)ďĉďĉďĉďĉďĉďĉ!!!ďĉ!!ďĉ!ďĉ!": 1562,
      "!!!!!!!!!ďĉ!!!!!!!!ďĉďĉďĉ!ďĉ!%&'(": 1563,
      "!!!!!!!!!!!!!!!!!!!!!!!!!!!!!!!!!!!": 1564,
      "ćĈ!Ĉ!Ĉ!Ĉ!Ĉ!Ĉ!ĈĈďĉ!!!": 1565,
      "!!!!!!!!!!!!!!!!!!!!%&'(%&'(ďĉďĉďĉ": 1566,
      "Ĉ!)": 1567,
      "ďĉďĉďĉ!!ďĉ": 1568,
      "ććĈ!ćććĈ!ćććĈ!ćććĈ!Ĉ!Ĉ!ďĉćććĈ!ć": 1569,
      "ďĉďĉćććĈ!Ĉ!Ĉ!Ĉ!Ĉ!Ĉ!ćććććĈ!ćĈĈ": 1570,
      "ďĉ%&'(Ĉ!Ĉ!ĈĈĈĈĈĈĈĈĈĈĈĈĈĈĈĈĈĈĈĈĈĈĈĈďĉ!": 1571,
      "ďĉďĉďĉďĉďĉďĉ!ďĉďĉ!ďĉďĉďĉ!!": 1572,
      "ďĉďĉďĉďĉďĉďĉR%&'(TVa": 1573,
      "77'7777": 1574,
      "ćďĉ!ććććććććĈ!Ĉ!ćĈĈćĈ!ĈĈćĈ!ćĈĈćĈ!Ĉ!": 1575,
      "6666666677'7777": 1576,
      "ďĉďĉďĉďĉććććĈ!ĈĈ!ćĈ!ĈĈ!Ĉ!Ĉ!ćĈ!ćĈ": 1577,
      "6666666677'77777": 1578,
      "!!!!!!!!!!!!!!!!!!!!!!!!!!!!!!!!!!!!!ďĉ": 1579,
      "ďďĉĉ!": 1580,
      "!!ďĉććĈĈĈĈĈ": 1581,
      "ćććććććĈ!ćČČ": 1582,
      "FD": 1583,
      "ĥ!": 1584,
      "Ĉ!ćĈ": 1585,
      "ďĉććććććććććććĈ!ćĈ!Ĉ!": 1586,
      "ćďĉ!!!!ćďĉ!": 1587,
      "ďĉďĉ)ďĉďĉ!ďĉďĉ!!ďĉ!!!!ďĉďĉďĉďĉ": 1588,
      "ć%&'(Ĉ!Ĉ!Ĉ!Ĉ!Ĉ!Ĉ!": 1589,
      "666666667777": 1590,
      "Ĉ!Ĉ!Ĉ!ćĈ!Ĉ!Ĉ!ććĈ!Ĉ!Ĉ!Ĉ!Ĉ!Ĉ!ćĈ": 1591,
      "ďĉďĉ!ďĉ%&'(ďĉĈ!ďĉ!ďĉďĉďĉďĉ": 1592,
      "ďĉďĉ!ďĉďĉ!!!ďĉćĈ!Ĉ!ććĈ!ććĈ!ĈĈ!ććĈ!Ĉ!Ĉ": 1593,
      "ďĉďĉ!!ďĉ!!!!!!!!": 1594,
      "ďĉďĉ!ďĉ!)ďĉďĉďĉćďĉďĉ!ďĉďĉďĉ!!ďĉ!!!!": 1595,
      "ďĉ!ďĉ!!ďĉďĉ!!ďĉ!!!!!!)!!!!!!!!)ďĉďĉďĉ!!": 1596,
      "ćďĉďĉ!ďĉďĉ": 1597,
      "ććććĈ!Ĉ!Ĉ!Ĉ!Ĉ!ĈĈ!Ĉ!ćďĉ!!": 1598,
      "ćććććďĉ!ććććĈćććĈ!Ĉ!ĈćĈ!ć": 1599,
      "%&'(ďĉĈ!ćĈ!Ĉ!Ĉ!Ĉ!Ĉ!Ĉ!ćĈ!ćĈ!ćĈ!Ĉ!Ĉ!": 1600,
      "!!!!!!!!!!!!!!!!!!!!!!Ĉ!ďĉďĉćĈ!ďĉ!": 1601,
      "ćĈ!Ĉ!Ĉ!Ĉ!Ĉ!Ĉ!Ĉ!Ĉ!ćĈ!ćĈ!Ĉ!ĈćĈ!Ĉ!ďĉćĈ!": 1602,
      "ďĉďĉďĉďĉďĉ!ďĉďĉďĉ!": 1603,
      "!!!%!&'(": 1604,
      "ć%ć&'(": 1605,
      "!!!!RTVa!!!SĂĄĆ": 1606,
      "66666666'7777": 1607,
      "ććććĈ!ĈĈďĉ!!!!!!!!!!!": 1608,
      "66666666'7777777": 1609,
      "ďĉďĉďĉďĉďĉďĉďĉ!!!!!!!!!!!": 1610,
      "M&'(": 1611,
      "ďĉćĈ!ćĈ!Ĉ!ććĈ!Ĉ!Ĉ!Ĉ!ćĈĈĈ!Ĉ!ćĈ!Ĉ!": 1612,
      "Ĉ!Ĉ!ĈćĈ!Ĉ!Ĉ!Ĉ!Ĉ!Ĉ!Ĉ!Ĉ!Ĉ!Ĉ!": 1613,
      "ćďĉ!ććĈ!": 1614,
      "%&'(ćďĉ!": 1615,
      "010011": 1616,
      "!!!!!!!!!!!!!!!!!!!!!!!!!!ďĉććĈĈĈĈĈ": 1617,
      "Ē!!!": 1618,
      "ćĈ!ĈĈ!ćĈ!ć": 1619,
      "ďĉďĉ!!!!ďĉ!!!ćććć": 1620,
      "323232222222222222222": 1621,
      "001011": 1622,
      "ďĉĦ": 1623,
      "ććććććććććććććććććććććććććććĈ!ćĈ!Ĉ!": 1624,
      "%!!!!!!!!!!!!!!!!!!!!!!!!!!!!": 1625,
      "!!!!!!!!!!!&'(": 1626,
      "ćďĉďĉććĈ!": 1627,
      "ććĈ!%&'(Ĉ!Ĉ!ĈćĈ!Ĉ!Ĉ!Ĉ!Ĉ!Ĉ!Ĉ!Ĉ!Ĉ!Ĉ!": 1628,
      "ćďĉďĉ!ďĉďĉć%&'(Ĉ!Ĉ!Ĉ!Ĉ!Ĉ!Ĉ!": 1629,
      "RTVa!!!S%&'(ĂĄĆ!!!!R!!!S": 1630,
      ")!!!": 1631,
      "Lĉ": 1632,
      "ďĉďĉ!!!!!!!!!!!!!!!!!!!!!": 1633,
      "ďĉ!ď%&'(ĉ": 1634,
      "ďĉ!ďĉ!!!!": 1635,
      "ďĉďĉ!ďĉďĉćććććĈ!ćČ": 1636,
      "ďĉďĉďĉďĉďĉďĉďĉďĉ!!!ďĉďĉďĉďĉ": 1637,
      "Ĉ!Ĉ!Ĉ!!ĈĈ!ĈććĈ!Ĉ!ĈĈ!ĈĈ!Ĉ!ćĈ!": 1638,
      "ďĉďĉďĉććĈ!Ĉ!ćĈĈ!ćĈ!Ĉ!Ĉ!Ĉ!Ĉ!ĈĈĈćĈ!Ĉ!Ĉ!": 1639,
      "ďĉ!ďĉďĉďĉďĉ!!!!!!!!!!!!!!!!!!!!!Ĉ!Ĉ!Ĉ": 1640,
      "ĉĉĉ": 1641,
      "ćĈćďĉďĉďĉ": 1642,
      "ćďĉ#$ćĈ!ćć%&'(ďĉďĉ!!!!ďĉ!!)ďĉďĉ!": 1643,
      "ď%&'(ĉďĉďĉ": 1644,
      "ďĉďĉďĉďĉďĉ!ďĉ!ďĉďĉďĉďĉ": 1645,
      "Mĉ": 1646,
      "!!!!!!!!&'(": 1647,
      "ćĈ!)!)!!Ĉ!Ĉ!ĈĈ!!!!!": 1648,
      "ćĈ!Ĉ!ĈĈćĈćĈĈĈĈĈĈĈĈĈĈĈĈ%&'(ďĉ!!": 1649,
      "%&'(%&'(ďĉ!!ććććććĈććĈ!ďĉćĈ!Ĉ!Č": 1650,
      "!!!!!!&'(": 1651,
      "ćĈ!!": 1652,
      "%&'(ďĉ!ćććĈ!Ĉ!ćĈ!Ĉ!Ĉ": 1653,
      "ďĉ!ďĉ!!!!!!!!!!!ďĉ!ďĉććććććĈććĈ!": 1654,
      "ďĉďĉďĉďĉ%ď&'(ĉ": 1655,
      "ďĉ!!!!!!!ďĉ!!ďĉďĉ!!!ďĉďĉďĉďĉďĉ!ďĉ": 1656,
      "ď)": 1657,
      "ďĉďĉďĉďĉćĈ!ĈĈ!Ĉ!ďĉ!ďĉ!ďĉďĉďĉ!!": 1658,
      "ćĈ!Ĉ!ćĈ!ćĈ!Ĉ!": 1659,
      "ď%&'(ĉďĉ": 1660,
      "ććććććććĈ!Ĉ!Ĉ!Ĉ!ćĈĈĈĈ!Ĉ!ćĈ!ďĉďĉ": 1661,
      "ďĉďĉĉ": 1662,
      "ćĈ!ćďĉďĉ!ďĉďĉćććććĈ!ćČ": 1663,
      "!!!!!!!!!!!!ďĉ!ďĉ!!!!!!ďĉďĉ!!ďĉ!ďĉďĉ!!": 1664,
      "ďĈĈ": 1665,
      "%&'(ćććććććććććććććć": 1666,
      "ď%&'(ĉ!!": 1667,
      "ćĈĈĈĈĈĈ!ĈĈ!ĈĈĈćĈĈĈćĈ!ĈĈĈĈ!ĈĈ!Ĉ": 1668,
      "%&'ć(": 1669,
      "ććććĈ!ćĈ!Ĉ!Ĉ!ĈĈ!Ĉ!Ĉ!ĈććĈ!ć": 1670,
      "ďĉ%&'(ďĉďĉďĉďĉďĉďĉ!ďĉďĉďĉďĉ!!": 1671,
      "ďď!": 1672,
      "ďĉďĉćććććććĈĈććććććĈ!ćĈĈ": 1673,
      "ďĉ!ćĈ!ćĈďĉďĉďĉďĉ!": 1674,
      "ďĉďĉ)!)!!": 1675,
      "Ĉ!Ĉ!!": 1676,
      "ććĈ!Ĉ!Ĉ!ćĈ!ďĉďĉďĉďĉďĉďĉ": 1677,
      "ćĈ!ĈĈĈćĈćĈćĈĈĈćĈďĉďĉ!ďĉ!!": 1678,
      "!!!!RTVa!!!SĂĄĆ!!!!R!!!S": 1679,
      "!!!!!!!!!!!!ďĉ!!": 1680,
      "ďĉ!ďĉďĉďĉďĉćďĉ!": 1681,
      "ďĉ!%ď&'(ĉ": 1682,
      "ďĉďĉďĉ!ďĉ!!": 1683,
      "%&'ď(ĉ!": 1684,
      "ććĈ!ćďĉďĉďĉďĉďĉďĉďĉ!!": 1685,
      "ďĉ!!!!!ćĈ!ĈćĈ!ćĈ!ĈĈ!ćĈ!Ĉ!ĈĈĈ!ĈĈĈććĈ!ďĉ": 1686,
      "ćĈ!Ĉ!ĈćĈ!Ĉ!ćĈ!ććĈĈĈĈĈćĈćĈ%&'(ďĉ": 1687,
      "%ćć&'(": 1688,
      "Ĉ!Ĉ!ĈćĈĈĈĈĈ!Ĉ!Ĉ!Ĉ!Ĉ!Ĉ!ĈĈĈ!Ĉ!ĈĈĈĈďĉ!!": 1689,
      "%M&'(": 1690,
      "%&'(ďĉďĉ!!ďĉćććĈ!Ĉ!Ĉ!ćĈ!Ĉ!Ĉ": 1691,
      "ćććĈ!Ĉ!ććĈ!ćĈ!ćČďĉ!!!ďĉ!": 1692,
      "ďĉďĉďĉ!ďĉ!ďĉ!ďĉ": 1693,
      "%Ĉ&'(Ĉ": 1694,
      "ďĉďĉ!ďĉďĉćććććďĉ!": 1695,
      "%&'(ďĉďĉ!!ďĉ!!!!!!!!!!!!!!!!!!!": 1696,
      "ćććĈ!Ĉ!ćĈ!Ĉ!ćĈ!ćĈ!ćĈ!ĈĈ!Ĉ!ćĈ!ćĈ!Ĉ!Ĉ!": 1697,
      "ćććĈ!Ĉ!Ĉ!ćĈĈĈĈ!ćĈ!ĈĈ!ćĈ!ć": 1698,
      "AB": 1699,
      "ďĉďĉďĉ%&'(ďĉďĉďĉďĉďĉ": 1700,
      "%&'(ďĉďĉďĉ!ććĈ!ćďĉďĉďĉďĉďĉďĉďĉďĉ": 1701,
      "Ē!!Ė": 1702,
      "ďĉ%!&'(": 1703,
      "ďĉďĉďĉďĉďĉ!ďĉďĉďĉďĉ": 1704,
      "ďĉďĉ!!ćććĈ!Ĉ!ćĈ!Ĉ!ĈĈĈĈ!ććĈďĉďĉćććććććć": 1705,
      "KK": 1706,
      "%&'(Ĉ!": 1707,
      "ďĉďĉďĉďĉďĉďĉ%&'(ďĉďĉ!ďĉďĉďĉ": 1708,
      "ďĉďĉďĉ!!!!!!!!!!ďĉďĉďĉ%&'(ďĉďĉďĉ": 1709,
      ">>": 1710,
      "ďĉďĉ!!!!!!!": 1711,
      "ĈćĈĈćĈćĈĈĈćĈĈďĉĈ!Ĉ!ĈĈĈ": 1712,
      "ďLĉ": 1713,
      "23232222222222222222": 1714,
      "%&'(Ĉ!Ĉ!ćććććĈ!ćĈĈ": 1715,
      "ćĈćĈĈĈĈĈĈĈćĈĈĈĈĈĈćĈćĈ!ćĈĈ!ďĉ!!!!": 1716,
      "ďĉďĉďĉĈ!Ĉ!Ĉ!Ĉ!Ĉ!ćĈ!ĈĈĈĈćĈ!ćĈ!": 1717,
      "ĒĒ": 1718,
      "ę!": 1719,
      "ďĉďĉ%&'(ďĉďĉ": 1720,
      "ďĉďĉďĉďĉ!!!!ďĉ!!ďĉďĉďĉďĉďĉďĉďĉďĉ!": 1721,
      "ćďĉďĉ!": 1722,
      "%!!!!!!&'(": 1723,
      "ħ!": 1724,
      "!!!!ďĉďĉ!!!!!!!!!!!!!!!!!!!!!": 1725,
      "!!!ďĉ!!!ćććĈćĈ!ćĈ!ĈĈ!Ĉ!": 1726,
      "!!!!!!!!!!!!ććĈ!ćĈ!ććĈ!": 1727,
      "!!!!!!!!!!!!!%!!!!!!!&'(": 1728,
      ")ďĉďĉďĉďĉďĉďĉďĉ!ďĉ!!": 1729,
      "ćďĉ!ććĈ!ćĈ!Ĉ!ĈĈĈ!ĈĈĈććĈ!ĈĈ!ĈĈĈĈ!ĈĈ!ĈĈĈĈ": 1730,
      "ĉĈ": 1731,
      "ďĉďĉďĉ!ďĉďĉ!!ďĉďĉďĉ!": 1732,
      "ďĉ!ďĉďĉďĉĈ!Ĉ!Ĉ!Ĉ!ććĈćć": 1733,
      "ĈĈĈĈĈďĉďĉ)!)!!": 1734,
      "ćL": 1735,
      "ďĉ!ďĉ%&'(": 1736,
      "ďĉďĉ!!!ććććććććććććććććććććććććććĈ!": 1737,
      "%&ď'(ĉ!": 1738,
      "01'(333": 1739,
      "666666667'777777(788888888,-%&+01": 1740,
      "ćĈ!ćĈ!ćďĉďĉďĉďĉ!ďĉ!ďĉďĉ": 1741,
      "ďĉďĉďĉďĉ!ďĉďĉ!!ďĉďĉďĉďĉďĉďĉďĉ!ďĉ!ďĉ": 1742,
      "ďĈ!Ĉ": 1743,
      "ďMĉ": 1744,
      "ĈĈĈĈĈĈĈ": 1745,
      "ďĉďĉďĉ!!!!!ďĉďĉďĉ!ďĉďĉćććććĈ!Ĉ!ćĈĈ": 1746,
      "ćĈĈ!Ĉ!ĈćĈ!Ĉ!ĈĈĈĈĈĈććĈ!ćďĉ!!!!!!!!ďĉ!ďĉ!": 1747,
      "Ĉ!Ĉďĉ!ďĉ!ďĉćććććććććććĈ!ćĈ!!ććĈ!ććĈ!": 1748,
      "ćĈ!%Ĉ&'(!": 1749,
      "ćĈ!Ĉ!Ĉ!Ĉ": 1750,
      "ďĉ%&'(ďĉ!!": 1751,
      "ďĉ!ďĉďĉ!ďĉćććĈ!Ĉ!Ĉ!Ĉ!": 1752,
      "ćďĉďĉćććĈ!ćĈ!Ĉ!Ĉ!ćĈ!Ĉ!ćĈ!Ĉ!Ĉ!Ĉ!ćĈ!Ĉ!": 1753,
      "%&Ĉ'(!": 1754,
      "ďĉ!ďĉ!ďĉďĉďĉ": 1755,
      "ďĉ!ďĉďĉ!ďĉćććĈ!Ĉ!Ĉ!Ĉ!%&'(Ĉ!Ĉ!ćććććĈ!ćĈĈ": 1756,
      "!!!!!!!!!!!!!!!!!!!!!!!!!!!!!!!!!!": 1757,
      "ććďĉďĉ)ćďĉ": 1758,
      "32222": 1759,
      "Ĉ!%Ĉ&'(!": 1760,
      "ďĉďĉďĉďĉďĉďĉďĉďĉďĉďĉďĉďĉ": 1761,
      "ďĉ!ďĉďĉďĉďĉďĉďĉďĉćďĉ!ďĉďĉďĉďĉ!!": 1762,
      "ďĉ!ďĉ!ďĉďĉ!!": 1763,
      "ćďĉďĉćććććććĈ!Ĉ!Ĉ!ćĈ!Ĉ!Ĉ!": 1764,
      "ďĉ!!!!!!)!!!!!!!!)!": 1765,
      "ďĉ!ďĉďĉ!!ďĉďĉďĉďĉ": 1766,
      "ďĉďĉććććććĈ!ćććĈ!ćććĈ!ćĈ!": 1767,
      ")ħ": 1768,
      "ďĈ!Ĉ!ĉ": 1769,
      "!&'(!!!!!!!!!!!!!!!": 1770,
      "%&'(ďĉďĉ)!)!!": 1771,
      "66666666777": 1772,
      "ĥĤ!": 1773,
      "66666666777'7777": 1774,
      "Ħ!": 1775,
      "!!!!!!!!!!ďĉ": 1776,
      "ďĉďĉďĉ)!)": 1777,
      "%&'(ďĉďĉ!!!!!!!!!!!ďĉćććĈ!Ĉ!Ĉ!Ĉ": 1778,
      "%&'Ĉ(!": 1779,
      "ĈĈĈ!Ĉ": 1780,
      "ć%&'(ďĉďĉďĉďĉ!": 1781,
      "ďĉ!ďĉďĉďĉďĉďĉďĉďĉďĉďĉďĉ!!": 1782,
      "ďĉďĉďĉďĉďĉďĉďĉĈ!Ĉ!Ĉ!Ĉ!Ĉ!Ĉ!Ĉ!ĈĈĈĈĈĈ": 1783,
      "ććĈ!ćďĉććććććććĈ!Ĉ!Ĉ!Ĉ!ćĈĈĈĈ!Ĉ!ćĈ!": 1784,
      "ďĉĈ!ĈĈĈĈĈĈĈĈ!ĈĈĈďĉ": 1785,
      "ćĈĈćĈĈĈĈĈĈćĈĈĈĈćĈĈćĈĈćĈ!ćććĈ!ććďĉďĉ!!!!": 1786,
      "ďĉďĉ%&'(ďĉ)!)ďĉďĉďĉďĉďĉďĉ!!!ďĉ!!ďĉ!ďĉ!": 1787,
      "đđ": 1788,
      "ďĉďĉďĉďĉďĉďĉďĉďĉ!!": 1789,
      "RTVa!!!SĂĄĆ!!!!R!!!SćććććććĈ!Ĉ!": 1790,
      "!!!!!!!!!!&'(": 1791,
      "!!!!!!!!%!!!!!!!!": 1792,
      "!!!SĂĄĆ!!!!R!!!S": 1793,
      "RTVa!!!SĂĄĆďĉćććďĉ!": 1794,
      "%!!!!!&'(": 1795,
      "%!ć": 1796,
      "!!!%!!!!!!!!!!!!": 1797,
      "ĈćĈĈćĈćĈĈĈćĈĈ%&'(ďĉ": 1798,
      "!!!!ďĉ!!!ćććć": 1799,
      "%&'(ďĉďĉďĉ%&'(": 1800,
      "%&'(ďĉďĉ!!ďĉ!!!!!!!!": 1801,
      "ďĉ!ĉ": 1802,
      "ćĈćć": 1803,
      "ďĉďĉďĉďĉďĉďĉ!ďĉďĉ!ďĉďĉďĉ!!ććććĈ!Ĉ!": 1804,
      "ćććććĈ!ćĈ!Ĉ!ćĈĈ!Ĉ!Ĉ!Ĉ!ćĈćĈĈćĈ!Ĉ!Ĉ!ćĈ!Ĉ!": 1805,
      "ďĉ!ďĉďĉďĉďĉ%&'(": 1806,
      "ďĉďĉ!!ďĉćććĈ!Ĉ!Ĉ!Ĉ!ĈĈĈĈĈĈĈĈĈĈ!ćĈ!Ĉ!": 1807,
      "ďĉďĉććććććĈ!ćććĈ!ćććĈ!ćĈ!ćďĉďĉďĉďĉ!": 1808,
      "ďĉďĉďĉ%&'(Ĉ!Ĉ!ĈĈ!Ĉ!ĈĈĈĈ!Ĉ!ĈĈ!Ĉ!Ĉ!!Ĉ!": 1809,
      "ććććĈ!ćĈ!Ĉ!Ĉ!ĈĈ!Ĉ!Ĉ!ĈććĈ!ć%&'(ďĉ": 1810,
      "ďĉďĉďĉ!ďĉ!ďĉ!ďĉ%&'(": 1811,
      "%ć&'ć(": 1812,
      "6666666677'77777(788888888,-%&+01": 1813,
      "ĥďĉ": 1814,
      "Ĉ!ćĈĈ": 1815,
      "ććĈ!Ĉ!ćĈ!Ĉ!": 1816,
      "ď!ĉ!": 1817,
      ")!!!)": 1818,
      "ďććĉ": 1819,
      "Ħ%&'(%&'(%&'(%&'(%&'(%&'(%&'(%&'(": 1820,
      "ďĉ%&'(ďĉďĉ!!!!ďĉ!!!ćććć": 1821,
      "ďĉďĉďĉ!ďĉćďĉ!!!!ćďĉ!": 1822,
      "ć%&'(ďĉ!!!!!!!!!ďĉďĉďĉ!!ďĉďĉ!ďĉ!!": 1823,
      "Ĉ!ĈĈĈĈĈ!Ĉ!Ĉ!ĈĈĈĈĈĈĈĈĈĈ!ĈĈĈ!ĈĈ!ĈĈĈĈ!ĈĈ!Ĉ": 1824,
      "ďĉďĉďĉďĉďĉ%ď&'(ĉ": 1825,
      "%ď": 1826,
      "!!!!!!!!!&'(": 1827,
      "ďĉ!ďĉďĉďĉ!ďĉ!ďĉ!!ďĉ": 1828,
      "!!!!!!!!!!!!!!!!!!%&'(": 1829,
      "Ĉ!ćĈ!Ĉ!Ĉ!Ĉ!Ĉ!!ĈĈ!ĈććĈ!Ĉ!ĈĈ!ĈĈ!Ĉ!ćĈ!": 1830,
      "ć%&'(ďĉĈ!ćĈ!Ĉ!Ĉ!ćĈ!Ĉ!Ĉ!ĈĈ!ćĈ!ďĉ!": 1831,
      "ććććĈ!Ĉ!Ĉ!Ĉ!Ĉ!ĈĈ!Ĉ!ćďĉ!!ďĉďĉ": 1832,
      "ĉďĉ": 1833,
      ")!)!!)!)": 1834,
      "ćĈĈćĈĈĈĈĈĈćĈĈĈĈćĈĈćĈĈćĈ!ćććĈ!ćć%&'(ďĉďĉ": 1835,
      "B!": 1836,
      "L&'(": 1837,
      "ďĉďĉďĉďĉďĉďĉďĉďĉďĉ": 1838,
      "ď%&'(ĉďĉďĉďĉ": 1839,
      "!!!!!!!!!!!!!!!!!!!!!!!!!!ďĉ": 1840,
      "ďĉďĉ!ďĉďĉ%&'(ćĈ!Ĉ!Ĉ!Ĉ!Ĉ!ĈďĉĈ!Ĉ!Ĉ!Ĉ!": 1841,
      "Ĉ)": 1842,
      "ēĖ": 1843,
      "Ĉ!ć": 1844,
      "Ĉ!Ĉ!Ĉ!Ĉ!ĈćĈ!ĈĈ!ĈĈĈ": 1845,
      "M!": 1846,
      "ďĉ!%&'(ďĉďĉ!": 1847,
      "ććĈ!ĈćĈćĈćĈ!ĈćĈĈ%&'(ďĉďĉďĉ%&'(": 1848,
      "ďĉďĉďĉďĉďĉďĉďĉ)!ďĉďĉďĉďĉ%&'(ďĉďĉďĉďĉ": 1849,
      "ććĈ!ć%&'(": 1850,
      "MMMMMMMMMMMM": 1851,
      "&Ĉ'(!": 1852,
      "BB": 1853,
      "ďĖ": 1854,
      "ďćĈ": 1855,
      "ďĉďĉďĉďĉ!ďĉďĉďĉďĉ!ďĉ!!": 1856,
      "ďďĉĉďďĉĉ": 1857,
      "ććććććĈ!ććĈ!Ĉ!Ĉ!ĈćĈ!Ĉ!ĈćĈććĈĈ!ĈĈĈďĉ!!!": 1858,
      "ďĉďĉďĉ%&'(ďĉďĉďĉďĉďĉďĉďĉďĉďĉďĉďĉ!": 1859,
      "ĈĈ!Ĉ!": 1860,
      "ĉ!!": 1861,
      "ďďĉďĉĉ": 1862,
      "ďĉďĉďĉďĉććĈ!Ĉ!ĈĈĈ!!ćĈ!Ĉ!Ĉ!Ĉ!ćďĉďĉ!!": 1863,
      ")!)!!!!!!!!!!!!!!!": 1864,
      "ď%&'(ĉďĉďĉ!": 1865,
      "'(333": 1866,
      "%&'(!ďĉďĉďĉ!ďĉ!ďĉ!": 1867,
      ")!)!!!!!!!!!!!!!!!!ďĉďĉďĉ!": 1868,
      "ďĉ!ďĉ!!Ĉ": 1869,
      "ďďď": 1870,
      "ďĉďĉćććĈ!Ĉ!Ĉ!ćĈ!Ĉ!Ĉ!Ĉ!Ĉ!!": 1871,
      "ććĈ!ĈćĈćĈćĈ!ĈćĈĈďĉ%&'(ďĉďĉ": 1872,
      "!ďĉ!)!)!!!!!!!!!!ďĉ!!!!!!": 1873,
      "ďĉĉĉ": 1874,
      "ĥĤē": 1875,
      "66666666'7777777(788888888,-%&+01": 1876,
      "ďĉďĉďĉ!ďĉ!ďĉ!ďĉ%&'(ććďĉďĉ)ćďĉ": 1877,
      "ććććććĈ!ć": 1878,
      "ćĈ!ć!": 1879,
      "%&'(!ďĉďĉďĉ!ďĉ!ďĉ!ďĉ!ďĉďĉ!!ďĉďĉďĉďĉ": 1880,
      "%&'(ďĉďĉďĉďĉďĉďĉďĉ!!!!!!!!!!!": 1881,
      "ć%&'(ćććć": 1882,
      "%&'(ďĉďĉďĉ!ďĉ!!ďĉďĉďĉďĉďĉďĉ!": 1883,
      "%!!!!!!!!!!!!!!!!!!!!!!!!!!!!!!!!!!!!": 1884,
      "ďćĈ!ĉ": 1885,
      "!!!!!!!!!!!!%!!!!!!!!!!!!!!!!!!!!": 1886,
      "ć'": 1887,
      "ćĈ!ć%&'(": 1888,
      "ćĈ!Ĉćććć": 1889,
      "ďĉ!ďĉďĉďĉďĉćććĈ!Ĉ!ććĈ!ćĈ!ćČďĉ!!!ďĉ!": 1890,
      "ďĉ!ďĉ!ďĉďĉ!": 1891,
      "ďĉćććććĈ!Ĉ!Ĉ!ćĈĈćĈ": 1892,
      "ćĈćďĉďĉďĉ!!!": 1893,
      "LL!LK!LK": 1894,
      "%&'(ďĉćĈ!ćĈ!Ĉ!ććĈ!Ĉ!Ĉ!Ĉ!ćĈĈĈ!Ĉ!ćĈ!Ĉ!": 1895,
      "ďĉćććććĈ!ĈĈćĈĈćĈ": 1896,
      "ďďďďďďďď": 1897,
      "!&'(ďĉ))ħ": 1898,
      "ćĈ!Ĉ!ĈćĈ!ďĉćććććććĈ!ćĈ!%&'(ćďĉ!": 1899,
      "ďĉďĉďĉďĉďĉďĉďĉ!!": 1900,
      ")!)!!!!": 1901,
      "ďĉďĉďĉďĉďĉ!!ďĉ!ďĉďĉďĉďĉďĉďĉďĉďĉ": 1902,
      "!!!!!!!!!!!!!ďĉďĉďĉďĉďĉ!!ďĉ!!ďĉďĉďĉ)!)": 1903,
      "332222": 1904,
      "ďĉ!ďĉďĉ!!ďĉďĉďĉďĉďĉďĉďĉďĉ!": 1905,
      "AAAA": 1906,
      "ćććďĉ!": 1907,
      "%&'(ďĉ!ďĉďĉďĉďĉ!!": 1908,
      "LLL": 1909,
      "ćććĈ!Ĉ!Ĉ!Ĉ!Ĉ": 1910,
      "%&'(ďĉĈ!ĈĈĈĈĈĈĈ": 1911,
      "LLLL!LK": 1912,
      "ćććććĈ!Ĉ!Ĉ!ćĈĈćĈ%&'(ďĉďĉ": 1913,
      "%ć&'Ĉ(!": 1914,
      "ďĉďĉďĉďĉďĉďĉďĉ!ďĉ!ďĉćććććććĈ!ćČČ": 1915,
      "ĈćĈ": 1916,
      "Ĉ!ćĉ": 1917,
      "ććĈĈĈĈ": 1918,
      "ďĉďĉďĉďĉ%&'(": 1919,
      "%&'(ďĉćććććććć": 1920,
      "%ď&'(ĉ!!": 1921,
      "ćććĉ": 1922,
      "ćććććĈ!ćĈ!ććććĈ!ććĈ!ćććĈ!ćććĈćďĉďĉććĈ!": 1923,
      "ďĉ!ďĉďĉďĉďĉďĉďĉ!!%&'(ďĉ!ďĉďĉďĉďĉ!!": 1924,
      "%!!!!!!!!!!!": 1925,
      "ďĦ": 1926,
      "Ĥ))))": 1927,
      "ħĉ": 1928,
      "ćĈ!Ĉ!ćĈ!Ĉ": 1929,
      "ďĉ!%&'(ďĉ": 1930,
      "Ĉ!Ĉ!Ĉ!Ĉ!Ĉ!": 1931,
      "ďĉ!!ďĉ!ďĉďĉďĉďĉ!": 1932,
      "ćďĉ)ħ": 1933,
      "Ĉ!Ĉ!Ĉ!%&'(": 1934,
      "ćďĉ%&'(ććććććĈ!Ĉ!": 1935,
      "ććććććććććććČďĉďĉććĈ!ćĈ!ćĈ!ćĈ!ćĈćĈćĈćďĉ": 1936,
      "ďĉ!!!!ďĉďĉďĉďĉďĉďĉďĉďĉďĉďĉ": 1937,
      "ć%&'(ďĉ!!!!!!!!!ďĉďĉďĉďĉďĉ)!)": 1938,
      "Ĉ!ććĈ!": 1939,
      "!!!!!!!!!!!%!&'(": 1940,
      "%Ĉ&'(ĈĈ": 1941,
      "ďĉ!ďĉďĉďĉďĉďĉďĉďĉďĉ!": 1942,
      "ćććććććććććĈ!": 1943,
      "&'(ćďĉ!ďĉ": 1944,
      "!!!!!!!!!!!!!!&'(": 1945,
      "ďĉďĉďĉďĉďĉďĉďĉďĉďĉ!ďĉďĉďĉďĉ": 1946,
      "!!!!!!!!!ćććĈ!Ĉ!Ĉ!Ĉ!Ĉ!Ĉ!ĈĈĈĈĈĈĈĈĈĈĈĈ": 1947,
      "ďĉďĉďĉďĉďĉćććććĈ!)!)!!Ĉ!Ĉ!ĈĈ!!!!!": 1948,
      "32323232222222222222222": 1949,
      "ČČďĉďĉďĉ!!!!!ďĉďĉďĉ!ďĉďĉćććććĈ!Ĉ!ćĈĈ": 1950,
      "Ĉ!ĈćĈ!ćĈĈĈĈĈćĈĈĈĈĈćĈ!ĈĈĈćĈďĉ!": 1951,
      "Ĉ!ĈĈĈ!Ĉ!ĈĈ!Ĉ!Ĉ!": 1952,
      "ććĈ!ćďĉďĉďĉďĉďĉďĉďĉ!!ďĉďĉ": 1953,
      "ďĉ%&'(!ďĉ!ďĉ!ďĉďĉ!!": 1954,
      "ďĉďĉ)!)": 1955,
      "ĈĈĈĉ": 1956,
      "ďĉďĉ!ďĉďĉďĉďĉ!": 1957,
      "Ĉ!Ĉ!Ĉ!Ĉ!Ĉ!Ĉ!Ĉ!Ĉ!ĈĈĈ!Ĉ": 1958,
      ")!)!!!!!!!!!!!!!!!!!": 1959,
      "%ĈĈ": 1960,
      "Ĕĥ": 1961,
      "ćć!": 1962,
      "ćďĉďĉďĉĈ!ĈĈĈĈĈ!ćĈ!Ĉ!ĈćĈĈĈćĈĈĈĈĈ": 1963,
      ")ďĉ": 1964,
      "ďĉ!!!!!!!!!!!!!!!!!!!!!!!!": 1965,
      "%&'(ćĈ!ćĈ!Ĉ!Ĉ!": 1966,
      "ďĉďĉďĉďĉďĉ)!)ďĉďĉďĉ!ďĉďĉďĉ!!ďĉďĉďĉďĉ!": 1967,
      "ďĉ!ććĈ!ćĈ!Ĉ!ĈĈĈ!ĈĈĈććĈ!ĈĈ!ĈĈĈĈ!ĈĈ!ĈĈĈĈ": 1968,
      "%&'(ďĉ!!!ďĉďĉďĉ!!ďĉ": 1969,
      "ČČČČ": 1970,
      "ĦĦ": 1971,
      "ďĉďĉď%ĉ&'(": 1972,
      "ďĉ!!!!ďĉďĉďĉ!ďĉďĉ!ďĉďĉ!!ďĉ!!": 1973,
      "ďĉ!ďĉ!ďĉ!": 1974,
      "ććć%Ĉ&'(!": 1975,
      "ďĉ!ďĉďĉďĉďĉďĉďĉďĉďĉďĉďĉďĉďĉďĉďĉďĉ": 1976,
      "%ć&Ĉ'(!": 1977,
      "ćććććĈ!Ĉ!Ĉ!ćĈĈćĈďĉďĉĈ!Ĉďĉ!ďĉ!ďĉ": 1978,
      "Ĉ!%&'(ďĉ!ďĉďĉďĉďĉďĉ": 1979,
      "ćććććććććććĈ!ććĈ!Ĉ!ćĈ!Ĉ!": 1980,
      "!!!!!!!!!!!!!&'(": 1981,
      "!!!!!!!!!!!!!%&'(": 1982,
      "ďĉďĉďĉćďĉ!ďĉďĉďĉďĉ": 1983,
      "ćK": 1984,
      "!!)!)": 1985,
      "Ĉ!Ĉ!ćĈ!Ĉ": 1986,
      "Ĉ!ĈĈ!ďĉ": 1987,
      "Ĉ!Ĉ!Ĉ!Ĉ!Ĉ!Ĉ!Ĉ!Ĉ!ĈĈĈ!ĈĈ!ĈĈĈ!Ĉ!ĈĈ!Ĉ!Ĉ!": 1988,
      "ććĈ!Ĉďĉ": 1989,
      "ćĈ!ĈćĈĈ!Ĉ!ćĈ!ĈĈ!ććĈ!ćĈ!ććĈćĈććć!!%&'(": 1990,
      "Ĉ!ćĈ!ćĈ!Ĉ!Ĉ!ďĉďĉ!!!!!!!": 1991,
      "ďďĉ": 1992,
      "Ĕ!": 1993,
      "%&'(!!!!!!!": 1994,
      "%&ć'(": 1995,
      "ćććććććććććĈ!ććĈ!Ĉ!ćĈ!Ĉ!ćĈ!ć!": 1996,
      "32222222222222222": 1997,
      "ďĉ!!!!!!!!!!!!!!!!!!!!!!!!!!!!!!!!!!!!": 1998,
      "&'(!!!!ďĉććććĈ!ćĈ!ćĈ!": 1999,
      "ććććć": 2000,
      "ďĉ!!ďĉ%&'(ďĉďĉ": 2001,
      "ďĉďĉďĉ!ďĉďĉďĉďĉ": 2002,
      "ďĉďĉďĉ!ććĈ!ćďĉďĉďĉďĉďĉďĉďĉďĉ": 2003,
      "ďĉďĉďĉďĉďĉďĉďĉďĉďĉ%&'(ďĉďĉďĉ": 2004,
      "ďĉ%&'(!!!": 2005,
      "ď%&'(ĉ!ďĉ": 2006,
      "ćĈ!ććĈ!ćĈ!ĈďĉććććććććććććĈ!ćĈ!Ĉ!": 2007,
      "ďĉ!ďĉ!!!!!!!!!!!!!!!!ďĉ!!!!!!!!!!!!!!!!": 2008,
      "ćďĉ!ďĉďĉďĉďĉďĉďĉďĉďĉ)": 2009,
      "ćććĈ!ćć": 2010,
      "%&'(ĉĉĉĉĉĉĉĉĉ": 2011,
      "L!M": 2012,
      "BM": 2013,
      "ďĉďĉďĉĈ!ĈĈćďĉďĉďĉďĉďĉďĉďĉ!ďĉ!ďĉďĉďĉ!": 2014,
      "Ĉ!Ĉ!Ĉďĉ!!!!!!!!!!!!!!!!!!!!!!!!!!!!!!!!": 2015,
      "!!&'(!!!!ďĉććććĈ!ćĈ!ćĈ!": 2016,
      "%&'(ďĉ!!ďĉďĉ!!ďĉ!ďĉ!!ďĉďĉďĉ!ďĉ": 2017,
      "L!LKL!LK": 2018,
      "ďĉ!ďĉ!!!ďĉ!!!ćććĈćĈ!ćĈ!ĈĈ!Ĉ!": 2019,
      "Ė!": 2020,
      "!!)": 2021,
      "ďĉ!!!!!!!!!!!!!!!!!!!!!!!!!!!!": 2022,
      "ćĈ!%&'(ďĉ!": 2023,
      "ćĈĈĈĈĈĈĈ": 2024,
      "%Ĉ&'(!Ĉ": 2025,
      "ďĉ!ďĉďĉ!Ĉ!Ĉ!ĈĈ!Ĉ!Ĉ!Ĉ!": 2026,
      "%!!!!&'(": 2027,
      "%Ĉ!": 2028,
      "ďĤ": 2029,
      "ďĉďĉ%!&'(": 2030,
      "!!!!!!!!!!!%!!!!!!!!": 2031,
      "ďĉ%&'(Ĉ!Ĉ!Ĉ!Ĉ!": 2032,
      "010101'(3": 2033,
      "ďĉďĉ!!ďĉ!!ďĉ!!!!!!)!!!!!!!!)!": 2034,
      "!%&'(ďĉ": 2035,
      "ďĉďĉďĉ!!!!!": 2036,
      "ďĉ%&'(ďĉďĉ!": 2037,
      "ć%&'(ććććććĈ!ć": 2038,
      "ćĈĈćĈćĈĈćĈĈ": 2039,
      "00110011": 2040,
      "%&'(ďĉďĉ!ďĉ!!ďĉ!ďĉďĉďĉďĉ!": 2041,
      "ćĈćĈ!ććĈ!!ďĉ!!ďĉďĉďĉ": 2042,
      "ďĉ!%&'(ďĉďĉ!ďĉ!ďĉďĉďĉ!ďĉ!ďĉ!!ďĉ": 2043,
      "ćďĉ!ďĉďĉďĉďĉ": 2044,
      "ďďĉ!ĉ": 2045,
      "!!!!!!!!!!!!ďĉ!!ďĉ!!!!!!!!!!!": 2046,
      "ďĉďĉďĉďďĉĉ": 2047,
      "Ĉ!ĈĈĈ!ĈĈĈćďĉďĉ!ďĉďĉć%&'(Ĉ!Ĉ!Ĉ!Ĉ!Ĉ!Ĉ!": 2048,
      "ďĉďĉ!ďĉďĉ%&'(ćĈ!Ĉ!Ĉ!Ĉ!Ĉ!Ĉďĉ": 2049,
      "66666666777'7777(788888888,-%&+01": 2050,
      "ďĉďĉćććĈ!Ĉ!Ĉ!ćĈ!Ĉ!Ĉ!Ĉ!Ĉ!!%&'(ďĉďĉ!": 2051,
      "%Ĉ": 2052,
      "%ď&'(ĉďĉ": 2053,
      "ďĉďĉ%&'(ďĉďĉďĉďĉďĉďĉ": 2054,
      "ďďďĉĉĉ": 2055,
      "ćďĉćććďĉ!!ďĉďĉďĉ!": 2056,
      "Ĉ!ĈĈ!ďĉćĈ!Č": 2057,
      "!&'(ćďĉ!ďĉ": 2058,
      "ďĉ!!!!!!!!!%": 2059,
      "%&'(ďĉ!!!ďĉďĉďĉďĉďĉďĉďĉďĉ!": 2060,
      "ćďĉďĉďĉďĉććĈ!Ĉ": 2061,
      "001101010011": 2062,
      "RTVa!!!S%&'(ĂĄĆ!!!!R!!!SćććććććĈ!Ĉ!": 2063,
      "ďĉďĉ%&'(ďĉ!ďĉ": 2064,
      "ćĈ!Ĉ!Ĉ!Ĉ!Ĉ!Ĉ!ĈĈďĉ%&'(!!!": 2065,
      "ćĈ!ćććć": 2066,
      "ď!ď": 2067,
      "&'Ĉ(!": 2068,
      "ćĈĈ!Ĉ!ĈćĈ!Ĉ!ĈĈĈĈĈĈććĈ!ćďĉ!!!!!!!!ďĉ!": 2069,
      "33222323": 2070,
      "%M&'(MMMMMMMMMMMMMMMMMMMMMMMMMMMMMMMM": 2071,
      "ćĈ!ĈćććććććĈ": 2072,
      "ďĉď%ĉ&'(": 2073,
      "%&'(!!!!!!": 2074,
      "ďĉďĉ!ďĉďĉĈ!": 2075,
      "ĈĈĈ!Ĉ!Ĉ!ĈĈĈĈ!Ĉ!ĈĈ!Ĉ!Ĉ!ĈĈĈĈćďĉďĉ%&'(": 2076,
      ")!!!)!!!!!": 2077,
      "%&'(ćĈ!ćĈ!Ĉ!Ĉ!ďĉďĉ!": 2078,
      "ďĉďĉďĉďĉďĉďĉRTVa": 2079,
      "!!!!!!!!!!ćććććććććććĈ!ĈćĈ!Ĉ!ĈćĈ!ć": 2080,
      "ďĈĈĉ": 2081,
      "ďĉ!ďĉ!ďĉďĉďĉďĉ!": 2082,
      "!&'(!!!!ďĉććććĈ!ćĈ!ćĈ!": 2083,
      "!!!%!!!!": 2084,
      "ďĉďĉďĉďĉďĉď%&'(ĉ": 2085,
      "%&'(ďĉďĉ!ďĉďĉďĉďĉďĉďĉďĉďĉ!": 2086,
      "%&'(ďĉ!!ďĉ!ďĉďĉ!ďĉďĉ!ďĉ!": 2087,
      "ć%&'(ďĉďĉďĉďĉ!ďĉ!ďĉďĉ": 2088,
      "ććć%&'(": 2089,
      "ďďďĉĉ": 2090,
      "ďĖĉ": 2091,
      "ďĉďĉććĈ!Ĉ!Ĉ!ćĈ!": 2092,
      "ćĈ!ď": 2093,
      "%ď&'(ĉďĉďĉ!": 2094,
      "ďĉ!ďĉ!ďĉ%&'(ďĉďĉďĉďĉ": 2095,
      "!!!!!!!!!!!!!%!&'(": 2096,
      "ćććĈ!Ĉ!Ĉ!Ĉ!Ĉ!Ĉ!ćććććĈ!ćĈĈďĉďĉ!!": 2097,
      "%&'(ďĉ!!ďĉ!ďĉďĉ!ďĉďĉ!": 2098,
      "ćĈ!Ĉ!ćĈ!ćĈ!Ĉ!ćĈ!Ĉ!ćĈ!Ĉ": 2099,
      "ĈćĈĈćĈćĈĈĈćĈĈ%&'(ďĉĈ!Ĉ!ĈĈĈ": 2100,
      "%L&'(": 2101,
      "!!!!!!!!%!!!!!!!!!!!!!!!!!!!!!!!!": 2102,
      "ďĉďĉćďĉďĉďĉďĉ!ććĈ!Ĉ!Ĉ!Ĉ!Ĉ": 2103,
      "ćĈ!%&'(": 2104,
      "ććĈ!ďĉďĉďĉďĉ!ďĉďĉ!!ďĉďĉďĉďĉďĉďĉďĉ!ďĉ!ďĉ": 2105,
      "ďĉ!!ďĉďĉďĉ!": 2106,
      "01000111": 2107,
      "ď%&'(ĉ!!!!!!!!!!!!!!!!!!!!!!!!!!!!!!!!": 2108,
      "%Ĉ&'(!Ĉ!": 2109,
      "ďĉććĈĈĈĈĈďĉďĉ)!)!!": 2110,
      "!!!!!!!!!%!!!!!!!!": 2111,
      "ćĈ!Ĉ!ĈćĈ!ďĉćććććććĈ!ćĈ!ć%&'(ďĉ!": 2112,
      "ĥďĉĈ!ĈĈ!ďĉćĈ!Č": 2113,
      "Ĥ!": 2114,
      "ćĈĈ!Ĉ!": 2115,
      "ćĈĈćĈĈćĈĈćĈćĈĈćĈĈ": 2116,
      "ćĈ!ĈĈ!ćĈ!ĈćććććććĈ": 2117,
      "!!!!!!!!!!!!!!!!!!!%&'(": 2118,
      "ďĉ!ďĉďĉďĉďĉďĉďĉďĉďĉ!!": 2119,
      "32232323": 2120,
      "3232222222222222222": 2121,
      "C!": 2122,
      "ďĉďĉďĉ%&'(ďĉďĉ!!": 2123,
      "ććĈ!Ĉ!ĈĈĈ!Ĉ!Ĉ!ĈĈćĈďĉ!!ďĉďĉ!!!)!)!!!!": 2124,
      "ďĉ!ďĉ!!!!!!ďĉďĉ!!!!ďĉďĉďĉ": 2125,
      "ďĈ!Ĉĉ": 2126,
      "ć%&'(ćććććĈ!Ĉ!Ĉ!ćĈ!Ĉ!": 2127,
      "ďĈĈĈĉ": 2128,
      "ďĉ!ďĉ%!&'(": 2129,
      "ďĉ%&'(ďĉďĉďĉďĉďĉďĉ": 2130,
      "ď!ďď": 2131,
      "Ĉ!ďĉ!ďĉďĉďĉďĉďĉ": 2132,
      "ććďĉďĉ)ćďĉ%&'(ććććććĈ!Ĉ!": 2133,
      "ď)ĉ": 2134,
      "ďĉ!ďĉďĉďĉďĉćďĉ!ďĉďĉďĉ": 2135,
      "ďĉďĉ%&'(ďĉďĉćĈ!ĈĈ!Ĉ!ďĉ!ďĉ!ďĉďĉďĉ!!": 2136,
      "ďĉďĉ%&ď'(ĉ": 2137,
      "%&'(ćĈ!Ĉ!": 2138,
      "!!!!!!!!!!!!!!!!!!!!%&'(": 2139,
      "ďĉ!!!!!!%": 2140,
      "ćĈ!ćĈďĉďĉďĉďĉ!ďĉďĉďĉďĉ!ďĉ!!": 2141,
      "%ď&'(ĉďĉďĉ": 2142,
      "ć%&'(ďĉďĉďĉ": 2143,
      "ďĉďĉ!!!ćććććććććććććććć": 2144,
      "ććć%ć&'(": 2145,
      "ďĉďĉ!!!!ďĉ!!": 2146,
      "A!": 2147,
      "ďĉďĉďĉďĉď%&'(ĉ": 2148,
      ")!)ďĉďĉďĉ!ďĉďĉďĉ!!ďĉďĉďĉďĉ!": 2149,
      "!!!!!!!!!!!!!!!!!!!!!!!!!!!!!!&'(": 2150,
      "ć%&'(!!!!!!!!!!!!!!!!!!!!!!!!!!!!!!!!": 2151,
      "ććććććĈ!ćĈĈďĉďĉ!!ďĉ": 2152,
      "!!)!)!!!!!!!!!!!!!!!!!!!!!!!!!!!!!!!!": 2153,
      "ĈĈĈ!": 2154,
      "ďĉ!ďĉ!ďĉďĉďĉďĉ": 2155,
      "Ĉ!Ĉ!Ĉ!Ĉ!ĈĈĈ!ĈĈĈ": 2156,
      "ďĉ!!Ĉ!ĈćĈ!Ĉ!Ĉ!ĈćĈ!ććďĉ!Ĉ!ĈćĈ!Ĉ!Ĉ!ĈćĈ!ćć": 2157,
      "Ĉ!Ĉ!ĈĈ!Ĉ!Ĉ!": 2158,
      "ďĉ!!!!!%": 2159,
      "%&'(ďĉďĉďĉďĉďĉďĉďĉďĉďĉďĉďĉďĉ": 2160,
      "3222323232222222222222222": 2161,
      "%&'(ďĉ!!ďĉ!ďĉďĉ!ďĉ!ďĉďĉďĉ!": 2162,
      "ććććććĈ!ććČďĉďĉďĉďĉďĉďĉďĉďĉ!!!ďĉďĉďĉďĉ": 2163,
      "ďĉĈ!ĈĈĈĈĈĈĈĈ!ĈĈĈďĉ!!!!!!!!!!!!!!!!": 2164,
      "ćĈ!Ĉ!ćĈ!ćĈ!Ĉ!ćĈ!Ĉ!ćĈ!ĈćĈĈćĈĈćĈĈćĈćĈĈćĈĈ": 2165,
      "%!!!!!!!!!!!!!!!!!!!!!!!!!!!": 2166,
      "Ėē": 2167,
      "ćĈ!ćĈ!ćĈĈ": 2168,
      "%&'(%&'(%&'(%&'(%&'(%&'(": 2169,
      "%&'(ďĉ!!!!!!!!!!!": 2170,
      "ć!Ĉ": 2171,
      "!!!ďĉďĉďĉďĉććĈ!Ĉ!Ĉ!Ĉ!Ĉ!Ĉ!ććĈ!ć": 2172,
      "!!!!!!!!!!!!!!!!!!%!!!!!!!!!!!!!!!!!!!!": 2173,
      "%ć&ć'(": 2174,
      "L!LK!LK!LK": 2175,
      "ē!Ħ": 2176,
      "%&'(ćććććććććććĈ!ćĈ!!ććĈ!ććĈ!": 2177,
      "%&'(ďĉ!ďĉďĉďĉćĈ!Ĉ!Ĉ!Ĉ!ĈĈ!Ĉ!Ĉ!Ĉ!": 2178,
      "%&'(ďĉ!ďĉ!!!!!!!!": 2179,
      "ďĉ!)": 2180,
      "ćĈć": 2181,
      "ćĈĈ!Ĉ": 2182,
      "Ĉ!ĈĈ!Ĉ!": 2183,
      "ďĉ!ďĉ%ď&'(ĉ": 2184,
      "ďĉ!!!ďĉ%&'(": 2185,
      "ď!Ĉ!ĉ": 2186,
      "ďĉ!!ďĉďĉďĉďĉďĉďĉ!ďĉďĉďĉďĉďĉďĉ!!": 2187,
      "ĈćĈĈćĈćĈĈĈćĈĈďĉ%&'(": 2188,
      "ħ)ę": 2189,
      "ďĦĉ": 2190,
      "ďK": 2191,
      "ďĉďĉďĉ)!)ďĉďĉďĉďĉďĉďĉ!!!": 2192,
      "%&'(ĉĉĉĉĉ": 2193,
      "ćďĉ!ďĉďĉďĉ%&'(ďĉďĉďĉďĉďĉ": 2194,
      "%&'(ďĉďĉďĉďĉććĈ!Ĉ!ĈĈĈ!!ćĈ!Ĉ!Ĉ!Ĉ!ćďĉďĉ!!": 2195,
      "%!!!!!!!!&'(": 2196,
      "!!!!!!!!!!!!!!!!!!!!!!!!!!!!!!%!!!!!!!!": 2197,
      "ćĈĈĈćĈ!ĈĈĈĈ!ĈĈ!Ĉďĉďĉďĉďĉďĉďĉ!%&'(%&'(": 2198,
      "ďĈĉ": 2199,
      "ďĉćććďĉ!ďĉďĉ!ďĉďĉćććććďĉ!": 2200,
      "ć%&'(ďĉĈ!ćĈ!Ĉ!Ĉ!ćĈ!Ĉ!Ĉ!ĈĈ!ćĈ!": 2201,
      "ďĉďĉďĉďĉďĉ!)!)!ďĉďĉ!!!)!)!!ďĉďĉďĉďĉďĉ!!": 2202,
      "ďĉďĉďĉďĉ%&'(ďĉďĉ!": 2203,
      "ďĉďĉďĉďĉććĈ!Ĉ!ĈĈĈ!!ćĈ!Ĉ!Ĉ!Ĉ!": 2204,
      "ď%&'(ĉďĉďĉďĉďĉ": 2205,
      "LLLLLLLLLLLL": 2206,
      "!!!!!!!!!%!&'(": 2207,
      "&'ć(": 2208,
      "ď!!ĉ": 2209,
      "%ĈĈ&'(": 2210,
      "!ďĉ!!!!!!!!!!!!!!!!!!!!!!!!!!!!!!!!": 2211,
      "L!L": 2212,
      "!!!!!!!!!!!!ďĉ!!ďĉ!!!!!!!!": 2213,
      "ćĈ!ćďĉďĉďĉďĉďĉ!!ďĉ!!!!": 2214,
      "ććĈććďĉďĉďĉ!!ďĉ!!ďĉ!!!!!!!!)!!!!!!!!)!": 2215,
      "RTVa!!!SĂĄĆ!!!!R!!!SĈ!ćĈ!ćĈ!Ĉ!Ĉ!": 2216,
      "ďĉďĉ!!!ćććććććććććććććććććććććććć": 2217,
      "Bĉ": 2218,
      "ćďĉ!ďĉďĉďĉďĉ!!": 2219,
      "ďħĉ": 2220,
      "%&'(ďĉĈ!Ĉ!ĈĈĈ!Ĉ!Ĉ!Ĉ!ĈĈĈĈ": 2221,
      "!%ď&'(ĉ": 2222,
      "!!!%!!!!!!!!!!!!!!!!": 2223,
      "ďĉ!!!!!!!!!!%": 2224,
      "ćććććććĈĈ": 2225,
      "Ĉ!Ĉ!ĈĈ!Ĉ!Ĉ!Ĉ!ďĉďĉďĉďĉďĉ!ďĉďĉďĉ!": 2226,
      "ććĈ!Ĉ!Ĉ!Ĉ!Ĉďĉďĉďĉďĉďĉďĉďĉďĉ": 2227,
      "ĈĈĈĈĈĈĈĈĈĈĈĈĈĈ!Ĉ!Ĉ!Ĉ!Ĉ!ĈĈĈ!ĈĈďĉ!ďĉďĉďĉ": 2228,
      "Ĉ!%&'(Ĉ!Ĉ!Ĉ!Ĉ!ĈĈĈ!ĈĈĈ": 2229,
      "!!!!!!!!%!!!!!!!!!!!!": 2230,
      "ćĈ!Ĉ!Č": 2231,
      "ćďĉĈ!ćĈ!Ĉ!Ĉ!ćĈ!Ĉ!Ĉ!ĈĈ!": 2232,
      "Ĉ!ćĈ!ć%&'(": 2233,
      "ĈĈ!ĉ": 2234,
      "ďĉ!ďĉďĉ!!ďĉďĉ)ďĉďĉ!ďĉďĉ!!ďĉ!!!!ďĉďĉďĉďĉ": 2235,
      "ĖĖĖĖ": 2236,
      "Ĉ!Ĉććďĉ!ćĈ!ćĈďĉďĉďĉďĉ!": 2237,
      "ććććććććĈ!ćććĈ!Ĉ!ćĈ!%&'(ďĉ": 2238,
      "ćďĉ!!!!!!!!!ďĉďĉďĉďĉďĉ)!)": 2239,
      "ďćććĉ": 2240,
      "ćĈ!ďĉďĉďĉďĉďĉďĉďĉďĉďĉďĉďĉďĉ": 2241,
      "ďĉďĉďĉďĉďĉďĉďĉďĉ!!!": 2242,
      "!!!!!!!!!!!!!!!!!!!!!!!!!!!!!ďĉ": 2243,
      "%Ĉ&'(ĈĈĈ": 2244,
      "ďĉďĉďĉ%&'(ďĉďĉďĉďĉ": 2245,
      "ćĈ!Ĉ!ćĈĈćďĉćĈ!ććĈ!ćĈ!Ĉ": 2246,
      "ďĉ!ďĉďĉďĉďĉďĉďĉďĉďĉďĉďĉ!!ććć": 2247,
      "ćČ": 2248,
      "ďĉďĉ!ďĉďĉďĉďĉ!ďĉ!!": 2249,
      "ćććĈ!Ĉ!Ĉ!ćĈ!Ĉ!Ĉ!Ĉ!Ĉ!!": 2250,
      "ďĉ%&'(ďĉďĉďĉďĉ": 2251,
      "!!!%!!!!!!!!!!!!!!!!!!!!": 2252,
      "ďĉďĉďĉďĉďĉ!!ďĉ!!!!!!!ďĉ!!ďĉďĉ!!!": 2253,
      "ćĈ!Čďĉďĉ!ďĉďĉďĉďĉďĉďĉďĉďĉ": 2254,
      "%!ć&'(": 2255,
      "&ď'(": 2256,
      "0000111": 2257,
      "ď!!!": 2258,
      "ďĉďĉ!!!!!!!!!!!ďĉćććĈ!Ĉ!Ĉ!Ĉ": 2259,
      "ćĈ!Ĉ!Ĉ!ĈĈ!Ĉ": 2260,
      "ďĉďĉďĉďĉ!!!!!!!!!ďĉ!!!!!!!!": 2261,
      "%&'(ďĉďĉďĉďĉďĉďĉďĉďĉďĉćććć": 2262,
      "ćĈ!Čďĉďĉ!%&'(ďĉďĉďĉďĉďĉďĉďĉďĉďĉćććć": 2263,
      "ďĒ": 2264,
      "ćć%ć&'(": 2265,
      "&'(!ďĉ!)!)!!!!!!!!!!ďĉ!!!!!!": 2266,
      "ďĉďĉďĉďĉďĉ!ďĉććĈ!Ĉ!Ĉ!Ĉ!Ĉ!Ĉ!Ĉ!ĈĈćĈ": 2267,
      "Ĉ!ďĉďĉćĈ!ďĉ!%&'(": 2268,
      "Ĉ!Ĉ!Ĉ!Ĉ!!Ĉ!Ĉ!Ĉ!Ĉ!!Ĉ!Ĉ!Ĉ%&'(": 2269,
      "ďĉćććĈĈ!ćĈ!Ĉ!ĈćĈĈĈćĈĈĈćĈĈćććć": 2270,
      "ćććĈ!ćĈ": 2271,
      "ďĉďĉ!ďĉďĉďĉďĉďĉďĉ!": 2272,
      "Ĉ!Ĉ!ĈĈ!Ĉ!ćĈ!Ĉ!": 2273,
      "!!!%!!!!!!!!!!!": 2274,
      "ďĉ!ďĉďĉďĉďĉďĉďĉďĉďĉ%&'(": 2275,
      "32233": 2276,
      "ććĈ!Ĉ!Ĉ!ĈćĈ!Ĉ!Ĉ!Ĉ!Ĉ!Ĉ!Ĉ!Ĉ!Ĉ!Ĉ!": 2277,
      "ćććććĈ!ćĈ!ććććĈ!ććĈ!ćććĈ!ćććĈć%&'(ďĉďĉ": 2278,
      "ćďĉ!ďĉďĉ!!ďĉďĉďĉďĉ!": 2279,
      "Ĕ!ďĉďĉďĉďĉ": 2280,
      "ďĉďĉ!!!!!!!!!!!ďĉćććĈ!Ĉ!Ĉ!Ĉ%&'(": 2281,
      "ďĉħ": 2282,
      "ćććĈ!Ĉ": 2283,
      "%&'(!!!!!!!!!!!": 2284,
      "%&'(ďĉďĉďĉďĉďĉďĉďĉ!": 2285,
      "ćĈ!Ĉ!Ĉ!Ĉ!Ĉ": 2286,
      "ďĉďĉďĉďĉ%&'(ďĉďĉ": 2287,
      "ďĉďĉďĉďĉďĉďĉď%&'(ĉ": 2288,
      "ďĉ!ďĉďĉďĉćććĈ!Ĉ!Ĉ!ćĈĈĈĈ!ćĈ!ĈĈ!ćĈ!ć": 2289,
      "Ĉ!ĈĈĈ!ĈĈĈć": 2290,
      "ĥ!Ĥ": 2291,
      "ćććććććććććĈ!ććĈ!Ĉ!ćĈ!Ĉ!ćĈ!ć!ďĉ!!ďĉ": 2292,
      "ďĉ!ďĉ!ďĉďĉďĉďĉ!ďĉďĉ": 2293,
      "Ĉ!!!": 2294,
      "ćĈ!ćĈ!ĈĈ!": 2295,
      "ďĉďĉ!)": 2296,
      "ďĉ!ďĉ%&'(!": 2297,
      "ďĉďĉďĉďĉďĉďĉďĉďĉ%&'(": 2298,
      "!ďĉ!!!!!!!!!ćććĈ!Ĉ!Ĉ!Ĉ!Ĉ!Ĉ!ĈĈĈĈĈĈĈĈĈĈĈĈ": 2299,
      "!!!!!!!!!!!!!!!&'(": 2300,
      "ďĉ!ďĉ!ďĉ%&'(ďĉďĉ": 2301,
      "ććĈ!Ĉ!Ĉ!ĈćĈ!Ĉ!ĈćĈććĈĈ!ĈĈĈďĉ!!!": 2302,
      "ďĉďĉ%&'ď(ĉ": 2303,
      "ĈĈĈĈĈćĈĈ": 2304,
      "ććććććććććććĈ!ćĈ!ĈĈ!ćĈ!ĈćććććććĈ": 2305,
      ">>>>": 2306,
      "ďĉ!ďĉďĉďĉďĉďĉďĉďĉďĉ!!ďĉďĉďĉďĉ!!!!ďĉ!!": 2307,
      ")M": 2308,
      "Lďĉ!": 2309,
      "Ğğ": 2310,
      "%&'(!!!": 2311,
      "ďĉďĉďĉďĉ%&'(!": 2312,
      "ďĉ!ďĉď%&'(ĉ": 2313,
      "ććććĈ!ĈĈ%&'(ďĉ!!!!!!!!!!!": 2314,
      "ďĉ!ďĉ!!!!!!!!!!!!!!!!ďĉ": 2315,
      "ćĈ!ĈĈ!ĈĈĈĈ!Ĉ!Ĉ!ĈĈĈĈĈĈĈĈ!ĈĈĈĈĈďĉ!ďĉďĉ!": 2316,
      "Ĉ!Ĉ!Ĉ!Ĉ!ĈćĈ!ĈĈ!ĈĈĈćĈćďĉďĉďĉ!!!": 2317,
      "ćććĈ!Ĉ!Ĉ!Ĉ!Ĉďĉ!ďĉ!ďĉ!": 2318,
      "%ććĈ": 2319,
      "Ē!!!!": 2320,
      "ėĥĤē": 2321,
      "ććććććĈ": 2322,
      "ďĉďĉ!ďĉ!ďĉďĉďĉďĉ": 2323,
      "ďĉďĉďĉ!ďĉďĉ!!": 2324,
      "Ĉ!Ĉ!ĈĈĈ!ĈćĈ!": 2325,
      "ćććďĉ!!ďĉďĉďĉ!": 2326,
      "!!!!!!!!!%!!!!": 2327,
      "ďĉďĉďĉďĉďĉ%&'(ďĉďĉďĉ!": 2328,
      "!!!!!!!!!!!!!!!!!!!%!!!!!!!!": 2329,
      "ćććććĈ!Ĉ!Ĉ!ćĈĈćĈďĉďĉććĈ!Ĉ!Ĉ!ćĈ!": 2330,
      "ďĉ!ďĉ!!ćĈ!ďĉďĉďĉĈ!Ĉ!Ĉ!Ĉ!Ĉ!ćĈ!ĈĈĈĈćĈ!ćĈ!": 2331,
      "ďĤĉ": 2332,
      "Ĉ!Ĉ!ĈĈ!Ĉ!ćĈ!Ĉ!ĈĈĈĈĈ": 2333,
      "ćďĉ!ďĉďĉďĉďĉďĉďĉďĉ": 2334,
      "ććććĈ!Ĉ": 2335,
      "ďĉďĉďĉď%ĉ&'(": 2336,
      ")!)!!!!!!!!!!!!ććĈ!ćĈ!ććĈ!": 2337,
      "!!!!!!!!!!!!!!!!!!!!%!!!!!!!!!!!!!!!!": 2338,
      "ďĉ!ďĉ!ďĉďĉďĉ!": 2339,
      "2322": 2340,
      "ć%&'(ďĉćĈ!ććĈ!ćĈ!ĈďĉććććććććććććĈ!ćĈ!Ĉ!": 2341,
      "ćććĈ!Ĉ!Ĉ!ćĈĈĈĈ!ćĈ!Ĉ": 2342,
      "ććĈ!ĈďĉĈ!Ĉ!ĈĈĈĈĈĈĈĈĈĈĈĈĈĈĈĈĈĈĈĈĈĈĈĈ": 2343,
      "%&'(ďĉ!!ďĉďĉ!!ďĉ!ďĉ!!ďĉďĉďĉ!ďĉććĈ!": 2344,
      "Lďĉ!K": 2345,
      "Ĉ!Ĉ!ĈĈĈ!ĈćĈ!ĈĈĈĈĈćĈĈ": 2346,
      "%!!!!!!!!!!!&'(": 2347,
      "'7": 2348,
      ")ĉ": 2349,
      "ć%ď&'(ĉ": 2350,
      "ĤĤ": 2351,
      "ďĉćććĈ!Ĉ!Ĉ!Ĉ": 2352,
      "!!!!!!!!!!!!!!!!!!!!!!!!!!!!!!!!!": 2353,
      "ććĈćĈ!Ĉ!Ĉ!Ĉ!Ĉ!Ĉ!": 2354,
      "ďĉďĉďĉ!ććĈ!ćďĉďĉďĉďĉ": 2355,
      "MMMMM": 2356,
      "ďĉ!ďĉ)))": 2357,
      "%&'(ďĉćĈ!ćĈ!Ĉ!Ĉ!ćĈ!Ĉ!Ĉ!ćĈ!Ĉ!Ĉ!ĈĈćĈĈ!Ĉ": 2358,
      "77'7": 2359,
      "ďĉććććĈ!ćĈ!Ĉ!": 2360,
      "ďďĉĉďĉďĉďĉďĉ": 2361,
      "Ĉ!Ĉ!ćĈĈćĈĈĈĈĈĈĈĈ": 2362,
      "ćĈ!Ĉ!ćĈ!ćĈ!ćĈ!Ĉ!ććććĈ!ććĈ!ć!%&'(ďĉ": 2363,
      "Ĉ!ĈććĈĈ!Ĉ!ććĈ!Ĉ!ĈĈ!ĈĈĈďĉďĉďĉďĉďĉďĉďĉ": 2364,
      "ďĉĈ!ĈĈĈĈĈĈĈĈ!ĈĈĈ!ďĉ": 2365,
      "66666666777777'7": 2366,
      "00001111": 2367,
      "%&'(ďĉďĉďĉďĉďĉďĉ": 2368,
      "%&'(!!!!!": 2369,
      "ććććććććććććĈ!ćĈ!Ĉ!": 2370,
      "Ĉ!ćĈ!Ĉ!Ĉ!": 2371,
      "ďĉďĉ%&'(ćććĈ!Ĉ!Ĉ!ćĈ!Ĉ!Ĉ!Ĉ!Ĉ!!": 2372,
      "ďĉ!ďĉďĉĈ!Ĉ!": 2373,
      "%!&'(ďĉďĉďĉ!!ďĉ!": 2374,
      "ďĉ!ďĉďĉďĉ!ďĉ!ďĉďĉďĉĈ!Ĉ!Ĉ!Ĉ!ććĈćć": 2375,
      "ćďĉďĉćĈ!ćĈ!Ĉ!Ĉ!ćĈ!Ĉ!Ĉ!ćĈ!Ĉ!Ĉ!ĈĈćĈĈ!Ĉ": 2376,
      "ććĈ!Ĉ!Ĉ!Ĉ!Ĉ!Ĉ!ććĈ!ć%&'(": 2377,
      "%!&Ĉ'(!": 2378,
      "!!!!!!!!!ććććĈ!ĈĈ%&'(ďĉ!!!!!!!!!!!": 2379,
      "ďĉćććććĈ!ĈĈćĈĈćĈ%&'(ďĉćććććććć": 2380,
      "!)": 2381,
      "Ĉĉ": 2382,
      "ď!!!!!!!!!!!!!!!!!!!!!!!!!!!!!!!!": 2383,
      "!!)!!!!!!!!!!!!!!!!!!!!!!!!!!!!!!!!": 2384,
      "Ĉ!Ĉ!Ĉ!Ĉ!ĈĈ!Ĉ!Ĉ!Ĉ!": 2385,
      "ďĉ!!!!RTVa!!!SĂĄĆ!!!!R!!!S": 2386,
      "ďĉ%&'(!!!!!!!!!!!!!!!!!!!!!!!!!!!!!!!!": 2387,
      "ďĉ%&'(Ĉ!ćĈ!Ĉ!Ĉ!Ĉ!Ĉ!Ĉ!ćĈ!ćĈ!ćĈ!Ĉ!Ĉ!": 2388,
      "))ħ!": 2389,
      "%&'(ďĉ!!ďĉďĉďĉ": 2390,
      "ďĉĈ!Ĉ!Ĉ!Ĉ!ĈĈĈĈĈĈĈĈĈĈĈĈĈĈ!Ĉ!Ĉ!Ĉ!Ĉ!ĈĈĈ!ĈĈ": 2391,
      "ďĉďĉ!ďĉďĉ%&'(ďĉďĉ!": 2392,
      "ćććĈ!Ĉ!Ĉ!ćĈ!Ĉ!ĈćďĉďĉďĉďĉććĈ!Ĉ": 2393,
      "ďĉďĉďĉďĉ!ďĉďĉ!!%!&'(ďĉďĉďĉ!!ďĉ!": 2394,
      "ďĉ!ďĉ!!!!ďĉďĉ!!ďĉ!!ďĉ!!!!!!)!!!!!!!!)!": 2395,
      "ĐĐ": 2396,
      "ďĉďĉććć": 2397,
      "%&'(!!!!": 2398,
      "ćĈ!ćĈ!Ĉ!ĈĈ!": 2399,
      "Ĉ!ĈĈĈ!ĈĈ!ĈĈĈĈ!ĈĈ!Ĉ": 2400,
      "'(3323": 2401,
      ")!)!!)!)!!!!!!!!!!!!!!!!!!!!": 2402,
      "ďĉ!ďĉďĉ!!ďĉďĉďĉďĉ!ďĉďĉ": 2403,
      "ďĉ!ďĉ!!!!!!!!!!!ďĉ!!ďĉďĉďĉďĉďĉďĉ!": 2404,
      "%&'(ďĉďĉďĉ!!!!!ďĉďĉďĉ!ďĉďĉćććććĈ!Ĉ!ćĈĈ": 2405,
      "%&'(ďĉďĉďĉ!!!!ďĉ!!!ćććć": 2406,
      "ćććććććććććĈ!ĈćĈ!Ĉ!ĈćĈ!": 2407,
      "ďĉ!ďĉďĉďĉďĉďĉďĉ!!ďĉ!ďĉďĉďĉďĉ!!": 2408,
      "ćďĉ!!!!ćďĉ!ćććććďĉ!ććććĈćććĈ!Ĉ!ĈćĈ!ć": 2409,
      "Ĉ!Ĉ!ćĈĈćĈĈĈĈĈĈĈĈĈ!Ĉ!ĈĈĈ!ĈćĈ!ĈĈĈĈĈćĈĈ": 2410,
      "!ĉ": 2411,
      "ćħ": 2412,
      "ćďĉďĉďĉďĉďĉďĉ": 2413,
      "ďĉ%&ď'(ĉ": 2414,
      "'(;": 2415,
      "ďĉďĉďĉďĉććĈ!Ĉ": 2416,
      "ďĉ!ď%ĉ&'(": 2417,
      "ďĉ!%&'(!": 2418,
      "ćććĈ!Ĉ!Ĉ!Ĉ!Ĉ!%&'(": 2419,
      "ďĉ%&'(!!": 2420,
      "ďĉďĉďĉ%&'(ćććĈĈ!ćĈ!Ĉ!ĈćĈĈĈćĈĈĈćĈĈćććć": 2421,
      "%Ĉ&'(!Ĉ!Ĉ!": 2422,
      "%&'(ďĉďĉćďĉććććććććććććććććĈ!Ĉ!ćĈ!Ĉ!ĈĈ!": 2423,
      "ćĈ!ĈćĈĈćĈĈĈĈĈĈĈ": 2424,
      "ďĉďĉďĉďĉ!!!!ďĉ!!ďĉďĉďĉďĉďĉďĉďĉďĉ!ćĈ!Č": 2425,
      "%&'(ďĉĈ!ĈĈĈĈĈĈĈĈ!ĈĈĈ": 2426,
      "\"%&-+/,'(%&-+/,'(%&-+/,'(%&-+/,'(": 2427,
      "!!Ħ": 2428,
      "!!!!!!!!!!!!!!!!%!!!!!!!!!!!!!!!!!!!!": 2429,
      "!!!!!!!!!!!%!!!!!!!!!!!!!!!!": 2430,
      "ďĉďĉďĉ%&'(ďĉ!ďĉďĉ": 2431,
      "ďĉďĉďĉ%&'(ćććĈ!Ĉ!Ĉ!Ĉ!Ĉ!Ĉ!Ĉ!Ĉ!Ĉ!Ĉ!": 2432,
      "ďĉďĉďĉďĉďĉďĉďĉ!ďĉ!ďĉďĉďĉďĉ": 2433,
      "ďĉďĉćććććďĉ!": 2434,
      "!!!!!!!!!!!!!!%&'(": 2435,
      "!!!!!!!!!!!!!!!!!!!!!!!!!!!!!!!%&'(%&'(": 2436,
      "Ĉ!!Ĉ!!": 2437,
      "%&'(ďĉďĉďĉĈ!Ĉ!Ĉ!Ĉ!Ĉ!ćĈ!ĈĈĈĈ": 2438,
      "ďKĉ": 2439,
      "%!!!!!!!&'(": 2440,
      "ďē": 2441,
      "ďĈ!ćĉ": 2442,
      "ďĉ)": 2443,
      "ććĈĈĈĈĈďĉďĉ)!)!!": 2444,
      "ďĉďĉďĉ!!!": 2445,
      "ć%&'(ďĉďĉďĉďĉććĈ!Ĉ": 2446,
      "ďď!!": 2447,
      "ďĉďĉďĉďĉďĉďĉ%ď&'(ĉ": 2448,
      "MMMMMMMMMMMMMMMMMMMMMMMM": 2449,
      "MMMMMMMMMMMMMMMMMMMMMMMMMMMM": 2450,
      "!!!!R%&'(TVa": 2451,
      "ďĉ!ďĉďĉďĉĈ!ĈĈćďĉďĉďĉďĉďĉďĉďĉ!ďĉ!ďĉďĉďĉ!": 2452,
      "!!!!!!!!!!!!!!!!!!!!!!%!!!!!!!!!!!!!!!!": 2453,
      "ćććĈ!Ĉ!Ĉ!ćĈ!Ĉ!Ĉć%&'(ďĉďĉďĉďĉććĈ!Ĉ": 2454,
      "66666666'7777777(788888888,-%&+": 2455,
      "ćććććććććććĈ!ĈćĈ!Ĉ!ĈćĈ!ć%&'(": 2456,
      "EFD": 2457,
      "%&'(!!!!!!!!!!!!!!!": 2458,
      "%&'(ćĈ!Ĉ!ćĈ!ćĈ!ćĈ!Ĉ!ććććĈ!ććĈ!ć!ďĉ": 2459,
      "ďĉ!Ħ": 2460,
      "ďĉ!!%&'(": 2461,
      "ćĈ!ćĈ!ćĈ!": 2462,
      ")!)!!!!!!!!!ććććĈ!ĈĈ": 2463,
      "ďĉ!ďĉ%&'(ďĉďĉ": 2464,
      "%&'(ĉĉ": 2465,
      "ďĉ!ďĉ!ďĉďĉ!!ďĉ!ďĉ!!": 2466,
      "ćććććććććććććććććććććććććććććććć": 2467,
      "ć%&'(ďĉ!ďĉďĉ!!ďĉďĉďĉďĉ!ďĉďĉ": 2468,
      "Ĉ!ĈĈ!ćĈ!ćĈ!": 2469,
      "ĈĈĈĈĈĈĈĈĈĈĈĈĈ": 2470,
      "ď!ď!": 2471,
      "ďĉ!ďĉďĉďĉ!!!": 2472,
      "%&'(ďĉďĉďĉ!ďĉ!ďĉ!ďĉ": 2473,
      "L!LKLLLL": 2474,
      "!!!!!!!!!!!!!!!!!%!!!!!!!!!!!!!!!!!!!!": 2475,
      "ćďĉďĉďĉďĉ!ććĈ!Ĉ!Ĉ!Ĉ!Ĉďĉďĉďĉďĉďĉďĉďĉďĉ": 2476,
      "0011010101'(3": 2477,
      "ďĉćććććĈ!Ĉ!Ĉ!ćĈĈćĈ%&'(ďĉďĉ": 2478,
      "%Ĉ!Ĉ": 2479,
      "Ėďĉ": 2480,
      "ďĉ!%&'(ďĉďĉďĉďĉ": 2481,
      "ďĉďĉ!ďĉ!ďĉ": 2482,
      "LLL!LK!LK": 2483,
      "!!!!!!!!!!!!!!!!!!!!!!!&'(": 2484,
      "ć%&'(ďĉ!ďĉďĉďĉďĉďĉďĉďĉďĉ": 2485,
      "%&'(ďĉ!ćĈ!ćĈďĉďĉďĉďĉ!ďĉďĉďĉďĉ!ďĉ!!": 2486,
      "ďĉď%&'(ĉďĉćććĈĈ!ćĈ!Ĉ!ĈćĈĈĈćĈĈĈćĈĈćććć": 2487,
      "!!!ďĉďĉďĉďĉ%&'(ďĉ!!ďĉ!ďĉďĉ!ďĉ!ďĉďĉďĉ!": 2488,
      "ććĈ!Ĉ!Ĉ!Ĉ!Ĉ!Ĉ!Ĉ!ĈĈćĈ%&'(ďĉďĉ": 2489,
      "ďĉ!ďĉďĉ!ďĉćććĈ!Ĉ!Ĉ!Ĉ!Ĉ!Ĉ!ćććććĈ!ćĈĈ": 2490,
      "%&'(%&'(ďĉ!!ććććććĈććĈ!ďĉćĈ!Ĉ!Čďĉďĉďĉ!": 2491,
      ")ďĉďĉďĉďĉďĉďĉďĉ!ďĉ!!ďĉďĉďĉďĉďĉďĉďĉ)!": 2492,
      "322222222222222222222222222222222": 2493,
      "%&'(ďĉ!!ďĉ!ďĉďĉ!ďĉďĉ!ďĉ!%&'(ďĉ!!!": 2494,
      "ďĉďĉ!!!ćććććććććććććććććććććććććć%&'(Ĉ!": 2495,
      "ćććĈ!Ĉ!Ĉ!ćĈĈĈĈ!ćĈ!ĈĈ!ćĈ!ć%&'(": 2496,
      ")!!": 2497,
      "ďĈĈĈĈ": 2498,
      "Ħē": 2499,
      "ďĉĈ!Ĉ!ĈĈĈ": 2500,
      "&'(ďĉ!!!!!!!!!!!!!!!!!!!!!!!!!!!!!!!!": 2501,
      "!!!!!!!!!!!!!!!!!!!!!!!!!!!!!!!!%!!!!": 2502,
      "ďĉďĉďĉ!ďĉ%&'(": 2503,
      "!!!!!!!!!!!!!!!!!!!!%!!!!!!!!!!!!": 2504,
      "!!!!!!!!!!!%!!!!": 2505,
      "ďĉďĉďĉ!!ććććĈ!Ĉ!": 2506,
      "ďĉ!ďĉďĉď%&'(ĉ": 2507,
      "!!!!!!!!!!!!!!!!!!!!!!!!!!!%!!!!": 2508,
      "!!!!!!!!!!!!!%!!!!!!!!!!!!!!!!": 2509,
      "ćĈĈĈĈĈĈĈĈĈĈĈĈĈĈ": 2510,
      "ććććććĈććĈ!ďĉďĉďĉ!ććĈ!ć": 2511,
      "ďĉĈ!Ĉ!Ĉ!Ĉ!Ĉ!Ĉ": 2512,
      "ćĈ!ďĉććĈ!Ĉ!Ĉ!Ĉ!ćĈ!Ĉ!!Ĉ!ćĈ!ćĈ!ććĈ!Ĉ!": 2513,
      "ćĈ!Ĉ!Ĉ!Ĉ!Ĉ!Ĉ%&'(ďĉĈ!Ĉ!Ĉ!Ĉ!": 2514,
      "ĈĈĈ!Ĉ!Ĉ!ĈĈĈĈ!Ĉ!ĈĈ!Ĉ!Ĉ!ĈĈĈĈćďĉďĉ": 2515,
      "ćďĉďĉďĉĈ!ĈĈĈĈĈ!ćĈ!Ĉ!ĈćĈĈĈćĈĈĈĈĈĈ!ĈĈ!ĈĈĈ": 2516,
      "ćććććććĈĈććććććĈ!ćĈĈ": 2517,
      "Ĕ!ďĉďĉďĉďĉćććďĉ!": 2518,
      "ććĈćĈ!Ĉ!Ĉ!Ĉ!Ĉ!Ĉ!ććĈ!Ĉ!Ĉ!ćĈ!": 2519,
      "!!Ĉ": 2520,
      "ďĉďĉďĉďĉďĉ!ďĉ!!": 2521,
      "ćĈ!ĈĈ!Ĉ!Ĉ!Ĉ!": 2522,
      "ďĉ%&'(ďĉďĉďĉďĉďĉďĉďĉ!": 2523,
      "!!!!!!!!!!!!!!!!!!!!!!!!%!!!!": 2524,
      "ďĉ!ďĉďĉ!%&'(": 2525,
      "ćĈ!ďĉ!ďĉďĉďĉďĉďĉďĉďĉďĉ": 2526,
      "ďĉďĉ!!ďĉ!!!!ďĉďĉďĉďĉ": 2527,
      "ćĈ!Ĉ!ĈĈćĈćĈĈĈĈĈĈĈĈĈĈĈĈďĉ!!ďĉďĉďĉďĉďĉďĉ!": 2528,
      "%ćć&": 2529,
      "ćĈ!ćĈ!Ĉ!ćĈ!ĈćĈ!ĈĈ!ĈćĈćĈćĈćććĈćĈćććĈćĈ": 2530,
      "ć%&'(ďĉ!!ďĉ!ďĉďĉďĉ!ďĉ!!!!!ďĉ!ďĉďĉďĉďĉ": 2531,
      "ćďĉďĉćććććććĈ!Ĉ!Ĉ!ćĈ!Ĉ!Ĉ!ćďĉ!": 2532,
      "ďĉ!ďĉďĉďĉďĉ%&'(ďĉďĉďĉćďĉ!ďĉďĉďĉďĉ!!": 2533,
      "Ĉ!Ĉ!ćĈ!Ĉďĉ!!!!!!!!!": 2534,
      "ďĉ!ďĉ!!!!!!ďĉďĉ!!!!ďĉďĉďĉććĈ!Ĉ!": 2535,
      "ďĉććć": 2536,
      "%&'(ďĉ!ďĉďĉ!ďĉ!ďĉďĉďĉ!": 2537,
      "ďĉďĉďĉďĉ%&'(ďĉ": 2538,
      "ďĉ!ćĈ!Ĉ!ćĈ!ćĈ!ćĈ!Ĉ!ććććĈ!ććĈ!ć!ďĉ": 2539,
      "ćĈĉ": 2540,
      "Ĉ!Ĉ!Ĉ!Ĉ!ĈĈ!": 2541,
      "Ĉ!ĈĈĈĈ!ĈĈĈĈĈ": 2542,
      "ďĉ%&'(ďĉďĉďĉďĉďĉ": 2543,
      "23322": 2544,
      "!ďĉ!!!ďĉ!!!ćććĈćĈ!ćĈ!ĈĈ!Ĉ!": 2545,
      "ďďĉĉďĉďĉ": 2546,
      "ďĉ!!!ďĉ!!": 2547,
      "ćďĉďĉćĈ!ćĈ!Ĉ!Ĉ!ćĈ!Ĉ!": 2548,
      "ďĉďĉ!!!!RTVa!!!SĂĄĆ!!!!R!!!S": 2549,
      "ďĉďĉďĉďĉďĉďĉďĉďĉ!ćĈ!Čďĉďĉ!": 2550,
      "Ē!!Ē": 2551,
      "!!!!!!!!!!!!!!!!!!!!!!!%!&'(": 2552,
      "ććĈ!ĈćĈćĈćĈ!ĈćĈĈ%&'(ďĉďĉďĉ": 2553,
      "ćĈ!ćĈ!ćĈ!ĈĈ!Ĉ!ćĈ!ćĈ!Ĉ!Ĉ!": 2554,
      "ďĉďĉ!!ďĉććĈ!ĈĈĈĈĈ!ćďĉďĉ!!!!": 2555,
      "ććĈ!ćĈ!ćĈ!ćďĉ!!!!!!!!!!!!!!!ďĉ": 2556,
      "!!!!!!!!!!!!!!!!!!!!!!!!!!!!!!!!!!!%&'(": 2557,
      "!!!%!&'(!!!!!!!!!!!": 2558,
      "ďĉ!ďĉ!ďĉďĉ!ďĉ!ďĉďĉďĉďĉ!": 2559,
      ")Ĉ": 2560,
      "ML": 2561,
      "!!!!ďĉ!!!!!!!!!!!!!!!!!!!!!!!!": 2562,
      "!!!!!!!!%!!!!": 2563,
      "ćĈ)!)!!Ĉ!Ĉ!ĈĈ!!!!!": 2564,
      "ďĉďĉ!ďĉďĉ!!": 2565,
      "Ĉ!ćĈ!Ĉ!Ĉ!Ĉ!Ĉ!": 2566,
      "Ĉ!ćĈ!Ĉ!Ĉ!Ĉ!Ĉ!ćĈ!Ĉ!ćĈ!ćĈ!ćĈ!ćĈ!": 2567,
      "ďĉ!!!!!!!%": 2568,
      "ď%&'(ĉďĉ!ďĉďĉďĉďĉďĉďĉďĉďĉ!": 2569,
      "ďĉďĉ%&'(ďĉ!!": 2570,
      "!ďĉ!!!!!!!!": 2571,
      "%Ĉ&'(!Ĉ!Ĉ": 2572,
      "%&'(ďĉďĉćĈ!ćďĉďĉ!ďĉďĉćććććĈ!ćČ": 2573,
      "ďĉ!ďĉďĉ%ď&'(ĉ": 2574,
      "ďĉďĉďĉďĉďĉďĉďĉ!!!": 2575,
      "ď%ĉ&'(!!": 2576,
      "ć!Ĉ!": 2577,
      "ďĉďĉďĉćďĉďĉďĉďĉ!": 2578,
      "ďĉďĉ!ďĉ)))": 2579,
      "!!!!!!!!!!%!!!!!!!!": 2580,
      "ďĉďĉďĉďĉďĉ)!)ďĉďĉďĉ!ďĉďĉďĉ!!": 2581,
      "%&'(ďĉďĉďĉ!!!!!!!!!!": 2582,
      "!!!!!!!!!!!!!!!!!!%!!!!!!!!!!!!": 2583,
      "ćććććĈ!Ĉ!Ĉ!ćĈĈćĈďĉďĉĈ!Ĉ": 2584,
      "ćććďĉććććććĈ!ććČďĉďĉďĉďĉďĉďĉďĉďĉ!!!": 2585,
      "6666666677'77777(788888888,-%&+": 2586,
      "32222323232222222222222222": 2587,
      "%&'(ďĉĈ!ĈĈĈĈĈĈĈĈ!ĈĈĈ!": 2588,
      "ćĈĈĈĈĈĈĈĈĈĈĈĈĈĈćĈ!ĈćĈĈćĈĈĈĈĈĈĈ": 2589,
      "ĥ!!": 2590,
      "ĈĈĉ": 2591,
      "ćĈ!ďĉďĉďĉĈ!Ĉ!Ĉ!Ĉ!Ĉ!ćĈ!ĈĈĈĈ": 2592,
      "ďĉ!))ħ!": 2593,
      "ćĈĈĈĈćć": 2594,
      "!!!!!!!!!!!!!!!!!!!!!!!!!!!!%!!!!!!!!": 2595,
      "ĈĈĈĈĈĈĈĈĈĈĈĈĈĈĈĈĈ!": 2596,
      "%Ĉ&'(ĈĈĈĈ": 2597,
      "001101010101": 2598,
      "!!!!!!!!!!!!!!!!!%!!!!!!!!!!!!": 2599,
      "Ĉ!Ĉ!Ĉ!ĈĈĈĈ!Ĉ!ĈĈ!Ĉ!Ĉ!ĈĈĈĈ": 2600,
      "%)": 2601,
      "ćď%&'(ĉ!": 2602,
      "ďĉĈ!Ĉ!Ĉ!Ĉ!ĈćĈĈĈ!ĈĈĈ": 2603,
      "!!!!!!!!!!!!!!!!%!!!!!!!!!!!!": 2604,
      "ććď": 2605,
      "ĈĈĈĈĈĈĈĈĈĈ": 2606,
      "ďĉďĉďĉ%&ď'(ĉ": 2607,
      ")!)!!!!!!!!!!ďĉ!!!!!!": 2608,
      "ďĉďĉ!!ďĉďĉďĉďĉććććĈ!ĈĈ!ćĈ!ĈĈ!Ĉ!Ĉ!ćĈ!ćĈ": 2609,
      "ďĉďĉďĉďĉďĉďĉďĉďĉďĉćććć": 2610,
      "ďĉďĉďĉďĉďĉďĉďĉďĉ!ďĉ": 2611,
      "ďĉ!ďĉďĉďĉďĉć%&'(": 2612,
      "ďĉ!ďĉ!%&'(": 2613,
      "ďĉďĉďĉďĉ!ďĉ!ďĉ!ďĉ!ďĉ!ďĉ!ďĉ": 2614,
      "22222244444444": 2615,
      "ďďĉĉďĉďĉďĉ": 2616,
      "232323232222222222222222": 2617,
      "ďĉďĉďĉďĉďĉ!!ďĉ!!!!!!!": 2618,
      "ďĉ!!!!!!!!!!!!!!!!!%": 2619,
      "ććććććĈććĈ!ďĉćĈ!Ĉ!Č": 2620,
      "!!!!!!!!!!!!!!!!!!!!!!!!!!%!!!!": 2621,
      "!&'(ďĉ))ďĉħ": 2622,
      "ćĈ!Ĉ!ĈĈćĈćĈĈĈĈĈĈĈĈĈĈĈĈďĉ!!": 2623,
      "ďĉ%&'(ďĉ!!!!ďĉ!!)ďĉďĉ!": 2624,
      "ćĈ!Ĉ!ćĈĈ!ćĈ!ćĈ!ĈĈ!Ĉ!Ĉ!": 2625,
      "32322": 2626,
      "ćďĉ!ďĉďĉ!!ďĉďĉďĉďĉ!ďĉďĉ": 2627,
      "ććććĈ!ĈĈďĉ!!!!!!!!!!!)!)": 2628,
      "ćĈ!Čďĉďĉ!ďĉďĉďĉďĉďĉďĉďĉďĉďĉ%&'(": 2629,
      "%ććć": 2630,
      "ć%ćĈ&'(!": 2631,
      "Ĉ!ćĈ!ćĈ!Ĉ!": 2632,
      "%&'(ďĉďĉďĉ!!ďĉ!!ďĉ!!!!!!!!)!!!!!!!!)!": 2633,
      "ććććĈ!Ĉ!Ĉ!Ĉ!": 2634,
      "ďĉ!%!&'(": 2635,
      "ďĉ!!ďĉďĉ!!ďĉ!ďĉ!!ďĉďĉďĉ!ďĉ": 2636,
      "%&'(ďĉćććĈĈ!ćĈ!Ĉ!ĈćĈĈĈćĈĈĈćĈĈćććć": 2637,
      "ďĉďĉďĉďĉďĉďĉďĉďĉďĉ!!!ďĉ%&'(": 2638,
      "ććĈ!Ĉ!Ĉ!ĈĈ!Ĉ": 2639,
      "ćďĉććććććĈ!Ĉ!": 2640,
      "!!!!!!!!!!!!!!!!!!!!!!!!%!!!!!!!!!!!!": 2641,
      "ďĉďĉ%&'(ďĉďĉďĉďĉ!": 2642,
      "ć%&'(ďĉďĉ!ďĉďĉ": 2643,
      "ćĈ!ćďĉďĉďĉďĉćććć": 2644,
      "ďďĉĉďĉ": 2645,
      "ďĉďĉďĉďĉďĉďĉćĈ!Ĉ!Ĉ!ĈĈ!Ĉ": 2646,
      "ďĉďĉďĉďĉďĉďĉďĉ%&'(ďĉ": 2647,
      "001101'(3": 2648,
      "!!!!!!!!!!!!!ďĉ!ďĉ!!!!!!": 2649,
      "!!!!!!!!!!!!!!!!!!!!!!!!!!!!!!!%!!!!": 2650,
      "!!!!!!!!!!!!!!!!!!!!!%!!!!!!!!!!!!!!!!": 2651,
      "ēēē": 2652,
      "ďĉ!!!!ďĉďĉďĉďĉďĉďĉďĉďĉďĉďĉćććĈ!Ĉ!": 2653,
      "Ĉ!ĈĈĈ!ĈĈĈć%&'(ďĉďĉ!ďĉďĉ": 2654,
      "MMM!!!!!!!!!!!!!!!!!!": 2655,
      "ćďĉćććďĉ!!ďĉďĉ%&'(ďĉ!ďĉ": 2656,
      "ďĉććććĈ!ćĈ!Ĉ!ćĈ!Ĉ!ćĈ!ćĈ!Ĉ!": 2657,
      "Aē": 2658,
      "!!!!!ďĉ": 2659,
      "ďĉ%&'ď(ĉ": 2660,
      "!!!!!!!!!!!!!!!!&'(ćďĉ!ďĉ": 2661,
      "'(!": 2662,
      "ďĉďĉďĉ!ďĉ!!ďĉďĉďĉďĉďĉďĉ!": 2663,
      "%&'(ďĉćĈ!Ĉ!Č": 2664,
      "ď%&'(ĉďĉ!!": 2665,
      "Ĉ!ĈĈĈĈĈ!ćĈ!Ĉ!ĈćĈĈĈ": 2666,
      "ďĉďĉďĉ!!ďĉďĉ!": 2667,
      "ćĈ!ć%Ĉ&'(!": 2668,
      "%!&": 2669,
      "%!&'Ĉ(!": 2670,
      "L!LKLL!LK": 2671,
      "ďĉďĉďĉďĉďĉ!)!)!": 2672,
      "ćďĈ!ĉ": 2673,
      "Ĉ!Ĉ!ĈĈ!Ĉ!Ĉ!Ĉ!ďĉďĉďĉďĉďĉ!ďĉ": 2674,
      "%&'(ďĉďĉďĉďĉďĉďĉďĉďĉďĉďĉďĉďĉďĉ": 2675,
      "ćććććććĈ!Ĉ!Ĉ!ććĈĈććĈ!ćĈĈďĉďĉ!!!": 2676,
      "ďĉďĉďĉď%&'(ĉďĉďĉďĉďĉ": 2677,
      "ďĉ!ďĉďĉďĉďĉ!!!!!!!!!!!!!!!!!!!!!Ĉ!Ĉ!Ĉďĉ": 2678,
      "Bďĉ": 2679,
      "ďĐ": 2680,
      "ĖĦ": 2681,
      "Ĉ!ćĈ!Ĉ": 2682,
      "ďĉď%&'(ĉ!": 2683,
      "ĈĈ!!": 2684,
      "&'(!!!!!!!!!!!!!!!": 2685,
      "%&'(ććĈ!ćďĉďĉďĉďĉďĉďĉďĉ!!": 2686,
      "ćĈ!Ĉ!ćďĉ!!": 2687,
      "ďĉďĉďĉďĉ!!!": 2688,
      "ćĈ!ćĈ!ććĈ!": 2689,
      "ďĉďĉďĉććĈ!Ĉ": 2690,
      "ďĉďĉďĉ%!&'(": 2691,
      "ďĉ!ďĉďĉďĉďĉ%&'(ćďĉ!": 2692,
      "Ĉ!Ĉ!Ĉ!ĉ": 2693,
      "'(323": 2694,
      "ć%&'(Ĉ!Ĉ!": 2695,
      "!!&'(!!!!!!!": 2696,
      "ď!ďďďď": 2697,
      "ćďćĉ": 2698,
      "!!!!!!!!!!!!!!%!!!!!!!!!!!!!!!!!!!!!!!!": 2699,
      ")!)!!!!!!!!!!!!!!!!!!%": 2700,
      "ćććććććĈ!ćĈ!Ĉ!Ĉ!Ĉ!Ĉ!ćĈ!Ĉ!ćĈććĈć%&'(ďĉ": 2701,
      "ćĈ!ćĈ!Ĉ!ćĈ!Ĉ!Ĉ!ćĈ!Ĉ!ćďĉ!ďĉďĉďĉďĉ": 2702,
      "%&'(%&'(ďĉ!!ććććććĈććĈ!%&'(ďĉćĈ!Ĉ!Č": 2703,
      "R%&'(TVa!!!SĂĄĆ!!!!R!!!S": 2704,
      "ħ)ę!": 2705,
      "ďĉďĉďĉ!ďĉ!!ďĉďĉďĉďĉ%&'(ďĉďĉ!": 2706,
      "!!!!!!!!!!ďĉ!!!!!!!!!!!!!!!!!!!!!!!!": 2707,
      "ć'ć(": 2708,
      "ďĉďĉďĉďĉććĈ!Ĉ!ĈĈĈ!!ćĈ!Ĉ!Ĉ!Ĉ!ć%&'(": 2709,
      "-+/,'(": 2710,
      "!!!!!%": 2711,
      "Ĉ!Ĉ!ćććĈ!": 2712,
      "ćĈ!%ć&'(": 2713,
      "ďĉďĉďĉďĉ%&ď'(ĉ": 2714,
      "MM!!!!!!!!!!!!!!!!!!": 2715,
      "!!!!!!!!!!!!%!!!!": 2716,
      "Ĉ!Ĉ!Ĉ!Ĉ!Ĉ!Ĉ!Ĉ!": 2717,
      "Ĉ!Ĉ!Ĉ!%Ĉ&'(!": 2718,
      "!LK!LK!LK": 2719,
      "ď!ĉďĉ": 2720,
      "ďĉďĉďĉďĉďĉ%&'(ďĉďĉďĉ": 2721,
      "ďĉďďĉĉďĉďĉďĉďĉ": 2722,
      "01010101010101'(3": 2723,
      "ććććĈ!Ĉ!Ĉ!Ĉ!Ĉ!ĈĈ!Ĉ!ćďĉ!": 2724,
      "ććĈ!ćććĈ!ćććĈ!ćććĈ!Ĉ!Ĉ!ďĉćććĈ!ć%&'(": 2725,
      "ďĉ!ďĉďĉ%&'(ďĉďĉďĉďĉ": 2726,
      "ćďĉćĈ!ććĈ!ćĈ!Ĉ%&'(ďĉćććććććć": 2727,
      "ć%&'(ďĉ!ććććććććĈ!Ĉ!ćĈĈćĈ!ĈĈćĈ!ćĈĈćĈ!Ĉ!": 2728,
      "%Ĉ!&'(": 2729,
      "ćďĉ!ďĉďĉďĉďĉďĉďĉďĉ%&'(ďĉ": 2730,
      "ćďĉćĈ!ććĈ!ćĈ!Ĉ%&'(ďĉććććććććććććĈ!ćĈ!Ĉ!": 2731,
      "EF": 2732,
      "ćĉĉ": 2733,
      "Ĉ!ďĉ": 2734,
      "ćĈ!Ĉ!ĉ": 2735,
      "!!!Ħ": 2736,
      "ďĉ!!ďĉďĉďĉďĉďĉďĉďĉ)!": 2737,
      "!!!!!!!!!!!!!!!!!!!!!ďĉ": 2738,
      "ďĉďĉďĉďĉďĉďĉďĉďĉďĉ!ďĉďĉďĉ%&'(": 2739,
      "ďĉďĉďĉ%&'(ďĉďĉ!": 2740,
      "ďďĉĉ!!": 2741,
      "Ĉ!ĈĈ!ĈĈ!ĈĈ!ćĈ!ćĈ!": 2742,
      "ďĉďĉďĉďĉďĉďĉćďĉ)ħ": 2743,
      "!!!!!!!!!!!!!ďĉďĉďĉďĉďĉ!!": 2744,
      "ćĈĈĈĈĈĈĈĈĈĈĈĈĈĈĈĈ!": 2745,
      "!!!!!!!!!ďĉ!!!!!!!!!!!)!!!!!!!!!!!!!!!": 2746,
      "!&'(ďĉ))ďħĉ": 2747,
      "ďĉďĉ!!ďĉććĈ!ĈĈĈĈĈ!ćďĉďĉ!!!!!!!!": 2748,
      "ćďĉďĉ%&'(ďĉďĉ": 2749,
      "ďLĉK": 2750,
      "3222232323232222222222222222": 2751,
      "%&'(ďĉďĉ!ďĉ!!ďĉ!ďĉďĉďĉďĉ!ďĉ!ďĉďĉďĉďĉ": 2752,
      "ďĉ!ďĉ%&'(ďĉďĉĈ!Ĉ!Ĉ!Ĉ!ććĈćć": 2753,
      "ďĈĈĈĈĉ": 2754,
      "32222224%&52226'(78,": 2755,
      "ćďĉďĉďĉ%&'(": 2756,
      "Ĉ!ćĈ!ććĈ!": 2757,
      "%&'(Ĉ!Ĉ!ĈĈĈĈĈĈćĈ!ĈĈĈ%&'(ďĉ%&'(%&'(%&'(": 2758,
      "ćććć%&'(": 2759,
      "Ĉ!Ĉ!Ĉ!Ĉ!Ĉ!ćĈ!Ĉ!": 2760,
      "Ĉ!Ĉĉ": 2761,
      "ďĉ!!ďĉ!ććĈ!": 2762,
      "ďĉ!!ďĉ!!!!!!)!!!!!!!!)!": 2763,
      "01001011": 2764,
      "!!!!!!!!!!!%!!!!!!!!!!!!": 2765,
      "ďĉ!!!!ďĉ!!": 2766,
      "ď%&'(ĉďĉďĉďĉďĉďĉďĉďĉďĉ": 2767,
      "ď%&'(ĉďĉďĉďĉďĉďĉďĉ": 2768,
      "!!%!&'(": 2769,
      "!!%ď&'(ĉ": 2770,
      "ćďĉ!!!": 2771,
      "ďĉ!!!!!!!!!!!!!!!!!!!!!!!!!!!!!!!!!!!%": 2772,
      "!&'(!ďĉ!)!)!!!!!!!!!!ďĉ!!!!!!": 2773,
      "!!!%!!!!!!!!": 2774,
      "%ď&'(ĉďĉďĉďĉ": 2775,
      "ďĉďĉ%&'(Ĉ!Ĉ!ĈĈ!Ĉ!ĈĈĈĈ!Ĉ!ĈĈ!Ĉ!Ĉ!!": 2776,
      "ćĈ!Ĉ!Ĉ!%&'(": 2777,
      "ďĉďĉďĉďĉďĉďĉ!%&'(": 2778,
      "ď%ĉ&'(ďĉ": 2779,
      "ďĉ!!!!!ďĉ!ďĉďĉďĉďĉďĉďĉďĉ": 2780,
      "ćććććććĈ!ćĈ!Ĉ!ĈćĈ!Ĉ!": 2781,
      "!!!!!!!!!!!!!!!!!!!!!!!!!!!!!!!%&'(ďĉ": 2782,
      "3223322": 2783,
      "ďĉ!ďĉ!!!!!!!!!!!!!!!!ďĉ!!!!!!!!!!!!": 2784,
      "ćďĉ!ďĉďĉďĉďĉďĉďĉďĉďĉ)ďĉďĉďĉďĉďĉďĉďĉ!": 2785,
      "ďĉ!ďĉććććĈ!ćĈ!ĈĈ!ććĈ!ćĈ!ĈĈ!ćĈ!Ĉ!ćĈ!ďĉ!)": 2786,
      "ćďĉ!ďĉďĉ!!ďĉďĉďĉ%&'(ďĉ!ďĉďĉ": 2787,
      "ćĈ!ĈĈĈćĈćĈćĈĈĈćĈďĉďĉ!ďĉ!!ďĉ!ďĉďĉďĉďĉ!": 2788,
      "3322222323232222222222222222": 2789,
      "Ĉ!Ĉ!Ĉ!Ĉ!Ĉ!ćĈ!ćĈ!Ĉ!ćĈ!Ĉ!Ĉ!ćĈ!Ĉ!": 2790,
      "'777": 2791,
      "Vb": 2792,
      "ďĉĈ!Ĉ!": 2793,
      "ćć%Ĉ&'(!": 2794,
      "ććććĈ!ĈĈ!ćĈ!ĈĈ!Ĉ!Ĉ!ćĈ!ćĈ": 2795,
      "ććĈćĈ!ĈĈ": 2796,
      "ćććĈ!Ĉ!ććććććĈ!ćĈĈ": 2797,
      "ćććĈ!Ĉ!ćĈ!ďĉ": 2798,
      "ďĉ!ďĉććć": 2799,
      "ďĉ!ďĉ!ďĉ!!ďĉ": 2800,
      "!!!%ď&'(ĉ": 2801,
      "!!!%!!!!!!!!!!!!&'(": 2802,
      "ďĉďĉďĉ%&'(Ĉ!Ĉ!Ĉ!Ĉ!!Ĉ!Ĉ!Ĉ!Ĉ!!Ĉ!Ĉ!Ĉ": 2803,
      "%&-+01'(;": 2804,
      "ććććĈ!ćĈćĈĈ": 2805,
      "ćĈććĈćĈ!ćĈ": 2806,
      "!!!!!!!!!!!!!%!!!!&'(": 2807,
      "&'Ĉ(": 2808,
      "ďĉĈ!Ĉ!Ĉ!Ĉ!ĈĈ": 2809,
      "Ĉ!ĈĈ!Ĉ!Ĉ!Ĉ!Ĉ!ćĈ!": 2810,
      "!!!!!!!!!!!!!!!!!)!)": 2811,
      "Ĉ!Ĉ!ĈĈĈĈĈ!Ĉ!Ĉ!ďĉĈ!Ĉ!ĈĈĈ!Ĉ!Ĉ!Ĉ!ĈĈĈĈ": 2812,
      "3232222": 2813,
      "ďĉďĉ!!ďĉ!ďĉ!!ďĉďĉďĉ!ďĉććĈ!ďĉ!ďĉ!!ćĈ!": 2814,
      "666666667777'777": 2815,
      "ćďĉďĉććĈ!ďĉďĉďĉďĉ!ďĉďĉ!!": 2816,
      "ććććććććĈ!Ĉ!Ĉ!Ĉ!ćĈĈĈĈ!Ĉ!ćĈ!ďĉďĉćďĉ": 2817,
      "ďĉďĉďĉďĉďĉ!ďĉďĉďĉďĉďĉ!ďĉďĉďĉ": 2818,
      "KKKK": 2819,
      "Ĉ!ćĈ!ćĈ!Ĉ!Ĉ!ďĉďĉ!!!!!!!RTVa!!!SĂĄĆ": 2820,
      "ďĉ!ďĉďĉďĉďĉćďĉ!ďĉďĉďĉĈ!ĈĈ": 2821,
      "ďĉ!ďĉ!ďĉďĉďĉďĉ!ďĉďĉĥďĉĈ!ĈĈ!ďĉćĈ!Č": 2822,
      "66666666777777'7(788888888,-%&+01": 2823,
      "%&'(ďĉĈ!ĈĈĈĈĈĈĈĈ!ĈĈĈďĉ": 2824,
      "ććĈ!Ĉ!Ĉ!ĈĈ!ĈćĈ!ćć": 2825,
      "32222224%&52226'(78,<": 2826,
      "%&-+01'(;32222224%&52226'(78,<": 2827,
      "%K": 2828,
      "Čďĉďĉďĉďĉďĉďĉďĉďĉ!!!ďĉďĉďĉďĉ": 2829,
      "Ĉ!))": 2830,
      "%&'(Ĉ!Ĉ!Ĉ!Ĉ!": 2831,
      "ćĈćĈćĈ!ćĈ!ććĈ!": 2832,
      "ďĉďĉďĉ%&'(ďĉ": 2833,
      "Ĉ!ćĈ!Ĉ!%&'(": 2834,
      "ďĉďĉďĉ!ćĈ!Ĉ!ćĈ!ćĈ!ćĈ!Ĉ!ććććĈ!ććĈ!ć!ďĉ": 2835,
      "ďĉ!ďĉćććĈ!Ĉ!Ĉ!Ĉ!Ĉ!Ĉ!ćććććĈ!ćĈĈ": 2836,
      "!!!%!!&'(": 2837,
      "ćĈ!ćĉ": 2838,
      "%Ĉ&'(!ĈĈĈ": 2839,
      "ďĉ!!!ďĉďĉďĉďĉďĉďĉďĉďĉ!": 2840,
      "ĈĈĈĈĈĈĈĈĈĈ!ĈĈĈĈ!ĈĈĈĈĈ": 2841,
      "!!!!!!!RTVa!!!SĂĄĆďĉćććďĉ!": 2842,
      "!!!!!!!!!!!!!!!!!!!!!!!!!!!%!&'(": 2843,
      "ďĉďĉćććććĈ!Ĉ!Ĉ!ćĈĈćĈ": 2844,
      "ĈćĈĈćĈćć": 2845,
      "%&ď'(ĉďĉ": 2846,
      "%&'ď(ĉďĉ": 2847,
      "ďĉ!ďĉďĉďĉďĉ!!ďĉďĉďĉ!": 2848,
      "ćďććĉ": 2849,
      "!!!!!!!!!!!!!!%!!&'(": 2850,
      "!!!!!!!!!!!!!!!%!!!!!!!!!!!!": 2851,
      "!!!!!!!!!!!!!!!!!!!!!!!!!!%!!!!!!!!!!!!": 2852,
      "%&'(ďĉćććĈ!ćďĉďĉďĉďĉďĉ!!ďĉ!!!!": 2853,
      "ďĉďĉ!!ďĉ!!!!!!!%!!!!!!!!!!!!&'(": 2854,
      "Ĉ!Ĉ!Ĉ!Ĉ!ĈćĈĈĈ!ĈĈĈćĈćĈĈĈĈĈĈĈćĈĈĈĈĈĈ": 2855,
      "Ĉ!Ĉ!Ĉ!Ĉ!ĈćĈĈĈ!ĈĈĈćĈćďĉďĉďĉ!!!": 2856,
      "ćććĈćĈ!ćĈćććĈ!Ĉ!Ĉ!Ĉ!Ĉ!ćĈ!Ĉ!": 2857,
      "ćĈ!Ĉ!Ĉ!Ĉ!Ĉ!Ĉ!Ĉ!Ĉ!ćĈ!ćĈ!Ĉ!ĈćĈ!Ĉ!%&'(ďĉ": 2858,
      "ďĉďĉ!!ďĉ!!!!!!)!!!!!!!!)ďĉďĉďĉ!!": 2859,
      "ďĉ!ďĉďĉďĉ!ďĉ!!!!!ďĉ!ďĉďĉďĉďĉďĉďĉďĉ": 2860,
      "ćďĉďĉ!ďĉďĉ!ďĉ)))": 2861,
      "AAAAAA": 2862,
      "322333222323232222222222222222": 2863,
      "ćĈćĈćĈ!ćĈ!ććĈ!ćĈććĈćĈ!ćĈ": 2864,
      "Bď": 2865,
      "LM": 2866,
      "ďĈ!Ĉ!Ĉ": 2867,
      "ďĈ!ĈĈ": 2868,
      "!!ććĈ!Ĉ!ĈćĈĈĈććĈĈĈććĈ!Ĉ!Ĉ!Ĉ!Ĉ!Ĉ!ćĈ": 2869,
      "Ĉ!Ĉ!ćĈ": 2870,
      "%&'(\"": 2871,
      "ďĉ!!ďĉ!": 2872,
      "ďĉďĉďĉM": 2873,
      "ććĈ!Ĉ!Ĉ!ĈćĈ!": 2874,
      "ďĉ%&'(ďĉďĉďĉďĉďĉďĉďĉďĉ": 2875,
      "ďĉ%&'(ďĉďĉďĉďĉďĉďĉďĉ": 2876,
      "LLLLLL!LK": 2877,
      "!&'(ďĉ!!!!!!!!!!!!!!!!!!!!!!!!!!!!!!!!": 2878,
      "!!!%!!!!!&'(": 2879,
      "-%&+01": 2880,
      "ďĉďĉďĉ%&'(ďĉďĉďĉ!": 2881,
      "'(788888888,": 2882,
      "010101'(333": 2883,
      "MMMMMMMMMMMMMMMMMMMM": 2884,
      "%!&'(!": 2885,
      "ďĉďĉ!!!!ďĉďĉ": 2886,
      "%&'ď(ĉ!!": 2887,
      "%&'(ďĉďĉ!ďĉďĉ": 2888,
      "Ĉ!Ĉ!ĈĈ!Ĉ!Ĉ!Ĉ!ďĉďĉďĉďĉďĉ!": 2889,
      "!!!!!!!!!!%!!!!": 2890,
      ")!)!!!!!!!!!!!!!!!!ďĉďĉďĉ!ďĉ!ďĉ!": 2891,
      "!!!!!!!!!!!!!!!!!!!!!!!%&'(%&'(": 2892,
      "777'(788888888,": 2893,
      "ďĉ!ďĉ!!!!!!!!!!!!!!!!ďĉ!!!!!!!!!%": 2894,
      "Ĉ!ďĈ!ĉ": 2895,
      "ćććĈćĈćĈ!ĈćĈćĈćĈćććĈĈĈĈĈ": 2896,
      "ćďĉ#$ćĈ!ććďĉ%&'(ďĉ!!!!ďĉ!!)ďĉďĉ!": 2897,
      "ďĉ!ďĉ!!!!!!ďĉďĉ!!!!ďĉďĉďĉ%&'(": 2898,
      "ďĉďĉďĉ!!ďĉćććĈ!Ĉ!Ĉ!Ĉ!ĈĈĈĈĈĈĈĈĈĈ!ćĈ!Ĉ!": 2899,
      "ćććććććĈ!ćČČďĉďĉďĉ!!!!!": 2900,
      "666666667777777'(788888888,": 2901,
      "ććĈ!ĈćĈćĈćĈ!ĈćĈĈďĉ%&'(ďĉďĉĈ!Ĉ!Ĉ!Ĉ!ćććĈ!": 2902,
      "%&'(ďĉ!!!ďĉďĉďĉ!!ďĉćććĈ!Ĉ!Ĉ!Ĉ!": 2903,
      "ďĉ!ďĉďĉďĉďĉďĉďĉďĉďĉďĉďĉ!!ććć%&'(ďĉ": 2904,
      "Ĉ!Ĉ!Ĉ!Ĉ!ĈĈ!ćĈ!Ĉ": 2905,
      "!ĥĤ": 2906,
      "C!!!": 2907,
      "ĉďĉďĉ": 2908,
      "Ĉ!ĥ": 2909,
      "Ĉ!Ĉ!%Ĉ&'(!": 2910,
      "%&'(ćĈ!ćć": 2911,
      "ćĈććĈ!": 2912,
      "ćĈ!ćĈ!ććććĈćĈ": 2913,
      "%&Ĉ'(": 2914,
      "!!!!!!!!!!!!!!!!!!!!%&'(ďĉ": 2915,
      "!!!!!!!!!!!%&'(": 2916,
      "ďĉ%&'(ććććććććććććĈ!ćĈ!Ĉ!": 2917,
      "ďĉ!ďĉďĉďĉďĉďĉ!": 2918,
      "-%&+": 2919,
      "Ĉ!Ĉ!Ĉ!Ĉďĉ!!!!!!!!!!!": 2920,
      "-%&+/,'(#$": 2921,
      "ďĉďĉďĉ%&'(ďĉďĉďĉ!ďĉďĉ!": 2922,
      "ććĈ!Ĉ!ĈćĈ!ĈććĈĈĈćĈĈĈćĈ!ĈććĈĈĈ": 2923,
      "RTVa!!!SĂĄĆ!": 2924,
      "ďĉďĉďĉďĉďĉćććććććĈ!Ĉ!ććććććĈ!ćĈĈ": 2925,
      "!!!!!!!!!%!!!!!!!!!!!!": 2926,
      "ćďĉďĉďĉĈ!ĈĈĈĈĈ!ćĈ!Ĉ!Ĉ": 2927,
      "ďĉćĈ!ďĉďĉďĉďĉďĉďĉďĉďĉďĉ%&'(ďĉďĉďĉ": 2928,
      "ććććććććĈ!ćććĈ!Ĉ!ćĈ!ďĉćĈ!Ĉ!ĈćĈ!": 2929,
      "666666667'777777(788888888,-%&+": 2930,
      "!!!!ďĉďĉ!!!!!!!!!!!!!!!!!!!!!)!)": 2931,
      "66666666777'7777(788888888,-%&+": 2932,
      "Ĉ!ćĈĈĈ!ĈĈĈ": 2933,
      "ć'Ĉ(!": 2934,
      "ďĉćććďĉ!ďĉďĉ!ďĉďĉćććććďĉ!ďĉďĉďĉ!ďĉ": 2935,
      "ďĉ!ďĉ%&'(!ďĉďĉďĉćďĉ!ďĉďĉďĉďĉ": 2936,
      "ćĈ!Ĉ!Ĉ!Ĉ!Ĉ!Ĉ%&'(ďĉĈ!Ĉ!Ĉ!Ĉ!Ĉ!ĈĈĈ!ĈĈĈć": 2937,
      "ďĉ!!ďĉďĉ!!ďĉ!ďĉ!!ďĉďĉďĉ!ďĉććĈ!%&'(": 2938,
      "ććććĈ!ćĈćĈĈćććć": 2939,
      "ć&'(": 2940,
      "ć%ćć&'(": 2941,
      "Ĉĉ!": 2942,
      "ďĈĈ!ĉ": 2943,
      "Ē!!ďĉ": 2944,
      "Ğ%&'(%&'(%&'(%&'(%&'(%&'(%&'(%&'(": 2945,
      "!!Ė": 2946,
      "Ĉ!%Ĉ&'(": 2947,
      "ĈĈĈ!Ĉ!Ĉ!Ĉ!ĈĈ!ćĈ!Ĉ": 2948,
      "%&'(ććććĈ!Ĉ!": 2949,
      "ćĈ!%Ĉ&'(": 2950,
      "ććććććć": 2951,
      "ćĈćĈ!Ĉ!": 2952,
      "Ĉ!ĈććĈ!Ĉ!Ĉ!ĈĈ!ĈćĈ!ćć": 2953,
      "!!!!!!!!!!!!%&'(": 2954,
      "ďĉďĉ!ďĉďĉďĉďĉ": 2955,
      "ďĉďĉďĉ%&'ď(ĉ": 2956,
      "ďĉ!ďĉ%&'(ďĉďĉďĉďĉ": 2957,
      "ďĉďĉďĉďĉďĉďĉďĉďĉďĉďĉ!!": 2958,
      "ďĉďĉ%&'(ďĉďĉďĉ": 2959,
      "Ĉ!Ĉ!Ĉ!ĈĈ!Ĉ!": 2960,
      "ćĈĈĈĈĈćĈĈĈĈĈĈ": 2961,
      "!!!!!!!!!!!!!!!!!!!!!!!!!!!ďĉ!ďĉ!!!!!!": 2962,
      "!!!!!!!!!!!!!!!!!!!&'(": 2963,
      ")ďĉďĉ!ďĉ!ďĉ!ďĉďĉďĉ": 2964,
      "!!!!!!!!!!!!!!%!!!&'(": 2965,
      "ĖĖĖ": 2966,
      "ďĉďĉďĉďĉĈ!ĈĈĈćĈ!ćĈĈĈďĉďĉďĉďĉďĉďĉďĉďĉ": 2967,
      "ĈĈĈĈĈĈĈĈĈĈĈĈĈĈĈĈĈĈĈĈĈĈĈďĉ!": 2968,
      "%ć&Ĉ'(": 2969,
      ")ććććććććććććĈ!ććĈ!ćĈ!ćĈ!Ĉ!Ĉ!ćĈ!Ĉ!ćĈ!": 2970,
      "ďĉ%&'(ďĉćďĉććććććććććććććććĈ!Ĉ!ćĈ!Ĉ!ĈĈ!": 2971,
      "ďĈćĉ": 2972,
      "Ĉ!ćĈ!ćĈ!Ĉ!Ĉ!ďĉďĉ": 2973,
      "ćďĉćĈ!ććĈ!ćĈ!Ĉďĉ%&'(ććććććććććććĈ!ćĈ!Ĉ!": 2974,
      "ć%&'(ďĉ!ććććĈ!ćĈ!Ĉ!Ĉ!ćĈ!Ĉ!": 2975,
      "ćĈĈĈĈĈĈ!ĈĈ!ĈĈĈćĈĈĈćĈ!ĈĈĈĈ!ĈĈ!Ĉ%&'(": 2976,
      "ďĉďĉďĉ!ďĉďĉ!!ďĉďĉďĉ!ďĉďĉďĉďĉďĉďĉďĉďĉ": 2977,
      "ďĉďĉććććććĈ!ćććĈ!ćććĈ!ćĈ!ć%&'(ďĉďĉďĉďĉ!": 2978,
      "ďĉďĉďĉďĉďĉďĉďĉďĉ!!ďĉďĉďĉďĉ!!!!ďĉ!!": 2979,
      "ďĉďĉ!!!!ďĉ!!)ďĉďĉ!": 2980,
      "ĈćĈĈćĈćć%&'(%&'(": 2981,
      "'77": 2982,
      "7'77": 2983,
      "Ĉć": 2984,
      "ę!!": 2985,
      "ĈĈĈĈĈćĈĈćĈćć%&'(%&'(": 2986,
      "ćĈĈĉ": 2987,
      "ććĈććĈ": 2988,
      "ćĈĈĈćĈĈĈĈĈĈ!ĈĈ!ĈĈĈćĈĈĈćĈ!ĈĈĈĈ!ĈĈ!Ĉ": 2989,
      "ďĉďĉďĉďĉďĉďĉďĉďĉďĉďĉďĉďĉ!": 2990,
      "Ĉ!ĈĈ!!": 2991,
      "ďĉćććććććĈĈććććććĈ!ćĈĈ": 2992,
      "ďĉďĉďĉďĉďĉďĉďĉ!!!!!!!!!!!ďĉ": 2993,
      "ď%ĉ&'(!!!!!!!!!!!!!!!!!!!!!!!!!!!!!!!!": 2994,
      "!!!!!!!!!!!!!ďĉ!!!!ďĉďĉďĉďĉďĉďĉďĉďĉďĉďĉ": 2995,
      "Ĉ!ĈĈĈĈĈĈĈĈ!ĈĈĈ!": 2996,
      "!!!!!!!!!%!!&'(": 2997,
      "!!!!!!!!!!!!!!%!!!!!!!!!!!!": 2998,
      "Ĉ!Ĉ!ćĈ!Ĉ!ĈĈĈďĉ!ďĉ!!!SĂĄĆ!!ďĉ!!!!!!": 2999,
      "ćĈ!Ĉ!ćĈĈ!ćĈ!ćĈ!ĈĈ!Ĉ!Ĉ!ćĈ!Ĉ!Ĉ!": 3000,
      "ďĉďĉďĉ!ććĈ!ćďĉďĉ%&'(": 3001,
      "ćĈ!Ĉ!Ĉ!Ĉ!Ĉ!Ĉ!ĈĈďĉ!!!ďĉ!ďĉďĉ!": 3002,
      "6666666677777'77": 3003,
      "ČČČČČČČČ": 3004,
      "332223232323232222222222222222": 3005,
      "322323232323232222222222222222": 3006,
      "%ććĈ&'(!": 3007,
      "ćĈ!ćĈ!ććććĈćĈćććĈ!ćć": 3008,
      "AM": 3009,
      "Bē": 3010,
      "ć%ď&'(ĉ!": 3011,
      "%&'(Ĉ!Ĉ!Ĉ!Ĉ!Ĉ!Ĉ!Ĉ!Ĉ!": 3012,
      "%&'(ďĉďĉďĉďĉ!ďĉďĉďĉďĉ!ďĉ!!": 3013,
      "ćĈ!Ĉ!Ĉ!ĈĈ!": 3014,
      "ďĉďĉďĉďĉ!!!!!!!!!": 3015,
      "Ĉ!Ĉ%Ĉ&'(": 3016,
      "ďĉďĉďĉ!!!!ďĉ!!!ćććć": 3017,
      "Ĉ!ćĈ!Ĉ!ĈĈĈĈĈ": 3018,
      ")!)ďĉďĉďĉćććĈ!Ĉ!Ĉ!ĈĈ!Ĉ!ćĈ!Ĉ!Ĉ!ĈćĈ!Ĉ!Ĉ!Ĉ": 3019,
      "ďĉďĉ!!ďĉďĉďĉďĉ!ďĉďĉ": 3020,
      "ďĉ%&'(ďĉ!": 3021,
      "ď%&'(ĉďĉďĉďĉďĉ!": 3022,
      "ďĉ!ďĉ!ďĉďĉ": 3023,
      "ďĉďĉďĉďĉ!ďĉďĉďĉďĉ": 3024,
      "Ĉ!ĈĈ!ĉ": 3025,
      "ďĉďĉďĉďĉďĉ!!!": 3026,
      "ćĈ!Ĉ!Ĉ!ćĈ!Ĉ!Ĉ!Ĉ!ćĈ!Ĉ!": 3027,
      "%ć&'(ćććć": 3028,
      "%&ď'(ĉďĉďĉ": 3029,
      "!!!!!!!!!!!!!!%!!!!!!!!": 3030,
      "!!!!!!!!!!!!!!!!!!!!!!!!!!!!!!!!!%!!!!": 3031,
      "ďĉďĉďĉďĉďĉ%&'(ďĉďĉďĉďĉ!": 3032,
      "ďĉď%&'(ĉďĉďĉ": 3033,
      "Ĉ!ĈĈĈ!ĈĈďĉ!ďĉďĉďĉćĈ!Ĉ!Ĉ!Ĉ!ĈĈ!Ĉ!Ĉ!Ĉ!": 3034,
      "ćĈćĈćĈćĈćĈćĈćĈćĈćĈćĈćĈćĈćć": 3035,
      "!!!!!!!!!!!!!!!!!!!!!!!!!ďĉďĉ!ďĉ!)": 3036,
      "ćććććďĉ!ďĉďĉďĉ!ďĉćďĉ!!!!ćďĉ!": 3037,
      "ďĉ!ćĈ!ćĈ%&'(ďĉďĉďĉďĉ!ďĉďĉďĉďĉ!ďĉ!!": 3038,
      "ď%&'(ĉďĉďĉćććĈ!Ĉ!Ĉ!Ĉ!Ĉ!Ĉ!Ĉ!Ĉ!Ĉ!Ĉ!": 3039,
      "ććććĈ!Ĉ!Ĉ!Ĉ!Ĉ!ĈĈ!Ĉ!ćďĉ!!ďĉďĉćĈ!ć": 3040,
      "ćĈ!Ĉ!Ĉ!Ĉ!Ĉďĉ!))ħ!": 3041,
      "ďēĉ": 3042,
      "ćĈ!ćďĉďĉďĉďĉćććććĈ!ćČ": 3043,
      "ďĉďĉďĉďĉďĉďĉďĉďĉďĉ!ďĉďĉďĉ%&'(ďĉďĉďĉ!": 3044,
      "ććććĈ!ćĈćĈĈććććĈĈĈĈĈćĈĈćĈćć%&'(%&'(": 3045,
      "!ď": 3046,
      "!ďĉćććć": 3047,
      "MďMĉ": 3048,
      "Ĉ!ćĈĈćĈ": 3049,
      "ďĉĈ!": 3050,
      "ďĉĈ!Ĉ!Ĉ!Ĉ": 3051,
      "!!!!!!!!!!!!!!!!!!!!!!!!!!!!!!!!!ďĉ": 3052,
      "ďĉďĉďĉďĉććĈ!Ĉ!Ĉ!Ĉ!Ĉ!Ĉ!ććĈ!ć": 3053,
      "!!!ďĉďĉćĈ!ĈĈ!ĈĈĈĈ!Ĉ!Ĉ!ĈĈĈĈĈĈĈĈ!ĈĈĈĈĈ": 3054,
      "ďĉďĉďĉćććĈ!Ĉ!Ĉ!ćĈĈĈĈ!ćĈ!ĈĈ!ćĈ!ć": 3055,
      "ććĈćĈ!Ĉ!Ĉ!": 3056,
      "!!!!!!!!!!!!!!!!!!!!%!!!!": 3057,
      "ď%&'(ĉďĉďĉďĉďĉďĉďĉďĉ": 3058,
      "ďĉďĉďĉ!!ďĉďĉďĉďĉďĉďĉ!": 3059,
      "ćďĉď%&'(ĉ": 3060,
      "Ĉ!Ĉ!ćĈ!Ĉ!ďĉ": 3061,
      "ć%&'(ćććććććććććććććććććććććć": 3062,
      "%&'(ďĉďĉćććććććć": 3063,
      "ďĉ!ďĉ!!%&'(": 3064,
      "ď%ĉ&'(ďĉďĉ": 3065,
      "!!!!!!!!!!%&'(ďĉ": 3066,
      "ďĉ!ďĉďĉďĉďĉďĉďĉďĉďĉ!!!!!!!!!!!!ďĉ!!": 3067,
      "ĉĉĉĉĉĉ": 3068,
      "%!!!!!!!!!!!!&'(": 3069,
      "!!!!!!!!!!!!!!!!!!!!!!!!!!%!!!!!!!!": 3070,
      "ďĉďĉ!ďĉďĉ%&'(ďĉ!!": 3071,
      "ďĉďĉ!ďĉďĉ%&'(ćĈ!Ĉ!Ĉ!Ĉ!Ĉ!Ĉ!": 3072,
      "Ĉ!ďĉďĉ!ďĉ%&'(": 3073,
      "ćďĉ%&'(ďĉďĉďĉććĈ!Ĉ": 3074,
      "ĈĈĈĈĈĈĈĈĈĈĈĈĈĈĈĈĈĈĈĈĈĈĈďĉ!ďĉďĉďĉďĉ": 3075,
      "ćĈĈ!Ĉ!ĈĈĈćĈćĈ!ććĈ!!ďĉ!!ďĉďĉďĉ": 3076,
      "Ĉ!ĈĈćďĉďĉďĉďĉďĉďĉďĉ!ďĉ!ďĉďĉďĉ!ďĉ!ďĉďĉďĉ": 3077,
      "ćććććĈ!ĈĈćĈĈćĈďĉććććććććĈ!Ĉ!Ĉ!Ĉ": 3078,
      "ďĉďĉ!ďĉďĉćććććďĉ!ďĉďĉďĉ!ďĉćďĉ!!!!ćďĉ!": 3079,
      "!&'(ďĉ))ħďĉďďĉĉďĉďĉďĉďĉ": 3080,
      "ď%&'(ĉ!ďĉ!!!ďĉ!!!ćććĈćĈ!ćĈ!ĈĈ!Ĉ!": 3081,
      "ďĉ!!!ďĉ!!ďĉďĉ)!)": 3082,
      "ďĉ!ďĉ!%&'(ďĉďĉďĉćďĉ!ďĉďĉďĉďĉ": 3083,
      "Ĉ!ĈĈĈ!ĈĈĈć%&'(ďĉďĉ!ďĉďĉćĈ!Ĉ!Ĉ!Ĉ!Ĉ!Ĉ!": 3084,
      "322332232323232222222222222222": 3085,
      ")ď": 3086,
      "ďĉ%&'(%&'(%&'(": 3087,
      "!!!!!!!!!!!!!!!!!&'(ćďĉ!ďĉ": 3088,
      "ďĉďĉĈ!Ĉďĉ!ďĉ!ďĉ": 3089,
      "%&'(ďĉ!ďĉďĉďĉďĉďĉďĉďĉďĉ": 3090,
      "ďĉ!ćććĈ!Ĉ!ćĈ!Ĉ!Ĉ": 3091,
      "!!!!!!!!!!!!%!!&'(": 3092,
      "ďĉďĉ!ććĈ!ćććĈ!ćććĈ!ćććĈ!Ĉ!Ĉ!ďĉćććĈ!ć": 3093,
      "ďĉďĉ!ďĉ!ďĉ!ďĉďĉ!!ďĉ!ďĉ!!": 3094,
      "ďĉ!ďĉććĈ!Ĉ!Ĉ!Ĉ!Ĉ!Ĉ!Ĉ!ĈĈćĈ": 3095,
      "ďĉ!!!!ďĉďĉďĉďĉ": 3096,
      "ďĉ%&'(ďĉďĉďĉ!": 3097,
      "!&'(!!!!!!!!!!!!!!": 3098,
      "Ĉ!ĈĈ!ććĈĈ": 3099,
      "ďĉďĉďĉ%&'(!": 3100,
      "ďĉďĉďĉďĉďĉ%&'(ďĉ": 3101,
      "ĈĈĈĈĈĈĈĈĈĈĈĈĈĈĈ": 3102,
      "ĈĈĈĈĈĈĈĈĈĈĈĈĈĈ!": 3103,
      "01010011": 3104,
      "ďĉ!ďĉďĉ!ďĉ!ďĉ!ďĉďĉďĉďĉ": 3105,
      "ďĉďĉďĉďĉďĉďĉďĉ!ďĉ%&'(": 3106,
      "%&'(ďĉďĉďĉďĉďĉ!ďĉďĉďĉ!": 3107,
      "ď!ĉLK": 3108,
      "ćććććććĈ!Ĉ!ććććććĈ!ćĈĈďĉďĉ!!ďĉ": 3109,
      "!!!!!!!!!!%!!!!!!!!!!!!!!!!!!!!": 3110,
      "!!!!!!!!!!!!!!!!!!!!!!!!!%!!!!": 3111,
      ")!)!!!!!!!!!!!!!!!!!%": 3112,
      "ďĉďĉďĉďĉďĉ%&'(ďĉďĉ!": 3113,
      "ďĉďĉďĉďĉććććĈ!ĈĈ!ćĈ!Ĉ": 3114,
      "Ĉ!Ĉ!Ĉ!ćĈ!ćĈďĉďĉďĉďĉ!!!!!!!!!ďĉ!!!!!!!!": 3115,
      ")!)!ďĉďĉ!!!)!)!!ďĉďĉďĉďĉďĉ!!": 3116,
      "%ć&'Ĉ(": 3117,
      "ćĈ!Ĉ!Ĉ!Ĉ!Ĉ!Ĉ!ĈćĈĈĈĈ!ĈććĈ!ććććĈć!!%&'(": 3118,
      "ďĉďĉďĉ%ď&'(ĉďĉďĉďĉďĉ": 3119,
      "ďĉćććććĈ!Ĉ!Ĉ!ćĈĈćĈďĉďĉććĈ!Ĉ!Ĉ!ćĈ!": 3120,
      "ďĉ!!!!!!!!!!!!!!!!!!!!!!!!!!!!)!)": 3121,
      "ďĉ!!!!ďĉ!!)ďĉďĉ!": 3122,
      "Ĉ!ďĉďĉ!ďĉ%&'(ćććććććććććććććć": 3123,
      "ć))": 3124,
      "ć%ć&'ć(": 3125,
      "Ĉ)!": 3126,
      "Ĉ)!)": 3127,
      "ĉď": 3128,
      "ďĉ%!!&'(": 3129,
      "%&'(ďĉďĉďĉďĉďĉďĉćďĉ!ďĉ": 3130,
      "ćććććĈ!Ĉ!ćĈ!Ĉ!ćĈ!Ĉ!Ĉ!Ĉ!Ĉ!": 3131,
      "ćĈĉ!": 3132,
      "!!!!!!!!!!!!%!!!!!!!!!!!!": 3133,
      "!!!!!!!!!!!!%!!!!!!!!!!!!!!!!": 3134,
      "ćĈ!ćĈ!ďĉďĉďĉďĉďĉďĉ": 3135,
      "ďĉ!ďĉď%ĉ&'(": 3136,
      "!!!!!!!!!!!!!!!!!!!!%!!!!!!!!": 3137,
      "%Ĉ&'(ĈĈĈĈĈĈĈĈ": 3138,
      "ĉĉ!": 3139,
      "ďĉďĉ%&'(ććĈ!Ĉ!Ĉ!ćĈ!ďĉďĉďĉďĉďĉďĉ": 3140,
      "%Ĉ&'(!Ĉ!Ĉ!Ĉ!": 3141,
      "!!ďĉ!!!!!!!!!!!!!!!!!!!!!!!!": 3142,
      "!!!!!!!ďĉďĉ": 3143,
      "ďĉďĉćććććĈ!Ĉ!ćĈĈćďĉćĈ!ććĈ!ćĈ!Ĉ": 3144,
      "!!!!!ďĉ!ďĉďĉďĉďĉďĉďĉďĉ": 3145,
      "ďĉ!ďĉďĉďĉĥ": 3146,
      "ďĉ!!!!!!!!!!!!!!!!!!%": 3147,
      "ďĉďĉďĉďĉďĉ%&'(ďĉďĉ": 3148,
      "00011101000111": 3149,
      "ďĉďĉ!!ćććĈ!Ĉ!ćĈ!Ĉ!ĈĈĈĈ!ććĈďĉďĉćććć": 3150,
      "ďĉ%&'(ďĉďĉćććĈĈ!ćĈ!Ĉ!ĈćĈĈĈćĈĈĈćĈĈćććć": 3151,
      "ď!!ď": 3152,
      "%&'(%&'(ďĉ!!ććććććĈććĈ!ďĉćĈ!Ĉ!": 3153,
      "R%&'(TVa!!!SĂĄĆ": 3154,
      "ćĈćĈĈĈĈĈĈĈćĈĈĈĈĈĈćĈćĈ!ćĈĈ!ďĉďĉďĉ!": 3155,
      "ĈĈĈ!Ĉ!Ĉ!ĈĈĈĈ!Ĉ!ĈĈ!Ĉ!Ĉ!ĈĈĈĈć%&'(ďĉďĉ": 3156,
      "Ē!!!ė": 3157,
      "Ĉ!Ĉ!Ĉ!!ĈĈ!ĈććĈ!Ĉ!ĈĈ!ĈĈ!Ĉ!ćĈ!ďĉ": 3158,
      "ććĈ!ć%&'(ďĉďĉďĉďĉďĉďĉďĉďĉďĉ!!!ďĉ%&'(": 3159,
      "00110101001101'(3": 3160,
      "ćĈĈĈĈĈĈĈĈĈĈĈĈĈĈĈĈ!ĈĈĈĈĈĈĈĈĈĈĈĈĈĈĈĈĈ!": 3161,
      "%K&'(": 3162,
      "ććĈ!Ĉ!Ĉ!ĈćĈ!%&'(Ĉ!Ĉ!Ĉ!Ĉ!Ĉ!Ĉ!Ĉ!Ĉ!": 3163,
      "M!!!!!!!!!!!!!!!!!!": 3164,
      "ďĉ%ď&'(ĉ!": 3165,
      "ďĉďĉćďĉććććććććććććććććĈ!Ĉ!ćĈ!Ĉ!ĈĈ!": 3166,
      "%&'(!!": 3167,
      "%&'(!!!!!!!!": 3168,
      "%&'(!!!!RTVa!!!SĂĄĆ": 3169,
      "%&'(Ĉ!Ĉ!Ĉ!ĈĈĈĈ!Ĉ!ĈĈ!Ĉ!Ĉ!ĈĈĈĈ": 3170,
      "ćĈ%!Ĉ&'(!": 3171,
      "ćĈ'(!": 3172,
      "Ĉ!ĈĈĈ!Ĉ!": 3173,
      "ďĉ%&'(ćććććĈ!ĈĈćĈĈćĈďĉćććććććć": 3174,
      "ďĉ%&'(ďĉ!ďĉďĉďĉďĉďĉďĉďĉďĉ!": 3175,
      "!&'(!!!!!!!": 3176,
      "!!!!!!!!!!!!!!!!!!!!!!!!%!!!!!!!!": 3177,
      "Ĉ&'(!": 3178,
      "ćďĉ!ćććććďĉ!ććććĈćććĈ!Ĉ!ĈćĈ!ć": 3179,
      "Ĉ!Ĉ!ĈĈĈ!ĈĈ": 3180,
      "%&'(ďĉ!!ďĉ!!!!!!!!!!!": 3181,
      "!!!!!ďĉ!ďĉ!!": 3182,
      "ćĈĈĈćĈĈďĉĈ!Ĉ!ĈĈĈ": 3183,
      "ĉĉĉĉĉ": 3184,
      "!!!!!!!!!!!!!!ďĉďĉ!ďĉ!)ďĉďĉďĉć": 3185,
      "ďĉďĉďĉ!ďĉććĈ!ďĉ!ďĉ!!ćĈ!": 3186,
      "!!!!!!!!!!!!!!%!!!!": 3187,
      "ďĉĈ!Ĉ!Ĉ!Ĉ!Ĉ!ćĈĈĈ!ĈĈĈ": 3188,
      "!!!!!!!!!!!!!!!!!!!!!!!%!!!!!!!!": 3189,
      "!!!!!!!!!!!!!!!!!!!%!!!!!!!!!!!!": 3190,
      "!!!!!!!!!!!!!!!!!!!!!!%!!!!!!!!": 3191,
      "ćĈĈćĈĈćĈ!ćććĈ!ććďĉďĉ!!!!ďĉďĉ": 3192,
      "ććććććĈ!ćććĈ!ćććĈ!ćĈ!ćďĉďĉďĉďĉ!": 3193,
      "ćĈĈĈĈ!ĈććĈ!ććććĈć!!ďĉ!ďĉďĉďĉďĉďĉďĉ!!": 3194,
      "ďĉ!ďĉĈ!Ĉ!ćĈ!Ĉ!ĈĈĈďĉ!ďĉ": 3195,
      "ďĉďĉ!%&'(!!!!!!!!!!!!!!!!!!!!!!!!!!": 3196,
      "ďĉďĉ!%&'(ďĉ!ďĉ!!Ĉ": 3197,
      "ďĉ!ďĉďĉ%&'(ďĉ!ďĉ!ďĉ!!ďĉ": 3198,
      "ďĉ!ďĉ!ďĉ!ďĉ!ďĉ!ďĉćććĈ!Ĉ!Ĉ!Ĉ!Ĉ!Ĉ!": 3199,
      "ďĉďĉ!!ďĉ!!ďĉ!ććĈ!ďĉ!ďĉďĉ!!ďĉďĉ)ďĉďĉ!": 3200,
      "ďĉďĉďĉďĉďĉ!ďĉ!ďĉďĉďĉďĉďĉ%&'(": 3201,
      ")ďĉćďĉďĉ!": 3202,
      "ďĉ!ďĉ%!&'(ććĈ!ćďĉďĉďĉďĉďĉďĉďĉ!!ďĉďĉ": 3203,
      "666666667777'777(788888888,-%&+01": 3204,
      "ćĈćĈćĈćĈćĈćĈćĈćĈćĈćĈćĈćĈćć%&'(Ĉ!Ĉ!": 3205,
      "ďLL": 3206,
      "ďćĈ!Ĉ": 3207,
      "ďĉĒ": 3208,
      "ďĉďĉď": 3209,
      "ćĈ!ććĈ!Ĉ!Ĉ!ĈćĈ!Ĉ!ĈćĈććĈĈ!ĈĈĈďĉ!!!": 3210,
      "Ĉ!Ĉ!Ĉ!Ĉ!Ĉ!ď": 3211,
      "ďĉďĉďĉ!!!!": 3212,
      "ďĉďĉ!!ďĉ!ďĉďĉ!!ďĉďĉďĉďĉďĉďĉďĉďĉ!": 3213,
      "ďĉďĉďĉďĉďĉďĉďĉďĉ!!!!!!!!!!!!ďĉ!!": 3214,
      "!!!!!!!!!!!!!!!!!!!!!!!!!!!!!!!&'(": 3215,
      "!%!!&'(": 3216,
      "ďĉ!ďĉďĉďĉďĉćďĉ!ďĉ": 3217,
      "ćďĉćďĉ": 3218,
      "%ď&'(ĉďĉďĉďĉďĉ": 3219,
      "'(33322": 3220,
      ")))))": 3221,
      "ďĉ!!!!!!!!)!!!!!!!!)!": 3222,
      "ďĉďĉďĉďĉďĉFD": 3223,
      "%Ĉ&'(!Ĉ!ćĈ!Ĉ!": 3224,
      "%&'(ďĉďĉććććććĈ!ćććĈ!ćććĈ!ćĈ!ćďĉďĉďĉďĉ!": 3225,
      "ď!ďďďďďďďď": 3226,
      "!!!!!!!!!ďĉďĉďĉďĉďĉ)!)": 3227,
      "!!!!!!!!!!!!!)!)": 3228,
      "ďĉ!ďĉ!ďĉććďĉďĉ)ćďĉ%&'(ććććććĈ!Ĉ!": 3229,
      "Ĉ!ĈćĈ!Ĉ!Ĉ!ĈćĈ!ćć%&'(ďĉ!": 3230,
      "!!!!!!!!!!!!!!!!!!!!!!!%!!!!!!!!!!!!": 3231,
      "!!!!!!!!!!!!!!!!!%!!!!": 3232,
      "!!!!!!!!!!!!!!!!!!!!!%!!!!!!!!!!!!": 3233,
      "Ĉ!Ĉ!ĈĈĈĈĈĈćĈ!ĈĈĈďĉ%&'(%&'(%&'(": 3234,
      "ćććććććĈ!ćĈ!Ĉ!Ĉ!Ĉ!Ĉ!ćĈ!Ĉ!ćĈććĈćďĉ%&'(": 3235,
      "ććĈ!ĈĈĈĈĈ!ćďĉďĉ!!!!!!!!!!!!!!!!!!!": 3236,
      "ďĉ!ďĉ!ďĉ!ďĉ!ďĉ!%&'(ďĉ": 3237,
      "ććĈĈ!Ĉ!ĈĈĈ!ććĈ!Ĉ!ĈćĈ!%&'(": 3238,
      "ďĉďĉďĉ!!!!!!!!!!ďĉďĉďĉďĉ%&'(ďĉďĉ": 3239,
      "ďĉďĉ!!ďĉ!!ďĉ!ććĈ!ďĉ!ďĉďĉ!!ďĉďĉ)": 3240,
      "ćďĉďĉ!ďĉ!ďĉ)))": 3241,
      "!!!!!!!!!!!!!!&'(ćďĉ!ďĉ": 3242,
      "Ĕĥ!!": 3243,
      "ĔĥćĈ!ćĈ!Ĉ!ĈĈ!": 3244,
      "!!)!)!!!!!!!!!!!%&'(": 3245,
      "ďĉďĉďĉ!ććĈ!ćďĉďĉďĉďĉďĉďĉďĉďĉ%&'(ďĉ!!": 3246,
      "ďĉ%&'(ďĉďĉďĉďĉďĉďĉćĈ!Ĉ!Ĉ!Ĉ!Ĉ!ĈĈĈ!Ĉ!Ĉ": 3247,
      "ćććĈ!ćĈďĉďĉććć": 3248,
      "Ĉ!Ĉ!Ĉ!Ĉ!ĈĈ!Ĉ!Ĉ!Ĉ!Ĉ!ćĈ!Ĉ!ĈĈĈĈĈ": 3249,
      "Ĉ!ĈćĈ!Ĉ!Ĉ!ĈćĈ!ćć%&'(ďĉ!Ĉ!ĈćĈ!Ĉ!Ĉ!ĈćĈ!ćć": 3250,
      "R!!!S": 3251,
      "ćĈĈĈĈĈĈĈĈĈ": 3252,
      "ćĉ!": 3253,
      "ĔĈ!ĥ": 3254,
      "ħďĉĉ": 3255,
      "!!!!ďĉďĉďĉ!!ďĉďĉ!ďĉ!!": 3256,
      "%&'(ďĉďĉďĉ!!": 3257,
      "ćććććĈ!Ĉ!": 3258,
      "ďĉďĉďĉďĉ!!!!": 3259,
      "ćĈ%&'(": 3260,
      "!!!ďĉ!!!!!!!!!!!!!!!!!!!!!!!!!!!!!!!!": 3261,
      "ďĉďĉďĉĈ!Ĉ!Ĉ!Ĉ!!Ĉ!Ĉ!Ĉ!Ĉ!!Ĉ!Ĉ!Ĉ": 3262,
      "Ĉ!ćĈ!Ĉ!ĈćĈĈćĈćĈĈĈćĈĈďĉĈ!Ĉ!ĈĈĈ": 3263,
      "ďĉ!ďĉ!!!!!!!!!!!!!!": 3264,
      "ćĈ!ćĈ!Ĉ!ĈĈĈ!ĈĈĈććĈ!ĈĈ!ĈĈĈĈ!ĈĈ!ĈĈĈĈ": 3265,
      "%&'(ĉĉĉ": 3266,
      "!LćK": 3267,
      "ďĉ%&'(ďĉďĉďĉďĉ!!": 3268,
      "ď%&'(ĉďĉďĉďĉďĉďĉďĉ!": 3269,
      "Ĉ!ĈĈĈĈćĈ": 3270,
      "ćďĉ%!&'(": 3271,
      "%ď&'(ĉďĉ!!": 3272,
      "ďĉďĉďĉďĉ!ďĉ%&'(ďĉ!!": 3273,
      "ďĉďĉ%&'(ďĉďĉďĉďĉ": 3274,
      "ďĉćććććĈ!Ĉ!ćĈ!Ĉ!ćĈ!Ĉ!Ĉ!Ĉ!Ĉ!": 3275,
      "ćĈ!ćď": 3276,
      "ďďĉĉďĉďďĉĉ": 3277,
      "%Ĉ&'(!Ĉ!Ĉ!Ĉ!Ĉ!": 3278,
      "!!&'(!!!!!!!!!!!!!!!": 3279,
      "!!!!!!!!!!!!!!!ďĉ": 3280,
      "ćďĉďĉćć": 3281,
      "%&'(!ĥĤ": 3282,
      "ć!Ĉ!!": 3283,
      "ďĉďĉďĉćďĉďĉ!ďĉďĉďĉ!!ďĉ!!!!": 3284,
      "ććĈ!ćĈ!ĈććĈĈ!Ĉ!ĈĈĈ!ććĈ!Ĉ!Ĉ": 3285,
      "!!!!!!!!!!!!!!!!!!!!!!!!!!!!!!!)!)": 3286,
      "ćďćĈ!ĉ": 3287,
      "%&'(ďĉ!ćććććĈ!Ĉ!Ĉ!Ĉ!Ĉ!Ĉ!ćĈ!Ĉ!Ĉ!ćĈ!Ĉ!": 3288,
      "%&'(ďĉćććďĉ!": 3289,
      "!!!!!!!!!!!!!!!!!!!%!&'(": 3290,
      "ćĈ!ćĈ!Ĉ!ćĈ!Ĉ!Ĉ!ćĈ!Ĉ!ćďĉ!": 3291,
      "ďćĈĉ!": 3292,
      "ĈćĈĈćĈćĈĈĈćĈĈďĉ%&'(Ĉ!Ĉ!ĈĈĈ": 3293,
      "!ĥ": 3294,
      "!!!!Ē!": 3295,
      "ďĉďĉĦ": 3296,
      "Ĉ!Ĉ!ććĈ!Ĉ!Ĉ!Ĉ!Ĉ!Ĉ!ćĈ": 3297,
      "%&'(ďĉďĉďĉďĉďĉďĉďĉ": 3298,
      "ćĈ!Ĉ!ďĉ": 3299,
      "ćĈćĈ!ććććććĈ!ćĈ!ććĈćććĈćććĈĈćĈćĈ!Ĉ!": 3300,
      "ďĉ!!%&'(ďĉďĉďĉ": 3301,
      "ďĉďĉ!ďĉ!ďĉ!!Ĉ": 3302,
      "ďĉďĉďĉ!ďĉ!ďĉďĉ": 3303,
      "Ĉ!ĈĈďĉ!!!": 3304,
      "!%L&'(": 3305,
      "ď%&'(ĉďĉćććććććć": 3306,
      "ďĉďĉ%&'(ďĉďĉďĉďĉďĉďĉďĉďĉ": 3307,
      "Ĉ!ĈĈ!ĈĈ!ĈĈ!ĈĈĈĈĈĈĈĈĈĈĈĈĈĈĈĈĈĈĈĈĈĈĈĈĈĈĈ": 3308,
      "Ĉ!ćĈ!ĉ": 3309,
      "23232323": 3310,
      "ď!ćĉ": 3311,
      "%&'Ĉ(": 3312,
      "ďďďď!": 3313,
      "ďďďďďď": 3314,
      "!!!!!!!!!!!!!!!!!!!!!!!!!!!!!!%!!&'(": 3315,
      "!!!!!!!!!!%!&'(": 3316,
      "!!!!!!!!!!!!!!!!!!!!!%!!!!!!!!!!!": 3317,
      "00011011": 3318,
      "!!!!!!!!!!!!!!!!!!!%!!!!!!!!!!!!!!!!": 3319,
      "Ĉ!Ĉ!Ĉ!ĈćĈĈ!Ĉ!ĈĈĈćĈćĈ!ććĈ!!ďĉ!!ďĉďĉďĉ": 3320,
      "Ĉ!Ĉ!Ĉ!Ĉ!ĈĈ!Ĉ!ĈĈ!Ĉ!ćĈ!Ĉ!ĈĈĈĈĈ": 3321,
      "ďĉďĉćććĈ!Ĉ!Ĉ!Ĉ!Ĉ!ĈćĈĈ!Ĉ!ĈĈĈćĈ": 3322,
      "ďĉďĉďĉ)!)ďĉďĉďĉ!ďĉďĉďĉ!!ďĉďĉďĉďĉ!": 3323,
      "!!!!R%&'(TVa!!!SĂĄĆ!!!!R!!!S": 3324,
      ")%!&'(": 3325,
      "BL": 3326,
      "ćA": 3327,
      "ĈĈ!Ĉ!ĈĈ!Ĉ!ćĈ!Ĉ!ĈĈĈĈĈ": 3328,
      "ď!!!!!!!!!": 3329,
      "ďĉď!ĉ": 3330,
      "%&'(ďĉďĉďĉďĉďĉďĉďĉďĉ!": 3331,
      "ćĈ!ćĈćĈćĈ!ćĈ!ććĈ!ćĈććĈćĈ!ćĈ": 3332,
      "2222322222222222222222222222222222222": 3333,
      "ďĉ!!ďĉďĉ!": 3334,
      "ćĈćĈććĈ": 3335,
      "!!!!!!!!!!!!%!!!!!!!!": 3336,
      "ďĉďĉďĉĝ": 3337,
      "ďĉďĉ!!ďĉďĉďĉďĉ": 3338,
      "ďĉďĉ!!ďĉďĉ)ďĉďĉ!ďĉďĉ!!ďĉ!!!!ďĉďĉďĉďĉ": 3339,
      "ććĈ!Ĉ!%&'(": 3340,
      "ććĈ!Ĉ!ćĈ!ćĈ!": 3341,
      "!!!!!!!!!!!%!!!!!!!!!!!!!!!!!!!!": 3342,
      "ďĉ!!!!RTVa!!!SĂĄĆ": 3343,
      "ď%&'(ĉďĉďĉ!!!!ďĉ!!!ćććć": 3344,
      "ć%&'(Ĉ!Ĉ!Ĉ": 3345,
      "ććć!": 3346,
      "!!!!!!!!!!!!!!!&'(ćďĉ!ďĉ": 3347,
      "ďĉ!ďĉ!!ďĉ!ďĉďĉďĉďĉ!": 3348,
      "ćďĉďĉćĈ!ćďĉďĉďĉďĉćććććĈ!ćČ": 3349,
      "ĉ!Ĉ": 3350,
      "3332222323232222222222222222": 3351,
      "ć!%&'(!!!!!!!!!!!!!!!!!!!!!!!!!!!!!!!!": 3352,
      "!!!!ďĉ!!ďĉ!!": 3353,
      "!!!!!!!!!!%!!!!!!!!!!!!": 3354,
      "Ĉ!Ĉ!Ĉ!ćĈ!Ĉ!ćĈ!ćĈ!ćĈ!ćĈ!ćĈ!Ĉ!Ĉ!Ĉ!Ĉ!Ĉ!": 3355,
      "ććĈĈ!Ĉ!ĈĈĈ!ććĈ!Ĉ!ĈćĈ!ććĈ!Ĉ!Ĉ": 3356,
      "Ĉ!Ĉ!ćĈ!ććĈ!ćĈ!ććĈ!ćĈććĈ!ćĈ!ćĈ!ĈćĈĈćďĉ": 3357,
      "ćććććĈ!ćĈ!ććććĈ!ććĈ!ćććĈ!ćććĈćď%&'(ĉ": 3358,
      "ďĉďĉďĉ!ďĉďĉ!ďĉďĉ!!ďĉ!!ďĉďĉ": 3359,
      "323322": 3360,
      "ćććććďĉ!ććććĈćććĈ!Ĉ!ĈćĈ!ć%&'(": 3361,
      "ďĉ!ďĉďĉďĉ%&'(ďĉďĉďĉďĉďĉďĉďĉ!!": 3362,
      "ĈćĈĈćĈćĈĈĈćĈĈďĉĈ!ĈĈĈĈĈ!Ĉ!Ĉ!": 3363,
      "%&'(ďĉďĉ!!ďĉćććĈ!Ĉ!Ĉ!ćĈ!Ĉ!Ĉćďĉďĉďĉďĉ": 3364,
      "đđđđ": 3365,
      "ďĉďĉďĉďĉ%&'(ďĉďĉďĉďĉ!": 3366,
      "3322232323232222222222222222": 3367,
      ")!!!)!!!!!ďĉďĉďĉďĉďĉďĉďĉ!": 3368,
      "ėĥĤēĒ!!Ė": 3369,
      "%&'(ďĉ!ďĉďĉ!ďĉ!ďĉďĉďĉ!ďĉ!ďĉ!!": 3370,
      "ďĉ!ďĉďĉ!ďĉ!ďĉ!ďĉďĉďĉďĉďĉ!ďĉďĉĈ!Ĉ!": 3371,
      "%!L": 3372,
      "ć%&ď'(ĉ": 3373,
      "ć%&'ď(ĉ": 3374,
      "Ĉćĉ": 3375,
      "Ē&'(": 3376,
      "!!!!ďĉďĉďĉďĉďĉďĉďĉďĉ": 3377,
      "!!!!!!!!%!!!!!!!!!!!!!!!!": 3378,
      "!!!!!!!!!!!!!!!!!!&'(": 3379,
      "ďĉďĉď%&'(ĉ!": 3380,
      "ďĉďĉď!ĉ": 3381,
      "ćĈ!)!)!!": 3382,
      "ĈĈĈĈĈ!Ĉ": 3383,
      "ććĈ!ćďĉ!": 3384,
      "ććĈ!Ĉ!Ĉ!ĈćĈ!Ĉ!": 3385,
      "!!!!!!!!!!!ďĉ!!ďĉďĉďĉďĉďĉďĉ!": 3386,
      "!%!&'(": 3387,
      "ďĉ!!!!ďĉďĉďĉďĉďĉďĉďĉ!!!!!!!!!!!ďĉ": 3388,
      "ď%&'(ĉ!!!": 3389,
      "ćďĉ%&'(ďĉ": 3390,
      "ďĉďĉ%&'(!!!": 3391,
      "ć%&'(ćććććććć": 3392,
      "ć%&'(ććĈ!Ĉ!": 3393,
      "ďĉďĉďĉ%&'(ďĉ!!ďĉďĉďĉďĉďĉďĉ!": 3394,
      "ďĉďĉďĉďĉďĉďĉ!ďĉďĉ!": 3395,
      "%Ĉ&'(!ćĈ!Ĉ!": 3396,
      "ďĉ!ďĉ!!ďĉďĉ!!": 3397,
      "!!!!!!!!!ďĉďĉďĉ!!ďĉďĉ!ďĉ!!": 3398,
      "ćĈĈ!ďĉďĉďĉďĉććĈ!Ĉ!ĈĈĈ!!ćĈ!Ĉ!Ĉ!Ĉ!ćďĉďĉ!!": 3399,
      "ćĈ!ďĉ!%&'(ďĉďĉďĉďĉďĉďĉďĉďĉďĉďĉďĉďĉďĉ": 3400,
      "ďĉ!!ďĉ%ď&'(ĉ": 3401,
      "&'ď(": 3402,
      "ĥĤ!!": 3403,
      "!!!!!!!!!!!!!!!!!!!!!!!!!%!!!!!!!!!!!!": 3404,
      "!!!!!!!!!!!!!!!!!!!!!!!!!!!!!!!!!!%!!!!": 3405,
      "!!!!!!!!!!!!!!!%!!&'(": 3406,
      "ďĉďĉďĉďĉďĉďĉ%&'(ďĉďĉ!": 3407,
      "Ĉ!Ĉ!Ĉ!ćĈ!ćĈďĉďĉďĉďĉ": 3408,
      "ďĉćććććććĈ!ćĈ!ćďĉ!": 3409,
      "%ćć&'ć(": 3410,
      "ććććĈćććĈ!Ĉ!ĈćĈ!ć": 3411,
      "%ď&'(": 3412,
      "ďĉďĉ!ďĉďĉ%&'(ćĈ!Ĉ!Ĉ!Ĉ!Ĉ!ĈďĉĈ!Ĉ!Ĉ!Ĉ!%&'(": 3413,
      "ďćĈĉ": 3414,
      "ďĉ!%&'(ďĉ!!!!!!!!": 3415,
      "ďĉďĉ!ďĉďĉďĉďĉ!ďĉ!!ďĉďĉďĉďĉďĉďĉ!": 3416,
      "ďĉďĉćććććďĉ!ďĉďĉďĉ!ďĉćďĉ!!!!ćďĉ!": 3417,
      "ćďĉććććććĈ!Ĉ!Ĉ!ćĈ!Ĉ!%&'(": 3418,
      ")ďĉćďĉďĉ!ďĉďĉ!)": 3419,
      "!%L&'(K": 3420,
      "LĈ!": 3421,
      "Ĉďĉ!ďĉ!!!!ďĉďĉ!!ďĉ!!ďĉ!!!!!!)!!!!!!!!)!": 3422,
      "ďę": 3423,
      "Ħ!!": 3424,
      "ďĉđ": 3425,
      "ďĉďĉ!!!!!!!!!!!!!!!!!!!!!!!!!!!": 3426,
      "ďĉďĉ!!!!!!!!!!!ďĉ": 3427,
      "Ĉ!Ĉ!%&'(": 3428,
      "%&'(!!!!!!!!!": 3429,
      "ďĉ!%&'ď(ĉ": 3430,
      "ćĈ%!&'(": 3431,
      "ććĈ!ćĈ!ĈĈĈ!ĈĈćĈ!Ĉ!Ĉ!": 3432,
      "MMďMĉ": 3433,
      "ćććććććććććććć": 3434,
      "ďĉďĉďĉďĉďĉďĉďĉďĉďĉďĉďĉ!": 3435,
      "ďĉ%&'(ćĈ!ďĉďĉďĉďĉďĉďĉďĉďĉďĉďĉďĉďĉ": 3436,
      "ďĉ!!!!!!!!!!!!!!!!!!!!!!!!!!!!!!!!!!%": 3437,
      "!!!%!!!&'(": 3438,
      "%ď&'(ĉďĉďĉďĉďĉďĉďĉďĉ": 3439,
      "%Ĉ&'(ĈĈĈĈĈ": 3440,
      "ć%&'(ććĈ!Ĉ!Ĉ!Ĉ": 3441,
      "Ĉ!Ĉ!Ĉ!ĈćĈĈ": 3442,
      "!ďĉććĈ!Ĉ!ĈĈĈ!Ĉ!Ĉ!ĈĈćĈďĉ!!ďĉďĉ!!!)!)": 3443,
      "))C!": 3444,
      "ďďĉĉ!ďĉ": 3445,
      "ďĉďĉďĉďĉďĉď%ĉ&'(": 3446,
      "ďĉďĉďĉďĉďĉ%&'ď(ĉ": 3447,
      "ďĉ!ďĉ!!ďĉďĉďĉďĉďĉďĉ!": 3448,
      "ććĈĈćĈĈ": 3449,
      "#$ćĈ!ćć": 3450,
      "ďĉďĉďĉďĉďĉďĉďĉ%ď&'(ĉ": 3451,
      "%&'(ďĉ!!ćĈ!Ĉ!Ĉ!Ĉ!Ĉ!Ĉ!Ĉ!ćĈ!ďĉ!!!!!!!!": 3452,
      "ďĉďĉďĉďĉďĉćććććĈ)!)!!Ĉ!Ĉ!ĈĈ!!!!!": 3453,
      "ďĉćććĈ!ĈĈ!Ĉ!": 3454,
      "!!!!!!!!!!!!!%!!!!!!!!!!!": 3455,
      "ďĉďĉ!!ďĉ!!ďĉ!!!!!!!!)!!!!!!!!)!": 3456,
      ")ďĉďĉ!ďĉďĉ!!ďĉ!!!!ďĉďĉďĉďĉ": 3457,
      "ćďĈĈ": 3458,
      "Ĉ!Ĉ!Ĉ!ĈĈĈĈĈĈĈĈĈĈ!ĈĈĈ!Ĉ": 3459,
      "ĥĤ!!!": 3460,
      "!!!!!!!!!!!!!!!%!&'(": 3461,
      ")!)!!!!!!!!!!!!!!!!!!!%": 3462,
      "!!!!!!!!!!!!!!!!!!!!!!!!!!!!!!!%!&'(": 3463,
      "%&'(ďĉććďĉďĉ)": 3464,
      "ćďĉ!!ďĉ!ďĉďĉďĉ!": 3465,
      "ďĉ!!!!!!!%&'(!!!!": 3466,
      "!!!!!!!!!ďĉ!!!!!!!!!!!!!!ďĉďĉďĉďĉ": 3467,
      "ďĉďĉ!!ďĉ!ďĉ!!ďĉďĉďĉ!": 3468,
      "ććĈ!Ĉ!Ĉ!ććĈ!Ĉ!Ĉ!ĈĈ!Ĉ": 3469,
      "ćĈ!Ĉ!Ĉ!Ĉ!Ĉ!Ĉ!ĈĈ%&'(ďĉ!!!": 3470,
      "ďĉďĉ!!ćććĈ!Ĉ!ćĈ!Ĉ!ĈĈĈĈ!ććĈďĉďĉ": 3471,
      "ďĉďĉďĉďĉďĉ!!ďĉ!ďĉ!ďĉďĉďĉ!": 3472,
      "ďĉďĉ%ď&'(ĉďĉďĉďĉďĉďĉ": 3473,
      "ďĉďĉďĉ!ďĉ!ďĉ!%&'(ďĉććďĉďĉ)": 3474,
      "0011010101'(333": 3475,
      "ďĉďĉ!%&'(!ďĉ": 3476,
      "ďĉ!ďĉďĉďĉ%&'(ďĉďĉďĉďĉ": 3477,
      "ćććďĉććććććĈ!ććČ%&'(ďĉďĉďĉďĉďĉďĉďĉďĉ": 3478,
      "ćĈ!Ĉ!Ĉ!Ĉ!Ĉ!Ĉ!ĈĈďĉ!!!ďĉ!ďĉ%&'(": 3479,
      "BBBB": 3480,
      "332222323232222222222222222": 3481,
      "ćĈ!ćĈ!ćĈĈĈ!": 3482,
      "ćďĉ!!!!!!!!!ďĉďĉďĉďĉďĉ)!)ďĉďĉďĉ": 3483,
      "ććĈ!Ĉ!Ĉ!ĈćĈ!Ĉ!Ĉ!Ĉ!Ĉ!Ĉ!Ĉ!Ĉ!Ĉ!Ĉ!%&'(ďĉďĉ!": 3484,
      "%Ĉ!Ĉ&'(": 3485,
      "ďĉďĉďĉďĉďĉ!!ďĉ!!!!!!!ďĉ!!": 3486,
      "Aĉ": 3487,
      "ćM": 3488,
      "ćď%ĉ&'(": 3489,
      "ć%ćĈ&'(": 3490,
      "ĉK": 3491,
      "Ĥē": 3492,
      "Ĥ&'(": 3493,
      "ďĉĈ!Ĉ!Ĉ!Ĉ!Ĉ!Ĉ!": 3494,
      "ďĉĈ!Ĉ!ĈĈĈĈĈĈĈĈĈĈĈĈĈĈĈĈĈĈĈĈĈĈĈĈďĉ!": 3495,
      "ćć%&'(ďĉďĉ": 3496,
      "&'(K": 3497,
      "ďĉďĉďĉďĉď%ĉ&'(": 3498
    },
    "merges": [
      "! !",
      "!! !!",
      "!!!! !!!!",
      "Ĉ !",
      "ď ĉ",
      "!!!!!!!! !!!!!!!!",
      "ć ć",
      "ďĉ ďĉ",
      "Ĉ Ĉ",
      "Ĉ! Ĉ!",
      "' (",
      "& '(",
      "!!!!!!!!!!!!!!!! !!!!!!!!!!!!!!!!",
      "% &'(",
      "ć Ĉ!",
      "2 2",
      "ĈĈ ĈĈ",
      "ćć ćć",
      "ć Ĉ!Ĉ!",
      "ďĉďĉ ďĉďĉ",
      "ďĉ !",
      "ć Ĉ",
      "22 22",
      "%&'( %&'(",
      "!! !",
      "Ĉ!Ĉ! Ĉ!Ĉ!",
      "Ĉ! Ĉ",
      "ć ĈĈ",
      "ćć Ĉ!",
      "ďĉ !!",
      "ĈĈĈĈ ĈĈĈĈ",
      "ćĈ ćĈ",
      "M M",
      "ĈĈ Ĉ",
      "!!!!!!!! !!!!",
      "ćĈ! ćĈ!",
      "% &",
      "ďĉďĉ !",
      "ćććć ćććć",
      ") !",
      "%&'(%&'( %&'(%&'(",
      "ďĉďĉ ďĉ",
      "&'( !!!!!!!!!!!!!!!!!!!!!!!!!!!!!!!!",
      "Ĉ! ćĈ!Ĉ!",
      "2222 2222",
      "ćć Ĉ",
      "L L",
      ")! )",
      "ćĈ! Ĉ",
      "Ĉ!Ĉ! Ĉ",
      "ćć ćĈ!Ĉ!",
      "ďĉďĉ ďĉ!",
      "MM MM",
      "ďĉ! ďĉ",
      "%&'( ďĉ",
      "ćĈ! ćĈ!Ĉ!",
      "ďĉďĉ !!",
      "0 1",
      "Ĉ! ĈĈĈ",
      "ćĈĈ Ĉ",
      "!!!!!!!!!!!!!!!! !!!!",
      "%&'(%&'(%&'(%&'( %&'(%&'(%&'(%&'(",
      "ďĉďĉďĉďĉ ďĉďĉďĉďĉ",
      "Ĉ! ĈĈ",
      "4 4",
      "5 5",
      "6 6",
      "8 8",
      "ć ĈĈĈĈ",
      "ćć Ĉ!Ĉ!",
      "!!!!!!!! !!!",
      "+ /",
      "+/ ,",
      "+/, '(",
      "!!!!!!!!!!!!!!!! !!!!!!!!!!!!",
      "! %",
      "%&'( ĉ",
      "22222222 22222222",
      "%& -",
      "! L",
      "ďĉ !!!!",
      "!!!!!!!!!!!!!!!!!!!!!!!!!!!!!!!! !!!!",
      "!L K",
      "ďĉ %&'(",
      "ď %&'(ĉ",
      "!! %",
      "ďĉ! ďĉďĉďĉďĉ",
      "Ĉ! ĈĈĈĈ",
      "7 7",
      "LL LL",
      "ĈĈĈĈĈĈĈĈ ĈĈĈĈĈĈĈĈ",
      "ďĉďĉ ďĉ!!",
      "ćĈ! ćć",
      "ćĈćĈ ćĈ",
      "ć ďĉ",
      "! &'(!!!!!!!!!!!!!!!!!!!!!!!!!!!!!!!!",
      "ďĉ! ďĉ!",
      "Ĉ!Ĉ!Ĉ!Ĉ! Ĉ!Ĉ!",
      "ďĉ !!!!!!!!!!!!!!!!!!!!!!!!!!!!!!!!",
      "! &'(",
      "Ĉ!Ĉ! ćĈ!Ĉ!",
      "&'( ĉ",
      "!!!!!!!!!!!!!!!! !!!!!!!!",
      "MMMM MMMM",
      "Ĉ &'(",
      "!!! %",
      "ď &'(ĉ",
      "ćĈ! ććĈ",
      "ćĈ! ćĈ",
      "!! &'(!!!!!!!!!!!!!!!!!!!!!!!!!!!!!!!!",
      ")!) !!!!!!!!!!!!!!!!!!!!!!!!!!!!!!!!",
      "- %&",
      "% ď&'(ĉ",
      "ďĉďĉďĉďĉ !",
      "% Ĉ&'(",
      "2 3",
      "!!! S",
      "ĉ ĉ",
      "ć ďĉ!",
      "ďĉďĉ %&'(",
      "ćĈćĈ ćĈćĈ",
      "ďĉ ćććć",
      "ćć ćĈ",
      "Ĉ!Ĉ! Ĉ!",
      "%&- +/,'(",
      "Ĉ ćĈĈ",
      "ćććććććć ćććććććć",
      "'( 3",
      "ć %&'(",
      "!LK !LK",
      "Ĉ!Ĉ Ĉ!",
      "ď ď",
      "Ĉ!Ĉ! Ĉ!Ĉ",
      "! ďĉ",
      "ćććć ććĈ!",
      ") )",
      "+ 01",
      "44 44",
      "55 55",
      "66 66",
      "88 88",
      "ćĈ!Ĉ! Ĉ!",
      "-%& +/,'(",
      "ďĉďĉďĉ %&'(",
      "-%&+/,'( -%&+/,'(",
      "ćĈ!Ĉ! Ĉ",
      "ćĈ! ććĈ!",
      "ćĈ! ć",
      "ćććć Ĉ",
      "ćĈ!Ĉ! Ĉ!Ĉ!Ĉ!Ĉ!",
      "ďĉ ĉ",
      "ďĉďĉ !!!",
      "!!! &'(!!!!!!!!!!!!!!!!!!!!!!!!!!!!!!!!",
      "ćĈĈĈĈ Ĉ",
      "ćć Ĉ!Ĉ!Ĉ!Ĉ!",
      "ďĉ !!!!!!!!",
      "ćććć ćććĈ!Ĉ!",
      "2222 22",
      "'( 7",
      "ćĈ! ĈĈĈ",
      "ďĉďĉďĉďĉ ďĉďĉ!",
      "Ą Ć",
      "Ă ĄĆ",
      "22 2",
      "4 %&",
      "5 222",
      "6 '(7",
      "4%& 5222",
      "4%&5222 6'(7",
      "222222 4%&52226'(7",
      "8 ,",
      "2222224%&52226'(7 8,",
      "%&- +01",
      "ď ďĉĉ",
      "T V",
      "ćĈĈ ćĈĈ",
      "'(3 2222224%&52226'(78,",
      "TV a",
      "%&-+01 '(32222224%&52226'(78,",
      "ďĉďĉďĉďĉ ďĉ",
      "Ĉ!Ĉ Ĉ!Ĉ",
      "%Ĉ&'( !",
      "ĈĈĈĈĈĈĈĈ ĈĈĈĈ",
      "ćććć Ĉ!",
      "ďĉďĉďĉďĉ ďĉďĉ",
      "Ĉ!Ĉ! ĈĈ",
      "!! &'(",
      "ďĉ !!!",
      "01 01",
      "ćć Ĉ!Ĉ",
      "%&-+/,'( %&-+/,'(",
      "ćĈ!Ĉ! Ĉ!ćĈ!Ĉ!",
      "ćć ć",
      "!! ďĉ",
      "LLLL LLLL",
      "Ĉ! ćĈ!",
      "!!!!!!!!!!!! !!!",
      "ćć Ĉ!Ĉ!Ĉ",
      "ććĈ! ć",
      "ćĈ!Ĉ! Ĉ!Ĉ!",
      "23 23",
      "!!!S ĂĄĆ",
      "Ĉ!Ĉ! Ĉ!ćĈ!Ĉ!",
      "ćĈ!ćĈ! ćĈ!ćĈ!",
      "%&'( ďĉďĉ",
      "2222222222222222 22222222",
      "ďĉ! ďĉ!!",
      "R TVa",
      "ď !",
      "ćć ĈĈ",
      "ćĈĈ ćĈ",
      "MMMMMMMM MMMMMMMM",
      "ďĉ! ďĉďĉ",
      "# $",
      "!!!!!!!! !",
      "ĈĈĈĈ ĈĈ",
      "ďĉ! ďĉďĉ!",
      "Ĉ Ĉ!",
      "% !&'(",
      "ćć ĈĈĈ",
      "ćĈ! ĈĈ",
      "% ć",
      "ďĉ! ďĉďĉďĉ!",
      "ććĈ! ćć",
      "ďĉďĉďĉďĉ ďĉďĉďĉ",
      "% ĉ",
      "ĈĈ Ĉ!ĈĈĈ",
      "ďĉďĉďĉďĉ ďĉďĉďĉ!",
      "ďĉďĉďĉďĉ ďĉ!!",
      "ĈĈĈĈĈĈĈĈ Ĉ",
      "%& '",
      "Ĉ!Ĉ ćĈ!Ĉ!",
      "%&'( ďĉ!!",
      "ćććĈ!Ĉ! Ĉ!Ĉ!Ĉ!Ĉ!",
      "!!!! !!!",
      "ď %ĉ",
      "77 77",
      "ćććć Ĉ!ćĈ!Ĉ!",
      "!!!!!!!!!!!!!!!! !!!!!!!!!!!",
      "ć ďĉďĉ",
      ")!) !!",
      "ćć Ĉ!Ĉ!Ĉ!Ĉ!Ĉ!Ĉ!",
      "ćĈ!ćĈ!Ĉ! Ĉ!",
      "01 1",
      "ď%ĉ &'(",
      "Ĉ!Ĉ!Ĉ !!",
      "ďĉ!!!! !!",
      "ĉ !",
      "-%&+/,'(-%&+/,'( -%&+/,'(-%&+/,'(",
      "!!!!!!!! !!",
      "ďĉďĉ ćććć",
      "ćĈ!ćĈ!Ĉ! Ĉ!ćĈ!Ĉ!",
      "0 011",
      "RTVa !!!SĂĄĆ",
      "%&'( !!!!!!!!!!!!!!!!!!!!!!!!!!!!!!!!",
      "ćĈ Ĉ!",
      "!!!! R",
      "!!!! !",
      "!!!!!!!!!!!! !",
      "ćććĈ!Ĉ! Ĉ!Ĉ!",
      "ćĈ! ďĉ!",
      "ď '(",
      "ćĈ!ćĈ! Ĉ",
      "3 3",
      "ďĉ!!!! !",
      "!! )!",
      "ćĈĈĈĈ ĈĈ",
      "ćĈ! ćĈĈ",
      "ĈĈĈ Ĉ!",
      "!LK!LK !LK!LK",
      "!!!!!!!!!!!!!!!!!!!! !",
      "%& ď'(",
      "ćĈĈĈ ćĈĈ",
      "ďĉďĉďĉ! ďĉďĉ!",
      "# .",
      "$ #$",
      "ď (",
      "!!!! !!",
      "Ĉ!ćĈ!Ĉ! Ĉ",
      "ćĈ!Ĉ Ĉ!",
      "ććĈ! ćĈ!ćĈ!",
      "#. .",
      "!!!!R !!!S",
      "!!!!!!!!!!!!!!!! !!!",
      "Ĉ!ĈĈĈĈ ĈĈĈ",
      "ććĈ ćć",
      "ĈćĈĈ ćĈ",
      "ććĈ! ććĈ!",
      "$#$ !!)!",
      "%&-+/,'( #..",
      "Ĉ!Ĉ! ĈĈĈ",
      "%&' ď(",
      "Ĉ!Ĉ!Ĉ Ĉ!Ĉ",
      "ďĉ! ďĉďĉďĉ",
      "ćĈĈćĈĈ ćĈćĈćĈ",
      "ďĉďĉ!! ďĉ",
      "ĈĈ Ĉ!Ĉ!",
      "ďĉ! ďĉďĉďĉďĉďĉďĉďĉďĉ",
      "ćććĈ!Ĉ! Ĉ!",
      "ććććććĈ! ćĈĈ",
      "ćĈ!ćĈ!ćĈ!ćĈ! ćĈ!Ĉ!",
      "ĉĉ ĉĉ",
      "ĈĈĈĈ Ĉ",
      "Ĉ!ĈĈ ćĈ",
      "%&-+/,'(#.. $#$!!)!",
      "Ĉ!ĈćĈ!Ĉ! Ĉ!Ĉ",
      "ćĈ!Ĉ! Ĉ!Ĉ!ćĈ!Ĉ!",
      "% !!!!",
      "Ĉ!Ĉ Ĉ!ĈĈĈ",
      "!!!!!!!!!!!! !!",
      "!!!!!!!!!!!!!!!!!!!!!!!!!!!! !!",
      "ćććĈ!Ĉ! Ĉ!Ĉ",
      "ďĉ! ďĉ!ďĉ",
      "ďĉ! ďĉďĉ!!",
      "Ĉ!Ĉ!Ĉ!Ĉ! Ĉ!Ĉ!Ĉ!Ĉ!",
      "%ć &'(",
      "ćććć ćć",
      "ćććććććć ćć",
      "%&ď'( ĉ",
      "ć ĉ",
      "%&-+/,'(#..$#$!!)! %&-+/,'(#..$#$!!)!",
      "ďĉďĉ !!!!",
      "ďĉďĉďĉďĉ ďĉćććć",
      "%& 5555",
      "4444 4444",
      "5555 222222222222222222222222",
      "6666 6666",
      "8888 ,",
      "8888 8888,",
      "%&5555 5555222222222222222222222222",
      "ć ďĉďĉďĉ",
      "%&-+/,'(%&-+/,'( %&-+/,'(%&-+/,'(",
      "!!! &'(",
      "%&'ď( ĉ",
      "( 7",
      "(7 88888888,",
      ") !!!!!!!!",
      "%&'( ďĉďĉďĉ!",
      "ďĉďĉďĉďĉďĉďĉďĉďĉ !",
      "!!!!!!!!!!!!!!!!!!!!!!!!!!!!!!!!!!!! !!%",
      "% !",
      "2 44444444",
      "222222222222222222222222 244444444",
      "ć ďĉ!ďĉ",
      "(788888888, -%&",
      "ďĉ ćć",
      "ć ĈĈĈĈĈĈĈĈ",
      "%&'( ďĉďĉ!",
      "ćĈ ćĈĈ",
      "Ĉ!Ĉ! ćĈ!",
      "Ĉ!ĈĈĈĈ Ĉ",
      "Ĉ!Ĉ!Ĉ!Ĉ! ĈćĈĈ",
      "ćĈ! Č",
      "%&'( !",
      "ć !",
      "ćĈ ććĈ",
      "ďĉ!! ďĉ",
      "Ĉ!ĈĈ Ĉ!",
      "Ĉ Ĉ!Ĉ!Ĉ!Ĉ!",
      "% !!!!!!!!!!!!",
      "!!!!!!!!!!!! !%",
      "ć ĈĈĈĈĈĈĈĈĈĈĈĈ",
      "ćĈ!ć Č",
      "Ĉ! ćĈ!ćĈ!",
      "ďĉďĉ!! ďĉ!!",
      "L !LK",
      "ćĈ!Ĉ ćĈ",
      "ďĉďĉďĉ ć",
      "ĈĈĈĈĈĈĈĈ ĈĈĈ",
      ") ďĉďĉ!",
      "Ĉ! ććĈ!Ĉ!",
      "ćĈ!ćĈ! ćĈ",
      "%&'( ďĉďĉďĉďĉ",
      "ćĈ!Ĉ Ĉ!Ĉ!",
      "ćććć ćĈ!ćĈĈ",
      "' 7777",
      "ćĈ!Ĉ! ćĈ!Ĉ!",
      "ćĈ!Ĉ!Ĉ ćĈ!Ĉ!",
      "ćććć Ĉ!Ĉ!",
      "&'( !",
      "!! Č",
      "ććććĈ ććĈ",
      "ćĈćĈćĈćĈ ćĈćĈćĈćĈ",
      "ćĈ! ćĈćĈćĈ",
      "ćĈ Ĉ!Ĉ!Ĉ",
      "ćĈĈĈĈĈĈĈĈ ććĈ",
      "ćĈ!ćĈ! ćĈ!ćĈ",
      "!!!!!!!!!!!!!!!!!!!!!!!!!!!!!!!!!!!! !%",
      "ććĈ!ćć ćĈ!ćć",
      "ććĈ! ćĈ!Ĉ",
      "LLLLLLLL LLLLLLLL",
      "ćĈ!ćĈ!Ĉ! ćĈĈ",
      "!!!!!!!! !%",
      "ććĈ! ććććĈ",
      "Ĉ!ĈĈĈ Ĉ!",
      "ćĈ Ĉ!ćĈ!Ĉ!",
      "ĈĈĈ!ĈĈĈ ććĈ!",
      "ćććć Ĉ!ĈĈ",
      "ćĈĈĈ Ĉ!Ĉ",
      "ĈĈĈĈ ćĈĈĈĈ",
      "ććĈ ććĈ!",
      "ĈĈĈĈĈĈĈĈĈĈĈĈĈĈĈĈ ĈĈĈĈ",
      "ćĈ!Ĉ! ććĈ!",
      "ďĉ !!!!!!!!!!!!!!!!",
      "ćĈ ćĈĈĈĈ",
      "ć %&'(ďĉ",
      "ďĉ! )!)",
      "ďĉ!! ďĉďĉďĉďĉďĉďĉ!",
      "% !!!!!!!!",
      "ćć ćĈćĈ",
      "ćĈ!Ĉ ććĈĈĈ",
      "Ĉ!ĈĈĈĈ ĈĈ",
      "ćĈćĈćĈćĈ ćĈĈćĈĈćĈćĈćĈ",
      "Ĉ ćĈ!Ĉ!",
      "!!!!!!!!!!!!!!!!!!!!!!!!!!!! !%",
      "ĈĈĈĈĈĈĈĈĈĈĈĈĈĈĈĈ ĈĈĈĈĈĈĈĈĈĈĈĈĈĈĈĈ",
      "RTVa!!!SĂĄĆ !!!!R!!!S",
      "ćĈ!Ĉ Ĉ!Ĉ",
      "ďĉďĉďĉ! ďĉ",
      "ćĈ!ććĈ ćĈ!ćĈ",
      "!! ćĈ!Ĉ!Ĉ!Ĉ!",
      "ććĈĈ ććĈćć",
      "Ĉ!ĈćĈ!Ĉ!Ĉ!Ĉ ćĈ!ćć",
      "!!!! ďĉ!!",
      "ćĈ!ćĈ! ćĈ!ćĈ!Ĉ!",
      "ćććĈ!Ĉ! ćĈ!Ĉ!",
      "ććĈ! ćĈ!ććĈ!",
      "ĈĈĈĈĈĈ ćĈ!ććĈ",
      "Ĉ!Ĉ!Ĉ!Ĉ !!",
      "!!!!!!!!!!!!!!!!!!!! !!",
      "ĈĈĈĈĈĈĈĈĈĈĈĈ ĈĈ!Ĉ!Ĉ!Ĉ!",
      "ĈćĈĈćĈ ćĈĈĈćĈĈ",
      "ć ďĉďĉďĉďĉ!",
      "ććććććĈ! ćć",
      "ĈĈĈĈĈĈĈĈĈ Ĉ!ćĈ!Ĉ!",
      "ćć ćĈĈ",
      "ďĉ ćĈ!Ĉ!",
      "ďĉďĉďĉďĉ ďĉ!",
      "!!!!!!!!!!!!!!!! !!",
      "ćĈ!Ĉ ćĈćĈćĈ",
      "ďď ďď",
      "ďĉ!ďĉ !!!!!!!!!!!",
      "ď%&'(ĉ !",
      "ď! ĉ",
      "Ĉ!ĈĈ!ĈĈĈ Ĉ!ĈĈ!Ĉ",
      "ćĈ!Ĉ!Ĉ! ćĈĈćĈ",
      "ććĈ!Ĉ!Ĉ!Ĉ!Ĉ!Ĉ! ćĈ",
      "!!!!!!!!!!!!!!!!!!!!!!!!!!!! !!!",
      "ĈĈĈĈĈĈĈĈĈ Ĉ!ĈĈ",
      "Ĉ!ćĈ!Ĉ!Ĉ ćĈĈĈ",
      "% ćĈ",
      "ćććĈ!Ĉ!Ĉ!Ĉ! ĈĈĈĈĈĈĈĈĈĈ!ćĈ!Ĉ!",
      "ďĉ!ďĉďĉďĉďĉ !!",
      "ćććć ććĈććĈ!",
      "ć ď",
      "!!!!!!!!!!!! !!%",
      "!!!!!!!!!!!!!!!!!!!!!!!!!!!! !!%",
      "ćććććććććććććććć ćććććććć",
      "ďĉďĉ! ďĉďĉďĉ!!",
      "(788888888,-%& +01",
      "ďĉ!ďĉ !!!!!!",
      "Ĉ!Ĉ!Ĉ! ĈĈĈĈĈĈĈĈĈĈ!ĈĈ",
      "& '",
      "ďĉ!! ďĉďĉ!!!",
      "ćććććććĈ!Ĉ! Ĉ!ćĈ!Ĉ!",
      "ďĉďĉ! ďĉ",
      "% !!!!!!!!!!!!!!!!",
      "ĥ Ĥ",
      "Ĉ!Ĉ!Ĉ Ĉ!Ĉ!Ĉ!Ĉ!",
      "!!!!!!!!!!!!!!!!!!!!!!!!!!!!!!!! !!!%",
      "ćććććććĈ!Ĉ! ććććććĈ!ćĈĈ",
      "ďĉďĉ !!!!!!!!!!!!!!!!!!!!!!!!!!!!!!!!",
      ")!) !!!!!!!!!!!!!!!!!!!!!!!!!!!!!!!!!!!!",
      "ďĉďĉ! ďĉ!!",
      "!!!!!!!! !!%",
      "MMMMMMMMMMMMMMMM MMMMMMMMMMMMMMMM",
      "Ĉ!Ĉ ćĈ!",
      "ďĉ!! ďĉďĉďĉ",
      "!!!!!!!!!!!!!!!!!!!!!!!!!!!!!!!! !%",
      "ďĉ ćććććććć",
      "Ĉ !!",
      "%&'( ďĉďĉďĉďĉďĉďĉďĉďĉ",
      "!!!!!!!!!!!!!!!!!!!!!!!! !%",
      "ćĈ!Ĉ ćĈĈ",
      "ććĈ! ćďĉ",
      "!!!!!!!!!!!!!!!!!!!!!!!!!!!!!!!! !!%",
      "!!!!!!!!!!!!!!!!!!!!!!!!!!!!!!!!!!!! !!!",
      "ďĉ Ĉ!ĈĈĈĈĈĈĈ",
      "Ĉ!Ĉ!Ĉ!ĈĈĈĈĈĈĈĈĈĈ!ĈĈ Ĉ!ĈĈ!ĈĈĈĈ!ĈĈ!Ĉ",
      "Ĉ (",
      "!!!!!!!!!!!! !!!%",
      "ďĉ Ĉ!Ĉ!Ĉ!Ĉ!",
      "%&'(ďĉ !!!!!!!!!!!!!!!!!!!!!!!!!!!!!!!!",
      "Ĉ! ĉ",
      ")!) !!!!!!!!!!!!!!!!!!!!",
      "!!ďĉ ćć",
      "ćć ćĈ!",
      "Ė Ė",
      "%&'(ďĉ Ĉ!Ĉ!Ĉ!Ĉ!",
      ")!!!!!!!! )!",
      "Ĉ Ĉ!Ĉ",
      "ďĉďĉ! ďĉďĉ",
      "!!!!!!!!!!!!!!!!!!!!!!!! !!%",
      ")!) !!!!!!!!!!!!!!!!",
      "!!!!!!!!!!!!!!!!!!!!!!!!!!!! !!!%",
      "ďĉďĉďĉďĉ ďĉ%&'(",
      "ďĉďĉ! ďĉ!",
      "Ĉ '(",
      "% !&'(!!!!!!!!!!!!!!!!!!!!!!!!!!!!!!!!",
      "%&'( ďĉ!",
      "ďĉďĉďĉďĉ! ďĉďĉ",
      "3 22",
      "ćĈĈĈĈĈ ćĈĈĈĈĈ",
      "ććĈ!Ĉ! Ĉ!Ĉ",
      "Ē !!",
      "ďĉďĉďĉďĉ !!",
      "ćććććććć ćććć",
      "01 '(3",
      "ćććĈ!Ĉ!Ĉ!Ĉ!Ĉ!Ĉ! ćććććĈ!ćĈĈ",
      "ďĉďĉ ćććĈ!Ĉ!",
      "ďĉďĉďĉďĉďĉ )!)",
      "ďĉ!ďĉďĉďĉďĉ !",
      "23 2222222222222222",
      "% !!!&'(",
      "ćććć ćĈ!Ĉ!Ĉ!ćĈĈćĈ",
      "%&'(ďĉ ćć",
      "!LK!LK!LK!LK !LK!LK!LK!LK",
      "%ď&'(ĉ !",
      "ćĈ!Ĉ Ĉ!ĈĈĈ",
      ")! )!",
      "!!!!!!!!!!!!!!!!!!!! !!!%",
      "A A",
      "%&'( ďĉďĉďĉ",
      "ďĉ! ććĈ!",
      "Ĉ!Ĉ!Ĉ Ĉ!Ĉ!",
      "Ĉ!Ĉ Ĉ!Ĉ!Ĉ!Ĉ!",
      "!!!!!!! &'(",
      "!!!!!!!!!!!!!!!! !%",
      "ďĉďĉďĉďĉ ďĉďĉ%&'(",
      "Ĉ! ćć",
      "ćĈ! ďĉ",
      "ďĉďĉďĉ!! ďĉďĉ",
      "% !!!!!!!!!!!!!!!!!!!!",
      "3 2323",
      "ć (",
      "Č ďĉ",
      "ďĉ!! ďĉ!!!!!!!!",
      "ćĈ!ćĈ!Ĉ! ĈćĈ!Ĉ!",
      "Ĉ!Ĉ!Ĉ Ĉ!",
      "!!!!!!!!!!!!!!!!!!!! !%",
      "ćĈ! ĈĈĈĈ",
      "ďĉďĉ!! ďĉ!!!!",
      "!!!!!!!!!!!!!!!!!!!! !!!",
      "Ĉ!Ĉ!Ĉ!Ĉ!ĈćĈĈ Ĉ!ĈĈĈ",
      "ďĉ! %&'(",
      "Ĉ!ĈĈ Ĉ!Ĉ!Ĉ",
      "ďĉďĉ! ďĉďĉćććć",
      "ććććĈ ćĈ",
      "ďĉ ďďĉĉ",
      "%&'(ďĉ !!!",
      "ććĈ!Ĉ! Ĉ!ćĈ!",
      "77 7",
      "ćĈ!Ĉ! Ĉ!Ĉ!Ĉ!",
      "Ĉ!ćĈ!Ĉ! Ĉ!ćĈ!Ĉ!",
      "ć !!",
      "!!!!!!!!! ććććĈ!ĈĈ",
      "% !!&'(!!!!!!!!!!!!!!!!!!!!!!!!!!!!!!!!",
      "ďĉďĉďĉďĉ ćććć",
      "ďĉ ď%&'(ĉ",
      "ďĉďĉ! ďĉďĉ%&'(",
      "ďĉ!ďĉ !!!",
      "Č ďĉďĉ",
      "ďĉ ))",
      "Ĉ!Ĉ! Ĉ!ĈĈĈ",
      "ćĈĈĈ ćĈ",
      "ć ďĉ!!",
      "ćĈ!Ĉ ćĈ!Ĉ!",
      "%! Ĉ&'(",
      "Ĉ! ďĉďĉ!",
      "ćć Ĉ!ĈĈ!",
      "ďĉďĉ )",
      "%&'(%&'( %&'(",
      "ĈćĈĈćĈćĈĈĈćĈĈ ďĉ",
      "ćĈ!Ĉ! ĈĈ",
      "Ĉ!Ĉ!Ĉ!Ĉ! Ĉ!Ĉ",
      ")!) !!!!!!!!",
      "ćĈ!Ĉ!Ĉ ćĈ!",
      "Ĉ( !",
      "Ĉ!Ĉ!ĈĈ Ĉ!",
      "ćĈ!Ĉ !!",
      "%&'(ďĉ!! ďĉ!ďĉďĉ!",
      "ďĉ ććĈ!",
      "ďĉ!!!! !!!",
      "ćććććććć ććććĈ!",
      "!!!!!!!! !ďĉ",
      "ĈĈĈĈ Ĉ!",
      "ć ďĉ%&'(",
      "Ĉ!Ĉ!Ĉ!Ĉ! ĈĈĈĈ",
      "ćĈćĈ ćĈ!Ĉ!",
      "ćććĈ ćć",
      "ďĉ !!!!!!!!!!!",
      "ććĈ!ć ďĉďĉďĉďĉďĉďĉďĉďĉ",
      "% !!&'(",
      "Ĉ! ćĈ!ĈćĈ",
      "0 0011",
      "ďĉ ď",
      "Ĉ!Ĉ!Ĉ!Ĉ! Ĉ!Ĉ!Ĉ",
      "ďĉ!!ďĉ !!!!!!!!!!!",
      "Ĉ!Ĉ Ĉ!Ĉ!Ĉ!Ĉ",
      "Ĉ!ćĈ!Ĉ! Ĉ!Ĉ!Ĉ!!",
      "Ĉ! ććĈĈ",
      "Ĉ!Ĉ! ćĈĈ",
      "ćĈ!ćĈ! ćďĉďĉďĉďĉ!",
      "Č Č",
      "ćĈ ćĈ!ćĈ",
      "Ĉ! ďĉďĉ",
      "!!!!!!!!!!!!!!!! !!!%",
      "ćĈ!Ĉ! ćĈ",
      "!!! ďĉďĉďĉďĉ",
      "ďĉďĉďĉ!! ďĉ!",
      "Ĉ'( !",
      "% !!!!!!!!!!!!!!!!!!!!!!!!!!!!!!!!",
      "ďĉ !!!!!!!!!!!!",
      "ďĉďĉ!! ďĉ!ďĉ!!",
      "Ĉ!Ĉ! ćĈ!ĈĈ!",
      "Ĉ!ĈĈ Ĉ!ĈĈ",
      "Ĉ! %&'(ďĉďĉďĉ!",
      "ćĈĈĈ ććĈ",
      "ćĈĈĈĈĈ ćĈ",
      ") !!!!!!!!!!!!!!!!!!!!!!!!!!!!!!!!",
      "Ĉ! ďĉ!ďĉďĉďĉďĉ",
      "ćĈ ććć",
      "Ĉ!Ĉ ććĈ",
      "Ĉ!Ĉ! ĈĈĈĈĈĈ",
      "ćĈ! ćĈĈĈ",
      "Ĉ!Ĉ!Ĉ!Ĉ Ĉ!Ĉ",
      "ďĉ!!! ćććć",
      "%ćĈ &'(!",
      "!! ćććć",
      "Ĉ! Č",
      "ćĈ!ćĈ! ćĈ!Ĉ!",
      "Ē !",
      "ćĈĈ ććĈĈĈ",
      "ććĈ! ćĈĈ",
      "ćĈćĈ ćĈćĈćĈ",
      "Ĉ!ďĉďĉ! ďĉćććć",
      "ć %Ĉ&'(!",
      "ćĈĈĈ ććĈĈĈ",
      "ćććĈ ććĈ",
      "ĈĈ! ććĈ!Ĉ!",
      "!!!!!!!!!!!!!!!! !!%",
      "ćć ćĈ!ćĈ!",
      "ćć ćĈ!ćĈ!ćĈ!ćĈ!",
      "ďĉćććć Ĉ!ćĈ!ćĈ!",
      "ććĈ!Ĉ!Ĉ!Ĉ! Ĉ!ďĉďĉ!ďĉćććć",
      "ćĈ!ćĈ!Ĉ Ĉ!Ĉ!",
      "ćĈ!ćĈćĈćĈ ďĉďĉ!",
      "ćĈ!ćĈ!ćĈ!ćĈ ćĈ!ćĈ!Ĉ!",
      "Čďĉ ćĈ!ćĈ!ćĈ!ćĈćĈ!ćĈ!Ĉ!",
      "ĈĈ!ććĈ!Ĉ! ČďĉćĈ!ćĈ!ćĈ!ćĈćĈ!ćĈ!Ĉ!",
      "ćććĈ!ćĈ!ćĈ!ćĈ! ćĈ!ćĈćĈćĈďĉďĉ!",
      "ććĈ!Ĉ!Ĉ!Ĉ!Ĉ!ďĉďĉ!ďĉćććć ćĈ!Ĉ!Ĉ!Ĉ!Ĉ!Ĉ!",
      "Ĉ!ĈĈĈ ćĈ!ćĈĈĈ",
      "ďĉďĉďĉďĉďĉćććć Ĉ!ćĈ!ĈćĈ",
      "Ĉ!Ĉ!Ĉ!Ĉ!ĈćĈĈ ćĈĈĈĈĈ",
      "ĈĈ!ććĈ!Ĉ!ČďĉćĈ!ćĈ!ćĈ!ćĈćĈ!ćĈ!Ĉ! ććĈ!ĈĈ!",
      "ćććĈ!ćĈ!ćĈ!ćĈ!ćĈ!ćĈćĈćĈďĉďĉ! ćććććććĈ!Ĉ!",
      "ćĈ!Ĉ! ĈĈĈĈĈĈ",
      "ďĉďĉďĉďĉ Ĉ!ĈĈĈćĈ!ćĈĈĈ",
      "Ĉ!ćĈ!Ĉ! ĈĈĈ!ĈĈĈććĈ!",
      "ććĈ ćĈćĈćĈ",
      "!!!!!!!!!!!!!!!!!!!! !!%",
      "ćĈ!ćć ćĈ!ćć",
      "Ĉ!ĈĈ! ććĈ!Ĉ!Ĉ",
      "ćĈ!ććĈ! ćĈ!ććĈ!",
      "ĈĈ ćĈćĈćĈ!Ĉ!",
      "Ĉ!Ĉ! ĈĈĈĈ",
      "ććĈ! ĈĈĈĈĈ!",
      "ććĈ!Ĉ! ĈĈĈ!Ĉ!",
      "ććĈ!Ĉ!Ĉ ćĈĈĈććĈĈĈ",
      "ćććććć ćĈ!ćĈ!Ĉ!",
      "ćĈ!Ĉ!ććĈ! ĈĈćĈćĈćĈ!Ĉ!",
      "ćĈĈĈĈĈćĈĈĈĈĈ ćĈ!ĈĈĈ",
      "Ĉ!Ĉ!ĈĈĈĈĈĈ ćĈ!ĈĈĈ",
      "ććĈ!Ĉ!ĈĈĈ!Ĉ! Ĉ!ĈĈćĈ",
      "ćĈ!Ĉ!ććĈ!ĈĈćĈćĈćĈ!Ĉ! ĈćĈĈ",
      "ĈĈĈĈĈĈĈĈĈĈĈĈĈĈĈĈ ĈĈĈĈĈĈĈĈĈĈĈ",
      "ććĈ!ćĈ!ćĈ! ćĈ!ćĈćĈćĈ",
      "ćĈĈ!Ĉ!Ĉ ćĈ!Ĉ!ĈĈĈĈĈĈ",
      "ćĈ!ćĈ!Ĉ!ćĈĈ ćĈ!Ĉ!ććĈ!ĈĈćĈćĈćĈ!Ĉ!ĈćĈĈ",
      "ĈĈĈĈĈĈĈĈ Ĉ!Č",
      "ćĈĈĈ ććĈ!Ĉ!",
      "ĈĈĈĈĈĈĈĈĈĈĈĈĈĈĈĈ ĈĈ!",
      "ćĈ!ĈĈĈ Ĉ!ĈĈ!Ĉ",
      "ććĈ!ćć Ĉ!ĈĈ!ććĈ!Ĉ!Ĉ",
      "!!!! ďĉććććĈ!ćĈ!ćĈ!",
      "ćĈ! ćććĈ!Ĉ!Ĉ!",
      "ćĈ!Ĉ! ćĈĈ",
      "ćĈ!ćĈ! ćĈ!Ĉ!Ĉ!",
      "ććććĈ! ććĈ!ć",
      "ććĈĈ ćĈĈĈ",
      "ĈĈĈĈĈĈĈĈĈĈĈĈĈĈĈĈĈĈĈĈ ĈĈĈ",
      "Ĉ!ćć ćĈ!ććĈ!",
      "ćććĈćć ćĈĈćĈ",
      "ććĈćĈćĈćĈ ćĈ!",
      "ćććććććĈ!ćĈ!Ĉ! Ĉ!Ĉ!Ĉ!ćĈ!Ĉ!",
      "ććĈ! ćĈ!ććĈ",
      "ćććĈ Ĉ!Ĉ!",
      "Ĉ!Ĉ!Ĉ! ćĈĈĈććĈ",
      "ďĉ!!!!!!!! !",
      "ćĈ!ĈĈĈ ćć",
      "ē ē",
      "ćĈ! ććććććĈ!",
      "ćĈ!Ĉ! Ĉ!Ĉ!Ĉ!Ĉ!Ĉ!Ĉ!",
      "ćĈ!ćĈ! ććĈ",
      "Ĉ!ćĈ! ćĈĈĈĈ!Ĉ",
      "ćĈ!ćĈ!Ĉ Ĉ!ćĈ!Ĉ!ĈĈĈ!ĈĈĈććĈ!",
      "ĈĈĈĈ! ććĈ",
      "Ĉ!%&'(ďĉďĉďĉ! ))",
      "Ĉ!Ĉ!Ĉ!Ĉ!ĈćĈĈćĈĈĈĈĈ Ĉ!%&'(ďĉďĉďĉ!))",
      "Ĉ!ćććĈ!ććĈ! ćĈ!ĈĈĈćć",
      ") !!!!!!!!!!!!!!!",
      "Ĉ!Ĉ!Ĉ!Ĉ! ĈĈĈĈĈĈĈĈĈ!Č",
      "Ĉ!Ĉ!Ĉ!Ĉ!Ĉ!Ĉ! ĈĈĈ!Ĉ!",
      "Ĉ!Ĉ!Ĉ!ćĈ!Ĉ! ćĈ!ćĈ!ćĈ!ćĈ!ćĈ!Ĉ!",
      "Ĉ!ĈĈĈ! ĈĈĈĈĈĈĈĈĈĈĈĈĈĈĈĈĈĈ!",
      "!!Č !",
      "ććććĈćĈ ććĈ!",
      "!! ďĉ!!!!!!",
      "Ĉ!Ĉ ćć",
      "ćććććććć Ĉ!",
      "Ĉ!ĈĈĈ Ĉ!Ĉ",
      "ććĈ!Ĉ!Ĉ!Ĉ! Ĉ",
      "ďĉ!!! ćććĈ",
      "ććĈ!ć ďĉďĉďĉďĉ",
      "ććĈ!ćććĈ!ćć ćĈ!ćććĈ!Ĉ!Ĉ!",
      "ćĈ!Ĉ!! Ĉ!ćĈ!ćĈ!",
      "ćĈĈĈććĈ!Ĉ! ććĈ!ćć",
      "ď ćĉ",
      "ćĈćĈ ćĈĈĈćĈ",
      "Ĉ!ĈĈ! ĈĈĈĈĈĈĈĈĈĈĈĈĈĈĈĈĈĈĈĈĈĈĈĈĈĈĈ",
      "!!ďĉ !!!!!!!!!!!!!!!!!!!",
      "ďĉ!!!!! ćĈ!Ĉ",
      "ćććććććĈ!ćĈ!Ĉ!Ĉ!Ĉ!Ĉ!ćĈ!Ĉ! ćĈććĈ",
      "%&'( TVa",
      "ćĈ!Ĉ! ććĈ",
      "ćĈ ćĈ!ććĈ",
      "Ĉ!ĈĈ Ĉ!ĈĈĈĈ",
      "ćĈ!ćĈ !!",
      "ćĈćĈĈ Ĉ!Ĉ",
      "ćĈ!ćĈ!Ĉ!ćĈĈ ćĈ!Ĉ",
      "Ĉ!ĈĈĈĈ! ĈĈĈĈĈĈĈĈ",
      "ćĈćĈĈĈĈ ĈĈĈ",
      "Ĉ!Ĉ!Ĉ!ćĈĈĈććĈ Ĉ!ćććĈ!ććĈ!ćĈ!ĈĈĈćć",
      "ćĈ!ććććććĈ! ćĈ!ććĈ",
      "Ĉ!Ĉ!Ĉ!Ĉ! ćĈ!",
      "ćĈĈ Ĉ!Ĉ!ćĈ!Ĉ!",
      "ĈĈĈĈĈĈĈĈĈĈĈĈĈĈĈĈ ĈĈĈĈĈĈĈĈ",
      "ćććĈ ććććĈććĈ",
      "ćĈĈćĈĈ ćĈĈĈĈĈćĈ",
      "ďĉ!ďĉďĉ !!!!!!!!!!!!!!!!!!!!!!!!!!!!",
      "ććĈ!ććććĈ ćĈćĈćĈ",
      "ććĈ!ćďĉ !!!!!!!!",
      "ĈĈ!Ĉ ććĈ!Ĉ!Ĉ",
      "Ĉ!Ĉ!ĈĈ!Ĉ! Ĉ!ĈĈĈĈ",
      "Čďĉďĉ ććĈ!ćĈ!ćĈ!ćĈ!ćĈćĈćĈ",
      "ćĈ!Ĉ!!Ĉ!ćĈ!ćĈ! ććĈ!Ĉ!",
      "ďĉďĉ ď%&'(ĉ",
      "Ĉ!Ĉ!Ĉ Ĉ!Ĉ!ĈĈĈ",
      "Ĉ!Ĉ!Ĉ Ĉ!Ĉ!ĈĈ!Ĉ",
      "ćććĈ!Ĉ! Ĉ",
      "Ĉ!ĈĈĈ Ĉ!ĈĈĈĈ",
      "ďĉ!ďĉďĉďĉďĉ ďĉďĉďĉ",
      "ććććĈ! ćććĈććĈ",
      "ćććĈćććĈĈćĈ ćĈ!Ĉ!",
      "Ĉ!Ĉ!Ĉ!Ĉ!ĈĈĈĈĈĈĈĈĈ!Č ďĉ!",
      "Ĉ!Ĉ Ĉ!Ĉ!ćĈ!",
      "ďĉďĉ! ďĉ%&'(",
      "ććĈ!Ĉ!Ĉ!Ĉ! Ĉ!ĈĈ!",
      "ćĈ!ĈĈĈ !!ćććć",
      "ććĈ!Ĉ ććććĈ",
      "ćĈĈĈćĈĈ ćććć",
      "ćććĈ!Ĉ!Ĉ! ććĈ",
      "ćć ĈĈĈĈćĈĈĈĈ",
      "ćĈ Ĉ!Ĉ!Ĉ!Ĉ!",
      "ćĈ!Ĉ ćĈ!ććĈ",
      "Ĉ!Ĉ!ćĈ!Ĉ! ĈĈĈ",
      "ćĈĈćĈĈ ćĈ!ćććĈ!ćć",
      "ćĈ!ĈĈ ćĈ!ćĈ!Ĉ!Ĉ!",
      "ćĈćĈćĈćĈćĈćĈćĈćĈ ćĈćĈćĈćĈ",
      "ććĈ!ćĈ!Ĉ Ĉ!ćĈ!Ĉ!",
      "Ĉ!ććĈĈ ććĈ!ćĈĈ",
      "Ĉ!ĈĈĈĈ!Ĉ Ĉ!ĈĈĈĈ",
      "ďĉ!!!!!ćĈ!Ĉ ćĈ!ćĈ!ĈĈ!ćĈ!Ĉ!ĈĈĈ!ĈĈĈććĈ!",
      "Ĉ!ćĈ!Ĉ! Ĉ!Ĉ!Ĉ!Ĉ!",
      "ćĈĈĈ Ĉ!Ĉ!ćĈ!Ĉ!",
      "ćĈĈĈ Ĉ!Ĉ!ćĈ!",
      "ćĈĈĈ ćĈ!ĈĈĈĈ",
      "ćĈćĈćĈ ćĈĈĈ",
      "ďĉ!!!!! ďĉ!)!)",
      "ććĈ!ćĈ!ćĈ! ĈćĈĈ",
      "ćĈĈćĈĈćĈćĈćĈ ććĈćĈćĈćĈćĈ!",
      "ćĈ!ćĈ!ćĈ!ćĈ!ćĈ!Ĉ! ćĈ!ćĈ!Ĉ!ćĈĈćĈ!Ĉ",
      "ćĈ!ĈĈ!Ĉ! ďĉ!ďĉ!",
      "ćĈĈ!Ĉ!ĈćĈ!Ĉ!ĈĈĈĈĈĈ ććĈ!ćďĉ!!!!!!!!",
      "ćć ćďĉ",
      "ćĈ ććĈ!ćĈ!ćĈ!ĈćĈĈ",
      "ććĈ!Ĉ! Ĉ!ććĈ!Ĉ!",
      "Ĉ!Ĉ!Ĉ!ćĈ!Ĉ! ćĈ!ćĈ!ćĈ!ćĈ!",
      "Ĉ!Ĉ!ĈĈ!Ĉ Ĉ!Ĉ!ĈĈ",
      "ććĈ!ćććĈ!ćć ćĈ",
      "ćććĈ!Ĉ!ćĈ!Ĉ! ĈĈĈĈ!ććĈ",
      "!!!!!!!!!ććććĈ!ĈĈ %&'(ďĉ",
      "ćććĈććććĈććĈ ććććĈććĈ",
      "ćĈ!Ĉ! Ĉ!Ĉ!Ĉ!Ĉ",
      "Ĉ!ĈĈ Ĉ!Ĉ!Ĉ!Ĉ!Ĉ!Ĉ!Ĉ!Ĉ!",
      "ćĈćĈćĈćĈ ćĈćĈćĈćĈćĈ",
      "ććĈ!Ĉ ććĈ!Ĉ!",
      "Ĉ!ĈĈĈĈĈĈĈ Ĉ!ĈĈĈĈĈ",
      "ĈĈĈĈĈ ćĈćĈ",
      "!!Č !!Č!",
      "ďĉďĉďĉďĉ ďĉ!ďĉ",
      "ććĈ! ćĈ!Ĉ!Ĉ!ćĈ!Ĉ!",
      "ćććĈ!Ĉ! ćććĈĈ",
      "ćĈ!ćć ćĈ!ććĈ",
      "Ĉ!Ĉ!ĈĈ ćĈ!Ĉ!",
      "ććĈ!Ĉ ćĈćĈ",
      ")!!!!!!!! )",
      "Ĉ!ĈĈĈĈĈĈ Ĉ!Ĉ!Ĉ!ĈĈ!Ĉ",
      "ćĈĈĈĈ ĈćĈĈćĈ",
      "!&'( ďĉ))",
      "Ĉ!ĈĈ!Ĉ Ĉ!ĈĈĈ!ĈĈĈĈ",
      "ćĈ!Ĉ!Ĉ!Ĉ! ćĈ!ćć",
      "!!!!!!!!!! ďĉ!!!!!!",
      "ĈĈĈĈĈĈĈĈĈĈĈ Ĉ!Ĉ!",
      "ćć ćĈĈĈĈĈ",
      "Ĉ!Ĉ!Ĉ Ĉ!Ĉ!Ĉ!!",
      "ćĈ!ćĈ!Ĉ! ćĈ!Ĉ",
      "!!!!!!!!!!!!!!!!!!!!!!!! !",
      "ććĈ!Ĉ!Ĉ!Ĉ! ćĈĈĈ!Ĉ!ćĈ!Ĉ!",
      "ććććĈ! ććĈ!ćććĈ!ćććĈ",
      "Ĉ!ćĈ! ďĉ!!!!!!!!",
      "ćĈ!ĈĈ Ĉ!ĈĈ",
      "ćĈ!ĈĈ ćĈĈćĈ",
      "ćććĈ!Ĉ!Ĉ!Ĉ Ĉ!Ĉ!ćĈ!Ĉ!",
      "Ĉ!ĈĈĈĈĈ Ĉ!Ĉ!Ĉ",
      "ćĈććĈ Ĉ!ĈĈĈ",
      "ććććĈ!Ĉ! ććĈ!ĈććććĈ",
      "ććĈ!ćĈ!ććĈ ćĈććć",
      "ćććĈĈ!Ĉ! ćĈ!ććĈćĈ!ćĈ",
      "ććĈ!Ĉ! ĈĈĈ",
      "Ĉ!Ĉ!ćĈ!Ĉ! Ĉ!Ĉ!ćĈ!Ĉ!",
      "ćĈ!ććĈ ććĈ",
      "ćĈ!Ĉ!Ĉ!Ĉ!Ĉ!Ĉ! ĈĈ",
      "ćĈ!ĈĈĈ ćĈćĈćĈĈĈćĈ",
      "Ĉ!ćĈ! ĈĈĈĈ",
      "ćĈ!ĈĈ ćĈ!ćĈĈ",
      "ćććććććććć ćĈ!Ĉ",
      "Ĉ!ćĈ!Ĉ!ĈćĈĈĈ ćĈĈĈćĈĈćććć",
      "00011 1",
      "Ĉ!ĈĈĈ!ĈĈĈĈĈĈĈĈĈĈĈĈĈĈĈĈĈĈ! ďĉ!!",
      "ććććĈćĈććĈ! ćĈ!Ĉ!Ĉ!Ĉ!ćĈ!Ĉ!",
      "ććĈ!Ĉ!Ĉ!Ĉ!Ĉ!ĈĈ! ćĈ!ćĈ!ćĈ",
      "ććĈ Ĉ!Ĉ!ĈĈĈ!",
      "ćĈĈĈ ćĈ!ĈććĈĈĈ",
      "Ĉ!Ĉ!Ĉ!Ĉ!Ĉ!Ĉ! Ĉ!ĈĈ!",
      "0101 0101",
      "ćĈ!ĈćĈ Ĉ!Ĉ!ćĈ!ĈĈ!",
      "ćĈĈĈĈĈĈĈĈććĈ ćĈĈ!",
      "ćĈ!ćĈ!ćĈ!Ĉ! ććććĈ!ććĈ!ć",
      "Ĉ!Ĉ!Ĉ!ćĈ!Ĉ!ćĈ!ćĈ!ćĈ!ćĈ!ćĈ!Ĉ! Ĉ!Ĉ!ĈĈ!",
      "ćĈĈĈĈĈĈ ćĈĈĈĈ",
      "ććĈ!Ĉ!ĈćĈĈĈććĈĈĈ ććĈ!Ĉ!Ĉ!Ĉ!Ĉ!Ĉ!ćĈ",
      "ďĉ!!!ćććĈ ćĈ!ćĈ!ĈĈ!Ĉ!",
      "ćĈ!ććććććĈ!ćĈ!ććĈ ćććĈćććĈĈćĈćĈ!Ĉ!",
      "Ĉ!Ĉ! Ĉ!ĈĈĈĈĈĈĈĈ!ĈĈĈĈĈ",
      "!!!!!!!!!!!! !!ďĉ",
      "ćććććććĈ!Ĉ! Ĉ!ććĈĈććĈ!ćĈĈ",
      "ććĈ!Ĉ Ĉ!ĈĈĈĈ!ĈĈ!ĈĈĈĈ",
      "ćććĈ!Ĉ!Ĉ!Ĉ!Ĉ!Ĉ! ĈĈĈĈĈĈĈĈĈĈĈĈ",
      "ćĈ!ćĈ!ćĈ ćĈ!ćĈ",
      "ďĉćĈ!Ĉ! ććĈ!ććĈ!ĈĈ!ććĈ!Ĉ!Ĉ",
      "ćĈ!ćććĈ!ććĈ ćĈ!ććĈ",
      "Ĉ!Ĉ! ĈĈĈĈĈĈĈĈĈĈĈĈĈĈĈĈĈĈĈĈĈĈĈĈ",
      "ćĈ Ĉ!Ĉ!ĈĈĈ",
      "ććĈ!Ĉ!Ĉ!Ĉ! ćĈ!Ĉ!!Ĉ!ćĈ!ćĈ!ććĈ!Ĉ!",
      "Ĉ!ĈĈ!Ĉ!Ĉ!Ĉ! ĈĈ",
      "ććĈĈćĈĈĈ ććĈĈććĈćć",
      "ćĈ!Ĉ!ććĈ ćĈ!",
      "Ĉ!Ĉ!ĈĈ!Ĉ!ĈĈĈ Ĉ!Ĉ!ĈĈ!Ĉ!Ĉ!!",
      "ććĈĈĈĈćĈĈĈĈ ćĈĈĈĈĈĈĈĈććĈ",
      "Ĉ!Ĉ!ĈĈ!ĈĈ!Ĉ!ĈĈ Ĉ!ĈĈĈĈ!ĈĈĈĈ",
      "ďĉďĉ!! ćććĈ!Ĉ!ćĈ!Ĉ!ĈĈĈĈ!ććĈ",
      "!!!!!!!!!!!!!!!!!!!!!!!!!!!!!! )!)",
      "ćĈ!Ĉ!ćĈ!Ĉ! ćĈ!Ĉ!Ĉ!Ĉ!Ĉ!",
      "Ĉ!ĈĈĈĈ! ĈĈĈĈĈĈĈĈĈĈĈĈ!Ĉ!",
      "ćĈĈĈĈĈĈĈĈĈĈĈĈ Ĉ!ćĈ!ćĈĈĈĈ!Ĉ",
      "ćĈ!Ĉ!ĈĈ ćĈ",
      "Ĉ!Ĉ!Ĉ!Ĉ!Ĉ!Ĉ!Ĉ Ĉ!ĈĈ!ĈĈ!ĈĈĈ!ĈĈĈĈ",
      "ćĈĈććĈĈĈ ćĈ!ĈćĈ!ććĈ",
      "ćĈĈĈĈ!Ĉ!ćĈ!Ĉ! ćĈĈĈćĈ!ĈĈĈĈ",
      "ćĈ!ćĈ!Ĉ! ććĈ!ĈććĈ!Ĉ!",
      "Ĉ!ďĉďĉ ćĈ!ďĉ!",
      "ćĈĈĈĈĈćĈĈĈĈĈćĈ!ĈĈĈ ćĈ",
      "ćĈĈĈććĈ!Ĉ!ććĈ!ćć ćĈćĈćĈćĈćĈĈćĈĈćĈćĈćĈ",
      "ćĈĈćĈĈćĈĈĈĈĈćĈ ćĈĈćĈĈćĈćĈćĈććĈćĈćĈćĈćĈ!",
      "ĈĈ!ĈććĈ!Ĉ!Ĉ Ĉ!ĈĈ!Ĉ!ćĈ!",
      "ćććĈ!Ĉ!ćććĈĈ ćĈ!ĈĈĈ!!ćććć",
      "ć ďĉďĉďĉďĉďĉďĉďĉ!",
      "ďĉďĉďĉďĉ ďĉďĉ!!!",
      "ćĈ!Ĉ Ĉ!ĈĈĈ!Ĉ!Ĉ!Ĉ!Ĉ!Ĉ!Ĉ!Ĉ!",
      "ćĈ!Č ďĉďĉďĉ!ďĉďĉ!",
      "ćĈćĈćĈćĈĈĈ ćĈĈĈĈĈĈ",
      "ććĈ!ĈćĈćĈ ćĈ!ĈćĈĈ",
      "ćĈ!ćĈ! ćĈ!ĈĈ!Ĉ!",
      "Ĉ!Ĉ!Ĉ!Ĉ!Ĉ!Ĉ! ĈĈĈ",
      "ćĈ!Ĉ!Ĉ!Ĉ!Ĉ!Ĉ! Ĉ!ćĈ!ďĉ!!!!!!!!",
      "Ĉ!Ĉ!ĈĈ Ĉ!Ĉ!Ĉ!Ĉ!ĈĈĈĈ",
      "ććĈ!Ĉ!Ĉ Ĉ!ĈĈĈ",
      "ćĈ!ĈĈ! ććĈ!ćĈ!ĈĈ!ćĈ!Ĉ!",
      "ćĈĈ!ćĈ!Ĉ! ĈĈĈĈćĈĈĈĈ",
      "ććććććĈ!ćć ćĈ!ćć",
      "ćĈ!ćĈ!ććĈ ćĈ!Ĉ!Ĉ!Ĉ!ćĈ!ćć",
      "ćĈ!ćĈ!Ĉ!ćĈ!Ĉ ćĈ!ĈĈ!Ĉ",
      "Ĉ!Ĉ!Ĉ!Ĉ! Ĉ!ćĈ!ĈĈĈĈ",
      "ćććĈ!Ĉ! Ĉ!ćĈ!Ĉ!Ĉ",
      "ćĈ!ćć ĈĈĈĈĈćĈćĈ",
      "Ĉ!Ĉ!Ĉ! ćĈ!ćĈ",
      "ććĈ!Ĉ!Ĉ!Ĉ! ćććĈ!Ĉ!Ĉ!ććĈ",
      "ĈĈĈ!ĈĈĈććĈ! ćĈćĈĈĈ!Ĉ",
      "ćĈćĈĈĈĈ ĈćĈĈ",
      "Ĉ!Ĉ!Ĉ!Ĉ!Ĉ!Ĉ!ĈĈĈ!Ĉ! ĈĈĈĈ",
      "ććććĈ!ćććĈććĈ ćććĈććććĈććĈććććĈććĈ",
      "ćĈĈ!Ĉ!Ĉ!Ĉ! ćĈćĈĈ",
      "Ĉ!ĈĈĈĈĈĈ!Ĉ!Ĉ Ĉ!ĈĈĈĈ!ĈĈĈĈĈĈĈĈ",
      "ďĉ %ď&'(ĉ",
      "%&'( ďĉďĉ!!ďĉ",
      "ćććć ćďĉ!",
      "ďĉďĉďĉ!! )!)!!!!!!!!!!!!!!!!!!!!",
      "ďĉďĉ!ďĉ! )",
      "ćĈćĈĈĈĈĈĈĈ ćĈĈĈĈĈĈ",
      "ćććććććć Ĉ!Ĉ!Ĉ!Ĉ!",
      "Ĉ!Ĉ!Ĉ ćĈĈĈĈ",
      "ćĈĈĈ ćĈ!ĈĈĈĈ!ĈĈ!Ĉ",
      "ĈĈĈĈĈĈĈĈĈĈĈĈĈĈĈĈĈĈĈĈ ĈĈĈĈ!",
      "ćĈ!ćĈ!ćĈ!ćĈ!Ĉ! Ĉ!Ĉ",
      "ćĈ!ĈćĈćĈćĈ ćĈ!Ĉ!ĈćĈ!Ĉ!",
      "ććĈ!ććććĈćĈćĈćĈ ććććĈ!Ĉ!ććĈ!ĈććććĈ",
      "Ĉ!ĈĈ ďĉ!!",
      "ććĈ!ććććĈ ć!!",
      "ćĈ!ććĈ!ćĈ!ććĈ! ćĈććĈ!ćĈ!ćĈ!ĈćĈĈ",
      "ććĈ!ĈĈĈĈĈ! ćďĉďĉ",
      "ććĈ!ćĈ!ććĈćĈććć !!",
      "ććĈ!Ĉ!ĈĈĈ !!ćĈ!Ĉ!Ĉ!Ĉ!",
      "ďĉ!!!!!!!!!!!!!!!!!!!!!!!!!!!!!!!! !!!",
      "ćććĈ ćććĈĈ!Ĉ!ćĈ!ććĈćĈ!ćĈ",
      "ćĈ!Ĉ!Ĉ ćĈććĈĈ!ĈĈĈ",
      "ĈĈĈ!ĈĈĈ ććĈ!ĈĈ!ĈĈĈĈ!ĈĈ!ĈĈĈĈ",
      "Ĉ!ĈĈćĈ Ĉ!Ĉ",
      "Ĉ!ĈććĈ Ĉ!Ĉ!",
      "Ĉ!Ĉ!ĈĈ!Ĉ!ĈĈ!Ĉ Ĉ!Ĉ!ĈĈ!ĈĈ!Ĉ!ĈĈĈ!ĈĈĈĈ!ĈĈĈĈ",
      "ćĈ!ĈĈćĈ!ćĈĈ ćĈ!Ĉ!",
      "ćĈ!Ĉ! ćĈ!ćĈ!ćĈ!Ĉ!ććććĈ!ććĈ!ć",
      "ćććććććććććććććć ććććććĈ!",
      ")) )",
      "ďĉďĉ!!! )!)!!",
      "ćĈĈ!ćĈ!Ĉ! Ĉ!Ĉ!Ĉ!ĈĈĈ",
      "!!ćĈ!Ĉ!Ĉ!Ĉ! ćĈ!ććĈ!",
      "ćĈ!ĈĈĈ!ĈĈ ćĈ!Ĉ!Ĉ!",
      "ćĈ!ćĈ!Ĉ! ćĈ!ććĈććĈ",
      "ćĈćĈćĈ ćććĈćĈ",
      "!!!SĂĄĆ !!ďĉ!!!!!!",
      ")!)!!!!!!!! ďĉ!ďĉďĉ",
      "ćććĈ ćĈ!ćĈ",
      "ďĉ!!!!!!!! ďĉďĉďĉďĉďĉććććĈ!ćĈ!ĈćĈ",
      "ćĈ!ćĈ!ćĈ!ćĈ!ćĈ!Ĉ! ćĈ!ćĈ!Ĉ!Ĉ!ćĈ!Ĉ!",
      "ćĈ!ĈććĈĈĈ ćĈĈĈćĈ!ĈććĈĈĈ",
      "Ĉ!ćĈ!Ĉ!Ĉ!ćĈ!Ĉ! Ĉ!ĈĈ!",
      "ććĈĈćĈĈĈććĈĈććĈćć ćĈĈĈĈĈćĈĈćĈ",
      "!!!! !!ďĉćć",
      "ďĉ%&'( ďĉďĉ",
      "ĈĈĈĈĈĈĈĈĈĈĈĈĈĈĈĈ ĈĈĈĈ!",
      "ćĈ!Ĉ!Ĉ! ććĈ!ćĈ!Ĉ!Ĉ!ćĈ!Ĉ!",
      "!!!!!!!!!!!!!! ďĉďĉďĉďĉ",
      "ćĈ!Ĉ!ćĈ ććĈ!Ĉ!",
      "ćĈ!ĈĈ!Ĉ!ďĉ!ďĉ! ďĉďĉďĉ!!",
      "Ĉ!Ĉ!ćĈ!Ĉ! ĈĈ!",
      "Ĉ!Ĉ!Ĉ!! ćĈĈĈĈ!Ĉ!ćĈ!Ĉ!ćĈĈĈćĈ!ĈĈĈĈ",
      "ćĈ!Ĉ!ććĈćĈ! ĈĈĈĈĈĈćĈ!ććĈ",
      "LL !LK",
      "ďĉ!ďĉ! ďĉ!ďĉ!",
      "ĈĈĈ!ĈĈĈ Ĉ!ĈĈ!Ĉ!Ĉ!Ĉ!ĈĈ",
      "ďĉďĉďĉďĉďĉ!! ďĉ!ďĉ!",
      "ććĈ!Ĉ!Ĉ!Ĉ!Ĉ!ĈĈ!ćĈ!ćĈ!ćĈ ćĈ!ćĈ!ćĈćĈ!ćĈ",
      "!!!!!!!!!!! ďĉ",
      "ćĈ!ććĈ! ćĈ!Ĉ",
      "ććĈĈććĈćć ćĈćĈćĈćĈćĈĈćĈĈćĈćĈćĈ",
      "ćććććććććććć ČďĉďĉććĈ!ćĈ!ćĈ!ćĈ!ćĈćĈćĈ",
      "ďĉ!!ďĉ!!!!!!!! )!!!!!!!!)!",
      "ććĈĈ!Ĉ!ĈĈĈ! ććĈ!Ĉ!Ĉ",
      "ćĈ!Ĉ!ĈĈćĈ ćĈĈĈĈĈĈĈĈĈĈĈĈ",
      "!!!!!!!!!!!!!!!! !",
      "Ĉ!Ĉ! ćĈ!ĈĈćĈ!ćĈ!Ĉ!Ĉ!",
      "ďĉ!ďĉ !!!!!!!!!!!!!!!!",
      "Ĉ!Ĉ!ĈĈĈĈ Ĉ!Ĉ!Ĉ!",
      "ćĈćĈ!ććĈ !!",
      "ćĈĈććĈĈĈćĈ!ĈćĈ!ććĈ Ĉ!Ĉ!ĈĈćĈ!Ĉ!",
      "ćĈ!ĈĈ!ĈĈĈ!Ĉ!Ĉ!Ĉ!Ĉ!Ĉ!Ĉ!Ĉ! Ĉ!Ĉ!Ĉ!Ĉ!ćĈ!",
      "ď !!",
      "ćĈĈ ćĈĈĈĈĈĈćĈĈĈĈ",
      "ćĈ!Ĉ!Ĉ!Ĉ!Ĉ!Ĉ! Ĉ",
      "ďĉ!!!!!! )!!!!!!!!)",
      "ĈĈĈĈĈĈĈĈĈĈĈĈĈĈ!Ĉ!Ĉ!Ĉ! ĈĈĈĈ",
      "Ĉ!ĈćĈ! ćĈĈĈĈĈćĈĈĈĈĈćĈ!ĈĈĈćĈ",
      "ćĈ!ĈĈ!ĈĈĈ Ĉ!Ĉ!Ĉ!ĈĈĈĈĈĈĈĈ!ĈĈĈĈĈ",
      "Ĉ!Ĉ!ĈĈĈĈĈĈćĈ!ĈĈĈ %&'(ďĉ",
      "ćĈĈĈĈĈĈĈĈĈĈĈĈĈ!ćĈ!ćĈĈĈĈ!Ĉ %&'(ďĉćć",
      "ćĈ!ćĈ!Ĉ! ććĈ!Ĉ!Ĉ!Ĉ!ćĈĈĈ!Ĉ!ćĈ!Ĉ!",
      "ćĈ!ćĈ!ćĈ!ćĈ!Ĉ! Ĉ!Ĉ!Ĉ!Ĉ!Ĉ!Ĉ!Ĉ!ĈĈ!",
      "ćĈćĈ!ćĈ Ĉ!",
      "Ĉ!ćĈ!Ĉ!Ĉ!Ĉ!Ĉ!Ĉ! ćĈ!ćĈ!ćĈ!Ĉ!Ĉ!",
      "ććććććććĈ!Ĉ!Ĉ!Ĉ! ćĈĈĈĈ!Ĉ!ćĈ!",
      "Ĉ!Ĉ!ĈĈĈĈĈĈćĈ!ĈĈĈ%&'(ďĉ %&'(%&'(%&'(",
      "ćĈ!ćĈ!Ĉ! ćĈĈ!Ĉ!Ĉ!Ĉ!ćĈćĈĈ",
      "ďĉćććć ććĈ!ććĈ!",
      "Ĉ!ĈĈĈĈĈĈ!Ĉ!ĈĈ!ĈĈĈĈ!ĈĈĈĈĈĈĈĈ %&'(ďĉ",
      "% !!!!!!!!!!!!!!!!!!!!!!!!",
      "ďĉďĉ!!! ďĉćĈ!Ĉ!ććĈ!ććĈ!ĈĈ!ććĈ!Ĉ!Ĉ",
      "ćĈ!Ĉ!Ĉ!ćĈ!Ĉ! ćĈ!ćĈ!ćĈ!ćĈ!Ĉ!Ĉ!Ĉ",
      "ćĈ!ćĈ!Ĉ!Ĉ! ćĈĈ!",
      "ććĈ!Ĉ!Ĉ!Ĉ!Ĉ!ďĉďĉ!ďĉćććććĈ!Ĉ!Ĉ!Ĉ!Ĉ!Ĉ! ďĉ!",
      "ćĈ!Čďĉďĉďĉ!ďĉďĉ! ďĉďĉďĉ!ďĉďĉ!",
      "Ĉ!Ĉ!Ĉ!Ĉ!Ĉ!Ĉ!ĈĈĈ Ĉ!ĈĈĈĈĈĈĈ!Ĉ!Ĉ!ĈĈ!Ĉ",
      "ćĈ!ćĈ!Ĉ! ćĈ!Ĉ!Ĉ!ćĈ!Ĉ!",
      "ććĈ!ćĈ!ćĈ! ćďĉ",
      "ćĈĈ!Ĉ!Ĉ ćĈĈ!ćĈ!Ĉ!ĈĈĈĈćĈĈĈĈ",
      "ďĉ!!!!!ďĉ!)!) !!!!!!!!!!!!!!ďĉ",
      "ćććĈ!Ĉ! Ĉ!Ĉ!Ĉ!ćĈ!Ĉ!",
      "%&'(ďĉ !!!!!!!!!!!!!!!!!!!!!",
      "!!!!!!!!!!!!!!!!!!!!!!!! !ďĉ",
      "ćĈ!Ĉ!ĈćĈ!Ĉ! ćĈ!ććĈĈĈĈĈćĈćĈ",
      "%&'(%&'( ďĉ!!",
      "ćĈ!ćĈ!ććĈćĈ!Ĉ!Ĉ!Ĉ!ćĈ!ćć ĈĈĈĈĈĈćĈ!ććĈ",
      "!!!!!!!!!!! )!!!!!!!!!!!!!!!",
      "ćĈ!Ĉ!Ĉ ćĈ!Ĉ!Ĉ!",
      "ćĈĈ! ćĈ!ćĈ!Ĉ",
      "Ĉ!ććĈ!Ĉ! Ĉ!ĈćĈ!Ĉ!",
      "Ĉ!Ĉ!Ĉ!Ĉ!Ĉ!Ĉ Ĉ!Ĉ!",
      "Ĉ!Ĉ!ćĈ!Ĉ!Ĉ!Ĉ!ćĈ!Ĉ! ćĈ!ĈćĈ!Ĉ!",
      "ćĈĈĈĈĈĈĈĈććĈćĈĈ! ććĈĈĈĈćĈĈĈĈćĈĈĈĈĈĈĈĈććĈ",
      "ćĈ!ćććĈ!ććĈćĈ!ććĈ ćććĈ!Ĉ!Ĉ!Ĉ!",
      "Ĉ!Ĉ!Ĉ!Ĉ! ćććĈ!",
      "ćďĉ #$",
      "ćĈ!ćĈ!! ććĈ!ććĈ!",
      "ććććććććććććććććććććććĈ! ććĈ!ćĈ!ććĈ!",
      "ćććććććććććććććć Ĉ!Ĉ!ćĈ!Ĉ!ĈĈ!",
      ") ććććććććććććĈ!",
      "Ĉ!Ĉ! ćĈ!ććĈ!ćĈ!ććĈ!ćĈććĈ!ćĈ!ćĈ!ĈćĈĈ",
      "ćććć ćĈ!Ĉ!Ĉ!Ĉ!Ĉ!Ĉ!",
      "ććĈ! ćĈ!ćĈ!Ĉ!Ĉ!ćĈ!Ĉ!",
      "ďĉćććć ćććĈ!ćĈ!",
      "Ĉ!ĈĈ!Ĉ !!ćĈ!Ĉ!Ĉ!Ĉ!ćĈ!ććĈ!",
      "ćĈ!Ĉ!Ĉ!Ĉ! Ĉ!ĈĈĈ!Ĉ!Ĉ",
      "Ĉ! ĈĈĈĈĈĈĈĈĈĈĈĈĈĈĈĈĈĈĈĈ!",
      "%&'(ďĉ!! ďĉ!!",
      "ćĈ!ĈĈ!Ĉ Ĉ!ĈĈ!ĈĈĈĈĈĈĈĈĈĈĈĈĈĈĈĈĈĈĈĈĈĈĈĈĈĈĈ",
      "% ćć",
      "ććĈ!Ĉ!Ĉ!Ĉ!Ĉ!Ĉ! Ĉ!ĈĈćĈ",
      "ćĈĈĈĈ!Ĉ ććĈ!ććććĈć!!",
      "ćĈ!ćĈ! ććććĈ!ććĈ!ćććĈ!ćććĈ",
      "ćććĈ Ĉ!ćĈ!Ĉ!ĈćĈĈĈćĈĈĈćĈĈćććć",
      ")!)! ďĉďĉ!!!)!)!!",
      "ćććĈ!Ĉ!Ĉ!ĈĈ!Ĉ!ćĈ!Ĉ! Ĉ!ĈćĈ!Ĉ!Ĉ!Ĉ",
      "ćććććććć Ĉ!Ĉ!ćĈĈ",
      "ćĈ!ćĈ!Ĉ!Ĉ!ćĈ!Ĉ! ćĈ!Ĉ!Ĉ!Ĉ!ćĈ!Ĉ!",
      "ćĈćĈćĈćĈćĈćĈćĈćĈćĈćĈćĈćĈ ććĈ!Ĉ!",
      "ďĉďĉďĉ! ďĉďĉćććć",
      "ďĉ!ďĉ Ĉ!Ĉ!ćĈ!Ĉ!ĈĈĈ",
      "ććććĈ!ćĈ!Ĉ! Ĉ!ćĈ!Ĉ!",
      "ćĈ!ĈćĈĈ!Ĉ!ćĈ!ĈĈ! ććĈ!ćĈ!ććĈćĈććć!!",
      "Ĉ!Ĉ!ĈćĈĈĈĈ Ĉ!Ĉ!Ĉ!Ĉ!Ĉ!Ĉ!ĈĈĈ!Ĉ!ĈĈĈĈ",
      "ćććĈćććĈĈ!Ĉ!ćĈ!ććĈćĈ!ćĈ !!Č!!Č!",
      "ććććĈ! ćĈ!ĈĈ!ććĈ!ćĈ!ĈĈ!ćĈ!Ĉ!",
      "ćććććććĈ!Ĉ!ććććććĈ!ćĈĈ %&'(ďĉďĉ",
      "ćĈ!Ĉ!Ĉ!Ĉ!Ĉ!Ĉ!Ĉ!Ĉ! ćĈ!ćĈ!Ĉ!ĈćĈ!Ĉ!",
      "ćĈćĈĈĈĈĈćĈĈ ćĈćĈćĈćĈĈĈćĈĈĈĈĈĈ",
      "ćĈ!Ĉ!ććĈćĈ!ĈĈĈĈĈĈćĈ!ććĈ ććĈ!ćĈ!Ĉ",
      "ćĈ!ćć Ĉ!Ĉ!Ĉ",
      "%ć &'",
      "ćďĉďĉďĉ Ĉ!ĈĈĈĈ",
      "ĈĈĈĈĈĈĈĈĈĈĈĈĈĈ!Ĉ!Ĉ!Ĉ! Ĉ!ĈĈĈ!ĈĈ",
      "ćĈĈćĈĈĈĈĈĈćĈĈĈĈ ćĈĈćĈĈćĈ!ćććĈ!ćć",
      "ćććĈ!Ĉ! ćĈ!Ĉ!Ĉ",
      "Ĉ!ĈĈ! ćĈ!Ĉ",
      "ććććććĈ!ćć Č",
      "ććććććććĈ! ćććĈ!Ĉ!",
      "Ĉ! ď",
      "ďĉďĉďĉ! ďĉďĉďĉ!!",
      "ćďĉ ććć",
      "ćĈ!Ĉ!Ĉ!Ĉ!Ĉ!Ĉ! Ĉ!Ĉ!Ĉ!Ĉ!",
      "Ĉ!ĈććĈĈ!Ĉ! ććĈ!Ĉ!ĈĈ!ĈĈĈ",
      "ćĈ!Ĉ!Ĉ!ććĈ!ćĈ!Ĉ!Ĉ!ćĈ!Ĉ! ćĈ!ćĈ!ćĈ!ćĈ",
      "ďĉďĉ!! ďĉ!!!!!!)!!!!!!!!)",
      "ďĉďĉďĉďĉ! ďĉ!!",
      "Ĉ!Ĉ!Ĉ!Ĉ!! Ĉ!Ĉ!Ĉ",
      "ćĈĈ!ćĈ!Ĉ!Ĉ!Ĉ!Ĉ!ĈĈĈ ćĈ!Ĉ!Ĉ!",
      "ďĉ!!!! ďĉďĉďĉďĉďĉďĉďĉďĉ",
      "ććĈ!Ĉ!ĈĈĈ!Ĉ!Ĉ!ĈĈćĈ ďĉ!!ďĉďĉ!!!",
      "ďĉ! Ĉ!ĈćĈ!Ĉ!Ĉ!ĈćĈ!ćć",
      "ďĉ!ďĉ !!!SĂĄĆ!!ďĉ!!!!!!",
      "ďĉďĉ%&'( !",
      "Ĉ!Ĉ!Ĉ!Ĉ ćĈĈ!Ĉ!ĈĈĈ",
      "%ć &",
      "ďĉĈ!ĈĈĈĈĈĈĈ Ĉ!ĈĈĈ",
      "ćĈ!ćĈ!Ĉ!ćĈĈ!Ĉ!Ĉ!Ĉ!ćĈćĈĈ ćĈ!Ĉ!Ĉ!ćĈ!Ĉ!",
      "Ĉ!ĈĈ ćďĉďĉďĉďĉďĉďĉďĉ!",
      "Ĉ!Ĉ!Ĉ!Ĉ!Ĉ!Ĉ! Ĉ!ĈĈĈĈĈĈ",
      "ćććććĈ!Ĉ!Ĉ!Ĉ!Ĉ!Ĉ! ćĈ!Ĉ!Ĉ!ćĈ!Ĉ!",
      "ďĉďĉ ććććććĈ!ćććĈ!ćć",
      "Ĉ!Ĉ ďĉ!ďĉ!ďĉ",
      "ććĈ!ććĈ! ćĈ!Ĉ!ćĈććĈ!Ĉ!",
      "ćĈ!ćĈ!Ĉ!ćĈ!ĈćĈ!ĈĈ!Ĉ ćĈćĈćĈćććĈćĈ",
      "ďĉďĉ )ďĉďĉ!",
      "Ĉ!Ĉ!Ĉ!Ĉ! Ĉ!Ĉ!Ĉ!!ćĈĈĈĈ!Ĉ!ćĈ!Ĉ!ćĈĈĈćĈ!ĈĈĈĈ",
      "ćććĈ!Ĉ!Ĉ!Ĉ!Ĉ!Ĉ! ćĈ!Ĉ!Ĉ!Ĉ!ćĈ!Ĉ!",
      "ćććććććĈ!Ĉ!Ĉ!ćĈ!Ĉ! Ĉ!",
      "ďĉďĉ %ď&'(ĉ",
      "ćĈ!ćĈ!Ĉ!ććĈ!ĈććĈ!Ĉ! ćĈ!ćĈ!Ĉ!Ĉ!ćĈĈ!",
      "ćĈ!ćĈ!Ĉ!ćĈ!ććĈććĈ !!!!!!ďĉćć",
      "%&'(%&'(ďĉ!! ććććććĈććĈ!",
      "ćĈ!Ĉ!ĈćĈ!Ĉ!Ĉ! ććććĈćĈććĈ!ćĈ!Ĉ!Ĉ!Ĉ!ćĈ!Ĉ!",
      "ďĉďĉďĉ!! ďĉ!!ďĉ!!!!!!!!)!!!!!!!!)!",
      "ďĉďĉďĉďĉďĉďĉďĉ! ďĉ!ďĉ",
      "ććććĈ!ćĈ!Ĉ! Ĉ!ĈĈ!Ĉ!Ĉ!Ĉ",
      "ďĉďĉ!!ďĉ ććĈ!ĈĈĈĈĈ!ćďĉďĉ",
      "ďĉďĉďĉďĉ!ďĉďĉ %!!!&'(",
      "ďĉććććććĈ!ććĈ! ććĈ!Ĉ!Ĉ!Ĉ!ćććĈ!Ĉ!Ĉ!ććĈ",
      "ďĉďĉďĉďĉ!ďĉďĉ%!!!&'( ďĉďĉďĉ!!ďĉ!",
      "ćĈ!Ĉ!Ĉ!Ĉ!Ĉ!Ĉ! ćĈ!Ĉ!ććĈ!",
      "ĈĈĈ!Ĉ! Ĉ!ĈĈĈ",
      "ććĈ!Ĉ!Ĉ!Ĉ ćĈ!Ĉ!ĈćĈććĈĈ!ĈĈĈ",
      "R %&'(TVa",
      "ďĉďĉďĉďĉ! ďĉďĉ!!",
      "ćććććććććć ćĈ!ćĈ!!ććĈ!ććĈ!",
      "ćććĈĈĈĈĈ ććĈĈććĈćććĈćĈćĈćĈćĈĈćĈĈćĈćĈćĈ",
      "ćĈ!Ĉ! ĈĈĈ!ĈĈĈććĈ!ĈĈ!ĈĈĈĈ!ĈĈ!ĈĈĈĈ",
      "ďĉ!! ďĉ!ďĉ!",
      "ďĉďĉ!!ďĉ!! ďĉ!ććĈ!",
      "ďĉ!)!) !!!!!!!!!!ďĉ!!!!!!",
      "Ĉ!Ĉ!Ĉ!ćĈĈĈććĈĈ!ćććĈ!ććĈ!ćĈ!ĈĈĈćć !!!!",
      "ćććććććć ćććććććĈ!Ĉ!Ĉ!ćĈ!Ĉ!",
      "ďĉďĉďĉ ď%&'(ĉ",
      "ďĉďĉ!! ďĉďĉďĉ!",
      "ďĉ!!ďĉďĉďĉ )!)",
      "ďĉ!! ďĉďĉďĉďĉďĉ!!ďĉ!ďĉ!",
      "ďĉ!! ćććććććĈ!Ĉ!Ĉ!ććĈĈććĈ!ćĈĈ",
      ")!) !!!!!!!!!!!!!!!!!!!!!!!!!!!!!!",
      "ćďĉ ććććććććććććććććĈ!Ĉ!ćĈ!Ĉ!ĈĈ!",
      "!!ďĉ!!!!!!!!!!!!!!!!!!! ďĉ!!!!!!!!",
      "ć ďĉďĉ!!",
      "%&'( Ĉ!Ĉ!",
      "ćććć ćĈ!ćĈ!ććććĈ!ććĈ!ćććĈ!ćććĈ",
      "ćĈĈĈ Ĉ!",
      "33 22",
      "ćĈćĈĈĈĈĈĈĈćĈĈĈĈĈĈ ćĈćĈ!ćĈĈ!",
      "ćďĉ !!!!!!!!!",
      "ćććććĈ!Ĉ!Ĉ!ćĈĈćĈ ďĉďĉ",
      "ĈĈĈ!ĈĈĈĈ!ĈĈ!Ĉ!Ĉ!Ĉ!ĈĈ Ĉ!Ĉ!ĈĈ!Ĉ",
      "ćććććććĈ!Ĉ!ććććććĈ!ćĈĈ%&'(ďĉďĉ Ĉ!ĈĈďĉ!!",
      ")!) ďĉďĉďĉďĉďĉďĉ!!!",
      "L !LK!LK",
      "ć ďĉ!!!!",
      "ććĈ!ćĈ!ćĈ!ćďĉ !!!!!!!!!!!!!!!",
      "ĈĈĈ!Ĉ!Ĉ!ĈĈĈ Ĉ!Ĉ!ĈĈ!Ĉ!Ĉ!ĈĈĈĈ",
      "ć ďĉďĉďĉďĉ",
      "!!!!!!!!!ďĉ !!!!!!!!",
      "ďĉ%&'( !",
      "!!!! &'(!!!!!!!!!!!!!!!!!!!!!!!!!!!!!!!!",
      "Ĉ! %&'(",
      "ďĉ!ďĉ ććććĈ!ćĈ!ĈĈ!ććĈ!ćĈ!ĈĈ!ćĈ!Ĉ!",
      "Ĉ!ĈĈ Ĉ!ĈĈĈ",
      "!!!!!!!!!!!!!!!!!!!!!!!!!!!!!!!!!!!! !",
      "ćĈ!ćććĈ!ććĈćĈ!ććĈćććĈ!Ĉ!Ĉ!Ĉ! ćććĈćĈ!ćĈ",
      "ććĈ! ćĈ!ćČ",
      "ďĉ!ďĉďĉďĉďĉ ďĉďĉ!!",
      "ććĈ!Ĉ!Ĉ!ććĈ!Ĉ! Ĉ!ĈĈ!Ĉ!!ćĈ!Ĉ!Ĉ!Ĉ!ćĈ!ććĈ!",
      "Ĉ!ćĈ!Ĉ! Ĉ!ĈĈćĈĈ!Ĉ",
      "ďĉ!ďĉ!! ćĈ!",
      "ććĈ!Ĉ!Ĉ!Ĉ!ćĈ!Ĉ!!Ĉ!ćĈ!ćĈ!ććĈ!Ĉ! ćĈ!ďĉ!",
      "!ďĉ !!!!!!!!!!!!!!ďĉďĉďĉďĉ",
      "ćććĈ!Ĉ!ćĈ!Ĉ! ćĈ!ćĈ!ćĈ!ĈĈ!Ĉ!",
      ")ććććććććććććĈ! ććĈ!ćĈ!ćĈ!Ĉ!Ĉ!ćĈ!Ĉ!",
      "2323 232222222222222222",
      "ďĉ!ďĉďĉďĉ! ďĉ!!!!!",
      "ćďĉďĉďĉ ćĈ!Ĉ!Ĉ!Ĉ!",
      "ćĈ! %&'(ďĉ",
      "ćććć Ĉ!Ĉ!Ĉ!Ĉ!Ĉ!ĈĈ!Ĉ!",
      "ććĈ!ćććĈ!ćććĈ!ćććĈ!Ĉ!Ĉ! ďĉćć",
      "ććććććććĈ!Ĉ!ćĈĈ ćĈ!ĈĈćĈ!ćĈĈćĈ!Ĉ!",
      "ĈĈĈĈĈĈĈĈĈĈĈĈĈĈĈĈ Ĉ!Ĉ!ĈĈĈĈĈ!Ĉ!Ĉ!",
      "Ĉ!Ĉ!Ĉ!Ĉ ćĈĈ!Ĉ!ĈćĈĈ!ćĈ!Ĉ!ĈĈĈĈćĈĈĈĈ",
      "%&'(ďĉ Ĉ!Ĉ!Ĉ!Ĉ!Ĉ!Ĉ!",
      "ćĈ!Ĉ!Ĉ ćĈ!ć",
      "ććććĈ!ćĈ!Ĉ! Ĉ!Ĉ!ćĈ!ĈĈćĈ!ćĈ!Ĉ!Ĉ!",
      "ĉĉĉĉ ĉĉĉĉ",
      "Ĉ!ĈćĈ!Ĉ!Ĉ!ĈćĈ!ćć ďĉ!Ĉ!ĈćĈ!Ĉ!Ĉ!ĈćĈ!ćć",
      "ććĈ!Ĉ!ĈĈĈ!Ĉ!Ĉ!ĈĈćĈďĉ!!ďĉďĉ!!! )!)",
      "ćĈ!Ĉ! Ĉ!Ĉ!ĈĈ!Ĉ!Ĉ!Ĉ!",
      "ďĉďĉďĉďĉďĉďĉ! %&'(%&'(",
      "ćććĈćĈ ćĈ!ĈćĈćĈćĈ",
      "ďĉććĈ! ćććĈćććĈĈ!Ĉ!ćĈ!ććĈćĈ!ćĈ!!Č!!Č!",
      "ďĉďĉ!ďĉ!) ďĉďĉďĉć",
      "ďĉ! ćĈ!ćĈ",
      "ďĉďĉďĉďĉďĉďĉ ćďĉ!ďĉ",
      "ć%&'(ďĉ !!!!!!!!!",
      "!!!!!!!!!!!!!!!!!!!! %&'(%&'(",
      "ďĉ ćĈ!",
      ")) ))",
      "ćććĈ!Ĉ!Ĉ!Ĉ!Ĉ!Ĉ!ćĈ!Ĉ!Ĉ!Ĉ!ćĈ!Ĉ! Ĉ!Ĉćć",
      "ćć ďĉďĉ)",
      "ďĉďĉďĉďĉ !!!!ďĉ!!",
      "ďĉďĉďĉ%&'( Ĉ!Ĉ!ĈĈ!Ĉ!ĈĈĈĈ!Ĉ!ĈĈ!Ĉ!Ĉ!!",
      "RTVa !!!S",
      "Ĉ!Ĉ!ĈĈĈĈĈĈĈĈĈĈĈĈĈĈĈĈĈĈĈĈĈĈĈĈ ďĉ!",
      "Ĉ!ĈĈćďĉďĉďĉďĉďĉďĉďĉ! ďĉ!ďĉďĉďĉ!",
      "Ĉ!Ĉ!Ĉ!Ĉ! Ĉ",
      "L K",
      "ďĉďĉďĉďĉďĉďĉďĉ )!",
      "ďĉďĉďĉ!ďĉďĉ! ďĉďĉ!!ďĉ!!",
      "ďĉďĉďĉ!ďĉďĉćććć ćĈ!Ĉ!ćĈĈ",
      "ććĈ!Ĉ! ćĈĈ!ćĈ!Ĉ!Ĉ!Ĉ!Ĉ!ĈĈĈćĈ!Ĉ!Ĉ!",
      "ććĈ! %&'(",
      "ďĉďĉďĉ ćććĈ!Ĉ!Ĉ!ĈĈ!Ĉ!ćĈ!Ĉ!Ĉ!ĈćĈ!Ĉ!Ĉ!Ĉ",
      "ććććĈ ćććĈ!Ĉ!Ĉ",
      "ćĈćĈĈĈĈĈćĈĈćĈćĈćĈćĈĈĈćĈĈĈĈĈĈ ćĈ!Ĉ!",
      "Ĉ!Ĉ!Ĉ!Ĉ! ććĈćć",
      "ďĉďĉćććĈ!Ĉ! Ĉ!Ĉ!Ĉ!ĈćĈĈ!Ĉ!ĈĈĈ",
      "ćĈ!ććĈ!Ĉ!Ĉ ćĈ!ĈććĈĈĈćĈĈĈćĈ!ĈććĈĈĈ",
      "ćććĈ!Ĉ! ććĈ!ćĈ!ćČ",
      "ďĉ!ďĉ!!!!!! ďĉďĉ!!",
      "ďĉ!!!!!!! ďĉ!!ďĉďĉ!!!",
      "ćĈ!Ĉ!Ĉ!Ĉ!Ĉ!Ĉ!Ĉ ćĈĈĈĈ!ĈććĈ!ććććĈć!!",
      "ďĉ %&'(ďĉ",
      "ćĈ!Ĉ! ćĈĈ!ćĈ!ćĈ!Ĉ",
      "Ĉ!Ĉ!Ĉ!Ĉ!! Ĉ!Ĉ!Ĉ!Ĉ!!Ĉ!Ĉ!Ĉ",
      "ćććĈĈ ććććććĈ!ćĈĈ",
      "ďĉ!ďĉ!!!!!!!!!!! ďĉ!ďĉ",
      "Ĉ!ĈĈĈ!ĈĈĈĈĈĈĈĈĈĈĈĈĈĈĈĈĈĈ!ďĉ!! ďĉ!ďĉ!!!",
      "Ĉ!ĈĈ!ćĈ!Ĉ Ĉ!Ĉ!Ĉ!ćĈ!ćĈ",
      "ćć ćĈ!ćĈ!Ĉ!Ĉ!ćĈ!Ĉ!ćĈ!Ĉ!Ĉ!Ĉ!ćĈ!Ĉ!",
      "!!!!ďĉ!! )ďĉďĉ!",
      "ćďĉ#$ ćĈ!ćć",
      "ćććććććććććććććććććććććć ććĈ!",
      "ćĈ!Ĉ!ĈćĈ! ďĉćććććććĈ!ćĈ!",
      "L !",
      "ĂĄĆ !!!!R!!!S",
      "ćĈ!Č ďĉďĉ!",
      "!!!!!!!!!!!!!!!!!!!! ďĉ!ďĉ!!!!!!!!!!!",
      "ď Ĉ",
      "ďĉ! ďĉďĉďĉ!!)!)!!!!!!!!!!!!!!!!!!!!",
      "!!!!!!!!!!!!!!!!!!!!!!!! !!",
      "ďĉďĉ!ďĉďĉďĉ!! ďĉ!!!!",
      "ćććććććććććĈ!Ĉ ćĈ!Ĉ!ĈćĈ!ć",
      "ďĉďĉ %&'(ďĉ",
      "Ĉ!Ĉ! ĉ",
      "ďĉ!ďĉ!! ďĉďĉ!!ďĉ!!!!!!)!!!!!!!!)",
      "ďĉ!ďĉďĉ! ďĉ",
      "!!!!!!!!!!!!!!!!!!!!! Ĉ!Ĉ!Ĉ",
      "ďĉďĉ)ďĉďĉ! ďĉďĉ!!ďĉ!!!!",
      "ćććććććĈ!ćĈ!Ĉ!Ĉ!Ĉ!Ĉ!ćĈ!Ĉ!ćĈććĈ ćďĉ",
      "ďĉďĉ!ďĉ%&'( ćććććććććććććććć",
      "ćĈ!Ĉ!Ĉ!Ĉ!Ĉ!Ĉ!ćĈ!Ĉ!ććĈ! ćĈ!ĈĈĈ!ĈĈćĈ!Ĉ!Ĉ!",
      "!!!!!!!!!!!!!!!!!!!! ďĉ!!!!!!!!!!!!",
      "ďĉ!ďĉ!!!!!! ďĉďĉ!!!!",
      "Ĉ!ććĈ!Ĉ!Ĉ!ĈćĈ!Ĉ! ććĈ!ććĈ!ćĈ!Ĉ!ćĈććĈ!Ĉ!",
      "ďĉďĉďĉ !!!!!!!!!!",
      ")!)!! Ĉ!Ĉ!ĈĈ",
      "Ĉ!ĈĈ!ĈĈĈ ćĈĈĈćĈ!ĈĈĈĈ!ĈĈ!Ĉ",
      "ććĈ!Ĉ!ĈĈĈ!!ćĈ!Ĉ!Ĉ!Ĉ! ćďĉďĉ!!",
      "ćĈ!Ĉ!ćĈ!ćĈ!ćĈ!Ĉ!ććććĈ!ććĈ!ć !ďĉ",
      "ď Ĉ!ĉ",
      "ďĉďĉďĉďĉ ďĉďĉďĉ%&'(",
      "!!!!! ďĉďĉďĉ!ďĉďĉćććććĈ!Ĉ!ćĈĈ",
      "%!Ĉ&'( !",
      "3 23",
      "ćććć ććĈ!Ĉ!",
      "ďĉďĉďĉ! ďĉ!ďĉ!",
      "%&'( ďĉďĉ!!!",
      "ćďĉďĉďĉďĉ! ććĈ!Ĉ!Ĉ!Ĉ!Ĉ",
      "Ĉ! ćĈ!ćĈ!Ĉ!Ĉ!",
      "!!!!!!!!!!!!!!!!!!!!!!!!!!!!!!!!!!!! !!",
      "0011 0101",
      "ďĉďĉďĉďĉďĉćććć ćĈ!Ĉ!ćĈ!Ĉ!ćĈ!Ĉ!Ĉ!Ĉ!Ĉ!",
      "ćĈ!Čďĉďĉďĉ!ďĉďĉ!ďĉďĉďĉ!ďĉďĉ! ďĉďĉďĉ",
      "ćć ĉ",
      "ćĈ! ĉ",
      "ďĉďĉďĉďĉďĉ!! ďĉ!!ďĉďĉďĉ)!)",
      "ćććĈ!Ĉ!Ĉ!Ĉ ďĉ!!!!!ďĉ!)!)!!!!!!!!!!!!!!ďĉ",
      "LLLLLLLLLLLLLLLL LLLLLLLLLLLLLLLL",
      "%ćĈ &'(",
      "ć%&'( ďĉ!!",
      "% !!!&'(!!!!!!!!!!!!!!!!!!!!!!!!!!!!!!!!",
      "ć ďĉďĉ%&'(",
      "ďĉďĉďĉ!ďĉďĉďĉ!! ďĉďĉďĉďĉ!",
      "Ĉ!Ĉ!Ĉ!ćĈ!Ĉ! Ĉ!",
      "ćććĈ!Ĉ!Ĉ! ćĈĈĈĈ!",
      "Ĉ!Ĉ!Ĉ!Ĉ!ćććĈ! ďĉ!!ďĉ!!!!!!!!!!!",
      "ďĉ!ďĉ!! ďĉ",
      "(788888888,-%& +",
      "ďĉćĈ!Ĉ! Č",
      "ďĉďĉďĉ ćććĈ!Ĉ!Ĉ!Ĉ!ĈĈĈĈĈĈĈĈĈĈ!ćĈ!Ĉ!",
      "!!!!!!!!!!!ďĉ ćććĈ!Ĉ!Ĉ!Ĉ",
      "ďĉďĉ%&'(! ďĉďĉďĉ!!ďĉďĉ",
      ")!)!!Ĉ!Ĉ!ĈĈ !!!!!",
      "ďĉďĉ ćĈ!ĈĈ!ĈĈĈĈ!Ĉ!Ĉ!ĈĈĈĈĈĈĈĈ!ĈĈĈĈĈ",
      "Ĉ!Ĉ!Ĉ!Ĉ!Ĉ!Ĉ! ćďĉďĉďĉćĈ!Ĉ!Ĉ!Ĉ!",
      "ććĈ!Ĉ!Ĉ!Ĉ!Ĉ!Ĉ! ććĈ!ć",
      "ćĈ!ćĈ!Ĉ!Ĉ!ćĈ!Ĉ! Ĉ!ćĈ!Ĉ!Ĉ!ĈĈćĈĈ!Ĉ",
      "ćććććďĉ! ććććĈćććĈ!Ĉ!Ĉ",
      "ďĉďĉďĉ Ĉ!Ĉ!Ĉ!Ĉ!Ĉ!ćĈ!ĈĈĈĈ",
      "ďĉďĉ!ďĉďĉ%&'( ćĈ!Ĉ!Ĉ!Ĉ!Ĉ!Ĉ",
      ") ďĉďĉďĉďĉďĉďĉďĉ!",
      "MM M",
      "LL L!LK",
      "ďĉ!ďĉďĉďĉďĉ ďĉ",
      "ćďĉ! ďĉďĉďĉďĉďĉďĉďĉďĉ",
      "ćďĉ! ććććĈ!ćĈ!Ĉ!Ĉ!ćĈ!Ĉ!",
      "ďĉďĉ! %&'(",
      "ďĉ%&'( ďĉďĉďĉďĉďĉďĉ!",
      "ďĉďĉ%&'( ďĉďĉďĉ!!",
      "ďĉďĉ!ďĉ %&'(ďĉ",
      "ďĉĈ!ĈĈĈĈĈĈĈ Ĉ!ĈĈĈ!",
      "ć '(",
      "ďĉďĉďĉ! ďĉ!%&'(",
      "ďĉďĉďĉ%&'( ďĉďĉďĉ",
      "ďĉďĉ! ďĉ!!!!!!!!ďĉďĉďĉďĉďĉććććĈ!ćĈ!ĈćĈ",
      "ćććććć ćĈ!ćČ",
      "!!!!!!!!!!!!!!!! )!)!!!!!!!!ďĉ!ďĉďĉ",
      "!!!!!!!!!!!!!!!!!!!!!!!!!!!! !",
      "ďĉ!ďĉďĉ! ďĉ!ďĉďĉďĉ!",
      "ćććć ćĈ!ĈĈćĈĈćĈ",
      "ďĉ! ďĉďĉďĉ%&'(",
      "ďĉ%&'( ďĉďĉďĉ",
      "ććććććĈ! ććĈ!Ĉ!Ĉ!ĈćĈ!Ĉ!ĈćĈććĈĈ!ĈĈĈ",
      "ďĉćć ćďĉ!",
      "ďĉ!ďĉććććĈ!ćĈ!ĈĈ!ććĈ!ćĈ!ĈĈ!ćĈ!Ĉ! ćĈ!ďĉ!",
      "ďĉďĉćććĈ!Ĉ!Ĉ!Ĉ!Ĉ!ĈćĈĈ!Ĉ!ĈĈĈ ćĈćĈ!ććĈ!!",
      "!!!! !&'(",
      "ďĉďĉďĉ!! ďĉďĉ!ďĉ!!",
      "ć%&'( ďĉďĉ",
      "!!!! &'(",
      "ďĉďĉďĉďĉ ďĉďĉ!!",
      "ď%ĉ&'( !",
      "ćĈćĈćĈćĈćĈćĈćĈćĈćĈ ć",
      "ďĉďĉ ďďĉĉ",
      "ďĉ! ďĉďĉ%&'(",
      "ďĉ!ďĉďĉďĉ ćĈ!Ĉ!Ĉ!Ĉ!ĈĈ!Ĉ!Ĉ!Ĉ!",
      "ćććďĉ ććććććĈ!ććČ",
      "ćďĉ ćĈ!ććĈ!ćĈ!Ĉ",
      "ďĉ!ďĉĈ!Ĉ!ćĈ!Ĉ!ĈĈĈ ďĉ!ďĉ!!!SĂĄĆ!!ďĉ!!!!!!",
      "ććććććććĈ!ćććĈ!Ĉ! ćĈ!ďĉ",
      "ćďĉ! ďĉďĉ!!",
      "ćďĉďĉďĉĈ!ĈĈĈĈ Ĉ!ćĈ!Ĉ!ĈćĈĈĈ",
      "ďĉ Ĉ!Ĉ!ĈĈĈ!Ĉ!Ĉ!Ĉ!ĈĈĈĈ",
      "ćďĉććć ďĉ!!",
      "ďĉ!!ćććććććĈ!Ĉ!Ĉ!ććĈĈććĈ!ćĈĈ %&'(ďĉďĉ!!!",
      "!!!!!!!!!!!! ďĉ!ďĉ!!!!!!ďĉďĉ!!",
      "ć%&'( ďĉ!",
      "ďĉ!ďĉ!ďĉ!ďĉ! ďĉ!ďĉ",
      "ďĉďĉ!!ďĉ!!ďĉ!ććĈ! ďĉ!ďĉďĉ!!",
      "ćććĈ!Ĉ!ććĈ!ćĈ!ćČ ďĉ!!!",
      "ďĉďĉďĉďĉďĉ!! ďĉ!!!!",
      "ďĉďĉďĉć ďĉ!ďĉďĉďĉďĉ!!",
      "ćć %&'(",
      "ďĉďĉ!!ďĉ!ďĉ!! ďĉďĉďĉ!ďĉ",
      "0 0101",
      "ďĉďĉďĉ%&'( ďĉďĉďĉďĉďĉďĉďĉďĉ",
      "ďĉ!!!!!!!!! ćććĈ!Ĉ!Ĉ!Ĉ!Ĉ!Ĉ!ĈĈĈĈĈĈĈĈĈĈĈĈ",
      "ć ď%&'(ĉ",
      "ďĉďĉďĉďĉ %&'(ďĉďĉďĉďĉ",
      "ďĉ!!ďĉďĉďĉďĉďĉ!!ďĉ!ďĉ! ďĉďĉďĉ!",
      "ć%&'(ďĉ Ĉ!ćĈ!Ĉ!Ĉ!ćĈ!Ĉ!Ĉ!ĈĈ!",
      "ďĉďĉ! ďĉďĉďĉ",
      "!ďĉ !!!!!!!!!!!)!!!!!!!!!!!!!!!",
      "ďĉďĉ ćććććććć",
      "ćććĈ!Ĉ!Ĉ!Ĉ!Ĉ!Ĉ! Ĉ!Ĉ!Ĉ!Ĉ!",
      "ć%&'(ďĉ!! ďĉ!ďĉďĉďĉ!ďĉ!!!!!",
      "ć %Ĉ&'(",
      "ďĉ!ďĉ !!!!!!!!",
      "ćććććĈ!ĈĈćĈĈćĈ ďĉćććććććć",
      "ďĉďĉďĉ! ććĈ!ć",
      "7 '7777",
      "ććĈ! ďĉ!ďĉ!!ćĈ!",
      "66666666 7'7777",
      "ďĉďĉďĉďĉďĉ! )!)!ďĉďĉ!!!)!)!!",
      "ĈćĈĈćĈćĈĈĈćĈĈďĉ Ĉ!ĈĈĈĈ",
      "RTVa!!!S %&'(",
      "666666667'7777 77",
      "ħ )",
      "ďĉďĉďĉ %ď&'(ĉ",
      "%&'(ďĉďĉ !!!!ďĉ!!)ďĉďĉ!",
      "ć )",
      "ē !",
      "!!!!!!!!!!!! &'(",
      ")!)ďĉďĉďĉďĉďĉďĉ!!! ďĉ!!ďĉ!ďĉ!",
      "!!!!!!!!!ďĉ!!!!!!!! ďĉďĉďĉ!ďĉ!%&'(",
      "!!!!!!!!!!!!!!!!!!!!!!!!!!!!!!!! !!!",
      "ćĈ!Ĉ!Ĉ!Ĉ!Ĉ!Ĉ!ĈĈ ďĉ!!!",
      "!!!!!!!!!!!!!!!!!!!!%&'(%&'( ďĉďĉďĉ",
      "Ĉ! )",
      "ďĉďĉďĉ!! ďĉ",
      "ććĈ!ćććĈ!ćććĈ!ćććĈ!Ĉ!Ĉ!ďĉćć ćĈ!ć",
      "ďĉďĉ ćććĈ!Ĉ!Ĉ!Ĉ!Ĉ!Ĉ!ćććććĈ!ćĈĈ",
      "ďĉ%&'( Ĉ!Ĉ!ĈĈĈĈĈĈĈĈĈĈĈĈĈĈĈĈĈĈĈĈĈĈĈĈďĉ!",
      "ďĉďĉďĉďĉďĉďĉ! ďĉďĉ!ďĉďĉďĉ!!",
      "ďĉďĉďĉďĉďĉďĉ R%&'(TVa",
      "77 '7777",
      "ćďĉ! ććććććććĈ!Ĉ!ćĈĈćĈ!ĈĈćĈ!ćĈĈćĈ!Ĉ!",
      "66666666 77'7777",
      "ďĉďĉďĉďĉćććć Ĉ!ĈĈ!ćĈ!ĈĈ!Ĉ!Ĉ!ćĈ!ćĈ",
      "6666666677'7777 7",
      "!!!!!!!!!!!!!!!!!!!!!!!!!!!!!!!!!!!! !ďĉ",
      "ďďĉĉ !",
      "!!ďĉćć ĈĈĈĈĈ",
      "ćććććććĈ!ćČ Č",
      "F D",
      "ĥ !",
      "Ĉ! ćĈ",
      "ďĉćććććććć ććććĈ!ćĈ!Ĉ!",
      "ćďĉ!!!! ćďĉ!",
      "ďĉďĉ)ďĉďĉ!ďĉďĉ!!ďĉ!!!! ďĉďĉďĉďĉ",
      "ć%&'( Ĉ!Ĉ!Ĉ!Ĉ!Ĉ!Ĉ!",
      "66666666 7777",
      "Ĉ!Ĉ!Ĉ!ćĈ!Ĉ!Ĉ! ććĈ!Ĉ!Ĉ!Ĉ!Ĉ!Ĉ!ćĈ",
      "ďĉďĉ!ďĉ%&'(ďĉ Ĉ!ďĉ!ďĉďĉďĉďĉ",
      "ďĉďĉ! ďĉďĉ!!!ďĉćĈ!Ĉ!ććĈ!ććĈ!ĈĈ!ććĈ!Ĉ!Ĉ",
      "ďĉďĉ!! ďĉ!!!!!!!!",
      "ďĉďĉ!ďĉ!)ďĉďĉďĉć ďĉďĉ!ďĉďĉďĉ!!ďĉ!!!!",
      "ďĉ!ďĉ!!ďĉďĉ!!ďĉ!!!!!!)!!!!!!!!) ďĉďĉďĉ!!",
      "ć ďĉďĉ!ďĉďĉ",
      "ććććĈ!Ĉ!Ĉ!Ĉ!Ĉ!ĈĈ!Ĉ! ćďĉ!!",
      "ćććććďĉ!ććććĈćććĈ!Ĉ!Ĉ ćĈ!ć",
      "%&'(ďĉ Ĉ!ćĈ!Ĉ!Ĉ!Ĉ!Ĉ!Ĉ!ćĈ!ćĈ!ćĈ!Ĉ!Ĉ!",
      "!!!!!!!!!!!!!!!!!!!!!! Ĉ!ďĉďĉćĈ!ďĉ!",
      "ćĈ!Ĉ!Ĉ!Ĉ!Ĉ!Ĉ!Ĉ!Ĉ!ćĈ!ćĈ!Ĉ!ĈćĈ!Ĉ! ďĉćĈ!",
      "ďĉďĉďĉďĉ ďĉ!ďĉďĉďĉ!",
      "!!!% !&'(",
      "ć %ć&'(",
      "!!!! RTVa!!!SĂĄĆ",
      "66666666 '7777",
      "ććććĈ!ĈĈ ďĉ!!!!!!!!!!!",
      "66666666'7777 777",
      "ďĉďĉďĉďĉďĉďĉďĉ !!!!!!!!!!!",
      "M &'(",
      "ďĉ ćĈ!ćĈ!Ĉ!ććĈ!Ĉ!Ĉ!Ĉ!ćĈĈĈ!Ĉ!ćĈ!Ĉ!",
      "Ĉ!Ĉ!Ĉ ćĈ!Ĉ!Ĉ!Ĉ!Ĉ!Ĉ!Ĉ!Ĉ!Ĉ!Ĉ!",
      "ćďĉ! ććĈ!",
      "%&'( ćďĉ!",
      "01 0011",
      "!!!!!!!!!!!!!!!!!!!!!!!! !!ďĉććĈĈĈĈĈ",
      "Ē !!!",
      "ćĈ!ĈĈ! ćĈ!ć",
      "ďĉďĉ!!!! ďĉ!!!ćććć",
      "32323 2222222222222222",
      "00101 1",
      "ďĉ Ħ",
      "ćććććććććććććććććććććććć ććććĈ!ćĈ!Ĉ!",
      "% !!!!!!!!!!!!!!!!!!!!!!!!!!!!",
      "!!!!!!!!!!! &'(",
      "ćďĉďĉ ććĈ!",
      "ććĈ!%&'( Ĉ!Ĉ!ĈćĈ!Ĉ!Ĉ!Ĉ!Ĉ!Ĉ!Ĉ!Ĉ!Ĉ!Ĉ!",
      "ćďĉďĉ!ďĉďĉ ć%&'(Ĉ!Ĉ!Ĉ!Ĉ!Ĉ!Ĉ!",
      "RTVa!!!S%&'( ĂĄĆ!!!!R!!!S",
      ") !!!",
      "L ĉ",
      "ďĉďĉ !!!!!!!!!!!!!!!!!!!!!",
      "ďĉ! ď%&'(ĉ",
      "ďĉ!ďĉ !!!!",
      "ďĉďĉ!ďĉďĉćććć ćĈ!ćČ",
      "ďĉďĉďĉďĉďĉďĉďĉďĉ !!!ďĉďĉďĉďĉ",
      "Ĉ!Ĉ!Ĉ!! ĈĈ!ĈććĈ!Ĉ!ĈĈ!ĈĈ!Ĉ!ćĈ!",
      "ďĉďĉďĉ ććĈ!Ĉ!ćĈĈ!ćĈ!Ĉ!Ĉ!Ĉ!Ĉ!ĈĈĈćĈ!Ĉ!Ĉ!",
      "ďĉ!ďĉďĉďĉďĉ !!!!!!!!!!!!!!!!!!!!!Ĉ!Ĉ!Ĉ",
      "ĉĉ ĉ",
      "ćĈ ćďĉďĉďĉ",
      "ćďĉ#$ćĈ!ćć %&'(ďĉďĉ!!!!ďĉ!!)ďĉďĉ!",
      "ď%&'(ĉ ďĉďĉ",
      "ďĉďĉďĉďĉďĉ! ďĉ!ďĉďĉďĉďĉ",
      "M ĉ",
      "!!!!!!!! &'(",
      "ćĈ! )!)!!Ĉ!Ĉ!ĈĈ!!!!!",
      "ćĈ!Ĉ!ĈĈćĈćĈĈĈĈĈĈĈĈĈĈĈĈ %&'(ďĉ!!",
      "%&'(%&'(ďĉ!!ććććććĈććĈ! ďĉćĈ!Ĉ!Č",
      "!!!! !!&'(",
      "ćĈ !!",
      "%&'(ďĉ! ćććĈ!Ĉ!ćĈ!Ĉ!Ĉ",
      "ďĉ!ďĉ!!!!!!!!!!!ďĉ!ďĉ ććććććĈććĈ!",
      "ďĉďĉďĉďĉ %ď&'(ĉ",
      "ďĉ!!!!!!!ďĉ!!ďĉďĉ!!! ďĉďĉďĉďĉďĉ!ďĉ",
      "ď )",
      "ďĉďĉďĉďĉ ćĈ!ĈĈ!Ĉ!ďĉ!ďĉ!ďĉďĉďĉ!!",
      "ćĈ!Ĉ! ćĈ!ćĈ!Ĉ!",
      "ď%&'(ĉ ďĉ",
      "ććććććććĈ!Ĉ!Ĉ!Ĉ!ćĈĈĈĈ!Ĉ!ćĈ! ďĉďĉ",
      "ďĉďĉ ĉ",
      "ćĈ!ć ďĉďĉ!ďĉďĉćććććĈ!ćČ",
      "!!!!!!!!!!!!ďĉ!ďĉ!!!!!!ďĉďĉ!! ďĉ!ďĉďĉ!!",
      "ď ĈĈ",
      "%&'( ćććććććććććććććć",
      "ď%&'(ĉ !!",
      "ćĈĈĈĈĈ Ĉ!ĈĈ!ĈĈĈćĈĈĈćĈ!ĈĈĈĈ!ĈĈ!Ĉ",
      "%&' ć(",
      "ććććĈ!ćĈ!Ĉ!Ĉ!ĈĈ!Ĉ!Ĉ!Ĉ ććĈ!ć",
      "ďĉ%&'(ďĉďĉďĉďĉďĉďĉ! ďĉďĉďĉďĉ!!",
      "ďď !",
      "ďĉďĉćććć ćććĈĈććććććĈ!ćĈĈ",
      "ďĉ!ćĈ!ćĈ ďĉďĉďĉďĉ!",
      "ďĉďĉ )!)!!",
      "Ĉ!Ĉ !!",
      "ććĈ!Ĉ!Ĉ!ćĈ! ďĉďĉďĉďĉďĉďĉ",
      "ćĈ!ĈĈĈćĈćĈćĈĈĈćĈ ďĉďĉ!ďĉ!!",
      "!!!! RTVa!!!SĂĄĆ!!!!R!!!S",
      "!!!!!!!!!!!! ďĉ!!",
      "ďĉ!ďĉďĉďĉďĉ ćďĉ!",
      "ďĉ! %ď&'(ĉ",
      "ďĉďĉďĉ! ďĉ!!",
      "%&'ď( ĉ!",
      "ććĈ!ćďĉďĉďĉďĉ ďĉďĉďĉ!!",
      "ďĉ!!!!!ćĈ!ĈćĈ!ćĈ!ĈĈ!ćĈ!Ĉ!ĈĈĈ!ĈĈĈććĈ! ďĉ",
      "ćĈ!Ĉ!ĈćĈ!Ĉ!ćĈ!ććĈĈĈĈĈćĈćĈ %&'(ďĉ",
      "%ćć &'(",
      "Ĉ!Ĉ!ĈćĈĈĈĈĈ!Ĉ!Ĉ!Ĉ!Ĉ!Ĉ!ĈĈĈ!Ĉ!ĈĈĈĈ ďĉ!!",
      "% M&'(",
      "%&'(ďĉďĉ!!ďĉ ćććĈ!Ĉ!Ĉ!ćĈ!Ĉ!Ĉ",
      "ćććĈ!Ĉ!ććĈ!ćĈ!ćČďĉ!!! ďĉ!",
      "ďĉďĉďĉ! ďĉ!ďĉ!ďĉ",
      "%Ĉ&'( Ĉ",
      "ďĉďĉ!ďĉďĉćććć ćďĉ!",
      "%&'(ďĉďĉ!!ďĉ !!!!!!!!!!!!!!!!!!!",
      "ćććĈ!Ĉ!ćĈ!Ĉ!ćĈ!ćĈ!ćĈ!ĈĈ!Ĉ! ćĈ!ćĈ!Ĉ!Ĉ!",
      "ćććĈ!Ĉ!Ĉ!ćĈĈĈĈ! ćĈ!ĈĈ!ćĈ!ć",
      "A B",
      "ďĉďĉďĉ%&'( ďĉďĉďĉďĉďĉ",
      "%&'(ďĉďĉďĉ! ććĈ!ćďĉďĉďĉďĉďĉďĉďĉďĉ",
      "Ē!! Ė",
      "ďĉ %!&'(",
      "ďĉďĉďĉďĉ ďĉ!ďĉďĉďĉďĉ",
      "ďĉďĉ!!ćććĈ!Ĉ!ćĈ!Ĉ!ĈĈĈĈ!ććĈ ďĉďĉćććććććć",
      "K K",
      "%&'( Ĉ!",
      "ďĉďĉďĉďĉďĉďĉ%&'( ďĉďĉ!ďĉďĉďĉ",
      "ďĉďĉďĉ!!!!!!!!!! ďĉďĉďĉ%&'(ďĉďĉďĉ",
      "> >",
      "ďĉďĉ !!!!!!!",
      "ĈćĈĈćĈćĈĈĈćĈĈďĉ Ĉ!Ĉ!ĈĈĈ",
      "ď Lĉ",
      "2323 2222222222222222",
      "%&'(Ĉ!Ĉ! ćććććĈ!ćĈĈ",
      "ćĈćĈĈĈĈĈĈĈćĈĈĈĈĈĈćĈćĈ!ćĈĈ! ďĉ!!!!",
      "ďĉďĉďĉĈ!Ĉ!Ĉ!Ĉ!Ĉ!ćĈ!ĈĈĈĈ ćĈ!ćĈ!",
      "Ē Ē",
      "ę !",
      "ďĉďĉ%&'( ďĉďĉ",
      "ďĉďĉďĉďĉ!!!!ďĉ!! ďĉďĉďĉďĉďĉďĉďĉďĉ!",
      "ć ďĉďĉ!",
      "%!!!! !!&'(",
      "ħ !",
      "!!!! ďĉďĉ!!!!!!!!!!!!!!!!!!!!!",
      "!!! ďĉ!!!ćććĈćĈ!ćĈ!ĈĈ!Ĉ!",
      "!!!!!!!!!!!! ććĈ!ćĈ!ććĈ!",
      "!!!!!!!!!!!!!% !!!!!!!&'(",
      ")ďĉďĉďĉďĉďĉďĉďĉ! ďĉ!!",
      "ćďĉ!ććĈ! ćĈ!Ĉ!ĈĈĈ!ĈĈĈććĈ!ĈĈ!ĈĈĈĈ!ĈĈ!ĈĈĈĈ",
      "ĉ Ĉ",
      "ďĉďĉďĉ! ďĉďĉ!!ďĉďĉďĉ!",
      "ďĉ!ďĉďĉďĉ Ĉ!Ĉ!Ĉ!Ĉ!ććĈćć",
      "ĈĈĈĈĈ ďĉďĉ)!)!!",
      "ć L",
      "ďĉ!ďĉ %&'(",
      "ďĉďĉ!!! ććććććććććććććććććććććććććĈ!",
      "%&ď'( ĉ!",
      "01'(3 33",
      "666666667'777777 (788888888,-%&+01",
      "ćĈ!ćĈ!ćďĉďĉďĉďĉ! ďĉ!ďĉďĉ",
      "ďĉďĉďĉďĉ!ďĉďĉ!! ďĉďĉďĉďĉďĉďĉďĉ!ďĉ!ďĉ",
      "ď Ĉ!Ĉ",
      "ď Mĉ",
      "ĈĈĈĈ ĈĈĈ",
      "ďĉďĉďĉ !!!!!ďĉďĉďĉ!ďĉďĉćććććĈ!Ĉ!ćĈĈ",
      "ćĈĈ!Ĉ!ĈćĈ!Ĉ!ĈĈĈĈĈĈććĈ!ćďĉ!!!!!!!! ďĉ!ďĉ!",
      "Ĉ!Ĉďĉ!ďĉ!ďĉ ćććććććććććĈ!ćĈ!!ććĈ!ććĈ!",
      "ćĈ! %Ĉ&'(!",
      "ćĈ!Ĉ! Ĉ!Ĉ",
      "ďĉ%&'( ďĉ!!",
      "ďĉ!ďĉďĉ!ďĉ ćććĈ!Ĉ!Ĉ!Ĉ!",
      "ćďĉďĉ ćććĈ!ćĈ!Ĉ!Ĉ!ćĈ!Ĉ!ćĈ!Ĉ!Ĉ!Ĉ!ćĈ!Ĉ!",
      "%& Ĉ'(!",
      "ďĉ!ďĉ! ďĉďĉďĉ",
      "ďĉ!ďĉďĉ!ďĉćććĈ!Ĉ!Ĉ!Ĉ! %&'(Ĉ!Ĉ!ćććććĈ!ćĈĈ",
      "!!!!!!!!!!!!!!!!!!!!!!!!!!!!!!!! !!",
      "ććďĉďĉ) ćďĉ",
      "3 2222",
      "Ĉ! %Ĉ&'(!",
      "ďĉďĉďĉďĉďĉďĉďĉďĉ ďĉďĉďĉďĉ",
      "ďĉ!ďĉďĉďĉďĉ ďĉďĉďĉćďĉ!ďĉďĉďĉďĉ!!",
      "ďĉ!ďĉ! ďĉďĉ!!",
      "ćďĉďĉ ćććććććĈ!Ĉ!Ĉ!ćĈ!Ĉ!Ĉ!",
      "ďĉ!!!!!! )!!!!!!!!)!",
      "ďĉ!ďĉďĉ!! ďĉďĉďĉďĉ",
      "ďĉďĉććććććĈ!ćććĈ!ćć ćĈ!ćĈ!",
      ") ħ",
      "ď Ĉ!Ĉ!ĉ",
      "!&'( !!!!!!!!!!!!!!!",
      "%&'(ďĉďĉ )!)!!",
      "66666666 777",
      "ĥĤ !",
      "66666666777 '7777",
      "Ħ !",
      "!!!!!!!! !!ďĉ",
      "ďĉďĉďĉ )!)",
      "%&'(ďĉďĉ !!!!!!!!!!!ďĉćććĈ!Ĉ!Ĉ!Ĉ",
      "%&' Ĉ(!",
      "ĈĈ Ĉ!Ĉ",
      "ć%&'( ďĉďĉďĉďĉ!",
      "ďĉ!ďĉďĉďĉďĉďĉďĉďĉďĉ ďĉďĉ!!",
      "ďĉďĉďĉďĉďĉďĉďĉ Ĉ!Ĉ!Ĉ!Ĉ!Ĉ!Ĉ!Ĉ!ĈĈĈĈĈĈ",
      "ććĈ!ćďĉ ććććććććĈ!Ĉ!Ĉ!Ĉ!ćĈĈĈĈ!Ĉ!ćĈ!",
      "ďĉĈ!ĈĈĈĈĈĈĈĈ!ĈĈĈ ďĉ",
      "ćĈĈćĈĈĈĈĈĈćĈĈĈĈćĈĈćĈĈćĈ!ćććĈ!ćć ďĉďĉ!!!!",
      "ďĉďĉ%&'(ďĉ )!)ďĉďĉďĉďĉďĉďĉ!!!ďĉ!!ďĉ!ďĉ!",
      "đ đ",
      "ďĉďĉďĉďĉďĉďĉďĉďĉ !!",
      "RTVa!!!SĂĄĆ!!!!R!!!S ćććććććĈ!Ĉ!",
      "!!!!!!!! !!&'(",
      "!!!!!!!! %!!!!!!!!",
      "!!!SĂĄĆ !!!!R!!!S",
      "RTVa!!!SĂĄĆ ďĉćććďĉ!",
      "%!!!! !&'(",
      "%! ć",
      "!!!% !!!!!!!!!!!!",
      "ĈćĈĈćĈćĈĈĈćĈĈ %&'(ďĉ",
      "!!!! ďĉ!!!ćććć",
      "%&'( ďĉďĉďĉ%&'(",
      "%&'( ďĉďĉ!!ďĉ!!!!!!!!",
      "ďĉ! ĉ",
      "ćĈ ćć",
      "ďĉďĉďĉďĉďĉďĉ!ďĉďĉ!ďĉďĉďĉ!! ććććĈ!Ĉ!",
      "ćććć ćĈ!ćĈ!Ĉ!ćĈĈ!Ĉ!Ĉ!Ĉ!ćĈćĈĈćĈ!Ĉ!Ĉ!ćĈ!Ĉ!",
      "ďĉ!ďĉďĉďĉďĉ %&'(",
      "ďĉďĉ!!ďĉ ćććĈ!Ĉ!Ĉ!Ĉ!ĈĈĈĈĈĈĈĈĈĈ!ćĈ!Ĉ!",
      "ďĉďĉććććććĈ!ćććĈ!ćć ćĈ!ćĈ!ćďĉďĉďĉďĉ!",
      "ďĉďĉďĉ%&'(Ĉ!Ĉ!ĈĈ!Ĉ!ĈĈĈĈ!Ĉ!ĈĈ!Ĉ!Ĉ!! Ĉ!",
      "ććććĈ!ćĈ!Ĉ!Ĉ!ĈĈ!Ĉ!Ĉ!ĈććĈ!ć %&'(ďĉ",
      "ďĉďĉďĉ!ďĉ!ďĉ!ďĉ %&'(",
      "%ć&' ć(",
      "6666666677'77777 (788888888,-%&+01",
      "ĥ ďĉ",
      "Ĉ! ćĈĈ",
      "ććĈ!Ĉ! ćĈ!Ĉ!",
      "ď! ĉ!",
      ")!!! )",
      "ď ććĉ",
      "Ħ %&'(%&'(%&'(%&'(%&'(%&'(%&'(%&'(",
      "ďĉ%&'( ďĉďĉ!!!!ďĉ!!!ćććć",
      "ďĉďĉďĉ!ďĉ ćďĉ!!!!ćďĉ!",
      "ć%&'(ďĉ!!!!!!!!! ďĉďĉďĉ!!ďĉďĉ!ďĉ!!",
      "Ĉ!ĈĈĈĈ Ĉ!Ĉ!Ĉ!ĈĈĈĈĈĈĈĈĈĈ!ĈĈĈ!ĈĈ!ĈĈĈĈ!ĈĈ!Ĉ",
      "ďĉďĉďĉďĉďĉ %ď&'(ĉ",
      "% ď",
      "!!!!!!!! !&'(",
      "ďĉ!ďĉďĉďĉ! ďĉ!ďĉ!!ďĉ",
      "!!!!!!!!!!!!!!!!!! %&'(",
      "Ĉ!ćĈ!Ĉ!Ĉ!Ĉ!Ĉ!! ĈĈ!ĈććĈ!Ĉ!ĈĈ!ĈĈ!Ĉ!ćĈ!",
      "ć%&'(ďĉĈ!ćĈ!Ĉ!Ĉ!ćĈ!Ĉ!Ĉ!ĈĈ! ćĈ!ďĉ!",
      "ććććĈ!Ĉ!Ĉ!Ĉ!Ĉ!ĈĈ!Ĉ!ćďĉ!! ďĉďĉ",
      "ĉ ďĉ",
      ")!)!! )!)",
      "ćĈĈćĈĈĈĈĈĈćĈĈĈĈćĈĈćĈĈćĈ!ćććĈ!ćć %&'(ďĉďĉ",
      "B !",
      "L &'(",
      "ďĉďĉďĉďĉďĉďĉďĉďĉ ďĉ",
      "ď%&'(ĉ ďĉďĉďĉ",
      "!!!!!!!!!!!!!!!!!!!!!!!! !!ďĉ",
      "ďĉďĉ!ďĉďĉ%&'(ćĈ!Ĉ!Ĉ!Ĉ!Ĉ!Ĉ ďĉĈ!Ĉ!Ĉ!Ĉ!",
      "Ĉ )",
      "ē Ė",
      "Ĉ! ć",
      "Ĉ!Ĉ!Ĉ!Ĉ!Ĉ ćĈ!ĈĈ!ĈĈĈ",
      "M !",
      "ďĉ! %&'(ďĉďĉ!",
      "ććĈ!ĈćĈćĈćĈ!ĈćĈĈ %&'(ďĉďĉďĉ%&'(",
      "ďĉďĉďĉďĉďĉďĉďĉ)! ďĉďĉďĉďĉ%&'(ďĉďĉďĉďĉ",
      "ććĈ! ć%&'(",
      "MMMMMMMM MMMM",
      "& Ĉ'(!",
      "B B",
      "ď Ė",
      "ď ćĈ",
      "ďĉďĉďĉďĉ! ďĉďĉďĉďĉ!ďĉ!!",
      "ďďĉĉ ďďĉĉ",
      "ććććććĈ!ććĈ!Ĉ!Ĉ!ĈćĈ!Ĉ!ĈćĈććĈĈ!ĈĈĈ ďĉ!!!",
      "ďĉďĉďĉ%&'(ďĉďĉďĉďĉďĉďĉďĉďĉ ďĉďĉďĉ!",
      "Ĉ Ĉ!Ĉ!",
      "ĉ !!",
      "ď ďĉďĉĉ",
      "ďĉďĉďĉďĉ ććĈ!Ĉ!ĈĈĈ!!ćĈ!Ĉ!Ĉ!Ĉ!ćďĉďĉ!!",
      ")!) !!!!!!!!!!!!!!!",
      "ď%&'(ĉ ďĉďĉ!",
      "'(3 33",
      "%&'(! ďĉďĉďĉ!ďĉ!ďĉ!",
      ")!)!!!!!!!!!!!!!!!! ďĉďĉďĉ!",
      "ďĉ!ďĉ!! Ĉ",
      "ďď ď",
      "ďĉďĉćććĈ!Ĉ! Ĉ!ćĈ!Ĉ!Ĉ!Ĉ!Ĉ!!",
      "ććĈ!ĈćĈćĈćĈ!ĈćĈĈ ďĉ%&'(ďĉďĉ",
      "! ďĉ!)!)!!!!!!!!!!ďĉ!!!!!!",
      "ďĉ ĉĉ",
      "ĥĤ ē",
      "66666666'7777777 (788888888,-%&+01",
      "ďĉďĉďĉ!ďĉ!ďĉ!ďĉ%&'( ććďĉďĉ)ćďĉ",
      "ććććććĈ! ć",
      "ćĈ!ć !",
      "%&'(!ďĉďĉďĉ!ďĉ!ďĉ! ďĉ!ďĉďĉ!!ďĉďĉďĉďĉ",
      "%&'( ďĉďĉďĉďĉďĉďĉďĉ!!!!!!!!!!!",
      "ć%&'( ćććć",
      "%&'(ďĉďĉďĉ! ďĉ!!ďĉďĉďĉďĉďĉďĉ!",
      "% !!!!!!!!!!!!!!!!!!!!!!!!!!!!!!!!!!!!",
      "ď ćĈ!ĉ",
      "!!!!!!!!!!!! %!!!!!!!!!!!!!!!!!!!!",
      "ć '",
      "ćĈ! ć%&'(",
      "ćĈ!Ĉ ćććć",
      "ďĉ!ďĉďĉďĉďĉ ćććĈ!Ĉ!ććĈ!ćĈ!ćČďĉ!!!ďĉ!",
      "ďĉ!ďĉ! ďĉďĉ!",
      "ďĉćććć ćĈ!Ĉ!Ĉ!ćĈĈćĈ",
      "ćĈćďĉďĉďĉ !!!",
      "LL !LK!LK",
      "%&'(ďĉ ćĈ!ćĈ!Ĉ!ććĈ!Ĉ!Ĉ!Ĉ!ćĈĈĈ!Ĉ!ćĈ!Ĉ!",
      "ďĉćććć ćĈ!ĈĈćĈĈćĈ",
      "ďďďď ďďďď",
      "!&'(ďĉ)) ħ",
      "ćĈ!Ĉ!ĈćĈ!ďĉćććććććĈ!ćĈ! %&'(ćďĉ!",
      "ďĉďĉďĉďĉ ďĉďĉďĉ!!",
      ")!) !!!!",
      "ďĉďĉďĉďĉďĉ!! ďĉ!ďĉďĉďĉďĉďĉďĉďĉďĉ",
      "!!!!!!!!!!!!! ďĉďĉďĉďĉďĉ!!ďĉ!!ďĉďĉďĉ)!)",
      "33 2222",
      "ďĉ!ďĉďĉ!! ďĉďĉďĉďĉďĉďĉďĉďĉ!",
      "AA AA",
      "ćć ćďĉ!",
      "%&'( ďĉ!ďĉďĉďĉďĉ!!",
      "LL L",
      "ćććĈ!Ĉ! Ĉ!Ĉ!Ĉ",
      "%&'(ďĉ Ĉ!ĈĈĈĈĈĈĈ",
      "LLLL !LK",
      "ćććććĈ!Ĉ!Ĉ!ćĈĈćĈ %&'(ďĉďĉ",
      "%ć&' Ĉ(!",
      "ďĉďĉďĉďĉďĉďĉďĉ!ďĉ!ďĉ ćććććććĈ!ćČČ",
      "Ĉ ćĈ",
      "Ĉ! ćĉ",
      "ćć ĈĈĈĈ",
      "ďĉďĉďĉďĉ %&'(",
      "%&'(ďĉ ćććććććć",
      "%ď&'(ĉ !!",
      "ććć ĉ",
      "ćććććĈ!ćĈ!ććććĈ!ććĈ!ćććĈ!ćććĈ ćďĉďĉććĈ!",
      "ďĉ!ďĉďĉďĉďĉďĉďĉ!! %&'(ďĉ!ďĉďĉďĉďĉ!!",
      "% !!!!!!!!!!!",
      "ď Ħ",
      "Ĥ ))))",
      "ħ ĉ",
      "ćĈ!Ĉ! ćĈ!Ĉ",
      "ďĉ! %&'(ďĉ",
      "Ĉ!Ĉ!Ĉ!Ĉ! Ĉ!",
      "ďĉ!! ďĉ!ďĉďĉďĉďĉ!",
      "ćďĉ )ħ",
      "Ĉ!Ĉ!Ĉ! %&'(",
      "ćďĉ%&'( ććććććĈ!Ĉ!",
      "ććććććććććććČďĉďĉććĈ!ćĈ!ćĈ!ćĈ!ćĈćĈćĈ ćďĉ",
      "ďĉ!!!!ďĉďĉďĉďĉďĉďĉďĉďĉ ďĉďĉ",
      "ć%&'(ďĉ!!!!!!!!! ďĉďĉďĉďĉďĉ)!)",
      "Ĉ! ććĈ!",
      "!!!!!!!!!!! %!&'(",
      "%Ĉ&'( ĈĈ",
      "ďĉ!ďĉďĉďĉďĉďĉďĉďĉďĉ !",
      "ćććććććććć ćĈ!",
      "&'( ćďĉ!ďĉ",
      "!!!!!!!!!!!! !!&'(",
      "ďĉďĉďĉďĉďĉďĉďĉďĉ ďĉ!ďĉďĉďĉďĉ",
      "!!!!!!!!! ćććĈ!Ĉ!Ĉ!Ĉ!Ĉ!Ĉ!ĈĈĈĈĈĈĈĈĈĈĈĈ",
      "ďĉďĉďĉďĉďĉćććć ćĈ!)!)!!Ĉ!Ĉ!ĈĈ!!!!!",
      "32323 232222222222222222",
      "ČČ ďĉďĉďĉ!!!!!ďĉďĉďĉ!ďĉďĉćććććĈ!Ĉ!ćĈĈ",
      "Ĉ!ĈćĈ!ćĈĈĈĈĈćĈĈĈĈĈćĈ!ĈĈĈćĈ ďĉ!",
      "Ĉ!ĈĈĈ!Ĉ!Ĉ Ĉ!Ĉ!Ĉ!",
      "ććĈ!ćďĉďĉďĉďĉ ďĉďĉďĉ!!ďĉďĉ",
      "ďĉ%&'(! ďĉ!ďĉ!ďĉďĉ!!",
      "ďĉďĉ )!)",
      "ĈĈĈ ĉ",
      "ďĉďĉ! ďĉďĉďĉďĉ!",
      "Ĉ!Ĉ!Ĉ!Ĉ!Ĉ!Ĉ!Ĉ!Ĉ! ĈĈĈ!Ĉ",
      ")!)!!!!!!!!!!!!!!!! !",
      "% ĈĈ",
      "Ĕ ĥ",
      "ćć !",
      "ćďĉďĉďĉĈ!ĈĈĈĈĈ!ćĈ!Ĉ!ĈćĈĈĈ ćĈĈĈĈĈ",
      ") ďĉ",
      "ďĉ !!!!!!!!!!!!!!!!!!!!!!!!",
      "%&'( ćĈ!ćĈ!Ĉ!Ĉ!",
      "ďĉďĉďĉďĉďĉ)!) ďĉďĉďĉ!ďĉďĉďĉ!!ďĉďĉďĉďĉ!",
      "ďĉ!ććĈ! ćĈ!Ĉ!ĈĈĈ!ĈĈĈććĈ!ĈĈ!ĈĈĈĈ!ĈĈ!ĈĈĈĈ",
      "%&'(ďĉ!!! ďĉďĉďĉ!!ďĉ",
      "ČČ ČČ",
      "Ħ Ħ",
      "ďĉďĉ ď%ĉ&'(",
      "ďĉ!!!! ďĉďĉďĉ!ďĉďĉ!ďĉďĉ!!ďĉ!!",
      "ďĉ!ďĉ! ďĉ!",
      "ććć %Ĉ&'(!",
      "ďĉ!ďĉďĉďĉďĉďĉďĉďĉďĉ ďĉďĉďĉďĉďĉďĉďĉ",
      "%ć& Ĉ'(!",
      "ćććććĈ!Ĉ!Ĉ!ćĈĈćĈďĉďĉ Ĉ!Ĉďĉ!ďĉ!ďĉ",
      "Ĉ!%&'( ďĉ!ďĉďĉďĉďĉďĉ",
      "ćććććććććććĈ! ććĈ!Ĉ!ćĈ!Ĉ!",
      "!!!!!!!!!!!! !&'(",
      "!!!!!!!!!!!!! %&'(",
      "ďĉďĉďĉć ďĉ!ďĉďĉďĉďĉ",
      "ć K",
      "!! )!)",
      "Ĉ!Ĉ! ćĈ!Ĉ",
      "Ĉ!ĈĈ! ďĉ",
      "Ĉ!Ĉ!Ĉ!Ĉ!Ĉ!Ĉ!Ĉ!Ĉ!ĈĈĈ!Ĉ Ĉ!ĈĈĈ!Ĉ!ĈĈ!Ĉ!Ĉ!",
      "ććĈ!Ĉ ďĉ",
      "ćĈ!ĈćĈĈ!Ĉ!ćĈ!ĈĈ!ććĈ!ćĈ!ććĈćĈććć!! %&'(",
      "Ĉ!ćĈ!ćĈ!Ĉ!Ĉ! ďĉďĉ!!!!!!!",
      "ď ďĉ",
      "Ĕ !",
      "%&'( !!!!!!!",
      "%& ć'(",
      "ćććććććććććĈ!ććĈ!Ĉ!ćĈ!Ĉ! ćĈ!ć!",
      "3 2222222222222222",
      "ďĉ !!!!!!!!!!!!!!!!!!!!!!!!!!!!!!!!!!!!",
      "&'( !!!!ďĉććććĈ!ćĈ!ćĈ!",
      "ćććć ć",
      "ďĉ!! ďĉ%&'(ďĉďĉ",
      "ďĉďĉďĉ! ďĉďĉďĉďĉ",
      "ďĉďĉďĉ! ććĈ!ćďĉďĉďĉďĉďĉďĉďĉďĉ",
      "ďĉďĉďĉďĉďĉďĉďĉďĉ ďĉ%&'(ďĉďĉďĉ",
      "ďĉ%&'( !!!",
      "ď%&'(ĉ !ďĉ",
      "ćĈ!ććĈ!ćĈ!Ĉ ďĉććććććććććććĈ!ćĈ!Ĉ!",
      "ďĉ!ďĉ!!!!!!!!!!!!!!!! ďĉ!!!!!!!!!!!!!!!!",
      "ćďĉ!ďĉďĉďĉďĉďĉďĉďĉďĉ )",
      "ćć ćĈ!ćć",
      "%&'(ĉ ĉĉĉĉĉĉĉĉ",
      "L! M",
      "B M",
      "ďĉďĉďĉ Ĉ!ĈĈćďĉďĉďĉďĉďĉďĉďĉ!ďĉ!ďĉďĉďĉ!",
      "Ĉ!Ĉ!Ĉ ďĉ!!!!!!!!!!!!!!!!!!!!!!!!!!!!!!!!",
      "!!&'( !!!!ďĉććććĈ!ćĈ!ćĈ!",
      "%&'(ďĉ!! ďĉďĉ!!ďĉ!ďĉ!!ďĉďĉďĉ!ďĉ",
      "L!LK L!LK",
      "ďĉ!ďĉ!!! ďĉ!!!ćććĈćĈ!ćĈ!ĈĈ!Ĉ!",
      "Ė !",
      "!! )",
      "ďĉ !!!!!!!!!!!!!!!!!!!!!!!!!!!!",
      "ćĈ! %&'(ďĉ!",
      "ćĈĈĈĈ ĈĈĈ",
      "%Ĉ&'(! Ĉ",
      "ďĉ!ďĉďĉ! Ĉ!Ĉ!ĈĈ!Ĉ!Ĉ!Ĉ!",
      "%!!!! &'(",
      "% Ĉ!",
      "ď Ĥ",
      "ďĉďĉ %!&'(",
      "!!!!!!!!!!! %!!!!!!!!",
      "ďĉ%&'( Ĉ!Ĉ!Ĉ!Ĉ!",
      "0101 01'(3",
      "ďĉďĉ!!ďĉ!! ďĉ!!!!!!)!!!!!!!!)!",
      "! %&'(ďĉ",
      "ďĉďĉďĉ !!!!!",
      "ďĉ%&'( ďĉďĉ!",
      "ć%&'( ććććććĈ!ć",
      "ćĈĈćĈ ćĈĈćĈĈ",
      "0011 0011",
      "%&'(ďĉďĉ! ďĉ!!ďĉ!ďĉďĉďĉďĉ!",
      "ćĈćĈ!ććĈ!! ďĉ!!ďĉďĉďĉ",
      "ďĉ!%&'(ďĉďĉ! ďĉ!ďĉďĉďĉ!ďĉ!ďĉ!!ďĉ",
      "ć ďĉ!ďĉďĉďĉďĉ",
      "ď ďĉ!ĉ",
      "!!!!!!!!!!!! ďĉ!!ďĉ!!!!!!!!!!!",
      "ďĉďĉďĉ ďďĉĉ",
      "Ĉ!ĈĈĈ!ĈĈĈ ćďĉďĉ!ďĉďĉć%&'(Ĉ!Ĉ!Ĉ!Ĉ!Ĉ!Ĉ!",
      "ďĉďĉ!ďĉďĉ%&'(ćĈ!Ĉ!Ĉ!Ĉ!Ĉ!Ĉ ďĉ",
      "66666666777'7777 (788888888,-%&+01",
      "ďĉďĉćććĈ!Ĉ!Ĉ!ćĈ!Ĉ!Ĉ!Ĉ!Ĉ!! %&'(ďĉďĉ!",
      "% Ĉ",
      "%ď&'(ĉ ďĉ",
      "ďĉďĉ%&'( ďĉďĉďĉďĉďĉďĉ",
      "ďď ďĉĉĉ",
      "ćďĉćććďĉ!! ďĉďĉďĉ!",
      "Ĉ!ĈĈ!ďĉ ćĈ!Č",
      "!&'( ćďĉ!ďĉ",
      "ďĉ!!!!!!!! !%",
      "%&'(ďĉ!!! ďĉďĉďĉďĉďĉďĉďĉďĉ!",
      "ćďĉďĉďĉďĉ ććĈ!Ĉ",
      "00110101 0011",
      "RTVa!!!S%&'(ĂĄĆ!!!!R!!!S ćććććććĈ!Ĉ!",
      "ďĉďĉ%&'( ďĉ!ďĉ",
      "ćĈ!Ĉ!Ĉ!Ĉ!Ĉ!Ĉ!ĈĈ ďĉ%&'(!!!",
      "ćĈ! ćććć",
      "ď! ď",
      "&' Ĉ(!",
      "ćĈĈ!Ĉ!ĈćĈ!Ĉ!ĈĈĈĈĈĈććĈ!ćďĉ!!!!!!!! ďĉ!",
      "3322 2323",
      "%M&'( MMMMMMMMMMMMMMMMMMMMMMMMMMMMMMMM",
      "ćĈ!Ĉćććć ćććĈ",
      "ďĉ ď%ĉ&'(",
      "%&'( !!!!!!",
      "ďĉďĉ!ďĉďĉ Ĉ!",
      "ĈĈĈ!Ĉ!Ĉ!ĈĈĈĈ!Ĉ!ĈĈ!Ĉ!Ĉ!ĈĈĈĈ ćďĉďĉ%&'(",
      ")!!!) !!!!!",
      "%&'(ćĈ!ćĈ!Ĉ!Ĉ! ďĉďĉ!",
      "ďĉďĉďĉďĉďĉďĉ RTVa",
      "!!!!!!!!!! ćććććććććććĈ!ĈćĈ!Ĉ!ĈćĈ!ć",
      "ďĈĈ ĉ",
      "ďĉ! ďĉ!ďĉďĉďĉďĉ!",
      "!&'( !!!!ďĉććććĈ!ćĈ!ćĈ!",
      "!!!% !!!!",
      "ďĉďĉďĉďĉďĉ ď%&'(ĉ",
      "%&'(ďĉďĉ! ďĉďĉďĉďĉďĉďĉďĉďĉ!",
      "%&'(ďĉ!!ďĉ!ďĉďĉ! ďĉďĉ!ďĉ!",
      "ć%&'(ďĉďĉďĉďĉ! ďĉ!ďĉďĉ",
      "ćć ć%&'(",
      "ďď ďĉĉ",
      "ďĖ ĉ",
      "ďĉďĉ ććĈ!Ĉ!Ĉ!ćĈ!",
      "ćĈ! ď",
      "%ď&'(ĉ ďĉďĉ!",
      "ďĉ!ďĉ!ďĉ %&'(ďĉďĉďĉďĉ",
      "!!!!!!!!!!!!!% !&'(",
      "ćććĈ!Ĉ!Ĉ!Ĉ!Ĉ!Ĉ!ćććććĈ!ćĈĈ ďĉďĉ!!",
      "%&'(ďĉ!!ďĉ!ďĉďĉ! ďĉďĉ!",
      "ćĈ!Ĉ!ćĈ!ćĈ!Ĉ! ćĈ!Ĉ!ćĈ!Ĉ",
      "ĈćĈĈćĈćĈĈĈćĈĈ%&'(ďĉ Ĉ!Ĉ!ĈĈĈ",
      "% L&'(",
      "!!!!!!!! %!!!!!!!!!!!!!!!!!!!!!!!!",
      "ďĉďĉ ćďĉďĉďĉďĉ!ććĈ!Ĉ!Ĉ!Ĉ!Ĉ",
      "ćĈ! %&'(",
      "ććĈ! ďĉďĉďĉďĉ!ďĉďĉ!!ďĉďĉďĉďĉďĉďĉďĉ!ďĉ!ďĉ",
      "ďĉ!! ďĉďĉďĉ!",
      "01 000111",
      "ď%&'(ĉ !!!!!!!!!!!!!!!!!!!!!!!!!!!!!!!!",
      "%Ĉ&'(! Ĉ!",
      "ďĉćć ĈĈĈĈĈďĉďĉ)!)!!",
      "!!!!!!!!!% !!!!!!!!",
      "ćĈ!Ĉ!ĈćĈ!ďĉćććććććĈ!ćĈ! ć%&'(ďĉ!",
      "ĥďĉ Ĉ!ĈĈ!ďĉćĈ!Č",
      "Ĥ !",
      "ćĈ Ĉ!Ĉ!",
      "ćĈĈćĈĈ ćĈĈćĈćĈĈćĈĈ",
      "ćĈ!ĈĈ! ćĈ!ĈćććććććĈ",
      "!!!!!!!!!!!!!!!!!!! %&'(",
      "ďĉ!ďĉďĉďĉďĉďĉďĉďĉďĉ !!",
      "322 32323",
      "3 232222222222222222",
      "C !",
      "ďĉďĉďĉ%&'( ďĉďĉ!!",
      "ććĈ!Ĉ!ĈĈĈ!Ĉ!Ĉ!ĈĈćĈďĉ!!ďĉďĉ!!!)!) !!!!",
      "ďĉ!ďĉ!!!!!!ďĉďĉ!!!! ďĉďĉďĉ",
      "ďĈ!Ĉ ĉ",
      "ć%&'(ćććć ćĈ!Ĉ!Ĉ!ćĈ!Ĉ!",
      "ď ĈĈĈĉ",
      "ďĉ!ďĉ %!&'(",
      "ďĉ%&'( ďĉďĉďĉďĉďĉďĉ",
      "ď! ďď",
      "Ĉ!ďĉ!ďĉďĉďĉďĉ ďĉ",
      "ććďĉďĉ) ćďĉ%&'(ććććććĈ!Ĉ!",
      "ď) ĉ",
      "ďĉ!ďĉďĉďĉďĉćďĉ! ďĉďĉďĉ",
      "ďĉďĉ%&'(ďĉďĉ ćĈ!ĈĈ!Ĉ!ďĉ!ďĉ!ďĉďĉďĉ!!",
      "ďĉďĉ %&ď'(ĉ",
      "%&'( ćĈ!Ĉ!",
      "!!!!!!!!!!!!!!!!!!!! %&'(",
      "ďĉ!!!! !!%",
      "ćĈ!ćĈ ďĉďĉďĉďĉ!ďĉďĉďĉďĉ!ďĉ!!",
      "%ď&'(ĉ ďĉďĉ",
      "ć%&'( ďĉďĉďĉ",
      "ďĉďĉ!!! ćććććććććććććććć",
      "ććć %ć&'(",
      "ďĉďĉ!!!! ďĉ!!",
      "A !",
      "ďĉďĉďĉďĉ ď%&'(ĉ",
      ")!) ďĉďĉďĉ!ďĉďĉďĉ!!ďĉďĉďĉďĉ!",
      "!!!!!!!!!!!!!!!!!!!!!!!!!!!! !!&'(",
      "ć%&'( !!!!!!!!!!!!!!!!!!!!!!!!!!!!!!!!",
      "ććććććĈ!ćĈĈ ďĉďĉ!!ďĉ",
      "!! )!)!!!!!!!!!!!!!!!!!!!!!!!!!!!!!!!!",
      "ĈĈ Ĉ!",
      "ďĉ! ďĉ!ďĉďĉďĉďĉ",
      "Ĉ!Ĉ!Ĉ!Ĉ! ĈĈĈ!ĈĈĈ",
      "ďĉ!! Ĉ!ĈćĈ!Ĉ!Ĉ!ĈćĈ!ććďĉ!Ĉ!ĈćĈ!Ĉ!Ĉ!ĈćĈ!ćć",
      "Ĉ!Ĉ!Ĉ Ĉ!Ĉ!Ĉ!",
      "ďĉ!!!! !%",
      "%&'(ďĉďĉďĉďĉďĉďĉďĉďĉ ďĉďĉďĉďĉ",
      "322 2323232222222222222222",
      "%&'(ďĉ!!ďĉ!ďĉďĉ! ďĉ!ďĉďĉďĉ!",
      "ććććććĈ!ććČ ďĉďĉďĉďĉďĉďĉďĉďĉ!!!ďĉďĉďĉďĉ",
      "ďĉĈ!ĈĈĈĈĈĈĈĈ!ĈĈĈ ďĉ!!!!!!!!!!!!!!!!",
      "ćĈ!Ĉ!ćĈ!ćĈ!Ĉ!ćĈ!Ĉ!ćĈ!Ĉ ćĈĈćĈĈćĈĈćĈćĈĈćĈĈ",
      "% !!!!!!!!!!!!!!!!!!!!!!!!!!!",
      "Ė ē",
      "ćĈ!ćĈ! ćĈĈ",
      "%&'(%&'(%&'(%&'( %&'(%&'(",
      "%&'(ďĉ !!!!!!!!!!!",
      "ć! Ĉ",
      "!!!ďĉďĉďĉďĉ ććĈ!Ĉ!Ĉ!Ĉ!Ĉ!Ĉ!ććĈ!ć",
      "!!!!!!!!!!!!!!!!!!% !!!!!!!!!!!!!!!!!!!!",
      "%ć& ć'(",
      "L!LK!LK !LK",
      "ē! Ħ",
      "%&'( ćććććććććććĈ!ćĈ!!ććĈ!ććĈ!",
      "%&'( ďĉ!ďĉďĉďĉćĈ!Ĉ!Ĉ!Ĉ!ĈĈ!Ĉ!Ĉ!Ĉ!",
      "%&'( ďĉ!ďĉ!!!!!!!!",
      "ďĉ! )",
      "ćĈ ć",
      "ćĈ Ĉ!Ĉ",
      "Ĉ!Ĉ Ĉ!Ĉ!",
      "ďĉ!ďĉ %ď&'(ĉ",
      "ďĉ!!! ďĉ%&'(",
      "ď! Ĉ!ĉ",
      "ďĉ!!ďĉďĉďĉďĉďĉďĉ! ďĉďĉďĉďĉďĉďĉ!!",
      "ĈćĈĈćĈćĈĈĈćĈĈ ďĉ%&'(",
      "ħ) ę",
      "ďĦ ĉ",
      "ď K",
      "ďĉďĉďĉ )!)ďĉďĉďĉďĉďĉďĉ!!!",
      "%&'(ĉ ĉĉĉĉ",
      "ćďĉ! ďĉďĉďĉ%&'(ďĉďĉďĉďĉďĉ",
      "%&'(ďĉďĉďĉďĉ ććĈ!Ĉ!ĈĈĈ!!ćĈ!Ĉ!Ĉ!Ĉ!ćďĉďĉ!!",
      "%!!!!!!!! &'(",
      "!!!!!!!!!!!!!!!!!!!!!!!!!!!!!!% !!!!!!!!",
      "ćĈĈĈćĈ!ĈĈĈĈ!ĈĈ!Ĉ ďĉďĉďĉďĉďĉďĉ!%&'(%&'(",
      "ďĈ ĉ",
      "ďĉćććďĉ! ďĉďĉ!ďĉďĉćććććďĉ!",
      "ć%&'(ďĉĈ!ćĈ!Ĉ!Ĉ!ćĈ!Ĉ!Ĉ!ĈĈ! ćĈ!",
      "ďĉďĉďĉďĉďĉ!)!)!ďĉďĉ!!!)!)!! ďĉďĉďĉďĉďĉ!!",
      "ďĉďĉďĉďĉ %&'(ďĉďĉ!",
      "ďĉďĉďĉďĉ ććĈ!Ĉ!ĈĈĈ!!ćĈ!Ĉ!Ĉ!Ĉ!",
      "ď%&'(ĉ ďĉďĉďĉďĉ",
      "LLLLLLLL LLLL",
      "!!!!!!!!!% !&'(",
      "&' ć(",
      "ď!! ĉ",
      "%ĈĈ &'(",
      "! ďĉ!!!!!!!!!!!!!!!!!!!!!!!!!!!!!!!!",
      "L !L",
      "!!!!!!!!!!!! ďĉ!!ďĉ!!!!!!!!",
      "ćĈ!ć ďĉďĉďĉďĉďĉ!!ďĉ!!!!",
      "ććĈćć ďĉďĉďĉ!!ďĉ!!ďĉ!!!!!!!!)!!!!!!!!)!",
      "RTVa!!!SĂĄĆ!!!!R!!!S Ĉ!ćĈ!ćĈ!Ĉ!Ĉ!",
      "ďĉďĉ!!!ćććććććććććććććć ćććććććććć",
      "B ĉ",
      "ć ďĉ!ďĉďĉďĉďĉ!!",
      "ď ħĉ",
      "%&'(ďĉ Ĉ!Ĉ!ĈĈĈ!Ĉ!Ĉ!Ĉ!ĈĈĈĈ",
      "!% ď&'(ĉ",
      "!!!% !!!!!!!!!!!!!!!!",
      "ďĉ!!!!!!!! !!%",
      "ćććććć ćĈĈ",
      "Ĉ!Ĉ!ĈĈ!Ĉ!Ĉ!Ĉ! ďĉďĉďĉďĉďĉ!ďĉďĉďĉ!",
      "ććĈ!Ĉ!Ĉ!Ĉ!Ĉ ďĉďĉďĉďĉďĉďĉďĉďĉ",
      "ĈĈĈĈĈĈĈĈĈĈĈĈĈĈ!Ĉ!Ĉ!Ĉ!Ĉ!ĈĈĈ!ĈĈ ďĉ!ďĉďĉďĉ",
      "Ĉ!%&'( Ĉ!Ĉ!Ĉ!Ĉ!ĈĈĈ!ĈĈĈ",
      "!!!!!!!! %!!!!!!!!!!!!",
      "ćĈ!Ĉ! Č",
      "ćďĉ Ĉ!ćĈ!Ĉ!Ĉ!ćĈ!Ĉ!Ĉ!ĈĈ!",
      "Ĉ!ćĈ! ć%&'(",
      "ĈĈ! ĉ",
      "ďĉ!ďĉďĉ!! ďĉďĉ)ďĉďĉ!ďĉďĉ!!ďĉ!!!!ďĉďĉďĉďĉ",
      "ĖĖ ĖĖ",
      "Ĉ!Ĉćć ďĉ!ćĈ!ćĈďĉďĉďĉďĉ!",
      "ććććććććĈ!ćććĈ!Ĉ! ćĈ!%&'(ďĉ",
      "ćďĉ!!!!!!!!! ďĉďĉďĉďĉďĉ)!)",
      "ď ćććĉ",
      "ćĈ! ďĉďĉďĉďĉďĉďĉďĉďĉďĉďĉďĉďĉ",
      "ďĉďĉďĉďĉďĉďĉďĉďĉ !!!",
      "!!!!!!!!!!!!!!!!!!!!!!!!!!!! !ďĉ",
      "%Ĉ&'( ĈĈĈ",
      "ďĉďĉďĉ%&'( ďĉďĉďĉďĉ",
      "ćĈ!Ĉ!ćĈĈ ćďĉćĈ!ććĈ!ćĈ!Ĉ",
      "ďĉ!ďĉďĉďĉďĉďĉďĉďĉďĉďĉďĉ!! ććć",
      "ć Č",
      "ďĉďĉ! ďĉďĉďĉďĉ!ďĉ!!",
      "ćććĈ!Ĉ! Ĉ!ćĈ!Ĉ!Ĉ!Ĉ!Ĉ!!",
      "ďĉ%&'( ďĉďĉďĉďĉ",
      "!!!% !!!!!!!!!!!!!!!!!!!!",
      "ďĉďĉďĉďĉďĉ!! ďĉ!!!!!!!ďĉ!!ďĉďĉ!!!",
      "ćĈ!Čďĉďĉ! ďĉďĉďĉďĉďĉďĉďĉďĉ",
      "%!ć &'(",
      "& ď'(",
      "0 000111",
      "ď !!!",
      "ďĉďĉ !!!!!!!!!!!ďĉćććĈ!Ĉ!Ĉ!Ĉ",
      "ćĈ!Ĉ! Ĉ!ĈĈ!Ĉ",
      "ďĉďĉďĉďĉ !!!!!!!!!ďĉ!!!!!!!!",
      "%&'(ďĉďĉďĉďĉďĉďĉďĉďĉ ďĉćććć",
      "ćĈ!Čďĉďĉ! %&'(ďĉďĉďĉďĉďĉďĉďĉďĉďĉćććć",
      "ď Ē",
      "ćć %ć&'(",
      "&'(! ďĉ!)!)!!!!!!!!!!ďĉ!!!!!!",
      "ďĉďĉďĉďĉďĉ!ďĉ ććĈ!Ĉ!Ĉ!Ĉ!Ĉ!Ĉ!Ĉ!ĈĈćĈ",
      "Ĉ!ďĉďĉćĈ!ďĉ! %&'(",
      "Ĉ!Ĉ!Ĉ!Ĉ!!Ĉ!Ĉ!Ĉ!Ĉ!!Ĉ!Ĉ!Ĉ %&'(",
      "ďĉ ćććĈĈ!ćĈ!Ĉ!ĈćĈĈĈćĈĈĈćĈĈćććć",
      "ćć ćĈ!ćĈ",
      "ďĉďĉ! ďĉďĉďĉďĉďĉďĉ!",
      "Ĉ!Ĉ!Ĉ Ĉ!Ĉ!ćĈ!Ĉ!",
      "!!!% !!!!!!!!!!!",
      "ďĉ!ďĉďĉďĉďĉďĉďĉďĉďĉ %&'(",
      "322 33",
      "ććĈ!Ĉ!Ĉ!Ĉ ćĈ!Ĉ!Ĉ!Ĉ!Ĉ!Ĉ!Ĉ!Ĉ!Ĉ!Ĉ!",
      "ćććććĈ!ćĈ!ććććĈ!ććĈ!ćććĈ!ćććĈ ć%&'(ďĉďĉ",
      "ćďĉ!ďĉďĉ!! ďĉďĉďĉďĉ!",
      "Ĕ! ďĉďĉďĉďĉ",
      "ďĉďĉ!!!!!!!!!!!ďĉćććĈ!Ĉ!Ĉ!Ĉ %&'(",
      "ďĉ ħ",
      "ćć ćĈ!Ĉ",
      "%&'( !!!!!!!!!!!",
      "%&'( ďĉďĉďĉďĉďĉďĉďĉ!",
      "ćĈ!Ĉ! Ĉ!Ĉ!Ĉ",
      "ďĉďĉďĉďĉ %&'(ďĉďĉ",
      "ďĉďĉďĉďĉďĉďĉ ď%&'(ĉ",
      "ďĉ!ďĉďĉďĉ ćććĈ!Ĉ!Ĉ!ćĈĈĈĈ!ćĈ!ĈĈ!ćĈ!ć",
      "Ĉ!ĈĈĈ!ĈĈĈ ć",
      "ĥ! Ĥ",
      "ćććććććććććĈ!ććĈ!Ĉ!ćĈ!Ĉ!ćĈ!ć! ďĉ!!ďĉ",
      "ďĉ!ďĉ!ďĉďĉďĉďĉ! ďĉďĉ",
      "Ĉ !!!",
      "ćĈ!ćĈ! ĈĈ!",
      "ďĉďĉ! )",
      "ďĉ!ďĉ %&'(!",
      "ďĉďĉďĉďĉďĉďĉďĉďĉ %&'(",
      "!ďĉ !!!!!!!!!ćććĈ!Ĉ!Ĉ!Ĉ!Ĉ!Ĉ!ĈĈĈĈĈĈĈĈĈĈĈĈ",
      "!!!!!!!!!!!!!!! &'(",
      "ďĉ!ďĉ!ďĉ %&'(ďĉďĉ",
      "ććĈ!Ĉ!Ĉ!ĈćĈ!Ĉ!ĈćĈććĈĈ!ĈĈĈ ďĉ!!!",
      "ďĉďĉ %&'ď(ĉ",
      "ĈĈĈĈ ĈćĈĈ",
      "ććććććććććććĈ! ćĈ!ĈĈ!ćĈ!ĈćććććććĈ",
      ">> >>",
      "ďĉ!ďĉďĉďĉďĉďĉďĉďĉďĉ!! ďĉďĉďĉďĉ!!!!ďĉ!!",
      ") M",
      "L ďĉ!",
      "Ğ ğ",
      "%&'( !!!",
      "ďĉďĉďĉďĉ %&'(!",
      "ďĉ!ďĉ ď%&'(ĉ",
      "ććććĈ!ĈĈ %&'(ďĉ!!!!!!!!!!!",
      "ďĉ!ďĉ!!!!!!!!!!!!!!!! ďĉ",
      "ćĈ!ĈĈ!ĈĈĈĈ!Ĉ!Ĉ!ĈĈĈĈĈĈĈĈ!ĈĈĈĈĈ ďĉ!ďĉďĉ!",
      "Ĉ!Ĉ!Ĉ!Ĉ!ĈćĈ!ĈĈ!ĈĈĈ ćĈćďĉďĉďĉ!!!",
      "ćććĈ!Ĉ!Ĉ!Ĉ!Ĉ ďĉ!ďĉ!ďĉ!",
      "% ććĈ",
      "Ē !!!!",
      "ė ĥĤē",
      "ćććć ććĈ",
      "ďĉďĉ! ďĉ!ďĉďĉďĉďĉ",
      "ďĉďĉďĉ! ďĉďĉ!!",
      "Ĉ!Ĉ!ĈĈ Ĉ!ĈćĈ!",
      "ććć ďĉ!!ďĉďĉďĉ!",
      "!!!!!!!!!% !!!!",
      "ďĉďĉďĉďĉďĉ%&'( ďĉďĉďĉ!",
      "!!!!!!!!!!!!!!!!!!!% !!!!!!!!",
      "ćććććĈ!Ĉ!Ĉ!ćĈĈćĈďĉďĉ ććĈ!Ĉ!Ĉ!ćĈ!",
      "ďĉ!ďĉ!!ćĈ! ďĉďĉďĉĈ!Ĉ!Ĉ!Ĉ!Ĉ!ćĈ!ĈĈĈĈćĈ!ćĈ!",
      "ďĤ ĉ",
      "Ĉ!Ĉ!ĈĈ!Ĉ!ćĈ!Ĉ! ĈĈĈĈĈ",
      "ć ďĉ!ďĉďĉďĉďĉďĉďĉďĉ",
      "ćććć Ĉ!Ĉ",
      "ďĉďĉďĉ ď%ĉ&'(",
      ")!) !!!!!!!!!!!!ććĈ!ćĈ!ććĈ!",
      "!!!!!!!!!!!!!!!!!!!! %!!!!!!!!!!!!!!!!",
      "ďĉ!ďĉ! ďĉďĉďĉ!",
      "23 22",
      "ć%&'(ďĉ ćĈ!ććĈ!ćĈ!ĈďĉććććććććććććĈ!ćĈ!Ĉ!",
      "ćććĈ!Ĉ!Ĉ!ćĈĈĈĈ! ćĈ!Ĉ",
      "ććĈ!Ĉďĉ Ĉ!Ĉ!ĈĈĈĈĈĈĈĈĈĈĈĈĈĈĈĈĈĈĈĈĈĈĈĈ",
      "%&'(ďĉ!!ďĉďĉ!!ďĉ!ďĉ!!ďĉďĉďĉ!ďĉ ććĈ!",
      "Lďĉ! K",
      "Ĉ!Ĉ!ĈĈĈ!ĈćĈ! ĈĈĈĈĈćĈĈ",
      "% !!!!!!!!!!!&'(",
      "' 7",
      ") ĉ",
      "ć %ď&'(ĉ",
      "Ĥ Ĥ",
      "ďĉ ćććĈ!Ĉ!Ĉ!Ĉ",
      "!!!!!!!!!!!!!!!!!!!!!!!!!!!!!!!! !",
      "ććĈ ćĈ!Ĉ!Ĉ!Ĉ!Ĉ!Ĉ!",
      "ďĉďĉďĉ! ććĈ!ćďĉďĉďĉďĉ",
      "MMMM M",
      "ďĉ!ďĉ )))",
      "%&'(ďĉ ćĈ!ćĈ!Ĉ!Ĉ!ćĈ!Ĉ!Ĉ!ćĈ!Ĉ!Ĉ!ĈĈćĈĈ!Ĉ",
      "77 '7",
      "ďĉćććć Ĉ!ćĈ!Ĉ!",
      "ďďĉĉ ďĉďĉďĉďĉ",
      "Ĉ!Ĉ!ćĈĈ ćĈĈĈĈĈĈĈĈ",
      "ćĈ!Ĉ!ćĈ!ćĈ!ćĈ!Ĉ!ććććĈ!ććĈ!ć !%&'(ďĉ",
      "Ĉ!ĈććĈĈ!Ĉ!ććĈ!Ĉ!ĈĈ!ĈĈĈ ďĉďĉďĉďĉďĉďĉďĉ",
      "ďĉĈ!ĈĈĈĈĈĈĈĈ!ĈĈĈ! ďĉ",
      "666666667777 77'7",
      "0000111 1",
      "%&'( ďĉďĉďĉďĉďĉďĉ",
      "%&'( !!!!!",
      "ćććććććć ććććĈ!ćĈ!Ĉ!",
      "Ĉ!ćĈ!Ĉ! Ĉ!",
      "ďĉďĉ%&'( ćććĈ!Ĉ!Ĉ!ćĈ!Ĉ!Ĉ!Ĉ!Ĉ!!",
      "ďĉ!ďĉďĉ Ĉ!Ĉ!",
      "%!&'( ďĉďĉďĉ!!ďĉ!",
      "ďĉ!ďĉďĉďĉ! ďĉ!ďĉďĉďĉĈ!Ĉ!Ĉ!Ĉ!ććĈćć",
      "ćďĉďĉ ćĈ!ćĈ!Ĉ!Ĉ!ćĈ!Ĉ!Ĉ!ćĈ!Ĉ!Ĉ!ĈĈćĈĈ!Ĉ",
      "ććĈ!Ĉ!Ĉ!Ĉ!Ĉ!Ĉ! ććĈ!ć%&'(",
      "%! &Ĉ'(!",
      "!!!!!!!!!ććććĈ!ĈĈ%&'(ďĉ !!!!!!!!!!!",
      "ďĉćććććĈ!ĈĈćĈĈćĈ %&'(ďĉćććććććć",
      "! )",
      "Ĉ ĉ",
      "ď !!!!!!!!!!!!!!!!!!!!!!!!!!!!!!!!",
      "!! )!!!!!!!!!!!!!!!!!!!!!!!!!!!!!!!!",
      "Ĉ!Ĉ!Ĉ!Ĉ! ĈĈ!Ĉ!Ĉ!Ĉ!",
      "ďĉ!!!! RTVa!!!SĂĄĆ!!!!R!!!S",
      "ďĉ%&'( !!!!!!!!!!!!!!!!!!!!!!!!!!!!!!!!",
      "ďĉ%&'( Ĉ!ćĈ!Ĉ!Ĉ!Ĉ!Ĉ!Ĉ!ćĈ!ćĈ!ćĈ!Ĉ!Ĉ!",
      ")) ħ!",
      "%&'(ďĉ!! ďĉďĉďĉ",
      "ďĉĈ!Ĉ!Ĉ!Ĉ! ĈĈĈĈĈĈĈĈĈĈĈĈĈĈ!Ĉ!Ĉ!Ĉ!Ĉ!ĈĈĈ!ĈĈ",
      "ďĉďĉ!ďĉďĉ%&'( ďĉďĉ!",
      "ćććĈ!Ĉ!Ĉ!ćĈ!Ĉ!Ĉ ćďĉďĉďĉďĉććĈ!Ĉ",
      "ďĉďĉďĉďĉ!ďĉďĉ!! %!&'(ďĉďĉďĉ!!ďĉ!",
      "ďĉ!ďĉ!!!! ďĉďĉ!!ďĉ!!ďĉ!!!!!!)!!!!!!!!)!",
      "Đ Đ",
      "ďĉďĉ ććć",
      "%&'( !!!!",
      "ćĈ!ćĈ!Ĉ! ĈĈ!",
      "Ĉ!ĈĈ Ĉ!ĈĈ!ĈĈĈĈ!ĈĈ!Ĉ",
      "'(3 323",
      ")!)!! )!)!!!!!!!!!!!!!!!!!!!!",
      "ďĉ!ďĉďĉ!! ďĉďĉďĉďĉ!ďĉďĉ",
      "ďĉ!ďĉ!!!!!!!!!!! ďĉ!!ďĉďĉďĉďĉďĉďĉ!",
      "%&'(ďĉďĉďĉ !!!!!ďĉďĉďĉ!ďĉďĉćććććĈ!Ĉ!ćĈĈ",
      "%&'(ďĉďĉďĉ !!!!ďĉ!!!ćććć",
      "ćććććććććććĈ!Ĉ ćĈ!Ĉ!ĈćĈ!",
      "ďĉ!ďĉďĉďĉďĉďĉďĉ!! ďĉ!ďĉďĉďĉďĉ!!",
      "ćďĉ!!!!ćďĉ! ćććććďĉ!ććććĈćććĈ!Ĉ!ĈćĈ!ć",
      "Ĉ!Ĉ!ćĈĈćĈĈĈĈĈĈĈĈ Ĉ!Ĉ!ĈĈĈ!ĈćĈ!ĈĈĈĈĈćĈĈ",
      "! ĉ",
      "ć ħ",
      "ć ďĉďĉďĉďĉďĉďĉ",
      "ďĉ %&ď'(ĉ",
      "'( ;",
      "ďĉďĉďĉďĉ ććĈ!Ĉ",
      "ďĉ! ď%ĉ&'(",
      "ďĉ! %&'(!",
      "ćććĈ!Ĉ! Ĉ!Ĉ!Ĉ!%&'(",
      "ďĉ%&'( !!",
      "ďĉďĉďĉ%&'( ćććĈĈ!ćĈ!Ĉ!ĈćĈĈĈćĈĈĈćĈĈćććć",
      "%Ĉ&'(! Ĉ!Ĉ!",
      "%&'(ďĉďĉ ćďĉććććććććććććććććĈ!Ĉ!ćĈ!Ĉ!ĈĈ!",
      "ćĈ!ĈćĈĈ ćĈĈĈĈĈĈĈ",
      "ďĉďĉďĉďĉ!!!!ďĉ!!ďĉďĉďĉďĉďĉďĉďĉďĉ! ćĈ!Č",
      "%&'(ďĉĈ!ĈĈĈĈĈĈĈ Ĉ!ĈĈĈ",
      "\" %&-+/,'(%&-+/,'(%&-+/,'(%&-+/,'(",
      "!! Ħ",
      "!!!!!!!!!!!!!!!! %!!!!!!!!!!!!!!!!!!!!",
      "!!!!!!!!!!! %!!!!!!!!!!!!!!!!",
      "ďĉďĉďĉ%&'( ďĉ!ďĉďĉ",
      "ďĉďĉďĉ%&'( ćććĈ!Ĉ!Ĉ!Ĉ!Ĉ!Ĉ!Ĉ!Ĉ!Ĉ!Ĉ!",
      "ďĉďĉďĉďĉďĉďĉďĉ! ďĉ!ďĉďĉďĉďĉ",
      "ďĉďĉćććć ćďĉ!",
      "!!!!!!!!!!!!!! %&'(",
      "!!!!!!!!!!!!!!!!!!!!!!!!!!!!!!! %&'(%&'(",
      "Ĉ!! Ĉ!!",
      "%&'(ďĉďĉďĉ Ĉ!Ĉ!Ĉ!Ĉ!Ĉ!ćĈ!ĈĈĈĈ",
      "ďK ĉ",
      "% !!!!!!!&'(",
      "ď ē",
      "ď Ĉ!ćĉ",
      "ďĉ )",
      "ćć ĈĈĈĈĈďĉďĉ)!)!!",
      "ďĉďĉďĉ !!!",
      "ć%&'( ďĉďĉďĉďĉććĈ!Ĉ",
      "ďď !!",
      "ďĉďĉďĉďĉďĉďĉ %ď&'(ĉ",
      "MMMMMMMMMMMMMMMM MMMMMMMM",
      "MMMMMMMMMMMMMMMM MMMMMMMMMMMM",
      "!!!!R %&'(TVa",
      "ďĉ!ďĉďĉďĉ Ĉ!ĈĈćďĉďĉďĉďĉďĉďĉďĉ!ďĉ!ďĉďĉďĉ!",
      "!!!!!!!!!!!!!!!!!!!!!!% !!!!!!!!!!!!!!!!",
      "ćććĈ!Ĉ!Ĉ!ćĈ!Ĉ!Ĉ ć%&'(ďĉďĉďĉďĉććĈ!Ĉ",
      "66666666'7777777 (788888888,-%&+",
      "ćććććććććććĈ!ĈćĈ!Ĉ!ĈćĈ! ć%&'(",
      "E FD",
      "%&'( !!!!!!!!!!!!!!!",
      "%&'( ćĈ!Ĉ!ćĈ!ćĈ!ćĈ!Ĉ!ććććĈ!ććĈ!ć!ďĉ",
      "ďĉ! Ħ",
      "ďĉ!! %&'(",
      "ćĈ!ćĈ! ćĈ!",
      ")!) !!!!!!!!!ććććĈ!ĈĈ",
      "ďĉ!ďĉ %&'(ďĉďĉ",
      "%&'(ĉ ĉ",
      "ďĉ!ďĉ! ďĉďĉ!!ďĉ!ďĉ!!",
      "ćććććććććććććććć ćććććććććććććććć",
      "ć%&'( ďĉ!ďĉďĉ!!ďĉďĉďĉďĉ!ďĉďĉ",
      "Ĉ!ĈĈ! ćĈ!ćĈ!",
      "ĈĈĈĈĈĈĈĈĈĈĈĈ Ĉ",
      "ď! ď!",
      "ďĉ!ďĉďĉďĉ !!!",
      "%&'(ďĉďĉďĉ! ďĉ!ďĉ!ďĉ",
      "L!LK LLLL",
      "!!!!!!!!!!!!!!!!!% !!!!!!!!!!!!!!!!!!!!",
      "ćďĉďĉďĉďĉ!ććĈ!Ĉ!Ĉ!Ĉ!Ĉ ďĉďĉďĉďĉďĉďĉďĉďĉ",
      "00110101 01'(3",
      "ďĉćććććĈ!Ĉ!Ĉ!ćĈĈćĈ %&'(ďĉďĉ",
      "% Ĉ!Ĉ",
      "Ė ďĉ",
      "ďĉ! %&'(ďĉďĉďĉďĉ",
      "ďĉďĉ! ďĉ!ďĉ",
      "LL L!LK!LK",
      "!!!!!!!!!!!!!!!!!!!! !!!&'(",
      "ć%&'( ďĉ!ďĉďĉďĉďĉďĉďĉďĉďĉ",
      "%&'(ďĉ! ćĈ!ćĈďĉďĉďĉďĉ!ďĉďĉďĉďĉ!ďĉ!!",
      "ďĉď%&'(ĉ ďĉćććĈĈ!ćĈ!Ĉ!ĈćĈĈĈćĈĈĈćĈĈćććć",
      "!!!ďĉďĉďĉďĉ %&'(ďĉ!!ďĉ!ďĉďĉ!ďĉ!ďĉďĉďĉ!",
      "ććĈ!Ĉ!Ĉ!Ĉ!Ĉ!Ĉ!Ĉ!ĈĈćĈ %&'(ďĉďĉ",
      "ďĉ!ďĉďĉ!ďĉ ćććĈ!Ĉ!Ĉ!Ĉ!Ĉ!Ĉ!ćććććĈ!ćĈĈ",
      "%&'(%&'(ďĉ!!ććććććĈććĈ!ďĉćĈ!Ĉ!Č ďĉďĉďĉ!",
      ")ďĉďĉďĉďĉďĉďĉďĉ!ďĉ!! ďĉďĉďĉďĉďĉďĉďĉ)!",
      "32222222222222222 2222222222222222",
      "%&'(ďĉ!!ďĉ!ďĉďĉ!ďĉďĉ!ďĉ! %&'(ďĉ!!!",
      "ďĉďĉ!!!ćććććććććććććććććććććććććć %&'(Ĉ!",
      "ćććĈ!Ĉ!Ĉ!ćĈĈĈĈ!ćĈ!Ĉ Ĉ!ćĈ!ć%&'(",
      ") !!",
      "ď ĈĈĈĈ",
      "Ħ ē",
      "ďĉ Ĉ!Ĉ!ĈĈĈ",
      "&'( ďĉ!!!!!!!!!!!!!!!!!!!!!!!!!!!!!!!!",
      "!!!!!!!!!!!!!!!!!!!!!!!!!!!!!!!! %!!!!",
      "ďĉďĉďĉ! ďĉ%&'(",
      "!!!!!!!!!!!!!!!!!!!! %!!!!!!!!!!!!",
      "!!!!!!!!!!! %!!!!",
      "ďĉďĉďĉ!! ććććĈ!Ĉ!",
      "ďĉ!ďĉďĉ ď%&'(ĉ",
      "!!!!!!!!!!!!!!!!!!!!!!!!!!! %!!!!",
      "!!!!!!!!!!!!!% !!!!!!!!!!!!!!!!",
      "ćĈĈĈĈĈĈĈĈĈĈĈĈ ĈĈ",
      "ććććććĈććĈ! ďĉďĉďĉ!ććĈ!ć",
      "ďĉĈ!Ĉ!Ĉ!Ĉ! Ĉ!Ĉ",
      "ćĈ!ďĉ ććĈ!Ĉ!Ĉ!Ĉ!ćĈ!Ĉ!!Ĉ!ćĈ!ćĈ!ććĈ!Ĉ!",
      "ćĈ!Ĉ!Ĉ!Ĉ!Ĉ!Ĉ %&'(ďĉĈ!Ĉ!Ĉ!Ĉ!",
      "ĈĈĈ!Ĉ!Ĉ!ĈĈĈĈ!Ĉ!ĈĈ!Ĉ!Ĉ!ĈĈĈĈ ćďĉďĉ",
      "ćďĉďĉďĉĈ!ĈĈĈĈĈ!ćĈ!Ĉ!ĈćĈĈĈćĈĈĈĈĈ Ĉ!ĈĈ!ĈĈĈ",
      "ćććććććĈĈ ććććććĈ!ćĈĈ",
      "Ĕ!ďĉďĉďĉďĉ ćććďĉ!",
      "ććĈćĈ!Ĉ!Ĉ!Ĉ!Ĉ!Ĉ! ććĈ!Ĉ!Ĉ!ćĈ!",
      "!! Ĉ",
      "ďĉďĉďĉďĉ ďĉ!ďĉ!!",
      "ćĈ!Ĉ Ĉ!Ĉ!Ĉ!Ĉ!",
      "ďĉ%&'( ďĉďĉďĉďĉďĉďĉďĉ!",
      "!!!!!!!!!!!!!!!!!!!!!!!! %!!!!",
      "ďĉ!ďĉďĉ! %&'(",
      "ćĈ!ďĉ! ďĉďĉďĉďĉďĉďĉďĉďĉ",
      "ďĉďĉ!!ďĉ!!!! ďĉďĉďĉďĉ",
      "ćĈ!Ĉ!ĈĈćĈćĈĈĈĈĈĈĈĈĈĈĈĈ ďĉ!!ďĉďĉďĉďĉďĉďĉ!",
      "%ćć &",
      "ćĈ!ćĈ!Ĉ!ćĈ!ĈćĈ!ĈĈ!ĈćĈćĈćĈćććĈćĈ ćććĈćĈ",
      "ć%&'(ďĉ!!ďĉ!ďĉďĉďĉ!ďĉ!!!!! ďĉ!ďĉďĉďĉďĉ",
      "ćďĉďĉćććććććĈ!Ĉ!Ĉ!ćĈ!Ĉ!Ĉ! ćďĉ!",
      "ďĉ!ďĉďĉďĉďĉ%&'( ďĉďĉďĉćďĉ!ďĉďĉďĉďĉ!!",
      "Ĉ!Ĉ!ćĈ!Ĉ ďĉ!!!!!!!!!",
      "ďĉ!ďĉ!!!!!!ďĉďĉ!!!!ďĉďĉďĉ ććĈ!Ĉ!",
      "ďĉ ććć",
      "%&'( ďĉ!ďĉďĉ!ďĉ!ďĉďĉďĉ!",
      "ďĉďĉďĉďĉ %&'(ďĉ",
      "ďĉ! ćĈ!Ĉ!ćĈ!ćĈ!ćĈ!Ĉ!ććććĈ!ććĈ!ć!ďĉ",
      "ćĈ ĉ",
      "Ĉ!Ĉ!Ĉ!Ĉ! ĈĈ!",
      "Ĉ!ĈĈĈ Ĉ!ĈĈĈĈĈ",
      "ďĉ%&'( ďĉďĉďĉďĉďĉ",
      "23 322",
      "!ďĉ !!!ďĉ!!!ćććĈćĈ!ćĈ!ĈĈ!Ĉ!",
      "ďďĉĉ ďĉďĉ",
      "ďĉ!!! ďĉ!!",
      "ćďĉďĉ ćĈ!ćĈ!Ĉ!Ĉ!ćĈ!Ĉ!",
      "ďĉďĉ!!!! RTVa!!!SĂĄĆ!!!!R!!!S",
      "ďĉďĉďĉďĉďĉďĉďĉďĉ! ćĈ!Čďĉďĉ!",
      "Ē!! Ē",
      "!!!!!!!!!!!!!!!!!!!!!!!% !&'(",
      "ććĈ!ĈćĈćĈćĈ!ĈćĈĈ %&'(ďĉďĉďĉ",
      "ćĈ!ćĈ!ćĈ!ĈĈ!Ĉ! ćĈ!ćĈ!Ĉ!Ĉ!",
      "ďĉďĉ!!ďĉććĈ!ĈĈĈĈĈ!ćďĉďĉ !!!!",
      "ććĈ!ćĈ!ćĈ!ćďĉ!!!!!!!!!!!!!!! ďĉ",
      "!!!!!!!!!!!!!!!!!!!!!!!!!!!!!!!!!!! %&'(",
      "!!!%!&'( !!!!!!!!!!!",
      "ďĉ!ďĉ!ďĉďĉ! ďĉ!ďĉďĉďĉďĉ!",
      ") Ĉ",
      "M L",
      "!!!! ďĉ!!!!!!!!!!!!!!!!!!!!!!!!",
      "!!!!!!!! %!!!!",
      "ćĈ )!)!!Ĉ!Ĉ!ĈĈ!!!!!",
      "ďĉďĉ! ďĉďĉ!!",
      "Ĉ!ćĈ!Ĉ! Ĉ!Ĉ!Ĉ!",
      "Ĉ!ćĈ!Ĉ! Ĉ!Ĉ!Ĉ!ćĈ!Ĉ!ćĈ!ćĈ!ćĈ!ćĈ!",
      "ďĉ!!!! !!!%",
      "ď%&'(ĉ ďĉ!ďĉďĉďĉďĉďĉďĉďĉďĉ!",
      "ďĉďĉ%&'( ďĉ!!",
      "!ďĉ !!!!!!!!",
      "%Ĉ&'(! Ĉ!Ĉ",
      "%&'(ďĉďĉ ćĈ!ćďĉďĉ!ďĉďĉćććććĈ!ćČ",
      "ďĉ!ďĉďĉ %ď&'(ĉ",
      "ďĉďĉďĉďĉďĉďĉďĉ !!!",
      "ď%ĉ&'( !!",
      "ć! Ĉ!",
      "ďĉďĉďĉć ďĉďĉďĉďĉ!",
      "ďĉďĉ!ďĉ )))",
      "!!!!!!!!!!% !!!!!!!!",
      "ďĉďĉďĉďĉďĉ)!) ďĉďĉďĉ!ďĉďĉďĉ!!",
      "%&'(ďĉďĉďĉ !!!!!!!!!!",
      "!!!!!!!!!!!!!!!!!!% !!!!!!!!!!!!",
      "ćććććĈ!Ĉ!Ĉ!ćĈĈćĈďĉďĉ Ĉ!Ĉ",
      "ćććďĉććććććĈ!ććČ ďĉďĉďĉďĉďĉďĉďĉďĉ!!!",
      "6666666677'77777 (788888888,-%&+",
      "32222 323232222222222222222",
      "%&'(ďĉĈ!ĈĈĈĈĈĈĈ Ĉ!ĈĈĈ!",
      "ćĈĈĈĈĈĈĈĈĈĈĈĈĈĈ ćĈ!ĈćĈĈćĈĈĈĈĈĈĈ",
      "ĥ !!",
      "ĈĈ ĉ",
      "ćĈ! ďĉďĉďĉĈ!Ĉ!Ĉ!Ĉ!Ĉ!ćĈ!ĈĈĈĈ",
      "ďĉ! ))ħ!",
      "ćĈĈĈĈ ćć",
      "!!!!!!!!!!!!!!!!!!!!!!!!!!!! %!!!!!!!!",
      "ĈĈĈĈĈĈĈĈĈĈĈĈĈĈĈĈ Ĉ!",
      "%Ĉ&'( ĈĈĈĈ",
      "0011 01010101",
      "!!!!!!!!!!!!!!!!!% !!!!!!!!!!!!",
      "Ĉ!Ĉ!Ĉ!ĈĈĈ Ĉ!Ĉ!ĈĈ!Ĉ!Ĉ!ĈĈĈĈ",
      "% )",
      "ć ď%&'(ĉ!",
      "ďĉ Ĉ!Ĉ!Ĉ!Ĉ!ĈćĈĈĈ!ĈĈĈ",
      "!!!!!!!!!!!!!!!! %!!!!!!!!!!!!",
      "ćć ď",
      "ĈĈĈĈĈĈĈĈ ĈĈ",
      "ďĉďĉďĉ %&ď'(ĉ",
      ")!) !!!!!!!!!!ďĉ!!!!!!",
      "ďĉďĉ!! ďĉďĉďĉďĉććććĈ!ĈĈ!ćĈ!ĈĈ!Ĉ!Ĉ!ćĈ!ćĈ",
      "ďĉďĉďĉďĉďĉďĉďĉďĉ ďĉćććć",
      "ďĉďĉďĉďĉďĉďĉďĉďĉ !ďĉ",
      "ďĉ!ďĉďĉďĉďĉ ć%&'(",
      "ďĉ!ďĉ! %&'(",
      "ďĉďĉďĉďĉ! ďĉ!ďĉ!ďĉ!ďĉ!ďĉ!ďĉ",
      "222222 44444444",
      "ďďĉĉ ďĉďĉďĉ",
      "2323 23232222222222222222",
      "ďĉďĉďĉďĉďĉ!! ďĉ!!!!!!!",
      "ďĉ!!!!!!!!!!!!!!!! !%",
      "ććććććĈććĈ! ďĉćĈ!Ĉ!Č",
      "!!!!!!!!!!!!!!!!!!!!!!!!!!% !!!!",
      "!&'(ďĉ)) ďĉħ",
      "ćĈ!Ĉ!ĈĈćĈćĈĈĈĈĈĈĈĈĈĈĈĈ ďĉ!!",
      "ďĉ%&'(ďĉ !!!!ďĉ!!)ďĉďĉ!",
      "ćĈ!Ĉ!ćĈĈ!ćĈ!ćĈ!Ĉ Ĉ!Ĉ!Ĉ!",
      "323 22",
      "ćďĉ!ďĉďĉ!! ďĉďĉďĉďĉ!ďĉďĉ",
      "ććććĈ!ĈĈďĉ!!!!!!!!!!! )!)",
      "ćĈ!Čďĉďĉ!ďĉďĉďĉďĉďĉďĉďĉďĉ ďĉ%&'(",
      "% ććć",
      "ć %ćĈ&'(!",
      "Ĉ! ćĈ!ćĈ!Ĉ!",
      "%&'( ďĉďĉďĉ!!ďĉ!!ďĉ!!!!!!!!)!!!!!!!!)!",
      "ćććć Ĉ!Ĉ!Ĉ!Ĉ!",
      "ďĉ! %!&'(",
      "ďĉ!! ďĉďĉ!!ďĉ!ďĉ!!ďĉďĉďĉ!ďĉ",
      "%&'(ďĉ ćććĈĈ!ćĈ!Ĉ!ĈćĈĈĈćĈĈĈćĈĈćććć",
      "ďĉďĉďĉďĉďĉďĉďĉďĉ ďĉ!!!ďĉ%&'(",
      "ććĈ!Ĉ! Ĉ!ĈĈ!Ĉ",
      "ćďĉ ććććććĈ!Ĉ!",
      "!!!!!!!!!!!!!!!!!!!!!!!! %!!!!!!!!!!!!",
      "ďĉďĉ%&'( ďĉďĉďĉďĉ!",
      "ć%&'( ďĉďĉ!ďĉďĉ",
      "ćĈ!ć ďĉďĉďĉďĉćććć",
      "ďďĉĉ ďĉ",
      "ďĉďĉďĉďĉďĉďĉ ćĈ!Ĉ!Ĉ!ĈĈ!Ĉ",
      "ďĉďĉďĉďĉďĉďĉďĉ %&'(ďĉ",
      "0011 01'(3",
      "!!!!!!!!!!!!! ďĉ!ďĉ!!!!!!",
      "!!!!!!!!!!!!!!!!!!!!!!!!!!!!!!!% !!!!",
      "!!!!!!!!!!!!!!!!!!!!!% !!!!!!!!!!!!!!!!",
      "ēē ē",
      "ďĉ!!!!ďĉďĉďĉďĉďĉďĉďĉďĉ ďĉďĉćććĈ!Ĉ!",
      "Ĉ!ĈĈĈ!ĈĈĈ ć%&'(ďĉďĉ!ďĉďĉ",
      "MMM !!!!!!!!!!!!!!!!!!",
      "ćďĉćććďĉ!! ďĉďĉ%&'(ďĉ!ďĉ",
      "ďĉććććĈ!ćĈ!Ĉ! ćĈ!Ĉ!ćĈ!ćĈ!Ĉ!",
      "A ē",
      "!!!! !ďĉ",
      "ďĉ %&'ď(ĉ",
      "!!!!!!!!!!!!!!!! &'(ćďĉ!ďĉ",
      "'( !",
      "ďĉďĉďĉ! ďĉ!!ďĉďĉďĉďĉďĉďĉ!",
      "%&'(ďĉ ćĈ!Ĉ!Č",
      "ď%&'(ĉ ďĉ!!",
      "Ĉ!ĈĈĈĈ Ĉ!ćĈ!Ĉ!ĈćĈĈĈ",
      "ďĉďĉďĉ!! ďĉďĉ!",
      "ćĈ!ć %Ĉ&'(!",
      "%! &",
      "%! &'Ĉ(!",
      "L!LK LL!LK",
      "ďĉďĉďĉďĉďĉ! )!)!",
      "ćď Ĉ!ĉ",
      "Ĉ!Ĉ!ĈĈ!Ĉ!Ĉ!Ĉ! ďĉďĉďĉďĉďĉ!ďĉ",
      "%&'(ďĉďĉďĉďĉďĉďĉďĉďĉ ďĉďĉďĉďĉďĉ",
      "ćććććććĈ!Ĉ!Ĉ!ććĈĈććĈ!ćĈĈ ďĉďĉ!!!",
      "ďĉďĉďĉď%&'(ĉ ďĉďĉďĉďĉ",
      "ďĉ!ďĉďĉďĉďĉ!!!!!!!!!!!!!!!!!!!!!Ĉ!Ĉ!Ĉ ďĉ",
      "B ďĉ",
      "ď Đ",
      "Ė Ħ",
      "Ĉ! ćĈ!Ĉ",
      "ďĉ ď%&'(ĉ!",
      "ĈĈ !!",
      "&'( !!!!!!!!!!!!!!!",
      "%&'( ććĈ!ćďĉďĉďĉďĉďĉďĉďĉ!!",
      "ćĈ!Ĉ! ćďĉ!!",
      "ďĉďĉďĉďĉ !!!",
      "ćĈ!ćĈ! ććĈ!",
      "ďĉďĉďĉ ććĈ!Ĉ",
      "ďĉďĉďĉ %!&'(",
      "ďĉ!ďĉďĉďĉďĉ %&'(ćďĉ!",
      "Ĉ!Ĉ!Ĉ! ĉ",
      "'(3 23",
      "ć%&'( Ĉ!Ĉ!",
      "!!&'( !!!!!!!",
      "ď! ďďďď",
      "ćď ćĉ",
      "!!!!!!!!!!!!!!% !!!!!!!!!!!!!!!!!!!!!!!!",
      ")!)!!!!!!!!!!!!!!!! !!%",
      "ćććććććĈ!ćĈ!Ĉ!Ĉ!Ĉ!Ĉ!ćĈ!Ĉ!ćĈććĈ ć%&'(ďĉ",
      "ćĈ!ćĈ!Ĉ!ćĈ!Ĉ!Ĉ!ćĈ!Ĉ! ćďĉ!ďĉďĉďĉďĉ",
      "%&'(%&'(ďĉ!!ććććććĈććĈ! %&'(ďĉćĈ!Ĉ!Č",
      "R%&'(TVa !!!SĂĄĆ!!!!R!!!S",
      "ħ) ę!",
      "ďĉďĉďĉ!ďĉ!! ďĉďĉďĉďĉ%&'(ďĉďĉ!",
      "!!!!!!!!!!ďĉ !!!!!!!!!!!!!!!!!!!!!!!!",
      "ć' ć(",
      "ďĉďĉďĉďĉććĈ!Ĉ!ĈĈĈ!!ćĈ!Ĉ!Ĉ!Ĉ! ć%&'(",
      "- +/,'(",
      "!!!! !%",
      "Ĉ!Ĉ! ćććĈ!",
      "ćĈ! %ć&'(",
      "ďĉďĉďĉďĉ %&ď'(ĉ",
      "MM !!!!!!!!!!!!!!!!!!",
      "!!!!!!!!!!!! %!!!!",
      "Ĉ!Ĉ!Ĉ!Ĉ!Ĉ!Ĉ! Ĉ!",
      "Ĉ!Ĉ!Ĉ! %Ĉ&'(!",
      "!LK!LK !LK",
      "ď!ĉ ďĉ",
      "ďĉďĉďĉďĉďĉ%&'( ďĉďĉďĉ",
      "ďĉďďĉĉ ďĉďĉďĉďĉ",
      "01010101 010101'(3",
      "ććććĈ!Ĉ!Ĉ!Ĉ!Ĉ!ĈĈ!Ĉ! ćďĉ!",
      "ććĈ!ćććĈ!ćććĈ!ćććĈ!Ĉ!Ĉ!ďĉćć ćĈ!ć%&'(",
      "ďĉ!ďĉďĉ%&'( ďĉďĉďĉďĉ",
      "ćďĉćĈ!ććĈ!ćĈ!Ĉ %&'(ďĉćććććććć",
      "ć%&'(ďĉ! ććććććććĈ!Ĉ!ćĈĈćĈ!ĈĈćĈ!ćĈĈćĈ!Ĉ!",
      "%Ĉ! &'(",
      "ćďĉ!ďĉďĉďĉďĉďĉďĉďĉ %&'(ďĉ",
      "ćďĉćĈ!ććĈ!ćĈ!Ĉ%&'(ďĉćććććććć ććććĈ!ćĈ!Ĉ!",
      "E F",
      "ć ĉĉ",
      "Ĉ! ďĉ",
      "ćĈ!Ĉ! ĉ",
      "!!! Ħ",
      "ďĉ!! ďĉďĉďĉďĉďĉďĉďĉ)!",
      "!!!!!!!!!!!!!!!!!!!! !ďĉ",
      "ďĉďĉďĉďĉďĉďĉďĉďĉ ďĉ!ďĉďĉďĉ%&'(",
      "ďĉďĉďĉ%&'( ďĉďĉ!",
      "ďďĉĉ !!",
      "Ĉ!ĈĈ!Ĉ Ĉ!ĈĈ!ćĈ!ćĈ!",
      "ďĉďĉďĉďĉďĉďĉ ćďĉ)ħ",
      "!!!!!!!!!!!!! ďĉďĉďĉďĉďĉ!!",
      "ćĈĈĈĈĈĈĈĈĈĈĈĈ ĈĈĈĈ!",
      "!!!!!!!!!ďĉ !!!!!!!!!!!)!!!!!!!!!!!!!!!",
      "!&'(ďĉ)) ďħĉ",
      "ďĉďĉ!!ďĉććĈ!ĈĈĈĈĈ!ćďĉďĉ !!!!!!!!",
      "ćďĉďĉ%&'( ďĉďĉ",
      "ďLĉ K",
      "32222 32323232222222222222222",
      "%&'(ďĉďĉ!ďĉ!!ďĉ!ďĉďĉďĉďĉ! ďĉ!ďĉďĉďĉďĉ",
      "ďĉ!ďĉ%&'(ďĉďĉ Ĉ!Ĉ!Ĉ!Ĉ!ććĈćć",
      "ďĈĈĈĈ ĉ",
      "3 2222224%&52226'(78,",
      "ć ďĉďĉďĉ%&'(",
      "Ĉ! ćĈ!ććĈ!",
      "%&'( Ĉ!Ĉ!ĈĈĈĈĈĈćĈ!ĈĈĈ%&'(ďĉ%&'(%&'(%&'(",
      "ćććć %&'(",
      "Ĉ!Ĉ!Ĉ!Ĉ! Ĉ!ćĈ!Ĉ!",
      "Ĉ!Ĉ ĉ",
      "ďĉ!! ďĉ!ććĈ!",
      "ďĉ!! ďĉ!!!!!!)!!!!!!!!)!",
      "01 001011",
      "!!!!!!!!!!! %!!!!!!!!!!!!",
      "ďĉ!!!! ďĉ!!",
      "ď%&'(ĉ ďĉďĉďĉďĉďĉďĉďĉďĉ",
      "ď%&'(ĉ ďĉďĉďĉďĉďĉďĉ",
      "!!% !&'(",
      "!!% ď&'(ĉ",
      "ćďĉ !!!",
      "ďĉ!!!!!!!!!!!!!!!!!!!!!!!!!!!!!!!! !!!%",
      "!&'( !ďĉ!)!)!!!!!!!!!!ďĉ!!!!!!",
      "!!!% !!!!!!!!",
      "%ď&'(ĉ ďĉďĉďĉ",
      "ďĉďĉ%&'( Ĉ!Ĉ!ĈĈ!Ĉ!ĈĈĈĈ!Ĉ!ĈĈ!Ĉ!Ĉ!!",
      "ćĈ!Ĉ!Ĉ! %&'(",
      "ďĉďĉďĉďĉďĉďĉ! %&'(",
      "ď%ĉ&'( ďĉ",
      "ďĉ!!!!! ďĉ!ďĉďĉďĉďĉďĉďĉďĉ",
      "ćććććć ćĈ!ćĈ!Ĉ!ĈćĈ!Ĉ!",
      "!!!!!!!!!!!!!!!!!!!!!!!!!!!!!!! %&'(ďĉ",
      "322 3322",
      "ďĉ!ďĉ!!!!!!!!!!!!!!!! ďĉ!!!!!!!!!!!!",
      "ćďĉ!ďĉďĉďĉďĉďĉďĉďĉďĉ )ďĉďĉďĉďĉďĉďĉďĉ!",
      "ďĉ!ďĉććććĈ!ćĈ!ĈĈ!ććĈ!ćĈ!ĈĈ!ćĈ!Ĉ!ćĈ!ďĉ! )",
      "ćďĉ!ďĉďĉ!! ďĉďĉďĉ%&'(ďĉ!ďĉďĉ",
      "ćĈ!ĈĈĈćĈćĈćĈĈĈćĈďĉďĉ!ďĉ!! ďĉ!ďĉďĉďĉďĉ!",
      "332222 2323232222222222222222",
      "Ĉ!Ĉ!Ĉ!Ĉ!Ĉ! ćĈ!ćĈ!Ĉ!ćĈ!Ĉ!Ĉ!ćĈ!Ĉ!",
      "' 777",
      "V b",
      "ďĉ Ĉ!Ĉ!",
      "ćć %Ĉ&'(!",
      "ćććć Ĉ!ĈĈ!ćĈ!ĈĈ!Ĉ!Ĉ!ćĈ!ćĈ",
      "ććĈ ćĈ!ĈĈ",
      "ćććĈ!Ĉ! ććććććĈ!ćĈĈ",
      "ćććĈ!Ĉ! ćĈ!ďĉ",
      "ďĉ!ďĉ ććć",
      "ďĉ!ďĉ! ďĉ!!ďĉ",
      "!!!% ď&'(ĉ",
      "!!!% !!!!!!!!!!!!&'(",
      "ďĉďĉďĉ%&'( Ĉ!Ĉ!Ĉ!Ĉ!!Ĉ!Ĉ!Ĉ!Ĉ!!Ĉ!Ĉ!Ĉ",
      "%&-+01 '(;",
      "ććććĈ! ćĈćĈĈ",
      "ćĈććĈ ćĈ!ćĈ",
      "!!!!!!!!!!!!!% !!!!&'(",
      "&' Ĉ(",
      "ďĉĈ!Ĉ!Ĉ!Ĉ! ĈĈ",
      "Ĉ!ĈĈ!Ĉ!Ĉ!Ĉ! Ĉ!ćĈ!",
      "!!!!!!!!!!!!!!!!! )!)",
      "Ĉ!Ĉ!ĈĈĈĈĈ!Ĉ!Ĉ! ďĉĈ!Ĉ!ĈĈĈ!Ĉ!Ĉ!Ĉ!ĈĈĈĈ",
      "323 2222",
      "ďĉďĉ!!ďĉ!ďĉ!!ďĉďĉďĉ!ďĉ ććĈ!ďĉ!ďĉ!!ćĈ!",
      "666666667777 '777",
      "ćďĉďĉććĈ! ďĉďĉďĉďĉ!ďĉďĉ!!",
      "ććććććććĈ!Ĉ!Ĉ!Ĉ!ćĈĈĈĈ!Ĉ!ćĈ!ďĉďĉ ćďĉ",
      "ďĉďĉďĉďĉďĉ!ďĉďĉďĉďĉ ďĉ!ďĉďĉďĉ",
      "KK KK",
      "Ĉ!ćĈ!ćĈ!Ĉ!Ĉ!ďĉďĉ!!!!!!! RTVa!!!SĂĄĆ",
      "ďĉ!ďĉďĉďĉďĉćďĉ!ďĉďĉďĉ Ĉ!ĈĈ",
      "ďĉ!ďĉ!ďĉďĉďĉďĉ!ďĉďĉ ĥďĉĈ!ĈĈ!ďĉćĈ!Č",
      "66666666777777'7 (788888888,-%&+01",
      "%&'(ďĉĈ!ĈĈĈĈĈĈĈĈ!ĈĈĈ ďĉ",
      "ććĈ!Ĉ!Ĉ!ĈĈ!Ĉ ćĈ!ćć",
      "32222224%&52226'(78, <",
      "%&-+01'(; 32222224%&52226'(78,<",
      "% K",
      "Č ďĉďĉďĉďĉďĉďĉďĉďĉ!!!ďĉďĉďĉďĉ",
      "Ĉ! ))",
      "%&'( Ĉ!Ĉ!Ĉ!Ĉ!",
      "ćĈćĈ ćĈ!ćĈ!ććĈ!",
      "ďĉďĉďĉ %&'(ďĉ",
      "Ĉ!ćĈ!Ĉ! %&'(",
      "ďĉďĉďĉ! ćĈ!Ĉ!ćĈ!ćĈ!ćĈ!Ĉ!ććććĈ!ććĈ!ć!ďĉ",
      "ďĉ!ďĉ ćććĈ!Ĉ!Ĉ!Ĉ!Ĉ!Ĉ!ćććććĈ!ćĈĈ",
      "!!!% !!&'(",
      "ćĈ!ć ĉ",
      "%Ĉ&'(! ĈĈĈ",
      "ďĉ!!! ďĉďĉďĉďĉďĉďĉďĉďĉ!",
      "ĈĈĈĈĈĈĈĈĈ Ĉ!ĈĈĈĈ!ĈĈĈĈĈ",
      "!!!!!!! RTVa!!!SĂĄĆďĉćććďĉ!",
      "!!!!!!!!!!!!!!!!!!!!!!!!!!! %!&'(",
      "ďĉďĉćććć ćĈ!Ĉ!Ĉ!ćĈĈćĈ",
      "ĈćĈĈćĈ ćć",
      "%&ď'(ĉ ďĉ",
      "%&'ď(ĉ ďĉ",
      "ďĉ!ďĉďĉďĉďĉ!! ďĉďĉďĉ!",
      "ćď ććĉ",
      "!!!!!!!!!!!!!!% !!&'(",
      "!!!!!!!!!!!!!!!% !!!!!!!!!!!!",
      "!!!!!!!!!!!!!!!!!!!!!!!!!!% !!!!!!!!!!!!",
      "%&'(ďĉćć ćĈ!ćďĉďĉďĉďĉďĉ!!ďĉ!!!!",
      "ďĉďĉ!!ďĉ!!!! !!!%!!!!!!!!!!!!&'(",
      "Ĉ!Ĉ!Ĉ!Ĉ!ĈćĈĈĈ!ĈĈĈ ćĈćĈĈĈĈĈĈĈćĈĈĈĈĈĈ",
      "Ĉ!Ĉ!Ĉ!Ĉ!ĈćĈĈĈ!ĈĈĈ ćĈćďĉďĉďĉ!!!",
      "ćććĈćĈ!ćĈ ćććĈ!Ĉ!Ĉ!Ĉ!Ĉ!ćĈ!Ĉ!",
      "ćĈ!Ĉ!Ĉ!Ĉ!Ĉ!Ĉ!Ĉ!Ĉ!ćĈ!ćĈ!Ĉ!ĈćĈ!Ĉ! %&'(ďĉ",
      "ďĉďĉ!!ďĉ!!!!!!)!!!!!!!!) ďĉďĉďĉ!!",
      "ďĉ!ďĉďĉďĉ!ďĉ!!!!! ďĉ!ďĉďĉďĉďĉďĉďĉďĉ",
      "ćďĉďĉ! ďĉďĉ!ďĉ)))",
      "AAAA AA",
      "32233 3222323232222222222222222",
      "ćĈćĈćĈ!ćĈ!ććĈ! ćĈććĈćĈ!ćĈ",
      "B ď",
      "L M",
      "ď Ĉ!Ĉ!Ĉ",
      "ď Ĉ!ĈĈ",
      "!! ććĈ!Ĉ!ĈćĈĈĈććĈĈĈććĈ!Ĉ!Ĉ!Ĉ!Ĉ!Ĉ!ćĈ",
      "Ĉ!Ĉ! ćĈ",
      "%&'( \"",
      "ďĉ!! ďĉ!",
      "ďĉďĉďĉ M",
      "ććĈ!Ĉ! Ĉ!ĈćĈ!",
      "ďĉ%&'( ďĉďĉďĉďĉďĉďĉďĉďĉ",
      "ďĉ%&'( ďĉďĉďĉďĉďĉďĉďĉ",
      "LLLL LL!LK",
      "!&'( ďĉ!!!!!!!!!!!!!!!!!!!!!!!!!!!!!!!!",
      "!!!% !!!!!&'(",
      "-%& +01",
      "ďĉďĉďĉ%&'( ďĉďĉďĉ!",
      "'(7 88888888,",
      "0101 01'(333",
      "MMMMMMMMMMMMMMMM MMMM",
      "%!&'( !",
      "ďĉďĉ!!!! ďĉďĉ",
      "%&'ď(ĉ !!",
      "%&'(ďĉďĉ! ďĉďĉ",
      "Ĉ!Ĉ!ĈĈ!Ĉ!Ĉ!Ĉ! ďĉďĉďĉďĉďĉ!",
      "!!!!!!!!!!% !!!!",
      ")!)!!!!!!!!!!!!!!!! ďĉďĉďĉ!ďĉ!ďĉ!",
      "!!!!!!!!!!!!!!!!!!!!!!! %&'(%&'(",
      "777 '(788888888,",
      "ďĉ!ďĉ!!!!!!!!!!!!!!!! ďĉ!!!!!!!!!%",
      "Ĉ!ď Ĉ!ĉ",
      "ćććĈćĈćĈ!ĈćĈćĈćĈ ćććĈĈĈĈĈ",
      "ćďĉ#$ćĈ!ćć ďĉ%&'(ďĉ!!!!ďĉ!!)ďĉďĉ!",
      "ďĉ!ďĉ!!!!!!ďĉďĉ!!!! ďĉďĉďĉ%&'(",
      "ďĉďĉďĉ!!ďĉ ćććĈ!Ĉ!Ĉ!Ĉ!ĈĈĈĈĈĈĈĈĈĈ!ćĈ!Ĉ!",
      "ćććććććĈ!ćČČ ďĉďĉďĉ!!!!!",
      "666666667777 777'(788888888,",
      "ććĈ!ĈćĈćĈćĈ!ĈćĈĈďĉ%&'(ďĉďĉ Ĉ!Ĉ!Ĉ!Ĉ!ćććĈ!",
      "%&'(ďĉ!!!ďĉďĉďĉ!!ďĉ ćććĈ!Ĉ!Ĉ!Ĉ!",
      "ďĉ!ďĉďĉďĉďĉďĉďĉďĉďĉďĉďĉ!!ććć %&'(ďĉ",
      "Ĉ!Ĉ!Ĉ!Ĉ!ĈĈ! ćĈ!Ĉ",
      "! ĥĤ",
      "C !!!",
      "ĉ ďĉďĉ",
      "Ĉ! ĥ",
      "Ĉ!Ĉ! %Ĉ&'(!",
      "%&'( ćĈ!ćć",
      "ćĈ ććĈ!",
      "ćĈ!ćĈ! ććććĈćĈ",
      "%& Ĉ'(",
      "!!!!!!!!!!!!!!!!!!!! %&'(ďĉ",
      "!!!!!!!!!!! %&'(",
      "ďĉ%&'( ććććććććććććĈ!ćĈ!Ĉ!",
      "ďĉ!ďĉďĉďĉďĉ ďĉ!",
      "-%& +",
      "Ĉ!Ĉ!Ĉ!Ĉ ďĉ!!!!!!!!!!!",
      "-%&+/,'( #$",
      "ďĉďĉďĉ%&'( ďĉďĉďĉ!ďĉďĉ!",
      "ććĈ!Ĉ!Ĉ ćĈ!ĈććĈĈĈćĈĈĈćĈ!ĈććĈĈĈ",
      "RTVa!!!SĂĄĆ !",
      "ďĉďĉďĉďĉďĉćććć ćććĈ!Ĉ!ććććććĈ!ćĈĈ",
      "!!!!!!!!!% !!!!!!!!!!!!",
      "ćďĉďĉďĉĈ!ĈĈĈĈ Ĉ!ćĈ!Ĉ!Ĉ",
      "ďĉćĈ! ďĉďĉďĉďĉďĉďĉďĉďĉďĉ%&'(ďĉďĉďĉ",
      "ććććććććĈ!ćććĈ!Ĉ!ćĈ!ďĉ ćĈ!Ĉ!ĈćĈ!",
      "666666667'777777 (788888888,-%&+",
      "!!!!ďĉďĉ!!!!!!!!!!!!!!!!!!!!! )!)",
      "66666666777'7777 (788888888,-%&+",
      "Ĉ!ćĈĈ Ĉ!ĈĈĈ",
      "ć' Ĉ(!",
      "ďĉćććďĉ!ďĉďĉ!ďĉďĉćććććďĉ! ďĉďĉďĉ!ďĉ",
      "ďĉ!ďĉ%&'(! ďĉďĉďĉćďĉ!ďĉďĉďĉďĉ",
      "ćĈ!Ĉ!Ĉ!Ĉ!Ĉ!Ĉ%&'(ďĉĈ!Ĉ!Ĉ!Ĉ! Ĉ!ĈĈĈ!ĈĈĈć",
      "ďĉ!!ďĉďĉ!!ďĉ!ďĉ!!ďĉďĉďĉ!ďĉ ććĈ!%&'(",
      "ććććĈ!ćĈćĈĈ ćććć",
      "ć &'(",
      "ć %ćć&'(",
      "Ĉ ĉ!",
      "ď ĈĈ!ĉ",
      "Ē !!ďĉ",
      "Ğ %&'(%&'(%&'(%&'(%&'(%&'(%&'(%&'(",
      "!! Ė",
      "Ĉ! %Ĉ&'(",
      "ĈĈ Ĉ!Ĉ!Ĉ!Ĉ!ĈĈ!ćĈ!Ĉ",
      "%&'( ććććĈ!Ĉ!",
      "ćĈ! %Ĉ&'(",
      "ćććć ććć",
      "ćĈ ćĈ!Ĉ!",
      "Ĉ!Ĉ ććĈ!Ĉ!Ĉ!ĈĈ!ĈćĈ!ćć",
      "!!!!!!!!!!!! %&'(",
      "ďĉďĉ! ďĉďĉďĉďĉ",
      "ďĉďĉďĉ %&'ď(ĉ",
      "ďĉ!ďĉ %&'(ďĉďĉďĉďĉ",
      "ďĉďĉďĉďĉďĉďĉďĉďĉ ďĉďĉ!!",
      "ďĉďĉ%&'( ďĉďĉďĉ",
      "Ĉ!Ĉ!Ĉ!Ĉ Ĉ!Ĉ!",
      "ćĈĈĈĈĈ ćĈĈĈĈĈĈ",
      "!!!!!!!!!!!!!!!!!!!!!!!!!!! ďĉ!ďĉ!!!!!!",
      "!!!!!!!!!!!!!!!!!!! &'(",
      ")ďĉďĉ! ďĉ!ďĉ!ďĉďĉďĉ",
      "!!!!!!!!!!!!!!% !!!&'(",
      "ĖĖ Ė",
      "ďĉďĉďĉďĉĈ!ĈĈĈćĈ!ćĈĈĈ ďĉďĉďĉďĉďĉďĉďĉďĉ",
      "ĈĈĈĈĈĈĈĈĈĈĈĈĈĈĈĈĈĈĈĈĈĈĈ ďĉ!",
      "%ć& Ĉ'(",
      ")ććććććććććććĈ!ććĈ!ćĈ!ćĈ!Ĉ!Ĉ!ćĈ!Ĉ! ćĈ!",
      "ďĉ%&'(ďĉ ćďĉććććććććććććććććĈ!Ĉ!ćĈ!Ĉ!ĈĈ!",
      "ďĈ ćĉ",
      "Ĉ!ćĈ!ćĈ!Ĉ!Ĉ! ďĉďĉ",
      "ćďĉćĈ!ććĈ!ćĈ!Ĉ ďĉ%&'(ććććććććććććĈ!ćĈ!Ĉ!",
      "ć%&'(ďĉ! ććććĈ!ćĈ!Ĉ!Ĉ!ćĈ!Ĉ!",
      "ćĈĈĈĈĈĈ!ĈĈ!ĈĈĈćĈĈĈćĈ!ĈĈĈĈ!ĈĈ!Ĉ %&'(",
      "ďĉďĉďĉ!ďĉďĉ!!ďĉďĉďĉ! ďĉďĉďĉďĉďĉďĉďĉďĉ",
      "ďĉďĉććććććĈ!ćććĈ!ćććĈ!ćĈ! ć%&'(ďĉďĉďĉďĉ!",
      "ďĉďĉďĉďĉďĉďĉďĉďĉ!! ďĉďĉďĉďĉ!!!!ďĉ!!",
      "ďĉďĉ!!!!ďĉ!! )ďĉďĉ!",
      "ĈćĈĈćĈćć %&'(%&'(",
      "' 77",
      "7 '77",
      "Ĉ ć",
      "ę !!",
      "ĈĈĈĈ ĈćĈĈćĈćć%&'(%&'(",
      "ćĈĈ ĉ",
      "ććĈ ććĈ",
      "ćĈĈĈ ćĈĈĈĈĈĈ!ĈĈ!ĈĈĈćĈĈĈćĈ!ĈĈĈĈ!ĈĈ!Ĉ",
      "ďĉďĉďĉďĉďĉďĉďĉďĉ ďĉďĉďĉďĉ!",
      "Ĉ!ĈĈ !!",
      "ďĉćććć ćććĈĈććććććĈ!ćĈĈ",
      "ďĉďĉďĉďĉďĉďĉďĉ !!!!!!!!!!!ďĉ",
      "ď%ĉ &'(!!!!!!!!!!!!!!!!!!!!!!!!!!!!!!!!",
      "!!!!!!!!!!!!! ďĉ!!!!ďĉďĉďĉďĉďĉďĉďĉďĉďĉďĉ",
      "Ĉ!ĈĈĈĈĈĈĈ Ĉ!ĈĈĈ!",
      "!!!!!!!!!% !!&'(",
      "!!!!!!!!!!!!!!% !!!!!!!!!!!!",
      "Ĉ!Ĉ!ćĈ!Ĉ!ĈĈĈ ďĉ!ďĉ!!!SĂĄĆ!!ďĉ!!!!!!",
      "ćĈ!Ĉ!ćĈĈ!ćĈ!ćĈ!Ĉ Ĉ!Ĉ!Ĉ!ćĈ!Ĉ!Ĉ!",
      "ďĉďĉďĉ!ććĈ!ć ďĉďĉ%&'(",
      "ćĈ!Ĉ!Ĉ!Ĉ!Ĉ!Ĉ!ĈĈďĉ!!! ďĉ!ďĉďĉ!",
      "666666667777 7'77",
      "ČČČČ ČČČČ",
      "33222323 2323232222222222222222",
      "32232323 2323232222222222222222",
      "%ććĈ &'(!",
      "ćĈ!ćĈ!ććććĈćĈ ćććĈ!ćć",
      "A M",
      "B ē",
      "ć %ď&'(ĉ!",
      "%&'( Ĉ!Ĉ!Ĉ!Ĉ!Ĉ!Ĉ!Ĉ!Ĉ!",
      "%&'( ďĉďĉďĉďĉ!ďĉďĉďĉďĉ!ďĉ!!",
      "ćĈ!Ĉ! Ĉ!ĈĈ!",
      "ďĉďĉďĉďĉ !!!!!!!!!",
      "Ĉ!Ĉ %Ĉ&'(",
      "ďĉďĉďĉ !!!!ďĉ!!!ćććć",
      "Ĉ!ćĈ!Ĉ! ĈĈĈĈĈ",
      ")!) ďĉďĉďĉćććĈ!Ĉ!Ĉ!ĈĈ!Ĉ!ćĈ!Ĉ!Ĉ!ĈćĈ!Ĉ!Ĉ!Ĉ",
      "ďĉďĉ!! ďĉďĉďĉďĉ!ďĉďĉ",
      "ďĉ%&'( ďĉ!",
      "ď%&'(ĉ ďĉďĉďĉďĉ!",
      "ďĉ!ďĉ! ďĉďĉ",
      "ďĉďĉďĉďĉ! ďĉďĉďĉďĉ",
      "Ĉ!ĈĈ! ĉ",
      "ďĉďĉďĉďĉďĉ !!!",
      "ćĈ!Ĉ!Ĉ!ćĈ!Ĉ! Ĉ!Ĉ!ćĈ!Ĉ!",
      "%ć&'( ćććć",
      "%&ď'(ĉ ďĉďĉ",
      "!!!!!!!!!!!!!!% !!!!!!!!",
      "!!!!!!!!!!!!!!!!!!!!!!!!!!!!!!!!!% !!!!",
      "ďĉďĉďĉďĉďĉ%&'( ďĉďĉďĉďĉ!",
      "ďĉď%&'(ĉ ďĉďĉ",
      "Ĉ!ĈĈĈ!ĈĈ ďĉ!ďĉďĉďĉćĈ!Ĉ!Ĉ!Ĉ!ĈĈ!Ĉ!Ĉ!Ĉ!",
      "ćĈćĈćĈćĈćĈćĈćĈćĈćĈćĈćĈćĈ ćć",
      "!!!!!!!!!!!!!!!!!!!!!!!!! ďĉďĉ!ďĉ!)",
      "ćććććďĉ! ďĉďĉďĉ!ďĉćďĉ!!!!ćďĉ!",
      "ďĉ!ćĈ!ćĈ %&'(ďĉďĉďĉďĉ!ďĉďĉďĉďĉ!ďĉ!!",
      "ď%&'(ĉďĉďĉ ćććĈ!Ĉ!Ĉ!Ĉ!Ĉ!Ĉ!Ĉ!Ĉ!Ĉ!Ĉ!",
      "ććććĈ!Ĉ!Ĉ!Ĉ!Ĉ!ĈĈ!Ĉ!ćďĉ!!ďĉďĉ ćĈ!ć",
      "ćĈ!Ĉ!Ĉ!Ĉ!Ĉ ďĉ!))ħ!",
      "ďē ĉ",
      "ćĈ!ćďĉďĉďĉďĉćććć ćĈ!ćČ",
      "ďĉďĉďĉďĉďĉďĉďĉďĉďĉ!ďĉďĉďĉ%&'( ďĉďĉďĉ!",
      "ććććĈ!ćĈćĈĈćććć ĈĈĈĈĈćĈĈćĈćć%&'(%&'(",
      "! ď",
      "! ďĉćććć",
      "M ďMĉ",
      "Ĉ! ćĈĈćĈ",
      "ďĉ Ĉ!",
      "ďĉ Ĉ!Ĉ!Ĉ!Ĉ",
      "!!!!!!!!!!!!!!!!!!!!!!!!!!!!!!!! !ďĉ",
      "ďĉďĉďĉďĉ ććĈ!Ĉ!Ĉ!Ĉ!Ĉ!Ĉ!ććĈ!ć",
      "!!! ďĉďĉćĈ!ĈĈ!ĈĈĈĈ!Ĉ!Ĉ!ĈĈĈĈĈĈĈĈ!ĈĈĈĈĈ",
      "ďĉďĉďĉ ćććĈ!Ĉ!Ĉ!ćĈĈĈĈ!ćĈ!ĈĈ!ćĈ!ć",
      "ććĈ ćĈ!Ĉ!Ĉ!",
      "!!!!!!!!!!!!!!!!!!!! %!!!!",
      "ď%&'(ĉ ďĉďĉďĉďĉďĉďĉďĉ",
      "ďĉďĉďĉ!! ďĉďĉďĉďĉďĉďĉ!",
      "ćďĉ ď%&'(ĉ",
      "Ĉ!Ĉ!ćĈ!Ĉ! ďĉ",
      "ć%&'( ćććććććććććććććććććććććć",
      "%&'(ďĉďĉ ćććććććć",
      "ďĉ!ďĉ!! %&'(",
      "ď%ĉ&'( ďĉďĉ",
      "!!!!!!!!!! %&'(ďĉ",
      "ďĉ!ďĉďĉďĉďĉďĉďĉďĉďĉ !!!!!!!!!!!!ďĉ!!",
      "ĉĉĉĉ ĉĉ",
      "%!!!!!!!!!!!! &'(",
      "!!!!!!!!!!!!!!!!!!!!!!!!!!% !!!!!!!!",
      "ďĉďĉ!ďĉďĉ%&'( ďĉ!!",
      "ďĉďĉ!ďĉďĉ%&'( ćĈ!Ĉ!Ĉ!Ĉ!Ĉ!Ĉ!",
      "Ĉ!ďĉďĉ! ďĉ%&'(",
      "ćďĉ%&'( ďĉďĉďĉććĈ!Ĉ",
      "ĈĈĈĈĈĈĈĈĈĈĈĈĈĈĈĈĈĈĈĈĈĈĈ ďĉ!ďĉďĉďĉďĉ",
      "ćĈĈ!Ĉ!ĈĈĈ ćĈćĈ!ććĈ!!ďĉ!!ďĉďĉďĉ",
      "Ĉ!ĈĈćďĉďĉďĉďĉďĉďĉďĉ!ďĉ!ďĉďĉďĉ! ďĉ!ďĉďĉďĉ",
      "ćććććĈ!ĈĈćĈĈćĈďĉćććććććć Ĉ!Ĉ!Ĉ!Ĉ",
      "ďĉďĉ!ďĉďĉćććććďĉ! ďĉďĉďĉ!ďĉćďĉ!!!!ćďĉ!",
      "!&'(ďĉ))ħ ďĉďďĉĉďĉďĉďĉďĉ",
      "ď%&'(ĉ!ďĉ !!!ďĉ!!!ćććĈćĈ!ćĈ!ĈĈ!Ĉ!",
      "ďĉ!!!ďĉ!! ďĉďĉ)!)",
      "ďĉ!ďĉ!%&'( ďĉďĉďĉćďĉ!ďĉďĉďĉďĉ",
      "Ĉ!ĈĈĈ!ĈĈĈć%&'(ďĉďĉ!ďĉďĉ ćĈ!Ĉ!Ĉ!Ĉ!Ĉ!Ĉ!",
      "3223322 32323232222222222222222",
      ") ď",
      "ďĉ %&'(%&'(%&'(",
      "!!!!!!!!!!!!!!!! !&'(ćďĉ!ďĉ",
      "ďĉďĉ Ĉ!Ĉďĉ!ďĉ!ďĉ",
      "%&'( ďĉ!ďĉďĉďĉďĉďĉďĉďĉďĉ",
      "ďĉ! ćććĈ!Ĉ!ćĈ!Ĉ!Ĉ",
      "!!!!!!!!!!!! %!!&'(",
      "ďĉďĉ! ććĈ!ćććĈ!ćććĈ!ćććĈ!Ĉ!Ĉ!ďĉćććĈ!ć",
      "ďĉďĉ! ďĉ!ďĉ!ďĉďĉ!!ďĉ!ďĉ!!",
      "ďĉ!ďĉ ććĈ!Ĉ!Ĉ!Ĉ!Ĉ!Ĉ!Ĉ!ĈĈćĈ",
      "ďĉ!!!! ďĉďĉďĉďĉ",
      "ďĉ%&'( ďĉďĉďĉ!",
      "!&'( !!!!!!!!!!!!!!",
      "Ĉ!ĈĈ! ććĈĈ",
      "ďĉďĉďĉ%&'( !",
      "ďĉďĉďĉďĉďĉ %&'(ďĉ",
      "ĈĈĈĈĈĈĈĈĈĈĈĈ ĈĈĈ",
      "ĈĈĈĈĈĈĈĈĈĈĈĈ ĈĈ!",
      "0101 0011",
      "ďĉ!ďĉďĉ! ďĉ!ďĉ!ďĉďĉďĉďĉ",
      "ďĉďĉďĉďĉďĉďĉďĉ! ďĉ%&'(",
      "%&'(ďĉďĉďĉďĉ ďĉ!ďĉďĉďĉ!",
      "ď!ĉ LK",
      "ćććććććĈ!Ĉ!ććććććĈ!ćĈĈ ďĉďĉ!!ďĉ",
      "!!!!!!!!!!% !!!!!!!!!!!!!!!!!!!!",
      "!!!!!!!!!!!!!!!!!!!!!!!!!% !!!!",
      ")!)!!!!!!!!!!!!!!!! !%",
      "ďĉďĉďĉďĉďĉ%&'( ďĉďĉ!",
      "ďĉďĉďĉďĉćććć Ĉ!ĈĈ!ćĈ!Ĉ",
      "Ĉ!Ĉ!Ĉ!ćĈ!ćĈ ďĉďĉďĉďĉ!!!!!!!!!ďĉ!!!!!!!!",
      ")!)!ďĉďĉ!!!)!)!! ďĉďĉďĉďĉďĉ!!",
      "%ć&' Ĉ(",
      "ćĈ!Ĉ!Ĉ!Ĉ!Ĉ!Ĉ!ĈćĈĈĈĈ!ĈććĈ!ććććĈć!! %&'(",
      "ďĉďĉďĉ%ď&'(ĉ ďĉďĉďĉďĉ",
      "ďĉćććććĈ!Ĉ!Ĉ!ćĈĈćĈ ďĉďĉććĈ!Ĉ!Ĉ!ćĈ!",
      "ďĉ!!!!!!!!!!!!!!!!!!!!!!!!!!!! )!)",
      "ďĉ!!!!ďĉ!! )ďĉďĉ!",
      "Ĉ!ďĉďĉ!ďĉ%&'( ćććććććććććććććć",
      "ć ))",
      "ć %ć&'ć(",
      "Ĉ )!",
      "Ĉ )!)",
      "ĉ ď",
      "ďĉ %!!&'(",
      "%&'( ďĉďĉďĉďĉďĉďĉćďĉ!ďĉ",
      "ćććć ćĈ!Ĉ!ćĈ!Ĉ!ćĈ!Ĉ!Ĉ!Ĉ!Ĉ!",
      "ćĈ ĉ!",
      "!!!!!!!!!!!! %!!!!!!!!!!!!",
      "!!!!!!!!!!!! %!!!!!!!!!!!!!!!!",
      "ćĈ!ćĈ! ďĉďĉďĉďĉďĉďĉ",
      "ďĉ!ďĉ ď%ĉ&'(",
      "!!!!!!!!!!!!!!!!!!!! %!!!!!!!!",
      "%Ĉ&'( ĈĈĈĈĈĈĈĈ",
      "ĉĉ !",
      "ďĉďĉ%&'( ććĈ!Ĉ!Ĉ!ćĈ!ďĉďĉďĉďĉďĉďĉ",
      "%Ĉ&'(! Ĉ!Ĉ!Ĉ!",
      "!!ďĉ !!!!!!!!!!!!!!!!!!!!!!!!",
      "!!!!!!! ďĉďĉ",
      "ďĉďĉćććć ćĈ!Ĉ!ćĈĈćďĉćĈ!ććĈ!ćĈ!Ĉ",
      "!!!!! ďĉ!ďĉďĉďĉďĉďĉďĉďĉ",
      "ďĉ!ďĉďĉďĉ ĥ",
      "ďĉ!!!!!!!!!!!!!!!! !!%",
      "ďĉďĉďĉďĉďĉ%&'( ďĉďĉ",
      "000111 01000111",
      "ďĉďĉ!!ćććĈ!Ĉ!ćĈ!Ĉ!ĈĈĈĈ!ććĈ ďĉďĉćććć",
      "ďĉ%&'(ďĉďĉ ćććĈĈ!ćĈ!Ĉ!ĈćĈĈĈćĈĈĈćĈĈćććć",
      "ď!! ď",
      "%&'(%&'(ďĉ!!ććććććĈććĈ! ďĉćĈ!Ĉ!",
      "R%&'(TVa !!!SĂĄĆ",
      "ćĈćĈĈĈĈĈĈĈćĈĈĈĈĈĈćĈćĈ!ćĈĈ! ďĉďĉďĉ!",
      "ĈĈĈ!Ĉ!Ĉ!ĈĈĈĈ!Ĉ!ĈĈ!Ĉ!Ĉ!ĈĈĈĈ ć%&'(ďĉďĉ",
      "Ē!!! ė",
      "Ĉ!Ĉ!Ĉ!!ĈĈ!ĈććĈ!Ĉ!ĈĈ!ĈĈ!Ĉ!ćĈ! ďĉ",
      "ććĈ!ć%&'( ďĉďĉďĉďĉďĉďĉďĉďĉďĉ!!!ďĉ%&'(",
      "001101010011 01'(3",
      "ćĈĈĈĈĈĈĈĈĈĈĈĈĈĈĈĈ! ĈĈĈĈĈĈĈĈĈĈĈĈĈĈĈĈĈ!",
      "%K &'(",
      "ććĈ!Ĉ!Ĉ!ĈćĈ! %&'(Ĉ!Ĉ!Ĉ!Ĉ!Ĉ!Ĉ!Ĉ!Ĉ!",
      "M !!!!!!!!!!!!!!!!!!",
      "ďĉ %ď&'(ĉ!",
      "ďĉďĉ ćďĉććććććććććććććććĈ!Ĉ!ćĈ!Ĉ!ĈĈ!",
      "%&'( !!",
      "%&'( !!!!!!!!",
      "%&'( !!!!RTVa!!!SĂĄĆ",
      "%&'( Ĉ!Ĉ!Ĉ!ĈĈĈĈ!Ĉ!ĈĈ!Ĉ!Ĉ!ĈĈĈĈ",
      "ćĈ %!Ĉ&'(!",
      "ćĈ '(!",
      "Ĉ!ĈĈ Ĉ!Ĉ!",
      "ďĉ%&'( ćććććĈ!ĈĈćĈĈćĈďĉćććććććć",
      "ďĉ%&'( ďĉ!ďĉďĉďĉďĉďĉďĉďĉďĉ!",
      "!&'( !!!!!!!",
      "!!!!!!!!!!!!!!!!!!!!!!!! %!!!!!!!!",
      "Ĉ&'( !",
      "ćďĉ! ćććććďĉ!ććććĈćććĈ!Ĉ!ĈćĈ!ć",
      "Ĉ!Ĉ!ĈĈ Ĉ!ĈĈ",
      "%&'(ďĉ!! ďĉ!!!!!!!!!!!",
      "!!!!! ďĉ!ďĉ!!",
      "ćĈĈĈćĈĈ ďĉĈ!Ĉ!ĈĈĈ",
      "ĉĉĉĉ ĉ",
      "!!!!!!!!!!!!!! ďĉďĉ!ďĉ!)ďĉďĉďĉć",
      "ďĉďĉďĉ!ďĉ ććĈ!ďĉ!ďĉ!!ćĈ!",
      "!!!!!!!!!!!!!!% !!!!",
      "ďĉĈ!Ĉ!Ĉ!Ĉ! Ĉ!ćĈĈĈ!ĈĈĈ",
      "!!!!!!!!!!!!!!!!!!!!!!!% !!!!!!!!",
      "!!!!!!!!!!!!!!!!!!!% !!!!!!!!!!!!",
      "!!!!!!!!!!!!!!!!!!!!!!% !!!!!!!!",
      "ćĈĈćĈĈćĈ!ćććĈ!ćć ďĉďĉ!!!!ďĉďĉ",
      "ććććććĈ!ćććĈ!ćć ćĈ!ćĈ!ćďĉďĉďĉďĉ!",
      "ćĈĈĈĈ!ĈććĈ!ććććĈć!! ďĉ!ďĉďĉďĉďĉďĉďĉ!!",
      "ďĉ!ďĉĈ!Ĉ!ćĈ!Ĉ!ĈĈĈ ďĉ!ďĉ",
      "ďĉďĉ!%&'( !!!!!!!!!!!!!!!!!!!!!!!!!!",
      "ďĉďĉ!%&'( ďĉ!ďĉ!!Ĉ",
      "ďĉ!ďĉďĉ%&'( ďĉ!ďĉ!ďĉ!!ďĉ",
      "ďĉ!ďĉ!ďĉ!ďĉ!ďĉ!ďĉ ćććĈ!Ĉ!Ĉ!Ĉ!Ĉ!Ĉ!",
      "ďĉďĉ!!ďĉ!!ďĉ!ććĈ!ďĉ!ďĉďĉ!! ďĉďĉ)ďĉďĉ!",
      "ďĉďĉďĉďĉďĉ!ďĉ!ďĉďĉďĉďĉ ďĉ%&'(",
      ")ďĉ ćďĉďĉ!",
      "ďĉ!ďĉ%!&'( ććĈ!ćďĉďĉďĉďĉďĉďĉďĉ!!ďĉďĉ",
      "666666667777'777 (788888888,-%&+01",
      "ćĈćĈćĈćĈćĈćĈćĈćĈćĈćĈćĈćĈćć %&'(Ĉ!Ĉ!",
      "ď LL",
      "ď ćĈ!Ĉ",
      "ďĉ Ē",
      "ďĉďĉ ď",
      "ćĈ! ććĈ!Ĉ!Ĉ!ĈćĈ!Ĉ!ĈćĈććĈĈ!ĈĈĈďĉ!!!",
      "Ĉ!Ĉ!Ĉ!Ĉ! Ĉ!ď",
      "ďĉďĉďĉ !!!!",
      "ďĉďĉ!! ďĉ!ďĉďĉ!!ďĉďĉďĉďĉďĉďĉďĉďĉ!",
      "ďĉďĉďĉďĉďĉďĉďĉďĉ !!!!!!!!!!!!ďĉ!!",
      "!!!!!!!!!!!!!!!!!!!!!!!!!!!! !!!&'(",
      "!% !!&'(",
      "ďĉ!ďĉďĉďĉďĉ ćďĉ!ďĉ",
      "ćďĉ ćďĉ",
      "%ď&'(ĉ ďĉďĉďĉďĉ",
      "'(3 3322",
      ")) )))",
      "ďĉ!!!!!!!! )!!!!!!!!)!",
      "ďĉďĉďĉďĉďĉ FD",
      "%Ĉ&'(! Ĉ!ćĈ!Ĉ!",
      "%&'(ďĉďĉ ććććććĈ!ćććĈ!ćććĈ!ćĈ!ćďĉďĉďĉďĉ!",
      "ď! ďďďďďďďď",
      "!!!!!!!!! ďĉďĉďĉďĉďĉ)!)",
      "!!!!!!!!!!!!! )!)",
      "ďĉ!ďĉ!ďĉ ććďĉďĉ)ćďĉ%&'(ććććććĈ!Ĉ!",
      "Ĉ!ĈćĈ!Ĉ!Ĉ!ĈćĈ!ćć %&'(ďĉ!",
      "!!!!!!!!!!!!!!!!!!!!!!!% !!!!!!!!!!!!",
      "!!!!!!!!!!!!!!!!!% !!!!",
      "!!!!!!!!!!!!!!!!!!!!!% !!!!!!!!!!!!",
      "Ĉ!Ĉ!ĈĈĈĈĈĈćĈ!ĈĈĈ ďĉ%&'(%&'(%&'(",
      "ćććććććĈ!ćĈ!Ĉ!Ĉ!Ĉ!Ĉ!ćĈ!Ĉ!ćĈććĈ ćďĉ%&'(",
      "ććĈ!ĈĈĈĈĈ!ćďĉďĉ !!!!!!!!!!!!!!!!!!!",
      "ďĉ!ďĉ!ďĉ!ďĉ! ďĉ!%&'(ďĉ",
      "ććĈĈ!Ĉ!ĈĈĈ!ććĈ!Ĉ!Ĉ ćĈ!%&'(",
      "ďĉďĉďĉ!!!!!!!!!! ďĉďĉďĉďĉ%&'(ďĉďĉ",
      "ďĉďĉ!!ďĉ!!ďĉ!ććĈ!ďĉ!ďĉďĉ!! ďĉďĉ)",
      "ćďĉďĉ! ďĉ!ďĉ)))",
      "!!!!!!!!!!!!!!&'( ćďĉ!ďĉ",
      "Ĕĥ !!",
      "Ĕĥ ćĈ!ćĈ!Ĉ!ĈĈ!",
      "!!)!) !!!!!!!!!!!%&'(",
      "ďĉďĉďĉ!ććĈ!ćďĉďĉďĉďĉďĉďĉďĉďĉ %&'(ďĉ!!",
      "ďĉ%&'(ďĉďĉďĉďĉďĉďĉ ćĈ!Ĉ!Ĉ!Ĉ!Ĉ!ĈĈĈ!Ĉ!Ĉ",
      "ćććĈ!ćĈ ďĉďĉććć",
      "Ĉ!Ĉ!Ĉ!Ĉ!ĈĈ!Ĉ!Ĉ!Ĉ! Ĉ!ćĈ!Ĉ!ĈĈĈĈĈ",
      "Ĉ!ĈćĈ!Ĉ!Ĉ!ĈćĈ!ćć%&'(ďĉ! Ĉ!ĈćĈ!Ĉ!Ĉ!ĈćĈ!ćć",
      "R !!!S",
      "ć ĈĈĈĈĈĈĈĈĈ",
      "ć ĉ!",
      "Ĕ Ĉ!ĥ",
      "ħ ďĉĉ",
      "!!!! ďĉďĉďĉ!!ďĉďĉ!ďĉ!!",
      "%&'( ďĉďĉďĉ!!",
      "ćććć ćĈ!Ĉ!",
      "ďĉďĉďĉďĉ !!!!",
      "ćĈ %&'(",
      "!!! ďĉ!!!!!!!!!!!!!!!!!!!!!!!!!!!!!!!!",
      "ďĉďĉďĉ Ĉ!Ĉ!Ĉ!Ĉ!!Ĉ!Ĉ!Ĉ!Ĉ!!Ĉ!Ĉ!Ĉ",
      "Ĉ!ćĈ!Ĉ! ĈćĈĈćĈćĈĈĈćĈĈďĉĈ!Ĉ!ĈĈĈ",
      "ďĉ!ďĉ !!!!!!!!!!!!!!",
      "ćĈ!ćĈ!Ĉ! ĈĈĈ!ĈĈĈććĈ!ĈĈ!ĈĈĈĈ!ĈĈ!ĈĈĈĈ",
      "%&'(ĉ ĉĉ",
      "!L ćK",
      "ďĉ%&'( ďĉďĉďĉďĉ!!",
      "ď%&'(ĉ ďĉďĉďĉďĉďĉďĉ!",
      "Ĉ!ĈĈĈĈ ćĈ",
      "ćďĉ %!&'(",
      "%ď&'(ĉ ďĉ!!",
      "ďĉďĉďĉďĉ! ďĉ%&'(ďĉ!!",
      "ďĉďĉ%&'( ďĉďĉďĉďĉ",
      "ďĉćććć ćĈ!Ĉ!ćĈ!Ĉ!ćĈ!Ĉ!Ĉ!Ĉ!Ĉ!",
      "ćĈ!ć ď",
      "ďďĉĉ ďĉďďĉĉ",
      "%Ĉ&'(! Ĉ!Ĉ!Ĉ!Ĉ!",
      "!!&'( !!!!!!!!!!!!!!!",
      "!!!!!!!!!!!!!!! ďĉ",
      "ćďĉďĉ ćć",
      "%&'(! ĥĤ",
      "ć! Ĉ!!",
      "ďĉďĉďĉć ďĉďĉ!ďĉďĉďĉ!!ďĉ!!!!",
      "ććĈ!ćĈ!Ĉ ććĈĈ!Ĉ!ĈĈĈ!ććĈ!Ĉ!Ĉ",
      "!!!!!!!!!!!!!!!!!!!!!!!!!!!!!!! )!)",
      "ćď ćĈ!ĉ",
      "%&'(ďĉ! ćććććĈ!Ĉ!Ĉ!Ĉ!Ĉ!Ĉ!ćĈ!Ĉ!Ĉ!ćĈ!Ĉ!",
      "%&'(ďĉćć ćďĉ!",
      "!!!!!!!!!!!!!!!!!!!% !&'(",
      "ćĈ!ćĈ!Ĉ!ćĈ!Ĉ!Ĉ!ćĈ!Ĉ! ćďĉ!",
      "ďćĈ ĉ!",
      "ĈćĈĈćĈćĈĈĈćĈĈďĉ%&'( Ĉ!Ĉ!ĈĈĈ",
      "! ĥ",
      "!!!! Ē!",
      "ďĉďĉ Ħ",
      "Ĉ!Ĉ! ććĈ!Ĉ!Ĉ!Ĉ!Ĉ!Ĉ!ćĈ",
      "%&'( ďĉďĉďĉďĉďĉďĉďĉ",
      "ćĈ!Ĉ! ďĉ",
      "ćĈ ćĈ!ććććććĈ!ćĈ!ććĈćććĈćććĈĈćĈćĈ!Ĉ!",
      "ďĉ!! %&'(ďĉďĉďĉ",
      "ďĉďĉ! ďĉ!ďĉ!!Ĉ",
      "ďĉďĉďĉ! ďĉ!ďĉďĉ",
      "Ĉ!ĈĈ ďĉ!!!",
      "!% L&'(",
      "ď%&'(ĉ ďĉćććććććć",
      "ďĉďĉ%&'( ďĉďĉďĉďĉďĉďĉďĉďĉ",
      "Ĉ!ĈĈ!Ĉ Ĉ!ĈĈ!ĈĈĈĈĈĈĈĈĈĈĈĈĈĈĈĈĈĈĈĈĈĈĈĈĈĈĈ",
      "Ĉ!ćĈ! ĉ",
      "2323 2323",
      "ď! ćĉ",
      "%&' Ĉ(",
      "ďďďď !",
[...]
