{
  "version": "1.0",
  "truncation": null,
  "padding": null,
  "added_tokens": [
    {
      "id": 0,
      "content": "[CLS]",
      "single_word": false,
      "lstrip": false,
      "rstrip": false,
      "normalized": false,
      "special": true
    },
    {
      "id": 1,
      "content": "[MASK]",
      "single_word": false,
      "lstrip": false,
      "rstrip": false,
      "normalized": false,
      "special": true
    },
    {
      "id": 2,
      "content": "[SEP]",
      "single_word": false,
      "lstrip": false,
      "rstrip": false,
      "normalized": false,
      "special": true
    },
    {
      "id": 3,
      "content": "[PAD]",
      "single_word": false,
      "lstrip": false,
      "rstrip": false,
      "normalized": false,
      "special": true
    }
  ],
  "normalizer": null,
  "pre_tokenizer": null,
  "post_processor": null,
  "decoder": null,
  "model": {
    "type": "BPE",
    "dropout": null,
    "unk_token": null,
    "continuing_subword_prefix": null,
    "end_of_word_suffix": null,
    "fuse_unk": false,
    "byte_fallback": false,
    "vocab": {
      "[CLS]": 0,
      "[MASK]": 1,
      "[SEP]": 2,
      "[PAD]": 3,
      "!": 4,
      "\"": 5,
      "#": 6,
      "$": 7,
      "%": 8,
      "&": 9,
      "'": 10,
      "(": 11,
      ")": 12,
      "*": 13,
      "+": 14,
      ",": 15,
      "-": 16,
      ".": 17,
      "/": 18,
      "0": 19,
      "1": 20,
      "2": 21,
      "3": 22,
      "4": 23,
      "5": 24,
      "6": 25,
      "7": 26,
      "8": 27,
      "9": 28,
      ":": 29,
      ";": 30,
      "<": 31,
      "=": 32,
      ">": 33,
      "?": 34,
      "@": 35,
      "A": 36,
      "B": 37,
      "C": 38,
      "D": 39,
      "E": 40,
      "F": 41,
      "G": 42,
      "H": 43,
      "I": 44,
      "J": 45,
      "K": 46,
      "L": 47,
      "M": 48,
      "N": 49,
      "O": 50,
      "P": 51,
      "Q": 52,
      "R": 53,
      "S": 54,
      "T": 55,
      "U": 56,
      "V": 57,
      "W": 58,
      "X": 59,
      "Y": 60,
      "Z": 61,
      "[": 62,
      "\\": 63,
      "]": 64,
      "^": 65,
      "_": 66,
      "`": 67,
      "a": 68,
      "b": 69,
      "c": 70,
      "d": 71,
      "e": 72,
      "f": 73,
      "g": 74,
      "h": 75,
      "i": 76,
      "j": 77,
      "k": 78,
      "l": 79,
      "m": 80,
      "n": 81,
      "o": 82,
      "p": 83,
      "q": 84,
      "r": 85,
      "s": 86,
      "t": 87,
      "u": 88,
      "v": 89,
      "w": 90,
      "x": 91,
      "y": 92,
      "z": 93,
      "{": 94,
      "|": 95,
      "}": 96,
      "~": 97,
      "Ā": 98,
      "ā": 99,
      "Ă": 100,
      "ă": 101,
      "Ą": 102,
      "ą": 103,
      "Ć": 104,
      "ć": 105,
      "Ĉ": 106,
      "ĉ": 107,
      "Ċ": 108,
      "ċ": 109,
      "Č": 110,
      "č": 111,
      "Ď": 112,
      "ď": 113,
      "Đ": 114,
      "đ": 115,
      "Ē": 116,
      "ē": 117,
      "Ĕ": 118,
      "ĕ": 119,
      "Ė": 120,
      "ė": 121,
      "Ę": 122,
      "ę": 123,
      "Ě": 124,
      "ě": 125,
      "Ĝ": 126,
      "ĝ": 127,
      "Ğ": 128,
      "ğ": 129,
      "Ġ": 130,
      "ġ": 131,
      "Ģ": 132,
      "ģ": 133,
      "Ĥ": 134,
      "ĥ": 135,
      "Ħ": 136,
      "ħ": 137,
      "Ĩ": 138,
      "ĩ": 139,
      "Ī": 140,
      "ī": 141,
      "Ĭ": 142,
      "ĭ": 143,
      "Į": 144,
      "į": 145,
      "İ": 146,
      "ı": 147,
      "Ĳ": 148,
      "ĳ": 149,
      "Ĵ": 150,
      "ĵ": 151,
      "Ķ": 152,
      "ķ": 153,
      "ĸ": 154,
      "Ĺ": 155,
      "ĺ": 156,
      "Ļ": 157,
      "!!": 158,
      "!!!!": 159,
      "!!!!!!!!": 160,
      "Ĉ!": 161,
      "ďĉ": 162,
      "!!!!!!!!!!!!!!!!": 163,
      "ćć": 164,
      "ďĉďĉ": 165,
      "ĈĈ": 166,
      "Ĉ!Ĉ!": 167,
      "'(": 168,
      "&'(": 169,
      "!!!!!!!!!!!!!!!!!!!!!!!!!!!!!!!!": 170,
      "%&'(": 171,
      "ćĈ!": 172,
      "22": 173,
      "ĈĈĈĈ": 174,
      "ćććć": 175,
      "ćĈ!Ĉ!": 176,
      "ďĉďĉďĉďĉ": 177,
      "ďĉ!": 178,
      "ćĈ": 179,
      "2222": 180,
      "%&'(%&'(": 181,
      "!!!": 182,
      "Ĉ!Ĉ!Ĉ!Ĉ!": 183,
      "Ĉ!Ĉ": 184,
      "ćĈĈ": 185,
      "ććĈ!": 186,
      "ďĉ!!": 187,
      "ĈĈĈĈĈĈĈĈ": 188,
      "ćĈćĈ": 189,
      "MM": 190,
      "ĈĈĈ": 191,
      "!!!!!!!!!!!!": 192,
      "ćĈ!ćĈ!": 193,
      "%&": 194,
      "ďĉďĉ!": 195,
      "ćććććććć": 196,
      ")!": 197,
      "%&'(%&'(%&'(%&'(": 198,
      "ďĉďĉďĉ": 199,
      "&'(!!!!!!!!!!!!!!!!!!!!!!!!!!!!!!!!": 200,
      "Ĉ!ćĈ!Ĉ!": 201,
      "22222222": 202,
      "ććĈ": 203,
      "LL": 204,
      ")!)": 205,
      "ćĈ!Ĉ": 206,
      "Ĉ!Ĉ!Ĉ": 207,
      "ćććĈ!Ĉ!": 208,
      "ďĉďĉďĉ!": 209,
      "!!!!!!!!!!!!!!!!!!!!!!!!!!!!!!!!!!!!!!!!!!!!!!!!": 210,
      "MMMM": 211,
      "ďĉ!ďĉ": 212,
      "%&'(ďĉ": 213,
      "ćĈ!ćĈ!Ĉ!": 214,
      "ďĉďĉ!!": 215,
      "01": 216,
      "Ĉ!ĈĈĈ": 217,
      "ćĈĈĈ": 218,
      "%&'(%&'(%&'(%&'(%&'(%&'(%&'(%&'(": 219,
      "ďĉďĉďĉďĉďĉďĉďĉďĉ": 220,
      "Ĉ!ĈĈ": 221,
      "!!!!!!": 222,
      "!!!!!": 223,
      "44": 224,
      "55": 225,
      "66": 226,
      "88": 227,
      "ćĈĈĈĈ": 228,
      "ććĈ!Ĉ!": 229,
      "!!!!!!!!!!!": 230,
      "+/": 231,
      "+/,": 232,
      "+/,'(": 233,
      "%&'(ĉ": 234,
      "2222222222222222": 235,
      "!!!!!!!!!": 236,
      "%&-": 237,
      "!L": 238,
      "%!": 239,
      "!LK": 240,
      "ďĉ%&'(": 241,
      "ď%&'(ĉ": 242,
      "!!!!!!!": 243,
      "%!!!!!!!!!!!!!!!!": 244,
      "ďĉ!ďĉďĉďĉďĉ": 245,
      "Ĉ!ĈĈĈĈ": 246,
      "77": 247,
      "LLLL": 248,
      "ĈĈĈĈĈĈĈĈĈĈĈĈĈĈĈĈ": 249,
      "ďĉďĉďĉ!!": 250,
      "ćďĉ": 251,
      "ćĈ!ćć": 252,
      "!!!!!!!!!!!!!!": 253,
      "ćĈćĈćĈ": 254,
      "ďĉ!ďĉ!": 255,
      "Ĉ!Ĉ!Ĉ!Ĉ!Ĉ!Ĉ!": 256,
      "!!!!!!!!!!": 257,
      "!!!!!!!!!!!!!!!": 258,
      "Ĉ!Ĉ!ćĈ!Ĉ!": 259,
      "&'(ĉ": 260,
      "!!!!!!!!!!!!!": 261,
      "%ď": 262,
      "MMMMMMMM": 263,
      "Ĉ&'(": 264,
      "ćĈ!ććĈ": 265,
      "ćĈ!ćĈ": 266,
      "%ď&'(ĉ": 267,
      ")!)!!!!!!!!!!!!!!!!!!!!!!!!!!!!!!!!": 268,
      "-%&": 269,
      "ďĉďĉďĉďĉ!": 270,
      "%Ĉ&'(": 271,
      "23": 272,
      "!!!S": 273,
      "ĉĉ": 274,
      "ćďĉ!": 275,
      "ďĉďĉ%&'(": 276,
      "ćĈćĈćĈćĈ": 277,
      "ďĉćććć": 278,
      "ćććĈ": 279,
      "Ĉ!Ĉ!Ĉ!": 280,
      "%&-+/,'(": 281,
      "ĈćĈĈ": 282,
      "ćććććććććććććććć": 283,
      "'(3": 284,
      "ć%&'(": 285,
      "!LK!LK": 286,
      "Ĉ!ĈĈ!": 287,
      "ďď": 288,
      "Ĉ!Ĉ!Ĉ!Ĉ": 289,
      "ććććććĈ!": 290,
      "ďĉ!!!!!!!!!!!!!!!!!!!!!!!!!!!!!!!!": 291,
      "))": 292,
      "+01": 293,
      "4444": 294,
      "5555": 295,
      "6666": 296,
      "8888": 297,
      "ćĈ!Ĉ!Ĉ!": 298,
      "-%&+/,'(": 299,
      "ďĉďĉďĉ%&'(": 300,
      "-%&+/,'(-%&+/,'(": 301,
      "ćĈ!Ĉ!Ĉ": 302,
      "ćĈ!ććĈ!": 303,
      "ďĉ!!!!!!!!!!!!!!!!": 304,
      "%!&'(": 305,
      "ćĈ!ć": 306,
      "ććććĈ": 307,
      "ćĈ!Ĉ!Ĉ!Ĉ!Ĉ!Ĉ!": 308,
      "ďĉĉ": 309,
      "ďĉďĉ!!!": 310,
      "ďĉ!!ďĉ": 311,
      "ćĈĈĈĈĈ": 312,
      "ććĈ!Ĉ!Ĉ!Ĉ!": 313,
      "ćććććććĈ!Ĉ!": 314,
      "222222": 315,
      "'(7": 316,
      "ćĈ!ĈĈĈ": 317,
      "ďĉďĉďĉďĉďĉďĉ!": 318,
      "ĄĆ": 319,
      "ĂĄĆ": 320,
      "222": 321,
      "4%&": 322,
      "5222": 323,
      "6'(7": 324,
      "4%&5222": 325,
      "4%&52226'(7": 326,
      "2222224%&52226'(7": 327,
      "8,": 328,
      "2222224%&52226'(78,": 329,
      "%&-+01": 330,
      "ďďĉĉ": 331,
      "TV": 332,
      "ćĈĈćĈĈ": 333,
      "'(32222224%&52226'(78,": 334,
      "TVa": 335,
      "ďĉ!!!": 336,
      "%&-+01'(32222224%&52226'(78,": 337,
      "%&-+01'(32222224%&52226'(78,%&-+01'(32222224%&52226'(78,": 338,
      "Ĉ!ĈĈ!Ĉ": 339,
      "%Ĉ&'(!": 340,
      "ĈĈĈĈĈĈĈĈĈĈĈĈ": 341,
      "ďĉďĉďĉďĉďĉ": 342,
      "ććććĈ!": 343,
      "ďĉďĉďĉďĉďĉďĉ": 344,
      "%!!": 345,
      "!!!!R": 346,
      "Ĉ!Ĉ!ĈĈ": 347,
      "0101": 348,
      "ććĈ!Ĉ": 349,
      "%&-+/,'(%&-+/,'(": 350,
      "ćĈ!Ĉ!Ĉ!ćĈ!Ĉ!": 351,
      "ććć": 352,
      "LLLLLLLL": 353,
      "ďĉďĉ!!ďĉ": 354,
      "Ĉ!ćĈ!": 355,
      "ććĈ!Ĉ!Ĉ": 356,
      "ćĈ!Ĉ!Ĉ!Ĉ!": 357,
      "2323": 358,
      "!!!SĂĄĆ": 359,
      "ććĈ!ć": 360,
      "Ĉ!Ĉ!Ĉ!ćĈ!Ĉ!": 361,
      "ćĈ!ćĈ!ćĈ!ćĈ!": 362,
      "%&'(ďĉďĉ": 363,
      "222222222222222222222222": 364,
      "ď!": 365,
      ")!)!!!!!!!!!!!!!!!!": 366,
      "ććĈĈ": 367,
      "%!&'(!!!!!!!!!!!!!!!!!!!!!!!!!!!!!!!!": 368,
      "ćĈĈćĈ": 369,
      "ďĉ!!ďĉ!": 370,
      "MMMMMMMMMMMMMMMM": 371,
      "#$": 372,
      "ĈĈĈĈĈĈ": 373,
      "ďĉ!!!!!!!!!!!!!!!!!!!!!!!!!!!!!!!!!!!!!!!!!!!!!!!!": 374,
      "ĈĈ!": 375,
      "%ć": 376,
      "ďĉ!ďĉďĉ": 377,
      "ććĈĈĈ": 378,
      "ćĈ!ĈĈ": 379,
      "ďĉćć": 380,
      "ććĈ!ćć": 381,
      "ďĉďĉďĉďĉďĉďĉďĉ": 382,
      "%ĉ": 383,
      "ĈĈĈ!ĈĈĈ": 384,
      "ďĉďĉďĉďĉďĉďĉďĉ!": 385,
      "ĈĈĈĈĈĈĈĈĈ": 386,
      "ďĉ!!!!!!!!": 387,
      "%&'": 388,
      "Ĉ!ĈćĈ!Ĉ!": 389,
      "ďĉ!ďĉ!!": 390,
      "ćććĈ!Ĉ!Ĉ!Ĉ!Ĉ!Ĉ!": 391,
      "ĉ!": 392,
      "ď%ĉ": 393,
      ")!)!!": 394,
      "7777": 395,
      "ććććĈ!ćĈ!Ĉ!": 396,
      "%!!!": 397,
      "&'(!!!!!!!!!!!!!!!!": 398,
      "TVa!!!SĂĄĆ": 399,
      "ćďĉďĉ": 400,
      "ďĉ!%&'(": 401,
      "ćĈ!ćĈ!Ĉ!Ĉ!": 402,
      "011": 403,
      "&'(!": 404,
      "Ĉ!Ĉ!Ĉ!!": 405,
      "-%&+/,'(-%&+/,'(-%&+/,'(-%&+/,'(": 406,
      "ććĈ!Ĉ!Ĉ!Ĉ!Ĉ!Ĉ!": 407,
      "ďĉďĉćććć": 408,
      "ćĈ!ćĈ!Ĉ!Ĉ!ćĈ!Ĉ!": 409,
      "0011": 410,
      "ďĉ!ďĉďĉďĉ!": 411,
      "ćĈĈ!": 412,
      "ćććĈ!Ĉ!Ĉ!Ĉ!": 413,
      "!!!!!!!!!!!!!!!!!!!!!!!!!!!!!!!!!!!!!": 414,
      "ď'(": 415,
      "ďĉ!!!!!": 416,
      "&'(!!!!!!!!!!!!!!!!!!!!!!!!!!!!!!!!!!!!!!!!!!!!!!!!": 417,
      "!!!!!!!!!!!!!!!!!!!!!!!!!!!!!!!!!!!!!!": 418,
      "ćĈ!ćĈ!Ĉ": 419,
      "33": 420,
      "ćĈĈĈĈĈĈ": 421,
      "ćĈ!ćĈĈ": 422,
      "ďĉ!ďĉďĉ!": 423,
      "!!)!": 424,
      "%&'(!!!!!!!!!!!!!!!!!!!!!!!!!!!!!!!!": 425,
      "ĈĈĈĈ!": 426,
      "!LK!LK!LK!LK": 427,
      "%&ď'(": 428,
      "ćĈĈĈćĈĈ": 429,
      "ďĉďĉďĉ!ďĉďĉ!": 430,
      "#.": 431,
      "ď%ĉ&'(": 432,
      "$#$": 433,
      "ď(": 434,
      "Ĉ!ćĈ!Ĉ!Ĉ": 435,
      "ćĈ!ĈĈ!": 436,
      "ććĈ!ćĈ!ćĈ!": 437,
      "#..": 438,
      "!!!!R!!!S": 439,
      "Ĉ!ĈĈĈĈĈĈĈ": 440,
      "!!!!!!!!!!!!!!!!!!!!!!!!!!!!!!!!!!!!!!!": 441,
      "ććĈćć": 442,
      "ĈćĈĈćĈ": 443,
      "ććĈ!ććĈ!": 444,
      "$#$!!)!": 445,
      "%&-+/,'(#..": 446,
      "Ĉ!Ĉ!ĈĈĈ": 447,
      "%&'ď(": 448,
      "Ĉ!Ĉ!ĈĈ!Ĉ": 449,
      "ďĉďĉďĉďĉďĉďĉďĉďĉ!": 450,
      "ćĈĈćĈĈćĈćĈćĈ": 451,
      "ďĉ!ďĉďĉďĉ": 452,
      "ĈĈĈ!Ĉ!": 453,
      "ćććĈ!Ĉ!Ĉ!": 454,
      "ććććććĈ!ćĈĈ": 455,
      "ćĈ!ćĈ!ćĈ!ćĈ!ćĈ!Ĉ!": 456,
      "ĉĉĉĉ": 457,
      "ĈĈĈĈĈ": 458,
      "Ĉ!ĈĈćĈ": 459,
      "%&-+/,'(#..$#$!!)!": 460,
      "Ĉ!ĈćĈ!Ĉ!Ĉ!Ĉ": 461,
      "ćĈ!Ĉ!Ĉ!Ĉ!ćĈ!Ĉ!": 462,
      "Ĉ!ĈĈ!ĈĈĈ": 463,
      "ćććĈ!Ĉ!Ĉ!Ĉ": 464,
      "%ć&'(": 465,
      "Ĉ!Ĉ!Ĉ!Ĉ!Ĉ!Ĉ!Ĉ!Ĉ!": 466,
      "ćććććć": 467,
      "ćććććććććć": 468,
      "%!!&'(!!!!!!!!!!!!!!!!!!!!!!!!!!!!!!!!": 469,
      "ďĉ!ďĉ!ďĉ": 470,
      "%&-+/,'(#..$#$!!)!%&-+/,'(#..$#$!!)!": 471,
      "ćĉ": 472,
      "ďĉďĉďĉďĉďĉćććć": 473,
      "%&5555": 474,
      "44444444": 475,
      "5555222222222222222222222222": 476,
      "66666666": 477,
      "8888,": 478,
      "88888888,": 479,
      "%&55555555222222222222222222222222": 480,
      "44444444%&55555555222222222222222222222222": 481,
      "44444444%&5555555522222222222222222222222266666666": 482,
      "%&ď'(ĉ": 483,
      "%&'(ďĉ!!": 484,
      "ćĈ!ďĉ!": 485,
      "ćďĉďĉďĉ": 486,
      "%&-+/,'(%&-+/,'(%&-+/,'(%&-+/,'(": 487,
      "!!!!!!!!!!!!!!!!!!!!!": 488,
      "ďĉ!!!!": 489,
      "ďĉ!ďĉďĉ!!": 490,
      "!!!!!!!!!!!!!!!!!!!!!!!!!!!!!!!!!!!!!!!!!!!!!": 491,
      "ďĉďĉďĉďĉďĉ!!": 492,
      "(7": 493,
      "(788888888,": 494,
      "!!!!!!&'(!!!!!!!!!!!!!!!!!!!!!!!!!!!!!!!!": 495,
      "%!!!!!!!": 496,
      ")!!!!!!!!": 497,
      "ďĉ!!!!!!": 498,
      "!!!!!!!!!!!!!!!!!!!!!!!!!!!!!!!!!!!": 499,
      "%&'ď(ĉ": 500,
      "%&'(ďĉďĉďĉ!": 501,
      "2222222222222222222222222222222222222222": 502,
      "244444444%&5555555522222222222222222222222266666666": 503,
      "ćďĉ!ďĉ": 504,
      "(788888888,-%&": 505,
      "!!!!!!!!!!!!!!!!!!!!!!!!!!!!!!!!!!!!": 506,
      "ćĈĈĈĈĈĈĈĈ": 507,
      "ćĈćĈĈ": 508,
      "ć!": 509,
      "%!!!!!!!!": 510,
      "Ĉ!Ĉ!ćĈ!": 511,
      "Ĉ!ĈĈĈĈĈ": 512,
      "Ĉ!Ĉ!Ĉ!Ĉ!ĈćĈĈ": 513,
      "ćĈ!Č": 514,
      "ďĉďĉ!!!!": 515,
      "%&'(!": 516,
      "ćĈććĈ": 517,
      "Ĉ!ĈĈĈ!": 518,
      "ĈĈ!Ĉ!Ĉ!Ĉ!": 519,
      "!!!!!!!!!!!!!!!!!!!!!!!!!!!!!!!!!!": 520,
      "ćĈĈĈĈĈĈĈĈĈĈĈĈ": 521,
      "ćĈ!ćČ": 522,
      "Ĉ!ćĈ!ćĈ!": 523,
      "L!LK": 524,
      "!!!!!!!!!!!!!!!!!!!!!!!!!!!!!!!!!!!!!!!!!!": 525,
      "ďĉ!ďĉďĉďĉďĉďĉďĉďĉďĉ": 526,
      "ćĈ!ĈćĈ": 527,
      "ďĉďĉďĉć": 528,
      "ď%&'(ĉ!": 529,
      "ĈĈĈĈĈĈĈĈĈĈĈ": 530,
      "%!!!!!!!!!!!!!": 531,
      "TVa!!!SĂĄĆ!!!!R!!!S": 532,
      ")ďĉďĉ!": 533,
      "%!!!!": 534,
      "!!!!!!!!!!!!!!!!!!!!!!!!!!!!!!!!!!!!!!!!": 535,
      "%!!!!!": 536,
      "Ĉ!ććĈ!Ĉ!": 537,
      "ćĈ!ćĈ!ćĈ": 538,
      "ćĈ!ĈĈ!Ĉ!": 539,
      "%!!!!!!!!!!!!": 540,
      "!!!!!!!!!!!!!!!!!!!!!!!!!!!!!!!!!": 541,
      "ćććććĈ!ćĈĈ": 542,
      "'7777": 543,
      "ďĉ!!!!!!!!!!!": 544,
      "ćĈ!Ĉ!ćĈ!Ĉ!": 545,
      "ćĈ!Ĉ!ĈćĈ!Ĉ!": 546,
      "ććććĈ!Ĉ!": 547,
      "!!Č": 548,
      "ććććĈććĈ": 549,
      "%!!!!!!!!!!!": 550,
      "ćĈćĈćĈćĈćĈćĈćĈćĈ": 551,
      "%&'(ďĉďĉďĉďĉ": 552,
      "ćĈ!ćĈćĈćĈ": 553,
      "ćĈĈ!Ĉ!Ĉ": 554,
      "ćĈĈĈĈĈĈĈĈććĈ": 555,
      "ćĈ!ćĈ!ćĈ!ćĈ": 556,
      "ććĈ!ćććĈ!ćć": 557,
      "ććĈ!ćĈ!Ĉ": 558,
      "LLLLLLLLLLLLLLLL": 559,
      "ćĈ!ćĈ!Ĉ!ćĈĈ": 560,
      "%&'(ďĉďĉ!": 561,
      "!!!!!!!!!!!!!!!!!!!!!!!!!!!!!!!!!!!!!!!!!!!": 562,
      "ććĈ!ććććĈ": 563,
      "!!!!!!!!!!!!!!!!!!!!!!!!!!!!": 564,
      "Ĉ!ĈĈĈĈ!": 565,
      "ďĉ!!!!!!!!!!!!!!!!!!!": 566,
      "ćĈĈ!ćĈ!Ĉ!": 567,
      "ĈĈĈ!ĈĈĈććĈ!": 568,
      "ććććĈ!ĈĈ": 569,
      "ćĈĈĈĈ!Ĉ": 570,
      "ĈĈĈĈćĈĈĈĈ": 571,
      "ććĈććĈ!": 572,
      "ĈĈĈĈĈĈĈĈĈĈĈĈĈĈĈĈĈĈĈĈ": 573,
      "ćĈ!Ĉ!ććĈ!": 574,
      "ćĈćĈĈĈĈ": 575,
      "ć%&'(ďĉ": 576,
      "ďĉ!!ďĉďĉďĉďĉďĉďĉ!": 577,
      "ćććĈćĈ": 578,
      "ćĈ!ĈććĈĈĈ": 579,
      "Ĉ!ĈĈĈĈĈĈ": 580,
      "ćĈćĈćĈćĈćĈĈćĈĈćĈćĈćĈ": 581,
      "ĈćĈ!Ĉ!": 582,
      "ĈĈĈĈĈĈĈĈĈĈĈĈĈĈĈĈĈĈĈĈĈĈĈĈĈĈĈĈĈĈĈĈ": 583,
      "ćĈ!ĈĈ!Ĉ": 584,
      "!!!!!!!!!!!!!!!!!!!!!!!!!!!!!!!!!!!!!!!!!": 585,
      "ćĈ!ććĈćĈ!ćĈ": 586,
      "!!ćĈ!Ĉ!Ĉ!Ĉ!": 587,
      "ććĈĈććĈćć": 588,
      "Ĉ!ĈćĈ!Ĉ!Ĉ!ĈćĈ!ćć": 589,
      "ćĈ!ćĈ!ćĈ!ćĈ!Ĉ!": 590,
      "ćććĈ!Ĉ!ćĈ!Ĉ!": 591,
      "ďĉďĉďĉ!ďĉ": 592,
      "ććĈ!ćĈ!ććĈ!": 593,
      "ďĉ!)!)": 594,
      "!!!!!!!!!!!!!!!!!!!!!!!!!!!!!!!!!!!!!!!!!!!!!!!!!!!!!!!!!!": 595,
      "Ĉ!Ĉ!Ĉ!Ĉ!!": 596,
      "ĈĈĈĈĈĈćĈ!ććĈ": 597,
      "ćďĉďĉďĉďĉ!": 598,
      "!ďĉ": 599,
      "ĈĈĈĈĈĈĈĈĈĈĈĈĈĈ!Ĉ!Ĉ!Ĉ!": 600,
      "ďĉ!ďĉďĉďĉďĉ!!": 601,
      "ĈćĈĈćĈćĈĈĈćĈĈ": 602,
      "ććććććĈ!ćć": 603,
      "ďĉćĈ!Ĉ!": 604,
      "ĈĈĈĈĈĈĈĈĈĈ!ćĈ!Ĉ!": 605,
      "ćććĈĈ": 606,
      "ćĈ!ĈćĈćĈćĈ": 607,
      "ďďďď": 608,
      "ďĉ!ďĉ!!!!!!!!!!!": 609,
      "ďĉďĉďĉďĉďĉ!": 610,
      "%!!&'(": 611,
      "Ĉ!ĈĈ!ĈĈĈĈ!ĈĈ!Ĉ": 612,
      "ćĈ!Ĉ!Ĉ!ćĈĈćĈ": 613,
      "!!!!ďĉ!!": 614,
      "ďĉ!ďĉ!!!!!!": 615,
      "ććĈ!Ĉ!Ĉ!Ĉ!Ĉ!Ĉ!ćĈ": 616,
      "%ćĈ": 617,
      "ďĉ!!ďĉďĉ": 618,
      "ĈĈĈĈĈĈĈĈĈĈ!ĈĈ": 619,
      "Ĉ!ćĈ!Ĉ!ĈćĈĈĈ": 620,
      "ď!ĉ": 621,
      "ćććĈ!Ĉ!Ĉ!Ĉ!ĈĈĈĈĈĈĈĈĈĈ!ćĈ!Ĉ!": 622,
      "%!!!!!!!!!!!!!!": 623,
      "!!!!!!!!!!!!!!!!!!!!!!!!!!!!!!!!!!!!!!!!!!!!!!!!!!!!": 624,
      "&'(ďĉ": 625,
      "ććććććĈććĈ!": 626,
      "ćď": 627,
      "ćććććććććććććććććććććććć": 628,
      "%ć&": 629,
      "%!!!!!!!!!!": 630,
      "ďĉďĉ!ďĉ": 631,
      "ďĉďĉ!ďĉďĉďĉ!!": 632,
      "!!!!!!!!!!!!!!!!!!!!!!!!!!!!!!!!!!!!!!!!!!!!!!!!!!!!!!!": 633,
      "(788888888,-%&+01": 634,
      "Ĉ!Ĉ!Ĉ!ĈĈĈĈĈĈĈĈĈĈ!ĈĈ": 635,
      "ďĉ!!ďĉďĉ!!!": 636,
      "!!!!!!!!!!!!!!!!!!!!!!!!!!!!!!!!!!!!!!!!!!!!!!!!!!!!!!!!!": 637,
      "ćććććććĈ!Ĉ!Ĉ!ćĈ!Ĉ!": 638,
      "ĥĤ": 639,
      "Ĉ!Ĉ!ĈĈ!Ĉ!Ĉ!Ĉ!": 640,
      "%!!!&'(": 641,
      "%!!!&'(!!!!!!!!!!!!!!!!!!!!!!!!!!!!!!!!": 642,
      "ćććććććĈ!Ĉ!ććććććĈ!ćĈĈ": 643,
      "ćććĈ!Ĉ!Ĉ!Ĉ!ĈĈĈĈĈĈĈĈĈĈ!ćĈ!Ĉ!ĈćĈĈćĈćĈĈĈćĈĈ": 644,
      "!!!!!!!!!!!!!!!!!!!!!!!!!!!!!!!!!!!!!!!!!!!!": 645,
      "ďĉ!!ďĉďĉďĉ": 646,
      "%!!!!!!!!!!!!!&'(!!!!!!!!!!!!!!!!!!!!!!!!!!!!!!!!": 647,
      "Ĉ!!": 648,
      "MMMMMMMMMMMMMMMMMMMMMMMMMMMMMMMM": 649,
      "Ĉ!ĈćĈ!": 650,
      "%!!!!!!!!!!!!!!!": 651,
      "Ē!!": 652,
      "ďĉďĉďĉďĉ!!": 653,
      "ďĉćććććććć": 654,
      "ćĈ!ĈćĈĈ": 655,
      "ććĈ!ćďĉ": 656,
      "%ď&'(ĉ!": 657,
      "ďĉďĉ!ďĉďĉ": 658,
      "ďĉĈ!ĈĈĈĈĈĈĈ": 659,
      "Ĉ!Ĉ!Ĉ!ĈĈĈĈĈĈĈĈĈĈ!ĈĈĈ!ĈĈ!ĈĈĈĈ!ĈĈ!Ĉ": 660,
      "%!!!!!!!!!": 661,
      "Ĉ(": 662,
      "Ĉ!ĉ": 663,
      "ćććĈ!": 664,
      "ĖĖ": 665,
      "%&'(ďĉĈ!Ĉ!Ĉ!Ĉ!": 666,
      ")!!!!!!!!)!": 667,
      "ĈĈ!Ĉ": 668,
      "ďĉďĉ!ďĉ!": 669,
      "ďĉĈ!Ĉ!Ĉ!Ĉ!": 670,
      "ďĉďĉďĉďĉ!ďĉďĉ": 671,
      "!!!!!!!!!!!!!!!!!!!!!!!!!!!!!!!!!!!!!!!!!!!!!!": 672,
      "ďĉďĉďĉďĉďĉ%&'(": 673,
      "!!!!!!!!!!!!!!!!!!!!!!!!!!!!!!!!!!!!!!!!!!!!!!!!!!": 674,
      "Ĉ'(": 675,
      "!!!!!!!!!!!!!!!!!!!!!!!!!!!!!!!!!!!!!!!!!!!!!!!!!": 676,
      "%&'(ďĉ!": 677,
      "322": 678,
      "ćĈĈĈĈĈćĈĈĈĈĈ": 679,
      "ććĈ!Ĉ!Ĉ!Ĉ": 680,
      "!!!!!!!!!!!!!!)!)!!!!!!!!!!!!!!!!!!!!!!!!!!!!!!!!": 681,
      "ďĉď%&'(ĉ": 682,
      "ďĉ!ďĉďĉďĉďĉ!": 683,
      "ćććććććććććć": 684,
      "ďĉďĉ!ďĉ!!": 685,
      "01'(3": 686,
      "ćććĈ!Ĉ!Ĉ!Ĉ!Ĉ!Ĉ!ćććććĈ!ćĈĈ": 687,
      "%!!!!!!!!&'(!!!!!!!!!!!!!!!!!!!!!!!!!!!!!!!!": 688,
      "!!!!!!!!!!!!!!!!!!!!!!!!!!!!!!!!!!!!!!!!!!!!!!!!!!!!!!!!": 689,
      "ďĉďĉďĉďĉďĉ)!)": 690,
      "%!!!!!!!!!!!!!!!!!": 691,
      "%!!!!!!!!!!!!!!!!!!": 692,
      "ďĉďďĉĉ": 693,
      "ćććććĈ!Ĉ!Ĉ!ćĈĈćĈ": 694,
      "%&'(ďĉćć": 695,
      ")!)!": 696,
      "!LK!LK!LK!LK!LK!LK!LK!LK": 697,
      "ćĈ!ĈĈ!ĈĈĈ": 698,
      "232222222222222222222222222222222222222222": 699,
      "AA": 700,
      ")!!!!!!!!)!)!)!!!!!!!!!!!!!!!!!!!!!!!!!!!!!!!!": 701,
      "ďĉďĉďĉďĉďĉďĉďĉďĉďĉďĉ": 702,
      "ďĉ!!!!!!!!!!!!!!": 703,
      "%!!!!!!!!!!!&'(!!!!!!!!!!!!!!!!!!!!!!!!!!!!!!!!": 704,
      "Ĉ!Ĉ!ĈĈ!Ĉ!": 705,
      "%&'(ďĉďĉďĉ": 706,
      "Ĉ!ĈĈ!Ĉ!Ĉ!Ĉ!": 707,
      "%!!!!!!!!!!!!&'(!!!!!!!!!!!!!!!!!!!!!!!!!!!!!!!!": 708,
      "%!!!!!!!!!!!!!!!!!!!!!!&'(!!!!!!!!!!!!!!!!!!!!!!!!!!!!!!!!": 709,
      "ďĉ!!!!!!!!!!!!!!!!!!!!!!!!!!!!!!!!!!!!!!!!!!!!!!!!!!!!": 710,
      "!!!!!!!!!!!!!!!!!!!!!!!!!!!!!!!!!!!!!!!!!!!!!!!": 711,
      "ďĉďĉďĉďĉďĉďĉ%&'(": 712,
      "%!!!!!!!!!!!!!!!!!!!": 713,
      "Ĉ!ćć": 714,
      "ďĉ!!!!!!!!!!!!": 715,
      "ďĉďĉďĉ!!ďĉďĉ": 716,
      "32323": 717,
      "ć(": 718,
      "!!!!!!!!!!!!!!!!!!!!!!!!!!!!!!!!!!!!!!!!!!!!!!!!!!!!!!!!!!!": 719,
      "ćĈ!ďĉ": 720,
      "ćĈ!ćĈ!Ĉ!ĈćĈ!Ĉ!": 721,
      "%!!!!!!!!!!!!!!!&'(!!!!!!!!!!!!!!!!!!!!!!!!!!!!!!!!": 722,
      "Ĉ!Ĉ!ĈĈ!": 723,
      "ďĉ!ďĉ!!!": 724,
      "&'(!!!!": 725,
      "ćĈ!ĈĈĈĈ": 726,
      "%!!!!!!!!!!!!!!&'(!!!!!!!!!!!!!!!!!!!!!!!!!!!!!!!!": 727,
      "%&'(ďĉďĉďĉďĉďĉďĉďĉďĉ": 728,
      "%&'(ďĉ!!!": 729,
      "Ĉ!Ĉ!Ĉ!Ĉ!ĈćĈĈĈ!ĈĈĈ": 730,
      "ďĉ!!!!!!!!!!!!!!!!!!": 731,
      "ć!!": 732,
      "Ĉ!ĈĈĈ!Ĉ!Ĉ": 733,
      ")!)!!!!!!!!!!!!!!!!!!!!": 734,
      "ďĉďĉ!ďĉďĉćććć": 735,
      "ććććĈćĈ": 736,
      "%!!!!!!&'(!!!!!!!!!!!!!!!!!!!!!!!!!!!!!!!!": 737,
      "Čďĉ": 738,
      "!!!!!!!!!!!!!!!!!!!!": 739,
      "ďĉďĉ!ďĉďĉ%&'(": 740,
      "ććĈ!Ĉ!Ĉ!ćĈ!": 741,
      "777": 742,
      "ďĉ!!ďĉ!!!!!!!!!!!": 743,
      "ďĉď": 744,
      "ćĈ!Ĉ!Ĉ!Ĉ!Ĉ!": 745,
      "Ĉ!ćĈ!Ĉ!Ĉ!ćĈ!Ĉ!": 746,
      "ďĉďĉďĉďĉćććć": 747,
      "Čďĉďĉ": 748,
      "Ĉ!Ĉ!Ĉ!ĈĈĈ": 749,
      "Ĉ!Ĉ!Ĉ!Ĉ!Ĉ!Ĉ": 750,
      "ćĈĈĈćĈ": 751,
      "ććććĈ!ĈĈ%&'(ďĉ": 752,
      "ćĈ!ĈćĈ!Ĉ!": 753,
      "%!Ĉ&'(": 754,
      "Ĉ!ďĉďĉ!": 755,
      "RTVa": 756,
      "ććĈ!ĈĈ!": 757,
      "!!!!!!!!!!!!!!!!!!!!!!!!!!!!!!!!!!!!!!!!!!!!!!!!!!!!!": 758,
      "ďĉććĈ!": 759,
      "%&'(%&'(%&'(": 760,
      "ďĉďĉ)": 761,
      "ćĈ!Ĉ!ĈĈ": 762,
      ")!)!!!!!!!!": 763,
      "ćĈ!Ĉ!ĈćĈ!": 764,
      "%!!!!!!!!!!!!!!!!!!&'(!!!!!!!!!!!!!!!!!!!!!!!!!!!!!!!!": 765,
      "Ĉ(!": 766,
      "ćĈ!Ĉ!!": 767,
      "Ĉ!Ĉ!ĈĈĈ!": 768,
      "!!!ďĉďĉďĉďĉ": 769,
      ")!)!!!!!!!!!": 770,
      "%&'(!!!!!!!!!!!!!!!!": 771,
      "ďĉ!!ďĉ!ďĉďĉ!": 772,
      "ććććććććććććĈ!": 773,
      "!!!!!!!!!!!!!!!!!!!!!!!!!!!!!!!!!!!!!!!!!!!!!!!!!!!": 774,
      "ĈĈĈĈĈ!": 775,
      "ćďĉ%&'(": 776,
      "Ĉ!Ĉ!Ĉ!Ĉ!ĈĈĈĈ": 777,
      "ćĈćĈćĈ!Ĉ!": 778,
      "ćĈ!ćĈ!ćďĉďĉďĉďĉ!": 779,
      "%!!!!!!!!!!!!!!!!&'(!!!!!!!!!!!!!!!!!!!!!!!!!!!!!!!!": 780,
      "ćććĈćć": 781,
      "Ĉ!ćĈ!Ĉ!Ĉ!Ĉ!Ĉ!!": 782,
      "ććĈ!ćďĉďĉďĉďĉďĉďĉďĉďĉ": 783,
      "Ĉ!ćĈ!ĈćĈ": 784,
      "%!!!!&'(!!!!!!!!!!!!!!!!!!!!!!!!!!!!!!!!": 785,
      "00011": 786,
      "ďĉ%ď&'(ĉ": 787,
      "Ĉ!Ĉ!Ĉ!Ĉ!Ĉ!Ĉ!Ĉ": 788,
      "Ĉ!ĈĈ!Ĉ!Ĉ!Ĉ": 789,
      "Ĉ!ććĈĈ": 790,
      "Ĉ!Ĉ!ćĈĈ": 791,
      "%!!!!!!!!!!!!!!!!!&'(!!!!!!!!!!!!!!!!!!!!!!!!!!!!!!!!": 792,
      "Ē!": 793,
      "ČČ": 794,
      "ćĈćĈ!ćĈ": 795,
      "ďĉ!!!!!!!!!!!!!!!!!!!!!!!!!!!!!!!!!!!": 796,
      "%!!!!!!!!!!!!!!!!!!!&'(!!!!!!!!!!!!!!!!!!!!!!!!!!!!!!!!": 797,
      "Ĉ!ďĉďĉ": 798,
      "ćĈ!Ĉ!ćĈ": 799,
      "%!!!!!!": 800,
      "Ĉ'(!": 801,
      "%ćĈ&'(!": 802,
      "ďĉďĉďĉ!!ďĉ!": 803,
      "ďĉ!!ďĉ!!!!!!!!": 804,
      "%!!!!!!!!!!!!!!!!!!!!": 805,
      "ďĉďĉ!!!!!!!!!!!!!!!!!!!!!!!!!!!!!!!!": 806,
      "Ĉ!Ĉ!ćĈ!ĈĈ!": 807,
      "Ĉ!ĈĈĈ!ĈĈ": 808,
      "ďĉďĉ!!ďĉ!!!!": 809,
      "Ĉ!%&'(ďĉďĉďĉ!": 810,
      "ćĈĈĈććĈ": 811,
      "ćĈĈĈĈĈćĈ": 812,
      "Ĉ!ďĉ!ďĉďĉďĉďĉ": 813,
      "ďĉ!!!ćććć": 814,
      "ćĈććć": 815,
      "Ĉ!ĈććĈ": 816,
      "RTVa!!!SĂĄĆ!!!!R!!!S": 817,
      "Ĉ!Ĉ!ĈĈĈĈĈĈ": 818,
      "ćĈ!ćĈĈĈ": 819,
      "Ĉ!Ĉ!Ĉ!ĈĈ!Ĉ": 820,
      "%!!!!!&'(!!!!!!!!!!!!!!!!!!!!!!!!!!!!!!!!": 821,
      ")!!!!!!!!!!!!!!!!!!!!!!!!!!!!!!!!": 822,
      "ďĉďĉ!!ďĉ!ďĉ!!": 823,
      "%!!!!!!!&'(!!!!!!!!!!!!!!!!!!!!!!!!!!!!!!!!": 824,
      "ć%Ĉ&'(!": 825,
      "!!ćććć": 826,
      "Ĉ!Č": 827,
      "ćĈ!ćĈ!ćĈ!Ĉ!": 828,
      "ćĈĈććĈĈĈ": 829,
      "ććĈ!ćĈĈ": 830,
      "ćĈćĈćĈćĈćĈ": 831,
      "Ĉ!ďĉďĉ!ďĉćććć": 832,
      "ćĈĈĈććĈĈĈ": 833,
      "ćććĈććĈ": 834,
      "ĈĈ!ććĈ!Ĉ!": 835,
      "ćććĈ!ćĈ!": 836,
      "ďĉććććĈ!ćĈ!ćĈ!": 837,
      "ććĈ!Ĉ!Ĉ!Ĉ!Ĉ!ďĉďĉ!ďĉćććć": 838,
      "ćĈ!ćĈ!ćĈ!ćĈ!ćĈ!ćĈćĈćĈ": 839,
      "ćĈ!ćĈ!ĈĈ!Ĉ!": 840,
      "ćĈ!ćĈ!ćĈ!ćĈćĈ!ćĈ!Ĉ!": 841,
      "ČďĉćĈ!ćĈ!ćĈ!ćĈćĈ!ćĈ!Ĉ!": 842,
      "ĈĈ!ććĈ!Ĉ!ČďĉćĈ!ćĈ!ćĈ!ćĈćĈ!ćĈ!Ĉ!": 843,
      "ďĉććććĈ!ćĈ!ćĈ!ĈĈ!ććĈ!Ĉ!ČďĉćĈ!ćĈ!ćĈ!ćĈćĈ!ćĈ!Ĉ!": 844,
      "ććĈ!Ĉ!Ĉ!Ĉ!Ĉ!ďĉďĉ!ďĉćććććĈ!Ĉ!Ĉ!Ĉ!Ĉ!Ĉ!": 845,
      "ćĈ!ćĈ!ćĈ!ćĈ!ćĈ!ćĈćĈćĈďĉďĉ!": 846,
      "ćććĈ!ćĈ!ćĈ!ćĈ!ćĈ!ćĈćĈćĈďĉďĉ!": 847,
      "Ĉ!ĈĈĈćĈ!ćĈĈĈ": 848,
      "ďĉďĉďĉďĉďĉććććĈ!ćĈ!ĈćĈ": 849,
      "Ĉ!Ĉ!Ĉ!Ĉ!ĈćĈĈćĈĈĈĈĈ": 850,
      "ďĉććććĈ!ćĈ!ćĈ!ĈĈ!ććĈ!Ĉ!ČďĉćĈ!ćĈ!ćĈ!ćĈćĈ!ćĈ!Ĉ!ććĈ!ĈĈ!": 851,
      "ćĈ!Ĉ!ĈĈĈĈĈĈ": 852,
      "ďĉďĉďĉďĉĈ!ĈĈĈćĈ!ćĈĈĈ": 853,
      "Ĉ!ćĈ!Ĉ!ĈĈĈ!ĈĈĈććĈ!": 854,
      "ććĈćĈćĈćĈ": 855,
      "ćĈ!ćććĈ!ćć": 856,
      "Ĉ!ĈĈ!ććĈ!Ĉ!Ĉ": 857,
      "ćĈ!ććĈ!ćĈ!ććĈ!": 858,
      "ćććććććĈ!Ĉ!Ĉ!Ĉ!Ĉ!ćĈ!Ĉ!": 859,
      "ćďĉ!ďĉćććĈ!ćĈ!ćĈ!ćĈ!ćĈ!ćĈćĈćĈďĉďĉ!": 860,
      "ďĉďĉďĉďĉďĉććććĈ!ćĈ!ĈćĈĈ!Ĉ!Ĉ!Ĉ!ĈćĈĈćĈĈĈĈĈ": 861,
      "ĈĈćĈćĈćĈ!Ĉ!": 862,
      "Ĉ!Ĉ!ĈĈĈĈ": 863,
      "ććĈ!Ĉ!ĈĈĈ!Ĉ!": 864,
      "ććĈ!Ĉ!ĈćĈĈĈććĈĈĈ": 865,
      "ćććććććĈ!ćĈ!Ĉ!": 866,
      "ćĈ!Ĉ!ććĈ!ĈĈćĈćĈćĈ!Ĉ!": 867,
      "ćĈĈĈĈĈćĈĈĈĈĈćĈ!ĈĈĈ": 868,
      "Ĉ!Ĉ!ĈĈĈĈĈĈćĈ!ĈĈĈ": 869,
      "ďĉććććĈ!ćĈ!ćĈ!ĈĈ!ććĈ!Ĉ!ČďĉćĈ!ćĈ!ćĈ!ćĈćĈ!ćĈ!Ĉ!ććĈ!ĈĈ!ćĈĈ!Ĉ!Ĉ": 870,
      "ććĈ!Ĉ!ĈĈĈ!Ĉ!Ĉ!ĈĈćĈ": 871,
      "ćĈ!Ĉ!ććĈ!ĈĈćĈćĈćĈ!Ĉ!ĈćĈĈ": 872,
      "ĈĈĈĈĈĈĈĈĈĈĈĈĈĈĈĈĈĈĈĈĈĈĈĈĈĈĈ": 873,
      "ććĈ!ćĈ!ćĈ!ćĈ!ćĈćĈćĈ": 874,
      "ćĈ!ćĈ!Ĉ!ćĈĈćĈ!Ĉ!ććĈ!ĈĈćĈćĈćĈ!Ĉ!ĈćĈĈ": 875,
      "ďĉďĉďĉ!!ďĉ!ććĈ!Ĉ!Ĉ!Ĉ!Ĉ!ďĉďĉ!ďĉćććććĈ!Ĉ!Ĉ!Ĉ!Ĉ!Ĉ!": 876,
      "ćďĉ!ďĉćććĈ!ćĈ!ćĈ!ćĈ!ćĈ!ćĈćĈćĈďĉďĉ!ćććććććĈ!Ĉ!Ĉ!Ĉ!Ĉ!ćĈ!Ĉ!": 877,
      "ĈĈĈĈĈĈĈĈĈ!Č": 878,
      "ćĈĈĈććĈ!Ĉ!": 879,
      "ĈĈĈĈĈĈĈĈĈĈĈĈĈĈĈĈĈĈ!": 880,
      "ćĈ!ĈĈĈĈ!ĈĈ!Ĉ": 881,
      "ććĈ!ććĈ!ĈĈ!ććĈ!Ĉ!Ĉ": 882,
      "ďĉ!)!)!!!!!!!!!!!!!!": 883,
      "ćĈ!Ĉ!ĈĈĈĈĈĈććĈ!ćďĉ": 884,
      ")!!!!!!!!!!!!!!!": 885,
      "ćĈ!ćććĈ!Ĉ!Ĉ!": 886,
      "ćĈ!Ĉ!ćĈĈ": 887,
      "ćĈ!ćĈ!ćĈ!Ĉ!Ĉ!": 888,
      "ććććĈ!ććĈ!ć": 889,
      "ććĈĈćĈĈĈ": 890,
      "ćĈ!ćĈ!Ĉ!Ĉ!ćĈ!ćĈ!Ĉ!ćĈĈćĈ!Ĉ!ććĈ!ĈĈćĈćĈćĈ!Ĉ!ĈćĈĈ": 891,
      "!!Č!": 892,
      "ĈĈĈĈĈĈĈĈĈĈĈĈĈĈĈĈĈĈĈĈĈĈĈ": 893,
      "Ĉ!ćććĈ!ććĈ!": 894,
      "ćććĈćććĈĈćĈ": 895,
      "ććĈćĈćĈćĈćĈ!": 896,
      "ćććććććĈ!ćĈ!Ĉ!Ĉ!Ĉ!Ĉ!ćĈ!Ĉ!": 897,
      "ććĈ!ćĈ!ććĈ": 898,
      "ććĈ!ĈĈĈĈĈ!": 899,
      "ćććĈĈ!Ĉ!": 900,
      "Ĉ!Ĉ!Ĉ!ćĈĈĈććĈ": 901,
      "ćĈ!ĈĈĈćć": 902,
      "ēē": 903,
      "ćĈ!ććććććĈ!": 904,
      "ćĈ!Ĉ!Ĉ!Ĉ!Ĉ!Ĉ!Ĉ!Ĉ!": 905,
      "ćĈ!ćĈ!ććĈ": 906,
      "Ĉ!ćĈ!ćĈĈĈĈ!Ĉ": 907,
      "ćĈ!ćĈ!ĈĈ!ćĈ!Ĉ!ĈĈĈ!ĈĈĈććĈ!": 908,
      "ĈĈĈĈ!ććĈ": 909,
      "Ĉ!%&'(ďĉďĉďĉ!))": 910,
      "ďĉďĉďĉďĉďĉććććĈ!ćĈ!ĈćĈĈ!Ĉ!Ĉ!Ĉ!ĈćĈĈćĈĈĈĈĈĈ!%&'(ďĉďĉďĉ!))": 911,
      "Ĉ!ćććĈ!ććĈ!ćĈ!ĈĈĈćć": 912,
      "!!ďĉ!!!!!!": 913,
      "Ĉ!Ĉ!Ĉ!Ĉ!ĈĈĈĈĈĈĈĈĈ!Č": 914,
      "Ĉ!Ĉ!Ĉ!Ĉ!Ĉ!Ĉ!ĈĈĈ!Ĉ!": 915,
      "ďĉ!!!ćććĈ": 916,
      "Ĉ!ĈĈĈ!ĈĈĈĈĈĈĈĈĈĈĈĈĈĈĈĈĈĈ!": 917,
      "ććććĈćĈććĈ!": 918,
      "ďĉďĉďĉďĉďĉ!!ďĉ": 919,
      "Ĉ!Ĉćć": 920,
      "ććććććććĈ!": 921,
      "Ĉ!ĈĈĈĈ!Ĉ": 922,
      "ććĈ!Ĉ!Ĉ!Ĉ!Ĉ": 923,
      "ććĈ!ćďĉďĉďĉďĉ": 924,
      "ďĉ!!ďĉ!ććĈ!": 925,
      "ďĉććĈĈĈĈĈ": 926,
      "&'(!!!!!!!!!!!!!!!!!!!!!!": 927,
      "ććĈ!ćććĈ!ćććĈ!ćććĈ!Ĉ!Ĉ!": 928,
      "ćĈ!Ĉ!!Ĉ!ćĈ!ćĈ!": 929,
      "ćĈĈĈććĈ!Ĉ!ććĈ!ćć": 930,
      "ćĈćĈćĈĈĈćĈ": 931,
      "ćććĈ!Ĉ!Ĉ": 932,
      "ćĈ!ćĈ!!": 933,
      "Ĉ!ĈĈ!ĈĈĈĈĈĈĈĈĈĈĈĈĈĈĈĈĈĈĈĈĈĈĈĈĈĈĈ": 934,
      "ďĉ!!!!!ćĈ!Ĉ": 935,
      "ćććććććĈ!ćĈ!Ĉ!Ĉ!Ĉ!Ĉ!ćĈ!Ĉ!ćĈććĈ": 936,
      "ćĈ!Ĉ!ććĈ": 937,
      "ćĈćĈ!ććĈ": 938,
      "Ĉ!ĈĈĈ!ĈĈĈĈ": 939,
      "!!!!!!!!!!!!!!!ďĉ!!!!!!!!!!!!!!!!!!!!!!!!!!!!!!!!": 940,
      "ćĈćĈĈĈ!Ĉ": 941,
      "ćĈ!ćĈ!Ĉ!ćĈĈćĈ!Ĉ": 942,
      "Ĉ!ĈĈĈĈ!ĈĈĈĈĈĈĈĈ": 943,
      "ćĈćĈĈĈĈĈĈĈ": 944,
      "Ĉ!Ĉ!Ĉ!ĈĈĈĈĈĈĈĈĈĈ!ĈĈĈ!ĈĈ!ĈĈĈĈ!ĈĈ!ĈďĉĈ!ĈĈĈĈĈĈĈ": 945,
      "Ĉ!Ĉ!Ĉ!ćĈĈĈććĈĈ!ćććĈ!ććĈ!ćĈ!ĈĈĈćć": 946,
      "ćĈ!ććććććĈ!ćĈ!ććĈ": 947,
      "Ĉ!Ĉ!Ĉ!Ĉ!ćĈ!": 948,
      "ćĈĈĈ!Ĉ!ćĈ!Ĉ!": 949,
      "ĈĈĈĈĈĈĈĈĈĈĈĈĈĈĈĈĈĈĈĈĈĈĈĈ": 950,
      "ćććĈććććĈććĈ": 951,
      "ćĈĈćĈĈćĈĈĈĈĈćĈ": 952,
      "ďĉ!ďĉďĉ!!!!!!!!!!!!!!!!!!!!!!!!!!!!": 953,
      "ććĈ!ććććĈćĈćĈćĈ": 954,
      "ĈĈ!ĈććĈ!Ĉ!Ĉ": 955,
      "Ĉ!Ĉ!ĈĈ!Ĉ!Ĉ!ĈĈĈĈ": 956,
      "ČďĉďĉććĈ!ćĈ!ćĈ!ćĈ!ćĈćĈćĈ": 957,
      "ćĈ!Ĉ!!Ĉ!ćĈ!ćĈ!ććĈ!Ĉ!": 958,
      "!!!!!!!!!!!!!!!!!!!!!!!!!!!": 959,
      "ćććďĉ": 960,
      "ďĉďĉ!ďĉ%&'(": 961,
      "Ĉ!Ĉ!ĈĈ!Ĉ!ĈĈĈ": 962,
      "Ĉ!Ĉ!ĈĈ!Ĉ!ĈĈ!Ĉ": 963,
      "Ĉ!ĈĈĈĈ!ĈĈĈĈ": 964,
      "ďĉ!ďĉďĉďĉďĉďĉďĉďĉ": 965,
      "ććććĈ!ćććĈććĈ": 966,
      "ćććĈćććĈĈćĈćĈ!Ĉ!": 967,
      "Ĉ!Ĉ!Ĉ!Ĉ!ĈĈĈĈĈĈĈĈĈ!Čďĉ!": 968,
      "ďćĉ": 969,
      "Ĉ!ĈĈ!Ĉ!ćĈ!": 970,
      "ďĉďĉďĉ!!ďĉ": 971,
      "ććĈ!Ĉ!Ĉ!Ĉ!Ĉ!ĈĈ!": 972,
      "ćĈ!ĈĈĈ!!ćććć": 973,
      "ććĈ!ĈććććĈ": 974,
      "ćĈĈĈćĈĈćććć": 975,
      "ćććĈ!Ĉ!Ĉ!ććĈ": 976,
      "%!!!!!!!!!!&'(!!!!!!!!!!!!!!!!!!!!!!!!!!!!!!!!": 977,
      "ćĈ!Ĉ!ĈĈĈĈĈĈććĈ!ćďĉ!!!!!!!!": 978,
      "ććĈĈĈĈćĈĈĈĈ": 979,
      "&'(ćďĉ!ďĉćććĈ!ćĈ!ćĈ!ćĈ!ćĈ!ćĈćĈćĈďĉďĉ!ćććććććĈ!Ĉ!Ĉ!Ĉ!Ĉ!ćĈ!Ĉ!": 980,
      "ćĈĈ!Ĉ!Ĉ!Ĉ!": 981,
      "ćĈ!ĈćĈ!ććĈ": 982,
      "!!!!!!!!!!ďĉ!!!!!!": 983,
      "Ĉ!Ĉ!ćĈ!Ĉ!ĈĈĈ": 984,
      "ćĈĈćĈĈćĈ!ćććĈ!ćć": 985,
      "!!Č!!Č!": 986,
      "ćĈćĈćĈćĈćĈćĈćĈćĈćĈćĈćĈćĈ": 987,
      "ććĈ!ćĈ!ĈĈ!ćĈ!Ĉ!": 988,
      "&'(ďĉ))": 989,
      "Ĉ!ććĈĈććĈ!ćĈĈ": 990,
      "Ĉ!ĈĈĈĈ!ĈĈ!ĈĈĈĈ": 991,
      "ďĉ!!!!!ćĈ!ĈćĈ!ćĈ!ĈĈ!ćĈ!Ĉ!ĈĈĈ!ĈĈĈććĈ!": 992,
      "Ĉ!ćĈ!Ĉ!Ĉ!Ĉ!Ĉ!Ĉ!": 993,
      "ćĈĈĈĈ!Ĉ!ćĈ!Ĉ!": 994,
      "ćĈĈĈĈ!Ĉ!ćĈ!": 995,
      "ćĈĈĈćĈ!ĈĈĈĈ": 996,
      "ćĈćĈćĈćĈĈĈ": 997,
      "ďĉ!!!!!!!!!!!!!!!!!!!!!!!!!!!!!!!!!!!!!!!!!!!!!!!!!!!!!!!!!": 998,
      "ćĈ!ĈĈćĈ!ćĈ!Ĉ!Ĉ!ćĈ!ćĈ!Ĉ!ćĈĈćĈ!Ĉ!ććĈ!ĈĈćĈćĈćĈ!Ĉ!ĈćĈĈ": 999,
      "ććĈ!ćĈ!ćĈ!ĈćĈĈ": 1000,
      "ćĈĈćĈĈćĈćĈćĈććĈćĈćĈćĈćĈ!": 1001,
      "ćĈ!ćĈ!ćĈ!ćĈ!ćĈ!Ĉ!ćĈ!ćĈ!Ĉ!ćĈĈćĈ!Ĉ": 1002,
      "ćĈ!ĈĈ!Ĉ!ďĉ!ďĉ!": 1003,
      "ćĈććĈ!ćĈ!ćĈ!ĈćĈĈ": 1004,
      "ććĈ!Ĉ!Ĉ!ććĈ!Ĉ!": 1005,
      "ďĉ!!!!!ďĉ!)!)!!!!!!!!!!!!!!": 1006,
      "Ĉ!Ĉ!ĈĈ!ĈĈ!Ĉ!ĈĈ": 1007,
      "ććĈ!ćććĈ!ćććĈ": 1008,
      "ćććĈ!Ĉ!ćĈ!Ĉ!ĈĈĈĈ!ććĈ": 1009,
      "ćĈććć!!": 1010,
      "ćććĈććććĈććĈććććĈććĈ": 1011,
      "ćĈ!Ĉ!Ĉ!Ĉ!Ĉ!Ĉ": 1012,
      "Ĉ!ĈĈĈ!Ĉ!Ĉ!Ĉ!Ĉ!Ĉ!Ĉ!Ĉ!": 1013,
      "ćĈćĈćĈćĈćĈćĈćĈćĈćĈ": 1014,
      "ććĈ!ĈććĈ!Ĉ!": 1015,
      "Ĉ!ĈĈĈĈĈĈĈĈ!ĈĈĈĈĈ": 1016,
      "ĈĈĈĈĈćĈćĈ": 1017,
      "Ĉ!ĈĈ!ĈĈĈĈĈĈĈĈĈĈĈĈĈĈĈĈĈĈĈĈĈĈĈĈĈĈĈĈ!Ĉ!Ĉ!Ĉ!ĈĈĈĈĈĈĈĈĈ!Čďĉ!": 1018,
      "ďĉďĉďĉďĉďĉ!ďĉ": 1019,
      "ććĈ!ćĈ!Ĉ!Ĉ!ćĈ!Ĉ!": 1020,
      "ćććĈ!Ĉ!ćććĈĈ": 1021,
      "ćĈ!ćććĈ!ććĈ": 1022,
      "Ĉ!Ĉ!ĈĈćĈ!Ĉ!": 1023,
      "ććĈ!ĈćĈćĈ": 1024,
      ")!!!!!!!!)": 1025,
      "Ĉ!ĈĈĈĈĈĈĈ!Ĉ!Ĉ!ĈĈ!Ĉ": 1026,
      "Ĉ!Ĉ!ĈĈ!Ĉ!Ĉ!!": 1027,
      "ćĈĈĈĈĈćĈĈćĈ": 1028,
      "Ĉ!ĈĈ!ĈĈ!ĈĈĈ!ĈĈĈĈ": 1029,
      "ćĈ!Ĉ!Ĉ!Ĉ!ćĈ!ćć": 1030,
      "ĈĈĈĈĈĈĈĈĈĈĈĈ!Ĉ!": 1031,
      "!&'(ďĉ))": 1032,
      "ćććĈĈĈĈĈ": 1033,
      "ćĈ!ćĈ!Ĉ!ćĈ!Ĉ": 1034,
      "ććĈ!Ĉ!Ĉ!Ĉ!ćĈĈĈ!Ĉ!ćĈ!Ĉ!": 1035,
      "ććććĈ!ććĈ!ćććĈ!ćććĈ": 1036,
      "Ĉ!ćĈ!ďĉ!!!!!!!!": 1037,
      "ćĈ!ĈĈĈ!ĈĈ": 1038,
      "ćĈ!ĈĈćĈĈćĈ": 1039,
      "ćććĈ!Ĉ!Ĉ!ĈĈ!Ĉ!ćĈ!Ĉ!": 1040,
      "Ĉ!ĈĈĈĈĈĈ!Ĉ!Ĉ": 1041,
      "ćĈććĈĈ!ĈĈĈ": 1042,
      "ććććĈ!Ĉ!ććĈ!ĈććććĈ": 1043,
      "ćććĈĈ!Ĉ!ćĈ!ććĈćĈ!ćĈ": 1044,
      "!!!!!!!!!!!!!!!!!!!!!!!!!!!!!!!!!!!!!!!!!!!!!!!!!!!!!!": 1045,
      "ććĈ!Ĉ!ĈĈĈ": 1046,
      "Ĉ!Ĉ!ćĈ!Ĉ!Ĉ!Ĉ!ćĈ!Ĉ!": 1047,
      "ćĈ!ććĈććĈ": 1048,
      "ćĈ!Ĉ!Ĉ!Ĉ!Ĉ!Ĉ!ĈĈ": 1049,
      "ćĈ!ĈĈĈćĈćĈćĈĈĈćĈ": 1050,
      "Ĉ!ćĈ!ĈĈĈĈ": 1051,
      "ćĈ!ĈĈćĈ!ćĈĈ": 1052,
      "ćĈ!ćĈ!ćĈ!ćĈ!ćĈ!Ĉ!Ĉ!Ĉ!ĈĈ!": 1053,
      "ćććććććććććĈ!Ĉ": 1054,
      "Ĉ!ćĈ!Ĉ!ĈćĈĈĈćĈĈĈćĈĈćććć": 1055,
      "000111": 1056,
      "ććććĈćĈććĈ!ćĈ!Ĉ!Ĉ!Ĉ!ćĈ!Ĉ!": 1057,
      "ććĈ!Ĉ!Ĉ!Ĉ!Ĉ!ĈĈ!ćĈ!ćĈ!ćĈ": 1058,
      "ďĉďĉďĉďĉďĉďĉ!!!": 1059,
      "ććĈĈ!Ĉ!ĈĈĈ!": 1060,
      "ćĈĈĈćĈ!ĈććĈĈĈ": 1061,
      "Ĉ!Ĉ!Ĉ!Ĉ!Ĉ!Ĉ!Ĉ!ĈĈ!": 1062,
      "01010101": 1063,
      "ćĈ!ĈćĈĈ!Ĉ!ćĈ!ĈĈ!": 1064,
      "ćĈĈĈĈĈĈĈĈććĈćĈĈ!": 1065,
      "ćĈ!ćĈ!ćĈ!Ĉ!ććććĈ!ććĈ!ć": 1066,
      "ďĉ!!!ćććĈćĈ!ćĈ!ĈĈ!Ĉ!": 1067,
      ")))": 1068,
      "ćĈĈĈĈĈĈćĈĈĈĈ": 1069,
      "ććĈ!Ĉ!ĈćĈĈĈććĈĈĈććĈ!Ĉ!Ĉ!Ĉ!Ĉ!Ĉ!ćĈ": 1070,
      "ćĈ!ććććććĈ!ćĈ!ććĈćććĈćććĈĈćĈćĈ!Ĉ!": 1071,
      "Ĉ!Ĉ!Ĉ!ĈĈĈĈĈĈĈĈ!ĈĈĈĈĈ": 1072,
      "ćććććććĈ!Ĉ!Ĉ!ććĈĈććĈ!ćĈĈ": 1073,
      "ććĈ!ĈĈ!ĈĈĈĈ!ĈĈ!ĈĈĈĈ": 1074,
      "Ĉ!Ĉ!Ĉ!ćĈ!Ĉ!ćĈ!ćĈ!ćĈ!ćĈ!": 1075,
      "ćććĈ!Ĉ!Ĉ!Ĉ!Ĉ!Ĉ!ĈĈĈĈĈĈĈĈĈĈĈĈ": 1076,
      "ćĈ!ćĈ!ćĈćĈ!ćĈ": 1077,
      "ďĉćĈ!Ĉ!ććĈ!ććĈ!ĈĈ!ććĈ!Ĉ!Ĉ": 1078,
      "Ĉ!Ĉ!ĈĈ!Ĉ!ĈĈĈĈ!Ĉ!ĈĈ!Ĉ!Ĉ!!": 1079,
      "ćĈ!ćććĈ!ććĈćĈ!ććĈ": 1080,
      "Ĉ!Ĉ!ĈĈĈĈĈĈĈĈĈĈĈĈĈĈĈĈĈĈĈĈĈĈĈĈ": 1081,
      "ćĈĈ!Ĉ!ĈĈĈ": 1082,
      "ććĈ!Ĉ!Ĉ!Ĉ!ćĈ!Ĉ!!Ĉ!ćĈ!ćĈ!ććĈ!Ĉ!": 1083,
      "Ĉ!ĈĈ!Ĉ!Ĉ!Ĉ!ĈĈ": 1084,
      "ććĈĈćĈĈĈććĈĈććĈćć": 1085,
      "ćĈ!Ĉ!ććĈćĈ!": 1086,
      "ććĈĈĈĈćĈĈĈĈćĈĈĈĈĈĈĈĈććĈ": 1087,
      "Ĉ!Ĉ!ĈĈ!ĈĈ!Ĉ!ĈĈĈ!ĈĈĈĈ!ĈĈĈĈ": 1088,
      "ďĉďĉ!!ćććĈ!Ĉ!ćĈ!Ĉ!ĈĈĈĈ!ććĈ": 1089,
      "ćĈ!Ĉ!ćĈ!Ĉ!ćĈ!Ĉ!Ĉ!Ĉ!Ĉ!": 1090,
      "Ĉ!ĈĈĈĈ!ĈĈĈĈĈĈĈĈĈĈĈĈ!Ĉ!": 1091,
      "ćĈĈĈĈĈĈĈĈĈĈĈĈĈ!ćĈ!ćĈĈĈĈ!Ĉ": 1092,
      "ććĈ!ććććĈć!!": 1093,
      "ćĈ!Ĉ!ĈĈćĈ": 1094,
      "Ĉ!Ĉ!Ĉ!Ĉ!Ĉ!Ĉ!ĈĈ!ĈĈ!ĈĈ!ĈĈĈ!ĈĈĈĈ": 1095,
      "ćĈĈććĈĈĈćĈ!ĈćĈ!ććĈ": 1096,
      "ćĈĈĈĈ!Ĉ!ćĈ!Ĉ!ćĈĈĈćĈ!ĈĈĈĈ": 1097,
      "ćĈ!ćĈ!Ĉ!ććĈ!ĈććĈ!Ĉ!": 1098,
      "ćĈĈĈĈĈćĈĈĈĈĈćĈ!ĈĈĈćĈ": 1099,
      "ćĈĈĈććĈ!Ĉ!ććĈ!ćććĈćĈćĈćĈćĈĈćĈĈćĈćĈćĈ": 1100,
      "ćĈĈćĈĈćĈĈĈĈĈćĈćĈĈćĈĈćĈćĈćĈććĈćĈćĈćĈćĈ!": 1101,
      "ĈĈ!ĈććĈ!Ĉ!ĈĈ!ĈĈ!Ĉ!ćĈ!": 1102,
      "ćććĈ!Ĉ!ćććĈĈćĈ!ĈĈĈ!!ćććć": 1103,
      "ćďĉďĉďĉďĉďĉďĉďĉ!": 1104,
      "ćĈ!ĈĈ!ĈĈĈ!Ĉ!Ĉ!Ĉ!Ĉ!Ĉ!Ĉ!Ĉ!": 1105,
      "%!!!!!!!!!!!!!!!!!!!!!": 1106,
      "ćĈ!Čďĉďĉďĉ!ďĉďĉ!": 1107,
      "ććĈ!ćĈ!ććĈćĈććć!!": 1108,
      "ćĈćĈćĈćĈĈĈćĈĈĈĈĈĈ": 1109,
      "ććĈ!ĈćĈćĈćĈ!ĈćĈĈ": 1110,
      "ćĈ!ćĈ!ćĈ!ĈĈ!Ĉ!": 1111,
      "ćććĈ!Ĉ!Ĉ!ćĈ!Ĉ!Ĉ": 1112,
      "!!!!!!)!!!!!!!!)": 1113,
      "Ĉ!Ĉ!Ĉ!Ĉ!Ĉ!Ĉ!ĈĈĈ": 1114,
      "ćĈ!Ĉ!Ĉ!Ĉ!Ĉ!Ĉ!Ĉ!ćĈ!ďĉ!!!!!!!!": 1115,
      "Ĉ!Ĉ!ĈĈĈ!Ĉ!Ĉ!Ĉ!ĈĈĈĈ": 1116,
      "ććĈ!Ĉ!ĈĈ!ĈĈĈ": 1117,
      "ćĈ!ĈĈ!ććĈ!ćĈ!ĈĈ!ćĈ!Ĉ!": 1118,
      "ćĈĈ!ćĈ!Ĉ!ĈĈĈĈćĈĈĈĈ": 1119,
      "ććććććĈ!ćććĈ!ćć": 1120,
      "ćĈ!ćĈ!ććĈćĈ!Ĉ!Ĉ!Ĉ!ćĈ!ćć": 1121,
      "ćĈ!ćĈ!Ĉ!ćĈ!ĈćĈ!ĈĈ!Ĉ": 1122,
      "Ĉ!Ĉ!Ĉ!Ĉ!Ĉ!ćĈ!ĈĈĈĈ": 1123,
      "ćĈ!ććĈĈĈĈĈćĈćĈ": 1124,
      "Ĉ!Ĉ!Ĉ!ćĈ!ćĈ": 1125,
      "ććĈ!Ĉ!Ĉ!Ĉ!ćććĈ!Ĉ!Ĉ!ććĈ": 1126,
      "ĈĈĈ!ĈĈĈććĈ!ćĈćĈĈĈ!Ĉ": 1127,
      "ćĈćĈĈĈĈĈćĈĈ": 1128,
      "Ĉ!Ĉ!Ĉ!Ĉ!Ĉ!Ĉ!ĈĈĈ!Ĉ!ĈĈĈĈ": 1129,
      "ććććĈ!ćććĈććĈćććĈććććĈććĈććććĈććĈ": 1130,
      "ćĈĈ!Ĉ!Ĉ!Ĉ!ćĈćĈĈ": 1131,
      "Ĉ!ĈĈĈĈĈĈ!Ĉ!ĈĈ!ĈĈĈĈ!ĈĈĈĈĈĈĈĈ": 1132,
      "ćććććďĉ!": 1133,
      "ďĉďĉ!!!)!)!!": 1134,
      "ďĉďĉ!ďĉ!)": 1135,
      "ćĈćĈĈĈĈĈĈĈćĈĈĈĈĈĈ": 1136,
      "ććććććććĈ!Ĉ!Ĉ!Ĉ!": 1137,
      "Ĉ!Ĉ!ĈćĈĈĈĈ": 1138,
      "ćĈĈĈćĈ!ĈĈĈĈ!ĈĈ!Ĉ": 1139,
      "ĈĈĈĈĈĈĈĈĈĈĈĈĈĈĈĈĈĈĈĈĈĈĈĈ!": 1140,
      "ćĈ!ćĈ!ćĈ!ćĈ!Ĉ!Ĉ!Ĉ": 1141,
      "ćĈ!ĈćĈćĈćĈćĈ!Ĉ!ĈćĈ!Ĉ!": 1142,
      "ććĈ!ććććĈćĈćĈćĈććććĈ!Ĉ!ććĈ!ĈććććĈ": 1143,
      "ćĈ!ććĈććĈ!!!!!!": 1144,
      "Ĉ!ĈĈďĉ!!": 1145,
      "ćĈ!ććĈ!ćĈ!ććĈ!ćĈććĈ!ćĈ!ćĈ!ĈćĈĈ": 1146,
      "ććĈ!Ĉ!ĈĈĈ!!ćĈ!Ĉ!Ĉ!Ĉ!": 1147,
      "ćććĈćććĈĈ!Ĉ!ćĈ!ććĈćĈ!ćĈ": 1148,
      "ćĈ!Ĉ!ĈćĈććĈĈ!ĈĈĈ": 1149,
      "ĈĈĈ!ĈĈĈććĈ!ĈĈ!ĈĈĈĈ!ĈĈ!ĈĈĈĈ": 1150,
      "Ĉ!ĈĈćĈĈ!Ĉ": 1151,
      "Ĉ!ĈććĈĈ!Ĉ!": 1152,
      "Ĉ!Ĉ!ĈĈ!Ĉ!ĈĈ!ĈĈ!Ĉ!ĈĈ!ĈĈ!Ĉ!ĈĈĈ!ĈĈĈĈ!ĈĈĈĈ": 1153,
      "ćĈ!ĈĈćĈ!ćĈĈćĈ!Ĉ!": 1154,
      "ćĈ!Ĉ!ćĈ!ćĈ!ćĈ!Ĉ!ććććĈ!ććĈ!ć": 1155,
      "ććććććććććććććććććććććĈ!": 1156,
      "!!!SĂĄĆ!!ďĉ!!!!!!": 1157,
      "ćĈĈ!ćĈ!Ĉ!Ĉ!Ĉ!Ĉ!ĈĈĈ": 1158,
      "!!ćĈ!Ĉ!Ĉ!Ĉ!ćĈ!ććĈ!": 1159,
      "ćĈ!ĈĈĈ!ĈĈćĈ!Ĉ!Ĉ!": 1160,
      "ćĈćĈćĈćććĈćĈ": 1161,
      "ćććĈćĈ!ćĈ": 1162,
      "ćĈ!ćĈ!ćĈ!ćĈ!ćĈ!Ĉ!ćĈ!ćĈ!Ĉ!Ĉ!ćĈ!Ĉ!": 1163,
      "ćĈ!ĈććĈĈĈćĈĈĈćĈ!ĈććĈĈĈ": 1164,
      "Ĉ!ćĈ!Ĉ!Ĉ!ćĈ!Ĉ!Ĉ!ĈĈ!": 1165,
      "ććĈ!ĈĈĈĈĈ!ćďĉďĉ": 1166,
      "ććĈĈćĈĈĈććĈĈććĈćććĈĈĈĈĈćĈĈćĈ": 1167,
      "ćĈ!Ĉ!ćĈ!Ĉ!ćĈ!Ĉ!Ĉ!Ĉ!Ĉ!ćĈ!ćĈ!ćĈ!ćĈ!ćĈ!Ĉ!ćĈ!ćĈ!Ĉ!ćĈĈćĈ!Ĉ": 1168,
      "ďĉ!ďĉ!!!!!!!!!!!!!!!!": 1169,
      "ĈĈĈĈĈĈĈĈĈĈĈĈĈĈĈĈĈĈĈĈ!": 1170,
      "ďĉďĉďĉ!!)!)!!!!!!!!!!!!!!!!!!!!": 1171,
      "ćĈ!Ĉ!Ĉ!ććĈ!ćĈ!Ĉ!Ĉ!ćĈ!Ĉ!": 1172,
      "ćĈ!Ĉ!ćĈććĈ!Ĉ!": 1173,
      "ďĉ%&'(ďĉďĉ": 1174,
      "Ĉ!Ĉ!ćĈ!Ĉ!ĈĈ!": 1175,
      "Ĉ!Ĉ!Ĉ!!ćĈĈĈĈ!Ĉ!ćĈ!Ĉ!ćĈĈĈćĈ!ĈĈĈĈ": 1176,
      ")!)!!!!!!!!ďĉ!ďĉďĉ": 1177,
      "ćĈ!Ĉ!ććĈćĈ!ĈĈĈĈĈĈćĈ!ććĈ": 1178,
      "LL!LK": 1179,
      "!!!!!!!!!ćććĈ!Ĉ!Ĉ!Ĉ!Ĉ!Ĉ!ĈĈĈĈĈĈĈĈĈĈĈĈ": 1180,
      "ďĉ!ďĉ!ďĉ!ďĉ!": 1181,
      "ĈĈĈ!ĈĈĈĈ!ĈĈ!Ĉ!Ĉ!Ĉ!ĈĈ": 1182,
      "ďĉďĉďĉďĉďĉ!!ďĉ!ďĉ!": 1183,
      "ćććĈ!Ĉ!Ĉ!Ĉ!ĈĈĈĈĈĈĈĈĈĈ!ćĈ!Ĉ!ĈćĈĈćĈćĈĈĈćĈĈďĉ": 1184,
      "ćĈćĈ!ććĈ!!": 1185,
      "ććĈ!Ĉ!Ĉ!Ĉ!Ĉ!ĈĈ!ćĈ!ćĈ!ćĈćĈ!ćĈ!ćĈćĈ!ćĈ": 1186,
      "ć%&'(ďĉ!": 1187,
      "ćĈ!ććĈ!ćĈ!Ĉ": 1188,
      "ććĈĈććĈćććĈćĈćĈćĈćĈĈćĈĈćĈćĈćĈ": 1189,
      "ććććććććććććČďĉďĉććĈ!ćĈ!ćĈ!ćĈ!ćĈćĈćĈ": 1190,
      "ććĈĈ!Ĉ!ĈĈĈ!ććĈ!Ĉ!Ĉ": 1191,
      "ćĈ!Ĉ!ĈĈćĈćĈĈĈĈĈĈĈĈĈĈĈĈ": 1192,
      "ććĈ!ćĈ!ćĈ!ćďĉ": 1193,
      "Ĉ!Ĉ!ĈĈĈĈĈ!Ĉ!Ĉ!": 1194,
      "ćĈĈććĈĈĈćĈ!ĈćĈ!ććĈĈ!Ĉ!ĈĈćĈ!Ĉ!": 1195,
      "ćĈ!ĈĈ!ĈĈĈ!Ĉ!Ĉ!Ĉ!Ĉ!Ĉ!Ĉ!Ĉ!Ĉ!Ĉ!Ĉ!Ĉ!ćĈ!": 1196,
      "Ĉ!Ĉ!ćĈ!ĈĈćĈ!ćĈ!Ĉ!Ĉ!ćĈ!ćĈ!Ĉ!ćĈĈćĈ!Ĉ!ććĈ!ĈĈćĈćĈćĈ!Ĉ!ĈćĈĈ": 1197,
      "ćĈĈćĈĈĈĈĈĈćĈĈĈĈ": 1198,
      "ćććĈ!Ĉ!Ĉ!Ĉ!Ĉ!Ĉ": 1199,
      "ćĈ!Ĉ!Ĉ!Ĉ!Ĉ!Ĉ!Ĉ": 1200,
      "!!!!RTVa!!!SĂĄĆ": 1201,
      "ĈĈĈĈĈĈĈĈĈĈĈĈĈĈ!Ĉ!Ĉ!Ĉ!ĈĈĈĈ": 1202,
      "Ĉ!ĈćĈ!ćĈĈĈĈĈćĈĈĈĈĈćĈ!ĈĈĈćĈ": 1203,
      "ćĈ!ĈĈ!ĈĈĈĈ!Ĉ!Ĉ!ĈĈĈĈĈĈĈĈ!ĈĈĈĈĈ": 1204,
      "Ĉ!Ĉ!ĈĈĈĈĈĈćĈ!ĈĈĈ%&'(ďĉ": 1205,
      "ćĈ!ĈĈ!Ĉ!ďĉ!ďĉ!ďĉďĉďĉ!!": 1206,
      "ćĈĈĈĈĈĈĈĈĈĈĈĈĈ!ćĈ!ćĈĈĈĈ!Ĉ%&'(ďĉćć": 1207,
      "ĈĈĈĈĈĈĈĈĈĈĈĈĈĈĈĈĈĈĈĈĈĈĈĈ!ĈĈĈĈĈĈĈĈĈĈĈĈĈĈĈĈĈĈĈĈĈĈĈ": 1208,
      "ď!!": 1209,
      "ććĈ!ćĈ!Ĉ!": 1210,
      "ćĈ!ćĈ!Ĉ!ććĈ!Ĉ!Ĉ!Ĉ!ćĈĈĈ!Ĉ!ćĈ!Ĉ!": 1211,
      "ćĈ!ćĈ!ćĈ!ćĈ!Ĉ!Ĉ!Ĉ!Ĉ!Ĉ!Ĉ!Ĉ!Ĉ!ĈĈ!": 1212,
      "ďĉ!!!!!!!!!!!!!!!!!!ďĉ!!!!!!!!!!!!!!!!!!!": 1213,
      "ćĈćĈ!ćĈĈ!": 1214,
      "Ĉ!ćĈ!Ĉ!Ĉ!Ĉ!Ĉ!Ĉ!ćĈ!ćĈ!ćĈ!Ĉ!Ĉ!": 1215,
      "ććććććććĈ!Ĉ!Ĉ!Ĉ!ćĈĈĈĈ!Ĉ!ćĈ!": 1216,
      "Ĉ!Ĉ!ĈĈĈĈĈĈćĈ!ĈĈĈ%&'(ďĉ%&'(%&'(%&'(": 1217,
      "ćĈĈĈĈĈĈĈĈĈĈĈĈĈ!ćĈ!ćĈĈĈĈ!Ĉ%&'(ďĉććďĉďĉ!!ďĉ": 1218,
      "ćĈ!ćĈ!Ĉ!ćĈĈ!Ĉ!Ĉ!Ĉ!ćĈćĈĈ": 1219,
      "ďĉććććććĈ!ććĈ!": 1220,
      "Ĉ!ĈĈĈĈĈĈ!Ĉ!ĈĈ!ĈĈĈĈ!ĈĈĈĈĈĈĈĈ%&'(ďĉ": 1221,
      "ďĉďĉ!!!ďĉćĈ!Ĉ!ććĈ!ććĈ!ĈĈ!ććĈ!Ĉ!Ĉ": 1222,
      "ćĈ!Ĉ!Ĉ!ćĈ!Ĉ!ćĈ!ćĈ!ćĈ!ćĈ!Ĉ!Ĉ!Ĉ": 1223,
      "ćĈ!ćĈ!Ĉ!Ĉ!ćĈĈ!": 1224,
      "ĈĈĈĈĈĈćĈ!ććĈćĈ!ćĈ!Ĉ!": 1225,
      "ćĈ!Čďĉďĉďĉ!ďĉďĉ!ďĉďĉďĉ!ďĉďĉ!": 1226,
      "Ĉ!Ĉ!Ĉ!Ĉ!Ĉ!Ĉ!ĈĈĈĈ!ĈĈĈĈĈĈĈ!Ĉ!Ĉ!ĈĈ!Ĉ": 1227,
      "%&'(ďĉ!!!!!!!!!!!!!!!!!!!!!": 1228,
      "ćĈ!ćĈ!Ĉ!ćĈ!Ĉ!Ĉ!ćĈ!Ĉ!": 1229,
      "ćĈĈ!Ĉ!ĈćĈĈ!ćĈ!Ĉ!ĈĈĈĈćĈĈĈĈ": 1230,
      "ćććĈ!Ĉ!Ĉ!Ĉ!Ĉ!ćĈ!Ĉ!": 1231,
      "!!!!RTVa!!!SĂĄĆ!!!!R!!!S": 1232,
      "ćĈ!Ĉ!ĈćĈ!Ĉ!ćĈ!ććĈĈĈĈĈćĈćĈ": 1233,
      "%&'(%&'(ďĉ!!": 1234,
      "%!!!!!!!!!!!!!!!!!!!!!!!": 1235,
      "ćĈĈĈĈ!ĈććĈ!ććććĈć!!": 1236,
      "ďĉďĉďĉ!!ďĉ!ććĈ!Ĉ!Ĉ!Ĉ!Ĉ!ďĉďĉ!ďĉćććććĈ!Ĉ!Ĉ!Ĉ!Ĉ!Ĉ!ďĉ!%&'(": 1237,
      "%ćć": 1238,
      ")!)!!!!!!!!!!!!!!!!!!!!!!!!!!!!!!!!!!!!!!!!!!!!!!!!": 1239,
      "ćĈ!Ĉ!ĈćĈ!Ĉ!Ĉ!": 1240,
      "ćĈĈ!ćĈ!ćĈ!Ĉ": 1241,
      "Ĉ!ććĈ!Ĉ!Ĉ!ĈćĈ!Ĉ!": 1242,
      "Ĉ!Ĉ!Ĉ!Ĉ!Ĉ!ĈĈ!Ĉ!": 1243,
      "Ĉ!Ĉ!ćĈ!Ĉ!Ĉ!Ĉ!ćĈ!Ĉ!ćĈ!ĈćĈ!Ĉ!": 1244,
      "ćĈĈĈĈĈĈĈĈććĈćĈĈ!ććĈĈĈĈćĈĈĈĈćĈĈĈĈĈĈĈĈććĈ": 1245,
      "ćĈ!ćććĈ!ććĈćĈ!ććĈćććĈ!Ĉ!Ĉ!Ĉ!": 1246,
      "Ĉ!Ĉ!Ĉ!Ĉ!ćććĈ!": 1247,
      "ćďĉ#$": 1248,
      ")!)!!!!!!!!!!!!!!!!!!!!!!!!!!!!!!!!!!!!!!": 1249,
      ")!)!!!!!!!!!!!!!!!!!!!!!!!!!!!!!!!!)!)!!": 1250,
      "ćĈ!ćĈ!!ććĈ!ććĈ!": 1251,
      "ććććĈćĈććĈ!ćĈ!Ĉ!Ĉ!Ĉ!ćĈ!Ĉ!ćĈ!ćĈ!Ĉ!ćĈ!ĈćĈ!ĈĈ!Ĉ": 1252,
      "ććććććććććććććććććććććĈ!ććĈ!ćĈ!ććĈ!": 1253,
      "ďĉ%&'(!": 1254,
      "ććććććććććććććććĈ!Ĉ!ćĈ!Ĉ!ĈĈ!": 1255,
      "ďĉ!!ďĉďĉďĉ)!)": 1256,
      ")ććććććććććććĈ!": 1257,
      "Ĉ!Ĉ!ćĈ!ććĈ!ćĈ!ććĈ!ćĈććĈ!ćĈ!ćĈ!ĈćĈĈ": 1258,
      "ćććććĈ!Ĉ!Ĉ!Ĉ!Ĉ!Ĉ!": 1259,
      "ććĈ!ćĈ!ćĈ!Ĉ!Ĉ!ćĈ!Ĉ!": 1260,
      "ďĉćććććććĈ!ćĈ!": 1261,
      "Ĉ!ĈĈ!Ĉ!!ćĈ!Ĉ!Ĉ!Ĉ!ćĈ!ććĈ!": 1262,
      "ćĈ!Ĉ!Ĉ!Ĉ!Ĉ!ĈĈĈ!Ĉ!Ĉ": 1263,
      ")!)!ďĉďĉ!!!)!)!!": 1264,
      "Ĉ!ĈĈĈĈĈĈĈĈĈĈĈĈĈĈĈĈĈĈĈĈ!": 1265,
      "ďĉ!!!!!!!!!!!!!!ďĉďĉďĉďĉ": 1266,
      "ćĈ!ĈćĈĈ!Ĉ!ćĈ!ĈĈ!ććĈ!ćĈ!ććĈćĈććć!!": 1267,
      "!!!!!!!!!!!!!!!!!!": 1268,
      "ďĉďĉďĉďĉ!ďĉďĉ!!": 1269,
      "%ć&'": 1270,
      "ćĈ!ććććććĈ!ćĈ!ććĈćććĈćććĈĈćĈćĈ!Ĉ!ćĈ!ĈćĈćĈćĈćĈ!Ĉ!ĈćĈ!Ĉ!": 1271,
      "Ĉ!Ĉ!ĈĈĈ!Ĉ!Ĉ!Ĉ!ĈĈĈĈĈ!ĈĈĈĈ!ĈĈĈĈĈĈĈĈĈĈĈĈ!Ĉ!": 1272,
      "ćĈ!ććĈććĈ!!!!!!ďĉćć": 1273,
      "%&'(ďĉďĉ!!ďĉ": 1274,
      "ĈĈĈĈĈĈĈĈĈĈĈĈĈĈĈĈĈĈĈĈĈĈĈĈĈĈĈĈĈĈĈĈĈĈĈĈĈĈĈĈĈĈĈĈĈĈĈĈ": 1275,
      "Ĉ!ĈĈĈ!ĈĈĈĈĈĈĈĈĈĈĈĈĈĈĈĈĈĈ!ďĉ!!": 1276,
      "ćććĈćććĈĈ!Ĉ!ćĈ!ććĈćĈ!ćĈ!!Č!!Č!": 1277,
      "ďĉďĉď%&'(ĉ": 1278,
      "ćĈ!ćĈ!ććććĈ!ććĈ!ćććĈ!ćććĈ": 1279,
      "ćććĈĈ!ćĈ!Ĉ!ĈćĈĈĈćĈĈĈćĈĈćććć": 1280,
      "ććććććĈ!ććČ": 1281,
      "ćććĈ!Ĉ!Ĉ!ĈĈ!Ĉ!ćĈ!Ĉ!Ĉ!ĈćĈ!Ĉ!Ĉ!Ĉ": 1282,
      "ććĈ!ććććĈćĈćĈćĈććććĈ!Ĉ!ććĈ!ĈććććĈćĈćĈćĈćĈćĈćĈćĈćĈćĈ": 1283,
      "ććććććććĈ!Ĉ!ćĈĈ": 1284,
      "ćĈ!ćĈ!Ĉ!Ĉ!ćĈ!Ĉ!ćĈ!Ĉ!Ĉ!Ĉ!ćĈ!Ĉ!": 1285,
      "ććĈ!ćĈ!ććĈ!ćĈ!ćĈ!ććĈćĈ!Ĉ!Ĉ!Ĉ!ćĈ!ćć": 1286,
      "ćĈćĈćĈćĈćĈćĈćĈćĈćĈćĈćĈćĈććĈ!Ĉ!": 1287,
      "ďĉďĉďĉ!ďĉďĉćććć": 1288,
      "ďĉ!ďĉĈ!Ĉ!ćĈ!Ĉ!ĈĈĈ": 1289,
      "ććććĈ!ćĈ!Ĉ!Ĉ!ćĈ!Ĉ!": 1290,
      "Ĉ!Ĉ!ĈćĈĈĈĈĈ!Ĉ!Ĉ!Ĉ!Ĉ!Ĉ!ĈĈĈ!Ĉ!ĈĈĈĈ": 1291,
      "ććććĈ!ćĈ!ĈĈ!ććĈ!ćĈ!ĈĈ!ćĈ!Ĉ!": 1292,
      "ćććććććĈ!Ĉ!ććććććĈ!ćĈĈ%&'(ďĉďĉ": 1293,
      "ćĈ!Ĉ!Ĉ!Ĉ!Ĉ!Ĉ!Ĉ!Ĉ!ćĈ!ćĈ!Ĉ!ĈćĈ!Ĉ!": 1294,
      "ćĈćĈĈĈĈĈćĈĈćĈćĈćĈćĈĈĈćĈĈĈĈĈĈ": 1295,
      "ćĈ!Ĉ!ććĈćĈ!ĈĈĈĈĈĈćĈ!ććĈććĈ!ćĈ!Ĉ": 1296,
      "ćĈ!ććĈ!Ĉ!Ĉ": 1297,
      "ćďĉďĉďĉĈ!ĈĈĈĈ": 1298,
      "ĈĈĈĈĈĈĈĈĈĈĈĈĈĈ!Ĉ!Ĉ!Ĉ!Ĉ!ĈĈĈ!ĈĈ": 1299,
      "ćĈĈćĈĈĈĈĈĈćĈĈĈĈćĈĈćĈĈćĈ!ćććĈ!ćć": 1300,
      "ćććĈ!Ĉ!ćĈ!Ĉ!Ĉ": 1301,
      "Ĉ!ĈĈ!ćĈ!Ĉ": 1302,
      "%&'(ďĉ!!ďĉ!!": 1303,
      "ććććććććĈ!ćććĈ!Ĉ!": 1304,
      "ćĈ!ćĈ!ćĈ!ćĈ!ćĈ!Ĉ!Ĉ!Ĉ!ĈĈ!%&'(ďĉ!!!!!!!!!!!!!!!!!!!!!": 1305,
      "ďĉ!!!!!!!!!!!!!": 1306,
      "Ĉ!ćĈ!Ĉ!Ĉ!Ĉ!Ĉ!Ĉ!ćĈ!ćĈ!ćĈ!Ĉ!Ĉ!ćĈ!ĈĈĈćĈćĈćĈĈĈćĈ": 1307,
      "Ĉ!ď": 1308,
      "ďĉďĉ!!ďĉ!!ďĉďĉ": 1309,
      "!!!!!!!ďĉ!!ďĉďĉ!!!": 1310,
      "ćĈ!Ĉ!Ĉ!Ĉ!Ĉ!Ĉ!Ĉ!Ĉ!Ĉ!Ĉ!": 1311,
      "ďĉ!!!ćććććĈ!ĈĈ!ĈĈĈ!Ĉ!Ĉ!Ĉ!Ĉ!Ĉ!Ĉ!Ĉ!Ĉ!Ĉ!Ĉ!Ĉ!ćĈ!": 1312,
      "ćććĈ!Ĉ!ćććĈĈćĈ!ĈĈĈ!!ćććć!!!!!!!!!!!!!!!!!!!!": 1313,
      "Ĉ!ĈććĈĈ!Ĉ!ććĈ!Ĉ!ĈĈ!ĈĈĈ": 1314,
      "ćĈ!Ĉ!Ĉ!ććĈ!ćĈ!Ĉ!Ĉ!ćĈ!Ĉ!ćĈ!ćĈ!ćĈ!ćĈ": 1315,
      "Ĉ!Ĉ!Ĉ!Ĉ!!Ĉ!Ĉ!Ĉ": 1316,
      "ćĈĈ!ćĈ!Ĉ!Ĉ!Ĉ!Ĉ!ĈĈĈćĈ!Ĉ!Ĉ!": 1317,
      "ďĉďĉďĉ!ďĉďĉďĉ!!": 1318,
      "ďĉ!ďĉ!!!SĂĄĆ!!ďĉ!!!!!!": 1319,
      "ćďĉ!!!!!!!!!": 1320,
      "ććĈ!Ĉ!ĈĈĈ!Ĉ!Ĉ!ĈĈćĈďĉ!!ďĉďĉ!!!": 1321,
      "ććĈ!Ĉ!Ĉ!Ĉ!Ĉ!ĈĈ!ćĈ!ćĈ!ćĈćĈ!ćĈ!ćĈćĈ!ćĈćĈ!ććĈćĈ!ćĈ": 1322,
      "ďĉ!Ĉ!ĈćĈ!Ĉ!Ĉ!ĈćĈ!ćć": 1323,
      "ćďĉććć": 1324,
      "ćĈĈ!Ĉ!ĈĈĈćĈćĈ!ććĈ!!": 1325,
      "ĈĈĈĈĈĈĈĈĈĈĈĈĈĈ!Ĉ!Ĉ!Ĉ!ĈĈĈĈĈ!Ĉ!Ĉ!Ĉ!Ĉ!Ĉ!ĈĈ!ĈĈ!ĈĈ!ĈĈĈ!ĈĈĈĈ": 1326,
      "ćĈ!ćĈ!Ĉ!ćĈĈ!Ĉ!Ĉ!Ĉ!ćĈćĈĈćĈ!Ĉ!Ĉ!ćĈ!Ĉ!": 1327,
      "Ĉ!ĈĈćďĉďĉďĉďĉďĉďĉďĉ!": 1328,
      "Ĉ!Ĉ!Ĉ!Ĉ!Ĉ!Ĉ!Ĉ!ĈĈĈĈĈĈ": 1329,
      "))))": 1330,
      "ćććććĈ!Ĉ!Ĉ!Ĉ!Ĉ!Ĉ!ćĈ!Ĉ!Ĉ!ćĈ!Ĉ!": 1331,
      "ďĉďĉććććććĈ!ćććĈ!ćć": 1332,
      "Ĉ!Ĉďĉ!ďĉ!ďĉ": 1333,
      "ďĉďĉ!!ďĉ!!!!!!)!!!!!!!!)": 1334,
      "ććććĈ!ćĈ!Ĉ!Ĉ!Ĉ!Ĉ!Ĉ!": 1335,
      "ććĈ!ććĈ!ćĈ!Ĉ!ćĈććĈ!Ĉ!": 1336,
      "ćĈ!ćĈ!Ĉ!ććĈ!Ĉ!Ĉ!Ĉ!ćĈĈĈ!Ĉ!ćĈ!Ĉ!ĈĈĈ!ĈĈĈććĈ!ćĈćĈĈĈ!Ĉ": 1337,
      "&'": 1338,
      "ćććĈ!Ĉ!Ĉ!Ĉ!Ĉ!Ĉ!ćĈ!Ĉ!Ĉ!Ĉ!ćĈ!Ĉ!": 1339,
      "ďĉ!)!)!!!!!!!!!!ďĉ!!!!!!": 1340,
      "ćććććććĈ!Ĉ!Ĉ!ćĈ!Ĉ!Ĉ!": 1341,
      "ďĉďĉďĉ!!ďĉ!!ďĉ!!!!!!!!": 1342,
      "ćĈ!ćĈ!Ĉ!ććĈ!ĈććĈ!Ĉ!ćĈ!ćĈ!Ĉ!Ĉ!ćĈĈ!": 1343,
      "Ĉ!ĈĈćĈĈ!Ĉďĉ!!!!!!!!!!!!!!!!!!!!!!!!!!!!!!!!": 1344,
      "%&'(%&'(ďĉ!!ććććććĈććĈ!": 1345,
      "ďĉďĉďĉďĉďĉďĉďĉ!ďĉ!ďĉ": 1346,
      "ććććĈ!ćĈ!Ĉ!Ĉ!ĈĈ!Ĉ!Ĉ!Ĉ": 1347,
      "ďĉďĉďĉďĉ!ďĉďĉ%!!!&'(": 1348,
      "ďĉďĉďĉ!!ďĉďĉćĈ!Čďĉďĉďĉ!ďĉďĉ!ďĉďĉďĉ!ďĉďĉ!": 1349,
      "ćĈćĈćĈćććĈćĈćććĈćĈ": 1350,
      "ďĉććććććĈ!ććĈ!ććĈ!Ĉ!Ĉ!Ĉ!ćććĈ!Ĉ!Ĉ!ććĈ": 1351,
      "!!!!!!!!!!!!!!)!)!!!!!!!!!": 1352,
      "ćĈ!Ĉ!Ĉ!Ĉ!Ĉ!Ĉ!ćĈ!Ĉ!ććĈ!": 1353,
      "ĈĈĈ!Ĉ!Ĉ!ĈĈĈ": 1354,
      "ććĈ!Ĉ!Ĉ!ĈćĈ!Ĉ!ĈćĈććĈĈ!ĈĈĈ": 1355,
      "ďĉďĉ%&'(!": 1356,
      "ćććććććććććĈ!ćĈ!!ććĈ!ććĈ!": 1357,
      "Ĉ!Ĉ!Ĉ!ćĈĈĈććĈĈ!ćććĈ!ććĈ!ćĈ!ĈĈĈćć!!!!": 1358,
      "ćććĈĈĈĈĈććĈĈććĈćććĈćĈćĈćĈćĈĈćĈĈćĈćĈćĈ": 1359,
      "ďĉďĉ)ďĉďĉ!": 1360,
      "ďĉ!!ďĉ!ďĉ!": 1361,
      ")!)ďĉďĉďĉďĉďĉďĉ!!!": 1362,
      "%!!!!!!!!!!!!!!!!!!!!&'(!!!!!!!!!!!!!!!!!!!!!!!!!!!!!!!!": 1363,
      "ćĈ!ĈććĈĈĈćĈĈĈćĈ!ĈććĈĈĈćĈĈććĈĈĈćĈ!ĈćĈ!ććĈĈ!Ĉ!ĈĈćĈ!Ĉ!": 1364,
      "ćĈĈĈĈĈĈĈĈĈĈĈĈĈ!ćĈ!ćĈĈĈĈ!Ĉ%&'(ďĉććďĉďĉ!!ďĉććĈ!ĈĈĈĈĈ!ćďĉďĉ": 1365,
      "ćććććććććććććććĈ!Ĉ!Ĉ!ćĈ!Ĉ!": 1366,
      "ďĉďĉ!!ďĉďĉďĉ!": 1367,
      "!!!!!!!!!ďĉ!!!!!!!!": 1368,
      "ďĉ!!ďĉďĉďĉďĉďĉ!!ďĉ!ďĉ!": 1369,
      "ďĉ!!ćććććććĈ!Ĉ!Ĉ!ććĈĈććĈ!ćĈĈ": 1370,
      "ćďĉććććććććććććććććĈ!Ĉ!ćĈ!Ĉ!ĈĈ!": 1371,
      "ćĈ!ćĈ!ćĈ!ćĈ!ćĈ!Ĉ!ćĈ!ćĈ!Ĉ!Ĉ!ćĈ!Ĉ!Ĉ!ććĈ!Ĉ!Ĉ!ĈćĈ!Ĉ!": 1372,
      "ćďĉďĉ!!": 1373,
      "%&'(Ĉ!Ĉ!": 1374,
      "ďĉďĉďĉďĉ!ďĉ!!": 1375,
      "ćĈĈĈććĈ!Ĉ!ććĈ!ćććĈćĈćĈćĈćĈĈćĈĈćĈćĈćĈćĈ!Ĉ!ĈćĈ!Ĉ!Ĉ!": 1376,
      "ćććććĈ!ćĈ!ććććĈ!ććĈ!ćććĈ!ćććĈ": 1377,
      "ćĈĈĈĈ!": 1378,
      "3322": 1379,
      "ćĈćĈĈĈĈĈĈĈćĈĈĈĈĈĈćĈćĈ!ćĈĈ!": 1380,
      "ďĉ%&'(ďĉ": 1381,
      "ćĈ!ďĉ!%&'(": 1382,
      "ćććććĈ!Ĉ!Ĉ!ćĈĈćĈďĉďĉ": 1383,
      "ĈĈĈ!ĈĈĈĈ!ĈĈ!Ĉ!Ĉ!Ĉ!ĈĈĈ!Ĉ!ĈĈ!Ĉ": 1384,
      "ććĈ!ćĈ!Ĉ!ĈĈĈ!ĈĈĈććĈ!ĈĈ!ĈĈĈĈ!ĈĈ!ĈĈĈĈ": 1385,
      "ćććććććĈ!Ĉ!ććććććĈ!ćĈĈ%&'(ďĉďĉĈ!ĈĈďĉ!!": 1386,
      "ćććĈ!Ĉ!Ĉ!Ĉ!Ĉ!ćĈ!Ĉ!Ĉ!ĈćĈ!ćĈĈĈĈĈćĈĈĈĈĈćĈ!ĈĈĈćĈ": 1387,
      "L!LK!LK": 1388,
      "ĈĈĈ!Ĉ!Ĉ!ĈĈĈĈ!Ĉ!ĈĈ!Ĉ!Ĉ!ĈĈĈĈ": 1389,
      "Ĉ!Ĉ!Ĉ!ćĈĈĈććĈĈ!ćććĈ!ććĈ!ćĈ!ĈĈĈćć!!!!%&'(ďĉ!!ďĉ!!": 1390,
      "ďĉ!ďĉ!!ćĈ!": 1391,
      "ććććĈ!ĈĈ%&'(ďĉ!!!!!!!!!!!!!!!!!!!!!!!!!!!!": 1392,
      "Ĉ!%&'(": 1393,
      "ďĉ!ďĉććććĈ!ćĈ!ĈĈ!ććĈ!ćĈ!ĈĈ!ćĈ!Ĉ!": 1394,
      "Ĉ!ĈĈĈ!ĈĈĈ": 1395,
      "ćĈ!ćććĈ!ććĈćĈ!ććĈćććĈ!Ĉ!Ĉ!Ĉ!ćććĈćĈ!ćĈ": 1396,
      "ćĈ!Ĉ!Ĉ!Ĉ!Ĉ!ĈĈĈ!Ĉ!ĈĈ!Ĉ!ĈĈ!Ĉ!ĈĈ!ĈĈ!Ĉ!ĈĈ!ĈĈ!Ĉ!ĈĈĈ!ĈĈĈĈ!ĈĈĈĈ": 1397,
      "ććĈ!ćĈ!ćČ": 1398,
      "!!!!!!!!!!!ďĉ": 1399,
      "ďĉ!ďĉďĉďĉďĉďĉďĉ!!": 1400,
      "ććĈ!Ĉ!Ĉ!ććĈ!Ĉ!Ĉ!ĈĈ!Ĉ!!ćĈ!Ĉ!Ĉ!Ĉ!ćĈ!ććĈ!": 1401,
      "ďĉďĉďĉď%&'(ĉ": 1402,
      "!!!!!!!!!!!ďĉ!!!!!!!!!!!!!!!!!!!!!!!!!!!!!!!!": 1403,
      "ćććĈ!Ĉ!ćĈ!Ĉ!ćĈ!ćĈ!ćĈ!ĈĈ!Ĉ!": 1404,
      "ďĉ!!!!!!!!!!!!!!!!!!ďĉ!!!!!!!!!!!!!!!!!!!ďĉ!!!!!!!!": 1405,
      ")ććććććććććććĈ!ććĈ!ćĈ!ćĈ!Ĉ!Ĉ!ćĈ!Ĉ!": 1406,
      "ďĉ!!!!!!!!!!!!!!!": 1407,
      "ćďĉďĉďĉćĈ!Ĉ!Ĉ!Ĉ!": 1408,
      "ďĉ!!ďĉ!ććĈ!ďĉ!ďĉďĉ!!": 1409,
      "ćĈ!%&'(ďĉ": 1410,
      "ććććĈ!Ĉ!Ĉ!Ĉ!Ĉ!ĈĈ!Ĉ!": 1411,
      "ććĈ!ćććĈ!ćććĈ!ćććĈ!Ĉ!Ĉ!ďĉćć": 1412,
      "ććććććććĈ!Ĉ!ćĈĈćĈ!ĈĈćĈ!ćĈĈćĈ!Ĉ!": 1413,
      "Ĉ!Ĉ!Ĉ!ĈćĈĈ!Ĉ!ĈćĈĈ!ćĈ!Ĉ!ĈĈĈĈćĈĈĈĈ": 1414,
      "%&'(ďĉĈ!Ĉ!Ĉ!Ĉ!Ĉ!Ĉ!": 1415,
      "ćĈ!Ĉ!ĈćĈ!ć": 1416,
      "ĉĉĉĉĉĉĉĉ": 1417,
      "Ĉ!ĈćĈ!Ĉ!Ĉ!ĈćĈ!ććďĉ!Ĉ!ĈćĈ!Ĉ!Ĉ!ĈćĈ!ćć": 1418,
      "ďĉććĈ!ćććĈćććĈĈ!Ĉ!ćĈ!ććĈćĈ!ćĈ!!Č!!Č!": 1419,
      "Ĉ!ĈĈĈĈĈĈ!Ĉ!ĈĈ!ĈĈĈĈ!ĈĈĈĈĈĈĈĈ%&'(ďĉćĈ!Ĉ!Ĉ!Ĉ!Ĉ!Ĉ!ĈĈ": 1420,
      "ććććĈ!ćĈ!Ĉ!Ĉ!ćĈ!Ĉ!Ĉ!Ĉ!ćĈ!Ĉ!Ĉ!Ĉ!ćĈ!Ĉ!ćĈ!ĈćĈ!Ĉ!": 1421,
      "ďĉćĈ!": 1422,
      "ćĈ!Ĉ!Ĉ!Ĉ!ĈĈ!Ĉ!Ĉ!Ĉ!": 1423,
      "%!!!!!!!!!!!!!!!!!!!!!!!!": 1424,
      "ďĉďĉďĉďĉďĉďĉ!%&'(%&'(": 1425,
      "2323232222222222222222222222222222222222222222": 1426,
      "ďĉďĉ!ďĉ!)ďĉďĉďĉć": 1427,
      "ďĉ!ćĈ!ćĈ": 1428,
      "ďĉďĉďĉďĉďĉďĉćďĉ!ďĉ": 1429,
      "ć%&'(ďĉ!!!!!!!!!": 1430,
      "ććĈ!Ĉ!ĈĈĈ!Ĉ!Ĉ!ĈĈćĈďĉ!!ďĉďĉ!!!)!)": 1431,
      "ććććĈ!ćĈ!Ĉ!Ĉ!Ĉ!Ĉ!Ĉ!Ĉ!Ĉ!Ĉ!!ćĈĈĈĈ!Ĉ!ćĈ!Ĉ!ćĈĈĈćĈ!ĈĈĈĈ": 1432,
      "ćďĉďĉďĉďĉ": 1433,
      "ćććĈ!Ĉ!ććĈ!ćĈ!ćČ": 1434,
      "ďĉ!!ďĉ!ďĉďĉďĉ!": 1435,
      "ćććĈ!Ĉ!Ĉ!Ĉďĉ!!!!!ďĉ!)!)!!!!!!!!!!!!!!": 1436,
      "ćĈ!ĈĈĈ!ĈĈćĈ!Ĉ!Ĉ!ćĈćĈĈĈĈĈćĈĈćĈćĈćĈćĈĈĈćĈĈĈĈĈĈ": 1437,
      "ććĈ!ćĈ!ććĈ!ćĈ!ćĈ!ććĈćĈ!Ĉ!Ĉ!Ĉ!ćĈ!ććĈĈĈĈĈĈćĈ!ććĈćĈ!ćĈ!Ĉ!": 1438,
      "ďĉďĉďĉ%&'(Ĉ!Ĉ!ĈĈ!Ĉ!ĈĈĈĈ!Ĉ!ĈĈ!Ĉ!Ĉ!!": 1439,
      "ćććććććĈ!Ĉ!ćĈ!ĈćĈĈ!Ĉ!ćĈ!ĈĈ!ććĈ!ćĈ!ććĈćĈććć!!": 1440,
      "ćććĈ!Ĉ!Ĉ!Ĉ!Ĉ!Ĉ!ćĈ!Ĉ!Ĉ!Ĉ!ćĈ!Ĉ!Ĉ!Ĉćć": 1441,
      "L!": 1442,
      "ďĉďĉďĉďĉ!!!!ďĉ!!": 1443,
      "ďĉ!!!!!!!!!!!)!!!!!!!!!!!!!!!": 1444,
      "Ĉ!Ĉ!ĈĈĈĈĈĈĈĈĈĈĈĈĈĈĈĈĈĈĈĈĈĈĈĈďĉ!": 1445,
      "ćĈ!Ĉ!Ĉ!Ĉ!Ĉ!Ĉ!ĈćĈĈĈĈ!ĈććĈ!ććććĈć!!": 1446,
      "ćććĈ!Ĉ!ćććĈĈćĈ!ĈĈĈ!!ćććć!!!!!!!!!!!!!!!!!!!!%&'(%&'(": 1447,
      "Ĉ!ĈĈćďĉďĉďĉďĉďĉďĉďĉ!ďĉ!ďĉďĉďĉ!": 1448,
      "LK": 1449,
      "Ĉ!Ĉ!Ĉ!Ĉ!Ĉ": 1450,
      "ďĉďĉďĉďĉďĉďĉďĉ)!": 1451,
      "ďĉďĉďĉ!ďĉďĉćććććĈ!Ĉ!ćĈĈ": 1452,
      "ćĈ!Ĉ!ććĈćĈ!ĈĈĈĈĈĈćĈ!ććĈććĈ!ćĈ!ĈććĈĈ!Ĉ!ĈĈĈ!ććĈ!Ĉ!Ĉ": 1453,
      "ććĈ!Ĉ!ćĈĈ!ćĈ!Ĉ!Ĉ!Ĉ!Ĉ!ĈĈĈćĈ!Ĉ!Ĉ!": 1454,
      "Ĉ!ĈĈĈ!ĈĈĈĈĈĈĈĈĈĈĈĈĈĈĈĈĈĈ!ďĉ!!ďĉ!ďĉ!!!": 1455,
      "ććĈ!%&'(": 1456,
      "RTVa!!!SĂĄĆ": 1457,
      "ďĉďĉďĉćććĈ!Ĉ!Ĉ!ĈĈ!Ĉ!ćĈ!Ĉ!Ĉ!ĈćĈ!Ĉ!Ĉ!Ĉ": 1458,
      "ććććĈćććĈ!Ĉ!Ĉ": 1459,
      "ďĉďĉ%ď&'(ĉ": 1460,
      "Ĉ!Ĉ!Ĉ!Ĉ!ććĈćć": 1461,
      "ďĉ!!ďĉććććććććććććććććććććććĈ!ććĈ!ćĈ!ććĈ!": 1462,
      "ćĈ!Ĉ!Ĉ!ććĈ!ćĈ!Ĉ!Ĉ!ćĈ!Ĉ!ćĈ!ćĈ!ćĈ!ćĈćĈ!Ĉ!ĈĈćĈćĈĈĈĈĈĈĈĈĈĈĈĈ": 1463,
      "ďĉ!ďĉ!!!!!!ďĉďĉ!!": 1464,
      "ćĈ!Ĉ!ćĈĈ!ćĈ!ćĈ!Ĉ": 1465,
      "Ĉ!Ĉ!Ĉ!Ĉ!!Ĉ!Ĉ!Ĉ!Ĉ!!Ĉ!Ĉ!Ĉ": 1466,
      "ćććĈĈććććććĈ!ćĈĈ": 1467,
      "ďĉ!ďĉ!!!!!!!!!!!ďĉ!ďĉ": 1468,
      "ďĉďĉďĉ!!!!!": 1469,
      "ďĉ!ďĉďĉ!ďĉ": 1470,
      "Ĉ!ĈĈ!ćĈ!ĈĈ!Ĉ!Ĉ!ćĈ!ćĈ": 1471,
      "Ĉ!Ĉ!Ĉ!Ĉ!Ĉ!Ĉ!Ĉ!ĈĈĈĈĈĈĈ!ĈĈĈĈĈĈĈĈĈĈĈĈĈĈĈĈĈĈĈĈ!": 1472,
      "ććďĉďĉ)": 1473,
      "ćććĈ!ćĈ!Ĉ!Ĉ!ćĈ!Ĉ!ćĈ!Ĉ!Ĉ!Ĉ!ćĈ!Ĉ!": 1474,
      "!!!!ďĉ!!)ďĉďĉ!": 1475,
      "ćďĉ#$ćĈ!ćć": 1476,
      "ććććććććććććććććććććććććććĈ!": 1477,
      "ćĈ!Ĉ!ĈćĈ!ďĉćććććććĈ!ćĈ!": 1478,
      "Ĉ!ďĉďĉćĈ!ďĉ!": 1479,
      "ďĉďĉ!!ďĉ!!!!ďĉďĉďĉďĉ": 1480,
      "%!!!!!!!!!!!!!!!!!!!!!&'(!!!!!!!!!!!!!!!!!!!!!!!!!!!!!!!!": 1481,
      "Ĉ!Ĉ!ĈĈĈĈĈĈćĈ!ĈĈĈ%&'(ďĉ%&'(%&'(%&'(ďĉďĉďĉďĉ!ďĉďĉ%!!!&'(": 1482,
      "ćććććĈ!Ĉ!Ĉ!Ĉ!Ĉ!Ĉ!ćĈ!Ĉ!Ĉ!ćĈ!Ĉ!ćĈ!Ĉ!Ĉ!ćĈ!Ĉ!ćĈ!ćĈ!ćĈ!ćĈ!Ĉ!Ĉ!Ĉ": 1483,
      "ĂĄĆ!!!!R!!!S": 1484,
      "ćĈ!Čďĉďĉ!": 1485,
      "ďĉďĉďĉ!!!!!!!!!!": 1486,
      ")!)!!!!!!!!!!!!!!!!!!!!!!!!!!!!!!!!!!!!": 1487,
      "ďĉďĉ!ďĉďĉďĉ!!ďĉ!!!!": 1488,
      "ćććććććććććĈ!ĈćĈ!Ĉ!ĈćĈ!ć": 1489,
      "ďĉďĉ!!ďĉ!!ďĉďĉćććĈ!Ĉ!Ĉ!Ĉ!Ĉ!Ĉ": 1490,
      "R%&'(": 1491,
      "Ĉ!Ĉ!ĉ": 1492,
      "!!!!!!!!!ďĉ!!!!!!!!!!!)!!!!!!!!!!!!!!!": 1493,
      "ďĉ!ďĉ!!ďĉďĉ!!ďĉ!!!!!!)!!!!!!!!)": 1494,
      "ďĉ!!!!!!!!!!!!!!!!!!!!!": 1495,
      "ćććĈĈ!ćĈ!Ĉ!ĈćĈĈĈćĈĈĈćĈĈćććććďĉďĉďĉĈ!ĈĈĈĈ": 1496,
      "ďĉ!ďĉďĉďĉ!!)!)!!!!!!!!!!!!!!!!!!!!": 1497,
      "ćććććććĈ!ćĈ!Ĉ!Ĉ!Ĉ!Ĉ!ćĈ!Ĉ!ćĈććĈćďĉ": 1498,
      "ďĉďĉ!ďĉ%&'(ćććććććććććććććć": 1499,
      "ďĈ": 1500,
      "ććĈ!Ĉ!Ĉ!Ĉ!Ĉ!Ĉ!Ĉ!ĈĈćĈ": 1501,
      "ćĈ!ćĈ!Ĉ!Ĉ!ćĈ!Ĉ!Ĉ!ćĈ!Ĉ!": 1502,
      "ďĉ!ďĉ!!!!!!ďĉďĉ!!!!": 1503,
      "ćććĈ!Ĉ!ćĈ!Ĉ!ĈĈ!Ĉ!ĈćĈĈĈĈĈ!Ĉ!Ĉ!Ĉ!Ĉ!Ĉ!ĈĈĈ!Ĉ!ĈĈĈĈ": 1504,
      ")!)!!Ĉ!Ĉ!ĈĈ": 1505,
      "Ĉ!ĈĈ!ĈĈĈćĈĈĈćĈ!ĈĈĈĈ!ĈĈ!Ĉ": 1506,
      "ććććĈ!Ĉ!ćĈ!ćĈ!Ĉ!ććĈ!ĈććĈ!Ĉ!ćĈ!ćĈ!Ĉ!Ĉ!ćĈĈ!": 1507,
      "Ĉ!Ĉ!Ĉ!ćĈ!Ĉ!ćĈ!ćĈ!ćĈ!ćĈ!ćĈ!Ĉ!Ĉ!Ĉ!Ĉ!Ĉ!ćĈ!Ĉ!ććĈ!": 1508,
      "ććĈ!Ĉ!ĈĈĈ!!ćĈ!Ĉ!Ĉ!Ĉ!ćďĉďĉ!!": 1509,
      "ćĈ!Ĉ!ćĈ!ćĈ!ćĈ!Ĉ!ććććĈ!ććĈ!ć!ďĉ": 1510,
      "ďĉďĉďĉďĉďĉďĉďĉ%&'(": 1511,
      "ďĉćĈ!Ĉ!Č": 1512,
      "%!Ĉ&'(!": 1513,
      "ďĈ!ĉ": 1514,
      "ďĉďĉďĉ!ďĉ!ďĉ!": 1515,
      "ď%ĉ&'(!": 1516,
      "ďĉ!!ďĉ!!!!!!!!!!!ďĉ!!ćććććććĈ!Ĉ!Ĉ!ććĈĈććĈ!ćĈĈ": 1517,
      "323": 1518,
      "ććććććĈ!Ĉ!": 1519,
      "%!!!!!!!!!!!!!!!!!!!!!!!!!": 1520,
      "ďĉ!!!!!!!!!!!!!!ďĉďĉďĉďĉććććĈ!ćĈ!Ĉ!": 1521,
      "ćĈ!Ĉ!Ĉ!Ĉ!Ĉ!Ĉ!Ĉ!Ĉ!Ĉ!Ĉ!ďĉďĉ!ďĉ%&'(ćććććććććććććććć": 1522,
      "%&'(ďĉďĉ!!!": 1523,
      "ćďĉďĉďĉďĉ!ććĈ!Ĉ!Ĉ!Ĉ!Ĉ": 1524,
      "ććĈ!ććĈ!ćĈ!Ĉ!ćĈććĈ!Ĉ!%&'(ďĉĈ!Ĉ!Ĉ!Ĉ!Ĉ!Ĉ!": 1525,
      "Ĉ!ćĈ!ćĈ!Ĉ!Ĉ!": 1526,
      "ďĉďĉ%&'(ďĉ": 1527,
      "00110101": 1528,
      "!!!!!!!!!!!!!!!!!!!!!Ĉ!Ĉ!Ĉ": 1529,
      "Ĉ!ďĉ!ďĉďĉďĉďĉďĉ!ďĉďĉďĉ!!)!)!!!!!!!!!!!!!!!!!!!!": 1530,
      "ďĉďĉďĉ!ďĉďĉďĉ!!ďĉďĉďĉďĉ!": 1531,
      "ććĉ": 1532,
      "ćĈ!ĉ": 1533,
      "ďĉďĉďĉďĉďĉ!!ďĉ!!ďĉďĉďĉ)!)": 1534,
      "LLLLLLLLLLLLLLLLLLLLLLLLLLLLLLLL": 1535,
      "ćďĉ!!!!": 1536,
      "ćďĉďĉ%&'(": 1537,
      "%!!!!!!!!!&'(!!!!!!!!!!!!!!!!!!!!!!!!!!!!!!!!": 1538,
      "ćććććććććććććććććććććććććććććććććććććććć": 1539,
      "Ĉ!Ĉ!Ĉ!ćĈ!Ĉ!Ĉ!": 1540,
      "!!!!!!!!ććĈ!Ĉ!ĈćĈĈĈććĈĈĈććĈ!Ĉ!Ĉ!Ĉ!Ĉ!Ĉ!ćĈ": 1541,
      "ćććĈ!Ĉ!Ĉ!ćĈĈĈĈ!": 1542,
      "ďĉďĉďĉ!ďĉ!%&'(": 1543,
      "(788888888,-%&+": 1544,
      "%ćĈ&'(": 1545,
      "ďĉďĉďĉ!!)!)!!!!!!!!!!!!!!!!!!!!!!!!!!!!!!!!": 1546,
      "Ĉ!Ĉ!Ĉ!Ĉ!Ĉ!Ĉ!ĈĈĈĈ!ĈĈĈĈĈĈĈ!Ĉ!Ĉ!ĈĈ!Ĉ%&'(ďĉĈ!Ĉ!Ĉ!Ĉ!": 1547,
      "ćĈćĈćĈćććĈćĈćććĈćĈćĈ!ĈćĈćĈćĈ": 1548,
      ")!)!!Ĉ!Ĉ!ĈĈ!!!!!": 1549,
      "%!!&'(!!!!!!!!!!!!!!!!": 1550,
      "!!!!!!!!!!!ďĉćććĈ!Ĉ!Ĉ!Ĉ": 1551,
      "ćĈ!ĈĈĈ!ĈĈćĈ!Ĉ!Ĉ!ćĈćĈĈĈĈĈćĈĈćĈćĈćĈćĈĈĈćĈĈĈĈĈĈćĈ!Ĉ!": 1552,
      "ďĉďĉćĈ!ĈĈ!ĈĈĈĈ!Ĉ!Ĉ!ĈĈĈĈĈĈĈĈ!ĈĈĈĈĈ": 1553,
      "Ĉ!Ĉ!Ĉ!Ĉ!Ĉ!Ĉ!ćďĉďĉďĉćĈ!Ĉ!Ĉ!Ĉ!": 1554,
      "ďĉ!!!!ďĉďĉďĉďĉďĉďĉďĉďĉďĉďĉ": 1555,
      "ćććććďĉ!ććććĈćććĈ!Ĉ!Ĉ": 1556,
      "ďĉďĉ%&'(!ďĉďĉďĉ!!ďĉďĉćĈ!Čďĉďĉďĉ!ďĉďĉ!ďĉďĉďĉ!ďĉďĉ!": 1557,
      "ćććććććććććĈ!ĈćĈ!Ĉ!ĈćĈ!ćďĉďĉ!!ćććĈ!Ĉ!ćĈ!Ĉ!ĈĈĈĈ!ććĈ": 1558,
      "ďĉďĉďĉĈ!Ĉ!Ĉ!Ĉ!Ĉ!ćĈ!ĈĈĈĈ": 1559,
      "ďĉďĉ!ďĉďĉ%&'(ćĈ!Ĉ!Ĉ!Ĉ!Ĉ!Ĉ": 1560,
      ")ďĉďĉďĉďĉďĉďĉďĉ!": 1561,
      "MMM": 1562,
      "LLL!LK": 1563,
      "ďĉďĉďĉćďĉ!ďĉďĉďĉďĉ!!": 1564,
      "Ĉ!Ĉ!Ĉ!Ĉ!ĈćĈĈĈ!ĈĈĈćĈćĈĈĈĈĈĈĈćĈĈĈĈĈĈćĈćĈ!ćĈĈ!": 1565,
      "ďĉďĉďĉďĉďĉďĉ!!": 1566,
      "ďĉ!ďĉďĉďĉďĉďĉ": 1567,
      "ćďĉ!ďĉďĉďĉďĉďĉďĉďĉďĉ": 1568,
      "%!!!!!!!!!!!!!!!!!!!!!!!&'(!!!!!!!!!!!!!!!!!!!!!!!!!!!!!!!!": 1569,
      "%!&'(!!!!!!!!!!!!!!!!": 1570,
      "ćĈ!ćĈ!Ĉ!ćĈĈ!Ĉ!Ĉ!Ĉ!ćĈćĈĈćĈ!Ĉ!Ĉ!ćĈ!Ĉ!Ĉ!Ĉ!ćĈ!Ĉ!": 1571,
      "ďĉďĉ!ďĉ!!!!!!!!": 1572,
      "ćććĈ!Ĉ!ććĈ!ćĈ!ćČďĉ!!!": 1573,
      "ďĉ%&'(ďĉďĉďĉďĉďĉďĉ!": 1574,
      "ďĉďĉ!ďĉ%&'(ďĉ": 1575,
      "ć'(": 1576,
      "%!!!!!!!!!!!!!!!!!!!!!!!!!!": 1577,
      "ďĉ!!!!!!!!!!!!!!!!!!!!!!!!": 1578,
      "ďĉďĉďĉ%&'(ďĉďĉďĉ": 1579,
      "ććĈ!Ĉ!Ĉ!Ĉ!Ĉ!Ĉ!ććĈ!ć": 1580,
      "ćććććććĈ!ćČ": 1581,
      "ćććďĉććććććĈ!ććČ": 1582,
      "ćććĈ!Ĉ!Ĉ!ćĈ!Ĉ!Ĉ!Ĉ!Ĉ!!": 1583,
      "ďĉ%&'(ďĉďĉďĉ": 1584,
      "ďĉ!!ďĉ!ććĈ!ďĉ!ďĉďĉ!!ďĉďĉ)ďĉďĉ!": 1585,
      "ćććććĈ!ĈĈćĈĈćĈ": 1586,
      "ććććććĈ!ććĈ!Ĉ!Ĉ!ĈćĈ!Ĉ!ĈćĈććĈĈ!ĈĈĈ": 1587,
      "ďĉćććďĉ!": 1588,
      "ďĉ!ďĉććććĈ!ćĈ!ĈĈ!ććĈ!ćĈ!ĈĈ!ćĈ!Ĉ!ćĈ!ďĉ!": 1589,
      "ćć%&'(": 1590,
      "&'(!!!!!!!": 1591,
      "ć%&'(ďĉďĉ": 1592,
      "ćććććććĈ!Ĉ!Ĉ!ćĈ!Ĉ!Ĉ!ćďĉ!": 1593,
      "ďĉďĉ!ďĉ!!ďĉććććććĈ!ććĈ!ććĈ!Ĉ!Ĉ!Ĉ!ćććĈ!Ĉ!Ĉ!ććĈ": 1594,
      "ďĉ!ďĉďĉďĉćĈ!Ĉ!Ĉ!Ĉ!ĈĈ!Ĉ!Ĉ!Ĉ!": 1595,
      "ďĉ!ďĉĈ!Ĉ!ćĈ!Ĉ!ĈĈĈďĉ!ďĉ!!!SĂĄĆ!!ďĉ!!!!!!": 1596,
      "ďĉ!!ďĉ!ďĉďĉďĉ!ďĉ!!!!!": 1597,
      "ďĉ!!ďĉďĉďĉ!": 1598,
      "ćďĉćĈ!ććĈ!ćĈ!Ĉ": 1599,
      "ććććććććĈ!ćććĈ!Ĉ!ćĈ!ďĉ": 1600,
      "ćďĉ!ďĉďĉ!!": 1601,
      "ďĉ!!ďĉ!!!!!!!!!!!ďĉ!!ćććććććĈ!Ĉ!Ĉ!ććĈĈććĈ!ćĈĈ%&'(ďĉďĉ!!!": 1602,
      "!!!!!!!!!!!!ďĉ!ďĉ!!!!!!ďĉďĉ!!": 1603,
      "ďĉ!ďĉ!ďĉ!ďĉ!ďĉ!ďĉ": 1604,
      "ďĉďĉďĉ!ďĉ!%&'(!!!!!!!!!!!!ďĉ!ďĉ!!!!!!ďĉďĉ!!": 1605,
      "ďĉ!!!!!!!!!!!!!!!!!!!!!!!!!!!!!!!!!!!!!!!!!!!!!": 1606,
      "ććććĈ!Ĉ!Ĉ!Ĉ!Ĉ!ĈĈ!Ĉ!ć": 1607,
      "ćĈ!ĈĈĈ!ĈĈćĈ!Ĉ!Ĉ!ćĈćĈĈĈĈĈćĈĈćĈćĈćĈćĈĈĈćĈĈĈĈĈĈćĈ!Ĉ!ć%&'(": 1608,
      "!!!!!!!!!!!!!!!)!)!!!!!!!!!!!!!!!!!!!!!!!!!!!!!!!!": 1609,
      "ďĉďĉ!!ďĉ!ďĉ!!ďĉďĉďĉ!ďĉ": 1610,
      "00101": 1611,
      "!!!!!!!!!!!!!!!!!!!": 1612,
      "%&'(ďĉ!!!!!!!!!!!!!!!!!!!!!!!!!!!!!!!!": 1613,
      "ďďĉĉ!": 1614,
      "RTVa!!!S": 1615,
      "ďĉďĉďĉďĉ%&'(ďĉďĉďĉďĉ": 1616,
      "ďĉďĉ!ďĉďĉďĉ": 1617,
      "ďĉ!!ďĉďĉďĉďĉďĉ!!ďĉ!ďĉ!ďĉďĉďĉ!": 1618,
      "ć%&'(ďĉĈ!ćĈ!Ĉ!Ĉ!ćĈ!Ĉ!Ĉ!ĈĈ!": 1619,
      "ćď%&'(ĉ": 1620,
      "ďĉďĉďĉďĉďĉ!)!)!ďĉďĉ!!!)!)!!": 1621,
      "Ĉ!Ĉ!ĈĈĈĈĈ!Ĉ!Ĉ!ďĉ": 1622,
      "ćććććććććććĈ!ćĈ!!ććĈ!ććĈ!ćĈ!Ĉ!Ĉ!Ĉ!Ĉ!Ĉ!ĈćĈĈĈĈ!ĈććĈ!ććććĈć!!": 1623,
      "ē!": 1624,
      "ćććĈ!Ĉ!Ĉ!Ĉ!Ĉ!Ĉ!Ĉ!Ĉ!Ĉ!Ĉ!": 1625,
      "ďĉďĉďĉ!ďĉďĉ!ďĉďĉ!!ďĉ!!ďĉďĉćććĈ!Ĉ!Ĉ!Ĉ!Ĉ!Ĉ": 1626,
      "ďĉďĉďĉďĉďĉ!!ďĉ!!!!": 1627,
      "ćĈ!Ĉ!ććĈćĈ!ĈĈĈĈĈĈćĈ!ććĈććĈ!ćĈ!ĈććĈĈ!Ĉ!ĈĈĈ!ććĈ!Ĉ!ĈćĈ!ććĈ!Ĉ!Ĉ": 1628,
      "ďĉďĉćććććććć": 1629,
      "!!!!!!!ďĉ!!ďĉďĉ!!!ďĉďĉďĉďĉďĉ!ďĉ": 1630,
      "ďĉďĉ%&'(!ďĉďĉďĉ!!ďĉďĉćĈ!Čďĉďĉďĉ!ďĉďĉ!ďĉďĉďĉ!ďĉďĉ!ďĉďĉďĉ": 1631,
      "ćććććĈ!ĈĈćĈĈćĈďĉćććććććć": 1632,
      "ďĉďĉďĉ!ććĈ!ć": 1633,
      "7'7777": 1634,
      "ďĉďĉďĉ%ď&'(ĉ": 1635,
      ")!)!!ďĉďĉ!!!!!!!!!!!!!!!!!!!!!!!!!!!!!!!!": 1636,
      "7'777777": 1637,
      "ć%Ĉ&'(": 1638,
      "ħ)": 1639,
      "%&'(ďĉďĉ!!!!ďĉ!!)ďĉďĉ!": 1640,
      "R%&'(TVa": 1641,
      "ć)": 1642,
      "%&'(ďĉďĉ!!": 1643,
      ")!)ďĉďĉďĉďĉďĉďĉ!!!ďĉ!!ďĉ!ďĉ!": 1644,
      "ćĈ!!": 1645,
      "ććĈ!ďĉ!ďĉ!!ćĈ!": 1646,
      "Ĉ!)": 1647,
      "ďĉ!ďĉďĉ!ďĉ!ďĉďĉďĉ!": 1648,
      ")!)!!!!!!!!ďĉ!ďĉďĉ!!!!!!!!!!!!!!!!!!!!!!!!!!!!!!!!": 1649,
      "ćććĈ!Ĉ!Ĉ!Ĉ!ĈĈĈĈĈĈĈĈĈĈ!ćĈ!Ĉ!ĈćĈĈćĈćĈĈĈćĈĈďĉĈ!ĈĈĈĈ": 1650,
      "ććĈ!ćććĈ!ćććĈ!ćććĈ!Ĉ!Ĉ!ďĉćććĈ!ć": 1651,
      "ćććććććĈ!ćČČ": 1652,
      "ďĉďĉćććĈ!Ĉ!Ĉ!Ĉ!Ĉ!Ĉ!ćććććĈ!ćĈĈ": 1653,
      "ďĉ%&'(Ĉ!Ĉ!ĈĈĈĈĈĈĈĈĈĈĈĈĈĈĈĈĈĈĈĈĈĈĈĈďĉ!": 1654,
      "ďĉďĉďĉďĉďĉďĉ!ďĉďĉ!ďĉďĉďĉ!!": 1655,
      "ććĈ!Ĉďĉ%&'(Ĉ!Ĉ!ĈĈĈĈĈĈĈĈĈĈĈĈĈĈĈĈĈĈĈĈĈĈĈĈďĉ!": 1656,
      "ďĉ!ďĉ!!!!!!!!!!!ďĉ!!ďĉďĉďĉďĉďĉďĉ!": 1657,
      "ćććĈ!Ĉ!ćććĈĈćĈ!ĈĈĈ!!ćććć!!!!!!!!!!!!!!!!!!!!%&'(%&'(ďĉďĉďĉ": 1658,
      "ďĉďĉďĉďĉďĉďĉR%&'(TVa": 1659,
      "%&'(ďĉĈ!Ĉ!Ĉ!Ĉ!ĈĈĈĈĈĈĈĈĈĈĈĈĈĈ!Ĉ!Ĉ!Ĉ!Ĉ!ĈĈĈ!ĈĈ": 1660,
      "ĥ!": 1661,
      "77'7777": 1662,
      "ćďĉ!ććććććććĈ!Ĉ!ćĈĈćĈ!ĈĈćĈ!ćĈĈćĈ!Ĉ!": 1663,
      "ďĉďĉďĉďĉććććĈ!ĈĈ!ćĈ!ĈĈ!Ĉ!Ĉ!ćĈ!ćĈ": 1664,
      "77'77777": 1665,
      "FD": 1666,
      "!!!!!!!!!!!!ďĉ!!ďĉ": 1667,
      "ďĉ!!!!!!!!!!!!!!!!!!!ććĈ!ćĈ!ćĈ!ćďĉ": 1668,
      "ćďĉ!!!!ćďĉ!": 1669,
      "ďĉ!ďĉďĉďĉ%&'(": 1670,
      "ćĈ!Ĉ!Ĉ!Ĉ!Ĉ!Ĉ!Ĉ!Ĉ!ćĈ!ćĈ!Ĉ!ĈćĈ!Ĉ!ďĉćĈ!": 1671,
      "ďĉďĉďĉďĉďĉďĉR%&'(TVaďĉććĈ!ćććĈćććĈĈ!Ĉ!ćĈ!ććĈćĈ!ćĈ!!Č!!Č!": 1672,
      "ć%&'(Ĉ!Ĉ!Ĉ!Ĉ!Ĉ!Ĉ!": 1673,
      "!LK!LK!LK!LK!LK!LK!LK!LK!LK!LK!LK!LK!LK!LK!LK!LK": 1674,
      "Ĉ!Ĉ!Ĉ!ćĈ!Ĉ!Ĉ!ććĈ!Ĉ!Ĉ!Ĉ!Ĉ!Ĉ!ćĈ": 1675,
      "ďĉďĉ!ďĉďĉ!!!ďĉćĈ!Ĉ!ććĈ!ććĈ!ĈĈ!ććĈ!Ĉ!Ĉ": 1676,
      "%!!!!!!!!!!!!!!!!!!!!!!!!!!!": 1677,
      "&'(ďĉ!!!!!!!!!ćććĈ!Ĉ!Ĉ!Ĉ!Ĉ!Ĉ!ĈĈĈĈĈĈĈĈĈĈĈĈ": 1678,
      "ďĉďĉ!ďĉ!)ďĉďĉďĉćďĉďĉ!ďĉďĉďĉ!!ďĉ!!!!": 1679,
      ")!!!": 1680,
      "ćďĉďĉ!ďĉďĉ": 1681,
      "ďĉ!!!!!!!!!": 1682,
      "ććććĈ!ĈĈďĉ!!!!!!!!!!!": 1683,
      "ćććććďĉ!ććććĈćććĈ!Ĉ!ĈćĈ!ć": 1684,
      "ďĉďĉďďĉĉ": 1685,
      "%&'(ďĉĈ!ćĈ!Ĉ!Ĉ!Ĉ!Ĉ!Ĉ!ćĈ!ćĈ!ćĈ!Ĉ!Ĉ!ćĈ!ĈĈĈćĈćĈćĈĈĈćĈ": 1686,
      "&'(!ďĉ!)!)!!!!!!!!!!ďĉ!!!!!!": 1687,
      "ďĉďĉďĉďĉďĉ!ďĉďĉďĉ!": 1688,
      ")ććććććććććććĈ!ććĈ!ćĈ!ćĈ!Ĉ!Ĉ!ćĈ!Ĉ!ćĈ!%&'(ďĉ": 1689,
      "ć%ć&'(": 1690,
      "'7777777": 1691,
      "Ē!!!": 1692,
      "ď%&'(ĉďĉďĉ": 1693,
      "ďĉ%&'(ďĉďĉďĉďĉďĉďĉ!ďĉďĉďĉďĉ!!": 1694,
      "ď%&'(ĉ!!": 1695,
      "&'(!!!!!!!!!!!!!!!!!!!!!!Ĉ!ďĉďĉćĈ!ďĉ!": 1696,
      "%&'(ćďĉ!": 1697,
      "Ĉ!Ĉ!ĈćĈ!Ĉ!Ĉ!Ĉ!Ĉ!Ĉ!Ĉ!Ĉ!Ĉ!Ĉ!ďĉďĉ!ďĉ%&'(ćććććććććććććććć": 1698,
      "010011": 1699,
      "&'(!ďĉ!!!!!!!!!!!!!!ďĉďĉďĉďĉććććĈ!ćĈ!Ĉ!": 1700,
      "%&'ď(ĉ!": 1701,
      "244444444%&55555555222222222222222222222222666666667'777777": 1702,
      "ćĈĈĈĈĈĈĈĈććĈćĈĈ!ććĈĈĈĈćĈĈĈĈćĈĈĈĈĈĈĈĈććĈćďĉ!": 1703,
      "M&'(": 1704,
      "ďĉďĉ!!!!!!!!!!!!!!!!!!!!!": 1705,
      "ćĈ!ĈĈ!ćĈ!ć": 1706,
      "ďĉďĉ!!!!ďĉ!!!ćććććĈ!ĈĈ!ĈĈĈ!Ĉ!Ĉ!Ĉ!Ĉ!Ĉ!Ĉ!Ĉ!Ĉ!Ĉ!Ĉ!Ĉ!ćĈ!": 1707,
      "323232222222222222222222222222222222222222222": 1708,
      "Ĉ!Ĉ!Ĉ!ĈĈĈĈĈĈĈĈĈĈ!ĈĈĈ!ĈĈ!ĈĈĈĈ!ĈĈ!ĈďĉĈ!ĈĈĈĈĈĈĈĈ!ĈĈĈ!": 1709,
      "001011": 1710,
      "ďĉ!ďĉďĉ%&'(": 1711,
      "ććĈ!ććććĈćĈćĈćĈććććĈ!Ĉ!ććĈ!ĈććććĈćĈćĈćĈćĈćĈćĈćĈćĈćĈć": 1712,
      "%&'(%&'(ďĉ!!ććććććĈććĈ!ďĉćĈ!Ĉ!Č": 1713,
      "ćććĈ!Ĉ!Ĉ!Ĉ!Ĉ!Ĉ!ćĈ!Ĉ!Ĉ!Ĉ!ćĈ!Ĉ!Ĉ!Ĉććďĉ!ćĈ!ćĈ": 1714,
      "ďĉĦ": 1715,
      "ćďĉďĉććĈ!": 1716,
      "ććĈ!Ĉ!ćĈĈ!ćĈ!Ĉ!Ĉ!Ĉ!Ĉ!ĈĈĈćĈ!Ĉ!Ĉ!ćďĉććć": 1717,
      "ďĉďĉďĉďĉďĉ!!ďĉ!": 1718,
      "ććĈ!ćĈ!Ĉ!ĈĈĈ!ĈĈĈććĈ!ĈĈ!ĈĈĈĈ!ĈĈ!ĈĈĈĈďĉďĉďĉ!!!!!!!!!!": 1719,
      "ć%&'(Ĉ!Ĉ!Ĉ!Ĉ!Ĉ!Ĉ!ĈĈĈ!ĈĈĈĈ!ĈĈ!Ĉ!Ĉ!Ĉ!ĈĈĈ!Ĉ!ĈĈ!Ĉ": 1720,
      "ćďĉďĉ!ďĉďĉć%&'(Ĉ!Ĉ!Ĉ!Ĉ!Ĉ!Ĉ!ĈĈĈ!ĈĈĈĈ!ĈĈ!Ĉ!Ĉ!Ĉ!ĈĈĈ!Ĉ!ĈĈ!Ĉ": 1721,
      "%&'(ĂĄĆ!!!!R!!!S": 1722,
      "ććććĈ!ćĈ!Ĉ!ĈćĈ!Ĉ!": 1723,
      "Lĉ": 1724,
      "244444444%&55555555222222222222222222222222666666667777": 1725,
      "ďĉďĉ!ďĉďĉćććććĈ!ćČ": 1726,
      "ďĉďĉďĉďĉ%&'(": 1727,
      "ďĉďĉďĉďĉďĉďĉďĉďĉ!!!ďĉďĉďĉďĉ": 1728,
      "Ĉ!Ĉ!Ĉ!!ĈĈ!ĈććĈ!Ĉ!ĈĈ!ĈĈ!Ĉ!ćĈ!": 1729,
      "244444444%&555555552222222222222222222222226666666677'77777": 1730,
      "&'(!!": 1731,
      "%!!!!!!!!!!!!!!!!!!!!!!!!!!!!": 1732,
      "ďĉ!ďĉďĉďĉďĉ!!!!!!!!!!!!!!!!!!!!!Ĉ!Ĉ!Ĉ": 1733,
      "ďĉ!!!!!!!!!!!!!!!!!": 1734,
      "Ĉ!ćĈ!Ĉ!ĈćĈĈĈćĈĈĈĈĈ": 1735,
      "ćććććććĈ!Ĉ!ććććććĈ!ćĈĈ%&'(ďĉďĉĈ!ĈĈďĉ!!)!)!!!!!!!!!!!!!!!!": 1736,
      "ďĉďĉďĉďĉďĉ)!)ďĉďĉďĉćććĈ!Ĉ!Ĉ!ĈĈ!Ĉ!ćĈ!Ĉ!Ĉ!ĈćĈ!Ĉ!Ĉ!Ĉ": 1737,
      "ćĈćďĉďĉďĉ": 1738,
      "ĉĉĉ": 1739,
      "&'(!!!!!!!!!!!!!!!!!!!!!!!!!!": 1740,
      "ćďĉ#$ćĈ!ćć%&'(ďĉďĉ!!!!ďĉ!!)ďĉďĉ!": 1741,
      "ďĉďĉďĉďĉďĉ!ďĉ!ďĉďĉďĉďĉ": 1742,
      "Mĉ": 1743,
      "ćĈ!)!)!!Ĉ!Ĉ!ĈĈ!!!!!": 1744,
      "244444444%&5555555522222222222222222222222266666666'7777777": 1745,
      "ďĉććĈĈĈĈĈďĉďĉ": 1746,
      "ććććććććććććććććććććććććććĈ!ćććĈ!Ĉ!ćĈ!Ĉ!ćĈ!ćĈ!ćĈ!ĈĈ!Ĉ!": 1747,
      "ććććććććććććććććććććććććććććććććććććććććććććĈ!ćĈ!Ĉ!ĈćĈ!Ĉ!": 1748,
      "Ĉ!ćĈ": 1749,
      "ďĉ!ďĉ!!!!!!!!ććĈ!Ĉ!ĈćĈĈĈććĈĈĈććĈ!Ĉ!Ĉ!Ĉ!Ĉ!Ĉ!ćĈ": 1750,
      "Ĉ!Ĉ!ĈĈĈĈ!Ĉ!Ĉ!ĈĈĈĈĈĈĈĈĈĈ!ĈĈĈ!ĈĈ!ĈĈĈĈ!ĈĈ!ĈďĉĈ!ĈĈĈĈĈĈĈĈ!ĈĈĈ!": 1751,
      "%&'(ďĉ!ćććĈ!Ĉ!ćĈ!Ĉ!ĈĈ!Ĉ!ĈćĈĈĈĈĈ!Ĉ!Ĉ!Ĉ!Ĉ!Ĉ!ĈĈĈ!Ĉ!ĈĈĈĈ": 1752,
      "ďĉ!ďĉ!!!!!!!!!!!ďĉ!ďĉććććććĈććĈ!": 1753,
      "%&'(ďĉ!!ďĉďĉďĉďĉďĉďĉ!ďĉďĉ!ďĉďĉďĉ!!": 1754,
      "ďĉďĉďĉďĉ%ď&'(ĉ": 1755,
      "ďĉ!ďĉ!!ďĉććććććććććććććććććććććĈ!ććĈ!ćĈ!ććĈ!": 1756,
      "ďĉďĉďĉďĉ!ďĉďĉ!!!!!!!!!!!!!!!!!!!!!!!!!!!": 1757,
      "ćĈ!Ĉ!ćĈ!ćĈ!Ĉ!": 1758,
      "%!!!!!!!!!!!!!!!!!!!!!!!!!!!!!!": 1759,
      ")!!!!!!!!!!!!!!!!!!!!!!!!!!!!!!!!ďĉďĉďĉ!": 1760,
      "ććććććććĈ!Ĉ!Ĉ!Ĉ!ćĈĈĈĈ!Ĉ!ćĈ!ďĉďĉ": 1761,
      "ćĈ!ćďĉďĉ!ďĉďĉćććććĈ!ćČ": 1762,
      "ďĉďĉďĉ!ďĉ!%&'(!!!!!!!!!!!!ďĉ!ďĉ!!!!!!ďĉďĉ!!ďĉ!ďĉďĉ!!": 1763,
      "ďĈĈ": 1764,
      "%&'(ďĉďĉďĉďĉďĉďĉďĉ": 1765,
      "Ĉ!Ĉ!!": 1766,
      "%&'ć(": 1767,
      "%&ď'(ĉ!": 1768,
      "ććććĈ!ćĈ!Ĉ!Ĉ!ĈĈ!Ĉ!Ĉ!ĈććĈ!ć": 1769,
      "ďď!": 1770,
      "ďĉďĉĉ": 1771,
      "ďĉďĉďĉďĉćĈ!ĈĈ!Ĉ!ďĉ!ďĉ!ďĉďĉďĉ!!": 1772,
      "ďĉďĉćććććććĈĈććććććĈ!ćĈĈ": 1773,
      "ćććĈ!Ĉ!Ĉ!Ĉ!Ĉ!Ĉ!Ĉ!Ĉ!Ĉ!Ĉ!ćĈ!ćĈ!Ĉ!ćĈ!Ĉ!Ĉ!ćĈ!Ĉ!": 1774,
      "ďĉ%!&'(": 1775,
      "ďĉćĈ!ćĈ!Ĉ!ććĈ!Ĉ!Ĉ!Ĉ!ćĈĈĈ!Ĉ!ćĈ!Ĉ!ĈĈĈ!ĈĈĈććĈ!ćĈćĈĈĈ!Ĉ": 1776,
      "ććĈ!Ĉ!Ĉ!ćĈ!ďĉďĉďĉďĉďĉďĉ": 1777,
      "ď)": 1778,
      "ďĉ!ďĉďĉďĉďĉćďĉ!": 1779,
      "%ćć&'(": 1780,
      "ćććĈ!Ĉ!ććĈ!ćĈ!ćČďĉ!!!ďĉ!": 1781,
      "RTVa!!!S%&'(ĂĄĆ!!!!R!!!S": 1782,
      ")!)!!!!!!!!!!!!!!!": 1783,
      "ďĉďĉ%&'(ďĉďĉ": 1784,
      "ććĈ!ćďĉďĉďĉďĉďĉďĉďĉ!!": 1785,
      "ćĈ!Ĉ!ĈćĈ!Ĉ!ćĈ!ććĈĈĈĈĈćĈćĈ%&'(ďĉ": 1786,
      "ę!": 1787,
      "Ĉ!ć": 1788,
      "ďĉďĉďĉďĉďĉďĉďĉďĉ!ďĉďĉďĉďĉďĉćććć": 1789,
      "ďĉ!!ďĉďĉďĉďĉďĉďĉ!ďĉďĉ!!": 1790,
      "%&'(ďĉďĉ!!ďĉćććĈ!Ĉ!Ĉ!ćĈ!Ĉ!Ĉ": 1791,
      "ďĉďĉ!!!!!!!": 1792,
      "ďĉďĉďĉďĉďĉ!ďĉďĉďĉďĉ": 1793,
      "ďĉďĉďĉ!!ďĉďĉ!ďĉ!!ďĉććććććĈ!ććĈ!ććĈ!Ĉ!Ĉ!Ĉ!ćććĈ!Ĉ!Ĉ!ććĈ": 1794,
      "%Ĉ&'(Ĉ": 1795,
      "ďĉďĉ!ďĉďĉćććććďĉ!": 1796,
      "ďĉ!!!!!!!!!!!!!!!!!!!!!!!!!!!!!!!!!!!ďĉ!ďĉďĉ!": 1797,
      "ćććĈ!Ĉ!Ĉ!ćĈĈĈĈ!ćĈ!ĈĈ!ćĈ!ć": 1798,
      "%M&'(": 1799,
      "AB": 1800,
      "ď%&'(ĉďĉ": 1801,
      "ďĉďĉďĉďĉ!ďĉďĉďĉďĉ!ďĉ!!": 1802,
      "%&'(ďĉďĉďĉ!ććĈ!ćďĉďĉďĉďĉďĉďĉďĉďĉ": 1803,
      "Ē!!Ė": 1804,
      "ććĈ!Ĉ!Ĉ!Ĉ!ćĈ!Ĉ!!Ĉ!ćĈ!ćĈ!ććĈ!Ĉ!ćĈ!ďĉ!%&'(": 1805,
      "ďĉďĉ!%&'(": 1806,
      "ďĉďĉďĉ%&'(ďĉďĉďĉďĉďĉďĉďĉďĉ": 1807,
      "ďĉ!!ďĉ!!!!!!": 1808,
      "&'(!!!!!!!!!!!!!!!!!!!!!!!!!!!!!!!": 1809,
      "KK": 1810,
      "ďĉďĉďĉďĉďĉďĉ%&'(ďĉďĉ!ďĉďĉďĉ": 1811,
      "%!!!!!!&'(": 1812,
      "ććććĈ!ćććĈććĈćććĈććććĈććĈććććĈććĈć%&'(ďĉ!!!!!!!!!": 1813,
      "Ĉ!Ĉ!ĈĈĈĈĈ!Ĉ!Ĉ!ďĉĈ!Ĉ!ĈĈĈ!Ĉ!Ĉ!Ĉ!ĈĈĈĈĈ!ĈĈĈĈ!ĈĈĈĈĈĈĈĈĈĈĈĈ!Ĉ!": 1814,
      ">>": 1815,
      "ďLĉ": 1816,
      "23232222222222222222222222222222222222222222": 1817,
      "ďĉ!ďĉ!!!!!!ďĉďĉ!!!!ďĉďĉďĉ": 1818,
      "&'(!!!!!!!!!!!!!!!!!!!!!!Ĉ!ďĉďĉćĈ!ďĉ!ććĈ!%&'(": 1819,
      "ħ!": 1820,
      "%&'(Ĉ!Ĉ!ćććććĈ!ćĈĈ": 1821,
      "ďĉďĉďĉďĉ!!!!ďĉ!!ďĉďĉďĉďĉďĉďĉďĉďĉ!": 1822,
      "ďĉďĉďĉ%&'(Ĉ!Ĉ!Ĉ!Ĉ!ćććĈ!": 1823,
      "ďĉďĉďĉĈ!Ĉ!Ĉ!Ĉ!Ĉ!ćĈ!ĈĈĈĈćĈ!ćĈ!": 1824,
      "!!!!ďĉďĉ!!!!!!!!!!!!!!!!!!!!!": 1825,
      "Ĉ!Ĉ!Ĉ!ĈĈĈĈĈĈĈĈĈĈ!ĈĈĈ!ĈĈ!ĈĈĈĈ!ĈĈ!ĈďĉĈ!ĈĈĈĈĈĈĈĈ!ĈĈĈ": 1826,
      "ćďĉďĉ!": 1827,
      "ĉ!!": 1828,
      "ďĉďĉďĉ!ďĉ!ďĉ!ďĉ": 1829,
      "ďĉďĉďĉ!ďĉďĉ!!ďĉďĉďĉ!": 1830,
      "ďĉ!ďĉďĉďĉĈ!Ĉ!Ĉ!Ĉ!ććĈćć": 1831,
      "%!!!!!!!&'(!ďĉ!!!!!!!!!!!!!!ďĉďĉďĉďĉććććĈ!ćĈ!Ĉ!": 1832,
      "%!!!!!&'(": 1833,
      "ćććĈ!Ĉ!Ĉ!Ĉďĉ!!!!!ďĉ!)!)!!!!!!!!!!!!!!ďĉ!!!!!!!!!!!!!": 1834,
      "ĉĈ": 1835,
      "ďĉďĉďĉďĉďĉďĉďĉďĉ!!": 1836,
      "ďĉ!ďĉďĉďĉďĉďĉďĉďĉćďĉ!ďĉďĉďĉďĉ!!": 1837,
      "%!!!!!!!&'(": 1838,
      "01'(333": 1839,
      "ďĉććĈĈĈĈĈďĉďĉ)!)!!": 1840,
      "ď!ĉ!": 1841,
      "ćĈ!Ĉ!ĈĈĈĈĈĈććĈ!ćďĉ!!!!!!!!ďĉ!ďĉ!": 1842,
      "ććććććććććććČďĉďĉććĈ!ćĈ!ćĈ!ćĈ!ćĈćĈćĈćďĉďĉ": 1843,
      "ćććććĈ!ĈĈćĈĈćĈďĉććććććććĈ!Ĉ!Ĉ!ĈćĈĈ!Ĉ!ĈćĈĈ!ćĈ!Ĉ!ĈĈĈĈćĈĈĈĈ": 1844,
      "ćĈ!ćĈ!ćďĉďĉďĉďĉ!ďĉ!ďĉďĉ": 1845,
      ")!)!!!!!!!!!!!!!!!!!!!!!!!!!!!!!!!!)!)!!)!)!!!!!!!!!!!!!!!!": 1846,
      "ďĉďĉďĉďĉ!ďĉďĉ!!ďĉďĉďĉďĉďĉďĉďĉ!ďĉ!ďĉ": 1847,
      ")ďĉďĉďĉďĉďĉďĉďĉ!ďĉ!!": 1848,
      "ďĈ!Ĉ": 1849,
      "ďMĉ": 1850,
      "ĈĈĈĈĈĈĈ": 1851,
      "ďĉďĉďĉ!!!!!ďĉďĉďĉ!ďĉďĉćććććĈ!Ĉ!ćĈĈ": 1852,
      "ćĈ!%Ĉ&'(!": 1853,
      "ďĉ!ďĉ%&'(": 1854,
      "%!!!!!!!!!!!!!!!!!!!!!!!!!!!!!": 1855,
      "ďĉ!ďĉďĉ!ďĉćććĈ!Ĉ!Ĉ!Ĉ!": 1856,
      "ćĈ!Ĉ!Ĉ!Ĉ": 1857,
      "ćďĉďĉćććĈ!ćĈ!Ĉ!Ĉ!ćĈ!Ĉ!ćĈ!Ĉ!Ĉ!Ĉ!ćĈ!Ĉ!": 1858,
      "ďĉďĉďĉďĉďĉďĉ%&'(ďĉďĉ!ďĉďĉďĉćććććĈ!Ĉ!Ĉ!ćĈĈćĈ": 1859,
      "%&Ĉ'(!": 1860,
      "ďĉďĉ!ďĉ!ďĉďĉďĉ!": 1861,
      "%ď&'(ĉ!!": 1862,
      "ĥĤ!": 1863,
      "ďĉ!ďĉďĉ!ďĉćććĈ!Ĉ!Ĉ!Ĉ!%&'(Ĉ!Ĉ!ćććććĈ!ćĈĈ": 1864,
      "Ħ!": 1865,
      "ďĉďĉďĉďĉďĉďĉďĉďĉďĉ": 1866,
      "ďĉ!ďĉ!ďĉďĉďĉ": 1867,
      "32222": 1868,
      "Ĉ!%Ĉ&'(!": 1869,
      "ďĉ!ďĉ!ďĉďĉ!!": 1870,
      "ďĉďĉďĉ%&'(ďĉďĉďĉďĉďĉ": 1871,
      "ďĉ!ďĉďĉ!!ďĉďĉďĉďĉ": 1872,
      "ďĉďĉćććććććĈĈććććććĈ!ćĈĈ%&'(ďĉďĉ!!": 1873,
      ")ħ": 1874,
      "ďĈ!Ĉ!ĉ": 1875,
      "ĒĒ": 1876,
      "%&'(ďĉďĉ)!)!!ďĉďĉ!!!!!!!!!!!!!!!!!!!!!!!!!!!!!!!!": 1877,
      "777'7777": 1878,
      "ďĉććĈĈĈĈĈ%&'(ďĉďĉ)!)!!ďĉďĉ!!!!!!!!!!!!!!!!!!!!!!!!!!!!!!!!": 1879,
      "ććďĉďĉ)ćďĉ": 1880,
      "ďĉďĉďĉ!ďĉďĉ!ďĉďĉ!!ďĉ!!ďĉďĉćććĈ!Ĉ!Ĉ!Ĉ!Ĉ!ĈćĈĈ!Ĉ!ĈĈĈćĈćĈ!ććĈ!!": 1881,
      "%&'(ďĉďĉ!!!!!!!!!!!ďĉćććĈ!Ĉ!Ĉ!Ĉ": 1882,
      ")!)!!!!!!!!!!!!!!!!!": 1883,
      "%&'Ĉ(!": 1884,
      "&'(!!!!!!!!!!!!!!!!!!!!!!!!!!!!!": 1885,
      "ďĉĈ!ĈĈĈĈĈĈĈĈ!ĈĈĈ": 1886,
      "ćććĈ!Ĉ!Ĉ!Ĉ!Ĉ!Ĉ!ćććććĈ!ćĈĈ%&'(ďĉďĉ!!!!!!!!!!!ďĉćććĈ!Ĉ!Ĉ!Ĉ": 1887,
      "ĈĈĈ!Ĉ": 1888,
      "!!!!!!!!!!!!!!ďĉďĉ!ďĉ!)ďĉďĉďĉćďĉďĉ!ďĉďĉďĉ!!ďĉ!!!!": 1889,
      "ć%&'(ďĉďĉďĉďĉ!": 1890,
      "ďĉ!ďĉďĉďĉďĉďĉďĉďĉďĉďĉďĉ!!": 1891,
      "%&'(%&'(%&'(%&'(%&'(%&'(%&'(%&'(%&'(%&'(%&'(%&'(": 1892,
      "ććĈ!ćďĉććććććććĈ!Ĉ!Ĉ!Ĉ!ćĈĈĈĈ!Ĉ!ćĈ!": 1893,
      "ďĉďĉććććććĈ!ćććĈ!ćććĈ!ćĈ!ćďĉďĉďĉďĉ!": 1894,
      "ćććććĈ!Ĉ!Ĉ!ćĈĈćĈďĉďĉĈ!Ĉďĉ!ďĉ!ďĉ": 1895,
      "ććĈ!Ĉ!Ĉ!ććĈ!Ĉ!Ĉ!ĈĈ!Ĉ!!ćĈ!Ĉ!Ĉ!Ĉ!ćĈ!ććĈ!ćďĉ!ďĉďĉ!!": 1896,
      "ććĈ!Ĉ!ĈĈĈ!Ĉ!Ĉ!ĈĈćĈďĉ!!ďĉďĉ!!!)!)!!!!!!!!!!!!": 1897,
      "ďĉďĉďĉďĉ%&'(ďĉďĉďĉďĉćććććććććććććććĈ!Ĉ!Ĉ!ćĈ!Ĉ!": 1898,
      "&'(ććććććććĈ!ćććĈ!Ĉ!ćĈ!ďĉ": 1899,
      "%&'(Ĉ!": 1900,
      "ćĈĈćĈĈĈĈĈĈćĈĈĈĈćĈĈćĈĈćĈ!ćććĈ!ććďĉďĉ!!!!": 1901,
      "Ĉ!ĈĈĈĈĈĈ!Ĉ!ĈĈ!ĈĈĈĈ!ĈĈĈĈĈĈĈĈ%&'(ďĉćĈ!Ĉ!Ĉ!Ĉ!Ĉ!Ĉ!ĈĈďĉ!!!": 1902,
      "ćL": 1903,
      "ď%&'(ĉďĉďĉďĉ": 1904,
      "!!!!!!!!!ďĉ!!!!!!!!!!!)!!!!!!!!!!!!!!!ďĉďĉ%&'(ďĉ": 1905,
      "đđ": 1906,
      "ďĉďĉććććććĈ!ćććĈ!ćććĈ!ćĈ!": 1907,
      "%L": 1908,
      "%!!!!!!!!!!!!!!!!!!!!!!!!!!!!!!!!": 1909,
      "%!ć": 1910,
      "Ĉ!ĈććĈĈ!Ĉ!ććĈ!Ĉ!ĈĈ!ĈĈĈďĉďĉďĉďĉďĉďĉďĉ": 1911,
      "RTVa!!!SĂĄĆďĉćććďĉ!": 1912,
      "ďĉ!!!!!!!!!!!!!!!!!!!ććĈ!ćĈ!ćĈ!ćďĉ!!!!!!!!!!!!!!!": 1913,
      "ćććĈ!Ĉ!Ĉ!Ĉ!ĈĈĈĈĈĈĈĈĈĈ!ćĈ!Ĉ!ĈćĈĈćĈćĈĈĈćĈĈ%&'(ďĉ": 1914,
      "ďĉďĉ%&'(ďĉďĉďĉ!!ďĉ": 1915,
      "ćććććććĈ!Ĉ!ććććććĈ!ćĈĈ%&'(ďĉďĉ!!ďĉćććĈ!Ĉ!Ĉ!ćĈ!Ĉ!Ĉ": 1916,
      "ďĉ!!!!!!!!!!!!ďĉďĉ%&'(ďĉďĉďĉ!!ďĉ": 1917,
      "%ć&'ć(": 1918,
      "ďĉďĉćććĈ!Ĉ!Ĉ!Ĉ!Ĉ!Ĉ!ćććććĈ!ćĈĈ%&'(ďĉďĉ!!ďĉ": 1919,
      "B!": 1920,
      "ďĉďĉďĉ%&'(Ĉ!Ĉ!ĈĈ!Ĉ!ĈĈĈĈ!Ĉ!ĈĈ!Ĉ!Ĉ!!Ĉ!": 1921,
      "ććććĈ!ćĈ!Ĉ!Ĉ!ĈĈ!Ĉ!Ĉ!ĈććĈ!ć%&'(ďĉ": 1922,
      "ďĉććĈĈĈĈĈďĉďĉ)!)!!ďĉďĉ": 1923,
      "ćććććĈ!ćĈ!Ĉ!ćĈĈ!Ĉ!Ĉ!Ĉ!ćĈćĈĈćĈ!Ĉ!Ĉ!ćĈ!Ĉ!Ĉ!Ĉ!ćĈ!Ĉ!": 1924,
      "ďĉďĉďĉďĉ!!!!!!!!!ďĉ!!!!!!!!": 1925,
      "ď%&'(ĉďĉďĉ!": 1926,
      "ďĉďĉďĉ!ďĉ!ďĉ!ďĉ%&'(": 1927,
      "ĥďĉ": 1928,
      "Ĉ!ćĈĈ": 1929,
      "ććĈ!Ĉ!ćĈ!Ĉ!": 1930,
      "Ĉ!ĈĈ!ĈĈĈćĈĈĈćĈ!ĈĈĈĈ!ĈĈ!Ĉďĉďĉďĉďĉďĉďĉ!%&'(%&'(": 1931,
      "ďććĉ": 1932,
      "Ħ%&'(%&'(%&'(%&'(%&'(%&'(%&'(%&'(": 1933,
      ")!)ďĉďĉďĉ!ďĉďĉďĉ!!ďĉďĉďĉďĉ!": 1934,
      "ďĉ%&'(ďĉďĉ!!!!ďĉ!!!ćććććĈ!ĈĈ!ĈĈĈ!Ĉ!Ĉ!Ĉ!Ĉ!Ĉ!Ĉ!Ĉ!Ĉ!Ĉ!Ĉ!Ĉ!ćĈ!": 1935,
      "%!!!!!!!!!!!!!!!!!!!!!!!!!!!!!!!": 1936,
      "ďĉďĉďĉ!ďĉćďĉ!!!!ćďĉ!": 1937,
      "Ĉ!ĈĈĈĈĈ!Ĉ!Ĉ!ĈĈĈĈĈĈĈĈĈĈ!ĈĈĈ!ĈĈ!ĈĈĈĈ!ĈĈ!ĈďĉĈ!ĈĈĈĈĈĈĈĈ!ĈĈĈ": 1938,
      "ďĉďĉďĉďĉďĉ%ď&'(ĉ": 1939,
      "244444444%&5555555522222222222222222222222266666666777'7777": 1940,
      ")!!!)": 1941,
      "M!": 1942,
      "ďĉ!%ď&'(ĉ": 1943,
      "!!!!!!!!!!!!!!!)!)!!!!!!!!!!!!!!!!": 1944,
      "%!&'(!": 1945,
      "ććććĈ!ĈĈ%&'(ďĉ!!!!!!!!!!!": 1946,
      "ććććĈ!Ĉ!Ĉ!Ĉ!Ĉ!ĈĈ!Ĉ!ćďĉ!!ďĉďĉ": 1947,
      "ćĈĈćĈĈĈĈĈĈćĈĈĈĈćĈĈćĈĈćĈ!ćććĈ!ćć%&'(ďĉďĉ": 1948,
      "ďĉ!ďĉďĉďĉďĉ%&'(": 1949,
      "ďĉďĉ!ďĉďĉ%&'(ćĈ!Ĉ!Ĉ!Ĉ!Ĉ!ĈďĉĈ!Ĉ!Ĉ!Ĉ!": 1950,
      "!!!!!!!ďĉ!!ďĉďĉ!!!ďĉďĉďĉďĉďĉ!ďĉććĈ!Ĉ!Ĉ!Ĉ!Ĉ!Ĉ!Ĉ!ĈĈćĈ": 1951,
      "ďĉ!ďĉďĉ!ďĉćććĈ!Ĉ!Ĉ!Ĉ!%&'(Ĉ!Ĉ!ćććććĈ!ćĈĈďĉďĉ": 1952,
      "Ĉ)": 1953,
      "ĉďĉ": 1954,
      "ďďĉ": 1955,
      "ēĖ": 1956,
      "ćĈćć": 1957,
      "Ĉ!Ĉ!Ĉ!Ĉ!ĈćĈ!ĈĈ!ĈĈĈ": 1958,
      "%&'(ďĉďĉďĉ%&'(Ĉ!Ĉ!Ĉ!Ĉ!ćććĈ!": 1959,
      "ďĉ%&'(ďĉďĉ!!ďĉ": 1960,
      "ććĈ!ĈćĈćĈćĈ!ĈćĈĈ%&'(ďĉďĉďĉ%&'(Ĉ!Ĉ!Ĉ!Ĉ!ćććĈ!": 1961,
      "ĈĈĈ!Ĉ!Ĉ!ĈĈĈĈ!Ĉ!ĈĈ!Ĉ!Ĉ!ĈĈĈĈćďĉďĉ": 1962,
      "ććććććĈ!ććĈ!Ĉ!Ĉ!ĈćĈ!Ĉ!ĈćĈććĈĈ!ĈĈĈďĉ!!!": 1963,
      "ćďĉ!!": 1964,
      "ďĉ!!!!!!!": 1965,
      "ććĈ!ć%&'(": 1966,
      "ćććĈ!Ĉ!Ĉ!Ĉ!Ĉ": 1967,
      "ďĉďĉ!!ďĉ!!ďĉ!ććĈ!ďĉ!ďĉďĉ!!ďĉďĉ)ďĉďĉ!": 1968,
      "MMMMMMMMMMMM": 1969,
      "%!!!!&'(": 1970,
      "&Ĉ'(!": 1971,
      "BB": 1972,
      "ďĉ!!!!!!!!!!!!!!!!!!!!!!!!!!!!!!!!!!!!!!!": 1973,
      "%&'(!!!!!!!!!!!!!!!!!!!!!!": 1974,
      "ďĉďĉďĉ%&'(ďĉďĉďĉďĉďĉďĉďĉďĉďĉďĉďĉ!": 1975,
      "ĈĈ!Ĉ!": 1976,
      "ďćĈ": 1977,
      "ďĉďĉďĉďĉććĈ!Ĉ!ĈĈĈ!!ćĈ!Ĉ!Ĉ!Ĉ!ćďĉďĉ!!": 1978,
      "ďĉ!ďĉ!!!!": 1979,
      "'(333": 1980,
      "%&'(!ďĉďĉďĉ!ďĉ!ďĉ!": 1981,
      "ććććććĈ!Ĉ!Ĉ!ćĈ!Ĉ!Ĉ!Ĉ!Ĉ!!": 1982,
      "ďĉ!ďĉ!!Ĉ": 1983,
      "ďĖ": 1984,
      "!!!!!!!!!!ććććććććććććČďĉďĉććĈ!ćĈ!ćĈ!ćĈ!ćĈćĈćĈ": 1985,
      "ććĈ!ĈćĈćĈćĈ!ĈćĈĈďĉ%&'(ďĉďĉ": 1986,
      "ďďĉ!": 1987,
      "ďĉďĉďĉďĉďĉďĉďĉďĉďĉďĉďĉďĉ": 1988,
      "ďďď": 1989,
      "ćĈ!ć!": 1990,
      "ďďĉĉďďĉĉ": 1991,
      ")!)!!!!!!!!!!!!!!!!!!!!!!!!!!!!!!": 1992,
      "Ĉ!Ĉ!ĈĈĈĈ!Ĉ!Ĉ!ĈĈĈĈĈĈĈĈĈĈ!ĈĈĈ!ĈĈ!ĈĈĈĈ!ĈĈ!Ĉ": 1993,
      "Ĉ!Ĉ!Ĉ!Ĉ!ĈćĈĈĈ!ĈĈĈćĈćĈĈĈĈĈĈĈćĈĈĈĈĈĈćĈćĈ!ćĈĈ!ďĉ": 1994,
      "ďĉďĉďĉ!ďĉ!ďĉ!ďĉ%&'(ććďĉďĉ)ćďĉ": 1995,
      "ććććććĈ!ć": 1996,
      "ććĈ!ĈćĈćĈćĈ!ĈćĈĈďĉ%&'(ďĉďĉĈ!Ĉ!Ĉ!Ĉ!ćććĈ!": 1997,
      "ďĉďĉďĉ!ďĉ%&'(!": 1998,
      "ďĉ!ďĉ!ďĉďĉ!": 1999,
      "ĥĤē": 2000,
      "%L&'(": 2001,
      "%&'(!ďĉďĉďĉ!ďĉ!ďĉ!ďĉ!ďĉďĉ!!ďĉďĉďĉďĉ": 2002,
      "ďĉ!ď%&'(ĉ": 2003,
      "%&'(ďĉ!!!!!!!!!!!!!!!!!!!!!!!!!!!!!!!!!!!!!!!!!!!!!": 2004,
      "ć%&'(ćććć": 2005,
      "%!!!!!!!!&'(": 2006,
      ")!!!!!!!!!!!!!!!!!!!!!!!!!!!!!!!!%&'(ďĉďĉďĉ!": 2007,
      "ďćĈ!ĉ": 2008,
      "ďďĉďĉĉ": 2009,
      "ďĉďĉďĉďĉďĉďĉďĉďĉďĉďĉ%&'(": 2010,
      "ďĉďĉďĉďĉďĉďĉďĉ!ďĉ!ďĉćććććććĈ!ćČČ": 2011,
      "ć'": 2012,
      "ćĈ!ć%&'(": 2013,
      "ďĉďĉďĉďĉďĉďĉďĉ!!": 2014,
      "ćĈ!Ĉćććć": 2015,
      "ďĉ!ďĉďĉďĉďĉćććĈ!Ĉ!ććĈ!ćĈ!ćČďĉ!!!ďĉ!": 2016,
      "ďĉćććććĈ!Ĉ!Ĉ!ćĈĈćĈ": 2017,
      "ďĉ!!!ďĉ!!!ćććĈćĈ!ćĈ!ĈĈ!Ĉ!": 2018,
      "ććĈ!Ĉ!Ĉ!Ĉ!ćĈ!Ĉ!!Ĉ!ćĈ!ćĈ!ććĈ!Ĉ!ćĈ!ďĉ!": 2019,
      "&'(!!!!!!!!!!!!!!!!!!!!!!!!!!!!!!!ććććĈ!ĈĈďĉ!!!!!!!!!!!": 2020,
      "LL!LK!LK": 2021,
      "%&'(ďĉćĈ!ćĈ!Ĉ!ććĈ!Ĉ!Ĉ!Ĉ!ćĈĈĈ!Ĉ!ćĈ!Ĉ!ĈĈĈ!ĈĈĈććĈ!ćĈćĈĈĈ!Ĉ": 2022,
      "ďĉćććććĈ!ĈĈćĈĈćĈ": 2023,
      "ďďďďďďďď": 2024,
      "!&'(ďĉ))ħ": 2025,
      "ćĈĈ!Ĉ!ĈĈĈćĈćĈ!ććĈ!!ďĉ!!ďĉďĉďĉ": 2026,
      "ćĈ!Ĉ!ĈćĈ!ďĉćććććććĈ!ćĈ!%&'(ćďĉ!": 2027,
      "ćĈ!Ĉ!ĈćĈ!ďĉćććććććĈ!ćĈ!%&'(ćďĉ!ďĉďĉ!!!": 2028,
      "332222": 2029,
      "AAAA": 2030,
      "%ć&'Ĉ(!": 2031,
      "%!!!!!!!!!!!!!!!!!!!!!!!!!!!!!!!!!!!!": 2032,
      "ďĉ!!!!!!!!!!": 2033,
      "ćććďĉ!": 2034,
      "%&'(ďĉćććććććć": 2035,
      "%&'(ďĉĈ!ĈĈĈĈĈĈĈ": 2036,
      "LLLL!LK": 2037,
      "%!!&'(!!!!!!!!!!!!!!!!!!!!!!!!!!!!!!!!!!!!!!!!!!!!!!!!": 2038,
      "ĈćĈ": 2039,
      "ďĦ": 2040,
      "ććĈĈĈĈ": 2041,
      "%&'(ďĉ!ďĉďĉďĉďĉ!!": 2042,
      "ďĉ!!ďĉ!ďĉďĉďĉďĉ!": 2043,
      "LLL": 2044,
      "ćććĉ": 2045,
      "ćććććĈ!ćĈ!ććććĈ!ććĈ!ćććĈ!ćććĈćďĉďĉććĈ!": 2046,
      "ďĉ!ďĉďĉďĉďĉďĉďĉ!!%&'(ďĉ!ďĉďĉďĉďĉ!!": 2047,
      "Ĥ))))": 2048,
      "ħĉ": 2049,
      "Ĉ!ćĉ": 2050,
      "ćĈ!Ĉ!ćĈ!Ĉ": 2051,
      "ďĉ!%&'(ďĉ": 2052,
      "Ĉ!Ĉ!Ĉ!Ĉ!Ĉ!": 2053,
      "ćďĉ)ħ": 2054,
      "Ĉ!Ĉ!Ĉ!%&'(": 2055,
      "ćďĉ%&'(ććććććĈ!Ĉ!Ĉ!ćĈ!Ĉ!Ĉ!Ĉ!Ĉ!!": 2056,
      "ďĉďĉďĉ!ďĉďĉćććććĈ!Ĉ!ćĈĈćďĉćĈ!ććĈ!ćĈ!Ĉ": 2057,
      "ćĈ!Ĉ!ćĈĈ!ćĈ!ćĈ!ĈĈ!Ĉ!Ĉ!ćĈ!Ĉ!Ĉ!ććĈ!Ĉ!Ĉ!Ĉ!Ĉ!Ĉ!ćĈ": 2058,
      "ćĈćďĉďĉďĉ!!!": 2059,
      "ďĉďĉ!ďĉďĉďĉďĉ!": 2060,
      "%Ĉ&'(ĈĈ": 2061,
      "ćććććććććććĈ!": 2062,
      "MMMMMMMMMMMMMMMMMMMMMMMMMMMMMMMMMMMMMMMMMMMMMMMM": 2063,
      ")!)!!!!!!!!!!!!!!!%&'(!ďĉďĉďĉ!ďĉ!ďĉ!ďĉ!ďĉďĉ!!ďĉďĉďĉďĉ": 2064,
      "Ĉ!ććĈ!": 2065,
      "ďĉĉĉ": 2066,
      "ďĉďĉďĉďĉďĉďĉďĉďĉďĉ!ďĉďĉďĉďĉ": 2067,
      "%!&'(!!!!!!!!!!!!!!!!!!!!!!!!!!!!!!!!!!!!!!!!!!!!!!!!": 2068,
      "ďĉďĉďĉďĉďĉćććććĈ!)!)!!Ĉ!Ĉ!ĈĈ!!!!!": 2069,
      "%!!!!!!!!!!!!&'(": 2070,
      "ČČďĉďĉďĉ!!!!!ďĉďĉďĉ!ďĉďĉćććććĈ!Ĉ!ćĈĈ": 2071,
      "ćĈ!ćĈ!Ĉ!ćĈ!Ĉ!Ĉ!ćĈ!Ĉ!ćďĉ!ďĉďĉďĉďĉďĉďĉďĉďĉ": 2072,
      "Ĉ!Ĉ!Ĉ!Ĉ!ććĈććďĉďĉďĉ!!ďĉ!!ďĉ!!!!!!!!": 2073,
      "ďĉďĉďĉ%&'(ďĉďĉďĉĈ!Ĉ!Ĉ!Ĉ!Ĉ!Ĉ!ćďĉďĉďĉćĈ!Ĉ!Ĉ!Ĉ!": 2074,
      "ććĈ!Ĉ!Ĉ!Ĉ!Ĉ!Ĉ!ććĈ!ćďĉ!ďĉććććĈ!ćĈ!ĈĈ!ććĈ!ćĈ!ĈĈ!ćĈ!Ĉ!ćĈ!ďĉ!": 2075,
      "ďĉ!!!!!!!!!!!!!!!!!!!!!!!!!!!!": 2076,
      "ďĉďĉďĉďĉďĉďĉ!ďĉďĉ!ďĉďĉ!!!ďĉćĈ!Ĉ!ććĈ!ććĈ!ĈĈ!ććĈ!Ĉ!Ĉ": 2077,
      "ďĉďĉďĉďĉďĉ)!)ďĉďĉďĉ!ďĉďĉďĉ!!ďĉďĉďĉďĉ!": 2078,
      "32323232222222222222222222222222222222222222222": 2079,
      "Ĉ!ĈĈĈ!Ĉ!ĈĈ!Ĉ!Ĉ!": 2080,
      "ććĈ!ćďĉďĉďĉďĉďĉďĉďĉ!!ďĉďĉ": 2081,
      "ďĉďĉďĉ!ďĉ%&'(!ďĉ!ďĉ!ďĉďĉ!!": 2082,
      "%ĈĈ": 2083,
      "ćć!": 2084,
      "ďĉďĉďĉďĉďĉďĉďĉďĉďĉ%&'(": 2085,
      "Ĉ!Ĉ!Ĉ!Ĉ!Ĉ!Ĉ!Ĉ!Ĉ!ĈĈĈ!Ĉ": 2086,
      "%!!!!!!!!!!!!!!!!!!!!!!!!!!!!!!!!!!!!!!": 2087,
      "ďĈĈĈ": 2088,
      "Ĕĥ": 2089,
      ")!)ďĉďĉďĉ!ďĉďĉďĉ!!ďĉďĉďĉďĉ!ďĉ!ďĉ!ďĉ!ďĉ!ďĉ!ďĉ": 2090,
      ")ďĉ": 2091,
      "&'(!!!!!!!!!!!!!!!ďĉ!!!!!!!!!!!!!!!!!!!!!!!!!!!!!!!!": 2092,
      "ćĈ!ćĈ!Ĉ!Ĉ!ďĉďĉ!": 2093,
      "ććććććĈ!ćĈĈďĉďĉ!!ďĉ": 2094,
      "%&'(ďĉ!!!ďĉďĉďĉ!!ďĉ": 2095,
      "ČČČČ": 2096,
      "ďĉ!ďĉďĉďĉďĉďĉćĈ!ĈĈ!Ĉ": 2097,
      "ďĉ!ďĉ!ďĉ!": 2098,
      "ććć%Ĉ&'(!": 2099,
      "%ć&Ĉ'(!": 2100,
      "Ĉ!%&'(ďĉ!ďĉďĉďĉďĉďĉćĈ!ĈĈ!Ĉ": 2101,
      "ćććććććććććĈ!ććĈ!Ĉ!ćĈ!Ĉ!": 2102,
      "ĦĦ": 2103,
      "ćĈ!%&'(": 2104,
      "ć%&'(ďĉ!ććĈ!ćĈ!Ĉ!ĈĈĈ!ĈĈĈććĈ!ĈĈ!ĈĈĈĈ!ĈĈ!ĈĈĈĈďĉďĉďĉ!!!!!!!!!!": 2105,
      "ććććććććććććććććććććććććććĈ!ćććĈ!Ĉ!ćĈ!Ĉ!ćĈ!ćĈ!ćĈ!ĈĈ!Ĉ!%&'(": 2106,
      "ćK": 2107,
      "Ĉ!Ĉ!ćĈ!Ĉ": 2108,
      "&'(ďĉ!!!!!!!!!!!!!!!!!!!!!!!!!!!!!!!!": 2109,
      "%&'(!!!!!!!": 2110,
      "ďĉďĉ!!ďĉ!!ďĉ!!!!!!": 2111,
      "ďĉ!!ďĉ!ďĉďĉ!ďĉ!ďĉďĉďĉ!": 2112,
      "Ĉ!ćĈ!ćĈ!Ĉ!Ĉ!ďĉďĉ!!!!!!!": 2113,
      "Ĉ!Ĉ!Ĉ!Ĉ!Ĉ!Ĉ!Ĉ!Ĉ!ĈĈĈ!ĈĈ!ĈĈĈ!Ĉ!ĈĈ!Ĉ!Ĉ!": 2114,
      "%!!!!!!!!!!!!!!!!!!!!!!!!!!!!!!!!!!": 2115,
      "Ĕ!": 2116,
      "!!!!ďĉ!!!ćććććĈ!ĈĈ!ĈĈĈ!Ĉ!Ĉ!Ĉ!Ĉ!Ĉ!Ĉ!Ĉ!Ĉ!Ĉ!Ĉ!Ĉ!ćĈ!": 2117,
      "%&'(ďĉ!ďĉ!!ďĉďĉ!!ďĉ!!!!!!)!!!!!!!!)": 2118,
      "ďĉďĉďĉ!ďĉďĉďĉďĉ": 2119,
      "ďĉ%&'(ďĉ!!": 2120,
      "ććĈ!Ĉďĉ": 2121,
      "ďĉ!ďĉďĉďĉďĉďĉďĉďĉ!!!!!!!!!!!!!!!!!!!!!!!!!!!!!!!!": 2122,
      ")!!!!!!!!!!!!!!!!!!!!!!!!!!!!!!!!ďĉďĉďĉ!ďĉ!!": 2123,
      "ćććććććććććĈ!ććĈ!Ĉ!ćĈ!Ĉ!ćĈ!ć!": 2124,
      "ďĉćĈ!Č": 2125,
      "%&ć'(": 2126,
      "ď%&'(ĉďĉ!": 2127,
      "Ĉ!ĈĈĈ!ďĉ!!!!!!!!!!!!!!!!!!!!!!!!!!!!!!!!": 2128,
      "ďĉďĉ!!ćććĈ!Ĉ!ćĈ!Ĉ!ĈĈĈĈ!ććĈďĉďĉćććććććć": 2129,
      "ćďĉ%&'(ććććććĈ!Ĉ!Ĉ!ćĈ!Ĉ!Ĉ!Ĉ!Ĉ!!ĈĈ!ĈććĈ!Ĉ!ĈĈ!ĈĈ!Ĉ!ćĈ!": 2130,
      "ďĉ!!ďĉ%&'(ďĉďĉ": 2131,
      "ďĉďĉďĉ!ććĈ!ćďĉďĉďĉďĉďĉďĉďĉďĉ": 2132,
      "ďĉďĉďĉďĉďĉďĉďĉďĉďĉ%&'(ďĉďĉďĉ": 2133,
      "ďĉ%&'(!!!": 2134,
      "ďĉďĉďĉ%&'(ďĉďĉ!!": 2135,
      "ćĈ!ććĈ!ćĈ!Ĉďĉćććććććć": 2136,
      "%!!!!!!!!!!!!!!!!!!!!!!!!!!!!!!!!!!!!!": 2137,
      ")!!": 2138,
      "ćććĈ!ćć": 2139,
      "ďĉ!!Ĉ!ĈćĈ!Ĉ!Ĉ!ĈćĈ!ććďĉ!Ĉ!ĈćĈ!Ĉ!Ĉ!ĈćĈ!ćć": 2140,
      ")!)!!!!!!!!!!!": 2141,
      "%&'(ĉĉĉĉĉĉĉĉĉ": 2142,
      "ďĉ!!ďĉ)!!!)": 2143,
      "ćĈ!Ĉ!Ĉ!ćĈ!Ĉ!Ĉ!Ĉ!Ĉ!!ĈĈ!ĈććĈ!Ĉ!ĈĈ!ĈĈ!Ĉ!ćĈ!": 2144,
      "L!M": 2145,
      "ććććĈ!Ĉ!ćĈ!ćĈ!Ĉ!ććĈ!ĈććĈ!Ĉ!ćĈ!ćĈ!Ĉ!Ĉ!ćĈĈ!ďĉďĉďĉďĉ": 2146,
      "%Ĉ!": 2147,
      "BM": 2148,
      "ďĤ": 2149,
      "Ė!": 2150,
      "ććććć": 2151,
      "ďĉďĉďĉĈ!ĈĈćďĉďĉďĉďĉďĉďĉďĉ!ďĉ!ďĉďĉďĉ!": 2152,
      "!!!!!!!%!&'(": 2153,
      "%&'(ďĉ!!ďĉďĉďĉ": 2154,
      "%&'(ďĉ!!ďĉďĉ!!ďĉ!ďĉ!!ďĉďĉďĉ!ďĉ": 2155,
      "L!LKL!LK": 2156,
      "%&'(ďĉďĉ!ďĉ!!!!!!!!": 2157,
      "ďĉ!ďĉ!!!ďĉ!!!ćććĈćĈ!ćĈ!ĈĈ!Ĉ!": 2158,
      "ćććĈ!Ĉ!Ĉ!ćĈ!Ĉ!Ĉ!Ĉ!Ĉ!!%&'(ďĉďĉ!ďĉ!!!!!!!!": 2159,
      "ďĉďĉďĉďĉďĉ!!ďĉ!!!!ďĉďĉďĉ!ďĉďĉ!": 2160,
      "ćĈ!%&'(ďĉ!": 2161,
      ")!)!!!!!!!!!!!!": 2162,
      "ćĈĈĈĈĈĈĈ": 2163,
      "ďĉďĉ%&'(ďĉ!ďĉ": 2164,
      "%Ĉ&'(!Ĉ": 2165,
      "ďĉďĉďĉďĉďĉďĉ%&'(ďĉďĉ!ďĉďĉďĉćććććĈ!Ĉ!Ĉ!ćĈĈćĈ%&'(ďĉďĉ": 2166,
      "ďĉďĉď%ĉ&'(": 2167,
      "ďĉ%&'(Ĉ!Ĉ!Ĉ!Ĉ!": 2168,
      "ďĉďĉďĉďĉ!ďĉďĉďĉďĉ": 2169,
      "!!!!R%&'(": 2170,
      "010101'(3": 2171,
      "&'(!!!!!!!!!!!!!!!!!!!!!!!!!!!": 2172,
      "ďĉ!%&'(ďĉďĉ!ďĉ!ďĉďĉďĉ!": 2173,
      "ććććĈ!ćććĈććĈćććĈććććĈććĈććććĈććĈćďĉ!!!!!!!!!": 2174,
      "ĥďĉĈ!ĈĈ!": 2175,
      "Ĉ!Ĉ!Ĉďĉ!!!!!!!!!!!!!!!!!!!!!!!!!!!!!!!!": 2176,
      "%ď&'(ĉďĉ": 2177,
      "ć%&'(ććććććĈ!ć": 2178,
      "ćĈĈćĈćĈĈćĈĈ": 2179,
      "00110011": 2180,
      "%&'(ďĉďĉ!ďĉ!!ďĉ!ďĉďĉďĉďĉ!": 2181,
      "ćććĈ!Ĉ!ćĈ!Ĉ!ćĈ!ćĈ!ćĈ!ĈĈ!Ĉ!ćĈ!ćĈ!Ĉ!Ĉ!": 2182,
      "ďĉďĉćĈ!ĈĈ!ĈĈĈĈ!Ĉ!Ĉ!ĈĈĈĈĈĈĈĈ!ĈĈĈĈĈďĉ!%&'(ďĉďĉ!ďĉ!ďĉďĉďĉ!": 2183,
      "ć%&'(ďĉĈ!ćĈ!Ĉ!Ĉ!ćĈ!Ĉ!Ĉ!ĈĈ!ćĈ!ďĉ!": 2184,
      "ďĉďĉďĉďĉ!ďĉďĉ!!ďĉďĉďĉďĉďĉďĉďĉ!ďĉ!ďĉć%&'(ććććććĈ!ć": 2185,
      "%Ĉ": 2186,
      "ććć%&'(": 2187,
      "!!!!!!!!!!!!ďĉ!!ďĉ!!!!!!!!!!!": 2188,
      "ďĉďĉďĉďďĉĉ": 2189,
      "ćďĉ%&'(ďĉ": 2190,
      "Ĉ!Ĉ!Ĉ!Ĉ!Ĉ!ćĈ!ĈĈĈĈćĈ!ćĈ!ćďĉďĉďĉďĉ!ďĉ!ďĉďĉ": 2191,
      "ćććĈĈ!ćĈ!Ĉ!ĈćĈĈĈćĈĈĈćĈĈćććććďĉďĉďĉĈ!ĈĈĈĈĈ!ćĈ!Ĉ!ĈćĈĈĈ": 2192,
      "ďĉďĉ!ďĉďĉ%&'(ćĈ!Ĉ!Ĉ!Ĉ!Ĉ!Ĉďĉ": 2193,
      "ć%&'(ďĉĈ!ćĈ!Ĉ!Ĉ!ćĈ!Ĉ!Ĉ!ĈĈ!ćĈ!": 2194,
      "ćĈ!ćĈ!Ĉ!ćĈ!Ĉ!Ĉ!ćĈ!Ĉ!ćďĉ!ďĉďĉďĉďĉďĉďĉďĉďĉ)": 2195,
      "%ď&'(ĉďĉďĉ!": 2196,
      "ďĉďĉ%&'(ďĉďĉďĉďĉďĉďĉ": 2197,
      "ďďďĉĉĉ": 2198,
      "Ĉ!ĈĈ!ĈĈĈĈ!ĈĈ!ĈďĉĈ!ĈĈĈĈĈĈĈĈ!ĈĈĈ": 2199,
      "!!ďĉ": 2200,
      "!!!!!ďĉďĉďĉ!ďĉďĉćććććĈ!Ĉ!ćĈĈćďĉćĈ!ććĈ!ćĈ!Ĉ": 2201,
      "ďĉ%&'(ďĉďĉ!": 2202,
      "ćĈ!Ĉ!Ĉ!Ĉ!Ĉ!Ĉ!ĈĈĈ!ĈĈĈĈ!ĈĈ!Ĉ!Ĉ!Ĉ!ĈĈĈ!Ĉ!ĈĈ!Ĉ": 2203,
      "%&'(ďĉ!!!ďĉďĉďĉďĉďĉďĉďĉďĉ!": 2204,
      "001101010011": 2205,
      "ććććććĈ!ććĈ!Ĉ!Ĉ!ĈćĈ!Ĉ!ĈćĈććĈĈ!ĈĈĈ%&'(ďĉ!!!ďĉďĉďĉďĉďĉďĉďĉďĉ!": 2206,
      "ćďĉ!ďĉďĉďĉďĉ": 2207,
      "ďĉď%ĉ&'(": 2208,
      "ďĉ!ďĉď%&'(ĉ": 2209,
      "Ĉ!ĈĈĈĈĈĈ!Ĉ!ĈĈ!ĈĈĈĈ!ĈĈĈĈĈĈĈĈ%&'(ďĉćĈ!Ĉ!Ĉ!Ĉ!Ĉ!Ĉ!ĈĈďĉ%&'(!!!": 2210,
      "ć%&'(ďĉďĉćććĈ!ćĈ!Ĉ!Ĉ!ćĈ!Ĉ!ćĈ!Ĉ!Ĉ!Ĉ!ćĈ!Ĉ!": 2211,
      "ćĈ!ćććć": 2212,
      "ďĉďĉďĉďĉďĉďĉďĉďĉďĉďĉďĉďĉďĉ": 2213,
      "ď!ď!": 2214,
      "ććććĈ!ćĈ!Ĉ!Ĉ!ĈĈ!Ĉ!Ĉ!ĈććĈ!ćďĉććććććććĈ!Ĉ!Ĉ!Ĉ!ćĈĈĈĈ!Ĉ!ćĈ!": 2215,
      "33222323": 2216,
      "ććĈ!Ĉ!ĈĈĈ!!ćĈ!Ĉ!Ĉ!Ĉ!ćďĉďĉ!!ďĉďĉďĉďĉććććĈ!ĈĈ!ćĈ!ĈĈ!Ĉ!Ĉ!ćĈ!ćĈ": 2217,
      "ďĉďĉďĉďĉďĉ!!ďĉ!!ďĉďĉďĉ)!)ďĉďĉďĉďĉďĉ!)!)!ďĉďĉ!!!)!)!!": 2218,
      "ćĈ!ĈćććććććĈ": 2219,
      "%&'(!!!!!!": 2220,
      "%ď&'(ĉďĉďĉ": 2221,
      "ďĉďĉ%&'(ďĉďĉďĉ!!": 2222,
      ")!)!!!!!!!!!!!!!!!!!!": 2223,
      "ďĉďĉ!ďĉďĉĈ!": 2224,
      "&'Ĉ(!": 2225,
      "ĈĈĈ!Ĉ!Ĉ!ĈĈĈĈ!Ĉ!ĈĈ!Ĉ!Ĉ!ĈĈĈĈćďĉďĉ%&'(": 2226,
      "ĈĈĈ!Ĉ!Ĉ!ĈĈĈĈ!Ĉ!ĈĈ!Ĉ!Ĉ!ĈĈĈĈćďĉďĉ%&'(ćććććććĈ!Ĉ!Ĉ!ćĈ!Ĉ!Ĉ!ćďĉ!": 2227,
      "ďĉ!!ďĉďĉ!!ďĉ!ďĉ!!": 2228,
      "ďĉďĉďĉććĈ!Ĉ!ćĈĈ!ćĈ!Ĉ!Ĉ!Ĉ!Ĉ!ĈĈĈćĈ!Ĉ!Ĉ!ćďĉććć": 2229,
      "ďĉďĉďĉ%&'(ďĉďĉďĉďĉ": 2230,
      "ďĉďĉďĉďĉďĉďĉRTVa": 2231,
      "ďĈĈĉ": 2232,
      "%!!!!!!!!!!!!!!!!!!!!!!!!!!!!!!!!!!!!!!!": 2233,
      "ď&'(ĉ": 2234,
      "%!&'(!!!": 2235,
      "ďĉ!!ďĉ!ďĉďĉ!ďĉďĉ!ďĉ!": 2236,
      "ďĉďĉďĉďĉďĉďĉďĉďĉ!!!ďĉďĉďĉďĉććĈ!Ĉ!Ĉ!Ĉ!Ĉ!Ĉ!": 2237,
      "ďĉďĉďĉďĉďĉ)!)ďĉďĉďĉćććĈ!Ĉ!Ĉ!ĈĈ!Ĉ!ćĈ!Ĉ!Ĉ!ĈćĈ!Ĉ!Ĉ!Ĉćďĉ!": 2238,
      "ďĉďĉďĉĈ!Ĉ!Ĉ!Ĉ!Ĉ!ćĈ!ĈĈĈĈćĈ!ćĈ!ć%&'(ďĉďĉďĉďĉ!": 2239,
      "ďĉďĉďĉĈ!Ĉ!Ĉ!Ĉ!Ĉ!ćĈ!ĈĈĈĈćĈ!ćĈ!ć%&'(ďĉďĉďĉďĉ!ďĉ!ďĉďĉ": 2240,
      "Ĥ!": 2241,
      "ďďďĉĉ": 2242,
      "ďĉďĉ!!ďĉ!!!!!!!!!": 2243,
      "ďĉ!!ďĉ!ďĉďĉ!ďĉďĉ!": 2244,
      "ďĉďĉććĈ!Ĉ!Ĉ!ćĈ!": 2245,
      "!!!!!!!!!!!ďĉ!ďĉďĉ!!!!!!!!!!!!!!!!!!!!!!!!!!!!": 2246,
      "ďĉ!ďĉ!ďĉ%&'(ďĉďĉďĉďĉ": 2247,
      "ďĉďĉďĉćďĉ!ďĉďĉďĉďĉ": 2248,
      "ćĈ!Ĉ!ćĈ!ćĈ!Ĉ!ćĈ!Ĉ!ćĈ!Ĉ": 2249,
      "ďĉďĉ!ďĉďĉ%&'(ćĈ!Ĉ!Ĉ!Ĉ!Ĉ!ĈďĉĈ!Ĉ!Ĉ!Ĉ!Ĉ!ĈĈĈ!ĈĈĈ": 2250,
      "ďĉ!ďĉ!ďĉďĉďĉďĉ!": 2251,
      "01000111": 2252,
      "%Ĉ&'(!Ĉ!": 2253,
      "ć%&'(ďĉ!ďĉďĉ!!!": 2254,
      "ćĈ!Ĉ!ĈćĈ!ďĉćććććććĈ!ćĈ!ć%&'(ďĉ!ďĉďĉ!!!": 2255,
      "ďĉďĉďĉ!ďĉ%&'(!ďĉ!ďĉ!ďĉďĉ!!ďĉďĉďĉďĉďĉ!ďĉ!ďĉďĉďĉďĉ": 2256,
      "ĥďĉĈ!ĈĈ!ďĉćĈ!Č": 2257,
      "C!": 2258,
      "ćĈĈ!Ĉ!": 2259,
      "ćĈĈćĈĈćĈĈćĈćĈĈćĈĈ": 2260,
      "ćĈ!ĈĈ!ćĈ!ĈćććććććĈ": 2261,
      "ďĉ!ďĉďĉďĉďĉďĉďĉďĉďĉ!!": 2262,
      "32232323": 2263,
      "Ĉ!Ĉ!Ĉ!Ĉ!!Ĉ!Ĉ!Ĉ!Ĉ!!Ĉ!Ĉ!Ĉďĉďĉďĉ%&'(Ĉ!Ĉ!ĈĈ!Ĉ!ĈĈĈĈ!Ĉ!ĈĈ!Ĉ!Ĉ!!": 2264,
      "%!!!!!!!!!!!!!!!!!!!!!!!!!!!!!!!!!!!": 2265,
      "3232222222222222222222222222222222222222222": 2266,
      "ďĉďĉďĉ)!)ďĉďĉďĉďĉďĉďĉ!!!": 2267,
      "ď%&'(ĉďĉďĉďĉ!": 2268,
      "ćććĈ!Ĉ!Ĉ!ćĈ!Ĉ!Ĉćďĉďĉďĉďĉ": 2269,
      "ć%&'(ćććććĈ!Ĉ!Ĉ!ćĈ!Ĉ!Ĉ!Ĉ!Ĉ!!ĈĈ!ĈććĈ!Ĉ!ĈĈ!ĈĈ!Ĉ!ćĈ!": 2270,
      "ďĈĈĈĉ": 2271,
      "!!!!!!!!!!!ďĉ!)!)!!!!!!!!!!ďĉ!!!!!!": 2272,
      "&'(!!!!!!!!!!!!!!!!!!!!!!!!!!!!!!!!!!!!!!!!!!!!!!!!!!!!!!": 2273,
      "ďĉ!ďĉďĉďĉďĉďĉďĉďĉďĉďĉďĉďĉďĉďĉďĉďĉ": 2274,
      "Ĉ!ďĉ!ďĉďĉďĉďĉďĉ": 2275,
      "ďĉ!ďĉďĉďĉďĉćďĉ!ďĉďĉďĉ": 2276,
      "ďĉďĉ%&'(ďĉďĉćĈ!ĈĈ!Ĉ!ďĉ!ďĉ!ďĉďĉďĉ!!": 2277,
      "A!": 2278,
      "ĉďĉďĉ": 2279,
      "%&'(ćĈ!Ĉ!": 2280,
      "ćĈ!ćĈďĉďĉďĉďĉ!ďĉďĉďĉďĉ!ďĉ!!": 2281,
      "ć%&'(ďĉďĉďĉ": 2282,
      "ďĉďĉďĉďĉďĉďĉćďĉ!ďĉ!!!!!!!!!!!!!!!!": 2283,
      "ďĈ!Ĉĉ": 2284,
      "ćĈ!ď": 2285,
      "ďĉ!!!!!!!!!!!!!!!!!ďĉ": 2286,
      "ď!ď": 2287,
      "!!!!!!!!!!!!!!!!!!!!!!!!!!!!!!!!!!!ćććććććććććĈ!Ĉ": 2288,
      "%ć&ć'(": 2289,
      "(788888888,-%&+01000111": 2290,
      "%&'(ďĉďĉďĉďĉďĉďĉďĉďĉďĉďĉďĉďĉ": 2291,
      "ććĈ!ććććĈćĈćĈćĈććććĈ!Ĉ!ććĈ!ĈććććĈćĈćĈćĈćĈćĈćĈćĈćĈćĈć%&'(": 2292,
      "%!!!!!!!!!!!!!!!!!!!!!!!!!!!!!!!!!!!!!!!!!": 2293,
      "!!!!!!!!!!!!!!!!!!!!!!!!": 2294,
      "ĈĈĈ!": 2295,
      "Ĉ!Ĉ!Ĉ!Ĉ!ĈĈĈ!ĈĈĈ": 2296,
      "ďĉ!!)ďĉďĉ!": 2297,
      "Ĉ!Ĉ!ĈĈ!Ĉ!Ĉ!": 2298,
      "ďĉ!ďĉ%ď&'(ĉ": 2299,
      "ćććććććććććććććććććććććććć": 2300,
      "ďĉ!!!!!!!!!!!!!!!!!!!!!!!!!!!": 2301,
      "ććć%ć&'(": 2302,
      "ĈćĈĈćĈćĈĈĈćĈĈďĉ": 2303,
      "ććććĈ!ćććĈććĈćććĈććććĈććĈććććĈććĈć%&'(ďĉ!!!!!!!!!ďĉďĉďĉ!!": 2304,
      "ďĉďĉďĉďĉ!!!!ďĉ!!ďĉďĉďĉďĉďĉďĉďĉďĉ!ćĈ!Čďĉďĉ!": 2305,
      "ćĈ!Ĉ!ćĈ!ćĈ!Ĉ!ćĈ!Ĉ!ćĈ!ĈćĈĈćĈĈćĈĈćĈćĈĈćĈĈ": 2306,
      "Ėē": 2307,
      "ćĈ!ćĈ!ćĈĈ": 2308,
      "ďĉďĉďĉ)!)": 2309,
      "ďĉ%&'(ďĉ!": 2310,
      "ďĉ!!!!!!!!!!!!!!!!!!!!!!!": 2311,
      "Ĉ!Ĉ!ĈĈ!Ĉ!Ĉ!Ĉ!ďĉďĉďĉďĉďĉ!ďĉďĉďĉ!": 2312,
      "L!LK!LK!LK": 2313,
      "ē!Ħ": 2314,
      "ďĉ!!ďĉ)!!!)!!!!!": 2315,
      "%&'(ďĉ!ďĉďĉďĉćĈ!Ĉ!Ĉ!Ĉ!ĈĈ!Ĉ!Ĉ!Ĉ!": 2316,
      "%&'(ďĉ!ďĉ!!!!!!!!ććĈ!Ĉ!ĈćĈĈĈććĈĈĈććĈ!Ĉ!Ĉ!Ĉ!Ĉ!Ĉ!ćĈ": 2317,
      "ćĈć": 2318,
      "ćĈĈ!Ĉ": 2319,
      "Ĉ!ĈĈ!Ĉ!": 2320,
      "ďĉďĉďĉďĉďĉďĉďĉďĉ!!!": 2321,
      "%!!!!!!!!!!!!!!!!!!!!!!": 2322,
      "ď!Ĉ!ĉ": 2323,
      "ďĉ!ďĉďĉ!!ďĉďĉďĉďĉďĉďĉďĉďĉ!": 2324,
      "ć!Ĉ": 2325,
      "ďĉ!ďĉďĉďĉďĉďĉďĉďĉďĉććććĈ!ćĈ!Ĉ!Ĉ!ĈĈ!Ĉ!Ĉ!ĈććĈ!ć%&'(ďĉ": 2326,
      "ďĉ!!ďĉďĉďĉďĉďĉďĉ!ďĉďĉďĉďĉďĉďĉ!!": 2327,
      "(788888888,-%&+0101010101": 2328,
      "ćććĈ!Ĉ!Ĉ!Ĉ!ĈĈĈĈĈĈĈĈĈĈ!ćĈ!Ĉ!ĈćĈĈćĈćĈĈĈćĈĈďĉ%&'(": 2329,
      "3222323232222222222222222222222222222222222222222": 2330,
      "ćďĉćććďĉ!!ďĉďĉďĉ!": 2331,
      "ćďĉ!ďĉďĉďĉďĉ!!": 2332,
      "ďK": 2333,
      "ďĉďĉďĉďĉ%&'(ďĉďĉ!": 2334,
      "ďĉ!ďĉ!!ďĉ": 2335,
      "%&'(ĉĉĉĉĉ": 2336,
      "ćďĉ!ďĉďĉďĉ%&'(ďĉďĉďĉďĉďĉ": 2337,
      "ďď!!": 2338,
      "!!!!RTVa": 2339,
      "ďĉďĉďĉďĉďĉďĉďĉ!!!!!!!!!!!": 2340,
      "!!!!!!!!!!!!!!!!!!!!!!!!!!!!!!!!!!!!!!!!%!!!!!!!!!!": 2341,
      "ćĈĈĈćĈ!ĈĈĈĈ!ĈĈ!Ĉďĉďĉďĉďĉďĉďĉ!%&'(%&'(": 2342,
      "ććććĈ!Ĉ!ćĈ!ćĈ!Ĉ!ććĈ!ĈććĈ!Ĉ!ćĈ!ćĈ!Ĉ!Ĉ!ćĈĈ!%&'(ďĉďĉďĉďĉ": 2343,
      "ďĉćććďĉ!ďĉďĉ!ďĉďĉćććććďĉ!": 2344,
      "%&'(ďĉďĉďĉ!ććĈ!ćďĉďĉďĉďĉďĉďĉďĉďĉďĉ!!ďĉ%&'(ďĉďĉ": 2345,
      "ďĖĉ": 2346,
      "%!!!!!!!!!!!!!!!!!!!!!!!!!!!!!!!!!!!!!!!!!!!!!!!!": 2347,
      "%!!!!!!!!!!!!!!!!!!!!!!!!!!!!!!!!!": 2348,
      "ďĉ!ďĉ%!&'(": 2349,
      "LLLLLLLLLLLL": 2350,
      "Ĉ!Ĉććďĉ!ćĈ!ćĈ": 2351,
      "ćĈ!Ĉ!ĈĈĈĈĈĈććĈ!ćďĉ!!!!!!!!ďĉ!": 2352,
      "ďĉ!ďĉ!!!SĂĄĆ!!ďĉ!!!!!!RTVa!!!SĂĄĆ!!!!R!!!S": 2353,
      "ćĈ!Ĉ!ĈĈĈĈĈĈććĈ!ćďĉ!!!!!!!!ďĉ!ďĉ!%&'(": 2354,
      "%ĈĈ&'(": 2355,
      "ďĉ!ďĉ!ďĉ!Ĉ!Ĉ!Ĉ!Ĉ!Ĉ!Ĉ!Ĉ!Ĉ!ĈĈĈ!ĈĈ!ĈĈĈ!Ĉ!ĈĈ!Ĉ!Ĉ!": 2356,
      "ďĉďĉĈ!Ĉďĉ!ďĉ!ďĉ": 2357,
      "&'(!!!!!!!!!!!!!!ďĉďĉ!ďĉ!)ďĉďĉďĉćďĉďĉ!ďĉďĉďĉ!!ďĉ!!!!": 2358,
      "ććĈććďĉďĉďĉ!!ďĉ!!ďĉ!!!!!!!!": 2359,
      "ħ)ę": 2360,
      "ď)ĉ": 2361,
      "%&'(%&'(%&'(%&'(%&'(%&'(%&'(%&'(%&'(%&'(%&'(%&'(%&'(%&'(": 2362,
      "L!L": 2363,
      "ďħĉ": 2364,
      "%&'(ďĉĈ!Ĉ!ĈĈĈ!Ĉ!Ĉ!Ĉ!ĈĈĈĈĈ!ĈĈĈĈ!ĈĈĈĈĈĈĈĈĈĈĈĈ!Ĉ!": 2365,
      "!!!!!!!ďĉďĉććććććĈ!ćććĈ!ćććĈ!ćĈ!ćďĉďĉďĉďĉ!": 2366,
      "ćććććććĈĈ": 2367,
      "RTVa!!!SĂĄĆ!!!!R!!!SĈ!ćĈ!ćĈ!Ĉ!Ĉ!": 2368,
      "ďĉďĉďĉďĉďĉ!!ďĉ!!!!!!!ďĉ!!ďĉďĉ!!!": 2369,
      "ćĈ!Ĉ!ćĈ!ćĈ!ćĈ!Ĉ!ććććĈ!ććĈ!ć!": 2370,
      "&'ć(": 2371,
      "Ĉ!%&'(Ĉ!Ĉ!Ĉ!Ĉ!ĈĈĈ!ĈĈĈ": 2372,
      "%&'(ďĉĈ!Ĉ!Ĉ!Ĉ!ĈĈĈĈĈĈĈĈĈĈĈĈĈĈ!Ĉ!Ĉ!Ĉ!Ĉ!ĈĈĈ!ĈĈďĉ!ďĉďĉďĉ": 2373,
      "ďĉ%&ď'(ĉ": 2374,
      "ďĉďĉ%&ď'(ĉ": 2375,
      "%&'(!!": 2376,
      "%&'(ďĉ!ďĉďĉďĉďĉ!!!!!!!!!!!!!!!!!!!!!Ĉ!Ĉ!Ĉ": 2377,
      "ďĉ!)": 2378,
      "ćďĉĈ!ćĈ!Ĉ!Ĉ!ćĈ!Ĉ!Ĉ!ĈĈ!": 2379,
      "Ĉ!ćĈ!ć%&'(": 2380,
      "ĈĈ!ĉ": 2381,
      "ĖĖĖĖ": 2382,
      "ććććććććĈ!ćććĈ!Ĉ!ćĈ!%&'(ďĉ": 2383,
      "ćććĈ!Ĉ!Ĉ!Ĉ!Ĉ!ćĈ!Ĉ!Ĉ!ĈćĈ!ćĈĈĈĈĈćĈĈĈĈĈćĈ!ĈĈĈćĈďĉ!": 2384,
      "ćĈ!ĈĈ!ćĈ!ĈćććććććĈćĈ!Ĉ!ćĈ!ćĈ!Ĉ!ćĈ!Ĉ!ćĈ!ĈćĈĈćĈĈćĈĈćĈćĈĈćĈĈ": 2385,
      "ďB": 2386,
      "ďćććĉ": 2387,
      "ďĉ!!ďĉďĉďĉďĉďĉďĉďĉ)!": 2388,
      "ď%&'(ĉďĉďĉďĉďĉ": 2389,
      "%Ĉ&'(ĈĈĈ": 2390,
      "ďĉ!ďĉ!ďĉććďĉďĉ)": 2391,
      "Ĉ!ďĉďĉćĈ!ďĉ!%&'(": 2392,
      "ćĈ!Ĉ!ćĈĈćďĉćĈ!ććĈ!ćĈ!Ĉ": 2393,
      "ćďĉ!!!!!!!!!ďĉďĉďĉďĉďĉ)!)": 2394,
      "ďĉ!!ďĉďĉďĉďĉďĉďĉ!ďĉďĉ!!ďĉ!!ďĉ!ććĈ!": 2395,
      "ďĉ!ďĉďĉďĉďĉďĉďĉďĉďĉďĉďĉ!!ććć": 2396,
      "ććććĈ!Ĉ!Ĉ!Ĉ!Ĉ!ĈĈ!Ĉ!ćďĉ!!ďĉďĉćĈ!ćďĉďĉ!ďĉďĉćććććĈ!ćČ": 2397,
      "ćČ": 2398,
      "22222222222222222222222222222222": 2399,
      "!!!!!!!!!!!!!ďĉ!!!!!!!!!!!!!!!!!!!!!!!!!!!!!!!!": 2400,
      "ďĉ!!!ďĉ%&'(ďĉďĉ!!ďĉ": 2401,
      "%&'(!!!!!!!!!!!!!!!!!!!!!!!!!!": 2402,
      "ďĉ!!!!!ďĉ!)!)!!!!!!!!!!!!!!ďĉ!!!!!!!!!!!!!!!!!!!!!": 2403,
      "ćććĈĈ!ćĈ!Ĉ!ĈćĈĈĈćĈĈĈćĈĈćććććďĉďĉďĉĈ!ĈĈĈĈĈ!ćĈ!Ĉ!ĈćĈĈĈćĈĈĈĈĈ": 2404,
      "&'(!!!!!!!)!)!!!!!!!!!!!!!!!!!!!!!!!!!!!!!!!!": 2405,
      "&ď'(": 2406,
      "0000111": 2407,
      "%&'(!!!!!": 2408,
      "ćĈ!Ĉ!Č": 2409,
      "ćĈ!Ĉ!Ĉ!ĈĈ!Ĉ": 2410,
      ")!)ďĉďĉďĉćććĈ!Ĉ!Ĉ!ĈĈ!Ĉ!ćĈ!Ĉ!Ĉ!ĈćĈ!Ĉ!Ĉ!Ĉ": 2411,
      "ďĉďĉďĉďĉďĉďĉďĉďĉďĉďĉćďĉďĉďĉďĉ!ććĈ!Ĉ!Ĉ!Ĉ!Ĉ": 2412,
      "%&'(ďĉďĉďĉďĉďĉďĉďĉďĉďĉćććć": 2413,
      "!!!!RTVa!!!SĂĄĆ!": 2414,
      "ďĈĉ": 2415,
      "%!ć&'(": 2416,
      "ďĉ!ďĉ!!!!ďĉďĉ!!ďĉ!!ďĉ!!!!!!": 2417,
      "ďĦĉ": 2418,
      "ćć%ć&'(": 2419,
      "ďĉ!!%&'(": 2420,
      "ďĉďĉ!ďĉ!!ďĉ!": 2421,
      "ďĉ%&'(ďĉďĉďĉďĉ": 2422,
      "%!&'(!!!!!!!": 2423,
      "Ĉ!Ĉ!Ĉ!Ĉ!!Ĉ!Ĉ!Ĉ!Ĉ!!Ĉ!Ĉ!Ĉ%&'(": 2424,
      "ďĉ!ďĉ!!ďĉďĉ!!ďĉ!!!!!!)!!!!!!!!)ďĉďĉďĉ!!": 2425,
      "%)": 2426,
      "ď!!!": 2427,
      "ćććĈ!ćĈ": 2428,
      "ďĉďĉ!ďĉďĉďĉďĉďĉďĉ!": 2429,
      "Ĉ!Ĉ!ĈĈ!Ĉ!ćĈ!Ĉ!": 2430,
      "32233": 2431,
      "ććĈ!Ĉ!Ĉ!Ĉ!Ĉďĉďĉďĉďĉďĉďĉďĉďĉ": 2432,
      "ćććććĈ!ćĈ!ććććĈ!ććĈ!ćććĈ!ćććĈć%&'(ďĉďĉ": 2433,
      "Ĕ!ďĉďĉďĉďĉ": 2434,
      "ćććććĈ!ćĈ!ććććĈ!ććĈ!ćććĈ!ćććĈć%&'(ďĉďĉććĈ!": 2435,
      "ćććĈ!Ĉ": 2436,
      "%&'(ďĉďĉďĉďĉďĉďĉďĉ!": 2437,
      "ćĈ!Ĉ!Ĉ!Ĉ!Ĉ": 2438,
      "ďĉďĉďĉďĉ%&'(ďĉďĉ": 2439,
      "ďĉ!!ďĉďĉďĉ%&'(": 2440,
      "ďĉďĉďĉďĉďĉď%&'(ĉ": 2441,
      "ďĉ!ďĉďĉďĉćććĈ!Ĉ!Ĉ!ćĈĈĈĈ!ćĈ!ĈĈ!ćĈ!ć": 2442,
      "Ĉ!Ĉ!Ĉ!ćĈ!ćĈďĉďĉďĉďĉ!!!!!!!!!ďĉ!!!!!!!!": 2443,
      "ćĈ!Ĉ!ĈćĈ!Ĉ!ćĈ!ććĈĈĈĈĈćĈćĈďĉćććććĈ!ĈĈćĈĈćĈ": 2444,
      "ĥ!Ĥ": 2445,
      "Ĉ!ćĈ!Ĉ!ĈćĈĈĈćĈĈĈĈĈĈ!ĈĈ!ĈĈĈćĈĈĈćĈ!ĈĈĈĈ!ĈĈ!Ĉ": 2446,
      "ďĉ!ďĉ!ďĉďĉďĉďĉ!ďĉďĉ": 2447,
      "Ĉ!ďĉďĉćĈ!ďĉ!%&'(ććĈ!Ĉ!Ĉ!Ĉ": 2448,
      "%!!!!!!!!!!!!!!!!!!!!!!!!!!!!!!!!!!!!!!!!": 2449,
      "Ĉ!!!": 2450,
      "ďĉħ": 2451,
      "ćĈ!ćĈ!ĈĈ!": 2452,
      "ďĉ!ďĉ%&'(!": 2453,
      "ďĉďĉ!!ďĉ%&'(": 2454,
      "Ĉ!Ĉ!Ĉ!Ĉ!Ĉ!Ĉ!Ĉ!ĈĈćĈ": 2455,
      "ďĉďĉďĉ%&'(ćććĈ!Ĉ!Ĉ!Ĉ!Ĉ!Ĉ!Ĉ!Ĉ!Ĉ!Ĉ!ćĈ!ćĈ!Ĉ!ćĈ!Ĉ!Ĉ!ćĈ!Ĉ!": 2456,
      "%!&'(!!": 2457,
      "ďĉ!ďĉ!ďĉ%&'(ďĉďĉ": 2458,
      ")!!!!!!!!!!!!!!!ďĉďĉďĉ)!)ďĉďĉďĉďĉďĉďĉ!!!": 2459,
      "ďĉ!!ďĉďĉďĉ)!)ďĉďĉďĉďĉďĉ!)!)!ďĉďĉ!!!)!)!!": 2460,
      "ććĈ!Ĉ!Ĉ!ĈćĈ!Ĉ!ĈćĈććĈĈ!ĈĈĈďĉ!!!": 2461,
      "%M&'(MMMMMMMMMMMMMMMMMMMMMMMMMMMMMMMM": 2462,
      "ďďĉ!ĉ": 2463,
      "ďĉďĉ!ďĉďĉ%&'(ćĈ!Ĉ!Ĉ!Ĉ!Ĉ!ĈďĉĈ!%&'(Ĉ!Ĉ!Ĉ!Ĉ!ĈĈĈ!ĈĈĈ": 2464,
      "ďĒ": 2465,
      "%&'(!!!": 2466,
      "ĈĈĈĈĈćĈĈ": 2467,
      "ďĉ!!ďĉďĉ!!ďĉ!ďĉ!!ďĉďĉďĉ!ďĉ": 2468,
      "ďĉďĉ!ďĉďĉďĉďĉ!ďĉ!!": 2469,
      "Ĉ!ĈĈćďĉďĉďĉďĉďĉďĉďĉ!ďĉ!ďĉďĉďĉ!ďĉ!ďĉďĉďĉĈ!Ĉ!Ĉ!Ĉ!ććĈćć": 2470,
      ">>>>": 2471,
      "ďĉ!ďĉďĉďĉďĉďĉďĉďĉďĉ!!ďĉďĉďĉďĉ!!!!ďĉ!!": 2472,
      "%ććĈ": 2473,
      ")M": 2474,
      "Lďĉ!": 2475,
      "Ğğ": 2476,
      "ďĉ!!!!RTVa!!!SĂĄĆ!!!!R!!!S": 2477,
      "!!!!!!!!!!!!%&'(!!!!!!!!!!!!!!!!!!!!!!!!!!!!!!!!": 2478,
      "ďĉďĉďĉďĉďĉďĉďĉďĉ%&'(": 2479,
      "ćććďĉ!!ďĉďĉďĉ!": 2480,
      "Ĉ!Ĉ!Ĉ!!ďĉďĉ!ďĉ!!!!!!!!": 2481,
      "ćĈ!ďĉ!)ććććććććććććĈ!ććĈ!ćĈ!ćĈ!Ĉ!Ĉ!ćĈ!Ĉ!ćĈ!%&'(ďĉ": 2482,
      "ćĈ!ĈćĈćĈćĈćććĈĈĈĈĈććĈĈććĈćććĈćĈćĈćĈćĈĈćĈĈćĈćĈćĈ": 2483,
      "ďĉ!!!!!!!!!!!!!!!!!!!!!!!!!!!!!!!!!!!ďĉ!ďĉ": 2484,
      "ćĈ!ĈĈ!ĈĈĈĈ!Ĉ!Ĉ!ĈĈĈĈĈĈĈĈ!ĈĈĈĈĈďĉ!ďĉďĉ!": 2485,
      "ćććĈ!Ĉ!Ĉ!ćĈ!Ĉ!Ĉ!Ĉ!Ĉ!!ďĉďĉ!ďĉ!!!!!!!!": 2486,
      "ďĉ!ďĉ!!!!!!ďĉďĉ!!!!ďĉďĉďĉććĈ!Ĉ!ćĈĈ!ćĈ!Ĉ!Ĉ!Ĉ!Ĉ!ĈĈĈćĈ!Ĉ!Ĉ!": 2487,
      "ćććććĈ!Ĉ!Ĉ!ćĈĈćĈďĉďĉĈ!Ĉďĉ!ďĉ!ďĉ%&'(": 2488,
      "ćććĈ!Ĉ!Ĉ!Ĉ!Ĉďĉ!ďĉ!ďĉ!Ĉ!Ĉ!Ĉ!Ĉ!Ĉ!Ĉ!Ĉ!Ĉ!ĈĈĈ!ĈĈ!ĈĈĈ!Ĉ!ĈĈ!Ĉ!Ĉ!": 2489,
      "ėĥĤē": 2490,
      "ćĈ!ďĉďĉďĉďĉďĉďĉďĉďĉďĉďĉďĉďĉ": 2491,
      "ććććććĈ": 2492,
      "ďĉ!ďĉ!ďĉďĉďĉďĉ": 2493,
      "ďĉďĉďĉďĉďĉďĉďĉďĉďĉćććć": 2494,
      "%ď&'(ĉďĉďĉďĉ": 2495,
      "Ĉ!Ĉ!ĈĈĈ!ĈćĈ!": 2496,
      "ćďĉďĉćććććććĈ!Ĉ!Ĉ!ćĈ!Ĉ!Ĉ!ćďĉ!": 2497,
      "ďĉ!%&'(!": 2498,
      "%!!!!!!!!!&'(": 2499,
      "ďĉďĉďĉďĉďĉ%&'(ďĉďĉďĉ!": 2500,
      "ďĉď%&'(ĉďĉ": 2501,
      "ďĉďĉ!ďĉ!!ďĉ!ďĉďĉďĉďĉ!": 2502,
      "ćććććĈ!Ĉ!Ĉ!ćĈĈćĈďĉďĉććĈ!Ĉ!Ĉ!ćĈ!": 2503,
      "ďĉ!ďĉďĉďĉďĉćććĈ!Ĉ!ććĈ!ćĈ!ćČďĉ!!!ďĉ!Ĉ!Ĉ!Ĉ!Ĉ!ĈćĈ!ĈĈ!ĈĈĈ": 2504,
      "Ĉ!Ĉ!ĈĈ!Ĉ!ćĈ!Ĉ!ĈĈĈĈĈ": 2505,
      "ćďĉ!ďĉďĉďĉďĉďĉďĉďĉ": 2506,
      "Ē!!!!": 2507,
      "ďĉ%&'ď(ĉ": 2508,
      "ććććĈ!Ĉ": 2509,
      "ďĉ!ďĉ!ďĉďĉďĉ!": 2510,
      "2322": 2511,
      "%!&'(!!!!!!!!!": 2512,
      "ďďĉĉďĉďĉďĉďĉ": 2513,
      "ćććĈ!Ĉ!Ĉ!Ĉďĉ!ďĉďĉďĉďĉ!!!!!!!!!!!!!!!!!!!!!Ĉ!Ĉ!Ĉ": 2514,
      "ćďĉ!ďĉ!!!!!!!!!!!!!!!!!!!!!!!!!!!!!!!!!!!ćććććććććććĈ!Ĉ": 2515,
      "%&'(ďĉďĉďĉďĉ!!!!!!!!!ďĉ!!!!!!!!": 2516,
      "ć%&'(ďĉćĈ!ććĈ!ćĈ!Ĉďĉćććććććć": 2517,
      "ćććĈ!Ĉ!Ĉ!Ĉ!Ĉ!Ĉ!ćććććĈ!ćĈĈďĉďĉ!!ďĉ!!!!!!!!!": 2518,
      "ďĉďĉ)ďĉďĉ!ďĉďĉ!!ďĉ!!!!ďĉďĉďĉďĉ": 2519,
      "ćććĈ!Ĉ!Ĉ!ćĈĈĈĈ!ćĈ!Ĉ": 2520,
      "%!!!!!!!!!!!!!!!!!!!!!!!!!!!!!!&'(!!!!!!!!!!!!!!!!!!!!!!": 2521,
      "ďĉ!ďĉďĉďĉďĉ%&'(ďĉďĉďĉćďĉ!ďĉďĉďĉďĉ!!": 2522,
      "ććĈ!ĈďĉĈ!Ĉ!ĈĈĈĈĈĈĈĈĈĈĈĈĈĈĈĈĈĈĈĈĈĈĈĈ": 2523,
      "%&'(ďĉ!!ďĉďĉ!!ďĉ!ďĉ!!ďĉďĉďĉ!ďĉććĈ!": 2524,
      "Lďĉ!K": 2525,
      "Ĉ!Ĉ!ĈĈĈ!ĈćĈ!ĈĈĈĈĈćĈĈ": 2526,
      "'7": 2527,
      "ĤĤ": 2528,
      "ďĉďĉ%&'ď(ĉ": 2529,
      "!!!)!)!!!!!!!!!!!!!!!!!!!!!!!!!!!!!!!!!!!!!!": 2530,
      "ďĉďĉ!ďĉ!ďĉďĉďĉďĉ": 2531,
      "ććĈćĈ!Ĉ!Ĉ!Ĉ!Ĉ!Ĉ!": 2532,
      ")!)!!!!!!!!!!": 2533,
      "ďĉďĉďĉ!ććĈ!ćďĉďĉďĉďĉ": 2534,
      "MMMMM": 2535,
      "ďĉ!ďĉ)))": 2536,
      "%&'(ďĉććĈ!Ĉ!ĈĈĈ!Ĉ!Ĉ!ĈĈćĈďĉ!!ďĉďĉ!!!)!)!!!!!!!!!!!!": 2537,
      "!!!!!!!!!)!)!!!!!!!!!!!!!!!!!!!!!!!!!!!!!!!!": 2538,
      "77'7": 2539,
      "ďĉďĉďĉ!!ďĉďĉďĉ": 2540,
      "ćďĉ!ććććĈ!ćĈ!Ĉ!Ĉ!ćĈ!Ĉ!Ĉ!Ĉ!ćĈ!Ĉ!Ĉ!Ĉ!ćĈ!Ĉ!ćĈ!ĈćĈ!Ĉ!": 2541,
      "ďĉććććĈ!ćĈ!Ĉ!": 2542,
      "ďĉ!!ďĉ!!!!": 2543,
      "ďĉďĉďĉďĉďĉďĉď%&'(ĉ": 2544,
      "ďĉďĉďĉďĉďĉďĉ%ď&'(ĉ": 2545,
      "Ĉ!Ĉ!ćĈĈćĈĈĈĈĈĈĈĈ": 2546,
      "ď!!ĉ": 2547,
      ")!)!ďĉďĉ!!!)!)!!ďĉďĉďĉďĉďĉ!!ďĉ!": 2548,
      "ďĉďĉďĉďĉ!ďĉďĉ!!!!!!!!!!!!!!!!!!!!!!!!!!!ďĉ!ďĉ!!!!!!": 2549,
      "ďĉďĉ!!ďĉ!!ďĉ!ććĈ!ďĉ!ďĉďĉ!!ďĉďĉ)ďĉďĉ!ďĉďĉ!!ďĉ!!!!ďĉďĉďĉďĉ": 2550,
      "ććĈ!ĈćĈćĈćĈ!ĈćĈĈďĉ%&'(ďĉďĉĈ!Ĉ!Ĉ!Ĉ!ćććĈ!ďĉ!!ďĉ!!!!!!!!!!!": 2551,
      "%&'(ďĉććććććććĈ!Ĉ!Ĉ!ĈćĈĈ!Ĉ!ĈćĈĈ!ćĈ!Ĉ!ĈĈĈĈćĈĈĈĈ": 2552,
      "ďĤĉ": 2553,
      "ćďĉ%&'(ďĉćĈ!ćĈ!Ĉ!Ĉ!ćĈ!Ĉ!Ĉ!ćĈ!Ĉ!": 2554,
      "00001111": 2555,
      "%&'(ďĉďĉďĉďĉďĉďĉ": 2556,
      "ďĉďĉďĉď%ĉ&'(": 2557,
      "%&'(%&'(%&'(%&'(%&'(%&'(%&'(%&'(%&'(%&'(": 2558,
      "%!&Ĉ'(!": 2559,
      "))ħ!": 2560,
      "%!&'(!!!!!!!!!!!!!!!!!!!!!!!!!!!!!!!!!!!!!!!!!!!": 2561,
      "ďĉ!ďĉďĉĈ!Ĉ!": 2562,
      "ďĉ!!!!ďĉďĉďĉďĉďĉďĉďĉďĉďĉďĉ%&'(": 2563,
      "ćĈ!Ĉ!Ĉ!Ĉ!Ĉ!Ĉ!ĈĈďĉ!!!": 2564,
      "ďĉ!ďĉ!ďĉ!ďĉ!ďĉ!ďĉćććĈ!Ĉ!Ĉ!Ĉ!Ĉ!Ĉ!ćĈ!Ĉ!Ĉ!Ĉ!ćĈ!Ĉ!Ĉ!Ĉćć": 2565,
      "ććĈ!ćććĈ!ćććĈ!ćććĈ!Ĉ!Ĉ!ďĉćććĈ!ćďĉďĉďĉďĉďĉ!!ďĉ!!!!": 2566,
      "ććĈ!ć%&'(ďĉ!ďĉććććĈ!ćĈ!ĈĈ!ććĈ!ćĈ!ĈĈ!ćĈ!Ĉ!ćĈ!ďĉ!": 2567,
      "ďĉ)": 2568,
      "Ĉ!Ĉ!Ĉ!Ĉ!ĈĈ!Ĉ!Ĉ!Ĉ!": 2569,
      "ććććććććććććĈ!ćĈ!Ĉ!Ĉ!Ĉ!Ĉ!Ĉ!Ĉ!Ĉ!Ĉ!!ćĈĈĈĈ!Ĉ!ćĈ!Ĉ!ćĈĈĈćĈ!ĈĈĈĈ": 2570,
      "ďĉ%&'(Ĉ!ćĈ!Ĉ!Ĉ!Ĉ!Ĉ!Ĉ!ćĈ!ćĈ!ćĈ!Ĉ!Ĉ!ćĈ!ĈĈĈćĈćĈćĈĈĈćĈ": 2571,
      "ďĉĈ!Ĉ!Ĉ!Ĉ!ĈĈĈĈĈĈĈĈĈĈĈĈĈĈ!Ĉ!Ĉ!Ĉ!Ĉ!ĈĈĈ!ĈĈ": 2572,
      "ďĉďĉďĉďĉ!ďĉďĉ!!%!&'(": 2573,
      "ććććććĈ!ććČďĉďĉďĉďĉďĉďĉďĉďĉ!!!ďĉďĉďĉďĉććĈ!Ĉ!Ĉ!Ĉ!Ĉ!Ĉ!": 2574,
      "ďĉ!ďĉďĉďĉďĉďĉďĉ!!ďĉ!ďĉďĉďĉďĉ!!": 2575,
      "ĈĈĈ!Ĉ!Ĉ!ĈĈĈĈ!Ĉ!ĈĈ!Ĉ!Ĉ!ĈĈĈĈćďĉďĉćććććććĈ!Ĉ!Ĉ!ćĈ!Ĉ!Ĉ!": 2576,
      "%&'(ďĉ!!ďĉďĉďĉĈ!ĈĈĈ!ĈĈĈĈĈĈĈĈĈĈĈĈĈĈĈĈĈĈ!ďĉ!!ďĉ!ďĉ!!!": 2577,
      "ć%ď&'(ĉ": 2578,
      "Ĉĉ": 2579,
      "ĐĐ": 2580,
      "!!)": 2581,
      "ďĉďĉďĉďĉď%&'(ĉ": 2582,
      "Ĉ!ćĈ!Ĉ!Ĉ!": 2583,
      "ďĉďĉďĉ!ďĉ%&'(": 2584,
      "ćĈ!ćĈ!Ĉ!ĈĈ!": 2585,
      "ďĉďĉ!!ďĉďĉ!": 2586,
      "ďĉďĉ!!ďĉďĉďĉďĉďĉďĉďĉďĉ!": 2587,
      "ćďĉď%&'(ĉ": 2588,
      "'(3323": 2589,
      "ďĉďĉďĉ%&'(ďĉďĉďĉďĉďĉďĉďĉďĉďĉďĉćďĉďĉďĉďĉ!ććĈ!Ĉ!Ĉ!Ĉ!Ĉ": 2590,
      "ćĈ!ćďĉďĉďĉďĉďĉ!!ďĉ!!!!ďĉďĉďĉ!ďĉďĉ!": 2591,
      "%Ĉ&'(!Ĉ!Ĉ!": 2592,
      "ďĉďĉ!ďĉďĉ%&'(ďĉďĉ!": 2593,
      "ćĈ!ććĈććĈ!!!!!!ďĉćć%&'(ďĉďĉďĉ": 2594,
      "ććććĈ!Ĉ!Ĉ!Ĉ!Ĉ!ĈĈ!Ĉ!ćďĉ!!": 2595,
      "!!!!!!!!!!!!!!!!!!!%&'(": 2596,
      "ćďĉ!!!!ćďĉ!ćććććďĉ!ććććĈćććĈ!Ĉ!ĈćĈ!ć": 2597,
      "ďĉ%&'(ďĉďĉďĉďĉďĉďĉ!ďĉďĉďĉďĉ!!ďĉďĉďĉďĉďĉďĉ!": 2598,
      "ćĈćďĉďĉďĉ!!!ďĉďĉďĉďĉ": 2599,
      "!!!!!!!ďĉ!!ďĉďĉ!!!ďĉďĉďĉďĉďĉ!ďĉććĈ!Ĉ!Ĉ!Ĉ!Ĉ!Ĉ!Ĉ!ĈĈćĈ%&'(ďĉďĉ": 2600,
      "Ĉ!Ĉ!ćĈĈćĈĈĈĈĈĈĈĈĈ!Ĉ!ĈĈĈ!ĈćĈ!ĈĈĈĈĈćĈĈ": 2601,
      "ćħ": 2602,
      "ćďĉďĉďĉďĉďĉďĉ": 2603,
      "'(;": 2604,
      "ďĉďĉďĉďĉććĈ!Ĉďĉ%&'(Ĉ!Ĉ!ĈĈĈĈĈĈĈĈĈĈĈĈĈĈĈĈĈĈĈĈĈĈĈĈďĉ!": 2605,
      "!!!ďĉ!!!ćććĈćĈ!ćĈ!ĈĈ!Ĉ!": 2606,
      "ćććĈ!Ĉ!Ĉ!Ĉ!Ĉ!%&'(": 2607,
      "ďĉ!!!!!!!!!!!!!!!!!!!!!!": 2608,
      "%&'(ďĉďĉćďĉććććććććććććććććĈ!Ĉ!ćĈ!Ĉ!ĈĈ!": 2609,
      "ďĉ!ďĉďĉďĉ!ďĉ!ďĉďĉďĉĈ!Ĉ!Ĉ!Ĉ!ććĈćć": 2610,
      "ćĈ!ĈćĈĈćĈĈĈĈĈĈĈ": 2611,
      "Ĉ!Ĉ!Ĉ!ĈĈĈĈĈĈĈĈĈĈ!ĈĈĈ!ĈĈ!ĈĈĈĈ!ĈĈ!Ĉ%&'(ďĉĈ!ĈĈĈĈĈĈĈ": 2612,
      "ďĉďĉďĉďĉďĉďĉ%&'(Ĉ!Ĉ!Ĉ!Ĉ!Ĉ!Ĉ!ćďĉďĉďĉćĈ!Ĉ!Ĉ!Ĉ!": 2613,
      "ćććććććĈ!Ĉ!ćĈ!ĈćĈĈ!Ĉ!ćĈ!ĈĈ!ććĈ!ćĈ!ććĈćĈććć!!ďĉ!ďĉ!!": 2614,
      "ďĉ!!!!!!!!!!!!!!!!!!!!!!!!!!!!!!!!!!!ďĉ!ďĉďĉ!Ĉ!Ĉ!ĈĈ!Ĉ!Ĉ!Ĉ!": 2615,
      "ďĉďĉďĉďĉ!!!!ďĉ!!ďĉďĉďĉďĉďĉďĉďĉďĉ!ćĈ!Č": 2616,
      "%!!!!!!!&'()!)!!!!!!!!!!!!!!!!!!!!!!!!!!!!!!!!": 2617,
      "ĈćĈĈćĈćĈĈĈćĈĈďĉĈ!Ĉ!ĈĈĈĈ!Ĉ!Ĉ!ĈĈĈĈĈĈĈĈĈĈ!ĈĈĈ!ĈĈ!ĈĈĈĈ!ĈĈ!Ĉ": 2618,
      "Ĉ!Ĉ!Ĉ!ĈĈĈĈĈĈĈĈĈĈ!ĈĈĈ!ĈĈ!ĈĈĈĈ!ĈĈ!Ĉ%&'(ďĉĈ!ĈĈĈĈĈĈĈĈ!ĈĈĈ": 2619,
      "\"%&-+/,'(%&-+/,'(%&-+/,'(%&-+/,'(": 2620,
      "!!!!!!!!!!!!!!!%&'(%&'(": 2621,
      "ďĉďĉďĉ%&'(ďĉ!ďĉďĉ": 2622,
      "ďĉ!!!!!!!!!!!!!!!!!!!!": 2623,
      "ďĉďĉďĉďĉďĉďĉ!!!!!!!!!!!ďĉ!!!!!!!!!!!!!!!!!!!!!!!!!!!!!!!!": 2624,
      "%&'(ďĉďĉĈ!Ĉďĉ!ďĉ!ďĉ": 2625,
      "ďĉďĉďĉďĉďĉďĉďĉĈ!Ĉ!Ĉ!Ĉ!Ĉ!Ĉ!Ĉ!ĈĈĈĈĈĈĈ!ĈĈĈĈĈĈĈĈĈĈĈĈĈĈĈĈĈĈĈĈ!": 2626,
      "ďĉďĉďĉďĉďĉďĉďĉ!ďĉ!ďĉďĉďĉďĉ": 2627,
      "ćĈ!ćĈ!Ĉ!Ĉ!%&'(ďĉďĉ!": 2628,
      "ďĉďĉćććććďĉ!": 2629,
      "&'(!!!!!!!!!!!!!!!!!!!!!!!!!!!!!!!!!!!!!!!!!!!!!!!!!!": 2630,
      "ďĉďĉďĉďĉďĉďĉďĉďĉ!ćĈ!Čďĉďĉ!": 2631,
      "ďĉďĉďĉ!ďĉ!!!!!!!!!!!!!": 2632,
      "ďĉ!!ďĉďĉďĉĈ!ĈĈĈ!ĈĈĈĈĈĈĈĈĈĈĈĈĈĈĈĈĈĈ!ďĉ!!ďĉ!ďĉ!!!": 2633,
      "Ĉ!!Ĉ!!": 2634,
      "ćććĈ!Ĉ!Ĉ!Ĉ!Ĉ!ĈćĈĈ!Ĉ!ĈĈĈćĈćĈ!ććĈ!!ďĉ!!ďĉďĉďĉ": 2635,
      "ćĈ!Ĉ!ćĈ!ćĈ!ćĈ!Ĉ!ććććĈ!ććĈ!ć!ďĉććĈ!Ĉ!ĈĈĈ!Ĉ!Ĉ!ĈĈćĈ": 2636,
      "ćďĉďĉďĉďĉ!ććĈ!Ĉ!Ĉ!Ĉ!Ĉďĉďĉďĉďĉďĉďĉďĉďĉ": 2637,
      "!!!!!!!!!!!!!!!!!!!ďĉ!ďĉďĉ!!!!!!!!!!!!!!!!!!!!!!!!!!!!": 2638,
      "ććĈ!ďĉ!ďĉ!!ćĈ!%&'(ďĉďĉďĉ": 2639,
      "ďKĉ": 2640,
      "!!!!!!!!!!!!!!!!!!!%&'(ďĉ!ďĉďĉ!!!!!!!!!!!!!!!!!!!!!!!!!!!!": 2641,
      "ďē": 2642,
      "%&'(!!!!": 2643,
      "%&'(ććććĈ!ćĈ!Ĉ!Ĉ!ĈĈ!Ĉ!Ĉ!ĈććĈ!ćďĉććććććććĈ!Ĉ!Ĉ!Ĉ!ćĈĈĈĈ!Ĉ!ćĈ!": 2644,
      "ďĉďĉ!!ďĉďĉďĉďĉďĉďĉďĉ!ďĉ!ďĉćććććććĈ!ćČČ": 2645,
      "ć%&'(ďĉďĉ!!ćććĈ!Ĉ!ćĈ!Ĉ!ĈĈĈĈ!ććĈďĉďĉćććććććć": 2646,
      "ć%&'(ďĉďĉďĉďĉććĈ!Ĉďĉ%&'(Ĉ!Ĉ!ĈĈĈĈĈĈĈĈĈĈĈĈĈĈĈĈĈĈĈĈĈĈĈĈďĉ!": 2647,
      "ďĉ!ďĉďĉďĉĈ!ĈĈćďĉďĉďĉďĉďĉďĉďĉ!ďĉ!ďĉďĉďĉ!": 2648,
      "ćĈ!Ĉ!ĈćĈ!ć%&'(ďĉďĉ!!ćććĈ!Ĉ!ćĈ!Ĉ!ĈĈĈĈ!ććĈďĉďĉćććććććć": 2649,
      "ćĈ!ćĈ!ćďĉďĉďĉďĉ!ďĉďĉćććććććĈĈććććććĈ!ćĈĈ%&'(ďĉďĉ!!": 2650,
      "Ĉ!ĈĈĈ!ĈĈĈć": 2651,
      "ďĉ!ďĉĈ!Ĉ!ćĈ!Ĉ!ĈĈĈďĉ!ďĉ!!!SĂĄĆ!!ďĉ!!!!!!RTVa!!!SĂĄĆ!!!!R!!!S": 2652,
      "%&'(ďĉ!!ďĉďĉďĉďĉďĉďĉ!ďĉďĉ!ďĉďĉďĉ!!ććććĈ!Ĉ!": 2653,
      ")ďĉďĉďĉďĉďĉďĉďĉ!ďĉ!!ďĉďĉďĉďĉďĉďĉďĉ)!": 2654,
      "Ĉ!Ĉ!ćĈ!Ĉďĉ!!!!!!!!!": 2655,
      "!!!!!!!!!!!!!!!%&'(%&'(ďĉ!!!!!!!!!!!!!!!!!!!!!!!!!!!!!!!!": 2656,
      "%Ĉ!Ĉ": 2657,
      ")ĉ": 2658,
      "EFD": 2659,
      "ďĈ!ćĉ": 2660,
      "Ħē": 2661,
      "ďĉďĉććć": 2662,
      "%&'(ćĈ!Ĉ!ćĈ!ćĈ!ćĈ!Ĉ!ććććĈ!ććĈ!ć!ďĉ": 2663,
      "%&'(ďĉ!!ďĉ!ďĉďĉ!ďĉ!ďĉďĉďĉ!": 2664,
      "ćĈ!ćĈ!ćĈ!": 2665,
      "ďĉ!ďĉ%&'(ďĉďĉ": 2666,
      "%&'(ĉĉ": 2667,
      "ďĉ!ďĉ!ďĉďĉ!!ďĉ!ďĉ!!": 2668,
      "ć%&'(ďĉ!ďĉďĉ!!": 2669,
      "Ĉ!ĈĈ!ćĈ!ćĈ!": 2670,
      "ĈĈĈĈĈĈĈĈĈĈĈĈĈ": 2671,
      "ďĉ!ďĉďĉďĉ!!!": 2672,
      "L!LKLLLL": 2673,
      ")!)!!!!!!!!!ććććĈ!ĈĈ": 2674,
      "Ĉ!Ĉ!ĈĈ!Ĉ!Ĉ!ĈĈĈĈćďĉďĉćććććććĈ!Ĉ!Ĉ!ćĈ!Ĉ!Ĉ!ćďĉ!": 2675,
      "ććĈ!Ĉ!Ĉ!ććĈ!Ĉ!Ĉ!ĈĈ!Ĉ!!ćĈ!Ĉ!Ĉ!Ĉ!ćĈ!ććĈ!ć%&'(ďĉ!ďĉďĉ!!": 2676,
      "0011010101'(3": 2677,
      "(788888888,-%&+0011": 2678,
      "ćććďĉććććććĈ!ććČďĉďĉďĉďĉďĉďĉďĉďĉ!!!": 2679,
      "ďĉćććććĈ!Ĉ!Ĉ!ćĈĈćĈ%&'(ďĉďĉĈ!Ĉďĉ!ďĉ!ďĉ": 2680,
      "ďĉ!!!!!!!!!!!!!!!!!ďĉ!!!!!!!!!ćććĈ!Ĉ!Ĉ!Ĉ!Ĉ!Ĉ!ĈĈĈĈĈĈĈĈĈĈĈĈ": 2681,
      "!!!!RTVa!!!S": 2682,
      "Ĉ!Ĉ!Ĉ!Ĉ!Ĉ!Ĉ!Ĉ!ĈĈćĈďĉďĉćććĈ!Ĉ!Ĉ!Ĉ!Ĉ!Ĉ!ćććććĈ!ćĈĈ%&'(ďĉďĉ!!ďĉ": 2683,
      "322222222222222222222222222222222": 2684,
      "Ėďĉ": 2685,
      "ďĉ!Ħ": 2686,
      "ďĉďĉďĉ!!!!": 2687,
      "ďĉďĉďĉ!!!": 2688,
      "LLL!LK!LK": 2689,
      "!!!!!!!!!!!!!%&'(!!!!!!!!!!!!!!!!!!!!!!!!!!!!!!!!": 2690,
      "ć%&'(ďĉ!ďĉďĉďĉďĉďĉďĉďĉďĉ": 2691,
      "ď!ďď": 2692,
      "ď%ĉ&'(!!": 2693,
      "!!!!!!!!!!!!!!!!!!!!!!!!!!!!!!!!!!!!!!!!!%!!!!!!!!!": 2694,
      "(788888888,-%&+010011": 2695,
      "%&'(ďĉ!ćĈ!ćĈďĉďĉďĉďĉ!ďĉďĉďĉďĉ!ďĉ!!": 2696,
      "!!!ďĉďĉďĉďĉććĈ!Ĉ!Ĉ!Ĉ!Ĉ!Ĉ!ććĈ!ć": 2697,
      "Ĉ!Ĉ!Ĉ!ćĈĈĈććĈĈ!ćććĈ!ććĈ!ćĈ!ĈĈĈćć!!!!ďĉ!!": 2698,
      "ďĉ!!ďĉ!ććĈ!ďĉ!ďĉďĉ!!ďĉďĉ)ďĉďĉ!ďĉďĉ!!ďĉ!!!!ďĉďĉďĉďĉ": 2699,
      "%&'(%&'(ďĉ!!ććććććĈććĈ!ďĉćĈ!Ĉ!Čďĉďĉďĉ!": 2700,
      "244444444%&5555555522222222222222222222222266666666777777'7": 2701,
      "&'(!!)!)!!!!!!!!!!!!!!!!!!!!!!!!!!!!!!!!": 2702,
      "ććĈ!ćďĉďĉďĉďĉďĉďĉďĉ!!ďĉď%&'(ĉďĉ": 2703,
      "ďĉ!!ďĉ!ďĉďĉ!ďĉďĉ!ďĉ!%&'(ďĉ!!!": 2704,
      "ćććććććććććććććććććććććććć%&'(Ĉ!": 2705,
      "ćďĉ!ďĉďĉďĉ%&'(ďĉďĉďĉďĉďĉĈ!ĈććĈĈ!Ĉ!ććĈ!Ĉ!ĈĈ!ĈĈĈ": 2706,
      "ćććĈ!Ĉ!Ĉ!ćĈĈĈĈ!ćĈ!ĈĈ!ćĈ!ć%&'(": 2707,
      "!ĉ": 2708,
      "ďĈĈĈĈ": 2709,
      "Ħ!!": 2710,
      "%&'(ďĉ!!!!!!!!!!!!!!!!!!!!!!!!!!!!!!!!!!!!!!!!!!!!!!!!!!!!": 2711,
      "ćććććććććććććććććććććććććććććććć": 2712,
      "ďĉ!!!!!!!!!!!!!!!!!!!!!!!!!": 2713,
      "ďďĉĉďĉďĉ": 2714,
      "ďĉ!!!!!!!!ććĈ!Ĉ!ĈćĈĈĈććĈĈĈććĈ!Ĉ!Ĉ!Ĉ!Ĉ!Ĉ!ćĈ": 2715,
      "ďĉ!!!!!ďĉ!ďĉďĉďĉďĉďĉďĉďĉ": 2716,
      "%&'(!ďĉ!!Ĉ!ĈćĈ!Ĉ!Ĉ!ĈćĈ!ććďĉ!Ĉ!ĈćĈ!Ĉ!Ĉ!ĈćĈ!ćć": 2717,
      "ćĈĈĈĈĈĈĈĈĈĈĈĈĈĈ": 2718,
      "ććććććĈććĈ!ďĉďĉďĉ!ććĈ!ć": 2719,
      "ďĉććććććććććććććĈ!ććĈ!Ĉ!Ĉ!ĈćĈ!Ĉ!ĈćĈććĈĈ!ĈĈĈďĉ!!!": 2720,
      "%&'(ďĉďĉďĉ!!!!!ďĉďĉďĉ!ďĉďĉćććććĈ!Ĉ!ćĈĈćďĉćĈ!ććĈ!ćĈ!Ĉ": 2721,
      "ćĈ!ďĉććĈ!Ĉ!Ĉ!Ĉ!ćĈ!Ĉ!!Ĉ!ćĈ!ćĈ!ććĈ!Ĉ!": 2722,
      "ćĈ!Ĉ!ĈĈĈĈĈĈććĈ!ćďĉ!!!!!!!!ďĉ!ďĉ%!&'(": 2723,
      "ćĈ!Ĉ!Ĉ!Ĉ!Ĉ!Ĉ%&'(ďĉĈ!Ĉ!Ĉ!Ĉ!": 2724,
      "Ĉ!Ĉ!ĈĈĈĈĈĈćĈ!ĈĈĈ%&'(ďĉ%&'(%&'(%&'(ďĉďĉďĉďĉ!ďĉďĉ!!%!&'(": 2725,
      "%ćć&": 2726,
      "ćććĈ!Ĉ!Ĉ!Ĉ!Ĉ!Ĉ!ćĈ!Ĉ!Ĉ!Ĉ!ćĈ!Ĉ!Ĉ!Ĉććďĉ!ćĈ!ćĈďĉďĉďĉďĉ!": 2727,
      "ďĉ!ďĉ!ďĉďĉ!ďĉ!ďĉďĉďĉďĉ!": 2728,
      "Ĕ!ďĉďĉďĉďĉćććďĉ!": 2729,
      "ććĈćĈ!Ĉ!Ĉ!Ĉ!Ĉ!Ĉ!ććĈ!Ĉ!Ĉ!ćĈ!": 2730,
      "ďĉďĉ%!&'(": 2731,
      "ćĈ!ĈĈ!Ĉ!Ĉ!Ĉ!": 2732,
      "ďĉ%&'(!!": 2733,
      "ďĉ%&'(ďĉďĉďĉďĉďĉďĉďĉ!": 2734,
      "ďĉ!!!!!!!!!!!!!!!!!!!!!!!!!!!!!!!!!!!!": 2735,
      "%Ĉ&'(!Ĉ!Ĉ": 2736,
      "ďĉ!!ďĉ!ďĉďĉďĉ!ďĉ!!!!!ďĉ!ďĉďĉďĉďĉ": 2737,
      "ćĈ!Ĉ!ĈćĈ!Ĉ!ćĈ!ććĈĈĈĈĈćĈćĈ%&'(ďĉćććććĈ!ĈĈćĈĈćĈďĉćććććććć": 2738,
      "ďĉ!ďĉ!!!!!!ďĉďĉ!!!!ďĉďĉďĉććĈ!Ĉ!": 2739,
      "ďĉ!!ďĉ!ďĉďĉ!ďĉďĉ!ďĉ!%&'(ďĉ!!!ďĉ!!!ćććĈćĈ!ćĈ!ĈĈ!Ĉ!": 2740,
      "!)": 2741,
      "!!Ĉ": 2742,
      "ďĉććć": 2743,
      "%&'(ďĉ!ďĉďĉ!ďĉ!ďĉďĉďĉ!": 2744,
      "ďĉďĉďĉďĉ%&'(ďĉ": 2745,
      "ćĈĉ": 2746,
      "ćĈ)!)!!Ĉ!Ĉ!ĈĈ!!!!!": 2747,
      "Ĉ!Ĉ!Ĉ!Ĉ!ĈĈ!": 2748,
      "Ĉ!ĈĈĈĈ!ĈĈĈĈĈ": 2749,
      "ďĉ%&'(ďĉďĉďĉ!": 2750,
      "23322": 2751,
      ")!)!!!!!!!!!!!!!!!!!!!": 2752,
      "!!!!!!!!!!!!!!!!!!!!!!!!!!!!!!!!!!!%&'(": 2753,
      "ďĉďĉďĉďĉďĉ!!ďĉ!!!!!!!": 2754,
      "ććĈ!ĈćĈćĈćĈ!ĈćĈĈ%&'(ďĉďĉďĉ": 2755,
      "ďĉ!ďĉ!ďĉ%&'(ďĉďĉďĉďĉćććććĈ!Ĉ!Ĉ!ćĈĈćĈďĉďĉ": 2756,
      "%!!!!!!!!!!!!!!!!!!!!!!!!!!!!!!!!!!!!!!!!!!": 2757,
      ")Ĉ": 2758,
      "ML": 2759,
      "ćĈ!ďĉďĉďĉĈ!Ĉ!Ĉ!Ĉ!Ĉ!ćĈ!ĈĈĈĈ": 2760,
      "ďĉ!))ħ!": 2761,
      "ďĉďĉ!ďĉ!ďĉ": 2762,
      "ďĉďĉďĉćććĈ!Ĉ!Ĉ!Ĉ!ĈĈĈĈĈĈĈĈĈĈ!ćĈ!Ĉ!ĈćĈĈćĈćĈĈĈćĈĈďĉĈ!ĈĈĈĈ": 2763,
      "Ĉ!ćĈ!Ĉ!Ĉ!Ĉ!Ĉ!": 2764,
      "ďĉďĉďĉďĉďĉďĉďĉďĉććććĈ!ćĈ!Ĉ!Ĉ!ĈĈ!Ĉ!Ĉ!ĈććĈ!ć%&'(ďĉ": 2765,
      "Ĉ!ĈĈĈ!ĈĈ!ĈĈĈĈ!ĈĈ!ĈďĉĈ!ĈĈĈĈĈĈĈĈ!ĈĈĈ": 2766,
      "%&'(ďĉďĉćĈ!ćďĉďĉ!ďĉďĉćććććĈ!ćČ": 2767,
      "ďĉďĉďĉďĉďĉďĉďĉ!!!": 2768,
      "ďĉďĉďĉćďĉďĉďĉďĉ!": 2769,
      "ďĉďĉ!ďĉ)))": 2770,
      "(788888888,-%&+01001101010011": 2771,
      "Ē!!Ē": 2772,
      "%&'(ďĉďĉďĉ!!!!!!!!!!": 2773,
      "ďĉ!ďĉ!!!!!!!!!!!!!!!!ďĉ!!!!!!!!!!!!!!!!!": 2774,
      "ććĈĈ!Ĉ!ĈĈĈ!ććĈ!Ĉ!ĈćĈ!ććĈ!Ĉ!Ĉ": 2775,
      "ććĈ!ćĈ!Ĉ!ĈĈĈ!ĈĈĈććĈ!ĈĈ!ĈĈĈĈ!ĈĈ!ĈĈĈĈ%&'(ďĉďĉďĉ!!!!!!!!!!": 2776,
      ")!)!!!!!!!!!!!!!!!!!!!!!!!!!!!!!!!!!!!!)!)": 2777,
      "ďĉ!!!!!!!!!!!!!!!!!!!!!!!!ďĉ!!ďĉďĉďĉďĉďĉ!!ďĉ!ďĉ!": 2778,
      "32222323232222222222222222222222222222222222222222": 2779,
      ")!)!!!!!!!!!!!!!!!!!)!)!!!!!!!!!!!!!!!!!!!!!!!!!!!!!!!!": 2780,
      "ćććććććććććĈ!ććĈ!Ĉ!ćĈ!Ĉ!ćĈ!ć!ďĉ!!ďĉ)!!!)!!!!!": 2781,
      "ď%&'(ĉďĉ!ďĉďĉďĉďĉďĉďĉďĉďĉ!ďĉďĉďĉďĉďĉćććć": 2782,
      "ććććĈ!Ĉ!Ĉ!Ĉ!Ĉ!ĈĈ!Ĉ!ćďĉ!!%&'(ďĉďĉćĈ!ćďĉďĉ!ďĉďĉćććććĈ!ćČ": 2783,
      "ćĈĈĈĈĈĈĈĈĈĈĈĈĈĈćĈ!ĈćĈĈćĈĈĈĈĈĈĈ": 2784,
      "ć%ćĈ&'(!": 2785,
      "ĥ!!": 2786,
      "ďĉē": 2787,
      "ććď": 2788,
      "ćĈĈĈĈćć": 2789,
      "ďĉ%&'(ďĉďĉďĉďĉďĉ": 2790,
      "ćďĉ!!!": 2791,
      "%Ĉ&'(ĈĈĈĈ": 2792,
      "ďĉďĉďĉ%&'(ďĉďĉ!": 2793,
      "ćĈĈĈĈĈĈ!ĈĈ!ĈĈĈćĈĈĈćĈ!ĈĈĈĈ!ĈĈ!Ĉďĉďĉďĉďĉďĉďĉ!%&'(%&'(": 2794,
      "ďĉ!ďĉďĉ%ď&'(ĉ": 2795,
      "%!!!&'(!!!!!!!!!!!!!!!!": 2796,
      "&'(!!!!!!!!!!!!!!!!!!!!!!!!!!!!!!!!!!!!!!!!!!!!!!!!!!!!!": 2797,
      "ćďĈĈ": 2798,
      "!!!!!!!!!!!!!!!!!!!!!!!!!!!ďĉ!ďĉ!!!!!!ďĉďĉ!!!!": 2799,
      "ďĉďĉďĉďĉćĈ!ĈĈ!Ĉ!ďĉ!ďĉ!ďĉďĉďĉ!!ďĉ!ďĉ%&'(!": 2800,
      "%ććć": 2801,
      "ć!!!!!!!!!!!!!!!!!!!!!!!!!!!!!!!!!!!!!!!!!!!!!!!!!!!!!!!": 2802,
      "Ĉ!ćĈ!ćĈ!Ĉ!": 2803,
      "ďĉď!ĉ": 2804,
      "ďĉďĉďĉďĉ!!!": 2805,
      "ĈĈĈĈĈĈĈĈĈĈ": 2806,
      ")!)!!!!!!!!!!ďĉ!!!!!!": 2807,
      "ďĉďĉ!!ďĉďĉďĉďĉććććĈ!ĈĈ!ćĈ!ĈĈ!Ĉ!Ĉ!ćĈ!ćĈ": 2808,
      "%!&": 2809,
      "ďĉ!ďĉďĉďĉďĉć%&'(": 2810,
      "ĈĈĈĈĈĈĈĈĈĈĈĈĈĈĈĈĈ!": 2811,
      "ďĉ!!!!!!!!!!!!!!!!!!!!!!!!!!!!!": 2812,
      "22222244444444%&5555555522222222222222222222222266666666": 2813,
      "ďďĉĉďĉďĉďĉ": 2814,
      "232323232222222222222222222222222222222222222222": 2815,
      "!!!!!!!!!!!!!!!!!!!!!!!!!!!!!!!!!!!!!!!%!!!!!!!!!!!": 2816,
      "%&ď'(ĉďĉďĉ": 2817,
      "ććććććĈććĈ!ďĉćĈ!Ĉ!Č": 2818,
      "(788888888,-%&+010101": 2819,
      "!&'(ďĉ))ďĉħ": 2820,
      "ćĈ!ĈĈćĈ!ćĈĈćĈ!Ĉ!ćďĉďĉćććĈ!ćĈ!Ĉ!Ĉ!ćĈ!Ĉ!ćĈ!Ĉ!Ĉ!Ĉ!ćĈ!Ĉ!": 2821,
      "ďĉ%&'(ďĉ!!!!ďĉ!!)ďĉďĉ!": 2822,
      "ćĈ!Ĉ!ćĈĈ!ćĈ!ćĈ!ĈĈ!Ĉ!Ĉ!": 2823,
      "32322": 2824,
      "ďĉďĉćĈ!ĈĈ!ĈĈĈĈ!Ĉ!Ĉ!ĈĈĈĈĈĈĈĈ!ĈĈĈĈĈ%&'(ďĉ!ďĉďĉ!ďĉ!ďĉďĉďĉ!": 2825,
      "ħ)ę!": 2826,
      "ćďĉ!ććććććććĈ!Ĉ!ćĈĈćĈ!ĈĈćĈ!ćĈĈćĈ!Ĉ!ćďĉďĉ": 2827,
      "ćĈ!ćĈ!Ĉ!Ĉ!%&'(ďĉďĉ!ďĉďĉďĉďĉďĉďĉďĉďĉ!": 2828,
      "%&'(ďĉ!!ďĉ!ďĉďĉ!ďĉ!ďĉďĉďĉ!ďĉďĉďĉ!ďĉďĉ!!ďĉďĉďĉ!": 2829,
      "ćď%&'(ĉ!": 2830,
      "ĉĈĈ": 2831,
      "!!)!!!!!!!!!!!!!!!!!!!!!!!!!!!!!!!!%&'(ďĉďĉďĉ!": 2832,
      "!!!!ďĉďĉďĉććĈ!Ĉ!ćĈĈ!ćĈ!Ĉ!Ĉ!Ĉ!Ĉ!ĈĈĈćĈ!Ĉ!Ĉ!ćďĉććć": 2833,
      "Ĉ!ćĈ!Ĉ": 2834,
      "ďĉĈ!Ĉ!": 2835,
      "%&'(ďĉďĉďĉ!!ďĉ!!ďĉ!!!!!!!!": 2836,
      "ććććĈ!Ĉ!Ĉ!Ĉ!": 2837,
      "ďĉďĉďĉďĉ!!!!!!!!!": 2838,
      "ďĉďĉďĉďĉďĉ!!!!!!!!!!!!!!!!!!!!!!!!!!!!!!!!": 2839,
      "ďĉďĉďĉďĉďĉ!ďĉ!!": 2840,
      "ďĉ!!ďĉďĉ%&'(ďĉ!ďĉ": 2841,
      "ććććććććććććććĈ!ććĈ!Ĉ!Ĉ!ĈćĈ!Ĉ!ĈćĈććĈĈ!ĈĈĈďĉ!!!": 2842,
      "ďĉďĉďĉďĉďĉďĉďĉďĉďĉ!!!ďĉ%&'(ďĉďĉ!!ďĉ": 2843,
      "ććĈ!Ĉ!Ĉ!ĈĈ!Ĉ": 2844,
      "!!!!!!!!!ďĉ!!!!!!!!!!!!!!!!!!!!!!!!!!!!!!!!!!!!!!!!!!!!!!!!": 2845,
      "ďĉ!ďĉ!%&'(": 2846,
      "!!!!!!!!!!!!!%!&'(!!!!!!!!!!!!!!!!!!!!!!!!!!!!!!!!": 2847,
      "ć%&'(ďĉďĉ!ďĉďĉ": 2848,
      "ďĉ!!!!!!!!!!!!!!!!!!!!!!!!!!!!!!": 2849,
      "ďĉ!!!!!!!!!!!!!!!!!!!!!!!!!!!!!!!": 2850,
      "ćĈ!ćďĉďĉďĉďĉćććć": 2851,
      "ďĉ!!ďĉ!!!": 2852,
      "ďĉ!!!ďĉďĉďĉďĉďĉďĉďĉďĉ!": 2853,
      "ďĉďĉďĉďĉďĉďĉćĈ!Ĉ!Ĉ!ĈĈ!Ĉ": 2854,
      "!!!SĂĄĆ!!!!R!!!S": 2855,
      "ďĉďĉďĉďĉďĉďĉďĉ%&'(ďĉ": 2856,
      "001101'(3": 2857,
      "ď%ĉ&'(ďĉ": 2858,
      "%!!&'(!!!!!!!!!": 2859,
      "Ĉ!Ĉ!ĈĈ!Ĉ!Ĉ!Ĉ!ďĉďĉďĉďĉďĉ!ďĉ": 2860,
      "ēēē": 2861,
      "ćĈĈ!ćĈ!ćĈ!ĈĈ!Ĉ!Ĉ!ćĈ!Ĉ!Ĉ!ććĈ!Ĉ!Ĉ!Ĉ!Ĉ!Ĉ!ćĈ": 2862,
      "ďĉďĉďĉď%&'(ĉďĉďĉďĉďĉ": 2863,
      "ććĈ!%&'(ďĉ!ďĉ!!ćĈ!": 2864,
      "(788888888,-%&+0": 2865,
      "MMM!!!!!!!!!!!!!!!!!!": 2866,
      "ďĉďĉďĉďĉďĉ)!)ďĉďĉďĉ!ďĉďĉďĉ!!ďĉďĉďĉďĉ!ďĉ!ďĉ!ďĉ!ďĉ!": 2867,
      "ďĉććććĈ!ćĈ!Ĉ!ćĈ!Ĉ!ćĈ!ćĈ!Ĉ!": 2868,
      "ďĉ!ďĉďĉďĉďĉďĉďĉ!!ďĉ!ďĉďĉďĉďĉ!!%&'(ďĉďĉďĉ!": 2869,
      "ďĉ!ďĉ!ďĉ%&'(ďĉďĉďĉďĉćććććĈ!Ĉ!Ĉ!ćĈĈćĈďĉďĉĈ!Ĉ": 2870,
      "ďĉ!ďĉďĉďĉďĉć%&'(ďĉ!ďĉďĉďĉĈ!ĈĈćďĉďĉďĉďĉďĉďĉďĉ!ďĉ!ďĉďĉďĉ!": 2871,
      "%!!!!!!!!!!!!!!!!!!!!!!!!!!!!!!!!!!!!!!!!!!!": 2872,
      "Aē": 2873,
      "ďĐ": 2874,
      "!!!!!!!!%&'(": 2875,
      "Ĉ!ďĉ": 2876,
      "Ĉ!))": 2877,
      "'(!": 2878,
      "%&'(ďĉćĈ!Ĉ!Č": 2879,
      "%!&'Ĉ(!": 2880,
      "ďĉ%&'(!!!!!!!!!!!!!!!!!!!!!!!!!!!!!!!!!!!!!!!!!!!!!!!!!!!!": 2881,
      "ďĉďĉ%&'(ďĉďĉďĉ": 2882,
      "Ĉ!Ĉ!Ĉ!ĉ": 2883,
      "ćĈ!ć%Ĉ&'(!": 2884,
      "&'(!!!!!!!!!!!!!!!!!!!!!!!!!!!!!!!!!!!!!!!!!!!!!!!!!!!!": 2885,
      "L!LKLL!LK": 2886,
      "%!!!!!!!!!!!!&'(!!!!!!!!!!!!!!!!!!!!!!Ĉ!ďĉďĉćĈ!ďĉ!ććĈ!%&'(": 2887,
      "ćďĈ!ĉ": 2888,
      "ćććććććĈ!Ĉ!Ĉ!ććĈĈććĈ!ćĈĈďĉďĉ!!!": 2889,
      "ćĈ!ćĈ!ćĈ!ĈĈ!Ĉ!ćĈ!ćĈ!Ĉ!Ĉ!": 2890,
      "ćĈ!Ĉ!ĈĈćĈćĈĈĈĈĈĈĈĈĈĈĈĈďĉ!!ďĉďĉďĉďĉďĉďĉ!": 2891,
      "ćĈ!Čďĉďĉ!ďĉďĉďĉďĉďĉďĉďĉďĉďĉ%&'(": 2892,
      "&'(!!!!!!!!!!!!!!!!!!!!!!!!!!!!!ďĉććĈĈĈĈĈďĉďĉ)!)!!ďĉďĉ": 2893,
      "ććĈ!ćďĉďĉďĉďĉďĉďĉďĉ!!ďĉďĉ%&'(ďĉ": 2894,
      "ďĉďĉ!ďĉďĉ%&'(ćĈ!Ĉ!Ĉ!Ĉ!Ĉ!ĈďĉĈ!Ĉ!Ĉ!Ĉ!Ĉ!ĈĈĈ!ĈĈĈć%&'(ďĉďĉ!ďĉďĉ": 2895,
      "ćĈ!Ĉ!ćĈĈćďĉćĈ!ććĈ!ćĈ!Ĉďĉćććććććć": 2896,
      "ďĉ!ď%ĉ&'(": 2897,
      "ćĈ!ćĈ!ććĈ!": 2898,
      "ď%&'(ĉďĉ!!": 2899,
      "ďĉ!ďĉďĉďĉďĉ%&'(ćďĉ!": 2900,
      "Ĉ!ĈĈĈĈĈ!ćĈ!Ĉ!ĈćĈĈĈćĈĈĈĈĈĈ!ĈĈ!ĈĈĈćĈĈĈćĈ!ĈĈĈĈ!ĈĈ!Ĉ": 2901,
      "!!!!!!!!!!!!!!!%&'(ďĉ": 2902,
      "!!!!!!!!!!!!!!!ďĉ!!ďĉďĉďĉďĉďĉ!!ďĉ!ďĉ!ďĉďĉďĉ!": 2903,
      "ďĉďĉ%&'(ďĉ!!": 2904,
      "'(323": 2905,
      "ć%&'(Ĉ!Ĉ!": 2906,
      "ć%&'(ďĉďĉ!!ďĉďĉďĉďĉććććĈ!ĈĈ!ćĈ!ĈĈ!Ĉ!Ĉ!ćĈ!ćĈ": 2907,
      "ďĉ!!!!!!!!!!!!!!!!!!!!!!!!!!": 2908,
      "ď!ďďďď": 2909,
      "&'(!!!!!!!!!!!!!!!!!!!!!!!!!!!!!!!!!!!!!!!!!!!!!!!!!!!": 2910,
      "ć%&'(ďĉćĈ!Ĉ!Ĉ!Ĉ!Ĉ!Ĉ!Ĉ!Ĉ!ćĈ!ćĈ!Ĉ!ĈćĈ!Ĉ!ďĉćĈ!": 2911,
      "ćďćĉ": 2912,
      "ďĉďĉďĉďĉďĉ)!)ďĉďĉďĉ!ďĉďĉďĉ!!": 2913,
      "%&'(%&'(ďĉ!!ććććććĈććĈ!%&'(ďĉćĈ!Ĉ!Č": 2914,
      "&'(!!!!!!!Ĉ!Ĉ!Ĉďĉ!!!!!!!!!!!!!!!!!!!!!!!!!!!!!!!!": 2915,
      "ććććĈ!ĈĈďĉ!!!!!!!!!!!)!)!!!!!!!!!!!!!!!!!!!!!!!!!!!!!!!!": 2916,
      "ćĈĈćĈĈĈĈĈĈćĈĈĈĈćĈĈćĈĈćĈ!ćććĈ!ććďĉďĉ!!!!ďĉďĉ": 2917,
      "ć'ć(": 2918,
      "ććććććĈ!ćĈĈďĉďĉ!!ďĉćććĈ!Ĉ!Ĉ!ćĈ!Ĉ!Ĉ": 2919,
      "!!!!!!!%!&'(!!!!!!!!!!!ďĉ!ďĉďĉ!!!!!!!!!!!!!!!!!!!!!!!!!!!!": 2920,
      "ďĉ!!ďĉďĉ!!ďĉ!ďĉ!!ďĉďĉďĉ!ďĉććĈ!%&'(ďĉ!ďĉ!!ćĈ!": 2921,
      "ďĉ!ďĉďĉďĉďĉ%&'(ćďĉ!ďĉďĉďĉĈ!ĈĈćďĉďĉďĉďĉďĉďĉďĉ!ďĉ!ďĉďĉďĉ!": 2922,
      "-+/,'(": 2923,
      "ĖĦ": 2924,
      "ďĉĒ": 2925,
      "!!!!!!!!!!!!!!!!!": 2926,
      "Ĉ!Ĉ!ćććĈ!": 2927,
      "MM!!!!!!!!!!!!!!!!!!": 2928,
      "ďĉďĉ!)": 2929,
      "ďĉďĉďĉ%!&'(": 2930,
      "Ĉ!Ĉ!Ĉ!Ĉ!Ĉ!Ĉ!Ĉ!": 2931,
      "!!!!!!!!!!!!!ďĉ!!!!ďĉďĉďĉďĉďĉďĉďĉďĉďĉďĉ": 2932,
      "Ĉ!Ĉ!Ĉ!%Ĉ&'(!": 2933,
      "!LK!LK!LK": 2934,
      "ďĉďĉďĉďĉďĉćĈ!ĈĈ!Ĉ": 2935,
      ")!)!!)!)!!!!!!!!!!!!!!!!!!!!!!!!!!!!!!!!": 2936,
      "&'(!!!!!!!!!!!!!!!!!!!!!!!!!!!!!!!!!!!!!!!!!!!!!!!!!!!!!!!": 2937,
      "ďĉďĉďĉ!ďĉďĉ!ďĉďĉ!!!ďĉćĈ!Ĉ!ććĈ!ććĈ!ĈĈ!ććĈ!Ĉ!Ĉ": 2938,
      "%!!!!!!!!!!!&'(": 2939,
      "%!!!!!!!!!!!!!!&'(": 2940,
      "ďĉďĉďĉďĉďĉ%&'(ďĉďĉďĉ": 2941,
      "ďĉďďĉĉďĉďĉďĉďĉ": 2942,
      "ć%&'(ďĉ!ććććććććĈ!Ĉ!ćĈĈćĈ!ĈĈćĈ!ćĈĈćĈ!Ĉ!": 2943,
      "ďĉ!!ďĉ!ďĉ!ććĈ!Ĉ!Ĉ!ććĈ!Ĉ!Ĉ!ĈĈ!Ĉ!!ćĈ!Ĉ!Ĉ!Ĉ!ćĈ!ććĈ!ćďĉ!ďĉďĉ!!": 2944,
      "ćĈ!ďĉ!%&'(ďĉďĉďĉďĉďĉďĉďĉďĉďĉďĉďĉďĉďĉ": 2945,
      "ććććĈ!Ĉ!Ĉ!Ĉ!Ĉ!ĈĈ!Ĉ!ćďĉ!": 2946,
      "ććĈ!ćććĈ!ćććĈ!ćććĈ!Ĉ!Ĉ!ďĉćććĈ!ć%&'(": 2947,
      "ďĉďĉďĉ%&'(ďĉďĉďĉĈ!Ĉ!Ĉ!Ĉ!Ĉ!Ĉ!": 2948,
      "ććĈ!ćďĉďĉďĉďĉďĉďĉďĉ!!ďĉďĉďĉ%&'(": 2949,
      "ćďĉ!ďĉďĉďĉďĉďĉďĉďĉ%&'(ďĉ": 2950,
      "EF": 2951,
      "ćĉĉ": 2952,
      "ćĈ!Ĉ!ĉ": 2953,
      "!!!!!!!!!!!!%!!!!!!!!&'(!!!!!!!!!!!!!!!!!!!!!!!!!!!!!!!!": 2954,
      "ďĉďĉďĉďĉďĉďĉďĉďĉďĉ!ďĉďĉďĉ%&'(": 2955,
      "!!!!!%!&'(": 2956,
      "!!!!!!!!!!!)!!!!!!!!!!!!!!!ďĉďĉďĉ)!)ďĉďĉďĉďĉďĉďĉ!!!": 2957,
      "!!!!!!!RTVa!!!SĂĄĆďĉćććďĉ!": 2958,
      "Ĉ!ĈĈ!ĈĈ!ĈĈ!ćĈ!ćĈ!": 2959,
      "ďĉďĉďĉďĉďĉďĉćďĉ)ħ": 2960,
      "ďĉ!ďĉ!ďĉćććĈ!Ĉ!Ĉ!Ĉ!Ĉ!Ĉ!ćĈ!Ĉ!Ĉ!Ĉ!ćĈ!Ĉ!Ĉ!Ĉććďĉ!ćĈ!ćĈ": 2961,
      "ďĉďĉďĉďĉďĉ!!ďĉ!ďĉďĉďĉďĉ": 2962,
      "%&'(!ďĉ": 2963,
      "ćĈĈĈĈĈĈĈĈĈĈĈĈĈĈĈĈ!": 2964,
      "Ĉ!Ĉ!ĈĈ!Ĉ!Ĉ!Ĉ!ďĉďĉďĉďĉ": 2965,
      "Ĉ!Ĉ!Ĉ!Ĉ!ĈćĈĈĈ!ĈĈĈćĈćďĉďĉďĉ!!!": 2966,
      "!&'(ďĉ))ďħĉ": 2967,
      "ćďĉďĉ%&'(ďĉďĉ": 2968,
      "ďĉďĉďĉďĉďĉ!ďĉďĉďĉ!ćĈ!Ĉ!ćĈ!ćĈ!ćĈ!Ĉ!ććććĈ!ććĈ!ć!": 2969,
      "ďĉ!!ďĉďĉďĉďĉďĉďĉ!ďĉďĉ!!ďĉ!!ďĉ!ććĈ!ďĉ!ďĉďĉ!!": 2970,
      "ďLĉK": 2971,
      "%&'(ďĉďĉ!ďĉ!!ďĉ!ďĉďĉďĉďĉ!ďĉ!ďĉďĉďĉďĉ": 2972,
      "ďĉ!ďĉ%&'(ďĉďĉĈ!Ĉ!Ĉ!Ĉ!ććĈććďĉďĉďĉ!!ďĉ!!ďĉ!!!!!!!!": 2973,
      "32222224%&52226'(78,": 2974,
      "ćďĉďĉďĉ%&'(": 2975,
      "Ĉ!ćĈ!ććĈ!": 2976,
      "ďĉćĈ!ćĈ!": 2977,
      "ďĉď%&'(ĉ!": 2978,
      "ćĈ!%ć&'(": 2979,
      "ćććć%&'(": 2980,
      "Ĉ!Ĉ!Ĉ!Ĉ!Ĉ!ćĈ!Ĉ!": 2981,
      "ďĉďĉďĉććĈ!Ĉďĉ%&'(Ĉ!Ĉ!ĈĈĈĈĈĈĈĈĈĈĈĈĈĈĈĈĈĈĈĈĈĈĈĈďĉ!": 2982,
      ")!)!!!!!!": 2983,
      "01001011": 2984,
      "ďĉďĉďĉ!!ďĉ!!!!": 2985,
      "ćďĉ!ďĉďĉ!!!": 2986,
      "ďĉďĉ%&'(Ĉ!Ĉ!ĈĈ!Ĉ!ĈĈĈĈ!Ĉ!ĈĈ!Ĉ!Ĉ!!": 2987,
      "ćĈ!Ĉ!Ĉ!%&'(": 2988,
      "ćĈĈĈĈĈĈ!ĈĈ!ĈĈĈćĈĈĈćĈ!ĈĈĈĈ!ĈĈ!Ĉ": 2989,
      "ćććććććĈ!ćĈ!Ĉ!ĈćĈ!Ĉ!": 2990,
      "!!!!!!!!!!!!!!!!!!!!!!!!!!!!!!!!!!!!!!!!!!!!!%&'(": 2991,
      "!!!!!!!!!!!!!!!!!!!!!!!!!!!!!!!!!%!&'(": 2992,
      "ďĉďĉďĉďĉďĉ!)!)!": 2993,
      "3223322": 2994,
      "ďĉ!ďĉ!!!!!!!!!!!!!!!!ďĉ!!!!!!!!!!!!": 2995,
      "ďĉďĉďĉďĉďĉ!!ďĉ!!ďĉďĉďĉ)!)ďĉďĉďĉďĉďĉ!)!)!": 2996,
      "ďĉďĉďĉďĉďĉďĉďĉďĉ!!!ďĉďĉďĉďĉććĈ!Ĉ!Ĉ!Ĉ!Ĉ!Ĉ!ććĈ!ć": 2997,
      "3222232323232222222222222222222222222222222222222222": 2998,
      "3322222323232222222222222222222222222222222222222222": 2999,
      "Ĉ!ďĉďĉćĈ!ďĉ!%&'(ććĈ!Ĉ!Ĉ!ĈćĈ!Ĉ!Ĉ!Ĉ!Ĉ!Ĉ!Ĉ!Ĉ!Ĉ!Ĉ!": 3000,
      "ďĉďĉ!ďĉďĉ%&'(ďĉďĉ!ďĉ!!ďĉďĉďĉďĉďĉďĉ!ďĉďĉďĉďĉďĉďĉ!!": 3001,
      ")!)!!!!!!!!!ććććĈ!ĈĈďĉ!!!!!!!!!!!!!!!!!!!!!!!!!!!!": 3002,
      "'777": 3003,
      "Vb": 3004,
      "ćć%Ĉ&'(!": 3005,
      "ććććĈ!ĈĈ!ćĈ!ĈĈ!Ĉ!Ĉ!ćĈ!ćĈ": 3006,
      "ďĉďĉďĉďĉ%&ď'(ĉ": 3007,
      "Ĉ!ćĈ!Ĉ!Ĉ!ĈĈćĈĈ!Ĉďĉ!!!!!!!!!!!!!!!!!!!!!!!!!!!!!!!!": 3008,
      "ććĈćĈ!ĈĈ": 3009,
      "ćććĈ!Ĉ!ććććććĈ!ćĈĈ": 3010,
      "ćććĈ!Ĉ!ćĈ!ďĉ": 3011,
      "ďĉ!ďĉććć": 3012,
      "ćďĉććććććĈ!Ĉ!": 3013,
      "ďĉ!ďĉ!ďĉ!!ďĉććććććććććććććććććććććĈ!ććĈ!ćĈ!ććĈ!": 3014,
      "ďĉ!ďĉ!ććĈ!Ĉ!Ĉ!ććĈ!Ĉ!Ĉ!ĈĈ!Ĉ!!ćĈ!Ĉ!Ĉ!Ĉ!ćĈ!ććĈ!ćďĉ!ďĉďĉ!!": 3015,
      "ďĉďĉďĉďĉďĉďĉ!%&'(": 3016,
      "%&-+01'(;": 3017,
      "ććććĈ!ćĈćĈĈ": 3018,
      "ďĉ!ďĉďĉď%&'(ĉ": 3019,
      "%&-+/,'(#..$#$!!)!%&-+/,'(#..$#$!!)!%&-+/,'(#..$#$!!)!": 3020,
      "ćĈććĈćĈ!ćĈ": 3021,
      "%!!!!!&'(ďĉ!!!!!!!!!ćććĈ!Ĉ!Ĉ!Ĉ!Ĉ!Ĉ!ĈĈĈĈĈĈĈĈĈĈĈĈ": 3022,
      "ďĉĈ!Ĉ!Ĉ!Ĉ!ĈĈ": 3023,
      "ďĉĈ!Ĉ!Ĉ!Ĉ!Ĉ!Ĉ": 3024,
      "Ĉ!ĈĈ!Ĉ!Ĉ!Ĉ!Ĉ!ćĈ!": 3025,
      "ďĉ!!!!!!!!!!!!ďĉďĉďĉďĉďĉ!!ďĉ!!!!!!!": 3026,
      "ĈĈĈĈĈĈćĈ!ććĈćĈ!ćĈ!Ĉ!ćĈ!ććĈććĈ!!!!!!ďĉćć": 3027,
      "!!!!!!!!!ďĉ!!!!!!!!!!!)!!!!!!!!!!!!!!!ďĉďĉďĉ)!)": 3028,
      "3232222": 3029,
      "ćďĉďĉććĈ!ďĉďĉďĉďĉ!ďĉďĉ!!": 3030,
      "ććććććććĈ!Ĉ!Ĉ!Ĉ!ćĈĈĈĈ!Ĉ!ćĈ!ďĉďĉćďĉ": 3031,
      "ďĉďĉďĉďĉďĉ!ďĉďĉďĉďĉďĉ!ďĉďĉďĉ": 3032,
      "ďĉ!!!!!!!!!!!!!!!!!!!!!!!!!!!!!!!!!!!ďĉ!ďĉďĉ!%&'(": 3033,
      "KKKK": 3034,
      "%!!!!!!!!&'()!)!!!!!!!!!!!!!!!!!!!!!!!!!!!!!!!!": 3035,
      "ďĉďĉďĉďĉďĉďĉďĉ!!ďĉďĉďĉ": 3036,
      "Ĉ!ćĈ!ćĈ!Ĉ!Ĉ!ďĉďĉ!!!!!!!RTVa!!!SĂĄĆ": 3037,
      "ďĉ!ďĉďĉďĉďĉćďĉ!ďĉďĉďĉĈ!ĈĈ": 3038,
      "(788888888,-%&+0101010101010101'(3": 3039,
      "ďĉ!ďĉ!!!SĂĄĆ!!ďĉ!!!!!!RTVa!!!SĂĄĆ!!!!R!!!SćććććććĈ!Ĉ!": 3040,
      "ććććććććĈ!ćććĈ!Ĉ!ćĈ!%&'(ďĉćĈ!Ĉ!ĈćĈ!ďĉćććććććĈ!ćĈ!": 3041,
      "ďĉ!ďĉ!ďĉďĉďĉďĉ!ďĉďĉĥďĉĈ!ĈĈ!ďĉćĈ!Č": 3042,
      "ćććĈ!Ĉ!Ĉ!Ĉ!Ĉ!%&'(Ĉ!Ĉ!Ĉ!Ĉ!Ĉ!": 3043,
      "ććĈ!Ĉ!Ĉ!ĈĈ!ĈćĈ!ćć": 3044,
      "32222224%&52226'(78,<": 3045,
      "%&-+01'(;32222224%&52226'(78,<": 3046,
      "%K": 3047,
      "32222222222222222222222222222222222222222": 3048,
      "C!!!": 3049,
      "Ĉĉ!": 3050,
      "ę!!": 3051,
      "!!ďĉ!!!!!!!!!!!!!!!!!!!!!!!!!!!!!!!!!!!!!!!!!!!!!!!!": 3052,
      "ĈĈ!!": 3053,
      "%&'(Ĉ!Ĉ!Ĉ!Ĉ!": 3054,
      "ćĈćĈćĈ!ćĈ!ććĈ!": 3055,
      "ďĉďĉďĉ%&'(ďĉ": 3056,
      "ďĉďĉďĉ%&ď'(ĉ": 3057,
      "ďĉďĉďĉ%&'ď(ĉ": 3058,
      "Ĉ!ćĈ!Ĉ!%&'(": 3059,
      "!!!!!!!%!!!!!!!!!!!!&'(": 3060,
      "%ď&'(ĉďĉďĉďĉ!": 3061,
      "%Ĉ&'(!ĈĈĈ": 3062,
      "ĈĈĈĈĈĈĈĈĈĈ!ĈĈĈĈ!ĈĈĈĈĈ": 3063,
      "ďĉďĉćććććĈ!Ĉ!Ĉ!ćĈĈćĈ": 3064,
      "ĈćĈĈćĈćć": 3065,
      "ćďććĉ": 3066,
      "Ĉ!Ĉ!Ĉ!Ĉ!ĈćĈĈĈ!ĈĈĈćĈćĈĈĈĈĈĈĈćĈĈĈĈĈĈ": 3067,
      "Ĉ!Ĉ!Ĉ!ĈĈĈĈ!Ĉ!ĈĈ!Ĉ!Ĉ!ĈĈĈĈćďĉďĉćććććććĈ!Ĉ!Ĉ!ćĈ!Ĉ!Ĉ!ćďĉ!": 3068,
      "ććĈ!ćććĈ!ćććĈ!ćććĈ!Ĉ!Ĉ!%&'(ďĉćć": 3069,
      "ďĉ!ďĉ!!!!!!!!!!!!!!!!ďĉ!!!!!!!!!": 3070,
      "ćĈ!Ĉ!Ĉ!Ĉ!Ĉ!Ĉ!Ĉ!Ĉ!ćĈ!ćĈ!Ĉ!ĈćĈ!Ĉ!%&'(ďĉ": 3071,
      "ďĉ!ďĉććććĈ!ćĈ!ĈĈ!ććĈ!ćĈ!ĈĈ!ćĈ!Ĉ!ćĈ!%&'(ďĉ!": 3072,
      "ďĉ!!!!!!!!!!!!!!!!!!!!!!!!ďĉ!!ďĉďĉďĉďĉďĉ!!ďĉ!ďĉ!ďĉďĉďĉ!": 3073,
      "ďĉ!!ďĉ!ďĉďĉďĉ!ďĉ!!!!!ďĉ!ďĉďĉďĉďĉďĉďĉďĉ": 3074,
      "ćććććććĈ!ćČČďĉďĉďĉ!!!!!": 3075,
      "ćďĉďĉ!ďĉďĉ!ďĉ)))": 3076,
      "AAAAAA": 3077,
      "ććĈ!Ĉ!Ĉ!Ĉ!Ĉ!Ĉ!ććĈ!ćďĉ!ďĉććććĈ!ćĈ!ĈĈ!ććĈ!ćĈ!ĈĈ!ćĈ!Ĉ!ćĈ!ďĉ!)": 3078,
      "%Ĉ!&'(": 3079,
      "!!!!R%&'(TVa!!!SĂĄĆ!!!!R!!!S": 3080,
      "ďĉďĉ%&'(ďĉďĉćĈ!ĈĈ!Ĉ!ďĉ!ďĉ!ďĉďĉďĉ!!ďĉ!ďĉ!": 3081,
      "!!!!!!!!!!!!!!!!!!!!!!!!ďĉ!!ďĉďĉďĉďĉďĉ!!ďĉ!ďĉ!ďĉďĉďĉ!": 3082,
      "%&'(ďĉ!ćĈ!ćĈďĉďĉďĉďĉ!ďĉďĉďĉďĉ!ďĉ!!Ĉ!ĈćĈ!Ĉ!Ĉ!ĈćĈ!ćć": 3083,
      "ćĈćĈćĈ!ćĈ!ććĈ!ćĈććĈćĈ!ćĈ": 3084,
      "!!!!!!!%!!!!!!!!!!!!&'(ććĈ!ćĈ!ćĈ!ćďĉ": 3085,
      "LM": 3086,
      "ďĈ!Ĉ!Ĉ": 3087,
      "ďĈ!ĈĈ": 3088,
      "Ĉ!Ĉ!ćĈ": 3089,
      "Ĉ!Ĉ!%Ĉ&'(!": 3090,
      "%&'(\"": 3091,
      "%&'(Ĉ!Ĉ!ĈĈĈĈĈĈćĈ!ĈĈĈ%&'(ďĉ%&'(%&'(%&'(ďĉďĉďĉďĉ!ďĉďĉ%!!!&'(": 3092,
      "ďĉ!ćĈ!Ĉ!ćĈ!ćĈ!ćĈ!Ĉ!ććććĈ!ććĈ!ć!ďĉ": 3093,
      "ďĉ!!ďĉďĉ!": 3094,
      "ďĉďĉďĉM": 3095,
      "ďĉďĉďĉ!ćĈ!Ĉ!ćĈ!ćĈ!ćĈ!Ĉ!ććććĈ!ććĈ!ć!ďĉććĈ!Ĉ!ĈĈĈ!Ĉ!Ĉ!ĈĈćĈ": 3096,
      "%&'(ďĉ!!!!!!!!!!!!!!!!!!!!!!!!!!!!!!!!!!!!!!!!!!!!!!!!": 3097,
      "ććĈ!Ĉ!Ĉ!ĈćĈ!": 3098,
      "ďĉ%&'(ďĉďĉďĉďĉďĉďĉďĉ": 3099,
      "LLLLLL!LK": 3100,
      "!!!!!!!!!!!!!!!ďĉ!!!!ďĉďĉďĉďĉďĉďĉďĉďĉďĉďĉ": 3101,
      "-%&+01": 3102,
      "ďĉďĉďĉ%&'(ććĈ!Ĉ!ćĈĈ!ćĈ!Ĉ!Ĉ!Ĉ!Ĉ!ĈĈĈćĈ!Ĉ!Ĉ!ćďĉććć": 3103,
      "'(788888888,": 3104,
      "ďďĉĉ!!": 3105,
      "010101'(333": 3106,
      "ďĉ!!ďĉ!ďĉďĉ!!ďĉďĉďĉďĉďĉďĉďĉďĉ!": 3107,
      "%!!!!!!!!&'(ďĉ!!!!!!!!!ćććĈ!Ĉ!Ĉ!Ĉ!Ĉ!Ĉ!ĈĈĈĈĈĈĈĈĈĈĈĈ": 3108,
      "%&'(ďĉďĉ!ďĉďĉ": 3109,
      "777'(788888888,": 3110,
      "ćĈĈćĈĈćĈ!ćććĈ!ććďĉďĉ!!!!": 3111,
      "Ĉ!ďĈ!ĉ": 3112,
      "&'Ĉ(": 3113,
      "ćććććććććććĈ!ćĈ!!ććĈ!ććĈ!ćĈ!Ĉ!Ĉ!Ĉ!Ĉ!Ĉ!Ĉ": 3114,
      "ďĉćĈ!ďĉďĉďĉďĉďĉďĉďĉďĉďĉ%&'(ďĉďĉďĉ": 3115,
      "ćďĉ#$ćĈ!ććďĉ%&'(ďĉ!!!!ďĉ!!)ďĉďĉ!": 3116,
      "LLLLLLLLLLLLLLLLLLLLLLLLLLLLLLLLLLLLLLLLLLLLLLLL": 3117,
      "ćĈćĈćĈćććĈćĈćććĈćĈćĈ!ĈćĈćĈćĈćććĈĈĈĈĈ": 3118,
      "%!&'(!!!!!!!!!!!!!!!!!": 3119,
      "ďĉ!ďĉďĉ%&'(ďĉďĉďĉďĉďĉ!!!!!!!!!!!!!!!!!!!!!!!!!!!!!!!!": 3120,
      "ćććććĈ!ćĈ!Ĉ!ćĈĈ!Ĉ!Ĉ!Ĉ!ćĈćĈĈćĈ!Ĉ!Ĉ!ćĈ!Ĉ!Ĉ!Ĉ!ćĈ!Ĉ!ďĉ": 3121,
      "%&'(ďĉ!!!ďĉďĉďĉ!!ďĉćććĈ!Ĉ!Ĉ!Ĉ!": 3122,
      "Ĉ!ďĉ!ďĉďĉďĉďĉďĉćĈ!ĈĈ!Ĉ": 3123,
      "ďĉ!ďĉďĉďĉďĉďĉďĉďĉďĉďĉďĉ!!ććć%&'(ďĉ": 3124,
      "Ĉ!Ĉ!Ĉ!Ĉ!ĈĈ!ćĈ!Ĉ": 3125,
      "!ĥĤ": 3126,
      "Bďĉ": 3127,
      "Ĉ!ĥ": 3128,
      "ďĉďĉ!!!!RTVa!!!SĂĄĆ!!!!R!!!S": 3129,
      "ććććććć": 3130,
      "ćĈććĈ!": 3131,
      "!!!Ħ": 3132,
      "Ĉ!Ĉĉ": 3133,
      "!!!!!!!!!!!!ďĉ!!!!!!!!!!!!!!!!!!!!!!!!!!!!!!!!": 3134,
      "!!!!!!!!!!!!ďĉďĉďĉďĉďĉ!!ďĉ!!!!!!!ďĉ!!ďĉďĉ!!!": 3135,
      "ćĈ!ćĈ!ććććĈćĈ": 3136,
      "%&Ĉ'(": 3137,
      "ďĉďĉďĉďĉďĉďĉďĉďĉďĉďĉ!!": 3138,
      "ď%&'(ĉ!!!!!!!!!!!!!!!!!!!!!!!!!!!!!!!!": 3139,
      "-%&+": 3140,
      "ďĉďĉďĉďĉ!ďĉďĉ!": 3141,
      "ďĉďĉ%&'(ďĉďĉ!": 3142,
      "Ĉ!Ĉ!Ĉ!Ĉďĉ!!!!!!!!!!!": 3143,
      "-%&+/,'(#$": 3144,
      "ććĈ!Ĉ!ĈćĈ!ĈććĈĈĈćĈĈĈćĈ!ĈććĈĈĈćĈĈććĈĈĈćĈ!ĈćĈ!ććĈĈ!Ĉ!ĈĈćĈ!Ĉ!": 3145,
      "ďĉďĉďĉďĉďĉćććććććĈ!Ĉ!ććććććĈ!ćĈĈ": 3146,
      "ć!Ĉ!": 3147,
      "%!!!!&'(!!!!!!!!!!!!!!!!": 3148,
      "&'(ďĉćććĈ!Ĉ!Ĉ!Ĉďĉ!ďĉďĉďĉďĉ!!!!!!!!!!!!!!!!!!!!!Ĉ!Ĉ!Ĉ": 3149,
      "ćććććććććććććććććććććććććććććććĈ!ćĈ!Ĉ!ĈćĈ!Ĉ!": 3150,
      "ďĉď%&'(ĉ!!": 3151,
      "ĈĈĈ!ĈĈĈććĈ!ĈĈ!ĈĈĈĈ!ĈĈ!ĈĈĈĈďĉďĉďĉ!!!!!!!!!!": 3152,
      "ćććĈĈ!ćĈ!Ĉ!ĈćĈĈĈćĈĈĈćĈĈćććććďĉďĉďĉĈ!ĈĈĈĈĈ!ćĈ!Ĉ!Ĉ": 3153,
      "ďĉ!!!!ďĉďĉďĉďĉďĉďĉďĉďĉďĉďĉćććĈ!Ĉ!": 3154,
      "244444444%&55555555222222222222222222222222666666667777'777": 3155,
      "Ĉ!ćĈĈĈ!ĈĈĈ": 3156,
      "ć'Ĉ(!": 3157,
      "&'(ďĉ!!!!!!!!!!!!!!!!!!!!!!!!!!!!!!!!!!!!!!!!!!!!": 3158,
      "ďĉćććďĉ!ďĉďĉ!ďĉďĉćććććďĉ!ďĉďĉďĉ!ďĉ": 3159,
      "ćććććććĈĈććććććĈ!ćĈĈďĉďĉ!!ďĉ": 3160,
      "322333222323232222222222222222222222222222222222222222": 3161,
      "ďĈĈĈĈĉ": 3162,
      "ćĈ!Ĉ!Ĉ!Ĉ!Ĉ!Ĉ%&'(ďĉĈ!Ĉ!Ĉ!Ĉ!Ĉ!ĈĈĈ!ĈĈĈć": 3163,
      "ďĉďĉďĉďĉćĈ!ĈĈ!Ĉ!ďĉ!ďĉ!ďĉďĉďĉ!!ďĉ!ďĉ%&'(!ďĉďĉďĉćďĉ!ďĉďĉďĉďĉ": 3164,
      "ććććĈ!ćĈćĈĈćććć": 3165,
      "%!!!!!!!!!!!!!!!!!!!!!!!!!!!!!!!!!!!!!!!!!!!!!!!!!": 3166,
      "ďĈĈ!ĉ": 3167,
      "ē!!": 3168,
      "Ğ%&'(%&'(%&'(%&'(%&'(%&'(%&'(%&'(": 3169,
      "Ĉ!%Ĉ&'(": 3170,
      "ďĉĈ!Ĉ!Ĉ!Ĉ!ĈćĈĈĈ!ĈĈĈ": 3171,
      "ĈĈĈ!Ĉ!Ĉ!Ĉ!ĈĈ!ćĈ!Ĉ": 3172,
      "%&'(ćĈ!ćć": 3173,
      "ćĈ!%Ĉ&'(": 3174,
      "ćĈćĈ!Ĉ!": 3175,
      "Ĉ!ĈććĈ!Ĉ!Ĉ!ĈĈ!ĈćĈ!ćć": 3176,
      "ďĉ!ďĉ%&'(ďĉďĉďĉďĉ": 3177,
      "ďĉďĉďĉďĉďĉďĉďĉďĉďĉďĉďĉďĉ!": 3178,
      "ďĉ!ďĉďĉďĉďĉďĉ!": 3179,
      "!!!!!!!!!!!!!!ďĉ!!!!!!!!!!!!!!!!!!!!!!!!!!!!!!!!": 3180,
      "Ĉ!Ĉ!Ĉ!ĈĈ!Ĉ!": 3181,
      "ćĈĈĈĈĈćĈĈĈĈĈĈ": 3182,
      "ĈĈĈĈĈĈĈĈĈĈĈĈĈĈĈ": 3183,
      "ććĈ!ćďĉ!ďĉććććĈ!ćĈ!ĈĈ!ććĈ!ćĈ!ĈĈ!ćĈ!Ĉ!ćĈ!ďĉ!": 3184,
      "%&'ď(ĉ!!": 3185,
      "ďĉďĉ!!!!ďĉ!!)ďĉďĉ!": 3186,
      ")ďĉďĉ!ďĉ!ďĉ!ďĉďĉďĉ": 3187,
      "%ć&Ĉ'(": 3188,
      "ĖĖĖ": 3189,
      "ďĉď%&'(ĉďĉďĉ": 3190,
      "RTVaďĉććĈ!ćććĈćććĈĈ!Ĉ!ćĈ!ććĈćĈ!ćĈ!!Č!!Č!": 3191,
      "ć%&'(ďĉ!ććććĈ!ćĈ!Ĉ!Ĉ!ćĈ!Ĉ!Ĉ!Ĉ!ćĈ!Ĉ!Ĉ!Ĉ!ćĈ!Ĉ!ćĈ!ĈćĈ!Ĉ!": 3192,
      ")!)!!!!!!!!!!!!!!!!!!!!!!!!!!!!!!!!!!!!!!)!)!!!!!!!!!!!": 3193,
      "ďĉ%&'(ďĉćďĉććććććććććććććććĈ!Ĉ!ćĈ!Ĉ!ĈĈ!": 3194,
      ")ććććććććććććĈ!ććĈ!ćĈ!ćĈ!Ĉ!Ĉ!ćĈ!Ĉ!ćĈ!": 3195,
      "Ĉ!ćĈ!ćĈ!Ĉ!Ĉ!ďĉďĉ": 3196,
      ")!)ďĉďĉďĉďĉďĉďĉ!!!ďĉ!!ďĉ!ďĉ!ććĈ!Ĉ!Ĉ!ććĈ!Ĉ!": 3197,
      "ďĉďĉďĉďĉ!ďĉďĉďĉďĉ!ďĉ!!Ĉ!ĈćĈ!Ĉ!Ĉ!ĈćĈ!ććďĉ!Ĉ!ĈćĈ!Ĉ!Ĉ!ĈćĈ!ćć": 3198,
      "ďĉďĉććććććĈ!ćććĈ!ćććĈ!ćĈ!ć%&'(ďĉďĉďĉďĉ!": 3199,
      "ćććććĈ!ćĈ!ććććĈ!ććĈ!ćććĈ!ćććĈćďĉďĉććĈ!ďĉďĉďĉďĉ!": 3200,
      "%ććĈ&'(!": 3201,
      ")!)!!!!!!!!!!ďĉ!!!!!!ćććĈ!Ĉ!Ĉ!Ĉďĉ!!!!!ďĉ!)!)!!!!!!!!!!!!!!": 3202,
      "ĈćĈĈćĈćć%&'(%&'(": 3203,
      "'77": 3204,
      "7'77": 3205,
      "Bĉ": 3206,
      "ć%ćć&'(": 3207,
      "Ĉć": 3208,
      "ďĉĈ!": 3209,
      "ďĉďĉď%&'(ĉ!": 3210,
      "%&'(ď%&'(ĉďĉďĉ": 3211,
      "ĈĈĈĈĈćĈĈćĈćć%&'(%&'(": 3212,
      "ďĉďĉďĉďĉďĉ!!!!!!!!!!!!!!!!!!!!!!!!!!!!!!!!!!!!!!!": 3213,
      "ććĈććĈ": 3214,
      "MMMMMMM": 3215,
      "Ĉ!ĈĈ!!": 3216,
      "!!!!!!!!!ď": 3217,
      "ďĉ!ďĉ!ďĉďĉ": 3218,
      "!!!!!!!!!!!!!ďĉ!ďĉ!!!!!!": 3219,
      "ćďĉ!ććĈ!ćĈ!Ĉ!ĈĈĈ!ĈĈĈććĈ!ĈĈ!ĈĈĈĈ!ĈĈ!ĈĈĈĈďĉďĉďĉ!!!!!!!!!!": 3220,
      "ďĉćććććććĈĈććććććĈ!ćĈĈ": 3221,
      "%!&'(!!!!!!!!!!!!!!!!!!!!!!!!!!!!!!!!!!!!!": 3222,
      "ďĉ!!!!!!!!ďĉ!ďĉ!!!!!!!!ććĈ!Ĉ!ĈćĈĈĈććĈĈĈććĈ!Ĉ!Ĉ!Ĉ!Ĉ!Ĉ!ćĈ": 3223,
      "&'(!!!!!!!!!!!!!!!!!!!!!!!!!!!!!!!!!!!!!!!!!!!!!!!!!": 3224,
      "ćĈ!Ĉ!ĈćĈ!Ĉ!ććĈ!Ĉ!Ĉ!Ĉ!Ĉ!ĈĈ!ćĈ!ćĈ!ćĈćĈ!ćĈ!ćĈćĈ!ćĈćĈ!ććĈćĈ!ćĈ": 3225,
      "ĈĈĈĈĈĈĈĈĈĈĈĈĈĈ!Ĉ!Ĉ!Ĉ!Ĉ!ĈĈĈ!ĈĈďĉ!ďĉďĉďĉćĈ!Ĉ!Ĉ!Ĉ!ĈĈ!Ĉ!Ĉ!Ĉ!": 3226,
      "ćĈ!Ĉ!ćĈĈ!ćĈ!ćĈ!ĈĈ!Ĉ!Ĉ!ćĈ!Ĉ!Ĉ!": 3227,
      "ďĈćĉ": 3228,
      "ďĉďĉćĈ!ĈĈ!ĈĈĈĈ!Ĉ!Ĉ!ĈĈĈĈĈĈĈĈ!ĈĈĈĈĈďĉ!ďĉďĉ!": 3229,
      "ďĉďĉďĉ!ććĈ!ćďĉďĉ%&'(": 3230,
      "%&'(ďĉ!ćććĈ!Ĉ!ćĈ!Ĉ!ĈĈ!Ĉ!ĈćĈĈĈĈĈ!Ĉ!Ĉ!Ĉ!Ĉ!Ĉ!ĈĈĈ!Ĉ!ĈĈĈĈďĉ!!": 3231,
      "ďĉďĉďĉďĉďĉďĉďĉďĉ!!ďĉďĉďĉďĉ!!!!ďĉ!!": 3232,
      "Ĉ!Ĉ!ĈĈĈĈ!Ĉ!Ĉ!ĈĈĈĈĈĈĈĈĈĈ!ĈĈĈ!ĈĈ!ĈĈĈĈ!ĈĈ!Ĉ%&'(ďĉĈ!ĈĈĈĈĈĈĈ": 3233,
      "ććĈ!Ĉ!Ĉ!Ĉ!ćĈ!Ĉ!!Ĉ!ćĈ!ćĈ!ććĈ!Ĉ!ćĈ!ďĉ!ćććććććććććć": 3234,
      "ČČČČČČČČ": 3235,
      "ďĉďĉďĉ%&'(ďĉďĉ!!ďĉ!ďĉďĉďĉďĉďĉďĉďĉďĉďĉďĉďĉďĉďĉďĉďĉ": 3236,
      "322323232323232222222222222222222222222222222222222222": 3237,
      "ćĈ!Ĉ!Ĉ!Ĉ!Ĉďĉ!))ħ!": 3238,
      "ďĉ!!ďĉ!!!ďĉ!!ďĉďĉ": 3239,
      "ćĈ!ćĈ!ććććĈćĈćććĈ!ćć": 3240,
      "%!!!!!!!!!!!!!!!!!!!!!!!!!!!!!!!!!!!!!!!!!!!!!": 3241,
      "AM": 3242,
      "%&'(Ĉ!Ĉ!Ĉ!Ĉ!Ĉ!Ĉ!Ĉ!Ĉ!": 3243,
      "ćĈ!Ĉ!ć": 3244,
      "ćĈ!Ĉ!Ĉ!ĈĈ!": 3245,
      "ďĉďĉďĉćććĈ!Ĉ!Ĉ!ćĈĈĈĈ!ćĈ!ĈĈ!ćĈ!ć": 3246,
      "Ĉ!ćĈ!Ĉ!ĈĈĈĈĈ": 3247,
      ")!)!!!!!!!": 3248,
      "ďĉďĉďĉ!!ďĉďĉ!": 3249,
      "ďĉďĉďĉ%&'(!": 3250,
      "ďĉďĉďĉ%&'(ďĉďĉ": 3251,
      "%!&'(!!!!!!!!!!!": 3252,
      "ćĈ!ćĉ": 3253,
      "ćĈ!Ĉ!Ĉ!ćĈ!Ĉ!Ĉ!Ĉ!ćĈ!Ĉ!": 3254,
      "ďĉ!ďĉďĉďĉ!ďĉ!!!!!ďĉ!ďĉďĉďĉďĉďĉďĉďĉ": 3255,
      "!!!!!!!!!!!!!!!!!!!!!!!!!!!!!!!!!!!!!ďĉ!!!!!!!!!!!": 3256,
      "ď%ĉ&'(ďĉďĉ": 3257,
      "$#$!!)!%&-+/,'(#..$#$!!)!%&-+/,'(#..$#$!!)!": 3258,
      "%ć&'(ćććć": 3259,
      "ďĉ!ďĉ!!!!!!!!!!!ďĉ!!": 3260,
      "%!!!!!!!!!!&'(": 3261,
      "ďĉďĉďĉďĉďĉ%&'(ďĉďĉďĉďĉ!": 3262,
      "Ĉ!ĈĈĈ!ĈĈďĉ!ďĉďĉďĉćĈ!Ĉ!Ĉ!Ĉ!ĈĈ!Ĉ!Ĉ!Ĉ!": 3263,
      "ćĈćĈćĈćĈćĈćĈćĈćĈćĈćĈćĈćĈćć": 3264,
      "ćććććďĉ!ďĉďĉďĉ!ďĉćďĉ!!!!ćďĉ!": 3265,
      "%ć&'Ĉ(": 3266,
      "(788888888,-%&+000111": 3267,
      "ćĈ!)!)!!Ĉ!Ĉ!ĈĈ!!!!!RTVa!!!SĂĄĆ!!!!R!!!SĈ!ćĈ!ćĈ!Ĉ!Ĉ!": 3268,
      "ďĉďĉďĉďĉ!ďĉďĉ!!!!!!!!!!!!!!!!!!!!!!!!!!!ďĉ!ďĉ!!!!!!ďĉďĉ!!!!": 3269,
      "ććććĈ!Ĉ!Ĉ!Ĉ!Ĉ!ĈĈ!Ĉ!ćďĉ!!ďĉďĉćĈ!ć": 3270,
      "ć%&'(ďĉĈ!ćĈ!Ĉ!Ĉ!ćĈ!Ĉ!Ĉ!ĈĈ!ćĈ!ďĉ!ďĉďĉďĉďĉ": 3271,
      "332223232323232222222222222222222222222222222222222222": 3272,
      "ďēĉ": 3273,
      "ĈĈĈĈĈĈĈĈĈĈĈĈĈĈĈĈĈ!ćĈĈĈĈĈĈĈĈĈĈĈĈĈĈćĈ!ĈćĈĈćĈĈĈĈĈĈĈ": 3274,
      "ćĈ!ćďĉďĉďĉďĉćććććĈ!ćČ": 3275,
      "ďĉďĉďĉďĉďĉďĉďĉ%&'(ďĉ!!!!!!!!!!!!!!!!!!!!!!!!!!!!!!!!!!!!!!!": 3276,
      "ďĉďĉďĉďĉďĉďĉďĉďĉďĉ!ďĉďĉďĉ%&'(ďĉďĉďĉ!": 3277,
      "ććććĈ!ćĈćĈĈććććĈĈĈĈĈćĈĈćĈćć%&'(%&'(": 3278,
      "%&'(ď%&'(ĉďĉďĉćććĈ!Ĉ!Ĉ!Ĉ!Ĉ!Ĉ!Ĉ!Ĉ!Ĉ!Ĉ!ćĈ!ćĈ!Ĉ!ćĈ!Ĉ!Ĉ!ćĈ!Ĉ!": 3279,
      "!ďĉćććć": 3280,
      "Bē": 3281,
      "MďMĉ": 3282,
      "Ĉ!ćĈĈćĈ": 3283,
      "ďĉĈ!Ĉ!Ĉ!Ĉ": 3284,
      "ćĈĈĉ": 3285,
      "!!!!!!!!!!!!%!&'(!!!!!!!!!!!!!!!!!!!!!!!!!!!!!!!!": 3286,
      "ďĉďĉ!ďĉďĉďĉďĉ": 3287,
      "Ĉ!ćĈ!Ĉ!Ĉ!Ĉ!Ĉ!ćĈ!Ĉ!ćĈ!ćĈ!ćĈ!ćĈ!": 3288,
      "ććĈćĈ!Ĉ!Ĉ!": 3289,
      "!!!!!!!ďĉďĉ": 3290,
      "ďĉďĉďĉ!!ďĉďĉďĉďĉďĉďĉ!ďĉďĉ!ďĉďĉ!!!ďĉćĈ!Ĉ!ććĈ!ććĈ!ĈĈ!ććĈ!Ĉ!Ĉ": 3291,
      "ćďĉ%ď&'(ĉ": 3292,
      "ĉĉ!": 3293,
      "Ĉ!ĈĈ!ĉ": 3294,
      "%!&'(ďĉ": 3295,
      "ďĉ!!ďĉćććĈ!Ĉ!Ĉ!ćĈ!Ĉ!Ĉćďĉďĉďĉďĉ": 3296,
      "ďďĉĉďĉ": 3297,
      "%&'(ďĉďĉććććććććććććććĈ!ććĈ!Ĉ!Ĉ!ĈćĈ!Ĉ!ĈćĈććĈĈ!ĈĈĈďĉ!!!": 3298,
      "ĉĉĉĉĉĉ": 3299,
      "%&ď'(ĉďĉ": 3300,
      "ď%&'(ĉ!ďĉ!!!ďĉ!!!ćććĈćĈ!ćĈ!ĈĈ!Ĉ!": 3301,
      "ďĉ!!ďĉďĉďĉďĉďĉďĉ!ďĉďĉ!ďĉďĉ!!!ďĉćĈ!Ĉ!ććĈ!ććĈ!ĈĈ!ććĈ!Ĉ!Ĉ": 3302,
      "ďďďď!": 3303,
      "ďĉďĉ!ďĉďĉ%&'(ćĈ!Ĉ!Ĉ!Ĉ!Ĉ!Ĉ!ĈĈĈ!ĈĈĈĈ!ĈĈ!Ĉ!Ĉ!Ĉ!ĈĈĈ!Ĉ!ĈĈ!Ĉ": 3304,
      "Ĉ!ďĉďĉ!ďĉ%&'(": 3305,
      "ďĉććĈ!ďĉďĉďĉďĉ!ďĉďĉ!!ďĉďĉďĉďĉďĉďĉďĉ!ďĉ!ďĉć%&'(ććććććĈ!ć": 3306,
      "ćďĉ%&'(ďĉďĉďĉććĈ!Ĉďĉ%&'(Ĉ!Ĉ!ĈĈĈĈĈĈĈĈĈĈĈĈĈĈĈĈĈĈĈĈĈĈĈĈďĉ!": 3307,
      "ďĉďĉďĉďĉďĉ!ďĉććĈ!Ĉ!Ĉ!Ĉ!Ĉ!Ĉ!Ĉ!ĈĈćĈ": 3308,
      "ĈĈĈĈĈĈĈĈĈĈĈĈĈĈĈĈĈĈĈĈĈĈĈĈ!ĈĈĈĈĈĈĈĈĈĈĈĈĈĈĈĈĈĈĈĈĈĈĈďĉ!ďĉďĉďĉďĉ": 3309,
      "ĈĈĈĈĈĈĈĈĈĈĈĈĈĈĈĈĈĈĈĈĈĈĈĈ!ĈĈĈĈĈĈĈĈĈĈĈĈĈĈĈĈĈĈĈĈĈĈĈďĉ!%&'(": 3310,
      "ď!!ď": 3311,
      "ďĉ!!!!!!!!!!!!!!!%&'(ďĉ!!!!!!!!!!!!!!!!!!!!!!!!!!!!!!!!": 3312,
      "Ĉ!ĈĈćďĉďĉďĉďĉďĉďĉďĉ!ďĉ!ďĉďĉďĉ!ďĉ!ďĉďĉďĉ": 3313,
      "ďĉďĉďĉ!ďĉďĉ!ďĉďĉ!!ďĉ!!ďĉďĉćććĈ!Ĉ!Ĉ!Ĉ!Ĉ!ĈćĈĈ!Ĉ!ĈĈĈ": 3314,
      "ďĉďĉďĉ%ď&'(ĉďĉďĉďĉďĉ": 3315,
      "244444444%&555555552222222222222222222222226666666677777'77": 3316,
      "ďĉďĉďĉďĉ%&'(ďĉďĉďĉďĉ!": 3317,
      "ďĉďĉ!ďĉďĉćććććďĉ!ďĉďĉďĉ!ďĉćďĉ!!!!ćďĉ!": 3318,
      "ďĉďĉ!!ďĉ!!ďĉ!ććĈ!ďĉ!ďĉďĉ!!ďĉďĉ)ďĉďĉ!ďĉďĉ!!ďĉ!!!!": 3319,
      "!&'(ďĉ))ħďĉďďĉĉďĉďĉďĉďĉ": 3320,
      "ďĉ!!ďĉ!ďĉďĉ!ďĉďĉ!ď%&'(ĉ!ďĉ!!!ďĉ!!!ćććĈćĈ!ćĈ!ĈĈ!Ĉ!": 3321,
      "ćďĉ!ďĉďĉďĉďĉ!!ďĉ%&'(ďĉďĉďĉďĉďĉďĉ!ďĉďĉďĉďĉ!!": 3322,
      "ćĈ!ďĉććĈ!Ĉ!Ĉ!Ĉ!ćĈ!Ĉ!!Ĉ!ćĈ!ćĈ!ććĈ!Ĉ!ćĈ!%&'(ďĉ!": 3323,
      "ďĉ!ďĉ!%&'(ďĉďĉďĉćďĉ!ďĉďĉďĉďĉ": 3324,
      "322332232323232222222222222222222222222222222222222222": 3325,
      "%Ē": 3326,
      "ćĉ!": 3327,
      "ďĉ%&'(%&'(%&'(": 3328,
      "%&'(!!!!!!!!": 3329,
      "ďĉ!ćććĈ!Ĉ!ćĈ!Ĉ!ĈĈ!Ĉ!ĈćĈĈĈĈĈ!Ĉ!Ĉ!Ĉ!Ĉ!Ĉ!ĈĈĈ!Ĉ!ĈĈĈĈ": 3330,
      "Ĉ!Ĉ%Ĉ&'(": 3331,
      "!!!!!!!!!!!!ďĉďĉććććććĈ!ćććĈ!ćććĈ!ćĈ!": 3332,
      "ďĉďĉďĉĈ!Ĉ!Ĉ!Ĉ!!Ĉ!Ĉ!Ĉ!Ĉ!!Ĉ!Ĉ!Ĉ": 3333,
      "ďĉ!ďĉď%ĉ&'(": 3334,
      "ďĉ!ďĉććĈ!Ĉ!Ĉ!Ĉ!Ĉ!Ĉ!Ĉ!ĈĈćĈ": 3335,
      "ď%&'(ĉ!!!": 3336,
      "ď%&'(ĉďĉďĉďĉďĉďĉďĉďĉ": 3337,
      "!!!!!!!!!!!!!!ďĉďĉ!ďĉ!)ďĉďĉďĉć": 3338,
      "%ď&'(ĉďĉďĉďĉďĉ!!": 3339,
      "Ĉ!ĈĈ!ććĈĈ": 3340,
      ")))))": 3341,
      "ĈĈĈĈĈĈĈĈĈĈĈĈĈĈ!": 3342,
      "ďĉďĉďĉďĉďĉ%&'(ďĉ": 3343,
      "ďĉďĉďĉďĉďĉďĉďĉ!ďĉ%&'(": 3344,
      "ćďĉďĉćĈ!ćĈ!Ĉ!Ĉ!ćĈ!Ĉ!Ĉ!ćĈ!Ĉ!": 3345,
      "!!!!!!!!!!!!!!!!!!!!!!!!!!!!!!!!!!!!!!%!!!!!!!!!!": 3346,
      "ďĉ!!!!ďĉ!!)ďĉďĉ!": 3347,
      "%&'ď(ĉďĉ": 3348,
      "%&'(ďĉďĉďĉďĉďĉ!ďĉďĉďĉ!": 3349,
      "ď!ĉLK": 3350,
      "(788888888,-%&+01001011": 3351,
      "(788888888,-%&+0100110011": 3352,
      "ćććććććĈ!Ĉ!ććććććĈ!ćĈĈďĉďĉ!!ďĉ": 3353,
      "ďĉďĉďĉďĉććććĈ!ĈĈ!ćĈ!Ĉ": 3354,
      "ĈĈĈĈĈĈĈĈĈĈĈĈĈĈĈĈĈĈĈĈĈĈĈĈ!ĈĈĈĈĈĈĈĈĈĈĈĈĈĈĈĈĈĈĈĈĈĈĈ%&'(": 3355,
      "Ĉ!Ĉ!ĈćĈĈĈĈĈ!Ĉ!Ĉ!Ĉ!Ĉ!Ĉ!ĈĈĈ!Ĉ!ĈĈĈĈďĉ!!ďĉďĉ!!ďĉ!ďĉ!!": 3356,
      "R%&'(TVa!!!SĂĄĆ!!!!R!!!S": 3357,
      "ćďĉ!ďĉďĉďĉďĉďĉďĉďĉďĉ)ďĉďĉďĉďĉďĉďĉďĉ!": 3358,
      "ćććďĉććććććĈ!ććČďĉďĉďĉďĉďĉďĉďĉďĉ!!!ďĉďĉďĉďĉ": 3359,
      "ďĉ!!ďĉ!!!!!!)!!!!!!!!)!)!)!!!!!!!!!!!!!!!!!!!!!!!!!!!!!!!!": 3360,
      "ďĉďĉďĉ!ďĉďĉ!!ďĉďĉďĉ!ďĉďĉďĉďĉďĉďĉďĉďĉ": 3361,
      "ďĉćććććĈ!Ĉ!Ĉ!ćĈĈćĈďĉďĉććĈ!Ĉ!Ĉ!ćĈ!": 3362,
      "ďĉ%&'(Ĉ!Ĉ!Ĉ!Ĉ!Ĉ!ĈĈĈ!ĈĈĈ": 3363,
      "ďĉ!ďĉ!!!!ďĉďĉ!!ďĉ!!ďĉ!!!!!!)!!!!!!!!)!": 3364,
      "!!!!!!!!%&'(!!!!!!!!!!!ďĉ!ďĉďĉ!!!!!!!!!!!!!!!!!!!!!!!!!!!!": 3365,
      "Ĉ!ďĉďĉ!ďĉ%&'(ćććććććććććććććć": 3366,
      "ć%ď&'(ĉ!": 3367,
      "ć%ć&'ć(": 3368,
      "Ĉ)!": 3369,
      "Ĉ)!)": 3370,
      "%&'(ďĉďĉďĉďĉďĉďĉćďĉ!ďĉ": 3371,
      "ćććććĈ!Ĉ!ćĈ!Ĉ!ćĈ!Ĉ!Ĉ!Ĉ!Ĉ!ćĈ!ćĈ!ćĈ!ćĈ!ćĈ!Ĉ!ćĈ!ćĈ!Ĉ!ćĈĈćĈ!Ĉ": 3372,
      "ćĈĉ!": 3373,
      "ďĉ!ďĉ!!!!!!!!!!!!!!": 3374,
      "ćĈĈĈćĈĈĈĈĈĈ!ĈĈ!ĈĈĈćĈĈĈćĈ!ĈĈĈĈ!ĈĈ!Ĉ": 3375,
      "!!!!!ďĉ!ďĉďĉďĉďĉďĉďĉďĉ!!!!!!!!!!!!!!!!!!!!!!!!!!!!!!!!": 3376,
      "ď%&'(ĉďĉďĉďĉďĉďĉďĉďĉďĉ": 3377,
      "%Ĉ&'(ĈĈĈĈĈĈĈĈ": 3378,
      "ďĉďĉ%&'(ććĈ!Ĉ!Ĉ!ćĈ!ďĉďĉďĉďĉďĉďĉ": 3379,
      "ć%&'(ćććććććććććććććććććććććććććććććĈ!ćĈ!Ĉ!ĈćĈ!Ĉ!": 3380,
      "%!&'(!!!!!": 3381,
      "%!&'(!!!!!!!!!!!!!!": 3382,
      "ćĈ!Ĉ!Ĉ!Ĉ!Ĉ!Ĉ!ĈĈĈ!ĈĈĈĈ!ĈĈ!Ĉ!Ĉ!Ĉ!ĈĈ": 3383,
      "%Ĉ&'(!Ĉ!Ĉ!Ĉ!": 3384,
      "ďĉ!!!!!!!!!!!!!!!!!!!!!!!!!!!!!!!!!!!!!!!!!!!!!!!!!!!": 3385,
      "ćĈĈĈćĈĈďĉ": 3386,
      "!!!!!!!!!!!!!!!!!!!!!!!!!!!!!!!!!!!!!!!ďĉ!ďĉ!!!!!!!!!!!": 3387,
      "ďĉ!ďĉďĉďĉĥ": 3388,
      "ćććĈćĈćĈ!ĈćĈćĈćĈćććĈĈĈĈĈććĈĈććĈćććĈćĈćĈćĈćĈĈćĈĈćĈćĈćĈ": 3389,
      "ďĉ!ďĉďĉďĉďĉ!!ďĉďĉďĉ!": 3390,
      "ĥĤ!!": 3391,
      "Ĉ!Ĉ!ĈĈ!Ĉ!Ĉ!Ĉ!ďĉďĉďĉďĉďĉ!": 3392,
      "ďĉďĉďĉďĉďĉ%&'(ďĉďĉ": 3393,
      "ďĉďďĉĉďďĉĉ": 3394,
      "ďĉďĉďĉďĉĈ!ĈĈĈćĈ!ćĈĈĈďĉďĉďĉďĉďĉďĉďĉďĉ": 3395,
      "Ĉ!ćĈ!Ĉ!Ĉ!ćĈ!Ĉ!Ĉ!ĈĈ!ćĈ!ďĉ!": 3396,
      "ćććććććććććććććĈ!Ĉ!Ĉ!ćĈ!Ĉ!Ĉ!Ĉ!Ĉ!ćĈ!Ĉ!ćĈ!ćĈ!ćĈ!ćĈ!": 3397,
      "ĈĈĈ!Ĉ!Ĉ!ĈĈĈĈ!Ĉ!ĈĈ!Ĉ!Ĉ!ĈĈĈĈć%&'(ďĉďĉ": 3398,
      "ćďĉďĉ%&'(ćĈ!ćĈ!Ĉ!Ĉ!ćĈ!Ĉ!Ĉ!ćĈ!Ĉ!": 3399,
      "ćććććććććććĈ!ĈćĈ!Ĉ!ĈćĈ!ćďĉďĉ!!ćććĈ!Ĉ!ćĈ!Ĉ!ĈĈĈĈ!ććĈďĉďĉćććć": 3400,
      "ďĉ!!!!!!!!!!!!!!!!!!!!!!!!ďĉ!!": 3401,
      "!!!!!!!!!!!!ďĉ!!ďĉ!!!!": 3402,
      "Ē!!!ė": 3403,
      "ďĉďĉďĉďĉďĉ!!ďĉ!ďĉďĉďĉďĉďĉďĉďĉďĉ": 3404,
      "Ĉ!Ĉ!Ĉ!!ĈĈ!ĈććĈ!Ĉ!ĈĈ!ĈĈ!Ĉ!ćĈ!ďĉ": 3405,
      "ććĈ!ćďĉďĉďĉďĉďĉďĉďĉ!!ďĉ%&'(ďĉďĉ": 3406,
      "ďĉ!ďĉďĉďĉďĉďĉďĉďĉćďĉ!ďĉďĉďĉďĉ!!%&'(ďĉďĉďĉďĉďĉďĉďĉ!": 3407,
      "ććĈ!ć%&'(ďĉďĉďĉďĉďĉďĉďĉďĉďĉ!!!ďĉ%&'(ďĉďĉ!!ďĉ": 3408,
      "ďĉ!ďĉ!ďĉ%&'(ďĉďĉćďĉ!ďĉďĉďĉďĉďĉďĉďĉ%&'(ďĉ": 3409,
      "%K&'(": 3410,
      "ććĈ!Ĉ!Ĉ!ĈćĈ!%&'(Ĉ!Ĉ!Ĉ!Ĉ!Ĉ!Ĉ!Ĉ!Ĉ!": 3411,
      "ďĉćććććććĈĈććććććĈ!ćĈĈďĉďĉ!!ďĉ": 3412,
      "Ĉ!ćĈ!Ĉ!Ĉ!Ĉ!Ĉ!ćĈ!Ĉ!ćĈ!ćĈ!ćĈ!ćĈ!ĈĈĈ!Ĉ!Ĉ!Ĉ!ĈĈ!ćĈ!Ĉ": 3413,
      "ĈĈĈ!Ĉ!Ĉ!ĈĈĈĈ!Ĉ!ĈĈ!Ĉ!Ĉ!ĈĈĈĈć%&'(ďĉďĉćććććććĈ!Ĉ!Ĉ!ćĈ!Ĉ!Ĉ!ćďĉ!": 3414,
      "M!!!!!!!!!!!!!!!!!!": 3415,
      "ď!!!!!!!!!!!!!!!!!!!!!!!!!!!!!!!!": 3416,
      "ďćĈ!Ĉ": 3417,
      "ďĉďĉćďĉććććććććććććććććĈ!Ĉ!ćĈ!Ĉ!ĈĈ!": 3418,
      "%&'(Ĉ": 3419,
      "ďĉďĉďĉďĉ!!!!!!!!!!!!!!!!!!!!!!!!!!!!!!!!!!!!!!!!!!!!!": 3420,
      "ćĈ%!Ĉ&'(!": 3421,
      "ćĈ'(!": 3422,
      "!!!!!!!!!!!!%!!&'(!!!!!!!!!!!!!!!!!!!!!!!!!!!!!!!!": 3423,
      "ćĈ!ćĈ!ďĉďĉďĉďĉďĉďĉ": 3424,
      "ďĉďĉ!!ďĉďĉďĉ": 3425,
      "Ĉ!ĈĈĈ!Ĉ!": 3426,
      "ďĉ%&'(ďĉďĉďĉďĉďĉďĉďĉďĉ": 3427,
      "ď%&'(ĉďĉďĉďĉďĉďĉďĉ!": 3428,
      "%ďď&'(ĉ": 3429,
      "ćďĉ!ćććććďĉ!ććććĈćććĈ!Ĉ!ĈćĈ!ć": 3430,
      "ćĈ!Ĉ!Ĉ!ćďĉćććďĉ!!ďĉďĉďĉ!": 3431,
      "Ĉ!Ĉ!ĈĈĈ!ĈĈ": 3432,
      "ď!ďĉĉ": 3433,
      "ďĉ!ďĉďĉ!ďĉďĉ!!!ďĉćĈ!Ĉ!ććĈ!ććĈ!ĈĈ!ććĈ!Ĉ!Ĉ": 3434,
      "%&'(ďĉ!!ďĉďĉďĉďĉďĉďĉďĉ)!": 3435,
      "!!!!!!!!!!!!!!!!!!!!!!!!!!!!!!!!!!!!)!)!!!!!!!!": 3436,
      "ďĉďĉďĉ!ďĉććĈ!ďĉ!ďĉ!!ćĈ!": 3437,
      "ďĉĈ!Ĉ!Ĉ!Ĉ!Ĉ!ćĈĈĈ!ĈĈĈ": 3438,
      "Ĉ!ćĈ!Ĉ!Ĉ!Ĉ!Ĉ!!ďĉďĉ!ďĉ!!!!!!!!": 3439,
      "ćććĈ!Ĉ!Ĉ!Ĉ!ĈĈĈĈĈĈĈĈĈĈ!ćĈ!Ĉ!ĈćĈĈćĈćĈĈĈćĈĈďĉĈ!Ĉ!ĈĈĈ": 3440,
      "ćĈ!Ĉ!ĈćĈ!Ĉ!ćĈ!ććĈĈĈĈĈćĈćĈďĉ%&'(": 3441,
      "ćĈĈĈĈ!ĈććĈ!ććććĈć!!ďĉ!ďĉďĉďĉďĉďĉďĉ!!": 3442,
      "ććĈ!ććććĈćĈćĈćĈććććĈ!Ĉ!ććĈ!ĈććććĈćĈćĈćĈćĈćĈćĈćĈćĈćĈć!": 3443,
      "ďĉďĉ!!ďĉ!!ďĉďĉćććĈ!Ĉ!Ĉ!Ĉ!Ĉ!ĈćĈĈ!Ĉ!ĈĈĈćĈćĈ!ććĈ!!": 3444,
      "ćććĈ!Ĉ!ććĈ!ćĈ!ćČďĉ!!!ďĉĈ!Ĉ!Ĉ!Ĉ!ĈćĈĈĈ!ĈĈĈ": 3445,
      "ďĉ!ďĉ!ďĉ!ďĉ!ďĉ!ďĉćććĈ!Ĉ!Ĉ!Ĉ!Ĉ!Ĉ!ćĈ!Ĉ!Ĉ!Ĉ!ćĈ!Ĉ!Ĉ!Ĉććďĉ!ćĈ!ćĈ": 3446,
      "ďĉ!ďĉďĉ%&'(ďĉ!ďĉ!ďĉ!!ďĉććććććććććććććććććććććĈ!ććĈ!ćĈ!ććĈ!": 3447,
      "ďĉďĉ!%&'(ďĉ!ďĉ!!Ĉ": 3448,
      "ććććććććććććČďĉďĉććĈ!ćĈ!ćĈ!ćĈ!ćĈćĈćĈćďĉďĉćĈ!ćĈ!Ĉ!Ĉ!ćĈ!Ĉ!": 3449,
      "ďĉďĉďĉďĉďĉďĉďĉ!!ćććďĉććććććĈ!ććČ": 3450,
      ")ďĉćďĉďĉ!": 3451,
      "ďĉ%&'(ďĉ!ďĉďĉďĉďĉďĉďĉďĉďĉ!ďĉďĉďĉďĉďĉćććć": 3452,
      "ďĉĈ!Ĉ!Ĉ!Ĉ!ĈĈ%&'(": 3453,
      "ćĈĈćĈĈćĈ!ćććĈ!ććďĉďĉ!!!!ďĉďĉ": 3454,
      "ďĉďĉďĉďĉ!ďĉďĉ!%&'(!!!!!!!!!!!!!!!!!!!!!!!!!!": 3455,
      "ćĈćĈćĈćĈćĈćĈćĈćĈćĈćĈćĈćĈćć%&'(Ĉ!Ĉ!": 3456,
      "ć))": 3457,
      "ďLL": 3458,
      "ďĉĖ": 3459,
      "ďĉ%!!&'(": 3460,
      "%&'(ďĉďĉďĉďĉďĉďĉďĉďĉ!": 3461,
      "%&'(!!!!!!!!!!!!!!!!!!!!!!!!!!!!!!!!!!!!!!!!!!!!!!!!!!!!!!": 3462,
      "%&'(ďĉďĉďĉďĉďĉ!!ďĉ!!ďĉďĉďĉ)!)ďĉďĉďĉďĉďĉ!)!)!ďĉďĉ!!!)!)!!": 3463,
      "ćĈ!ććĈ!Ĉ!Ĉ!ĈćĈ!Ĉ!ĈćĈććĈĈ!ĈĈĈďĉ!!!": 3464,
      "ďĉ!%!&'(": 3465,
      "ćĈćć%&'(": 3466,
      "Ĉ!Ĉ!Ĉ!Ĉ!Ĉ!ď": 3467,
      ")!)!!!!!": 3468,
      "ďĉ!ďĉďĉďĉďĉćďĉ!ďĉ": 3469,
      "ćďĉćďĉ": 3470,
      "'(33322": 3471,
      "ďĉďĉďĉ%&'(ćććććĈ!Ĉ!Ĉ!ćĈĈćĈďĉďĉććĈ!Ĉ!Ĉ!ćĈ!": 3472,
      "%!&'(!!!!!!!!!!!!!!!!!!!!!!!!!!!": 3473,
      "ćĈ!ćď": 3474,
      "%Ĉ&'(!Ĉ!ćĈ!Ĉ!": 3475,
      "ďĉďĉďĉďĉďĉFD": 3476,
      "%&'(ďĉďĉććććććĈ!ćććĈ!ćć": 3477,
      "ď!ďďďďďďďď": 3478,
      "ďĉ!!ďĉ!ďĉďĉďĉďĉďĉďĉďĉďĉ": 3479,
      "ĉĉĉĉĉ": 3480,
      "ć!Ĉ!!": 3481,
      "%&'(!ĥĤ": 3482,
      "!!!!!!!!!!!!!!!!!!!!!!!!!!!!!!!!!!!!!!!!!!%&'(ďĉ": 3483,
      ")ďĉďĉ!ďĉďĉ!!ďĉ!!!!ďĉďĉďĉďĉ": 3484,
      "ď!ĉ!!": 3485,
      "(788888888,-%&+0100001111": 3486,
      "ďĉďĉďĉďĉďĉ%&'(ďĉďĉ!": 3487,
      "%&'(ďĉ!Ĉ!ĈćĈ!Ĉ!Ĉ!ĈćĈ!ćć": 3488,
      "ćďĉ%&'(ćĈ!Ĉ!Ĉ!Ĉ!Ĉ!Ĉ!Ĉ!Ĉ!ćĈ!ćĈ!Ĉ!ĈćĈ!Ĉ!ďĉćĈ!": 3489,
      "Ĉ!Ĉ!ĈĈĈĈĈĈćĈ!ĈĈĈďĉ%&'(%&'(%&'(": 3490,
      "0101010101'(3": 3491,
      "!!!!!!)!!!!!!!!)ďĉďĉďĉ!!)!)!!!!!!!!!!!!!!!!!!!!!!!!!!!!!!!!": 3492,
      "ďĉ!ďĉĈ!Ĉ!ćĈ!Ĉ!ĈĈĈďĉ!ďĉ": 3493,
      "ćĈ!Ĉ!ććĈćĈ!ĈĈĈĈĈĈćĈ!ććĈććĈ!ćĈ!ĈććĈĈ!Ĉ!ĈĈĈ!ććĈ!Ĉ!ĈćĈ!%&'(": 3494,
      "ććďĉďĉ)ćďĉ%&'(ććććććĈ!Ĉ!Ĉ!ćĈ!Ĉ!Ĉ!Ĉ!Ĉ!!ĈĈ!ĈććĈ!Ĉ!ĈĈ!ĈĈ!Ĉ!ćĈ!": 3495,
      "ćď%&'(ĉ!!!!!!!!!": 3496,
      "ćďĉďĉ!ďĉ!ďĉ)))": 3497,
      "ďĉďĉďĉďĉďĉďĉďĉďĉďĉ%&'(ďĉďĉďĉďĉďĉďĉ": 3498,
      "Ĕĥ!!": 3499,
      "ĔĥćĈ!ćĈ!Ĉ!ĈĈ!": 3500,
      "ďĉďĉďĉ!ććĈ!ćďĉďĉďĉďĉďĉďĉďĉďĉ%&'(ďĉ!!ďĉďĉďĉ": 3501,
      "ćććĈ!ćĈďĉďĉććć": 3502,
      "ďĉďĉďĉďĉ%&'(ďĉďĉĈ!Ĉ!Ĉ!Ĉ!Ĉ!Ĉ!ćďĉďĉďĉćĈ!Ĉ!Ĉ!Ĉ!": 3503,
      "Ĉ!Ĉ!Ĉ!Ĉ!ĈĈ!Ĉ!Ĉ!Ĉ!Ĉ!ćĈ!Ĉ!ĈĈĈĈĈ": 3504,
      "R!!!S": 3505,
      "ćĈĈĈĈĈĈĈĈĈ": 3506,
      "ĉď": 3507,
      "ĔĈ!ĥ": 3508,
      "ħďĉĉ": 3509,
      "!!!!Ē!": 3510,
      "ďĉĈ!Ĉ!Ĉ!Ĉ!Ĉ!Ĉ!": 3511,
      "%&'(!!!!!!!!!": 3512,
      "%&'(Ĉ!ĈĈĈ!ĈĈĈ": 3513,
      "ćĈ!)!)!!": 3514,
      "ćććććĈ!Ĉ!": 3515,
      ")!)!!!!!!!!!!!!!!": 3516,
      "Ĉ!Ĉ!Ĉďĉďĉďĉ%&'(Ĉ!Ĉ!ĈĈ!Ĉ!ĈĈĈĈ!Ĉ!ĈĈ!Ĉ!Ĉ!!Ĉ!": 3517,
      "ćĈ!ćĈ!Ĉ!ĈĈĈ!ĈĈĈććĈ!ĈĈ!ĈĈĈĈ!ĈĈ!ĈĈĈĈďĉďĉďĉ!!!!!!!!!!": 3518,
      "ďĉďĉ!!ďĉďĉďĉďĉ!ďĉďĉ!!!!!!!!!!!!!!!!!!!!!!!!!!!ďĉ!ďĉ!!!!!!": 3519,
      "Ĉ!ĈĈĈćĈćĈĈĈĈĈĈĈćĈĈĈĈĈĈćĈćĈ!ćĈĈ!": 3520,
      "%&'(%&'(%&'(%&'(%&'(%&'(%&'(%&'(%&'(%&'(%&'(": 3521,
      "%&'(ĉĉĉ": 3522,
      "!LćK": 3523,
      "ďĉ%&'(ďĉďĉďĉďĉ!!": 3524,
      "ďĉ%&'(ćććććĈ!Ĉ!Ĉ!ćĈĈćĈďĉďĉĈ!Ĉďĉ!ďĉ!ďĉ": 3525,
      "Ĉ!ĈĈĈĈćĈ": 3526,
      "ćďĉ%!&'(": 3527,
      "!!!!!!!!!!!!!)!)!!!!!!!!!!!!!!!!": 3528,
      "ďĉďĉ%&'(ďĉďĉďĉďĉ": 3529,
      "ďĉďĉ%&'(ďĉďĉďĉ!": 3530,
      "ďĉćććććĈ!Ĉ!ćĈ!Ĉ!ćĈ!Ĉ!Ĉ!Ĉ!Ĉ!ćĈ!ćĈ!ćĈ!ćĈ!ćĈ!Ĉ!ćĈ!ćĈ!Ĉ!ćĈĈćĈ!Ĉ": 3531,
      "ďĉďĉďĉ%&'(ďĉďĉďĉ!ďĉďĉ!ďĉďĉ!!!ďĉćĈ!Ĉ!ććĈ!ććĈ!ĈĈ!ććĈ!Ĉ!Ĉ": 3532,
      "%Ĉ&'(!Ĉ!Ĉ!Ĉ!Ĉ!": 3533,
      "ďĉďĉďĉďĉďĉďĉ%&'(ďĉ": 3534,
      "01010011": 3535,
      "ďĉ!!!!!!!!!!!!!!!!!!!!!!!!!!!!!!!!!!!!!!!!!!!!!!!!!!!!!!": 3536,
      "ďĉ!!!!!ďĉ!ďĉďĉďĉďĉďĉďĉďĉ!!!!!!!!!!!!!!!!!!!!!!!!!!!!!!!!": 3537,
      "ďĉďĉďĉćďĉďĉ!ďĉďĉďĉ!!ďĉ!!!!": 3538,
      "ććĈ!ćĈ!ĈććĈĈ!Ĉ!ĈĈĈ!ććĈ!Ĉ!ĈćĈ!ććĈ!Ĉ!Ĉ": 3539,
      "ćďćĈ!ĉ": 3540,
      "%&'(ďĉćććďĉ!": 3541,
      "ďĉďĉ)ćďĉ%&'(ććććććĈ!Ĉ!Ĉ!ćĈ!Ĉ!Ĉ!Ĉ!Ĉ!!ĈĈ!ĈććĈ!Ĉ!ĈĈ!ĈĈ!Ĉ!ćĈ!": 3542,
      "%&'(!!!!!!!!!!!!!!!!!": 3543,
      "ćďĉďĉďĉĈ!ĈĈĈĈĈ!ćĈ!Ĉ!ĈćĈĈĈćĈĈĈĈĈ": 3544,
      "ďĉďĉďĉďĉďĉ!ďĉ!ďĉďĉďĉďĉďĉćććććĈ!Ĉ!Ĉ!ćĈĈćĈ%&'(ďĉďĉĈ!Ĉďĉ!ďĉ!ďĉ": 3545,
      "Ĉ!ĈććĈĈ!Ĉ!ććĈ!Ĉ!ĈĈ!ĈĈĈďĉďĉďĉďĉďĉďĉďĉĈ!Ĉ!Ĉ!Ĉ!Ĉ!Ĉ!Ĉ!ĈĈĈĈĈĈ": 3546,
      "ďćĈĉ!": 3547,
      "!!!!R%&'(TVa!!!SĂĄĆ": 3548,
      "ććĈ!ĈďĉĈ!Ĉ!ĈĈĈĈĈĈĈĈĈĈĈĈĈĈĈĈĈĈĈĈĈĈĈĈ%&'(ďĉ!": 3549,
      "%&'(ďĉ!!ďĉďĉďĉĈ!ĈĈĈ!ĈĈĈĈĈĈĈĈĈĈĈĈĈĈĈĈĈĈ!ďĉ!!ďĉ!ďĉ!!!ďĉďĉ": 3550,
      "ďĉ!ďĉ%&'(ďĉďĉďĉďĉćĈ!ĈĈ!Ĉ": 3551,
      "ć%&ď'(ĉ": 3552,
      "ć%&'ď(ĉ": 3553,
      "ďę": 3554,
      "ďLK": 3555,
      "!!!!ďĉ!!ďĉ!": 3556,
      "ďĉĈ!Ĉ!ĈĈĈ!Ĉ!Ĉ!Ĉ!ĈĈĈĈĈ!ĈĈĈĈ!ĈĈĈĈĈĈĈĈĈĈĈĈ!Ĉ!": 3557,
      "Ĉ!Ĉ!ććĈ!Ĉ!Ĉ!Ĉ!Ĉ!Ĉ!ćĈ": 3558,
      "ćĈćĈ!ććććććĈ!ćĈ!ććĈćććĈćććĈĈćĈćĈ!Ĉ!ćĈ!ĈćĈćĈćĈćĈ!Ĉ!ĈćĈ!Ĉ!": 3559,
      "Ĉ!Ĉ!Ĉ!Ĉ!Ĉ!ĈĈĈ!ĈĈďĉ!ďĉďĉďĉćĈ!Ĉ!Ĉ!Ĉ!ĈĈ!Ĉ!Ĉ!Ĉ!": 3560,
      "ďĉ!!%&'(ďĉďĉďĉ": 3561,
      ")!)!!!!!!!!!!!!!": 3562,
      "ďĉďĉďĉ!ďĉ!ďĉďĉ": 3563,
      "ďĉďĉ!!ďĉ!ďĉďĉ!!ďĉďĉďĉďĉďĉďĉďĉďĉ!": 3564,
      "Ĉ!ĈĈďĉ!!!": 3565,
      "!!!!!!!!!%!!!!!&'(!!!!!!!!!!!!!!!!!!!!!!!!!!!!!!!!": 3566,
      "ď%&'(ĉďĉććććććććććććććĈ!ććĈ!Ĉ!Ĉ!ĈćĈ!Ĉ!ĈćĈććĈĈ!ĈĈĈďĉ!!!": 3567,
      ")!)!!!!!!!!!!!!!!!!!!!!!!!!!!!!!!!!!!!": 3568,
      "Ĉ!ĈĈ!ĈďĉĈ!ĈĈĈĈĈĈĈĈ!ĈĈĈ": 3569,
      "ďĉďĉďĉďĉďĉĈ!Ĉ!ćĈ!Ĉďĉ!!!!!!!!!": 3570,
      "ććć!": 3571,
      "23232323": 3572,
      "ď!ćĉ": 3573,
      "ďĉďĉďĉďĉďĉďĉďĉ%ď&'(ĉ": 3574,
      "%&'Ĉ(": 3575,
      "ďĉ!ďĉďĉ!ďĉďĉďĉďĉ": 3576,
      "ďĉ!ďĉďĉďĉď%&'(ĉ": 3577,
      "ďĉ!!!!!!!!!!!!!!!!!!!ććĈ!ćĈ!ćĈ!": 3578,
      "ďďďďďď": 3579,
      "00011011": 3580,
      "ćĈ!ĈĈĈćĈćĈćĈĈĈćĈďĉďĉ!ďĉ!!ďĉ!ďĉďĉďĉďĉ!": 3581,
      "%ćć&'ć(": 3582,
      "Ĉ!Ĉ!Ĉ!Ĉ!ĈĈ!Ĉ!ĈĈ!Ĉ!ćĈ!Ĉ!ĈĈĈĈĈ": 3583,
      "RTVa!!!S%&'(ĂĄĆ!!!!R!!!SĈ!ćĈ!ćĈ!Ĉ!Ĉ!ďĉďĉ": 3584,
      "ďĉ!ďĉ!!Ĉďĉ!!!": 3585,
      "!!!!!!!%!&'(!!!!!!!!!!!!!ďĉ!!!!ďĉďĉďĉďĉďĉďĉďĉďĉďĉďĉ": 3586,
      "ďĉďĉďĉďĉďĉ!!ďĉ!!!!ďĉďĉďĉ!ďĉďĉ!ďĉďĉ!!ďĉ!!ďĉďĉ": 3587,
      "(788888888,-%&+0100011101000111": 3588,
      "ćĈ!Ĉ!ĈĈĈĈĈĈććĈ!ćďĉ!!!!!!!!ďĉ!ď%&'(ĉ!": 3589,
      "(788888888,-%&+0100110101001101'(3": 3590,
      "ďĉďĉďĉ!ďĉďĉ!ďĉďĉ!!ďĉ!!ďĉďĉćććĈ!Ĉ!Ĉ!Ĉ!Ĉ!ĈćĈĈ!Ĉ!ĈĈĈćĈ": 3591,
      "%!!!!!!!!!!!!!!!!!!!!!!!!!!!!!!!!!!!!!!!!!!!!!!!": 3592,
      ")%!&'(": 3593,
      "BL": 3594,
      "ćA": 3595,
      "Ĉćĉ": 3596,
      "ĈĈ!Ĉ!ĈĈ!Ĉ!ćĈ!Ĉ!ĈĈĈĈĈ": 3597,
      "ďĉ%ď&'(ĉ!": 3598,
      "ćĈ!ćĈćĈćĈ!ćĈ!ććĈ!ćĈććĈćĈ!ćĈ": 3599,
      "ďĉďĉďĉďĉď%ĉ&'(": 3600,
      "ďĉ!ćććĈ!Ĉ!ćĈ!Ĉ!Ĉ": 3601,
      "2222322222222222222222222222222222222": 3602,
      "ćĈćĈććĈ": 3603,
      "ďĉďĉďĉĝ": 3604,
      "ďĉďĉ!!ďĉďĉ)ďĉďĉ!ďĉďĉ!!ďĉ!!!!ďĉďĉďĉďĉ": 3605,
      "ććĈ!Ĉ!%&'(": 3606,
      "ććĈ!Ĉ!ćĈ!ćĈ!": 3607,
      "ď%&'(ĉďĉďĉ!!!!ďĉ!!!ćććććĈ!ĈĈ!ĈĈĈ!Ĉ!Ĉ!Ĉ!Ĉ!Ĉ!Ĉ!Ĉ!Ĉ!Ĉ!Ĉ!Ĉ!ćĈ!": 3608,
      "%ď&'(": 3609,
      "ć%&'(Ĉ!Ĉ!Ĉ": 3610,
      "ďĉ!!!!!!!!!!!!!!!!!!!!!!!!!!!!!!!!!!!!!": 3611,
      "%!&'(!!!!!!!!!!!!!!!!!!!!": 3612,
      "Ĉ!ćĈ!ĉ": 3613,
      "ććĈĈĈćĈ": 3614,
      "ďĉ!ďĉ!!ďĉ!ďĉďĉďĉďĉ!": 3615,
      "ćďĉďĉćĈ!ćďĉďĉďĉďĉćććććĈ!ćČ": 3616,
      "3332222323232222222222222222222222222222222222222222": 3617,
      "Ĉ!ĈĈĈĈĈĈĈĈ!ĈĈĈ!ďĉ!!!!!!!!!!!!!!!!!!!!!!!!!!!!!!!!": 3618,
      "ććĈ!ććĈ!ćĈ!Ĉ!Ĉ!Ĉ!Ĉ!Ĉ!ĈćĈĈĈĈ!ĈććĈ!ććććĈć!!": 3619,
      "ďĉ!ďĉ!ďĉćć": 3620,
      "(788888888,-%&+01010011": 3621,
      "ďĉĈ!ĈĈĈĈĈĈĈĈ!ĈĈĈ!": 3622,
      "Ĉ!ĈĈĈ!ĈĈĈĈĈĈĈĈĈĈĈĈĈĈĈĈĈĈ!ďĉ!!ďĉ!": 3623,
      "Ĉ!ćĈ!Ĉ!ĈćĈĈĈćĈĈĈćĈĈćććććďĉďĉďĉĈ!ĈĈĈĈĈ!ćĈ!Ĉ!ĈćĈĈĈćĈĈĈĈĈ": 3624,
      "ďĉ!ďĉ!!!!!!!!!!!!!!!!ďĉ!!!!!!!!!!!!!": 3625,
      "Ĉ!Ĉ!Ĉ!Ĉ!Ĉ!Ĉ!ĈĈĈĈ!ĈĈĈĈĈĈĈ!Ĉ!Ĉ!ĈĈ!Ĉďĉ%&'(Ĉ!Ĉ!Ĉ!Ĉ!": 3626,
      "Ĉ!Ĉ!ćĈ!ććĈ!ćĈ!ććĈ!ćĈććĈ!ćĈ!ćĈ!ĈćĈĈćďĉ": 3627,
      "ćććććććććććććććĈ!Ĉ!Ĉ!ćĈ!Ĉ!Ĉ!Ĉ!Ĉ!ćĈ!Ĉ!": 3628,
      "ćććććĈ!ćĈ!ććććĈ!ććĈ!ćććĈ!ćććĈćď%&'(ĉ": 3629,
      "ďĉďĉďĉďĉďĉďĉďĉ%&'(ďĉ!ďĉďĉďĉďĉďĉďĉďĉďĉ!!ďĉďĉďĉďĉ!!!!ďĉ!!": 3630,
      "323322": 3631,
      "%!!&'(!!!!!!!!!!!!!!!!!!!!!!!!!!!!!": 3632,
      "ćććććďĉ!ććććĈćććĈ!Ĉ!ĈćĈ!ć%&'(": 3633,
      "ďĉ%&'(ďĉďĉďĉ!!!!!!!!!ďĉ!!!!!!!!": 3634,
      "!!!!!!!!!!!!ďĉ!!ďĉ!!!!!!!!!!": 3635,
      "ďĈ!Ĉĉ!": 3636,
      "đđđđ": 3637,
      "Ĉ!Ĉ!Ĉ!Ĉ!ĈćĈ!ĈĈ!ĈĈĈćĈćďĉďĉďĉ!!!ďĉďĉďĉďĉ": 3638,
      "ďĉďĉďĉďĉććĈ!Ĉ!ĈĈĈ!!ćĈ!Ĉ!Ĉ!Ĉ!ćďĉďĉ!!ďĉďĉďĉďĉ": 3639,
      "%L&'(K": 3640,
      "ďĉďĉďĉďĉďĉďĉďĉ!ďĉ!ďĉćććććććĈ!ćČČďĉďĉďĉ!!!!!": 3641,
      ")!)ďĉďĉďĉ!ďĉďĉďĉ!!ďĉďĉďĉďĉ!ďĉ!ďĉ!ďĉ!ďĉ!ďĉ!ďĉćććĈ!Ĉ!Ĉ!Ĉ!Ĉ!Ĉ!": 3642,
      "3322232323232222222222222222222222222222222222222222": 3643,
      "ėĥĤēĒ!!Ė": 3644,
      "ďĉďĉďĉďĉďĉďĉďĉ!ďĉ!ďĉďĉďĉďĉćććĈ!Ĉ!ććĈ!ćĈ!ćČ": 3645,
      "ĈĈĈĈĈĈĈĈĈĈ!ĈĈĈĈ!ĈĈĈĈĈćĈĈĈĈĈĈĈĈĈĈĈĈĈĈĈĈ!": 3646,
      "!ĥ": 3647,
      "%!L": 3648,
      "ćď%ĉ&'(": 3649,
      "!!!!!!!!!!!!!!!!!!!!!!!": 3650,
      "&'(K": 3651,
      "%&'(!!!!RTVa!!!SĂĄĆ": 3652,
      "ĈĈĈĈĈ!Ĉ": 3653,
      "ćĈ!Ĉ!ćďĉ!!": 3654,
      "ďĉďĉďĉďĉďďĉĉ": 3655,
      "ććĈ!ćďĉ!": 3656,
      "ďĉďĉ!ććĈ!ćććĈ!ćććĈ!ćććĈ!Ĉ!Ĉ!ďĉćććĈ!ć": 3657,
      "LL!": 3658,
      "ćĈ!ĈĈ!Ĉ!Ĉ!ćĈ!ćĈďĉďĉďĉďĉ!!!!!!!!!ďĉ!!!!!!!!": 3659,
      "Ĉ!Ĉ!ĈĈ!Ĉ!ĈĈ!Ĉ!ĈĈ!ĈĈ!Ĉ!ĈĈ!ĈĈ!Ĉ!ĈĈĈ!ĈĈĈĈ!ĈĈĈĈ": 3660,
      "ďĉ!ďĉ!!!!!!!!": 3661,
      "ććĈ!Ĉ!Ĉ!ĈćĈ!Ĉ!": 3662,
      "ďĉ%&'(ďĉďĉ!!": 3663,
      "!!!!!!!!!!!!!ďĉďĉ!ďĉ!)ďĉďĉďĉćďĉďĉ!ďĉďĉďĉ!!ďĉ!!!!": 3664,
      "ďĉďĉ%&'(!!!": 3665,
      "ć%&'(ćććććććć": 3666,
      "ć%&'(ććĈ!Ĉ!": 3667,
      "%!&'(!!!!!!!!!!!!!!!!!!!!!": 3668,
      "ďĉ!!ďĉ%ď&'(ĉ": 3669,
      "%Ĉ&'(!ćĈ!Ĉ!": 3670,
      "ďĉďĉďĉďĉďĉ%&'ď(ĉ": 3671,
      "%!&'(!!!!!!!!!!!!!!!!!!!!!!!!!!!!!!!!!!!!!!!!": 3672,
      "ďĉćććĈ!ĈĈ!Ĉ!": 3673,
      "ďĉďĉďĉďĉďĉďĉďĉ!ďĉ!ďĉďĉďĉ!ďĉ!ďĉďĉďĉĈ!Ĉ!Ĉ!Ĉ!ććĈćć": 3674,
      "ď%ĉ&'(!!!!!!!!!!!!!!!!!!!!!!!!!!!!!!!!": 3675,
      "ďĉďĉďĉďĉďĉćććććĈ)!)!!Ĉ!Ĉ!ĈĈ!!!!!": 3676,
      "ďĉďĉ!!!!ďĉ!!": 3677,
      "%!!!!&'(ďĉ!!!!!!!!!ćććĈ!Ĉ!Ĉ!Ĉ!Ĉ!Ĉ!ĈĈĈĈĈĈĈĈĈĈĈĈ": 3678,
      "%!!&'(!!": 3679,
      "ďĉďĉďĉďĉďĉďĉ%&'(ďĉďĉ!": 3680,
      "ďĉďĉďĉďĉćććććĈ!ćĈ!Ĉ!ćĈĈ!Ĉ!Ĉ!Ĉ!ćĈćĈĈćĈ!Ĉ!Ĉ!ćĈ!Ĉ!Ĉ!Ĉ!ćĈ!Ĉ!": 3681,
      "ďĉďĉďĉ!!ďĉćććĈ!Ĉ!Ĉ!Ĉ!ĈĈĈĈĈĈĈĈĈĈ!ćĈ!Ĉ!ĈćĈĈćĈćĈĈĈćĈĈ%&'(ďĉ": 3682,
      "!!Č!!Č!ďĉ!ďĉĈ!Ĉ!ćĈ!Ĉ!ĈĈĈďĉ!ďĉ!!!SĂĄĆ!!ďĉ!!!!!!": 3683,
      "Ĉ!ĈĈďĉ!!)!)!!!!!!!!!!!!!!!!": 3684,
      "ćĈ!Ĉ!Ĉ!ćĈ!Ĉ!ćĈ!ćĈ!ćĈ!ćĈ!Ĉ!Ĉ!Ĉćďĉ!!!!!!!!!ďĉďĉďĉďĉďĉ)!)": 3685,
      "!!!!RTVa!!!SĂĄĆ!!!!R!!!Sďĉďĉ!ďĉďĉďĉďĉ!ďĉ!!": 3686,
      "ććććĈćĈććĈ!ćĈ!Ĉ!Ĉ!Ĉ!ćĈ!Ĉ!ćĈ!ćĈ!Ĉ!ćĈ!ĈćĈ!ĈĈ!ĈćĈćĈćĈćććĈćĈ": 3687,
      "ćďĉććććććććććććććććĈ!Ĉ!ćĈ!Ĉ!ĈĈ!ćĈ!ćććĈ!ććĈćĈ!ććĈćććĈ!Ĉ!Ĉ!Ĉ!": 3688,
      "ďĉďĉďĉďĉďĉďĉćďĉ!ďĉ!!!!!!!!!!!!!!!!!!!!!!!!!!!!!!!!!!!%&'(": 3689,
      "ććććĈćććĈ!Ĉ!ĈćĈ!ć": 3690,
      "ďĉďĉ!ďĉďĉ%&'(ćĈ!Ĉ!Ĉ!Ĉ!Ĉ!ĈďĉĈ!Ĉ!Ĉ!Ĉ!%&'(Ĉ!ĈĈĈ!ĈĈĈ": 3691,
      "ďĉ!%&'(ďĉ!!!!!!!!ććĈ!Ĉ!ĈćĈĈĈććĈĈĈććĈ!Ĉ!Ĉ!Ĉ!Ĉ!Ĉ!ćĈ": 3692,
      "ďĉďĉ!ďĉďĉďĉďĉ!ďĉ!!ďĉďĉďĉďĉďĉďĉ!": 3693,
      "&'(ďĉ!!!!!!!!!!!!!!!!!!!!!!!!!!!!!!!!!!!!!!!!!!!": 3694,
      "ďĉďĉďĉ%&'(ďĉďĉďĉďĉďĉ!ďĉďĉďĉďĉďĉďĉďĉďĉ!!ďĉďĉďĉďĉ!!!!ďĉ!!": 3695,
      "ďĉďĉćććććďĉ!ďĉďĉďĉ!ďĉćďĉ!!!!ćďĉ!": 3696,
      ")ďĉďĉďĉďĉďĉďĉďĉ!ďĉ!!ďĉďĉďĉďĉďĉďĉďĉ)!%&'(ďĉďĉďĉďĉďĉďĉďĉďĉ": 3697,
      "ćďĉććććććĈ!Ĉ!Ĉ!ćĈ!Ĉ!%&'(": 3698,
      ")ďĉćďĉďĉ!ďĉďĉ!)": 3699,
      "%!!!!!!!!!!!!!!!!!!!!!!!!!!!!!!!!!!!!!!!!!!!!": 3700,
      "Bď": 3701,
      "!!!!!!!!ď": 3702,
      "Ĉ!ć!": 3703,
      "ďĉćďĉ!!!!ćďĉ!ćććććďĉ!ććććĈćććĈ!Ĉ!ĈćĈ!ć": 3704,
      "ďĉďĉĦ": 3705,
      "Ĉ!Ĉ!%&'(": 3706,
      "%&'(!!!!!!!!!!!": 3707,
      "ďĉ!ďďĉĉ": 3708,
      "ďĉ!!Ĉ": 3709,
      "ďĉ!!ďĉďĉ%&'(": 3710,
      "MMďMĉ": 3711,
      "ďĉďĉ!ďĉďĉ!": 3712,
      "ďĉďĉ!ďĉ!ďĉ!!Ĉ": 3713,
      "ďĉďĉ!ďĉ!ďĉ!ďĉďĉ!!ďĉ!ďĉ!!": 3714,
      "ćććććććććććććć": 3715,
      "ďĉďĉďĉĈ!ĈĈĈ!ĈĈĈĈĈĈĈĈĈĈĈĈĈĈĈĈĈĈ!ďĉ!!ďĉ!ďĉ!!!": 3716,
      "%&'(ďĉ!!!!!!!!!ćććĈ!Ĉ!Ĉ!Ĉ!Ĉ!Ĉ!ĈĈĈĈĈĈĈĈĈĈĈĈ": 3717,
      "ďĉďĉďĉďĉďĉďĉďĉďĉďĉďĉďĉ!": 3718,
      "!!!!!ďĉ!ďĉ!!": 3719,
      "!!!!!!!ďĉ!!!!!!!!!!!!!!!!!!!!!!!!!!!!!!!!!!!!!!!!!!!!!!!!": 3720,
      "!!!!!!!!!!!!!!%!!!!!!!!&'(!!!!!!!!!!!!!!!!!!!!!!!!!!!!!!!!": 3721,
      "ćĈćĈćĈćććĈĈĈĈĈććĈĈććĈćććĈćĈćĈćĈćĈĈćĈĈćĈćĈćĈ": 3722,
      "%Ĉ&'(ĈĈĈĈĈ": 3723,
      "ć%&'(ććĈ!Ĉ!Ĉ!Ĉ": 3724,
      "Ĉ!Ĉ!Ĉ!ĈćĈĈ": 3725,
      "ďĉďĉďĉďĉďĉď%ĉ&'(": 3726,
      "%!!&'(!": 3727,
      "ććĈĈćĈĈ": 3728,
      "MMMMMMMMMMMMMMMMMMMMMMMMMMMM": 3729,
      "#$ćĈ!ćć": 3730,
      "ďĉ!ďĉ!!ďĉďĉďĉďĉďĉďĉ!": 3731,
      "%&'(ďĉ!!ćĈ!Ĉ!Ĉ!Ĉ!Ĉ!Ĉ!Ĉ!ćĈ!ďĉ!!!!!!!!": 3732,
      "%!!!!!!!&'(!!!!!!!!!!!!!!!!!!!!!!Ĉ!ďĉďĉćĈ!ďĉ!ććĈ!%&'(": 3733,
      "%!!!!&'(!!": 3734,
      "Ĉ!Ĉ!Ĉ!ĈĈĈĈĈĈĈĈĈĈ!ĈĈĈ!Ĉ": 3735,
      "ĥĤ!!!": 3736,
      "ďĉĈ!Ĉ!Ĉ!Ĉ!ććĈććďĉďĉďĉ!!ďĉ!!ďĉ!!!!!!!!": 3737,
      "ďĉ!ďĉďĉďĉďĉ!ďĉďĉďĉďĉďĉ": 3738,
      "%&'(ďĉ!!!ďĉ!ďĉďĉ!ďĉćććĈ!Ĉ!Ĉ!Ĉ!%&'(Ĉ!Ĉ!ćććććĈ!ćĈĈďĉďĉ": 3739,
      "ćĈ!ĈćĈ!Ĉ!ćĈ!ćĈ!ćĈ!ćĈ!ćĈ!Ĉ!ćĈ!ćĈ!Ĉ!Ĉ!ćĈ!Ĉ!Ĉ!ććĈ!Ĉ!Ĉ!ĈćĈ!Ĉ!": 3740,
      "ďĉ%ď&'(ĉ!!": 3741,
      "ďĉ%ď&'(ĉďĉďĉ": 3742,
      "Ĉ!ĈĈ!Ĉ!Ĉ!ĈććĈ!ćďĉććććććććĈ!Ĉ!Ĉ!Ĉ!ćĈĈĈĈ!Ĉ!ćĈ!": 3743,
      "ďĉďĉďĉďĉďĉ!!ďĉ!ďĉ!ďĉďĉďĉ!": 3744,
      "Ĉ!ĈĈ!Ĉ!!ćĈ!Ĉ!Ĉ!Ĉ!ćĈ!ććĈ!ćďĉ!ďĉďĉ!!": 3745,
      "ćĈ!Ĉ!Ĉ!Ĉ!Ĉ!Ĉ!Ĉ!Ĉ!ćĈ!ćĈ!Ĉ!ĈćĈ!Ĉ!ďĉ%&'(": 3746,
      "&'ď(": 3747,
      "ćĈ!ćććĈ!ććĈćĈ!ććĈćććĈ!Ĉ!Ĉ!Ĉ!ćććĈćĈ!ćĈćććĈ!Ĉ!Ĉ!Ĉ!Ĉ!ćĈ!Ĉ!": 3748,
      "Ĉ!ďĉďĉćĈ!ďĉ!ććĈ!Ĉ!Ĉ!ĈćĈ!%&'(Ĉ!Ĉ!Ĉ!Ĉ!Ĉ!Ĉ!Ĉ!Ĉ!": 3749,
      "ďĈĉ!": 3750,
      "ďĉďĉďĉ!ďĉ!ďĉ!%&'(ďĉćć": 3751,
      "0011010101'(333": 3752,
      "ćććććććććććĈ!ĈćĈ!Ĉ!ĈćĈ!ćďĉďĉ!!ćććĈ!Ĉ!ćĈ!Ĉ!ĈĈĈĈ!ććĈďĉďĉ": 3753,
      "ďĉ!ďĉďĉďĉ%&'(ďĉďĉďĉďĉ": 3754,
      "ďĉ!!!!!!!!!%!&'(!!!!!!!!!!!!!!!!!!!!!!!!!!!!!!!!": 3755,
      "ďĉďĉďĉďĉćĈ!ĈĈ!Ĉ!ďĉ!ďĉ!ďĉďĉďĉ!!ďĉ!ďĉ!%&'(ďĉďĉďĉćďĉ!ďĉďĉďĉďĉ": 3756,
      "ďĉ!ďĉ%&'(ďĉ!ďĉ": 3757,
      "BBBB": 3758,
      "332222323232222222222222222222222222222222222222222": 3759,
      "ďĉďĉďĉďĉďĉďĉRTVaďĉććĈ!ćććĈćććĈĈ!Ĉ!ćĈ!ććĈćĈ!ćĈ!!Č!!Č!": 3760,
      "ćĈ!ćĈ!ćĈĈĈ!": 3761,
      "Ĉ!Ĉććďĉ!ćĈ!ćĈďĉďĉďĉďĉ!ďĉďĉďĉďĉ": 3762,
      "ćďĉĈ!ćĈ!Ĉ!Ĉ!ćĈ!Ĉ!Ĉ!ĈĈ!ćĈ!ďĉ!%&'(ďĉďĉďĉďĉďĉďĉďĉďĉďĉďĉďĉďĉďĉ": 3763,
      "ďBĉ": 3764,
      "ćĈ!ćďĉďĉďĉďĉďĉ!!ďĉ!!!!ďĉďĉďĉ!ďĉďĉ!ďĉďĉ!!": 3765,
      "ć%&'(ďĉ!ďĉďĉďĉďĉďĉďĉďĉďĉ)ďĉďĉďĉďĉďĉďĉďĉ!ďĉ!!": 3766,
      "ďĉ!!ďĉďĉďĉďĉďĉďĉ!ďĉďĉ!!ďĉ!!ďĉ!ććĈ!ďĉ!ďĉďĉ!!ďĉďĉ)": 3767,
      "ďĉďĉďĉďĉďĉ!ďĉďĉďĉďĉďĉ!ďĉďĉďĉćććĈ!Ĉ!Ĉ!ćĈĈĈĈ!ćĈ!ĈĈ!ćĈ!ć%&'(": 3768,
      ")!)ďĉďĉďĉďĉďĉďĉ!!!ďĉ!!ďĉ!ďĉ!ććĈ!Ĉ!Ĉ!ććĈ!Ĉ!Ĉ!ĈĈ!Ĉ": 3769,
      "%Č": 3770,
      "%Ĥ": 3771,
      "Aĉ": 3772,
      "ćM": 3773,
      "ĉK": 3774,
      "!!!!ďĉďĉďĉďĉďĉďĉďĉďĉďĉďĉ": 3775,
      "ďĉć": 3776,
      "ďĉđ": 3777,
      "ďĉĈ!Ĉ!ĈĈĈĈĈĈĈĈĈĈĈĈĈĈĈĈĈĈĈĈĈĈĈĈďĉ!": 3778,
      "%&'(!!!!!!!!!!!!!!!!!!!!!!!!!!!!!!!!!!!!!!!!!!!!!!!!": 3779,
      "ćĈ%Ĉ&'(": 3780,
      "ććĈ!ćĈ": 3781,
      "ďĉďĉďĉďĉďĉďĉďĉďĉďĉďĉďĉďĉďĉďĉďĉ!": 3782,
      "ďĉ%&'(ďĉďĉďĉďĉďĉďĉ": 3783,
      "Ĉ!ĈĈĈĈĈ!": 3784,
      "!!!!!!!!!!!!!!%&'(!!!!!!!": 3785,
      "MMMMMMMMMM": 3786,
      "ďĉďĉ%&'(!!": 3787,
      "Ĉ!Ĉ!Ĉ!ćĈ!": 3788,
      "))C!": 3789,
      "ďĉďĉďĉ%&'(ďĉďĉďĉ!": 3790,
      "ďĉďĉďĉ%&'(ďĉďĉďĉ!!": 3791,
      "ďĉďĉďĉ%&'(!!!!ďĉ!!!ćććććĈ!ĈĈ!ĈĈĈ!Ĉ!Ĉ!Ĉ!Ĉ!Ĉ!Ĉ!Ĉ!Ĉ!Ĉ!Ĉ!Ĉ!ćĈ!": 3792,
      "Ĉ!ćĈ!%Ĉ&'(!": 3793,
      "%ć&'(Ĉ!Ĉ!": 3794,
      "L!LKL": 3795,
      "%!!!!!!!!!!!!!&'(": 3796,
      "%!!!!!!!!!!!&'(!!!!!!!!!!!!!!!!!!!!!!Ĉ!ďĉďĉćĈ!ďĉ!ććĈ!%&'(": 3797,
      "ďĉďĉ!ďĉďĉďĉ!!ďĉďĉ": 3798,
      "ćććĈ!ććĈ!Ĉ!": 3799,
      "ďĉďĉďĉďĉďĉďĉ%&'(!": 3800,
      "%&'(ďĉďĉďĉďĉďĉďĉďĉďĉďĉďĉďĉďĉďĉďĉ!": 3801,
      "%&'(ďĉďĉďĉďĉďĉďĉďĉďĉ!!!ďĉďĉďĉďĉććĈ!Ĉ!Ĉ!Ĉ!Ĉ!Ĉ!ććĈ!ć": 3802,
      "ć%Ĉ&'(!Ĉ!": 3803,
      "ćĈĈĈććĈ!Ĉ!ććĈ!ćććĈćĈćĈćĈćĈĈćĈĈćĈćĈćĈćĈ!Ĉ!ĈćĈ!": 3804,
      "ďĉďĉ!ďĉ!)ďĉďĉďĉ": 3805,
      "ďĉ!ďĉ!!!!!!!!!!!!!!!!ďĉ!!!!!!!!!!!": 3806,
      "ďĉćććććććĈ!ćĈ!ćďĉ!": 3807,
      "Ĉ!ĈĈĈĈĈĈĈĈĈĈĈĈĈĈĈĈĈĈĈĈ!ďĉďĉďĉďĉďĉďĉćďĉ!ďĉ!!!!!!!!!!!!!!!!": 3808,
      "ďĉďĉďĉď%&'(ĉďĉďĉďĉďĉďĉďĉďĉďĉ": 3809,
      "ďĉ!!!!!!!!!!!!!!!!!!!!!!!!!!!!!!!!!!!!!!!!!!!!!ďĉďĉďĉďĉďĉ!!": 3810,
      "ćĈ!!ććĈ!ććĈ!ćĈ!Ĉ!Ĉ!Ĉ!Ĉ!Ĉ!ĈćĈĈĈĈ!ĈććĈ!ććććĈć!!": 3811,
      "ďĉďĉ%&'(ďĉďĉĈ!ĈććĈĈ!Ĉ!ććĈ!Ĉ!ĈĈ!ĈĈĈďĉďĉďĉďĉďĉďĉďĉ": 3812,
      "!!!!ďĉďĉ!!!!!!!!!!!!!!!!!!!!!)!)!!!!!!!!!!!!!!!!": 3813,
      "Ħ!Ħ": 3814,
      "ďćĈĉ": 3815,
      "%!&'(!!!!!!!!!!!!!!!!!!!!!!!!!!!!!!!!!!!!!!!!!!!!!!!!!": 3816,
      "%&'(ďĉ!!ďĉďĉ!!ďĉ!ďĉ!!ďĉďĉďĉ!ďĉććĈ!ďĉ!ďĉ!!ćĈ!%&'(ďĉďĉďĉ": 3817,
      "ćććĈ!Ĉ!ćĈ!Ĉ!ćĈ!ćĈ!ćĈ!ĈĈ!Ĉ!ćĈ!ćĈ!Ĉ!Ĉ!%&'(ďĉďĉ!": 3818,
      "ďĉďĉďĉďĉďĉďĉRTVaďĉććĈ!": 3819,
      "Ğğďĉďĉďĉĝ": 3820,
      "ďĉďĉ!ďĉ!ďĉďĉďĉďĉďĉĈ!Ĉ!Ĉ!Ĉ!": 3821,
      "ćĈ!ďĉďĉďĉĈ!Ĉ!Ĉ!Ĉ!Ĉ!ćĈ!ĈĈĈĈćĈ!ćĈ!ćďĉďĉďĉďĉ!": 3822,
      "ďĉďĉďĉďĉďĉďĉďĉ!!!ďĉ%&'(ďĉďĉ!!ďĉ": 3823,
      "ďĉďĉďĉďĉďĉ)!)ďĉďĉďĉ!ďĉďĉďĉ!!ďĉďĉďĉďĉ!ďĉ!ďĉ!ďĉ!ďĉ!ďĉ!%&'(ďĉ": 3824,
      "ďĉ!ďĉďĉďĉďĉďĉďĉ!!ďĉ!ďĉďĉďĉďĉ!!%&'(ďĉďĉďĉ!ďĉ!ďĉ!ďĉććďĉďĉ)": 3825,
      "!&'(ďĉ))ħďĉďďĉĉďĉďĉďĉďĉćďĉ#$ćĈ!ćć%&'(ďĉďĉ!!!!ďĉ!!)ďĉďĉ!": 3826,
      "!%!!&'(": 3827,
      "LĈ!": 3828,
      "ĈD": 3829,
      "ďĈ!": 3830,
      "ďďĉďĉ": 3831,
      "ďĈ!Ĉ!Ĉ!ĉ": 3832,
      "ē!!!": 3833,
      "ďĉ!!!!!!!!!!!!!!!ďĉ!!!!!!!!!!!!!!!!!!!!!!!!!!!!!!!!": 3834,
      "ććČ": 3835,
      "ćććĈ!ĈĈ": 3836,
      "%&'(ďĉďĉďĉďĉďĉďĉ!%&'(%&'(": 3837,
      "%&'(ďĉ!!ďĉ!!!!!!!!!!!ďĉ!!ćććććććĈ!Ĉ!Ĉ!ććĈĈććĈ!ćĈĈ": 3838,
      "ĈĈĈĈĈ!ĈĈ!ĈĈĈćĈĈĈćĈ!ĈĈĈĈ!ĈĈ!Ĉďĉďĉďĉďĉďĉďĉ!%&'(%&'(": 3839,
      "ďĉďĉďĉďĉ%&'(ďĉďĉďĉďĉďĉďĉďĉďĉ": 3840,
      "ďĉ!ĉ": 3841,
      "ďĉ!ďĉďĉ!!ďĉ": 3842,
      "ćĈĈćć": 3843,
      "ďĉďĉďĉ!!!!!!!!!!!!!!!!!!!!!!!!!!!!!!!!!!!!!!!": 3844,
      "ććĈĉ!": 3845,
      ")!)!!!": 3846,
      ")!)ďĉďĉďĉďĉďĉ!)!)!ďĉďĉ!!!)!)!!": 3847,
      "ďĉďĉďĉ!ďĉďĉďĉďĉďĉ!ďĉďĉďĉ!": 3848,
      "01001101010011": 3849,
      "ćĈĈĈćć": 3850,
      "!!!!!!!!!ććććććććććććČďĉďĉććĈ!ćĈ!ćĈ!ćĈ!ćĈćĈćĈ": 3851,
      "!LďKĉ": 3852,
      "ďĉ%&'(ďĉ!!ďĉ!ďĉďĉ!!ďĉďĉďĉďĉďĉďĉďĉďĉ!": 3853,
      "ďĉ!ďĉďĉďĉďĉďĉ!ďĉďĉĈ!Ĉ!": 3854,
      "!!!!!!!!!!!!!!!%!!!!!!!!!!!!!!": 3855,
      "ďĉďĉďĉďĉ!ďĉďĉďĉ!!)!)!!!!!!!!!!!!!!!!!!!!": 3856,
      "ć%&'(ćĈ!ćĈ!Ĉ!ĈĈĈ!ĈĈĈććĈ!ĈĈ!ĈĈĈĈ!ĈĈ!ĈĈĈĈďĉďĉďĉ!!!!!!!!!!": 3857,
      "ć%&'(ďĉďĉďĉďĉďĉďĉďĉ!ďĉ!ďĉďĉďĉ!ďĉ!ďĉďĉďĉĈ!Ĉ!Ĉ!Ĉ!ććĈćć": 3858,
      "Ĉ!Ĉ!Ĉ!ĈćĈĈ!Ĉ!Ĉ": 3859,
      "Ĉ!ćĈ!ĈĈ": 3860,
      "ď!)": 3861,
      "!!!!!!!!!!!!!!!!!!!!!!!!!!!!!!!!!!!!!ďĉ!!!!": 3862,
      "ďĉďĉďĉďĉďĉďĉďĉďĉ!ćĈ!Č": 3863,
      "%&ď'(ĉ!!": 3864,
      "%&'(!)": 3865,
      ")ďĉďĉ!ďĉ!ďĉ!": 3866,
      "!!!!!!!!!!!!!!!!!!!!!!!!!!!!!!!!!!!!!!!!!!!%!&'(": 3867,
      "ďĉďďĉĉ!": 3868,
      "ďĉďďĉďĉĉ": 3869,
      "01010101'(3": 3870,
      "ćďĉďĉďĉďĉććĈ!Ĉďĉ%&'(Ĉ!Ĉ!ĈĈĈĈĈĈĈĈĈĈĈĈĈĈĈĈĈĈĈĈĈĈĈĈďĉ!": 3871,
      ")!)!!!!!!!!!!!!!!!!!!!!!!!!!!!!!!!!!!!!)!)!!!!!!!!!!!!!!!!": 3872,
      "ć%Ĉ&'(ćĈ": 3873,
      "ďď!ďď": 3874,
      "ďĉ!ďĉďĉďĉďĉćďĉ!%&'(ďĉďĉďĉ": 3875,
      "%&'(ďĉ!!!ďĉďĉďĉ!!ďĉćććĈ!Ĉ!Ĉ!Ĉ!ĈĈĈĈĈĈĈĈĈĈ!ćĈ!Ĉ!": 3876,
      "ďĉďĉ%&'(ďĉďĉďĉ!!ďĉ!ďĉďĉ!ďĉ!ďĉďĉďĉ!": 3877,
      ")!)!!!!!!!!!!!!!!!!!!ďĉććććĈ!ćĈ!Ĉ!ćĈ!Ĉ!ćĈ!ćĈ!Ĉ!": 3878,
      "ďĉ!!!!!!!!!!!!!!!!!!!!!!!!!!!!!!!!!!!ďĉ!ďĉ%&'(ďĉ!": 3879,
      "Ĉ!ĈĈ!ĈĈ!ĈĈ!ćĈ!ćĈ!ćďĉďĉďĉ": 3880,
      "Ĉ!ďĉďĉćĈ!ďĉ!%&'(ććĈ!Ĉ!Ĉ!ĈćĈ!Ĉ!Ĉ!Ĉ!Ĉ!Ĉ!Ĉ!Ĉ!Ĉ!Ĉ!%&'(ďĉďĉ!": 3881,
      "%&'(ďĉďĉďĉďĉďĉ!ďĉďĉďĉ!ćĈ!Ĉ!ćĈ!ćĈ!ćĈ!Ĉ!ććććĈ!ććĈ!ć!": 3882,
      "!ďĉ!!!!!!!!!!!!!!!!!!!!!!!!!!!!!!!!!!!!!!!!!!!!!!!!!!!!": 3883,
      "%ē": 3884,
      ")Ĉ!)": 3885,
      "AL": 3886,
      "B)": 3887,
      "C!!": 3888,
      "ć%ćĈ&'(": 3889,
      "Čĉ": 3890,
      "ĒĖ": 3891,
      "ėĥĤ!": 3892,
      "Ħĉ": 3893,
      "ĦĖ": 3894,
      "ďĉĝ": 3895,
      "ććďćĉ": 3896,
      "ďĉďĉď!ĉ": 3897,
      "ĈĈćĈ!Ĉ!": 3898,
      "ĈĈćĈĈ": 3899,
      "%&'(ćććććććććććć": 3900,
      "ďĉ!ććĈ!ćďĉďĉďĉďĉďĉďĉďĉďĉ": 3901,
      "Ĉ!Ĉĉ!": 3902,
      "ććĈ!ćććĈćććĈĈ!Ĉ!ćĈ!ććĈćĈ!ćĈ!!Č!!Č!": 3903,
      "ććĈ!ćĈ!ĈĈĈ!ĈĈćĈ!Ĉ!Ĉ!ćĈćĈĈĈĈĈćĈĈćĈćĈćĈćĈĈĈćĈĈĈĈĈĈćĈ!Ĉ!ć%&'(": 3904,
      "!!!!!!!!!!!!ććććĈ!ĈĈ%&'(ďĉ!!!!!!!!!!!": 3905,
      "ććććććććĈ!Ĉ!Ĉ!ĈćĈĈ!Ĉ!ĈćĈĈ!ćĈ!Ĉ!ĈĈĈĈćĈĈĈĈ": 3906,
      "ďĉďĉďĉćććĈ!Ĉ!Ĉ!Ĉ!ĈĈĈĈĈĈĈĈĈĈ!ćĈ!Ĉ!ĈćĈĈćĈćĈĈĈćĈĈ%&'(ďĉ": 3907,
      "MMMMďMĉ": 3908,
      "!!!!!!ďĉďĉďĉďĉďĉ!!ďĉ!!ďĉďĉďĉ)!)ďĉďĉďĉďĉďĉ!)!)!ďĉďĉ!!!)!)!!": 3909,
      "ććĈ!Ĉ!Ĉ!ćĈ!Ĉ!": 3910,
      "%&'(ĉĉĉĉ": 3911,
      "ďĉďĉďĉ!!ććććĈ!Ĉ!ćĈ!ćĈ!Ĉ!ććĈ!ĈććĈ!Ĉ!ćĈ!ćĈ!Ĉ!Ĉ!ćĈĈ!": 3912,
      "!!!!!!!!!!!!!!%!&'(!!!!!!!!!!!!!!!!!!!!!!!!!!!!!!!!": 3913,
      "ďĉ!ďĉ!ďĉďĉ%&'(ďĉďĉďĉ": 3914,
      "!!!!!!!!!!!!!!!%!&'(!!!!!!!!!!!!!!!!!!!!!!!!!!!!!!!!": 3915,
      "ć%&'(Ĉ!ĈĈ!Ĉ": 3916,
      "ććććććĈ!ććĈ!Ĉ!Ĉ!Ĉ": 3917,
      "ćĈ!Ĉ!Ĉ!ćĈ!ćĈ!ćĈĈ": 3918,
      "ďĉďĉ!!!)!)!!!!!!!!!!!!": 3919,
      "ďĉďĉďĉďĉďĉ%&'(ďĉĈ!Ĉ!Ĉ!Ĉ!Ĉ!Ĉ!": 3920,
      "LLLLLLLL!LK": 3921,
      "%&'ď(ĉďĉďĉ!": 3922,
      "ćĈćĈĈĈ!ćĈĈ": 3923,
      "!!!!!!!!!!!!!!!!!!!!!!!!!!!!!!!!!!%&'(": 3924,
      "!!!!!!!!!!!!!!!!!!!!!!!!!!!!!!!!!!!!!!!!!%!&'(": 3925,
      "%!!&'(!!!!!!!": 3926,
      "%!!!&'(S": 3927,
      "ďĉďĉ!ďĉ!!ďĉďĉďĉďĉ!": 3928,
      "ćććĈ!Ĉ!Ĉ!Ĉ!Ĉ!Ĉ!ćććććĈ!ćĈĈďĉďĉ!!ďĉ%&'(": 3929,
      "ďĉďĉďĉďĉĈ!ĈĈĈćĈ!ćĈĈĈďĉďĉďĉďĉ%&'(ďĉďĉďĉďĉ": 3930,
      "ČďĉďĉććĈ!ćĈ!ćĈ!ćĈ!ćĈćĈćĈćďĉďĉćĈ!ćĈ!Ĉ!Ĉ!ćĈ!Ĉ!Ĉ!ćĈ!Ĉ!": 3931,
      "!&'(ďĉ))ďĉď": 3932,
      "ććććĈ!ććĈ!ćććĈ!ćććĈćďĉďĉććĈ!ďĉďĉďĉďĉ!ďĉďĉ!!": 3933,
      "!!!SĂĄĆ!!ďĉ!!!!!!RTVa!!!SĂĄĆ!!!!R!!!S": 3934,
      "Ĉ!ĈććĈĈ!Ĉ!ććĈ!Ĉ!ĈĈ!ĈĈĈďĉďĉďĉďĉďĉďĉďĉ%&'(": 3935,
      "ćĈĈ!ćĈ!Ĉ!Ĉ!Ĉ!Ĉ!ĈĈĈćĈ!Ĉ!Ĉ!ćďĉćććďĉ!!ďĉďĉďĉ!": 3936,
      "ďĉ!ďĉ!!!!!!!!!!!ďĉ!ďĉ%&'(": 3937,
      "ćććććććĈ!ćĈ!Ĉ!Ĉ!Ĉ!Ĉ!ćĈ!Ĉ!ćĈććĈćďĉćĈ!Ĉ!Ĉ!Ĉ!Ĉ!Ĉ!Ĉ!Ĉ!": 3938,
      "ďĉďĉďĉďĉďĉ!!ďĉ!!ďĉďĉďĉ)!)ďĉďĉďĉ%&'(ďĉďĉ!": 3939,
      "ćďĉ!ďĉďĉ!!ďĉďĉďĉďĉ!ďĉďĉ!!!!!!!!!!!!!!!!!!!!!!!!!!!": 3940,
      "!!!!!!!!!!!!ďĉ!!ďĉ!!!!!": 3941,
      "ďĉ!ďĉďĉďĉ%&'(ďĉďĉďĉďĉďĉďĉďĉ!!ćććďĉććććććĈ!ććČ": 3942,
      "RTVa!!!SĂĄĆďĉćććďĉ!%&'(ďĉďĉ!": 3943,
      "Ĉ!Ĉ!Ĉ!Ĉ!ĈćĈ!ĈĈ!ĈĈĈćĈćďĉďĉďĉ!!!": 3944,
      "ďĉďĉďĉ%&'(ďĉďĉ!!ďĉ!ďĉďĉ!ďĉ!ďĉďĉďĉ!": 3945,
      "!!!!!ďĉďĉďĉ!ďĉďĉćććććĈ!Ĉ!ćĈĈćďĉćĈ!ććĈ!ćĈ!Ĉďĉ%&'(": 3946,
      "Ĉ!ďĉ!ďĉďĉďĉďĉďĉć%&'(Ĉ!ĈĈ!Ĉ": 3947,
      "ďĉďĉĈ!Ĉďĉ!ďĉ!ďĉćććććććććććĈ!ćĈ!!ććĈ!ććĈ!ćĈ!Ĉ!Ĉ!Ĉ!Ĉ!Ĉ!Ĉ": 3948,
      "%Ĉ!Ĉ&'(": 3949,
      "Ĕ!ďĉďĉďĉďĉćććďĉ!ďĉďĉ!%&'(ďĉ!ďĉ!!Ĉ": 3950,
      "ďĉďĉďĉćďĉďĉďĉďĉ!ććĈ!Ĉ!Ĉ!Ĉ!Ĉ": 3951,
      "ďĐĉ": 3952,
      "ććĈ!ćććĈ!ćććĈ!ćććĈ!Ĉ!Ĉ!ďĉćććĈ!ć%&'(ďĉďĉďĉďĉďĉ!!ďĉ!!!!": 3953,
      "ććććĈ!ĈĈ!ćĈ!ĈĈ!Ĉ!Ĉ!ćĈ!ćĈďĉďĉďĉďĉ!!!!!!!!!ďĉ!!!!!!!!": 3954,
      "ďĉ!!!!ďĉďĉďĉďĉďĉďĉďĉďĉďĉďĉćććĈ!Ĉ!Ĉ!ćĈ!Ĉ!Ĉ!Ĉ!Ĉ!": 3955,
      "ćććććĈ!ćĈ!ććććĈ!ććĈ!ćććĈ!ćććĈćďĉďĉććĈ!ďĉďĉďĉďĉ!ďĉ%&'(ďĉ!!": 3956,
      "Ĉ!Ĉ!ĈĈĈĈĈĈćĈ!ĈĈĈďĉ%&'(%&'(%&'(ďĉďĉďĉďĉ!ďĉďĉ%!!!&'(": 3957,
      "%!L&'(K": 3958,
      "ďĉďĉďĉďĉďĉďĉRTVaďĉććĈ!ćććĈćććĈĈ!Ĉ!ćĈ!ććĈćĈ!ćĈ!!Č!!Č!%&'(": 3959,
      "ďĉďĉďĉďĉďĉ%&'(ďĉĈ!Ĉ!Ĉ!Ĉ!Ĉ!Ĉ!ćďĉďĉďĉćĈ!Ĉ!Ĉ!Ĉ!": 3960,
      "EĈ": 3961,
      "Eďĉ": 3962,
      "ĈćĈ!Ĉ!Ĉ!": 3963,
      "Ĉ%&'(!": 3964,
      "ēĒ!!Ė": 3965,
      "!!!!!!!!%!!!!!!!!!!!!!!!!!!!!!!!!": 3966,
      "ďĉććĈ!Ĉ!": 3967,
      "ďĉ!!!!RTVa!!!SĂĄĆ": 3968,
      "%&'(ććĈ!Ĉ!Ĉ!Ĉ!Ĉ!Ĉ!Ĉ!ĈĈćĈ": 3969,
      "ćĈ!ďĉďĉďĉďĉďĉďĉďĉďĉ": 3970,
      "ćĈ!Ĉ!ĈĈĈ": 3971,
      "ćĈ(": 3972,
      "ćĈćĈĈĈ": 3973,
      "ćĈ!ćĈ!ĈĈ": 3974,
      "ćĈ!ćĈ!ćĈ!Ĉ!Ĉ": 3975,
      "ďĉďĉ!ďĉďĉďĉďĉďĉďĉďĉ!": 3976,
      "ďĉďĉďĉď%&'(ĉ!": 3977,
      "MMMMMM": 3978,
      "ďĉ!ďĉ!!!!!!!!!!!!!!!!!!!!!!!!!!!!!!!!!!!!!!!!!!!!!!!!!!!!": 3979,
      "!!!!!%!!!!!!!&'(": 3980,
      "!L%K&'(": 3981,
      "ď%&'(ĉďĉďĉ!!": 3982,
      "ď%&'(ĉďĉďĉďĉďĉ!": 3983,
      "LLLLL!LK": 3984,
      "ďĉďĉďĉ!!ďĉ!ďĉďĉ!": 3985,
      "!!!!!!!!!!!!!%!!!!!!!!!!!!!!!!!!!!!!!!!!!!!!!!!!!!!!!": 3986,
      "ćĈ!ćĈĈ!Ĉ": 3987,
      "%ď&'(ĉďĉďĉďĉďĉ": 3988,
      "%ď&'(ĉďĉďĉďĉďĉďĉďĉďĉ": 3989,
      "%Ĉ&'(ĈĈĈĈĈĈĈĈĈĈĈĈĈĈĈĈ": 3990,
      "%Ĉ&'(ĈĈĈĈĈĈĈ": 3991,
      "ďĉďĉ%&'(ďĉ!ďĉďĉďĉďĉďĉďĉďĉďĉ": 3992,
      "ďĉććććććĈććĈ!": 3993,
      "ďĉďĉďĉďĉďĉ%&ď'(ĉ": 3994,
      "ďĉďĉďĉďĉďĉďĉďĉ!!!!!!!!!!!ďĉ!!!!!!!!!!!!!!!!!!!!!!!!!!!!!!!!": 3995,
      "Ĉ!ĈćĈ!Ĉ!Ĉ!Ĉćďĉ!ććććććććĈ!Ĉ!ćĈĈćĈ!ĈĈćĈ!ćĈĈćĈ!Ĉ!ćďĉďĉ": 3996,
      "%&'(!ďĉďĉ!ďĉ!!!!!!!!": 3997,
      "!!!!!!!!!!!!!!!!!!!!!!!!!!!!!!!!!!%!!!!!!!!!!!!!!!!!": 3998,
      "ď!ĉďĉ": 3999,
      "ďĉďĉ!ďĉ%!&'(": 4000,
      "ďĉďĉ!ďĉďĉďĉ!!)!)!!!!!!!!!!!!!!!!!!!!": 4001,
      "ďĉďďĉĉ!!": 4002,
      "ćĈ!ćĈ!Ĉ!ĈćĈ!Ĉ!ďĉćĈ!ďĉďĉďĉďĉďĉďĉďĉďĉďĉ%&'(ďĉďĉďĉ": 4003,
      "ďĉďćĉ": 4004,
      "%!!!!!!&'(ďĉ!!!!!!!!!ćććĈ!Ĉ!Ĉ!Ĉ!Ĉ!Ĉ!ĈĈĈĈĈĈĈĈĈĈĈĈ": 4005,
      "ć%Ĉ&'(!Ĉ": 4006,
      "ćĈ!ĈĈĈĈ!ĈĈ!Ĉďĉďĉďĉďĉďĉďĉ!%&'(%&'(": 4007,
      "!&'(ďĉ))ďĉďĉ": 4008,
      ")))ĉ": 4009,
      "ćĈ!ĈĈĈ!ĈĈćĈ!Ĉ!Ĉ!ćĈćĈĈĈĈĈćĈĈ": 4010,
      "ććĈĈććĈćććĈćĈćĈćĈćĈĈćĈĈćĈćĈćĈććĈĈćĈĈĈććĈĈććĈćććĈĈĈĈĈćĈĈćĈ": 4011,
      "ćĈĈĈĈĈĈĈĈĈĈĈĈĈ!ćĈ!ćĈĈĈĈ!Ĉ%&'(ďĉććďĉďĉ!!ďĉććĈ!ĈĈĈĈĈ!": 4012,
      ")!)!ďĉďĉ!!!)!)!!ďĉďĉďĉďĉďĉ!!ďĉ!ďĉďĉďĉďĉ": 4013,
      "ćĈ!ćĈ!Ĉ!ćĈĈ!Ĉ!Ĉ!Ĉ!ćĈćĈĈćĈ!Ĉ!Ĉ!ćĈ!Ĉ!Ĉ!Ĉ!": 4014,
      "%&'(%&'(ďĉ!!ććććććĈććĈ!ďĉćĈ!Ĉ!": 4015,
      "ćďĉďĉ!!ďĉďĉďĉďĉććććĈ!ĈĈ!ćĈ!ĈĈ!Ĉ!Ĉ!ćĈ!ćĈ": 4016,
      "%&'(Ĉ!Ĉ!ććććĈćĈććĈ!ćĈ!Ĉ!Ĉ!Ĉ!ćĈ!Ĉ!ćĈ!ćĈ!Ĉ!ćĈ!ĈćĈ!ĈĈ!Ĉ": 4017,
      "ďĉďĉďĉďĉ!ďĉ!!Ĉ!ĈćĈ!Ĉ!Ĉ!ĈćĈ!ććďĉ!Ĉ!ĈćĈ!Ĉ!Ĉ!ĈćĈ!ćć": 4018,
      "ććĈ!Ĉ!Ĉ!ććĈ!Ĉ!Ĉ!ĈĈ!Ĉ!!ćĈ!Ĉ!Ĉ!Ĉ!ćĈ!ććĈ!ćďĉ!": 4019,
      "ććĈ!Ĉ!ĈĈĈ!Ĉ!Ĉ!ĈĈćĈďĉ!!ďĉďĉ!!!)!)!!!!!%!!!!!!!&'(": 4020,
      "ćĈ!Ĉ!ćĈĈ!ćĈ!ćĈ!ĈĈ!Ĉ!Ĉ!ćĈ!Ĉ!": 4021,
      "ďĉďĉ!!ďĉ!ďĉ!!ďĉďĉďĉ!ďĉććĈ!ďĉ!ďĉ!!ćĈ!%&'(ďĉďĉďĉ": 4022,
      "!!!!!!!ďĉ!!ďĉďĉ!!!ďĉďĉďĉďĉďĉ!ďĉ%&'(ććĈ!Ĉ!Ĉ!Ĉ!Ĉ!Ĉ!Ĉ!ĈĈćĈ": 4023,
      "Ē!!!Ħ": 4024,
      "0010111": 4025,
      "ď)ĉ!": 4026,
      "ďĉ!ďĉďĉďĉďĉďĉďĉďĉďĉďĉďĉ!!ćććďĉ": 4027,
      "ČČďĉďĉďĉ!!!!!ďĉďĉďĉ!ďĉďĉćććććĈ!Ĉ!ćĈĈćďĉ": 4028,
      "ďĉ%&'(ďĉďĉ!ććĈ!ćďĉďĉďĉďĉďĉďĉďĉďĉ": 4029,
      "ćĈ!Ĉ!ĈĈĈĈĈĈććĈ!ćďĉ!!!!!!!!ďĉ!ď%ĉ&'(!": 4030,
      "%Ĉ!Ĉ&'(!": 4031,
      "ďĉďĉďĉ!!!!ďĉ!!!ćććć": 4032,
      "ďĉ!ďĉ!!!!!!ďĉďĉ!!!!ďĉďĉďĉććĈ!Ĉ!ćĈĈ!ćĈ!Ĉ!Ĉ!Ĉ!Ĉ!ĈĈĈ": 4033,
      "%&'(ďĉďĉ!ďĉ!!ďĉ!ďĉďĉďĉďĉ!ďĉ!ďĉďĉďĉďĉďĉďĉďĉ%&'(ďĉďĉďĉ!!": 4034,
      "3232222323232222222222222222222222222222222222222222": 4035,
      "ďĉďĉďĉďĉďĉćććććććĈ!Ĉ!ććććććĈ!ćĈĈ%&'(ďĉďĉ!!ďĉćććĈ!Ĉ!Ĉ!ćĈ!Ĉ!Ĉ": 4036,
      "%&'(ćĈ!ććďĉďĉ!!!!ďĉ!!)ďĉďĉ!": 4037,
      "ćďĉććććććĈ!Ĉ!Ĉ!ćĈ!Ĉ!%&'(Ĉ!Ĉ!Ĉ!!ĈĈ!ĈććĈ!Ĉ!ĈĈ!ĈĈ!Ĉ!ćĈ!ďĉ": 4038,
      ")ę": 4039,
      "Ĉď!": 4040,
      "Ėď": 4041,
      "ĥ&'(": 4042,
      "!!ďĉďĉďĉďĉďĉďĉ!ďĉďĉ!ďĉďĉ!!!ďĉćĈ!Ĉ!ććĈ!ććĈ!ĈĈ!ććĈ!Ĉ!Ĉ": 4043,
      "Ĉ!ćĈ!ć": 4044,
      "ćććĈ!ćĈ!Ĉ!Ĉ!ćĈ!Ĉ!": 4045,
      "ďĉďĉ!!!!!!!!!!!!!!!!!!": 4046,
      "ďĉďĉĦ%&'(%&'(%&'(%&'(%&'(%&'(%&'(%&'(": 4047,
      "Ĉ!Ĉ!ććĈ!Ĉ": 4048,
      "%&'(ĂĄĆ": 4049,
      "%&'(!!!!!!!!!!!!!!!!!!!!": 4050,
      "ćććććĈĈ": 4051,
      "ďĉďĉďĉďĉ%&'(ďĉďĉďĉ!": 4052,
      "ďĉďĉďĉďĉćĈ!ĈĈ!Ĉ!ďĉ!ďĉ!": 4053,
      "ďĉ!%&'ď(ĉ": 4054,
      "ďĉ!Ĉ!Ĉ!Ĉ!Ĉďĉ!!!!!!!!!!!": 4055,
      "%&'(%&'(%&'(ďĉ!!": 4056,
      "Ĉ!Ĉ!Ĉ!Ĉ!ĈĈ": 4057,
      "Ĉ!ĈćĈ!Ĉ": 4058,
      "ćĈĈćĈ!ĈĈćĈ!ćĈĈćĈ!Ĉ!ćďĉďĉćććĈ!ćĈ!Ĉ!Ĉ!ćĈ!Ĉ!ćĈ!Ĉ!Ĉ!Ĉ!ćĈ!Ĉ!": 4059,
      "ććĈ!ĉ": 4060,
      "ďĉ!!ďĉďĉ!ďĉďĉďĉďĉ!": 4061,
      "ďĉ!!ďĉďĉďĉďĉ!!!!ďĉ!!ďĉďĉďĉďĉďĉďĉďĉďĉ!ćĈ!Čďĉďĉ!": 4062,
      "ćĈ!ćĈ!ćć": 4063,
      "ćĈ!ćĈ!Ĉ!ćĈ!ććĈććĈ!!!!!!ďĉćć": 4064,
      "ćĈĈĈĈćĈĈĈćĈ": 4065,
      "!!!!!!!!!%!&'(!!!!!!!!!": 4066,
      "ďĉ%&'(ďĉďĉďĉďĉ!": 4067,
      "ď%&'(ĉďĉďĉďĉďĉďĉ": 4068,
      "ďĉďĉďĉ!!ďĉďĉďĉďĉ!": 4069,
      "ćďĉ!!!!!!": 4070,
      "!!!!!!!!!!!!!!%!!&'(!!!!!!!!!!!!!!!!!!!!!!!!!!!!!!!!": 4071,
      "!!!!!!!!!!!!!!!%!!&'(!!!!!!!!!!!!!!!!!!!!!!!!!!!!!!!!": 4072,
      "!!!!!!!!!!!!!!!%!!!!!&'(!!!!!!!!!!!!!!!!!!!!!!!!!!!!!!!!": 4073,
      "MMMMMMMMMMM": 4074,
      "ďĉććććĈ!": 4075,
      "ďĉćććććć": 4076,
      "Ĉ!Ĉ!Ĉ!ĈĈĈĈĈĈĈĈĈ": 4077,
      "ćĈ!Ĉ!Ĉ!ććĈ!Ĉ!Ĉ!Ĉ!Ĉ!Ĉ!ćĈ": 4078,
      "ćĈ!Ĉ!ĈĈ!ĈĈĈ": 4079,
      "%Ĉ&'(!ĈĈ": 4080,
      "ďĉďĉďĉďĉďĉćďĉ#$ćĈ!ćć%&'(ďĉďĉ!!!!ďĉ!!)ďĉďĉ!": 4081,
      "%&-+/,'(%&-+/,'(\"": 4082,
      "ćĈ!ćĈ!ćĈ!ćĈ!ćĈ!Ĉ!Ĉ!Ĉ!Ĉ!Ĉ!ćĈ!Ĉ!ććĈ!": 4083,
      "ďĉćććĈ!ĈĈ!Ĉ!Ĉ!Ĉ!": 4084,
      "%!!!&'(!!!!!!!!!!!!!!!!!!!!!!!!!!!!!!!!!!!!!!!!!!!!!!!!": 4085,
      "ďĉ!%&'(ďĉďĉďĉďĉ": 4086,
      "!!!!!!!!!!!!!!!!!!!!!!!!!!!!!!!!!!!!!%!!!!!!&'(": 4087,
      "ď%ĉ&'(ďĉďĉ!": 4088,
      "ććĈ!ćĈ!ćĈ!ćĈ!ćĈćĈćĈ!ćĈ!ććĈ!ćĈććĈćĈ!ćĈ": 4089,
      "ďĉďĉďĉďĉďĉďĉďĉďĉ!ďĉďĉďĉďĉďĉďĉďĉďĉ!!": 4090,
      "ćĈ!Ĉ!Ĉ!Ĉ!ćĈ!Ĉ!ćĈ!ćĈ!ćĈ!ćĈ!Ĉ!Ĉ!Ĉ!Ĉ!Ĉ!Ĉ!Ĉ!Ĉ!ĈĈ!": 4091,
      "ćććććććććććĈ!ćĈ!Ĉ!ĈćĈ!Ĉ!": 4092,
      "ć!ć!": 4093,
      "ďĉďĉ!!!!ďĉďĉďĉććĈ!Ĉ!ćĈĈ!ćĈ!Ĉ!Ĉ!Ĉ!Ĉ!ĈĈĈćĈ!Ĉ!Ĉ!ćďĉććć": 4094,
      "%!!!!!&'(!!!!!!!!!!!!!!!!": 4095
    },
    "merges": [
      "! !",
      "!! !!",
      "!!!! !!!!",
      "Ĉ !",
      "ď ĉ",
      "!!!!!!!! !!!!!!!!",
      "ć ć",
      "ďĉ ďĉ",
      "Ĉ Ĉ",
      "Ĉ! Ĉ!",
      "' (",
      "& '(",
      "!!!!!!!!!!!!!!!! !!!!!!!!!!!!!!!!",
      "% &'(",
      "ć Ĉ!",
      "2 2",
      "ĈĈ ĈĈ",
      "ćć ćć",
      "ć Ĉ!Ĉ!",
      "ďĉďĉ ďĉďĉ",
      "ďĉ !",
      "ć Ĉ",
      "22 22",
      "%&'( %&'(",
      "!! !",
      "Ĉ!Ĉ! Ĉ!Ĉ!",
      "Ĉ! Ĉ",
      "ć ĈĈ",
      "ćć Ĉ!",
      "ďĉ !!",
      "ĈĈĈĈ ĈĈĈĈ",
      "ćĈ ćĈ",
      "M M",
      "ĈĈ Ĉ",
      "!!!!!!!! !!!!",
      "ćĈ! ćĈ!",
      "% &",
      "ďĉďĉ !",
      "ćććć ćććć",
      ") !",
      "%&'(%&'( %&'(%&'(",
      "ďĉďĉ ďĉ",
      "&'( !!!!!!!!!!!!!!!!!!!!!!!!!!!!!!!!",
      "Ĉ! ćĈ!Ĉ!",
      "2222 2222",
      "ćć Ĉ",
      "L L",
      ")! )",
      "ćĈ! Ĉ",
      "Ĉ!Ĉ! Ĉ",
      "ćć ćĈ!Ĉ!",
      "ďĉďĉ ďĉ!",
      "!!!!!!!!!!!!!!!!!!!!!!!!!!!!!!!! !!!!!!!!!!!!!!!!",
      "MM MM",
      "ďĉ! ďĉ",
      "%&'( ďĉ",
      "ćĈ! ćĈ!Ĉ!",
      "ďĉďĉ !!",
      "0 1",
      "Ĉ! ĈĈĈ",
      "ćĈĈ Ĉ",
      "%&'(%&'(%&'(%&'( %&'(%&'(%&'(%&'(",
      "ďĉďĉďĉďĉ ďĉďĉďĉďĉ",
      "Ĉ! ĈĈ",
      "!!!! !!",
      "!!!! !",
      "4 4",
      "5 5",
      "6 6",
      "8 8",
      "ć ĈĈĈĈ",
      "ćć Ĉ!Ĉ!",
      "!!!!!!!! !!!",
      "+ /",
      "+/ ,",
      "+/, '(",
      "%&'( ĉ",
      "22222222 22222222",
      "!!!!!!!! !",
      "%& -",
      "! L",
      "% !",
      "!L K",
      "ďĉ %&'(",
      "ď %&'(ĉ",
      "!!!! !!!",
      "% !!!!!!!!!!!!!!!!",
      "ďĉ! ďĉďĉďĉďĉ",
      "Ĉ! ĈĈĈĈ",
      "7 7",
      "LL LL",
      "ĈĈĈĈĈĈĈĈ ĈĈĈĈĈĈĈĈ",
      "ďĉďĉ ďĉ!!",
      "ć ďĉ",
      "ćĈ! ćć",
      "!!!!!!!!!!!! !!",
      "ćĈćĈ ćĈ",
      "ďĉ! ďĉ!",
      "Ĉ!Ĉ!Ĉ!Ĉ! Ĉ!Ĉ!",
      "!!!!!!!! !!",
      "!!!!!!!!!!!! !!!",
      "Ĉ!Ĉ! ćĈ!Ĉ!",
      "&'( ĉ",
      "!!!!!!!!!!!! !",
      "% ď",
      "MMMM MMMM",
      "Ĉ &'(",
      "ćĈ! ććĈ",
      "ćĈ! ćĈ",
      "%ď &'(ĉ",
      ")!) !!!!!!!!!!!!!!!!!!!!!!!!!!!!!!!!",
      "- %&",
      "ďĉďĉďĉďĉ !",
      "% Ĉ&'(",
      "2 3",
      "!!! S",
      "ĉ ĉ",
      "ć ďĉ!",
      "ďĉďĉ %&'(",
      "ćĈćĈ ćĈćĈ",
      "ďĉ ćććć",
      "ćć ćĈ",
      "Ĉ!Ĉ! Ĉ!",
      "%&- +/,'(",
      "Ĉ ćĈĈ",
      "ćććććććć ćććććććć",
      "'( 3",
      "ć %&'(",
      "!LK !LK",
      "Ĉ!Ĉ Ĉ!",
      "ď ď",
      "Ĉ!Ĉ! Ĉ!Ĉ",
      "ćććć ććĈ!",
      "ďĉ !!!!!!!!!!!!!!!!!!!!!!!!!!!!!!!!",
      ") )",
      "+ 01",
      "44 44",
      "55 55",
      "66 66",
      "88 88",
      "ćĈ!Ĉ! Ĉ!",
      "-%& +/,'(",
      "ďĉďĉďĉ %&'(",
      "-%&+/,'( -%&+/,'(",
      "ćĈ!Ĉ! Ĉ",
      "ćĈ! ććĈ!",
      "ďĉ !!!!!!!!!!!!!!!!",
      "%! &'(",
      "ćĈ! ć",
      "ćććć Ĉ",
      "ćĈ!Ĉ! Ĉ!Ĉ!Ĉ!Ĉ!",
      "ďĉ ĉ",
      "ďĉďĉ !!!",
      "ďĉ!! ďĉ",
      "ćĈĈĈĈ Ĉ",
      "ćć Ĉ!Ĉ!Ĉ!Ĉ!",
      "ćććć ćććĈ!Ĉ!",
      "2222 22",
      "'( 7",
      "ćĈ! ĈĈĈ",
      "ďĉďĉďĉďĉ ďĉďĉ!",
      "Ą Ć",
      "Ă ĄĆ",
      "22 2",
      "4 %&",
      "5 222",
      "6 '(7",
      "4%& 5222",
      "4%&5222 6'(7",
      "222222 4%&52226'(7",
      "8 ,",
      "2222224%&52226'(7 8,",
      "%&- +01",
      "ď ďĉĉ",
      "T V",
      "ćĈĈ ćĈĈ",
      "'(3 2222224%&52226'(78,",
      "TV a",
      "ďĉ !!!",
      "%&-+01 '(32222224%&52226'(78,",
      "%&-+01'(32222224%&52226'(78, %&-+01'(32222224%&52226'(78,",
      "Ĉ!Ĉ Ĉ!Ĉ",
      "%Ĉ&'( !",
      "ĈĈĈĈĈĈĈĈ ĈĈĈĈ",
      "ďĉďĉďĉďĉ ďĉ",
      "ćććć Ĉ!",
      "ďĉďĉďĉďĉ ďĉďĉ",
      "% !!",
      "!!!! R",
      "Ĉ!Ĉ! ĈĈ",
      "01 01",
      "ćć Ĉ!Ĉ",
      "%&-+/,'( %&-+/,'(",
      "ćĈ!Ĉ! Ĉ!ćĈ!Ĉ!",
      "ćć ć",
      "LLLL LLLL",
      "ďĉďĉ!! ďĉ",
      "Ĉ! ćĈ!",
      "ćć Ĉ!Ĉ!Ĉ",
      "ćĈ!Ĉ! Ĉ!Ĉ!",
      "23 23",
      "!!!S ĂĄĆ",
      "ććĈ! ć",
      "Ĉ!Ĉ! Ĉ!ćĈ!Ĉ!",
      "ćĈ!ćĈ! ćĈ!ćĈ!",
      "%&'( ďĉďĉ",
      "2222222222222222 22222222",
      "ď !",
      ")!) !!!!!!!!!!!!!!!!",
      "ćć ĈĈ",
      "%! &'(!!!!!!!!!!!!!!!!!!!!!!!!!!!!!!!!",
      "ćĈĈ ćĈ",
      "ďĉ!! ďĉ!",
      "MMMMMMMM MMMMMMMM",
      "# $",
      "ĈĈĈĈ ĈĈ",
      "ďĉ !!!!!!!!!!!!!!!!!!!!!!!!!!!!!!!!!!!!!!!!!!!!!!!!",
      "Ĉ Ĉ!",
      "% ć",
      "ďĉ! ďĉďĉ",
      "ćć ĈĈĈ",
      "ćĈ! ĈĈ",
      "ďĉ ćć",
      "ććĈ! ćć",
      "ďĉďĉďĉďĉ ďĉďĉďĉ",
      "% ĉ",
      "ĈĈ Ĉ!ĈĈĈ",
      "ďĉďĉďĉďĉ ďĉďĉďĉ!",
      "ĈĈĈĈĈĈĈĈ Ĉ",
      "ďĉ !!!!!!!!",
      "%& '",
      "Ĉ!Ĉ ćĈ!Ĉ!",
      "ďĉ! ďĉ!!",
      "ćććĈ!Ĉ! Ĉ!Ĉ!Ĉ!Ĉ!",
      "ĉ !",
      "ď %ĉ",
      ")!) !!",
      "77 77",
      "ćććć Ĉ!ćĈ!Ĉ!",
      "% !!!",
      "&'( !!!!!!!!!!!!!!!!",
      "TVa !!!SĂĄĆ",
      "ć ďĉďĉ",
      "ďĉ! %&'(",
      "ćĈ!ćĈ!Ĉ! Ĉ!",
      "01 1",
      "&'( !",
      "Ĉ!Ĉ!Ĉ !!",
      "-%&+/,'(-%&+/,'( -%&+/,'(-%&+/,'(",
      "ćć Ĉ!Ĉ!Ĉ!Ĉ!Ĉ!Ĉ!",
      "ďĉďĉ ćććć",
      "ćĈ!ćĈ!Ĉ! Ĉ!ćĈ!Ĉ!",
      "0 011",
      "ďĉ! ďĉďĉďĉ!",
      "ćĈ Ĉ!",
      "ćććĈ!Ĉ! Ĉ!Ĉ!",
      "!!!!!!!!!!!!!!!!!!!!!!!!!!!!!!!! !!!!!",
      "ď '(",
      "ďĉ !!!!!",
      "&'(!!!!!!!!!!!!!!!!!!!!!!!!!!!!!!!! !!!!!!!!!!!!!!!!",
      "!!!!!!!!!!!!!!!!!!!!!!!!!!!!!!!! !!!!!!",
      "ćĈ!ćĈ! Ĉ",
      "3 3",
      "ćĈĈĈĈ ĈĈ",
      "ćĈ! ćĈĈ",
      "ďĉ! ďĉďĉ!",
      "!! )!",
      "%&'( !!!!!!!!!!!!!!!!!!!!!!!!!!!!!!!!",
      "ĈĈĈ Ĉ!",
      "!LK!LK !LK!LK",
      "%& ď'(",
      "ćĈĈĈ ćĈĈ",
      "ďĉďĉďĉ! ďĉďĉ!",
      "# .",
      "ď%ĉ &'(",
      "$ #$",
      "ď (",
      "Ĉ!ćĈ!Ĉ! Ĉ",
      "ćĈ!Ĉ Ĉ!",
      "ććĈ! ćĈ!ćĈ!",
      "#. .",
      "!!!!R !!!S",
      "Ĉ!ĈĈĈĈ ĈĈĈ",
      "!!!!!!!!!!!!!!!!!!!!!!!!!!!!!!!! !!!!!!!",
      "ććĈ ćć",
      "ĈćĈĈ ćĈ",
      "ććĈ! ććĈ!",
      "$#$ !!)!",
      "%&-+/,'( #..",
      "Ĉ!Ĉ! ĈĈĈ",
      "%&' ď(",
      "Ĉ!Ĉ!Ĉ Ĉ!Ĉ",
      "ďĉďĉďĉďĉďĉďĉďĉďĉ !",
      "ćĈĈćĈĈ ćĈćĈćĈ",
      "ďĉ! ďĉďĉďĉ",
      "ĈĈ Ĉ!Ĉ!",
      "ćććĈ!Ĉ! Ĉ!",
      "ććććććĈ! ćĈĈ",
      "ćĈ!ćĈ!ćĈ!ćĈ! ćĈ!Ĉ!",
      "ĉĉ ĉĉ",
      "ĈĈĈĈ Ĉ",
      "Ĉ!ĈĈ ćĈ",
      "%&-+/,'(#.. $#$!!)!",
      "Ĉ!ĈćĈ!Ĉ! Ĉ!Ĉ",
      "ćĈ!Ĉ! Ĉ!Ĉ!ćĈ!Ĉ!",
      "Ĉ!Ĉ Ĉ!ĈĈĈ",
      "ćććĈ!Ĉ! Ĉ!Ĉ",
      "%ć &'(",
      "Ĉ!Ĉ!Ĉ!Ĉ! Ĉ!Ĉ!Ĉ!Ĉ!",
      "ćććć ćć",
      "ćććććććć ćć",
      "%!! &'(!!!!!!!!!!!!!!!!!!!!!!!!!!!!!!!!",
      "ďĉ! ďĉ!ďĉ",
      "%&-+/,'(#..$#$!!)! %&-+/,'(#..$#$!!)!",
      "ć ĉ",
      "ďĉďĉďĉďĉ ďĉćććć",
      "%& 5555",
      "4444 4444",
      "5555 222222222222222222222222",
      "6666 6666",
      "8888 ,",
      "8888 8888,",
      "%&5555 5555222222222222222222222222",
      "44444444 %&55555555222222222222222222222222",
      "44444444%&55555555222222222222222222222222 66666666",
      "%&ď'( ĉ",
      "%&'( ďĉ!!",
      "ćĈ! ďĉ!",
      "ć ďĉďĉďĉ",
      "%&-+/,'(%&-+/,'( %&-+/,'(%&-+/,'(",
      "!!!!!!!!!!!!!!!! !!!!!",
      "ďĉ !!!!",
      "ďĉ! ďĉďĉ!!",
      "!!!!!!!!!!!!!!!!!!!!!!!!!!!!!!!! !!!!!!!!!!!!!",
      "ďĉďĉďĉďĉ ďĉ!!",
      "( 7",
      "(7 88888888,",
      "!!!!!! &'(!!!!!!!!!!!!!!!!!!!!!!!!!!!!!!!!",
      "% !!!!!!!",
      ") !!!!!!!!",
      "ďĉ !!!!!!",
      "!!!!!!!!!!!!!!!!!!!!!!!!!!!!!!!! !!!",
      "%&'ď( ĉ",
      "%&'( ďĉďĉďĉ!",
      "2222222222222222 222222222222222222222222",
      "2 44444444%&5555555522222222222222222222222266666666",
      "ć ďĉ!ďĉ",
      "(788888888, -%&",
      "!!!!!!!!!!!!!!!!!!!!!!!!!!!!!!!! !!!!",
      "ć ĈĈĈĈĈĈĈĈ",
      "ćĈ ćĈĈ",
      "ć !",
      "% !!!!!!!!",
      "Ĉ!Ĉ! ćĈ!",
      "Ĉ!ĈĈĈĈ Ĉ",
      "Ĉ!Ĉ!Ĉ!Ĉ! ĈćĈĈ",
      "ćĈ! Č",
      "ďĉďĉ !!!!",
      "%&'( !",
      "ćĈ ććĈ",
      "Ĉ!ĈĈ Ĉ!",
      "Ĉ Ĉ!Ĉ!Ĉ!Ĉ!",
      "!!!!!!!!!!!!!!!!!!!!!!!!!!!!!!!! !!",
      "ć ĈĈĈĈĈĈĈĈĈĈĈĈ",
      "ćĈ!ć Č",
      "Ĉ! ćĈ!ćĈ!",
      "L !LK",
      "!!!!!!!!!!!!!!!!!!!!!!!!!!!!!!!! !!!!!!!!!!",
      "ďĉ! ďĉďĉďĉďĉďĉďĉďĉďĉ",
      "ćĈ!Ĉ ćĈ",
      "ďĉďĉďĉ ć",
      "ď%&'(ĉ !",
      "ĈĈĈĈĈĈĈĈ ĈĈĈ",
      "% !!!!!!!!!!!!!",
      "TVa!!!SĂĄĆ !!!!R!!!S",
      ") ďĉďĉ!",
      "% !!!!",
      "!!!!!!!!!!!!!!!!!!!!!!!!!!!!!!!! !!!!!!!!",
      "% !!!!!",
      "Ĉ! ććĈ!Ĉ!",
      "ćĈ!ćĈ! ćĈ",
      "ćĈ!Ĉ Ĉ!Ĉ!",
      "% !!!!!!!!!!!!",
      "!!!!!!!!!!!!!!!!!!!!!!!!!!!!!!!! !",
      "ćććć ćĈ!ćĈĈ",
      "' 7777",
      "ďĉ !!!!!!!!!!!",
      "ćĈ!Ĉ! ćĈ!Ĉ!",
      "ćĈ!Ĉ!Ĉ ćĈ!Ĉ!",
      "ćććć Ĉ!Ĉ!",
      "!! Č",
      "ććććĈ ććĈ",
      "% !!!!!!!!!!!",
      "ćĈćĈćĈćĈ ćĈćĈćĈćĈ",
      "%&'( ďĉďĉďĉďĉ",
      "ćĈ! ćĈćĈćĈ",
      "ćĈ Ĉ!Ĉ!Ĉ",
      "ćĈĈĈĈĈĈĈĈ ććĈ",
      "ćĈ!ćĈ! ćĈ!ćĈ",
      "ććĈ!ćć ćĈ!ćć",
      "ććĈ! ćĈ!Ĉ",
      "LLLLLLLL LLLLLLLL",
      "ćĈ!ćĈ!Ĉ! ćĈĈ",
      "%&'( ďĉďĉ!",
      "!!!!!!!!!!!!!!!!!!!!!!!!!!!!!!!! !!!!!!!!!!!",
      "ććĈ! ććććĈ",
      "!!!!!!!!!!!!!!!! !!!!!!!!!!!!",
      "Ĉ!ĈĈĈ Ĉ!",
      "ďĉ!!!!!!!!!!!!!!!! !!!",
      "ćĈ Ĉ!ćĈ!Ĉ!",
      "ĈĈĈ!ĈĈĈ ććĈ!",
      "ćććć Ĉ!ĈĈ",
      "ćĈĈĈ Ĉ!Ĉ",
      "ĈĈĈĈ ćĈĈĈĈ",
      "ććĈ ććĈ!",
      "ĈĈĈĈĈĈĈĈĈĈĈĈĈĈĈĈ ĈĈĈĈ",
      "ćĈ!Ĉ! ććĈ!",
      "ćĈ ćĈĈĈĈ",
      "ć %&'(ďĉ",
      "ďĉ!! ďĉďĉďĉďĉďĉďĉ!",
      "ćć ćĈćĈ",
      "ćĈ!Ĉ ććĈĈĈ",
      "Ĉ!ĈĈĈĈ ĈĈ",
      "ćĈćĈćĈćĈ ćĈĈćĈĈćĈćĈćĈ",
      "Ĉ ćĈ!Ĉ!",
      "ĈĈĈĈĈĈĈĈĈĈĈĈĈĈĈĈ ĈĈĈĈĈĈĈĈĈĈĈĈĈĈĈĈ",
      "ćĈ!Ĉ Ĉ!Ĉ",
      "!!!!!!!!!!!!!!!!!!!!!!!!!!!!!!!! !!!!!!!!!",
      "ćĈ!ććĈ ćĈ!ćĈ",
      "!! ćĈ!Ĉ!Ĉ!Ĉ!",
      "ććĈĈ ććĈćć",
      "Ĉ!ĈćĈ!Ĉ!Ĉ!Ĉ ćĈ!ćć",
      "ćĈ!ćĈ! ćĈ!ćĈ!Ĉ!",
      "ćććĈ!Ĉ! ćĈ!Ĉ!",
      "ďĉďĉďĉ! ďĉ",
      "ććĈ! ćĈ!ććĈ!",
      "ďĉ! )!)",
      "!!!!!!!!!!!!!!!!!!!!!!!!!!!!!!!!!!!!!!!!!!!!!!!! !!!!!!!!!!",
      "Ĉ!Ĉ!Ĉ!Ĉ !!",
      "ĈĈĈĈĈĈ ćĈ!ććĈ",
      "ć ďĉďĉďĉďĉ!",
      "! ďĉ",
      "ĈĈĈĈĈĈĈĈĈĈĈĈ ĈĈ!Ĉ!Ĉ!Ĉ!",
      "ďĉ!ďĉďĉďĉďĉ !!",
      "ĈćĈĈćĈ ćĈĈĈćĈĈ",
      "ććććććĈ! ćć",
      "ďĉ ćĈ!Ĉ!",
      "ĈĈĈĈĈĈĈĈĈ Ĉ!ćĈ!Ĉ!",
      "ćć ćĈĈ",
      "ćĈ!Ĉ ćĈćĈćĈ",
      "ďď ďď",
      "ďĉ!ďĉ !!!!!!!!!!!",
      "ďĉďĉďĉďĉ ďĉ!",
      "%!! &'(",
      "Ĉ!ĈĈ!ĈĈĈ Ĉ!ĈĈ!Ĉ",
      "ćĈ!Ĉ!Ĉ! ćĈĈćĈ",
      "!!!! ďĉ!!",
      "ďĉ!ďĉ !!!!!!",
      "ććĈ!Ĉ!Ĉ!Ĉ!Ĉ!Ĉ! ćĈ",
      "% ćĈ",
      "ďĉ!! ďĉďĉ",
      "ĈĈĈĈĈĈĈĈĈ Ĉ!ĈĈ",
      "Ĉ!ćĈ!Ĉ!Ĉ ćĈĈĈ",
      "ď! ĉ",
      "ćććĈ!Ĉ!Ĉ!Ĉ! ĈĈĈĈĈĈĈĈĈĈ!ćĈ!Ĉ!",
      "% !!!!!!!!!!!!!!",
      "!!!!!!!!!!!!!!!!!!!!!!!!!!!!!!!!!!!!!!!!!!!!!!!! !!!!",
      "&'( ďĉ",
      "ćććć ććĈććĈ!",
      "ć ď",
      "ćććććććććććććććć ćććććććć",
      "%ć &",
      "% !!!!!!!!!!",
      "ďĉďĉ! ďĉ",
      "ďĉďĉ! ďĉďĉďĉ!!",
      "!!!!!!!!!!!!!!!!!!!!!!!!!!!!!!!!!!!!!!!!!!!!!!!! !!!!!!!",
      "(788888888,-%& +01",
      "Ĉ!Ĉ!Ĉ! ĈĈĈĈĈĈĈĈĈĈ!ĈĈ",
      "ďĉ!! ďĉďĉ!!!",
      "!!!!!!!!!!!!!!!!!!!!!!!!!!!!!!!!!!!!!!!!!!!!!!!! !!!!!!!!!",
      "ćććććććĈ!Ĉ! Ĉ!ćĈ!Ĉ!",
      "ĥ Ĥ",
      "Ĉ!Ĉ!Ĉ Ĉ!Ĉ!Ĉ!Ĉ!",
      "%!!! &'(",
      "%!!! &'(!!!!!!!!!!!!!!!!!!!!!!!!!!!!!!!!",
      "ćććććććĈ!Ĉ! ććććććĈ!ćĈĈ",
      "ćććĈ!Ĉ!Ĉ!Ĉ!ĈĈĈĈĈĈĈĈĈĈ!ćĈ!Ĉ! ĈćĈĈćĈćĈĈĈćĈĈ",
      "!!!!!!!!!!!!!!!!!!!!!!!!!!!!!!!! !!!!!!!!!!!!",
      "ďĉ!! ďĉďĉďĉ",
      "%!!!!!!!!!!!!! &'(!!!!!!!!!!!!!!!!!!!!!!!!!!!!!!!!",
      "Ĉ !!",
      "MMMMMMMMMMMMMMMM MMMMMMMMMMMMMMMM",
      "Ĉ!Ĉ ćĈ!",
      "% !!!!!!!!!!!!!!!",
      "Ē !!",
      "ďĉďĉďĉďĉ !!",
      "ďĉ ćććććććć",
      "ćĈ!Ĉ ćĈĈ",
      "ććĈ! ćďĉ",
      "%ď&'(ĉ !",
      "ďĉďĉ! ďĉďĉ",
      "ďĉ Ĉ!ĈĈĈĈĈĈĈ",
      "Ĉ!Ĉ!Ĉ!ĈĈĈĈĈĈĈĈĈĈ!ĈĈ Ĉ!ĈĈ!ĈĈĈĈ!ĈĈ!Ĉ",
      "% !!!!!!!!!",
      "Ĉ (",
      "Ĉ! ĉ",
      "ćć ćĈ!",
      "Ė Ė",
      "%&'(ďĉ Ĉ!Ĉ!Ĉ!Ĉ!",
      ")!!!!!!!! )!",
      "Ĉ Ĉ!Ĉ",
      "ďĉďĉ! ďĉ!",
      "ďĉ Ĉ!Ĉ!Ĉ!Ĉ!",
      "ďĉďĉďĉďĉ! ďĉďĉ",
      "!!!!!!!!!!!!!!!!!!!!!!!!!!!!!!!! !!!!!!!!!!!!!!",
      "ďĉďĉďĉďĉ ďĉ%&'(",
      "!!!!!!!!!!!!!!!!!!!!!!!!!!!!!!!!!!!!!!!!!!!!!!!! !!",
      "Ĉ '(",
      "!!!!!!!!!!!!!!!!!!!!!!!!!!!!!!!!!!!!!!!!!!!!!!!! !",
      "%&'( ďĉ!",
      "3 22",
      "ćĈĈĈĈĈ ćĈĈĈĈĈ",
      "ććĈ!Ĉ! Ĉ!Ĉ",
      "!!!!!!!!!!!!!! )!)!!!!!!!!!!!!!!!!!!!!!!!!!!!!!!!!",
      "ďĉ ď%&'(ĉ",
      "ďĉ!ďĉďĉďĉďĉ !",
      "ćććććććć ćććć",
      "ďĉďĉ! ďĉ!!",
      "01 '(3",
      "ćććĈ!Ĉ!Ĉ!Ĉ!Ĉ!Ĉ! ćććććĈ!ćĈĈ",
      "%!!!!!!!! &'(!!!!!!!!!!!!!!!!!!!!!!!!!!!!!!!!",
      "!!!!!!!!!!!!!!!!!!!!!!!!!!!!!!!!!!!!!!!!!!!!!!!! !!!!!!!!",
      "ďĉďĉďĉďĉďĉ )!)",
      "%!!!!!!!!!!!!!!!! !",
      "%!!!!!!!!!!!!!!!! !!",
      "ďĉ ďďĉĉ",
      "ćććć ćĈ!Ĉ!Ĉ!ćĈĈćĈ",
      "%&'(ďĉ ćć",
      ")! )!",
      "!LK!LK!LK!LK !LK!LK!LK!LK",
      "ćĈ!Ĉ Ĉ!ĈĈĈ",
      "23 2222222222222222222222222222222222222222",
      "A A",
      ")!!!!!!!!)! )!)!!!!!!!!!!!!!!!!!!!!!!!!!!!!!!!!",
      "ďĉďĉďĉďĉďĉďĉďĉďĉ ďĉďĉ",
      "ďĉ !!!!!!!!!!!!!!",
      "%!!!!!!!!!!! &'(!!!!!!!!!!!!!!!!!!!!!!!!!!!!!!!!",
      "Ĉ!Ĉ!Ĉ Ĉ!Ĉ!",
      "%&'( ďĉďĉďĉ",
      "Ĉ!Ĉ Ĉ!Ĉ!Ĉ!Ĉ!",
      "%!!!!!!!!!!!! &'(!!!!!!!!!!!!!!!!!!!!!!!!!!!!!!!!",
      "%!!!!!!!!!!!!!!!! !!!!!!&'(!!!!!!!!!!!!!!!!!!!!!!!!!!!!!!!!",
      "ďĉ!!!!!!!!!!!!!!!!!!!!!!!!!!!!!!!!!!!!!!!!!!!!!!!! !!!!",
      "!!!!!!!!!!!!!!!!!!!!!!!!!!!!!!!! !!!!!!!!!!!!!!!",
      "ďĉďĉďĉďĉ ďĉďĉ%&'(",
      "%!!!!!!!!!!!!!!!! !!!",
      "Ĉ! ćć",
      "ďĉ !!!!!!!!!!!!",
      "ďĉďĉďĉ!! ďĉďĉ",
      "3 2323",
      "ć (",
      "!!!!!!!!!!!!!!!!!!!!!!!!!!!!!!!!!!!!!!!!!!!!!!!! !!!!!!!!!!!",
      "ćĈ! ďĉ",
      "ćĈ!ćĈ!Ĉ! ĈćĈ!Ĉ!",
      "%!!!!!!!!!!!!!!! &'(!!!!!!!!!!!!!!!!!!!!!!!!!!!!!!!!",
      "Ĉ!Ĉ!Ĉ Ĉ!",
      "ďĉ!ďĉ !!!",
      "&'( !!!!",
      "ćĈ! ĈĈĈĈ",
      "%!!!!!!!!!!!!!! &'(!!!!!!!!!!!!!!!!!!!!!!!!!!!!!!!!",
      "%&'( ďĉďĉďĉďĉďĉďĉďĉďĉ",
      "%&'(ďĉ !!!",
      "Ĉ!Ĉ!Ĉ!Ĉ!ĈćĈĈ Ĉ!ĈĈĈ",
      "ďĉ!!!!!!!!!!!!!!!! !!",
      "ć !!",
      "Ĉ!ĈĈ Ĉ!Ĉ!Ĉ",
      ")!)!!!!!!!!!!!!!!!! !!!!",
      "ďĉďĉ! ďĉďĉćććć",
      "ććććĈ ćĈ",
      "% !!!!!!&'(!!!!!!!!!!!!!!!!!!!!!!!!!!!!!!!!",
      "Č ďĉ",
      "!!!!!!!!!!!!!!!! !!!!",
      "ďĉďĉ! ďĉďĉ%&'(",
      "ććĈ!Ĉ! Ĉ!ćĈ!",
      "77 7",
      "ďĉ!!ďĉ !!!!!!!!!!!",
      "ďĉ ď",
      "ćĈ!Ĉ! Ĉ!Ĉ!Ĉ!",
      "Ĉ!ćĈ!Ĉ! Ĉ!ćĈ!Ĉ!",
      "ďĉďĉďĉďĉ ćććć",
      "Č ďĉďĉ",
      "Ĉ!Ĉ! Ĉ!ĈĈĈ",
      "Ĉ!Ĉ!Ĉ!Ĉ! Ĉ!Ĉ",
      "ćĈĈĈ ćĈ",
      "ććććĈ!ĈĈ %&'(ďĉ",
      "ćĈ!Ĉ ćĈ!Ĉ!",
      "%! Ĉ&'(",
      "Ĉ! ďĉďĉ!",
      "R TVa",
      "ćć Ĉ!ĈĈ!",
      "!!!!!!!!!!!!!!!!!!!!!!!!!!!!!!!!!!!!!!!!!!!!!!!! !!!!!",
      "ďĉ ććĈ!",
      "%&'(%&'( %&'(",
      "ďĉďĉ )",
      "ćĈ!Ĉ! ĈĈ",
      ")!) !!!!!!!!",
      "ćĈ!Ĉ!Ĉ ćĈ!",
      "%!!!!!!!!!!!!!!!!!! &'(!!!!!!!!!!!!!!!!!!!!!!!!!!!!!!!!",
      "Ĉ( !",
      "ćĈ!Ĉ !!",
      "Ĉ!Ĉ!ĈĈ Ĉ!",
      "!!! ďĉďĉďĉďĉ",
      ")!) !!!!!!!!!",
      "%&'( !!!!!!!!!!!!!!!!",
      "ďĉ!!ďĉ! ďĉďĉ!",
      "ćććććććć ććććĈ!",
      "!!!!!!!!!!!!!!!!!!!!!!!!!!!!!!!!!!!!!!!!!!!!!!!! !!!",
      "ĈĈĈĈ Ĉ!",
      "ć ďĉ%&'(",
      "Ĉ!Ĉ!Ĉ!Ĉ! ĈĈĈĈ",
      "ćĈćĈ ćĈ!Ĉ!",
      "ćĈ!ćĈ! ćďĉďĉďĉďĉ!",
      "%!!!!!!!!!!!!!!!! &'(!!!!!!!!!!!!!!!!!!!!!!!!!!!!!!!!",
      "ćććĈ ćć",
      "Ĉ!ćĈ!Ĉ! Ĉ!Ĉ!Ĉ!!",
      "ććĈ!ć ďĉďĉďĉďĉďĉďĉďĉďĉ",
      "Ĉ! ćĈ!ĈćĈ",
      "%!!!! &'(!!!!!!!!!!!!!!!!!!!!!!!!!!!!!!!!",
      "0 0011",
      "ďĉ %ď&'(ĉ",
      "Ĉ!Ĉ!Ĉ!Ĉ! Ĉ!Ĉ!Ĉ",
      "Ĉ!Ĉ Ĉ!Ĉ!Ĉ!Ĉ",
      "Ĉ! ććĈĈ",
      "Ĉ!Ĉ! ćĈĈ",
      "%!!!!!!!!!!!!!!!!! &'(!!!!!!!!!!!!!!!!!!!!!!!!!!!!!!!!",
      "Ē !",
      "Č Č",
      "ćĈ ćĈ!ćĈ",
      "ďĉ!!!!!!!!!!!!!!!!!!!!!!!!!!!!!!!! !!!",
      "%!!!!!!!!!!!!!!!!!!! &'(!!!!!!!!!!!!!!!!!!!!!!!!!!!!!!!!",
      "Ĉ! ďĉďĉ",
      "ćĈ!Ĉ! ćĈ",
      "% !!!!!!",
      "Ĉ'( !",
      "%ćĈ &'(!",
      "ďĉďĉďĉ!! ďĉ!",
      "ďĉ!!ďĉ !!!!!!!!",
      "%!!!!!!!!!!!!!!!! !!!!",
      "ďĉďĉ !!!!!!!!!!!!!!!!!!!!!!!!!!!!!!!!",
      "Ĉ!Ĉ! ćĈ!ĈĈ!",
      "Ĉ!ĈĈ Ĉ!ĈĈ",
      "ďĉďĉ!!ďĉ !!!!",
      "Ĉ! %&'(ďĉďĉďĉ!",
      "ćĈĈĈ ććĈ",
      "ćĈĈĈĈĈ ćĈ",
      "Ĉ! ďĉ!ďĉďĉďĉďĉ",
      "ďĉ!!! ćććć",
      "ćĈ ććć",
      "Ĉ!Ĉ ććĈ",
      "R TVa!!!SĂĄĆ!!!!R!!!S",
      "Ĉ!Ĉ! ĈĈĈĈĈĈ",
      "ćĈ! ćĈĈĈ",
      "Ĉ!Ĉ!Ĉ!Ĉ Ĉ!Ĉ",
      "%!!!!! &'(!!!!!!!!!!!!!!!!!!!!!!!!!!!!!!!!",
      ") !!!!!!!!!!!!!!!!!!!!!!!!!!!!!!!!",
      "ďĉďĉ!! ďĉ!ďĉ!!",
      "%!!!!!!! &'(!!!!!!!!!!!!!!!!!!!!!!!!!!!!!!!!",
      "ć %Ĉ&'(!",
      "!! ćććć",
      "Ĉ! Č",
      "ćĈ!ćĈ! ćĈ!Ĉ!",
      "ćĈĈ ććĈĈĈ",
      "ććĈ! ćĈĈ",
      "ćĈćĈ ćĈćĈćĈ",
      "Ĉ!ďĉďĉ! ďĉćććć",
      "ćĈĈĈ ććĈĈĈ",
      "ćććĈ ććĈ",
      "ĈĈ! ććĈ!Ĉ!",
      "ćć ćĈ!ćĈ!",
      "ďĉćććć Ĉ!ćĈ!ćĈ!",
      "ććĈ!Ĉ!Ĉ!Ĉ! Ĉ!ďĉďĉ!ďĉćććć",
      "ćĈ!ćĈ!ćĈ!ćĈ! ćĈ!ćĈćĈćĈ",
      "ćĈ!ćĈ!Ĉ Ĉ!Ĉ!",
      "ćĈ!ćĈ!ćĈ!ćĈ ćĈ!ćĈ!Ĉ!",
      "Čďĉ ćĈ!ćĈ!ćĈ!ćĈćĈ!ćĈ!Ĉ!",
      "ĈĈ!ććĈ!Ĉ! ČďĉćĈ!ćĈ!ćĈ!ćĈćĈ!ćĈ!Ĉ!",
      "ďĉććććĈ!ćĈ!ćĈ! ĈĈ!ććĈ!Ĉ!ČďĉćĈ!ćĈ!ćĈ!ćĈćĈ!ćĈ!Ĉ!",
      "ććĈ!Ĉ!Ĉ!Ĉ!Ĉ!ďĉďĉ!ďĉćććć ćĈ!Ĉ!Ĉ!Ĉ!Ĉ!Ĉ!",
      "ćĈ!ćĈ!ćĈ!ćĈ!ćĈ!ćĈćĈćĈ ďĉďĉ!",
      "ćć ćĈ!ćĈ!ćĈ!ćĈ!ćĈ!ćĈćĈćĈďĉďĉ!",
      "Ĉ!ĈĈĈ ćĈ!ćĈĈĈ",
      "ďĉďĉďĉďĉďĉćććć Ĉ!ćĈ!ĈćĈ",
      "Ĉ!Ĉ!Ĉ!Ĉ!ĈćĈĈ ćĈĈĈĈĈ",
      "ďĉććććĈ!ćĈ!ćĈ!ĈĈ!ććĈ!Ĉ!ČďĉćĈ!ćĈ!ćĈ!ćĈćĈ!ćĈ!Ĉ! ććĈ!ĈĈ!",
      "ćĈ!Ĉ! ĈĈĈĈĈĈ",
      "ďĉďĉďĉďĉ Ĉ!ĈĈĈćĈ!ćĈĈĈ",
      "Ĉ!ćĈ!Ĉ! ĈĈĈ!ĈĈĈććĈ!",
      "ććĈ ćĈćĈćĈ",
      "ćĈ!ćć ćĈ!ćć",
      "Ĉ!ĈĈ! ććĈ!Ĉ!Ĉ",
      "ćĈ!ććĈ! ćĈ!ććĈ!",
      "ćććććććĈ!Ĉ! Ĉ!Ĉ!Ĉ!ćĈ!Ĉ!",
      "ćďĉ!ďĉ ćććĈ!ćĈ!ćĈ!ćĈ!ćĈ!ćĈćĈćĈďĉďĉ!",
      "ďĉďĉďĉďĉďĉććććĈ!ćĈ!ĈćĈ Ĉ!Ĉ!Ĉ!Ĉ!ĈćĈĈćĈĈĈĈĈ",
      "ĈĈ ćĈćĈćĈ!Ĉ!",
      "Ĉ!Ĉ! ĈĈĈĈ",
      "ććĈ!Ĉ! ĈĈĈ!Ĉ!",
      "ććĈ!Ĉ!Ĉ ćĈĈĈććĈĈĈ",
      "ćććććć ćĈ!ćĈ!Ĉ!",
      "ćĈ!Ĉ!ććĈ! ĈĈćĈćĈćĈ!Ĉ!",
      "ćĈĈĈĈĈćĈĈĈĈĈ ćĈ!ĈĈĈ",
      "Ĉ!Ĉ!ĈĈĈĈĈĈ ćĈ!ĈĈĈ",
      "ďĉććććĈ!ćĈ!ćĈ!ĈĈ!ććĈ!Ĉ!ČďĉćĈ!ćĈ!ćĈ!ćĈćĈ!ćĈ!Ĉ!ććĈ!ĈĈ! ćĈĈ!Ĉ!Ĉ",
      "ććĈ!Ĉ!ĈĈĈ!Ĉ! Ĉ!ĈĈćĈ",
      "ćĈ!Ĉ!ććĈ!ĈĈćĈćĈćĈ!Ĉ! ĈćĈĈ",
      "ĈĈĈĈĈĈĈĈĈĈĈĈĈĈĈĈ ĈĈĈĈĈĈĈĈĈĈĈ",
      "ććĈ!ćĈ!ćĈ! ćĈ!ćĈćĈćĈ",
      "ćĈ!ćĈ!Ĉ!ćĈĈ ćĈ!Ĉ!ććĈ!ĈĈćĈćĈćĈ!Ĉ!ĈćĈĈ",
      "ďĉďĉďĉ!!ďĉ! ććĈ!Ĉ!Ĉ!Ĉ!Ĉ!ďĉďĉ!ďĉćććććĈ!Ĉ!Ĉ!Ĉ!Ĉ!Ĉ!",
      "ćďĉ!ďĉćććĈ!ćĈ!ćĈ!ćĈ!ćĈ!ćĈćĈćĈďĉďĉ! ćććććććĈ!Ĉ!Ĉ!Ĉ!Ĉ!ćĈ!Ĉ!",
      "ĈĈĈĈĈĈĈĈ Ĉ!Č",
      "ćĈĈĈ ććĈ!Ĉ!",
      "ĈĈĈĈĈĈĈĈĈĈĈĈĈĈĈĈ ĈĈ!",
      "ćĈ!ĈĈĈ Ĉ!ĈĈ!Ĉ",
      "ććĈ!ćć Ĉ!ĈĈ!ććĈ!Ĉ!Ĉ",
      "ďĉ!)!) !!!!!!!!!!!!!!",
      "ćĈ!Ĉ!ĈĈĈĈĈĈ ććĈ!ćďĉ",
      ") !!!!!!!!!!!!!!!",
      "ćĈ! ćććĈ!Ĉ!Ĉ!",
      "ćĈ!Ĉ! ćĈĈ",
      "ćĈ!ćĈ! ćĈ!Ĉ!Ĉ!",
      "ććććĈ! ććĈ!ć",
      "ććĈĈ ćĈĈĈ",
      "ćĈ!ćĈ!Ĉ!Ĉ! ćĈ!ćĈ!Ĉ!ćĈĈćĈ!Ĉ!ććĈ!ĈĈćĈćĈćĈ!Ĉ!ĈćĈĈ",
      "!!Č !",
      "ĈĈĈĈĈĈĈĈĈĈĈĈĈĈĈĈĈĈĈĈ ĈĈĈ",
      "Ĉ!ćć ćĈ!ććĈ!",
      "ćććĈćć ćĈĈćĈ",
      "ććĈćĈćĈćĈ ćĈ!",
      "ćććććććĈ!ćĈ!Ĉ! Ĉ!Ĉ!Ĉ!ćĈ!Ĉ!",
      "ććĈ! ćĈ!ććĈ",
      "ććĈ! ĈĈĈĈĈ!",
      "ćććĈ Ĉ!Ĉ!",
      "Ĉ!Ĉ!Ĉ! ćĈĈĈććĈ",
      "ćĈ!ĈĈĈ ćć",
      "ē ē",
      "ćĈ! ććććććĈ!",
      "ćĈ!Ĉ! Ĉ!Ĉ!Ĉ!Ĉ!Ĉ!Ĉ!",
      "ćĈ!ćĈ! ććĈ",
      "Ĉ!ćĈ! ćĈĈĈĈ!Ĉ",
      "ćĈ!ćĈ!Ĉ Ĉ!ćĈ!Ĉ!ĈĈĈ!ĈĈĈććĈ!",
      "ĈĈĈĈ! ććĈ",
      "Ĉ!%&'(ďĉďĉďĉ! ))",
      "ďĉďĉďĉďĉďĉććććĈ!ćĈ!ĈćĈĈ!Ĉ!Ĉ!Ĉ!ĈćĈĈćĈĈĈĈĈ Ĉ!%&'(ďĉďĉďĉ!))",
      "Ĉ!ćććĈ!ććĈ! ćĈ!ĈĈĈćć",
      "!! ďĉ!!!!!!",
      "Ĉ!Ĉ!Ĉ!Ĉ! ĈĈĈĈĈĈĈĈĈ!Č",
      "Ĉ!Ĉ!Ĉ!Ĉ!Ĉ!Ĉ! ĈĈĈ!Ĉ!",
      "ďĉ!!! ćććĈ",
      "Ĉ!ĈĈĈ! ĈĈĈĈĈĈĈĈĈĈĈĈĈĈĈĈĈĈ!",
      "ććććĈćĈ ććĈ!",
      "ďĉďĉďĉďĉ ďĉ!!ďĉ",
      "Ĉ!Ĉ ćć",
      "ćććććććć Ĉ!",
      "Ĉ!ĈĈĈ Ĉ!Ĉ",
      "ććĈ!Ĉ!Ĉ!Ĉ! Ĉ",
      "ććĈ!ć ďĉďĉďĉďĉ",
      "ďĉ!!ďĉ! ććĈ!",
      "ďĉćć ĈĈĈĈĈ",
      "&'(!!!!!!!!!!!!!!!! !!!!!!",
      "ććĈ!ćććĈ!ćć ćĈ!ćććĈ!Ĉ!Ĉ!",
      "ćĈ!Ĉ!! Ĉ!ćĈ!ćĈ!",
      "ćĈĈĈććĈ!Ĉ! ććĈ!ćć",
      "ćĈćĈ ćĈĈĈćĈ",
      "ćććĈ!Ĉ! Ĉ",
      "ćĈ!ćĈ !!",
      "Ĉ!ĈĈ! ĈĈĈĈĈĈĈĈĈĈĈĈĈĈĈĈĈĈĈĈĈĈĈĈĈĈĈ",
      "ďĉ!!!!! ćĈ!Ĉ",
      "ćććććććĈ!ćĈ!Ĉ!Ĉ!Ĉ!Ĉ!ćĈ!Ĉ! ćĈććĈ",
      "ćĈ!Ĉ! ććĈ",
      "ćĈ ćĈ!ććĈ",
      "Ĉ!ĈĈ Ĉ!ĈĈĈĈ",
      "!!!!!!!!!!!!!!! ďĉ!!!!!!!!!!!!!!!!!!!!!!!!!!!!!!!!",
      "ćĈćĈĈ Ĉ!Ĉ",
      "ćĈ!ćĈ!Ĉ!ćĈĈ ćĈ!Ĉ",
      "Ĉ!ĈĈĈĈ! ĈĈĈĈĈĈĈĈ",
      "ćĈćĈĈĈĈ ĈĈĈ",
      "Ĉ!Ĉ!Ĉ!ĈĈĈĈĈĈĈĈĈĈ!ĈĈĈ!ĈĈ!ĈĈĈĈ!ĈĈ!Ĉ ďĉĈ!ĈĈĈĈĈĈĈ",
      "Ĉ!Ĉ!Ĉ!ćĈĈĈććĈ Ĉ!ćććĈ!ććĈ!ćĈ!ĈĈĈćć",
      "ćĈ!ććććććĈ! ćĈ!ććĈ",
      "Ĉ!Ĉ!Ĉ!Ĉ! ćĈ!",
      "ćĈĈ Ĉ!Ĉ!ćĈ!Ĉ!",
      "ĈĈĈĈĈĈĈĈĈĈĈĈĈĈĈĈ ĈĈĈĈĈĈĈĈ",
      "ćććĈ ććććĈććĈ",
      "ćĈĈćĈĈ ćĈĈĈĈĈćĈ",
      "ďĉ!ďĉďĉ !!!!!!!!!!!!!!!!!!!!!!!!!!!!",
      "ććĈ!ććććĈ ćĈćĈćĈ",
      "ĈĈ!Ĉ ććĈ!Ĉ!Ĉ",
      "Ĉ!Ĉ!ĈĈ!Ĉ! Ĉ!ĈĈĈĈ",
      "Čďĉďĉ ććĈ!ćĈ!ćĈ!ćĈ!ćĈćĈćĈ",
      "ćĈ!Ĉ!!Ĉ!ćĈ!ćĈ! ććĈ!Ĉ!",
      "!!!!!!!!!!!!!!!! !!!!!!!!!!!",
      "ćć ćďĉ",
      "ďĉďĉ! ďĉ%&'(",
      "Ĉ!Ĉ!Ĉ Ĉ!Ĉ!ĈĈĈ",
      "Ĉ!Ĉ!Ĉ Ĉ!Ĉ!ĈĈ!Ĉ",
      "Ĉ!ĈĈĈ Ĉ!ĈĈĈĈ",
      "ďĉ!ďĉďĉďĉďĉ ďĉďĉďĉ",
      "ććććĈ! ćććĈććĈ",
      "ćććĈćććĈĈćĈ ćĈ!Ĉ!",
      "Ĉ!Ĉ!Ĉ!Ĉ!ĈĈĈĈĈĈĈĈĈ!Č ďĉ!",
      "ď ćĉ",
      "Ĉ!Ĉ Ĉ!Ĉ!ćĈ!",
      "ďĉďĉďĉ!! ďĉ",
      "ććĈ!Ĉ!Ĉ!Ĉ! Ĉ!ĈĈ!",
      "ćĈ!ĈĈĈ !!ćććć",
      "ććĈ!Ĉ ććććĈ",
      "ćĈĈĈćĈĈ ćććć",
      "ćććĈ!Ĉ!Ĉ! ććĈ",
      "%!!!!!!!!!! &'(!!!!!!!!!!!!!!!!!!!!!!!!!!!!!!!!",
      "ćĈ!Ĉ!ĈĈĈĈĈĈććĈ!ćďĉ !!!!!!!!",
      "ćć ĈĈĈĈćĈĈĈĈ",
      "&'( ćďĉ!ďĉćććĈ!ćĈ!ćĈ!ćĈ!ćĈ!ćĈćĈćĈďĉďĉ!ćććććććĈ!Ĉ!Ĉ!Ĉ!Ĉ!ćĈ!Ĉ!",
      "ćĈ Ĉ!Ĉ!Ĉ!Ĉ!",
      "ćĈ!Ĉ ćĈ!ććĈ",
      "!!!!!!!!!! ďĉ!!!!!!",
      "Ĉ!Ĉ!ćĈ!Ĉ! ĈĈĈ",
      "ćĈĈćĈĈ ćĈ!ćććĈ!ćć",
      "!!Č !!Č!",
      "ćĈćĈćĈćĈćĈćĈćĈćĈ ćĈćĈćĈćĈ",
      "ććĈ!ćĈ!Ĉ Ĉ!ćĈ!Ĉ!",
      "&'(ďĉ ))",
      "Ĉ!ććĈĈ ććĈ!ćĈĈ",
      "Ĉ!ĈĈĈĈ!Ĉ Ĉ!ĈĈĈĈ",
      "ďĉ!!!!!ćĈ!Ĉ ćĈ!ćĈ!ĈĈ!ćĈ!Ĉ!ĈĈĈ!ĈĈĈććĈ!",
      "Ĉ!ćĈ!Ĉ! Ĉ!Ĉ!Ĉ!Ĉ!",
      "ćĈĈĈ Ĉ!Ĉ!ćĈ!Ĉ!",
      "ćĈĈĈ Ĉ!Ĉ!ćĈ!",
      "ćĈĈĈ ćĈ!ĈĈĈĈ",
      "ćĈćĈćĈ ćĈĈĈ",
      "ďĉ!!!!!!!!!!!!!!!!!!!!!!!!!!!!!!!!!!!!!!!!!!!!!!!! !!!!!!!!!",
      "ćĈ!ĈĈ ćĈ!ćĈ!Ĉ!Ĉ!ćĈ!ćĈ!Ĉ!ćĈĈćĈ!Ĉ!ććĈ!ĈĈćĈćĈćĈ!Ĉ!ĈćĈĈ",
      "ććĈ!ćĈ!ćĈ! ĈćĈĈ",
      "ćĈĈćĈĈćĈćĈćĈ ććĈćĈćĈćĈćĈ!",
      "ćĈ!ćĈ!ćĈ!ćĈ!ćĈ!Ĉ! ćĈ!ćĈ!Ĉ!ćĈĈćĈ!Ĉ",
      "ćĈ!ĈĈ!Ĉ! ďĉ!ďĉ!",
      "ćĈ ććĈ!ćĈ!ćĈ!ĈćĈĈ",
      "ććĈ!Ĉ! Ĉ!ććĈ!Ĉ!",
      "ďĉ!!!!! ďĉ!)!)!!!!!!!!!!!!!!",
      "Ĉ!Ĉ!ĈĈ!Ĉ Ĉ!Ĉ!ĈĈ",
      "ććĈ!ćććĈ!ćć ćĈ",
      "ćććĈ!Ĉ!ćĈ!Ĉ! ĈĈĈĈ!ććĈ",
      "ćĈććć !!",
      "ćććĈććććĈććĈ ććććĈććĈ",
      "ćĈ!Ĉ! Ĉ!Ĉ!Ĉ!Ĉ",
      "Ĉ!ĈĈ Ĉ!Ĉ!Ĉ!Ĉ!Ĉ!Ĉ!Ĉ!Ĉ!",
      "ćĈćĈćĈćĈ ćĈćĈćĈćĈćĈ",
      "ććĈ!Ĉ ććĈ!Ĉ!",
      "Ĉ!ĈĈĈĈĈĈĈ Ĉ!ĈĈĈĈĈ",
      "ĈĈĈĈĈ ćĈćĈ",
      "Ĉ!ĈĈ!ĈĈĈĈĈĈĈĈĈĈĈĈĈĈĈĈĈĈĈĈĈĈĈĈĈĈĈ Ĉ!Ĉ!Ĉ!Ĉ!ĈĈĈĈĈĈĈĈĈ!Čďĉ!",
      "ďĉďĉďĉďĉ ďĉ!ďĉ",
      "ććĈ! ćĈ!Ĉ!Ĉ!ćĈ!Ĉ!",
      "ćććĈ!Ĉ! ćććĈĈ",
      "ćĈ!ćć ćĈ!ććĈ",
      "Ĉ!Ĉ!ĈĈ ćĈ!Ĉ!",
      "ććĈ!Ĉ ćĈćĈ",
      ")!!!!!!!! )",
      "Ĉ!ĈĈĈĈĈĈ Ĉ!Ĉ!Ĉ!ĈĈ!Ĉ",
      "Ĉ!Ĉ!Ĉ Ĉ!Ĉ!Ĉ!!",
      "ćĈĈĈĈ ĈćĈĈćĈ",
      "Ĉ!ĈĈ!Ĉ Ĉ!ĈĈĈ!ĈĈĈĈ",
      "ćĈ!Ĉ!Ĉ!Ĉ! ćĈ!ćć",
      "ĈĈĈĈĈĈĈĈĈĈĈ Ĉ!Ĉ!",
      "! &'(ďĉ))",
      "ćć ćĈĈĈĈĈ",
      "ćĈ!ćĈ!Ĉ! ćĈ!Ĉ",
      "ććĈ!Ĉ!Ĉ!Ĉ! ćĈĈĈ!Ĉ!ćĈ!Ĉ!",
      "ććććĈ! ććĈ!ćććĈ!ćććĈ",
      "Ĉ!ćĈ! ďĉ!!!!!!!!",
      "ćĈ!ĈĈ Ĉ!ĈĈ",
      "ćĈ!ĈĈ ćĈĈćĈ",
      "ćććĈ!Ĉ!Ĉ!Ĉ Ĉ!Ĉ!ćĈ!Ĉ!",
      "Ĉ!ĈĈĈĈĈ Ĉ!Ĉ!Ĉ",
      "ćĈććĈ Ĉ!ĈĈĈ",
      "ććććĈ!Ĉ! ććĈ!ĈććććĈ",
      "ćććĈĈ!Ĉ! ćĈ!ććĈćĈ!ćĈ",
      "!!!!!!!!!!!!!!!!!!!!!!!!!!!!!!!!!!!!!!!!!!!!!!!! !!!!!!",
      "ććĈ!Ĉ! ĈĈĈ",
      "Ĉ!Ĉ!ćĈ!Ĉ! Ĉ!Ĉ!ćĈ!Ĉ!",
      "ćĈ!ććĈ ććĈ",
      "ćĈ!Ĉ!Ĉ!Ĉ!Ĉ!Ĉ! ĈĈ",
      "ćĈ!ĈĈĈ ćĈćĈćĈĈĈćĈ",
      "Ĉ!ćĈ! ĈĈĈĈ",
      "ćĈ!ĈĈ ćĈ!ćĈĈ",
      "ćĈ!ćĈ!ćĈ!ćĈ!ćĈ!Ĉ! Ĉ!Ĉ!ĈĈ!",
      "ćććććććććć ćĈ!Ĉ",
      "Ĉ!ćĈ!Ĉ!ĈćĈĈĈ ćĈĈĈćĈĈćććć",
      "00011 1",
      "ććććĈćĈććĈ! ćĈ!Ĉ!Ĉ!Ĉ!ćĈ!Ĉ!",
      "ććĈ!Ĉ!Ĉ!Ĉ!Ĉ!ĈĈ! ćĈ!ćĈ!ćĈ",
      "ďĉďĉďĉďĉ ďĉďĉ!!!",
      "ććĈ Ĉ!Ĉ!ĈĈĈ!",
      "ćĈĈĈ ćĈ!ĈććĈĈĈ",
      "Ĉ!Ĉ!Ĉ!Ĉ!Ĉ!Ĉ! Ĉ!ĈĈ!",
      "0101 0101",
      "ćĈ!ĈćĈ Ĉ!Ĉ!ćĈ!ĈĈ!",
      "ćĈĈĈĈĈĈĈĈććĈ ćĈĈ!",
      "ćĈ!ćĈ!ćĈ!Ĉ! ććććĈ!ććĈ!ć",
      "ďĉ!!!ćććĈ ćĈ!ćĈ!ĈĈ!Ĉ!",
      ")) )",
      "ćĈĈĈĈĈĈ ćĈĈĈĈ",
      "ććĈ!Ĉ!ĈćĈĈĈććĈĈĈ ććĈ!Ĉ!Ĉ!Ĉ!Ĉ!Ĉ!ćĈ",
      "ćĈ!ććććććĈ!ćĈ!ććĈ ćććĈćććĈĈćĈćĈ!Ĉ!",
      "Ĉ!Ĉ! Ĉ!ĈĈĈĈĈĈĈĈ!ĈĈĈĈĈ",
      "ćććććććĈ!Ĉ! Ĉ!ććĈĈććĈ!ćĈĈ",
      "ććĈ!Ĉ Ĉ!ĈĈĈĈ!ĈĈ!ĈĈĈĈ",
      "Ĉ!Ĉ!Ĉ!ćĈ!Ĉ! ćĈ!ćĈ!ćĈ!ćĈ!",
      "ćććĈ!Ĉ!Ĉ!Ĉ!Ĉ!Ĉ! ĈĈĈĈĈĈĈĈĈĈĈĈ",
      "ćĈ!ćĈ!ćĈ ćĈ!ćĈ",
      "ďĉćĈ!Ĉ! ććĈ!ććĈ!ĈĈ!ććĈ!Ĉ!Ĉ",
      "Ĉ!Ĉ!ĈĈ!Ĉ!ĈĈĈ Ĉ!Ĉ!ĈĈ!Ĉ!Ĉ!!",
      "ćĈ!ćććĈ!ććĈ ćĈ!ććĈ",
      "Ĉ!Ĉ! ĈĈĈĈĈĈĈĈĈĈĈĈĈĈĈĈĈĈĈĈĈĈĈĈ",
      "ćĈ Ĉ!Ĉ!ĈĈĈ",
      "ććĈ!Ĉ!Ĉ!Ĉ! ćĈ!Ĉ!!Ĉ!ćĈ!ćĈ!ććĈ!Ĉ!",
      "Ĉ!ĈĈ!Ĉ!Ĉ!Ĉ! ĈĈ",
      "ććĈĈćĈĈĈ ććĈĈććĈćć",
      "ćĈ!Ĉ!ććĈ ćĈ!",
      "ććĈĈĈĈćĈĈĈĈ ćĈĈĈĈĈĈĈĈććĈ",
      "Ĉ!Ĉ!ĈĈ!ĈĈ!Ĉ!ĈĈ Ĉ!ĈĈĈĈ!ĈĈĈĈ",
      "ďĉďĉ!! ćććĈ!Ĉ!ćĈ!Ĉ!ĈĈĈĈ!ććĈ",
      "ćĈ!Ĉ!ćĈ!Ĉ! ćĈ!Ĉ!Ĉ!Ĉ!Ĉ!",
      "Ĉ!ĈĈĈĈ! ĈĈĈĈĈĈĈĈĈĈĈĈ!Ĉ!",
      "ćĈĈĈĈĈĈĈĈĈĈĈĈ Ĉ!ćĈ!ćĈĈĈĈ!Ĉ",
      "ććĈ!ććććĈ ć!!",
      "ćĈ!Ĉ!ĈĈ ćĈ",
      "Ĉ!Ĉ!Ĉ!Ĉ!Ĉ!Ĉ!Ĉ Ĉ!ĈĈ!ĈĈ!ĈĈĈ!ĈĈĈĈ",
      "ćĈĈććĈĈĈ ćĈ!ĈćĈ!ććĈ",
      "ćĈĈĈĈ!Ĉ!ćĈ!Ĉ! ćĈĈĈćĈ!ĈĈĈĈ",
      "ćĈ!ćĈ!Ĉ! ććĈ!ĈććĈ!Ĉ!",
      "ćĈĈĈĈĈćĈĈĈĈĈćĈ!ĈĈĈ ćĈ",
      "ćĈĈĈććĈ!Ĉ!ććĈ!ćć ćĈćĈćĈćĈćĈĈćĈĈćĈćĈćĈ",
      "ćĈĈćĈĈćĈĈĈĈĈćĈ ćĈĈćĈĈćĈćĈćĈććĈćĈćĈćĈćĈ!",
      "ĈĈ!ĈććĈ!Ĉ!Ĉ Ĉ!ĈĈ!Ĉ!ćĈ!",
      "ćććĈ!Ĉ!ćććĈĈ ćĈ!ĈĈĈ!!ćććć",
      "ć ďĉďĉďĉďĉďĉďĉďĉ!",
      "ćĈ!Ĉ Ĉ!ĈĈĈ!Ĉ!Ĉ!Ĉ!Ĉ!Ĉ!Ĉ!Ĉ!",
      "%!!!!!!!!!!!!!!!! !!!!!",
      "ćĈ!Č ďĉďĉďĉ!ďĉďĉ!",
      "ććĈ!ćĈ!ććĈ ćĈććć!!",
      "ćĈćĈćĈćĈĈĈ ćĈĈĈĈĈĈ",
      "ććĈ!ĈćĈćĈ ćĈ!ĈćĈĈ",
      "ćĈ!ćĈ! ćĈ!ĈĈ!Ĉ!",
      "ćććĈ!Ĉ! Ĉ!ćĈ!Ĉ!Ĉ",
      "!!!!!! )!!!!!!!!)",
      "Ĉ!Ĉ!Ĉ!Ĉ!Ĉ!Ĉ! ĈĈĈ",
      "ćĈ!Ĉ!Ĉ!Ĉ!Ĉ!Ĉ! Ĉ!ćĈ!ďĉ!!!!!!!!",
      "Ĉ!Ĉ!ĈĈ Ĉ!Ĉ!Ĉ!Ĉ!ĈĈĈĈ",
      "ććĈ!Ĉ!Ĉ Ĉ!ĈĈĈ",
      "ćĈ!ĈĈ! ććĈ!ćĈ!ĈĈ!ćĈ!Ĉ!",
      "ćĈĈ!ćĈ!Ĉ! ĈĈĈĈćĈĈĈĈ",
      "ććććććĈ!ćć ćĈ!ćć",
      "ćĈ!ćĈ!ććĈ ćĈ!Ĉ!Ĉ!Ĉ!ćĈ!ćć",
      "ćĈ!ćĈ!Ĉ!ćĈ!Ĉ ćĈ!ĈĈ!Ĉ",
      "Ĉ!Ĉ!Ĉ!Ĉ! Ĉ!ćĈ!ĈĈĈĈ",
      "ćĈ!ćć ĈĈĈĈĈćĈćĈ",
      "Ĉ!Ĉ!Ĉ! ćĈ!ćĈ",
      "ććĈ!Ĉ!Ĉ!Ĉ! ćććĈ!Ĉ!Ĉ!ććĈ",
      "ĈĈĈ!ĈĈĈććĈ! ćĈćĈĈĈ!Ĉ",
      "ćĈćĈĈĈĈ ĈćĈĈ",
      "Ĉ!Ĉ!Ĉ!Ĉ!Ĉ!Ĉ!ĈĈĈ!Ĉ! ĈĈĈĈ",
      "ććććĈ!ćććĈććĈ ćććĈććććĈććĈććććĈććĈ",
      "ćĈĈ!Ĉ!Ĉ!Ĉ! ćĈćĈĈ",
      "Ĉ!ĈĈĈĈĈĈ!Ĉ!Ĉ Ĉ!ĈĈĈĈ!ĈĈĈĈĈĈĈĈ",
      "ćććć ćďĉ!",
      "ďĉďĉ!!! )!)!!",
      "ďĉďĉ!ďĉ! )",
      "ćĈćĈĈĈĈĈĈĈ ćĈĈĈĈĈĈ",
      "ćććććććć Ĉ!Ĉ!Ĉ!Ĉ!",
      "Ĉ!Ĉ!Ĉ ćĈĈĈĈ",
      "ćĈĈĈ ćĈ!ĈĈĈĈ!ĈĈ!Ĉ",
      "ĈĈĈĈĈĈĈĈĈĈĈĈĈĈĈĈĈĈĈĈ ĈĈĈĈ!",
      "ćĈ!ćĈ!ćĈ!ćĈ!Ĉ! Ĉ!Ĉ",
      "ćĈ!ĈćĈćĈćĈ ćĈ!Ĉ!ĈćĈ!Ĉ!",
      "ććĈ!ććććĈćĈćĈćĈ ććććĈ!Ĉ!ććĈ!ĈććććĈ",
      "ćĈ!ććĈććĈ !!!!!!",
      "Ĉ!ĈĈ ďĉ!!",
      "ćĈ!ććĈ!ćĈ!ććĈ! ćĈććĈ!ćĈ!ćĈ!ĈćĈĈ",
      "ććĈ!Ĉ!ĈĈĈ !!ćĈ!Ĉ!Ĉ!Ĉ!",
      "ćććĈ ćććĈĈ!Ĉ!ćĈ!ććĈćĈ!ćĈ",
      "ćĈ!Ĉ!Ĉ ćĈććĈĈ!ĈĈĈ",
      "ĈĈĈ!ĈĈĈ ććĈ!ĈĈ!ĈĈĈĈ!ĈĈ!ĈĈĈĈ",
      "Ĉ!ĈĈćĈ Ĉ!Ĉ",
      "Ĉ!ĈććĈ Ĉ!Ĉ!",
      "Ĉ!Ĉ!ĈĈ!Ĉ!ĈĈ!Ĉ Ĉ!Ĉ!ĈĈ!ĈĈ!Ĉ!ĈĈĈ!ĈĈĈĈ!ĈĈĈĈ",
      "ćĈ!ĈĈćĈ!ćĈĈ ćĈ!Ĉ!",
      "ćĈ!Ĉ! ćĈ!ćĈ!ćĈ!Ĉ!ććććĈ!ććĈ!ć",
      "ćććććććććććććććć ććććććĈ!",
      "!!!SĂĄĆ !!ďĉ!!!!!!",
      "ćĈĈ!ćĈ!Ĉ! Ĉ!Ĉ!Ĉ!ĈĈĈ",
      "!!ćĈ!Ĉ!Ĉ!Ĉ! ćĈ!ććĈ!",
      "ćĈ!ĈĈĈ!ĈĈ ćĈ!Ĉ!Ĉ!",
      "ćĈćĈćĈ ćććĈćĈ",
      "ćććĈ ćĈ!ćĈ",
      "ćĈ!ćĈ!ćĈ!ćĈ!ćĈ!Ĉ! ćĈ!ćĈ!Ĉ!Ĉ!ćĈ!Ĉ!",
      "ćĈ!ĈććĈĈĈ ćĈĈĈćĈ!ĈććĈĈĈ",
      "Ĉ!ćĈ!Ĉ!Ĉ!ćĈ!Ĉ! Ĉ!ĈĈ!",
      "ććĈ!ĈĈĈĈĈ! ćďĉďĉ",
      "ććĈĈćĈĈĈććĈĈććĈćć ćĈĈĈĈĈćĈĈćĈ",
      "ćĈ!Ĉ!ćĈ!Ĉ!ćĈ!Ĉ!Ĉ!Ĉ!Ĉ! ćĈ!ćĈ!ćĈ!ćĈ!ćĈ!Ĉ!ćĈ!ćĈ!Ĉ!ćĈĈćĈ!Ĉ",
      "ďĉ!ďĉ !!!!!!!!!!!!!!!!",
      "ĈĈĈĈĈĈĈĈĈĈĈĈĈĈĈĈ ĈĈĈĈ!",
      "ďĉďĉďĉ!! )!)!!!!!!!!!!!!!!!!!!!!",
      "ćĈ!Ĉ!Ĉ! ććĈ!ćĈ!Ĉ!Ĉ!ćĈ!Ĉ!",
      "ćĈ!Ĉ!ćĈ ććĈ!Ĉ!",
      "ďĉ%&'( ďĉďĉ",
      "Ĉ!Ĉ!ćĈ!Ĉ! ĈĈ!",
      "Ĉ!Ĉ!Ĉ!! ćĈĈĈĈ!Ĉ!ćĈ!Ĉ!ćĈĈĈćĈ!ĈĈĈĈ",
      ")!)!!!!!!!! ďĉ!ďĉďĉ",
      "ćĈ!Ĉ!ććĈćĈ! ĈĈĈĈĈĈćĈ!ććĈ",
      "LL !LK",
      "!!!!!!!!! ćććĈ!Ĉ!Ĉ!Ĉ!Ĉ!Ĉ!ĈĈĈĈĈĈĈĈĈĈĈĈ",
      "ďĉ!ďĉ! ďĉ!ďĉ!",
      "ĈĈĈ!ĈĈĈ Ĉ!ĈĈ!Ĉ!Ĉ!Ĉ!ĈĈ",
      "ďĉďĉďĉďĉďĉ!! ďĉ!ďĉ!",
      "ćććĈ!Ĉ!Ĉ!Ĉ!ĈĈĈĈĈĈĈĈĈĈ!ćĈ!Ĉ!ĈćĈĈćĈćĈĈĈćĈĈ ďĉ",
      "ćĈćĈ!ććĈ !!",
      "ććĈ!Ĉ!Ĉ!Ĉ!Ĉ!ĈĈ!ćĈ!ćĈ!ćĈ ćĈ!ćĈ!ćĈćĈ!ćĈ",
      "ć%&'( ďĉ!",
      "ćĈ!ććĈ! ćĈ!Ĉ",
      "ććĈĈććĈćć ćĈćĈćĈćĈćĈĈćĈĈćĈćĈćĈ",
      "ćććććććććććć ČďĉďĉććĈ!ćĈ!ćĈ!ćĈ!ćĈćĈćĈ",
      "ććĈĈ!Ĉ!ĈĈĈ! ććĈ!Ĉ!Ĉ",
      "ćĈ!Ĉ!ĈĈćĈ ćĈĈĈĈĈĈĈĈĈĈĈĈ",
      "ććĈ!ćĈ!ćĈ! ćďĉ",
      "Ĉ!Ĉ!ĈĈĈĈ Ĉ!Ĉ!Ĉ!",
      "ćĈĈććĈĈĈćĈ!ĈćĈ!ććĈ Ĉ!Ĉ!ĈĈćĈ!Ĉ!",
      "ćĈ!ĈĈ!ĈĈĈ!Ĉ!Ĉ!Ĉ!Ĉ!Ĉ!Ĉ!Ĉ! Ĉ!Ĉ!Ĉ!Ĉ!ćĈ!",
      "Ĉ!Ĉ! ćĈ!ĈĈćĈ!ćĈ!Ĉ!Ĉ!ćĈ!ćĈ!Ĉ!ćĈĈćĈ!Ĉ!ććĈ!ĈĈćĈćĈćĈ!Ĉ!ĈćĈĈ",
      "ćĈĈ ćĈĈĈĈĈĈćĈĈĈĈ",
      "ćććĈ!Ĉ! Ĉ!Ĉ!Ĉ!Ĉ",
      "ćĈ!Ĉ!Ĉ!Ĉ!Ĉ!Ĉ! Ĉ",
      "!!!!R TVa!!!SĂĄĆ",
      "ĈĈĈĈĈĈĈĈĈĈĈĈĈĈ!Ĉ!Ĉ!Ĉ! ĈĈĈĈ",
      "Ĉ!ĈćĈ! ćĈĈĈĈĈćĈĈĈĈĈćĈ!ĈĈĈćĈ",
      "ćĈ!ĈĈ!ĈĈĈ Ĉ!Ĉ!Ĉ!ĈĈĈĈĈĈĈĈ!ĈĈĈĈĈ",
      "Ĉ!Ĉ!ĈĈĈĈĈĈćĈ!ĈĈĈ %&'(ďĉ",
      "ćĈ!ĈĈ!Ĉ!ďĉ!ďĉ! ďĉďĉďĉ!!",
      "ćĈĈĈĈĈĈĈĈĈĈĈĈĈ!ćĈ!ćĈĈĈĈ!Ĉ %&'(ďĉćć",
      "ĈĈĈĈĈĈĈĈĈĈĈĈĈĈĈĈĈĈĈĈĈĈĈĈ! ĈĈĈĈĈĈĈĈĈĈĈĈĈĈĈĈĈĈĈĈĈĈĈ",
      "ď !!",
      "ććĈ! ćĈ!Ĉ!",
      "ćĈ!ćĈ!Ĉ! ććĈ!Ĉ!Ĉ!Ĉ!ćĈĈĈ!Ĉ!ćĈ!Ĉ!",
      "ćĈ!ćĈ!ćĈ!ćĈ!Ĉ! Ĉ!Ĉ!Ĉ!Ĉ!Ĉ!Ĉ!Ĉ!ĈĈ!",
      "ďĉ!!!!!!!!!!!!!!!!!! ďĉ!!!!!!!!!!!!!!!!!!!",
      "ćĈćĈ!ćĈ Ĉ!",
      "Ĉ!ćĈ!Ĉ!Ĉ!Ĉ!Ĉ!Ĉ! ćĈ!ćĈ!ćĈ!Ĉ!Ĉ!",
      "ććććććććĈ!Ĉ!Ĉ!Ĉ! ćĈĈĈĈ!Ĉ!ćĈ!",
      "Ĉ!Ĉ!ĈĈĈĈĈĈćĈ!ĈĈĈ%&'(ďĉ %&'(%&'(%&'(",
      "ćĈĈĈĈĈĈĈĈĈĈĈĈĈ!ćĈ!ćĈĈĈĈ!Ĉ%&'(ďĉćć ďĉďĉ!!ďĉ",
      "ćĈ!ćĈ!Ĉ! ćĈĈ!Ĉ!Ĉ!Ĉ!ćĈćĈĈ",
      "ďĉćććć ććĈ!ććĈ!",
      "Ĉ!ĈĈĈĈĈĈ!Ĉ!ĈĈ!ĈĈĈĈ!ĈĈĈĈĈĈĈĈ %&'(ďĉ",
      "ďĉďĉ!!! ďĉćĈ!Ĉ!ććĈ!ććĈ!ĈĈ!ććĈ!Ĉ!Ĉ",
      "ćĈ!Ĉ!Ĉ!ćĈ!Ĉ! ćĈ!ćĈ!ćĈ!ćĈ!Ĉ!Ĉ!Ĉ",
      "ćĈ!ćĈ!Ĉ!Ĉ! ćĈĈ!",
      "ĈĈĈĈĈĈćĈ!ććĈ ćĈ!ćĈ!Ĉ!",
      "ćĈ!Čďĉďĉďĉ!ďĉďĉ! ďĉďĉďĉ!ďĉďĉ!",
      "Ĉ!Ĉ!Ĉ!Ĉ!Ĉ!Ĉ!ĈĈĈ Ĉ!ĈĈĈĈĈĈĈ!Ĉ!Ĉ!ĈĈ!Ĉ",
      "%&'(ďĉ !!!!!!!!!!!!!!!!!!!!!",
      "ćĈ!ćĈ!Ĉ! ćĈ!Ĉ!Ĉ!ćĈ!Ĉ!",
      "ćĈĈ!Ĉ!Ĉ ćĈĈ!ćĈ!Ĉ!ĈĈĈĈćĈĈĈĈ",
      "ćććĈ!Ĉ! Ĉ!Ĉ!Ĉ!ćĈ!Ĉ!",
      "!!!!R TVa!!!SĂĄĆ!!!!R!!!S",
      "ćĈ!Ĉ!ĈćĈ!Ĉ! ćĈ!ććĈĈĈĈĈćĈćĈ",
      "%&'(%&'( ďĉ!!",
      "%!!!!!!!!!!!!!!!! !!!!!!!",
      "ćĈĈĈĈ!Ĉ ććĈ!ććććĈć!!",
      "ďĉďĉďĉ!!ďĉ!ććĈ!Ĉ!Ĉ!Ĉ!Ĉ!ďĉďĉ!ďĉćććććĈ!Ĉ!Ĉ!Ĉ!Ĉ!Ĉ! ďĉ!%&'(",
      "% ćć",
      ")!) !!!!!!!!!!!!!!!!!!!!!!!!!!!!!!!!!!!!!!!!!!!!!!!!",
      "ćĈ!Ĉ!Ĉ ćĈ!Ĉ!Ĉ!",
      "ćĈĈ! ćĈ!ćĈ!Ĉ",
      "Ĉ!ććĈ!Ĉ! Ĉ!ĈćĈ!Ĉ!",
      "Ĉ!Ĉ!Ĉ!Ĉ!Ĉ!Ĉ Ĉ!Ĉ!",
      "Ĉ!Ĉ!ćĈ!Ĉ!Ĉ!Ĉ!ćĈ!Ĉ! ćĈ!ĈćĈ!Ĉ!",
      "ćĈĈĈĈĈĈĈĈććĈćĈĈ! ććĈĈĈĈćĈĈĈĈćĈĈĈĈĈĈĈĈććĈ",
      "ćĈ!ćććĈ!ććĈćĈ!ććĈ ćććĈ!Ĉ!Ĉ!Ĉ!",
      "Ĉ!Ĉ!Ĉ!Ĉ! ćććĈ!",
      "ćďĉ #$",
      ")!)!!!!!!!!!!!!!!!!!!!!!!!!!!!!!!!! !!!!!!",
      ")!)!!!!!!!!!!!!!!!!!!!!!!!!!!!!!!!! )!)!!",
      "ćĈ!ćĈ!! ććĈ!ććĈ!",
      "ććććĈćĈććĈ!ćĈ!Ĉ!Ĉ!Ĉ!ćĈ!Ĉ! ćĈ!ćĈ!Ĉ!ćĈ!ĈćĈ!ĈĈ!Ĉ",
      "ććććććććććććććććććććććĈ! ććĈ!ćĈ!ććĈ!",
      "ďĉ%&'( !",
      "ćććććććććććććććć Ĉ!Ĉ!ćĈ!Ĉ!ĈĈ!",
      "ďĉ!!ďĉďĉďĉ )!)",
      ") ććććććććććććĈ!",
      "Ĉ!Ĉ! ćĈ!ććĈ!ćĈ!ććĈ!ćĈććĈ!ćĈ!ćĈ!ĈćĈĈ",
      "ćććć ćĈ!Ĉ!Ĉ!Ĉ!Ĉ!Ĉ!",
      "ććĈ! ćĈ!ćĈ!Ĉ!Ĉ!ćĈ!Ĉ!",
      "ďĉćććć ćććĈ!ćĈ!",
      "Ĉ!ĈĈ!Ĉ !!ćĈ!Ĉ!Ĉ!Ĉ!ćĈ!ććĈ!",
      "ćĈ!Ĉ!Ĉ!Ĉ! Ĉ!ĈĈĈ!Ĉ!Ĉ",
      ")!)! ďĉďĉ!!!)!)!!",
      "Ĉ! ĈĈĈĈĈĈĈĈĈĈĈĈĈĈĈĈĈĈĈĈ!",
      "ďĉ!!!!!!!!!!!!!! ďĉďĉďĉďĉ",
      "ćĈ!ĈćĈĈ!Ĉ!ćĈ!ĈĈ! ććĈ!ćĈ!ććĈćĈććć!!",
      "!!!!!!!!!!!!!!!! !!",
      "ďĉďĉďĉďĉ! ďĉďĉ!!",
      "%ć& '",
      "ćĈ!ććććććĈ!ćĈ!ććĈćććĈćććĈĈćĈćĈ!Ĉ! ćĈ!ĈćĈćĈćĈćĈ!Ĉ!ĈćĈ!Ĉ!",
      "Ĉ!Ĉ!ĈĈĈ!Ĉ!Ĉ!Ĉ!ĈĈĈĈ Ĉ!ĈĈĈĈ!ĈĈĈĈĈĈĈĈĈĈĈĈ!Ĉ!",
      "ćĈ!ććĈććĈ!!!!!! ďĉćć",
      "%&'( ďĉďĉ!!ďĉ",
      "ĈĈĈĈĈĈĈĈĈĈĈĈĈĈĈĈĈĈĈĈĈĈĈĈĈĈĈĈĈĈĈĈ ĈĈĈĈĈĈĈĈĈĈĈĈĈĈĈĈ",
      "Ĉ!ĈĈĈ!ĈĈĈĈĈĈĈĈĈĈĈĈĈĈĈĈĈĈ! ďĉ!!",
      "ćććĈćććĈĈ!Ĉ!ćĈ!ććĈćĈ!ćĈ !!Č!!Č!",
      "ďĉďĉ ď%&'(ĉ",
      "ćĈ!ćĈ! ććććĈ!ććĈ!ćććĈ!ćććĈ",
      "ćććĈ Ĉ!ćĈ!Ĉ!ĈćĈĈĈćĈĈĈćĈĈćććć",
      "ććććććĈ!ćć Č",
      "ćććĈ!Ĉ!Ĉ!ĈĈ!Ĉ!ćĈ!Ĉ! Ĉ!ĈćĈ!Ĉ!Ĉ!Ĉ",
      "ććĈ!ććććĈćĈćĈćĈććććĈ!Ĉ!ććĈ!ĈććććĈ ćĈćĈćĈćĈćĈćĈćĈćĈćĈ",
      "ćććććććć Ĉ!Ĉ!ćĈĈ",
      "ćĈ!ćĈ!Ĉ!Ĉ!ćĈ!Ĉ! ćĈ!Ĉ!Ĉ!Ĉ!ćĈ!Ĉ!",
      "ććĈ!ćĈ!ććĈ! ćĈ!ćĈ!ććĈćĈ!Ĉ!Ĉ!Ĉ!ćĈ!ćć",
      "ćĈćĈćĈćĈćĈćĈćĈćĈćĈćĈćĈćĈ ććĈ!Ĉ!",
      "ďĉďĉďĉ! ďĉďĉćććć",
      "ďĉ!ďĉ Ĉ!Ĉ!ćĈ!Ĉ!ĈĈĈ",
      "ććććĈ!ćĈ!Ĉ! Ĉ!ćĈ!Ĉ!",
      "Ĉ!Ĉ!ĈćĈĈĈĈ Ĉ!Ĉ!Ĉ!Ĉ!Ĉ!Ĉ!ĈĈĈ!Ĉ!ĈĈĈĈ",
      "ććććĈ! ćĈ!ĈĈ!ććĈ!ćĈ!ĈĈ!ćĈ!Ĉ!",
      "ćććććććĈ!Ĉ!ććććććĈ!ćĈĈ %&'(ďĉďĉ",
      "ćĈ!Ĉ!Ĉ!Ĉ!Ĉ!Ĉ!Ĉ!Ĉ! ćĈ!ćĈ!Ĉ!ĈćĈ!Ĉ!",
      "ćĈćĈĈĈĈĈćĈĈ ćĈćĈćĈćĈĈĈćĈĈĈĈĈĈ",
      "ćĈ!Ĉ!ććĈćĈ!ĈĈĈĈĈĈćĈ!ććĈ ććĈ!ćĈ!Ĉ",
      "ćĈ!ćć Ĉ!Ĉ!Ĉ",
      "ćďĉďĉďĉ Ĉ!ĈĈĈĈ",
      "ĈĈĈĈĈĈĈĈĈĈĈĈĈĈ!Ĉ!Ĉ!Ĉ! Ĉ!ĈĈĈ!ĈĈ",
      "ćĈĈćĈĈĈĈĈĈćĈĈĈĈ ćĈĈćĈĈćĈ!ćććĈ!ćć",
      "ćććĈ!Ĉ! ćĈ!Ĉ!Ĉ",
      "Ĉ!ĈĈ! ćĈ!Ĉ",
      "%&'(ďĉ!! ďĉ!!",
      "ććććććććĈ! ćććĈ!Ĉ!",
      "ćĈ!ćĈ!ćĈ!ćĈ!ćĈ!Ĉ!Ĉ!Ĉ!ĈĈ! %&'(ďĉ!!!!!!!!!!!!!!!!!!!!!",
      "ďĉ !!!!!!!!!!!!!",
      "Ĉ!ćĈ!Ĉ!Ĉ!Ĉ!Ĉ!Ĉ!ćĈ!ćĈ!ćĈ!Ĉ!Ĉ! ćĈ!ĈĈĈćĈćĈćĈĈĈćĈ",
      "Ĉ! ď",
      "ďĉďĉ!! ďĉ!!ďĉďĉ",
      "!!!!!!! ďĉ!!ďĉďĉ!!!",
      "ćĈ!Ĉ!Ĉ!Ĉ!Ĉ!Ĉ! Ĉ!Ĉ!Ĉ!Ĉ!",
      "ďĉ!!!ćććć ćĈ!ĈĈ!ĈĈĈ!Ĉ!Ĉ!Ĉ!Ĉ!Ĉ!Ĉ!Ĉ!Ĉ!Ĉ!Ĉ!Ĉ!ćĈ!",
      "ćććĈ!Ĉ!ćććĈĈćĈ!ĈĈĈ!!ćććć !!!!!!!!!!!!!!!!!!!!",
      "Ĉ!ĈććĈĈ!Ĉ! ććĈ!Ĉ!ĈĈ!ĈĈĈ",
      "ćĈ!Ĉ!Ĉ!ććĈ!ćĈ!Ĉ!Ĉ!ćĈ!Ĉ! ćĈ!ćĈ!ćĈ!ćĈ",
      "Ĉ!Ĉ!Ĉ!Ĉ!! Ĉ!Ĉ!Ĉ",
      "ćĈĈ!ćĈ!Ĉ!Ĉ!Ĉ!Ĉ!ĈĈĈ ćĈ!Ĉ!Ĉ!",
      "ďĉďĉďĉ! ďĉďĉďĉ!!",
      "ďĉ!ďĉ !!!SĂĄĆ!!ďĉ!!!!!!",
      "ćďĉ !!!!!!!!!",
      "ććĈ!Ĉ!ĈĈĈ!Ĉ!Ĉ!ĈĈćĈ ďĉ!!ďĉďĉ!!!",
      "ććĈ!Ĉ!Ĉ!Ĉ!Ĉ!ĈĈ!ćĈ!ćĈ!ćĈćĈ!ćĈ!ćĈćĈ!ćĈ ćĈ!ććĈćĈ!ćĈ",
      "ďĉ! Ĉ!ĈćĈ!Ĉ!Ĉ!ĈćĈ!ćć",
      "ćďĉ ććć",
      "ćĈĈ!Ĉ!ĈĈĈ ćĈćĈ!ććĈ!!",
      "ĈĈĈĈĈĈĈĈĈĈĈĈĈĈ!Ĉ!Ĉ!Ĉ!ĈĈĈĈ Ĉ!Ĉ!Ĉ!Ĉ!Ĉ!Ĉ!ĈĈ!ĈĈ!ĈĈ!ĈĈĈ!ĈĈĈĈ",
      "ćĈ!ćĈ!Ĉ!ćĈĈ!Ĉ!Ĉ!Ĉ!ćĈćĈĈ ćĈ!Ĉ!Ĉ!ćĈ!Ĉ!",
      "Ĉ!ĈĈ ćďĉďĉďĉďĉďĉďĉďĉ!",
      "Ĉ!Ĉ!Ĉ!Ĉ!Ĉ!Ĉ! Ĉ!ĈĈĈĈĈĈ",
      ")) ))",
      "ćććććĈ!Ĉ!Ĉ!Ĉ!Ĉ!Ĉ! ćĈ!Ĉ!Ĉ!ćĈ!Ĉ!",
      "ďĉďĉ ććććććĈ!ćććĈ!ćć",
      "Ĉ!Ĉ ďĉ!ďĉ!ďĉ",
      "ďĉďĉ!!ďĉ !!!!!!)!!!!!!!!)",
      "ććććĈ!ćĈ!Ĉ! Ĉ!Ĉ!Ĉ!Ĉ!",
      "ććĈ!ććĈ! ćĈ!Ĉ!ćĈććĈ!Ĉ!",
      "ćĈ!ćĈ!Ĉ!ććĈ!Ĉ!Ĉ!Ĉ!ćĈĈĈ!Ĉ!ćĈ!Ĉ! ĈĈĈ!ĈĈĈććĈ!ćĈćĈĈĈ!Ĉ",
      "& '",
      "ćććĈ!Ĉ!Ĉ!Ĉ!Ĉ!Ĉ! ćĈ!Ĉ!Ĉ!Ĉ!ćĈ!Ĉ!",
      "ďĉ!)!) !!!!!!!!!!ďĉ!!!!!!",
      "ćććććććĈ!Ĉ!Ĉ!ćĈ!Ĉ! Ĉ!",
      "ďĉďĉďĉ!! ďĉ!!ďĉ!!!!!!!!",
      "ćĈ!ćĈ!Ĉ!ććĈ!ĈććĈ!Ĉ! ćĈ!ćĈ!Ĉ!Ĉ!ćĈĈ!",
      "Ĉ!ĈĈćĈĈ!Ĉ ďĉ!!!!!!!!!!!!!!!!!!!!!!!!!!!!!!!!",
      "%&'(%&'(ďĉ!! ććććććĈććĈ!",
      "ďĉďĉďĉďĉďĉďĉďĉ! ďĉ!ďĉ",
      "ććććĈ!ćĈ!Ĉ! Ĉ!ĈĈ!Ĉ!Ĉ!Ĉ",
      "ďĉďĉďĉďĉ!ďĉďĉ %!!!&'(",
      "ďĉďĉďĉ!!ďĉďĉ ćĈ!Čďĉďĉďĉ!ďĉďĉ!ďĉďĉďĉ!ďĉďĉ!",
      "ćĈćĈćĈćććĈćĈ ćććĈćĈ",
      "ďĉććććććĈ!ććĈ! ććĈ!Ĉ!Ĉ!Ĉ!ćććĈ!Ĉ!Ĉ!ććĈ",
      "!!!!!!!!!!!!!! )!)!!!!!!!!!",
      "ćĈ!Ĉ!Ĉ!Ĉ!Ĉ!Ĉ! ćĈ!Ĉ!ććĈ!",
      "ĈĈĈ!Ĉ! Ĉ!ĈĈĈ",
      "ććĈ!Ĉ!Ĉ!Ĉ ćĈ!Ĉ!ĈćĈććĈĈ!ĈĈĈ",
      "ďĉďĉ%&'( !",
      "ćććććććććć ćĈ!ćĈ!!ććĈ!ććĈ!",
      "Ĉ!Ĉ!Ĉ!ćĈĈĈććĈĈ!ćććĈ!ććĈ!ćĈ!ĈĈĈćć !!!!",
      "ćććĈĈĈĈĈ ććĈĈććĈćććĈćĈćĈćĈćĈĈćĈĈćĈćĈćĈ",
      "ďĉďĉ )ďĉďĉ!",
      "ďĉ!! ďĉ!ďĉ!",
      ")!) ďĉďĉďĉďĉďĉďĉ!!!",
      "%!!!!!!!!!!!!!!!!!!!! &'(!!!!!!!!!!!!!!!!!!!!!!!!!!!!!!!!",
      "ćĈ!ĈććĈĈĈćĈĈĈćĈ!ĈććĈĈĈ ćĈĈććĈĈĈćĈ!ĈćĈ!ććĈĈ!Ĉ!ĈĈćĈ!Ĉ!",
      "ćĈĈĈĈĈĈĈĈĈĈĈĈĈ!ćĈ!ćĈĈĈĈ!Ĉ%&'(ďĉććďĉďĉ!!ďĉ ććĈ!ĈĈĈĈĈ!ćďĉďĉ",
      "ćććććććć ćććććććĈ!Ĉ!Ĉ!ćĈ!Ĉ!",
      "ďĉďĉ!! ďĉďĉďĉ!",
      "!!!!!!!!! ďĉ!!!!!!!!",
      "ďĉ!! ďĉďĉďĉďĉďĉ!!ďĉ!ďĉ!",
      "ďĉ!! ćććććććĈ!Ĉ!Ĉ!ććĈĈććĈ!ćĈĈ",
      "ćďĉ ććććććććććććććććĈ!Ĉ!ćĈ!Ĉ!ĈĈ!",
      "ćĈ!ćĈ!ćĈ!ćĈ!ćĈ!Ĉ!ćĈ!ćĈ!Ĉ!Ĉ!ćĈ!Ĉ! Ĉ!ććĈ!Ĉ!Ĉ!ĈćĈ!Ĉ!",
      "ć ďĉďĉ!!",
      "%&'( Ĉ!Ĉ!",
      "ďĉďĉďĉďĉ! ďĉ!!",
      "ćĈĈĈććĈ!Ĉ!ććĈ!ćććĈćĈćĈćĈćĈĈćĈĈćĈćĈćĈ ćĈ!Ĉ!ĈćĈ!Ĉ!Ĉ!",
      "ćććć ćĈ!ćĈ!ććććĈ!ććĈ!ćććĈ!ćććĈ",
      "ćĈĈĈ Ĉ!",
      "33 22",
      "ćĈćĈĈĈĈĈĈĈćĈĈĈĈĈĈ ćĈćĈ!ćĈĈ!",
      "ďĉ %&'(ďĉ",
      "ćĈ! ďĉ!%&'(",
      "ćććććĈ!Ĉ!Ĉ!ćĈĈćĈ ďĉďĉ",
      "ĈĈĈ!ĈĈĈĈ!ĈĈ!Ĉ!Ĉ!Ĉ!ĈĈ Ĉ!Ĉ!ĈĈ!Ĉ",
      "ććĈ!ćĈ!Ĉ! ĈĈĈ!ĈĈĈććĈ!ĈĈ!ĈĈĈĈ!ĈĈ!ĈĈĈĈ",
      "ćććććććĈ!Ĉ!ććććććĈ!ćĈĈ%&'(ďĉďĉ Ĉ!ĈĈďĉ!!",
      "ćććĈ!Ĉ!Ĉ!Ĉ!Ĉ!ćĈ!Ĉ! Ĉ!ĈćĈ!ćĈĈĈĈĈćĈĈĈĈĈćĈ!ĈĈĈćĈ",
      "L !LK!LK",
      "ĈĈĈ!Ĉ!Ĉ!ĈĈĈ Ĉ!Ĉ!ĈĈ!Ĉ!Ĉ!ĈĈĈĈ",
      "Ĉ!Ĉ!Ĉ!ćĈĈĈććĈĈ!ćććĈ!ććĈ!ćĈ!ĈĈĈćć!!!! %&'(ďĉ!!ďĉ!!",
      "ďĉ!ďĉ!! ćĈ!",
      "ććććĈ!ĈĈ%&'(ďĉ !!!!!!!!!!!!!!!!!!!!!!!!!!!!",
      "Ĉ! %&'(",
      "ďĉ!ďĉ ććććĈ!ćĈ!ĈĈ!ććĈ!ćĈ!ĈĈ!ćĈ!Ĉ!",
      "Ĉ!ĈĈ Ĉ!ĈĈĈ",
      "ćĈ!ćććĈ!ććĈćĈ!ććĈćććĈ!Ĉ!Ĉ!Ĉ! ćććĈćĈ!ćĈ",
      "ćĈ!Ĉ!Ĉ!Ĉ!Ĉ!ĈĈĈ!Ĉ!Ĉ Ĉ!Ĉ!ĈĈ!Ĉ!ĈĈ!ĈĈ!Ĉ!ĈĈ!ĈĈ!Ĉ!ĈĈĈ!ĈĈĈĈ!ĈĈĈĈ",
      "ććĈ! ćĈ!ćČ",
      "!!!!!!!!!!! ďĉ",
      "ďĉ!ďĉďĉďĉďĉ ďĉďĉ!!",
      "ććĈ!Ĉ!Ĉ!ććĈ!Ĉ! Ĉ!ĈĈ!Ĉ!!ćĈ!Ĉ!Ĉ!Ĉ!ćĈ!ććĈ!",
      "ďĉďĉďĉ ď%&'(ĉ",
      "!!!!!!!!!!! ďĉ!!!!!!!!!!!!!!!!!!!!!!!!!!!!!!!!",
      "ćććĈ!Ĉ!ćĈ!Ĉ! ćĈ!ćĈ!ćĈ!ĈĈ!Ĉ!",
      "ďĉ!!!!!!!!!!!!!!!!!!ďĉ!!!!!!!!!!!!!!!!!!! ďĉ!!!!!!!!",
      ")ććććććććććććĈ! ććĈ!ćĈ!ćĈ!Ĉ!Ĉ!ćĈ!Ĉ!",
      "ďĉ !!!!!!!!!!!!!!!",
      "ćďĉďĉďĉ ćĈ!Ĉ!Ĉ!Ĉ!",
      "ďĉ!!ďĉ!ććĈ! ďĉ!ďĉďĉ!!",
      "ćĈ! %&'(ďĉ",
      "ćććć Ĉ!Ĉ!Ĉ!Ĉ!Ĉ!ĈĈ!Ĉ!",
      "ććĈ!ćććĈ!ćććĈ!ćććĈ!Ĉ!Ĉ! ďĉćć",
      "ććććććććĈ!Ĉ!ćĈĈ ćĈ!ĈĈćĈ!ćĈĈćĈ!Ĉ!",
      "Ĉ!Ĉ!Ĉ!Ĉ ćĈĈ!Ĉ!ĈćĈĈ!ćĈ!Ĉ!ĈĈĈĈćĈĈĈĈ",
      "%&'(ďĉ Ĉ!Ĉ!Ĉ!Ĉ!Ĉ!Ĉ!",
      "ćĈ!Ĉ!Ĉ ćĈ!ć",
      "ĉĉĉĉ ĉĉĉĉ",
      "Ĉ!ĈćĈ!Ĉ!Ĉ!ĈćĈ!ćć ďĉ!Ĉ!ĈćĈ!Ĉ!Ĉ!ĈćĈ!ćć",
      "ďĉććĈ! ćććĈćććĈĈ!Ĉ!ćĈ!ććĈćĈ!ćĈ!!Č!!Č!",
      "Ĉ!ĈĈĈĈĈĈ!Ĉ!ĈĈ!ĈĈĈĈ!ĈĈĈĈĈĈĈĈ%&'(ďĉ ćĈ!Ĉ!Ĉ!Ĉ!Ĉ!Ĉ!ĈĈ",
      "ććććĈ!ćĈ!Ĉ!Ĉ!ćĈ!Ĉ! Ĉ!Ĉ!ćĈ!Ĉ!Ĉ!Ĉ!ćĈ!Ĉ!ćĈ!ĈćĈ!Ĉ!",
      "ďĉ ćĈ!",
      "ćĈ!Ĉ! Ĉ!Ĉ!ĈĈ!Ĉ!Ĉ!Ĉ!",
      "%!!!!!!!!!!!!!!!! !!!!!!!!",
      "ďĉďĉďĉďĉďĉďĉ! %&'(%&'(",
      "2323 232222222222222222222222222222222222222222",
      "ďĉďĉ!ďĉ!) ďĉďĉďĉć",
      "ďĉ! ćĈ!ćĈ",
      "ďĉďĉďĉďĉďĉďĉ ćďĉ!ďĉ",
      "ć%&'(ďĉ !!!!!!!!!",
      "ććĈ!Ĉ!ĈĈĈ!Ĉ!Ĉ!ĈĈćĈďĉ!!ďĉďĉ!!! )!)",
      "ććććĈ!ćĈ!Ĉ!Ĉ!Ĉ!Ĉ!Ĉ! Ĉ!Ĉ!Ĉ!!ćĈĈĈĈ!Ĉ!ćĈ!Ĉ!ćĈĈĈćĈ!ĈĈĈĈ",
      "ć ďĉďĉďĉďĉ",
      "ćććĈ!Ĉ! ććĈ!ćĈ!ćČ",
      "ďĉ!!ďĉ! ďĉďĉďĉ!",
      "ćććĈ!Ĉ!Ĉ!Ĉ ďĉ!!!!!ďĉ!)!)!!!!!!!!!!!!!!",
      "ćĈ!ĈĈĈ!ĈĈćĈ!Ĉ!Ĉ! ćĈćĈĈĈĈĈćĈĈćĈćĈćĈćĈĈĈćĈĈĈĈĈĈ",
      "ććĈ!ćĈ!ććĈ!ćĈ!ćĈ!ććĈćĈ!Ĉ!Ĉ!Ĉ!ćĈ!ćć ĈĈĈĈĈĈćĈ!ććĈćĈ!ćĈ!Ĉ!",
      "ďĉďĉďĉ%&'( Ĉ!Ĉ!ĈĈ!Ĉ!ĈĈĈĈ!Ĉ!ĈĈ!Ĉ!Ĉ!!",
      "ćććććććĈ!Ĉ! ćĈ!ĈćĈĈ!Ĉ!ćĈ!ĈĈ!ććĈ!ćĈ!ććĈćĈććć!!",
      "ćććĈ!Ĉ!Ĉ!Ĉ!Ĉ!Ĉ!ćĈ!Ĉ!Ĉ!Ĉ!ćĈ!Ĉ! Ĉ!Ĉćć",
      "L !",
      "ďĉďĉďĉďĉ !!!!ďĉ!!",
      "ďĉ!!!!!!!!!!! )!!!!!!!!!!!!!!!",
      "Ĉ!Ĉ!ĈĈĈĈĈĈĈĈĈĈĈĈĈĈĈĈĈĈĈĈĈĈĈĈ ďĉ!",
      "ćĈ!Ĉ!Ĉ!Ĉ!Ĉ!Ĉ!Ĉ ćĈĈĈĈ!ĈććĈ!ććććĈć!!",
      "ćććĈ!Ĉ!ćććĈĈćĈ!ĈĈĈ!!ćććć!!!!!!!!!!!!!!!!!!!! %&'(%&'(",
      "Ĉ!ĈĈćďĉďĉďĉďĉďĉďĉďĉ! ďĉ!ďĉďĉďĉ!",
      "L K",
      "Ĉ!Ĉ!Ĉ!Ĉ! Ĉ",
      "ďĉďĉďĉďĉďĉďĉďĉ )!",
      "ďĉďĉďĉ!ďĉďĉćććć ćĈ!Ĉ!ćĈĈ",
      "ćĈ!Ĉ!ććĈćĈ!ĈĈĈĈĈĈćĈ!ććĈććĈ!ćĈ!Ĉ ććĈĈ!Ĉ!ĈĈĈ!ććĈ!Ĉ!Ĉ",
      "ććĈ!Ĉ! ćĈĈ!ćĈ!Ĉ!Ĉ!Ĉ!Ĉ!ĈĈĈćĈ!Ĉ!Ĉ!",
      "Ĉ!ĈĈĈ!ĈĈĈĈĈĈĈĈĈĈĈĈĈĈĈĈĈĈ!ďĉ!! ďĉ!ďĉ!!!",
      "ććĈ! %&'(",
      "R TVa!!!SĂĄĆ",
      "ďĉďĉďĉ ćććĈ!Ĉ!Ĉ!ĈĈ!Ĉ!ćĈ!Ĉ!Ĉ!ĈćĈ!Ĉ!Ĉ!Ĉ",
      "ććććĈ ćććĈ!Ĉ!Ĉ",
      "ďĉďĉ %ď&'(ĉ",
      "Ĉ!Ĉ!Ĉ!Ĉ! ććĈćć",
      "ďĉ!!ďĉ ććććććććććććććććććććććĈ!ććĈ!ćĈ!ććĈ!",
      "ćĈ!Ĉ!Ĉ!ććĈ!ćĈ!Ĉ!Ĉ!ćĈ!Ĉ!ćĈ!ćĈ!ćĈ!ćĈ ćĈ!Ĉ!ĈĈćĈćĈĈĈĈĈĈĈĈĈĈĈĈ",
      "ďĉ!ďĉ!!!!!! ďĉďĉ!!",
      "ćĈ!Ĉ! ćĈĈ!ćĈ!ćĈ!Ĉ",
      "Ĉ!Ĉ!Ĉ!Ĉ!! Ĉ!Ĉ!Ĉ!Ĉ!!Ĉ!Ĉ!Ĉ",
      "ćććĈĈ ććććććĈ!ćĈĈ",
      "ďĉ!ďĉ!!!!!!!!!!! ďĉ!ďĉ",
      "ďĉďĉďĉ !!!!!",
      "ďĉ!ďĉďĉ! ďĉ",
      "Ĉ!ĈĈ!ćĈ!Ĉ Ĉ!Ĉ!Ĉ!ćĈ!ćĈ",
      "Ĉ!Ĉ!Ĉ!Ĉ!Ĉ!Ĉ!Ĉ!ĈĈĈĈĈĈ Ĉ!ĈĈĈĈĈĈĈĈĈĈĈĈĈĈĈĈĈĈĈĈ!",
      "ćć ďĉďĉ)",
      "ćć ćĈ!ćĈ!Ĉ!Ĉ!ćĈ!Ĉ!ćĈ!Ĉ!Ĉ!Ĉ!ćĈ!Ĉ!",
      "!!!!ďĉ!! )ďĉďĉ!",
      "ćďĉ#$ ćĈ!ćć",
      "ćććććććććććććććććććććććć ććĈ!",
      "ćĈ!Ĉ!ĈćĈ! ďĉćććććććĈ!ćĈ!",
      "Ĉ!ďĉďĉ ćĈ!ďĉ!",
      "ďĉďĉ!!ďĉ!!!! ďĉďĉďĉďĉ",
      "%!!!!!!!!!!!!!!!!!!!!! &'(!!!!!!!!!!!!!!!!!!!!!!!!!!!!!!!!",
      "Ĉ!Ĉ!ĈĈĈĈĈĈćĈ!ĈĈĈ%&'(ďĉ%&'(%&'(%&'( ďĉďĉďĉďĉ!ďĉďĉ%!!!&'(",
      "ćććććĈ!Ĉ!Ĉ!Ĉ!Ĉ!Ĉ!ćĈ!Ĉ!Ĉ!ćĈ!Ĉ! ćĈ!Ĉ!Ĉ!ćĈ!Ĉ!ćĈ!ćĈ!ćĈ!ćĈ!Ĉ!Ĉ!Ĉ",
      "ĂĄĆ !!!!R!!!S",
      "ćĈ!Č ďĉďĉ!",
      "ďĉďĉďĉ !!!!!!!!!!",
      ")!)!!!!!!!!!!!!!!!!!!!!!!!!!!!!!!!! !!!!",
      "ďĉďĉ!ďĉďĉďĉ!! ďĉ!!!!",
      "ćććććććććććĈ!Ĉ ćĈ!Ĉ!ĈćĈ!ć",
      "ďĉďĉ!!ďĉ!!ďĉďĉ ćććĈ!Ĉ!Ĉ!Ĉ!Ĉ!Ĉ",
      "R %&'(",
      "Ĉ!Ĉ! ĉ",
      "!!!!!!!!! ďĉ!!!!!!!!!!!)!!!!!!!!!!!!!!!",
      "ďĉ!ďĉ!! ďĉďĉ!!ďĉ!!!!!!)!!!!!!!!)",
      "ďĉ!!!!!!!!!!!!!!!! !!!!!",
      "ćććĈĈ!ćĈ!Ĉ!ĈćĈĈĈćĈĈĈćĈĈćććć ćďĉďĉďĉĈ!ĈĈĈĈ",
      "ďĉ! ďĉďĉďĉ!!)!)!!!!!!!!!!!!!!!!!!!!",
      "ćććććććĈ!ćĈ!Ĉ!Ĉ!Ĉ!Ĉ!ćĈ!Ĉ!ćĈććĈ ćďĉ",
      "ďĉďĉ!ďĉ%&'( ćććććććććććććććć",
      "ď Ĉ",
      "ććĈ!Ĉ!Ĉ!Ĉ!Ĉ!Ĉ! Ĉ!ĈĈćĈ",
      "ćĈ!ćĈ!Ĉ!Ĉ!ćĈ!Ĉ! Ĉ!ćĈ!Ĉ!",
      "ďĉ!ďĉ!!!!!! ďĉďĉ!!!!",
      "ćććĈ!Ĉ!ćĈ!Ĉ!Ĉ Ĉ!Ĉ!ĈćĈĈĈĈĈ!Ĉ!Ĉ!Ĉ!Ĉ!Ĉ!ĈĈĈ!Ĉ!ĈĈĈĈ",
      ")!)!! Ĉ!Ĉ!ĈĈ",
      "Ĉ!ĈĈ!ĈĈĈ ćĈĈĈćĈ!ĈĈĈĈ!ĈĈ!Ĉ",
      "ććććĈ!Ĉ! ćĈ!ćĈ!Ĉ!ććĈ!ĈććĈ!Ĉ!ćĈ!ćĈ!Ĉ!Ĉ!ćĈĈ!",
      "Ĉ!Ĉ!Ĉ!ćĈ!Ĉ!ćĈ!ćĈ!ćĈ!ćĈ! ćĈ!Ĉ!Ĉ!Ĉ!Ĉ!Ĉ!ćĈ!Ĉ!ććĈ!",
      "ććĈ!Ĉ!ĈĈĈ!!ćĈ!Ĉ!Ĉ!Ĉ! ćďĉďĉ!!",
      "ćĈ!Ĉ!ćĈ!ćĈ!ćĈ!Ĉ!ććććĈ!ććĈ!ć !ďĉ",
      "ďĉďĉďĉďĉ ďĉďĉďĉ%&'(",
      "ďĉćĈ!Ĉ! Č",
      "%!Ĉ&'( !",
      "ď Ĉ!ĉ",
      "ďĉďĉďĉ! ďĉ!ďĉ!",
      "ď%ĉ &'(!",
      "ďĉ!!ďĉ!!!!!!!!!!! ďĉ!!ćććććććĈ!Ĉ!Ĉ!ććĈĈććĈ!ćĈĈ",
      "3 23",
      "ćććć ććĈ!Ĉ!",
      "%!!!!!!!!!!!!!!!! !!!!!!!!!",
      "ďĉ!!!!!!!!!!!!!!ďĉďĉďĉďĉ ććććĈ!ćĈ!Ĉ!",
      "ćĈ!Ĉ!Ĉ!Ĉ!Ĉ!Ĉ!Ĉ!Ĉ!Ĉ!Ĉ! ďĉďĉ!ďĉ%&'(ćććććććććććććććć",
      "%&'( ďĉďĉ!!!",
      "ćďĉďĉďĉďĉ! ććĈ!Ĉ!Ĉ!Ĉ!Ĉ",
      "ććĈ!ććĈ!ćĈ!Ĉ!ćĈććĈ!Ĉ! %&'(ďĉĈ!Ĉ!Ĉ!Ĉ!Ĉ!Ĉ!",
      "Ĉ! ćĈ!ćĈ!Ĉ!Ĉ!",
      "ďĉďĉ %&'(ďĉ",
      "0011 0101",
      "!!!!!!!!!!!!!!!!!!!!! Ĉ!Ĉ!Ĉ",
      "Ĉ!ďĉ!ďĉďĉďĉďĉ ďĉ!ďĉďĉďĉ!!)!)!!!!!!!!!!!!!!!!!!!!",
      "ďĉďĉďĉ!ďĉďĉďĉ!! ďĉďĉďĉďĉ!",
      "ćć ĉ",
      "ćĈ! ĉ",
      "ďĉďĉďĉďĉďĉ!! ďĉ!!ďĉďĉďĉ)!)",
      "LLLLLLLLLLLLLLLL LLLLLLLLLLLLLLLL",
      "ćďĉ !!!!",
      "ć ďĉďĉ%&'(",
      "%!!!!!!!!! &'(!!!!!!!!!!!!!!!!!!!!!!!!!!!!!!!!",
      "ćććććććććććććććć ćććććććććććććććććććććććć",
      "Ĉ!Ĉ!Ĉ!ćĈ!Ĉ! Ĉ!",
      "!!!!!!!! ććĈ!Ĉ!ĈćĈĈĈććĈĈĈććĈ!Ĉ!Ĉ!Ĉ!Ĉ!Ĉ!ćĈ",
      "ćććĈ!Ĉ!Ĉ! ćĈĈĈĈ!",
      "ďĉďĉďĉ! ďĉ!%&'(",
      "(788888888,-%& +",
      "%ćĈ &'(",
      "ďĉďĉďĉ!! )!)!!!!!!!!!!!!!!!!!!!!!!!!!!!!!!!!",
      "Ĉ!Ĉ!Ĉ!Ĉ!Ĉ!Ĉ!ĈĈĈĈ!ĈĈĈĈĈĈĈ!Ĉ!Ĉ!ĈĈ!Ĉ %&'(ďĉĈ!Ĉ!Ĉ!Ĉ!",
      "ćĈćĈćĈćććĈćĈćććĈćĈ ćĈ!ĈćĈćĈćĈ",
      ")!)!!Ĉ!Ĉ!ĈĈ !!!!!",
      "%!! &'(!!!!!!!!!!!!!!!!",
      "!!!!!!!!!!!ďĉ ćććĈ!Ĉ!Ĉ!Ĉ",
      "ćĈ!ĈĈĈ!ĈĈćĈ!Ĉ!Ĉ!ćĈćĈĈĈĈĈćĈĈćĈćĈćĈćĈĈĈćĈĈĈĈĈĈ ćĈ!Ĉ!",
      "ďĉďĉ ćĈ!ĈĈ!ĈĈĈĈ!Ĉ!Ĉ!ĈĈĈĈĈĈĈĈ!ĈĈĈĈĈ",
      "Ĉ!Ĉ!Ĉ!Ĉ!Ĉ!Ĉ! ćďĉďĉďĉćĈ!Ĉ!Ĉ!Ĉ!",
      "ďĉ!!!! ďĉďĉďĉďĉďĉďĉďĉďĉďĉďĉ",
      "ćććććďĉ! ććććĈćććĈ!Ĉ!Ĉ",
      "ďĉďĉ%&'(! ďĉďĉďĉ!!ďĉďĉćĈ!Čďĉďĉďĉ!ďĉďĉ!ďĉďĉďĉ!ďĉďĉ!",
      "ćććććććććććĈ!ĈćĈ!Ĉ!ĈćĈ!ć ďĉďĉ!!ćććĈ!Ĉ!ćĈ!Ĉ!ĈĈĈĈ!ććĈ",
      "ďĉďĉďĉ Ĉ!Ĉ!Ĉ!Ĉ!Ĉ!ćĈ!ĈĈĈĈ",
      "ďĉďĉ!ďĉďĉ%&'( ćĈ!Ĉ!Ĉ!Ĉ!Ĉ!Ĉ",
      ") ďĉďĉďĉďĉďĉďĉďĉ!",
      "MM M",
      "LL L!LK",
      "ďĉďĉďĉć ďĉ!ďĉďĉďĉďĉ!!",
      "Ĉ!Ĉ!Ĉ!Ĉ!ĈćĈĈĈ!ĈĈĈ ćĈćĈĈĈĈĈĈĈćĈĈĈĈĈĈćĈćĈ!ćĈĈ!",
      "ďĉďĉďĉďĉ ďĉďĉ!!",
      "ďĉ!ďĉďĉďĉďĉ ďĉ",
      "ćďĉ! ďĉďĉďĉďĉďĉďĉďĉďĉ",
      "%!!!!!!!!!!!!!!!!!!!!!!! &'(!!!!!!!!!!!!!!!!!!!!!!!!!!!!!!!!",
      "%!&'( !!!!!!!!!!!!!!!!",
      "ćĈ!ćĈ!Ĉ!ćĈĈ!Ĉ!Ĉ!Ĉ!ćĈćĈĈćĈ!Ĉ!Ĉ!ćĈ!Ĉ! Ĉ!Ĉ!ćĈ!Ĉ!",
      "ďĉďĉ! ďĉ!!!!!!!!",
      "ćććĈ!Ĉ!ććĈ!ćĈ!ćČ ďĉ!!!",
      "ďĉ%&'( ďĉďĉďĉďĉďĉďĉ!",
      "ďĉďĉ!ďĉ %&'(ďĉ",
      "ć '(",
      "%!!!!!!!!!!!!!!!! !!!!!!!!!!",
      "ďĉ!!!!!!!!!!!!!!!! !!!!!!!!",
      "ďĉďĉďĉ%&'( ďĉďĉďĉ",
      "ććĈ!Ĉ!Ĉ!Ĉ!Ĉ!Ĉ! ććĈ!ć",
      "ćććććć ćĈ!ćČ",
      "ćććďĉ ććććććĈ!ććČ",
      "ćććĈ!Ĉ! Ĉ!ćĈ!Ĉ!Ĉ!Ĉ!Ĉ!!",
      "ďĉ%&'( ďĉďĉďĉ",
      "ďĉ!!ďĉ!ććĈ!ďĉ!ďĉďĉ!! ďĉďĉ)ďĉďĉ!",
      "ćććć ćĈ!ĈĈćĈĈćĈ",
      "ććććććĈ! ććĈ!Ĉ!Ĉ!ĈćĈ!Ĉ!ĈćĈććĈĈ!ĈĈĈ",
      "ďĉćć ćďĉ!",
      "ďĉ!ďĉććććĈ!ćĈ!ĈĈ!ććĈ!ćĈ!ĈĈ!ćĈ!Ĉ! ćĈ!ďĉ!",
      "ćć %&'(",
      "&'( !!!!!!!",
      "ć%&'( ďĉďĉ",
      "ćććććććĈ!Ĉ!Ĉ!ćĈ!Ĉ!Ĉ! ćďĉ!",
      "ďĉďĉ!ďĉ!! ďĉććććććĈ!ććĈ!ććĈ!Ĉ!Ĉ!Ĉ!ćććĈ!Ĉ!Ĉ!ććĈ",
      "ďĉ!ďĉďĉďĉ ćĈ!Ĉ!Ĉ!Ĉ!ĈĈ!Ĉ!Ĉ!Ĉ!",
      "ďĉ!ďĉĈ!Ĉ!ćĈ!Ĉ!ĈĈĈ ďĉ!ďĉ!!!SĂĄĆ!!ďĉ!!!!!!",
      "ďĉ!!ďĉ!ďĉďĉďĉ! ďĉ!!!!!",
      "ďĉ!! ďĉďĉďĉ!",
      "ćďĉ ćĈ!ććĈ!ćĈ!Ĉ",
      "ććććććććĈ!ćććĈ!Ĉ! ćĈ!ďĉ",
      "ćďĉ! ďĉďĉ!!",
      "ďĉ!!ďĉ!!!!!!!!!!!ďĉ!!ćććććććĈ!Ĉ!Ĉ!ććĈĈććĈ!ćĈĈ %&'(ďĉďĉ!!!",
      "!!!!!!!!!!!! ďĉ!ďĉ!!!!!!ďĉďĉ!!",
      "ďĉ!ďĉ!ďĉ!ďĉ! ďĉ!ďĉ",
      "ďĉďĉďĉ!ďĉ!%&'( !!!!!!!!!!!!ďĉ!ďĉ!!!!!!ďĉďĉ!!",
      "ďĉ!!!!!!!!!!!!!!!!!!!!!!!!!!!!!!!! !!!!!!!!!!!!!",
      "ććććĈ!Ĉ!Ĉ!Ĉ!Ĉ!ĈĈ!Ĉ! ć",
      "ćĈ!ĈĈĈ!ĈĈćĈ!Ĉ!Ĉ!ćĈćĈĈĈĈĈćĈĈćĈćĈćĈćĈĈĈćĈĈĈĈĈĈćĈ!Ĉ! ć%&'(",
      "!!!!!!!!!!!!!!! )!)!!!!!!!!!!!!!!!!!!!!!!!!!!!!!!!!",
      "ďĉďĉ!!ďĉ!ďĉ!! ďĉďĉďĉ!ďĉ",
      "0 0101",
      "!!!!!!!!!!!!!!!! !!!",
      "%&'(ďĉ !!!!!!!!!!!!!!!!!!!!!!!!!!!!!!!!",
      "ďďĉĉ !",
      "RTVa !!!S",
      "ďĉďĉďĉďĉ %&'(ďĉďĉďĉďĉ",
      "ďĉďĉ! ďĉďĉďĉ",
      "ďĉ!!ďĉďĉďĉďĉďĉ!!ďĉ!ďĉ! ďĉďĉďĉ!",
      "ć%&'(ďĉ Ĉ!ćĈ!Ĉ!Ĉ!ćĈ!Ĉ!Ĉ!ĈĈ!",
      "ć ď%&'(ĉ",
      "ďĉďĉďĉďĉďĉ! )!)!ďĉďĉ!!!)!)!!",
      "Ĉ!Ĉ!ĈĈĈĈĈ!Ĉ!Ĉ! ďĉ",
      "ćććććććććććĈ!ćĈ!!ććĈ!ććĈ! ćĈ!Ĉ!Ĉ!Ĉ!Ĉ!Ĉ!ĈćĈĈĈĈ!ĈććĈ!ććććĈć!!",
      "ē !",
      "ćććĈ!Ĉ!Ĉ!Ĉ!Ĉ!Ĉ! Ĉ!Ĉ!Ĉ!Ĉ!",
      "ďĉďĉďĉ!ďĉďĉ! ďĉďĉ!!ďĉ!!ďĉďĉćććĈ!Ĉ!Ĉ!Ĉ!Ĉ!Ĉ",
      "ďĉďĉďĉďĉďĉ!!ďĉ !!!!",
      "ćĈ!Ĉ!ććĈćĈ!ĈĈĈĈĈĈćĈ!ććĈććĈ!ćĈ!ĈććĈĈ!Ĉ!ĈĈĈ!ććĈ!Ĉ!Ĉ ćĈ!ććĈ!Ĉ!Ĉ",
      "ďĉďĉ ćććććććć",
      "!!!!!!!ďĉ!!ďĉďĉ!!! ďĉďĉďĉďĉďĉ!ďĉ",
      "ďĉďĉ%&'(!ďĉďĉďĉ!!ďĉďĉćĈ!Čďĉďĉďĉ!ďĉďĉ!ďĉďĉďĉ!ďĉďĉ! ďĉďĉďĉ",
      "ćććććĈ!ĈĈćĈĈćĈ ďĉćććććććć",
      "ďĉďĉďĉ! ććĈ!ć",
      "7 '7777",
      "ďĉďĉďĉ %ď&'(ĉ",
      ")!)!! ďĉďĉ!!!!!!!!!!!!!!!!!!!!!!!!!!!!!!!!",
      "7'7777 77",
      "ć %Ĉ&'(",
      "ħ )",
      "%&'(ďĉďĉ !!!!ďĉ!!)ďĉďĉ!",
      "R%&'( TVa",
      "ć )",
      "%&'( ďĉďĉ!!",
      ")!)ďĉďĉďĉďĉďĉďĉ!!! ďĉ!!ďĉ!ďĉ!",
      "ćĈ !!",
      "ććĈ! ďĉ!ďĉ!!ćĈ!",
      "Ĉ! )",
      "ďĉ!ďĉďĉ! ďĉ!ďĉďĉďĉ!",
      ")!)!!!!!!!!ďĉ!ďĉďĉ !!!!!!!!!!!!!!!!!!!!!!!!!!!!!!!!",
      "ćććĈ!Ĉ!Ĉ!Ĉ!ĈĈĈĈĈĈĈĈĈĈ!ćĈ!Ĉ!ĈćĈĈćĈćĈĈĈćĈĈďĉ Ĉ!ĈĈĈĈ",
      "ććĈ!ćććĈ!ćććĈ!ćććĈ!Ĉ!Ĉ!ďĉćć ćĈ!ć",
      "ćććććććĈ!ćČ Č",
      "ďĉďĉ ćććĈ!Ĉ!Ĉ!Ĉ!Ĉ!Ĉ!ćććććĈ!ćĈĈ",
      "ďĉ%&'( Ĉ!Ĉ!ĈĈĈĈĈĈĈĈĈĈĈĈĈĈĈĈĈĈĈĈĈĈĈĈďĉ!",
      "ďĉďĉďĉďĉďĉďĉ! ďĉďĉ!ďĉďĉďĉ!!",
      "ććĈ!Ĉ ďĉ%&'(Ĉ!Ĉ!ĈĈĈĈĈĈĈĈĈĈĈĈĈĈĈĈĈĈĈĈĈĈĈĈďĉ!",
      "ďĉ!ďĉ!!!!!!!!!!! ďĉ!!ďĉďĉďĉďĉďĉďĉ!",
      "ćććĈ!Ĉ!ćććĈĈćĈ!ĈĈĈ!!ćććć!!!!!!!!!!!!!!!!!!!!%&'(%&'( ďĉďĉďĉ",
      "ďĉďĉďĉďĉďĉďĉ R%&'(TVa",
      "%&'(ďĉĈ!Ĉ!Ĉ!Ĉ! ĈĈĈĈĈĈĈĈĈĈĈĈĈĈ!Ĉ!Ĉ!Ĉ!Ĉ!ĈĈĈ!ĈĈ",
      "ĥ !",
      "77 '7777",
      "ćďĉ! ććććććććĈ!Ĉ!ćĈĈćĈ!ĈĈćĈ!ćĈĈćĈ!Ĉ!",
      "ďĉďĉďĉďĉćććć Ĉ!ĈĈ!ćĈ!ĈĈ!Ĉ!Ĉ!ćĈ!ćĈ",
      "77'7777 7",
      "F D",
      "!!!!!!!!!!!! ďĉ!!ďĉ",
      "ďĉ!!!!!!!!!!!!!!!!!!! ććĈ!ćĈ!ćĈ!ćďĉ",
      "ćďĉ!!!! ćďĉ!",
      "ďĉ! ďĉďĉďĉ%&'(",
      "ćĈ!Ĉ!Ĉ!Ĉ!Ĉ!Ĉ!Ĉ!Ĉ!ćĈ!ćĈ!Ĉ!ĈćĈ!Ĉ! ďĉćĈ!",
      "ďĉďĉďĉďĉďĉďĉR%&'(TVa ďĉććĈ!ćććĈćććĈĈ!Ĉ!ćĈ!ććĈćĈ!ćĈ!!Č!!Č!",
      "ć%&'( Ĉ!Ĉ!Ĉ!Ĉ!Ĉ!Ĉ!",
      "!LK!LK!LK!LK!LK!LK!LK!LK !LK!LK!LK!LK!LK!LK!LK!LK",
      "Ĉ!Ĉ!Ĉ!ćĈ!Ĉ!Ĉ! ććĈ!Ĉ!Ĉ!Ĉ!Ĉ!Ĉ!ćĈ",
      "ďĉďĉ! ďĉďĉ!!!ďĉćĈ!Ĉ!ććĈ!ććĈ!ĈĈ!ććĈ!Ĉ!Ĉ",
      "%!!!!!!!!!!!!!!!! !!!!!!!!!!!",
      "&'(ďĉ !!!!!!!!!ćććĈ!Ĉ!Ĉ!Ĉ!Ĉ!Ĉ!ĈĈĈĈĈĈĈĈĈĈĈĈ",
      "ďĉďĉ!ďĉ!)ďĉďĉďĉć ďĉďĉ!ďĉďĉďĉ!!ďĉ!!!!",
      ") !!!",
      "ć ďĉďĉ!ďĉďĉ",
      "ďĉ !!!!!!!!!",
      "ććććĈ!ĈĈ ďĉ!!!!!!!!!!!",
      "ćććććďĉ!ććććĈćććĈ!Ĉ!Ĉ ćĈ!ć",
      "ďĉďĉ ďďĉĉ",
      "%&'(ďĉ Ĉ!ćĈ!Ĉ!Ĉ!Ĉ!Ĉ!Ĉ!ćĈ!ćĈ!ćĈ!Ĉ!Ĉ!ćĈ!ĈĈĈćĈćĈćĈĈĈćĈ",
      "&'(! ďĉ!)!)!!!!!!!!!!ďĉ!!!!!!",
      "ďĉďĉďĉďĉ ďĉ!ďĉďĉďĉ!",
      ")ććććććććććććĈ!ććĈ!ćĈ!ćĈ!Ĉ!Ĉ!ćĈ!Ĉ! ćĈ!%&'(ďĉ",
      "ć %ć&'(",
      "'7777 777",
      "Ē !!!",
      "ď%&'(ĉ ďĉďĉ",
      "ďĉ%&'(ďĉďĉďĉďĉďĉďĉ! ďĉďĉďĉďĉ!!",
      "ď%&'(ĉ !!",
      "&'(!!!!!!!!!!!!!!!!!!!!!! Ĉ!ďĉďĉćĈ!ďĉ!",
      "%&'( ćďĉ!",
      "Ĉ!Ĉ!Ĉ ćĈ!Ĉ!Ĉ!Ĉ!Ĉ!Ĉ!Ĉ!Ĉ!Ĉ!Ĉ!ďĉďĉ!ďĉ%&'(ćććććććććććććććć",
      "01 0011",
      "&'(! ďĉ!!!!!!!!!!!!!!ďĉďĉďĉďĉććććĈ!ćĈ!Ĉ!",
      "%&'ď( ĉ!",
      "244444444%&5555555522222222222222222222222266666666 7'777777",
      "ćĈĈĈĈĈĈĈĈććĈćĈĈ!ććĈĈĈĈćĈĈĈĈćĈĈĈĈĈĈĈĈććĈ ćďĉ!",
      "M &'(",
      "ďĉďĉ !!!!!!!!!!!!!!!!!!!!!",
      "ćĈ!ĈĈ! ćĈ!ć",
      "ďĉďĉ!!!! ďĉ!!!ćććććĈ!ĈĈ!ĈĈĈ!Ĉ!Ĉ!Ĉ!Ĉ!Ĉ!Ĉ!Ĉ!Ĉ!Ĉ!Ĉ!Ĉ!ćĈ!",
      "32323 2222222222222222222222222222222222222222",
      "Ĉ!Ĉ!Ĉ!ĈĈĈĈĈĈĈĈĈĈ!ĈĈĈ!ĈĈ!ĈĈĈĈ!ĈĈ!ĈďĉĈ!ĈĈĈĈĈĈĈ Ĉ!ĈĈĈ!",
      "00101 1",
      "ďĉ! ďĉďĉ%&'(",
      "ććĈ!ććććĈćĈćĈćĈććććĈ!Ĉ!ććĈ!ĈććććĈćĈćĈćĈćĈćĈćĈćĈćĈćĈ ć",
      "%&'(%&'(ďĉ!!ććććććĈććĈ! ďĉćĈ!Ĉ!Č",
      "ćććĈ!Ĉ!Ĉ!Ĉ!Ĉ!Ĉ!ćĈ!Ĉ!Ĉ!Ĉ!ćĈ!Ĉ!Ĉ!Ĉćć ďĉ!ćĈ!ćĈ",
      "ďĉ Ħ",
      "ćďĉďĉ ććĈ!",
      "ććĈ!Ĉ!ćĈĈ!ćĈ!Ĉ!Ĉ!Ĉ!Ĉ!ĈĈĈćĈ!Ĉ!Ĉ! ćďĉććć",
      "ďĉďĉďĉďĉ ďĉ!!ďĉ!",
      "ććĈ!ćĈ!Ĉ!ĈĈĈ!ĈĈĈććĈ!ĈĈ!ĈĈĈĈ!ĈĈ!ĈĈĈĈ ďĉďĉďĉ!!!!!!!!!!",
      "ć%&'(Ĉ!Ĉ!Ĉ!Ĉ!Ĉ!Ĉ! ĈĈĈ!ĈĈĈĈ!ĈĈ!Ĉ!Ĉ!Ĉ!ĈĈĈ!Ĉ!ĈĈ!Ĉ",
      "ćďĉďĉ!ďĉďĉ ć%&'(Ĉ!Ĉ!Ĉ!Ĉ!Ĉ!Ĉ!ĈĈĈ!ĈĈĈĈ!ĈĈ!Ĉ!Ĉ!Ĉ!ĈĈĈ!Ĉ!ĈĈ!Ĉ",
      "%&'( ĂĄĆ!!!!R!!!S",
      "ććććĈ!ćĈ!Ĉ! ĈćĈ!Ĉ!",
      "L ĉ",
      "244444444%&5555555522222222222222222222222266666666 7777",
      "ďĉďĉ!ďĉďĉćććć ćĈ!ćČ",
      "ďĉďĉďĉďĉ %&'(",
      "ďĉďĉďĉďĉďĉďĉďĉďĉ !!!ďĉďĉďĉďĉ",
      "Ĉ!Ĉ!Ĉ!! ĈĈ!ĈććĈ!Ĉ!ĈĈ!ĈĈ!Ĉ!ćĈ!",
      "244444444%&5555555522222222222222222222222266666666 77'77777",
      "&'( !!",
      "%!!!!!!!!!!!!!!!! !!!!!!!!!!!!",
      "ďĉ!ďĉďĉďĉďĉ !!!!!!!!!!!!!!!!!!!!!Ĉ!Ĉ!Ĉ",
      "ďĉ!!!!!!!!!!!!!!!! !",
      "Ĉ!ćĈ!Ĉ!ĈćĈĈĈ ćĈĈĈĈĈ",
      "ćććććććĈ!Ĉ!ććććććĈ!ćĈĈ%&'(ďĉďĉĈ!ĈĈďĉ!! )!)!!!!!!!!!!!!!!!!",
      "ďĉďĉďĉďĉďĉ)!) ďĉďĉďĉćććĈ!Ĉ!Ĉ!ĈĈ!Ĉ!ćĈ!Ĉ!Ĉ!ĈćĈ!Ĉ!Ĉ!Ĉ",
      "ćĈ ćďĉďĉďĉ",
      "ĉĉ ĉ",
      "&'(!!!!!!!!!!!!!!!! !!!!!!!!!!",
      "ćďĉ#$ćĈ!ćć %&'(ďĉďĉ!!!!ďĉ!!)ďĉďĉ!",
      "ďĉďĉďĉďĉďĉ! ďĉ!ďĉďĉďĉďĉ",
      "M ĉ",
      "ćĈ! )!)!!Ĉ!Ĉ!ĈĈ!!!!!",
      "244444444%&5555555522222222222222222222222266666666 '7777777",
      "ďĉććĈĈĈĈĈ ďĉďĉ",
      "ććććććććććććććććććććććććććĈ! ćććĈ!Ĉ!ćĈ!Ĉ!ćĈ!ćĈ!ćĈ!ĈĈ!Ĉ!",
      "ćććććććććććććććććććććććććććććććććććććććć ććććĈ!ćĈ!Ĉ!ĈćĈ!Ĉ!",
      "Ĉ! ćĈ",
      "ďĉ!ďĉ !!!!!!!!ććĈ!Ĉ!ĈćĈĈĈććĈĈĈććĈ!Ĉ!Ĉ!Ĉ!Ĉ!Ĉ!ćĈ",
      "Ĉ!Ĉ!ĈĈĈ Ĉ!Ĉ!Ĉ!ĈĈĈĈĈĈĈĈĈĈ!ĈĈĈ!ĈĈ!ĈĈĈĈ!ĈĈ!ĈďĉĈ!ĈĈĈĈĈĈĈĈ!ĈĈĈ!",
      "%&'(ďĉ! ćććĈ!Ĉ!ćĈ!Ĉ!ĈĈ!Ĉ!ĈćĈĈĈĈĈ!Ĉ!Ĉ!Ĉ!Ĉ!Ĉ!ĈĈĈ!Ĉ!ĈĈĈĈ",
      "ďĉ!ďĉ!!!!!!!!!!!ďĉ!ďĉ ććććććĈććĈ!",
      "%&'(ďĉ!! ďĉďĉďĉďĉďĉďĉ!ďĉďĉ!ďĉďĉďĉ!!",
      "ďĉďĉďĉďĉ %ď&'(ĉ",
      "ďĉ! ďĉ!!ďĉććććććććććććććććććććććĈ!ććĈ!ćĈ!ććĈ!",
      "ďĉďĉďĉďĉ!ďĉďĉ !!!!!!!!!!!!!!!!!!!!!!!!!!!",
      "ćĈ!Ĉ! ćĈ!ćĈ!Ĉ!",
      "%!!!!!!!!!!!!!!!! !!!!!!!!!!!!!!",
      ")!!!!!!!!!!!!!!!!!!!!!!!!!!!!!!!! ďĉďĉďĉ!",
      "ććććććććĈ!Ĉ!Ĉ!Ĉ!ćĈĈĈĈ!Ĉ!ćĈ! ďĉďĉ",
      "ćĈ!ć ďĉďĉ!ďĉďĉćććććĈ!ćČ",
      "ďĉďĉďĉ!ďĉ!%&'(!!!!!!!!!!!!ďĉ!ďĉ!!!!!!ďĉďĉ!! ďĉ!ďĉďĉ!!",
      "ď ĈĈ",
      "%&'( ďĉďĉďĉďĉďĉďĉďĉ",
      "Ĉ!Ĉ !!",
      "%&' ć(",
      "%&ď'( ĉ!",
      "ććććĈ!ćĈ!Ĉ!Ĉ!ĈĈ!Ĉ!Ĉ!Ĉ ććĈ!ć",
      "ďď !",
      "ďĉďĉ ĉ",
      "ďĉďĉďĉďĉ ćĈ!ĈĈ!Ĉ!ďĉ!ďĉ!ďĉďĉďĉ!!",
      "ďĉďĉćććć ćććĈĈććććććĈ!ćĈĈ",
      "ćććĈ!Ĉ!Ĉ!Ĉ!Ĉ!Ĉ!Ĉ!Ĉ!Ĉ!Ĉ! ćĈ!ćĈ!Ĉ!ćĈ!Ĉ!Ĉ!ćĈ!Ĉ!",
      "ďĉ %!&'(",
      "ďĉ ćĈ!ćĈ!Ĉ!ććĈ!Ĉ!Ĉ!Ĉ!ćĈĈĈ!Ĉ!ćĈ!Ĉ!ĈĈĈ!ĈĈĈććĈ!ćĈćĈĈĈ!Ĉ",
      "ććĈ!Ĉ!Ĉ!ćĈ! ďĉďĉďĉďĉďĉďĉ",
      "ď )",
      "ďĉ!ďĉďĉďĉďĉ ćďĉ!",
      "%ćć &'(",
      "ćććĈ!Ĉ!ććĈ!ćĈ!ćČďĉ!!! ďĉ!",
      "RTVa!!!S %&'(ĂĄĆ!!!!R!!!S",
      ")!) !!!!!!!!!!!!!!!",
      "ďĉďĉ%&'( ďĉďĉ",
      "ććĈ!ćďĉďĉďĉďĉ ďĉďĉďĉ!!",
      "ćĈ!Ĉ!ĈćĈ!Ĉ!ćĈ!ććĈĈĈĈĈćĈćĈ %&'(ďĉ",
      "ę !",
      "Ĉ! ć",
      "ďĉďĉďĉďĉďĉďĉďĉďĉ! ďĉďĉďĉďĉďĉćććć",
      "ďĉ!!ďĉďĉďĉďĉďĉďĉ! ďĉďĉ!!",
      "%&'(ďĉďĉ!!ďĉ ćććĈ!Ĉ!Ĉ!ćĈ!Ĉ!Ĉ",
      "ďĉďĉ !!!!!!!",
      "ďĉďĉďĉďĉ ďĉ!ďĉďĉďĉďĉ",
      "ďĉďĉďĉ!! ďĉďĉ!ďĉ!!ďĉććććććĈ!ććĈ!ććĈ!Ĉ!Ĉ!Ĉ!ćććĈ!Ĉ!Ĉ!ććĈ",
      "%Ĉ&'( Ĉ",
      "ďĉďĉ!ďĉďĉćććć ćďĉ!",
      "ďĉ!!!!!!!!!!!!!!!!!!!!!!!!!!!!!!!!!!! ďĉ!ďĉďĉ!",
      "ćććĈ!Ĉ!Ĉ!ćĈĈĈĈ! ćĈ!ĈĈ!ćĈ!ć",
      "% M&'(",
      "A B",
[...]
