{
  "version": "1.0",
  "truncation": null,
  "padding": null,
  "added_tokens": [
    {
      "id": 0,
      "content": "[CLS]",
      "single_word": false,
      "lstrip": false,
      "rstrip": false,
      "normalized": false,
      "special": true
    },
    {
      "id": 1,
      "content": "[MASK]",
      "single_word": false,
      "lstrip": false,
      "rstrip": false,
      "normalized": false,
      "special": true
    },
    {
      "id": 2,
      "content": "[SEP]",
      "single_word": false,
      "lstrip": false,
      "rstrip": false,
      "normalized": false,
      "special": true
    },
    {
      "id": 3,
      "content": "[PAD]",
      "single_word": false,
      "lstrip": false,
      "rstrip": false,
      "normalized": false,
      "special": true
    }
  ],
  "normalizer": null,
  "pre_tokenizer": null,
  "post_processor": null,
  "decoder": null,
  "model": {
    "type": "BPE",
    "dropout": null,
    "unk_token": null,
    "continuing_subword_prefix": null,
    "end_of_word_suffix": null,
    "fuse_unk": false,
    "byte_fallback": false,
    "vocab": {
      "[CLS]": 0,
      "[MASK]": 1,
      "[SEP]": 2,
      "[PAD]": 3,
      "!": 4,
      "\"": 5,
      "#": 6,
      "$": 7,
      "%": 8,
      "&": 9,
      "'": 10,
      "(": 11,
      ")": 12,
      "*": 13,
      "+": 14,
      ",": 15,
      "-": 16,
      ".": 17,
      "/": 18,
      "0": 19,
      "1": 20,
      "2": 21,
      "3": 22,
      "4": 23,
      "5": 24,
      "6": 25,
      "7": 26,
      "8": 27,
      "9": 28,
      ":": 29,
      ";": 30,
      "<": 31,
      "=": 32,
      ">": 33,
      "?": 34,
      "@": 35,
      "A": 36,
      "B": 37,
      "C": 38,
      "D": 39,
      "E": 40,
      "F": 41,
      "G": 42,
      "H": 43,
      "I": 44,
      "J": 45,
      "K": 46,
      "L": 47,
      "M": 48,
      "N": 49,
      "O": 50,
      "P": 51,
      "Q": 52,
      "R": 53,
      "S": 54,
      "T": 55,
      "U": 56,
      "V": 57,
      "W": 58,
      "X": 59,
      "Y": 60,
      "Z": 61,
      "[": 62,
      "\\": 63,
      "]": 64,
      "^": 65,
      "_": 66,
      "`": 67,
      "a": 68,
      "b": 69,
      "c": 70,
      "d": 71,
      "e": 72,
      "f": 73,
      "g": 74,
      "h": 75,
      "i": 76,
      "j": 77,
      "k": 78,
      "l": 79,
      "m": 80,
      "n": 81,
      "o": 82,
      "p": 83,
      "q": 84,
      "r": 85,
      "s": 86,
      "t": 87,
      "u": 88,
      "v": 89,
      "w": 90,
      "x": 91,
      "y": 92,
      "z": 93,
      "{": 94,
      "|": 95,
      "}": 96,
      "~": 97,
      "Ā": 98,
      "ā": 99,
      "Ă": 100,
      "ă": 101,
      "Ą": 102,
      "ą": 103,
      "Ć": 104,
      "ć": 105,
      "Ĉ": 106,
      "ĉ": 107,
      "Ċ": 108,
      "ċ": 109,
      "Č": 110,
      "č": 111,
      "Ď": 112,
      "ď": 113,
      "Đ": 114,
      "đ": 115,
      "Ē": 116,
      "ē": 117,
      "Ĕ": 118,
      "ĕ": 119,
      "Ė": 120,
      "ė": 121,
      "Ę": 122,
      "ę": 123,
      "Ě": 124,
      "ě": 125,
      "Ĝ": 126,
      "ĝ": 127,
      "Ğ": 128,
      "ğ": 129,
      "Ġ": 130,
      "ġ": 131,
      "Ģ": 132,
      "ģ": 133,
      "Ĥ": 134,
      "ĥ": 135,
      "Ħ": 136,
      "ħ": 137,
      "Ĩ": 138,
      "ĩ": 139,
      "Ī": 140,
      "ī": 141,
      "Ĭ": 142,
      "ĭ": 143,
      "Į": 144,
      "į": 145,
      "İ": 146,
      "ı": 147,
      "Ĳ": 148,
      "ĳ": 149,
      "Ĵ": 150,
      "ĵ": 151,
      "Ķ": 152,
      "ķ": 153,
      "ĸ": 154,
      "Ĺ": 155,
      "ĺ": 156,
      "Ļ": 157,
      "!!": 158,
      "!!!!": 159,
      "!!!!!!!!": 160,
      "Ĉ!": 161,
      "ďĉ": 162,
      "!!!!!!!!!!!!!!!!": 163,
      "ćć": 164,
      "ďĉďĉ": 165,
      "ĈĈ": 166,
      "Ĉ!Ĉ!": 167,
      "'(": 168,
      "&'(": 169,
      "%&'(": 170,
      "ćĈ!": 171,
      "22": 172,
      "ĈĈĈĈ": 173,
      "ćććć": 174,
      "ćĈ!Ĉ!": 175,
      "ďĉďĉďĉďĉ": 176,
      "ďĉ!": 177,
      "ćĈ": 178,
      "2222": 179,
      "%&'(%&'(": 180,
      "!!!": 181,
      "Ĉ!Ĉ!Ĉ!Ĉ!": 182,
      "Ĉ!Ĉ": 183,
      "ćĈĈ": 184,
      "ććĈ!": 185,
      "ďĉ!!": 186,
      "ĈĈĈĈĈĈĈĈ": 187,
      "ćĈćĈ": 188,
      "MM": 189,
      "!!!!!!!!!!!!!!!!!!!!!!!!": 190,
      "ĈĈĈ": 191,
      "ćĈ!ćĈ!": 192,
      "%&": 193,
      "ďĉďĉ!": 194,
      "ćććććććć": 195,
      ")!": 196,
      "%&'(%&'(%&'(%&'(": 197,
      "&'(!!!!!!!!!!!!!!!!": 198,
      "ďĉďĉďĉ": 199,
      "Ĉ!ćĈ!Ĉ!": 200,
      "22222222": 201,
      "ććĈ": 202,
      "!!!!!!!!!!!!!!!!!!!!": 203,
      "LL": 204,
      ")!)": 205,
      "ćĈ!Ĉ": 206,
      "Ĉ!Ĉ!Ĉ": 207,
      "ćććĈ!Ĉ!": 208,
      "ďĉďĉďĉ!": 209,
      "MMMM": 210,
      "!!!!!!": 211,
      "ďĉ!!!!!!!!": 212,
      "ćĈ!ćĈ!Ĉ!": 213,
      "ďĉďĉ!!": 214,
      "01": 215,
      "Ĉ!ĈĈĈ": 216,
      "ćĈĈĈ": 217,
      "!!!!!": 218,
      "ďĉ!!!!!!!!!!!!!!!!": 219,
      "ďĉďĉďĉďĉďĉďĉďĉďĉ": 220,
      "Ĉ!ĈĈ": 221,
      "ďĉ%&'(": 222,
      "!!!!!!!": 223,
      "44": 224,
      "55": 225,
      "66": 226,
      "88": 227,
      "ćĈĈĈĈ": 228,
      "ććĈ!Ĉ!": 229,
      "+/": 230,
      "+/,": 231,
      "+/,'(": 232,
      "ďĉ!ďĉ!": 233,
      "%&'(ďĉ": 234,
      "%&'(ĉ": 235,
      "2222222222222222": 236,
      "%&-": 237,
      "!L": 238,
      "%!!!!!!!!": 239,
      "%!": 240,
      "!LK": 241,
      "ď%&'(ĉ": 242,
      "ćďĉ!": 243,
      "Ĉ!ĈĈĈĈ": 244,
      "77": 245,
      ")!)!!!!!!!!!!!!!!!!": 246,
      "LLLL": 247,
      "ĈĈĈĈĈĈĈĈĈĈĈĈĈĈĈĈ": 248,
      "ďĉďĉďĉ!!": 249,
      "ćĈ!ćć": 250,
      "ďĉćććć": 251,
      "ćĈćĈćĈ": 252,
      "Ĉ!Ĉ!Ĉ!Ĉ!Ĉ!Ĉ!": 253,
      "ďĉďĉďĉďĉ!": 254,
      "Ĉ!Ĉ!ćĈ!Ĉ!": 255,
      "&'(ĉ": 256,
      "%ď": 257,
      "MMMMMMMM": 258,
      "Ĉ&'(": 259,
      "ćĈ!ććĈ": 260,
      "ćĈ!ćĈ": 261,
      "%ď&'(ĉ": 262,
      "-%&": 263,
      "ďĉ!ďĉ": 264,
      "%Ĉ&'(": 265,
      "ďĉ!ďĉďĉďĉďĉ": 266,
      "ć%&'(": 267,
      "!!!!!!!!!!!!!!!!!!!!!": 268,
      "23": 269,
      "%!!!!!!!!!!!!!!!!": 270,
      "!!!S": 271,
      "ĉĉ": 272,
      "ďĉďĉ%&'(": 273,
      "ćĈćĈćĈćĈ": 274,
      "ćććĈ": 275,
      "Ĉ!Ĉ!Ĉ!": 276,
      "%&-+/,'(": 277,
      "ĈćĈĈ": 278,
      "ćććććććććććććććć": 279,
      "ćďĉ": 280,
      "'(3": 281,
      "!LK!LK": 282,
      "Ĉ!ĈĈ!": 283,
      "ďď": 284,
      "Ĉ!Ĉ!Ĉ!Ĉ": 285,
      "!!&'(!!!!!!!!!!!!!!!!": 286,
      "))": 287,
      "+01": 288,
      "4444": 289,
      "5555": 290,
      "6666": 291,
      "8888": 292,
      "ďĉďĉďĉ%&'(": 293,
      "ćĈ!Ĉ!Ĉ!": 294,
      "-%&+/,'(": 295,
      "-%&+/,'(-%&+/,'(": 296,
      "ćĈ!Ĉ!Ĉ": 297,
      "ćĈ!ććĈ!": 298,
      "ćĈ!ć": 299,
      "ććććĈ": 300,
      "ććććććĈ!": 301,
      "ćĈ!Ĉ!Ĉ!Ĉ!Ĉ!Ĉ!": 302,
      "!!!!!!!!!!!!!!!!!!!!!!!": 303,
      "ďĉĉ": 304,
      "ďĉďĉ!!!": 305,
      "%!&'(": 306,
      "ćĈĈĈĈĈ": 307,
      "ććĈ!Ĉ!Ĉ!Ĉ!": 308,
      "ďĉ!!!": 309,
      "ćććććććĈ!Ĉ!": 310,
      "222222": 311,
      "'(7": 312,
      "ćĈ!ĈĈĈ": 313,
      "ďĉďĉďĉďĉďĉďĉ!": 314,
      "ĄĆ": 315,
      "ĂĄĆ": 316,
      "222": 317,
      "4%&": 318,
      "5222": 319,
      "6'(7": 320,
      "4%&5222": 321,
      "4%&52226'(7": 322,
      "2222224%&52226'(7": 323,
      "8,": 324,
      "2222224%&52226'(78,": 325,
      "!!!!!!!!!!!!!!!!!!!!!!": 326,
      "%&-+01": 327,
      "ďďĉĉ": 328,
      ")!)!!!!!!!!": 329,
      "ďĉćć": 330,
      "TV": 331,
      "ćĈĈćĈĈ": 332,
      "'(32222224%&52226'(78,": 333,
      "TVa": 334,
      "Ĉ!ĈĈ!Ĉ": 335,
      "%Ĉ&'(!": 336,
      "!!!!!!!!!!!!!!!!!!!": 337,
      "ććć": 338,
      "ĈĈĈĈĈĈĈĈĈĈĈĈ": 339,
      "ďĉďĉďĉďĉďĉďĉ": 340,
      "ďĉ!!!!!!!!!!!": 341,
      "!!!!R": 342,
      "Ĉ!Ĉ!ĈĈ": 343,
      "ććĈ!ć": 344,
      "0101": 345,
      "%&-+/,'(%&-+/,'(": 346,
      "ćĈ!Ĉ!Ĉ!ćĈ!Ĉ!": 347,
      "ććĈ!Ĉ": 348,
      "ďĉďĉďĉďĉďĉ": 349,
      "ďĉ!!ďĉ!": 350,
      "LLLLLLLL": 351,
      "%!&'(!!!!!!!!!!!!!!!!": 352,
      "Ĉ!ćĈ!": 353,
      "!!!&'(!!!!!!!!!!!!!!!!": 354,
      "ććĈ!Ĉ!Ĉ": 355,
      "ćĈ!Ĉ!Ĉ!Ĉ!": 356,
      "2323": 357,
      "!!!SĂĄĆ": 358,
      "Ĉ!Ĉ!Ĉ!ćĈ!Ĉ!": 359,
      "ćĈ!ćĈ!ćĈ!ćĈ!": 360,
      "!!!!!!!!!!!!!!!!!!": 361,
      "222222222222222222222222": 362,
      "ď!": 363,
      "ććĈ!ćć": 364,
      "ććĈĈ": 365,
      "ďĉ!ďĉ!!": 366,
      "ććććĈ!": 367,
      "ćĈĈćĈ": 368,
      "ďĉ!!!!": 369,
      "MMMMMMMMMMMMMMMM": 370,
      "%&'(ďĉďĉ": 371,
      "#$": 372,
      "ĈĈĈĈĈĈ": 373,
      "ĈĈ!": 374,
      "%ć": 375,
      "ďĉ!ďĉďĉ": 376,
      "ćĈ!ĈĈ": 377,
      "ďĉďĉďĉďĉďĉďĉďĉ": 378,
      "ććĈĈĈ": 379,
      "ćĈ!ďĉ!": 380,
      "!!!!!!!!!!!!!!!!!": 381,
      "%ĉ": 382,
      "ĈĈĈ!ĈĈĈ": 383,
      "ďĉďĉďĉďĉďĉďĉďĉ!": 384,
      "ĈĈĈĈĈĈĈĈĈ": 385,
      "%&'": 386,
      "Ĉ!ĈćĈ!Ĉ!": 387,
      "ďĉ!!!!!!!!!": 388,
      "ćććĈ!Ĉ!Ĉ!Ĉ!Ĉ!Ĉ!": 389,
      "ĉ!": 390,
      "ď%ĉ": 391,
      ")!)!!": 392,
      "7777": 393,
      "ććććĈ!ćĈ!Ĉ!": 394,
      "ďĉ!!!!!!": 395,
      "TVa!!!SĂĄĆ": 396,
      "ćďĉďĉ": 397,
      "ćĈ!ćĈ!Ĉ!Ĉ!": 398,
      "011": 399,
      "&'(!": 400,
      "Ĉ!Ĉ!Ĉ!!": 401,
      "%&'(!!!!!!!!!!!!!!!!": 402,
      "ććĈ!Ĉ!Ĉ!Ĉ!Ĉ!Ĉ!": 403,
      "ďĉďĉćććć": 404,
      "ćĈ!ćĈ!Ĉ!Ĉ!ćĈ!Ĉ!": 405,
      "0011": 406,
      "ďĉ!ďĉďĉďĉ!": 407,
      "ďĉďĉďĉďĉďĉ!!": 408,
      ")!!!!!!!!": 409,
      "ďĉ!!!!!": 410,
      "ćĈĈ!": 411,
      "ćććĈ!Ĉ!Ĉ!Ĉ!": 412,
      "Ĉ!ćĈ!Ĉ": 413,
      "ď'(": 414,
      "!!!!&'(!!!!!!!!!!!!!!!!": 415,
      "!!!!!&'(!!!!!!!!!!!!!!!!": 416,
      "%!!&'(!!!!!!!!!!!!!!!!": 417,
      "ćĈ!ćĈ!Ĉ": 418,
      "33": 419,
      "ćĈĈĈĈĈĈ": 420,
      "ćĈ!ćĈĈ": 421,
      "ďĉ!ďĉďĉ!": 422,
      "ďĉ!%&'(": 423,
      "!!)!": 424,
      "ĈĈĈĈ!": 425,
      "!LK!LK!LK!LK": 426,
      "%&ď'(": 427,
      "ćĈĈĈćĈĈ": 428,
      "ďĉďĉďĉ!ďĉďĉ!": 429,
      "ď%ĉ&'(": 430,
      "#.": 431,
      "$#$": 432,
      "ď(": 433,
      "Ĉ!ćĈ!Ĉ!Ĉ": 434,
      "ććĈ!ćĈ!ćĈ!": 435,
      "#..": 436,
      "!!!!R!!!S": 437,
      "Ĉ!ĈĈĈĈĈĈĈ": 438,
      "!!&'(": 439,
      "ććĈćć": 440,
      "ĈćĈĈćĈ": 441,
      "ććĈ!ććĈ!": 442,
      "$#$!!)!": 443,
      "%&-+/,'(#..": 444,
      "Ĉ!Ĉ!ĈĈĈ": 445,
      "%&'ď(": 446,
      "Ĉ!Ĉ!ĈĈ!Ĉ": 447,
      "ďĉďĉďĉďĉďĉďĉďĉďĉ!": 448,
      "ćĈĈćĈĈćĈćĈćĈ": 449,
      "ĈĈĈ!Ĉ!": 450,
      "ćććĈ!Ĉ!Ĉ!": 451,
      "ććććććĈ!ćĈĈ": 452,
      "ćĈ!ćĈ!ćĈ!ćĈ!ćĈ!Ĉ!": 453,
      "ďĉ!ďĉďĉďĉ": 454,
      "ĉĉĉĉ": 455,
      "ĈĈĈĈĈ": 456,
      "Ĉ!ĈĈćĈ": 457,
      "!&'(!!!!!!!!!!!!!!!!": 458,
      "!!!!!!!!!!!": 459,
      "%&-+/,'(#..$#$!!)!": 460,
      "Ĉ!ĈćĈ!Ĉ!Ĉ!Ĉ": 461,
      "!!!!ďĉ!!": 462,
      "ďĉććĈ!": 463,
      "ćĈ!Ĉ!Ĉ!Ĉ!ćĈ!Ĉ!": 464,
      "ďĉďĉďĉďĉďĉćććć": 465,
      "Ĉ!ĈĈ!ĈĈĈ": 466,
      "%&'(ďĉ!!": 467,
      "ćććĈ!Ĉ!Ĉ!Ĉ": 468,
      "%ć&'(": 469,
      "!!!&'(": 470,
      "Ĉ!Ĉ!Ĉ!Ĉ!Ĉ!Ĉ!Ĉ!Ĉ!": 471,
      "ćććććććććć": 472,
      "ďĉ!ďĉďĉ!!": 473,
      "ćĉ": 474,
      "%&5555": 475,
      "44444444": 476,
      "66666666": 477,
      "8888,": 478,
      "88888888,": 479,
      "%&55555555": 480,
      "44444444%&55555555": 481,
      "%&ď'(ĉ": 482,
      "ćďĉďĉďĉ": 483,
      "(7": 484,
      "(788888888,": 485,
      "%!!!!!!!": 486,
      "Ĉ!ććĈ!": 487,
      "ďĉďĉďĉďĉ!!": 488,
      "%&'ď(ĉ": 489,
      "%!!!!!!!!!!!!!!!!!!!!": 490,
      "244444444%&55555555": 491,
      "(788888888,-%&": 492,
      "%&'(ďĉďĉďĉ!": 493,
      "ćĈĈĈĈĈĈĈĈ": 494,
      "ć!": 495,
      "ćĈćĈĈ": 496,
      "Ĉ!Ĉ!ćĈ!": 497,
      "Ĉ!ĈĈĈĈĈ": 498,
      "Ĉ!Ĉ!Ĉ!Ĉ!ĈćĈĈ": 499,
      "ćĈ!Č": 500,
      "ćĈććĈ": 501,
      "Ĉ!ĈĈĈ!": 502,
      "ĈĈ!Ĉ!Ĉ!Ĉ!": 503,
      "%!!!!!!": 504,
      "ćĈĈĈĈĈĈĈĈĈĈĈĈ": 505,
      "%!!&'(": 506,
      "ćĈ!ćČ": 507,
      "Ĉ!ćĈ!ćĈ!": 508,
      "L!LK": 509,
      "ďĉ!ďĉďĉďĉďĉďĉďĉďĉďĉ": 510,
      "Ĉ!ććĈ!Ĉ!": 511,
      "ď%&'(ĉ!": 512,
      "ĈĈĈĈĈĈĈĈĈĈĈ": 513,
      "TVa!!!SĂĄĆ!!!!R!!!S": 514,
      ")ďĉďĉ!": 515,
      "!!!!!!!!!": 516,
      "ďĉďĉďĉďĉ%&'(": 517,
      "ćĈ!ćĈ!ćĈ": 518,
      "ćďĉďĉ!": 519,
      "ćĈ!ĈĈ!Ĉ!": 520,
      "ćććććĈ!ćĈĈ": 521,
      "ďĉďĉ!!!!": 522,
      "ďĉ!!!!!!!!!!!!!!!!!!!": 523,
      "'7777": 524,
      "ćććĈĈ": 525,
      "ćĈ!Ĉ!ćĈ!Ĉ!": 526,
      "ćĈ!Ĉ!ĈćĈ!Ĉ!": 527,
      "ććććĈ!Ĉ!": 528,
      "ćďĉďĉďĉďĉ!": 529,
      "!!Č": 530,
      "ććććĈććĈ": 531,
      "ćĈĈ!Ĉ!Ĉ": 532,
      "ćĈćĈćĈćĈćĈćĈćĈćĈ": 533,
      "ćĈ!ćĈćĈćĈ": 534,
      "ćĈĈĈĈĈĈĈĈććĈ": 535,
      "ćĈ!ćĈ!ćĈ!ćĈ": 536,
      "ććĈ!ćććĈ!ćć": 537,
      "LLLLLLLLLLLLLLLL": 538,
      "ćĈ!ćĈ!Ĉ!ćĈĈ": 539,
      "!!ďĉ!!!!!!": 540,
      "%!!!&'(": 541,
      "Ĉ!ĈĈĈĈ!": 542,
      "ććĈććĈ!": 543,
      "ćĈĈ!ćĈ!Ĉ!": 544,
      "ćććĈćĈ": 545,
      "ććĈ!ććććĈ": 546,
      "ĈĈĈ!ĈĈĈććĈ!": 547,
      "ććććĈ!ĈĈ": 548,
      "ćĈĈĈĈ!Ĉ": 549,
      "ĈĈĈĈćĈĈĈĈ": 550,
      "ĈĈĈĈĈĈĈĈĈĈĈĈĈĈĈĈĈĈĈĈ": 551,
      "ćĈćĈĈĈĈ": 552,
      "ďĉ!!ďĉďĉďĉďĉďĉďĉ!": 553,
      "ćĈ!ĈććĈĈĈ": 554,
      "Ĉ!ĈĈĈĈĈĈ": 555,
      "ĈćĈ!Ĉ!": 556,
      "ćĈćĈćĈćĈćĈĈćĈĈćĈćĈćĈ": 557,
      "%!!!&'(!!!!!!!!!!!!!!!!": 558,
      "ďĉ!!!!!!!!!!!!!!!": 559,
      "ćĈ!ĈĈ!Ĉ": 560,
      "ćĈ!ććĈćĈ!ćĈ": 561,
      "!!ćĈ!Ĉ!Ĉ!Ĉ!": 562,
      "ćĈ!Ĉ!ććĈ!": 563,
      "ććĈĈććĈćć": 564,
      "Ĉ!ĈćĈ!Ĉ!Ĉ!ĈćĈ!ćć": 565,
      "ďĉď%&'(ĉ": 566,
      "ćĈ!ćĈ!ćĈ!ćĈ!Ĉ!": 567,
      "ćććĈ!Ĉ!ćĈ!Ĉ!": 568,
      "Ĉ!Ĉ!Ĉ!Ĉ!!": 569,
      "ĈĈĈĈĈĈćĈ!ććĈ": 570,
      "ďĉćĈ!Ĉ!": 571,
      "ććĈ!ćĈ!ććĈ!": 572,
      "ĈĈĈĈĈĈĈĈĈĈĈĈĈĈ!Ĉ!Ĉ!Ĉ!": 573,
      "ĈćĈĈćĈćĈĈĈćĈĈ": 574,
      "%&'(!": 575,
      "ďĉ!)!)!!!!!!!!": 576,
      "ďĉďĉďĉďĉďĉ%&'(": 577,
      "ĈĈĈĈĈĈĈĈĈĈ!ćĈ!Ĉ!": 578,
      "ďďďď": 579,
      "ćď": 580,
      "ćĈ!ĈćĈćĈćĈ": 581,
      "!&'(": 582,
      "Ĉ!ĈĈ!ĈĈĈĈ!ĈĈ!Ĉ": 583,
      "ďĉ!ďĉ!!!!!!!!!!!": 584,
      "ćĈ!Ĉ!Ĉ!ćĈĈćĈ": 585,
      "ďĉ!ďĉ!!!!!!": 586,
      "ććĈ!Ĉ!Ĉ!Ĉ!Ĉ!Ĉ!ćĈ": 587,
      "%ćĈ": 588,
      "ďĉ!!ďĉďĉ": 589,
      "ĈĈĈĈĈĈĈĈĈĈ!ĈĈ": 590,
      "Ĉ!ćĈ!Ĉ!ĈćĈĈĈ": 591,
      "ď!ĉ": 592,
      "%!!!!!!!!!!!!!!": 593,
      "ďĉďĉ!ďĉ!": 594,
      "ďĉćććććć": 595,
      "ďĉďĉ!!!!!!!!!!!!!!!!": 596,
      "ćććććććććććććććććććććććć": 597,
      "ďĉďĉďĉďĉ!ďĉďĉ": 598,
      "%ć&": 599,
      "ćććććć": 600,
      "(788888888,-%&+01": 601,
      "Ĉ!Ĉ!Ĉ!ĈĈĈĈĈĈĈĈĈĈ!ĈĈ": 602,
      "ďĉ!!ďĉďĉ!!!": 603,
      "ďĉďĉ!ďĉ%&'(": 604,
      "ĥĤ": 605,
      "Ĉ!Ĉ!ĈĈ!Ĉ!Ĉ!Ĉ!": 606,
      "ćććććććĈ!Ĉ!Ĉ!ćĈ!Ĉ!": 607,
      "ďĉ!!!!!!!": 608,
      "ďĉ!!ďĉďĉďĉ": 609,
      "ďĉ%ď&'(ĉ": 610,
      "ďĉćććććććć": 611,
      "!!!!!!!!!!": 612,
      "%&'(ďĉ!": 613,
      "ćććććććĈ!Ĉ!ććććććĈ!ćĈĈ": 614,
      "Ĉ!!": 615,
      "%&'(ďĉďĉ!": 616,
      "Ĉ!ĈćĈ!": 617,
      ")!)ďĉďĉďĉďĉ": 618,
      "%!!!!!!!!!!!!!!!": 619,
      "Ē!!": 620,
      "%&'(ďĉ!!!!!!!!!!!!!!!!": 621,
      "ďĉĈ!ĈĈĈĈĈĈĈ": 622,
      "ďĉďďĉĉ": 623,
      "%&'(ďĉďĉďĉ": 624,
      "Ĉ(": 625,
      "!!!!!&'(": 626,
      "Ĉ!ĉ": 627,
      "ďĉ!!!!!!!!!!!!!!": 628,
      "ďĉĈ!Ĉ!Ĉ!Ĉ!": 629,
      "ćĈ!ĈćĈĈ": 630,
      "ĖĖ": 631,
      "!!!!!!!!!!!!!!!": 632,
      "%&'(ďĉďĉ!!": 633,
      "%&'(ďĉĈ!Ĉ!Ĉ!Ĉ!": 634,
      ")!!!!!!!!)!": 635,
      "ĈĈ!Ĉ": 636,
      "ćććĈ!": 637,
      "ďĉďĉďĉďĉćććć": 638,
      "%ď&'(ĉ!": 639,
      "!!!!&'(": 640,
      "ćďĉ%&'(": 641,
      "Ĉ'(": 642,
      "322": 643,
      "ćĈĈĈĈĈćĈĈĈĈĈ": 644,
      "ććĈ!Ĉ!Ĉ!Ĉ": 645,
      "!ďĉ": 646,
      "Ĉ!Ĉ!ćĈ!Ĉ": 647,
      "ďĉďĉďĉďĉďĉďĉ%&'(": 648,
      "ćććććććććććć": 649,
      "01'(3": 650,
      "ďĉďĉďĉďĉďĉ)!)": 651,
      "ďĉ%&'(ďĉďĉ": 652,
      "232222222222222222": 653,
      "ďĉ!!!!!!!!!!!!": 654,
      ")!)!": 655,
      "ďĉďĉďĉ!!ďĉďĉ": 656,
      "ďĉ))": 657,
      "!LK!LK!LK!LK!LK!LK!LK!LK": 658,
      "ćĈ!ĈĈ!ĈĈĈ": 659,
      "AA": 660,
      "ďĉďĉďĉďĉďĉďĉďĉďĉďĉďĉ": 661,
      "%!!!!&'(!!!!!!!!!!!!!!!!": 662,
      "Ĉ!Ĉ!ĈĈ!Ĉ!": 663,
      "ďĉćććĈ!Ĉ!Ĉ!Ĉ!": 664,
      "Ĉ!ĈĈ!Ĉ!Ĉ!Ĉ!": 665,
      "ďĉď": 666,
      "%&'(ďĉćć": 667,
      "Ĉ!ćć": 668,
      "ďĉďĉďĉ!ďĉ!ďĉ!": 669,
      "32323": 670,
      "ć(": 671,
      "ćĈ!ćĈ!Ĉ!ĈćĈ!Ĉ!": 672,
      "Ĉ!Ĉ!ĈĈ!": 673,
      "ďĉ!!ďĉ!ďĉďĉ!": 674,
      "ďĉ!ďĉ!!!": 675,
      "ćĈ!ĈĈĈĈ": 676,
      "ďĉ!!!!!!!!!!!!!!!!!!": 677,
      "ďĉďĉďĉ!!ďĉ!": 678,
      "ćććĈ!ćć": 679,
      "ďĉ!!!!!!!!!!!!!": 680,
      "Ĉ!Ĉ!Ĉ!Ĉ!ĈćĈĈĈ!ĈĈĈ": 681,
      "%&'(ďĉďĉďĉďĉďĉďĉďĉďĉ": 682,
      "ćĈ!ďĉ": 683,
      "ć!!": 684,
      "Ĉ!ĈĈĈ!Ĉ!Ĉ": 685,
      "ďĉďĉ!ďĉ!!": 686,
      ")!)!!!!!!!!!!!!!!!!!!!!": 687,
      "ććććĈćĈ": 688,
      "ďĉďĉ!ďĉďĉćććć": 689,
      "ććĈ!Ĉ!Ĉ!ćĈ!": 690,
      "777": 691,
      "!ććććĈ!ĈĈ": 692,
      "ďĉ!ďĉďĉďĉďĉďĉďĉďĉ": 693,
      "ćĈ!Ĉ!Ĉ!Ĉ!Ĉ!": 694,
      "Ĉ!ćĈ!Ĉ!Ĉ!ćĈ!Ĉ!": 695,
      "Čďĉ": 696,
      "Čďĉďĉ": 697,
      "!!!!ďĉ!!!!!!!!!!!!!!!!": 698,
      "Ĉ!Ĉ!Ĉ!ĈĈĈ": 699,
      "ćĈĈĈćĈ": 700,
      "%!Ĉ&'(": 701,
      "ć%&'(ďĉ": 702,
      "ććććććĈććĈ!": 703,
      "RTVa": 704,
      "ććĈ!ĈĈ!": 705,
      "%&'(%&'(%&'(": 706,
      "ĈćĈĈćĈćĈĈĈćĈĈďĉ": 707,
      "ďĉďĉ)": 708,
      "ćĈ!Ĉ!ĈĈ": 709,
      "ćĈ!ĈćĈ!Ĉ!": 710,
      "ćĈ!Ĉ!ĈćĈ!": 711,
      "Ĉ(!": 712,
      "Ĉ!ĈĈ!Ĉ!": 713,
      "Ĉ!Ĉ!ĈĈĈ!": 714,
      "%&'(ďĉ!!!": 715,
      "ĈĈĈĈĈ!": 716,
      "ććććććććććććĈ!": 717,
      "ďĉćććĈ!Ĉ!": 718,
      "Ĉ!Ĉ!Ĉ!Ĉ!ĈĈĈĈ": 719,
      "ćĈ!ćĈ!ćďĉďĉďĉďĉ!": 720,
      "ćććĈćć": 721,
      "ćĈćĈćĈ!Ĉ!": 722,
      "Ĉ!ćĈ!Ĉ!Ĉ!Ĉ!Ĉ!!": 723,
      "ćććććĈ!Ĉ!Ĉ!ćĈĈćĈ": 724,
      "ććĈ!ćďĉďĉďĉďĉďĉďĉďĉďĉ": 725,
      "Ĉ!ďĉďĉ!": 726,
      "ćĈ!Ĉ!!": 727,
      "00011": 728,
      "Ĉ!ćĈ!ĈćĈ": 729,
      "ďĉĈ!": 730,
      "Ĉ!Ĉ!Ĉ!Ĉ!Ĉ!Ĉ!Ĉ": 731,
      "ć%&'(ďĉ!": 732,
      "Ĉ!ććĈĈ": 733,
      "Ĉ!ĈĈ!Ĉ!Ĉ!Ĉ": 734,
      "ćĈ!ĈćĈ": 735,
      ")ďĉďĉďĉ": 736,
      "Ĉ!Ĉ!ćĈĈ": 737,
      "ČČ": 738,
      "Ē!": 739,
      "ďĉďĉďĉďĉďĉďĉ!ďĉďĉ!": 740,
      "Ĉ!ďĉďĉ": 741,
      "ćĈćĈ!ćĈ": 742,
      "ďĉ%&'(!": 743,
      "ćĈ!Ĉ!ćĈ": 744,
      "ć%Ĉ&'(!": 745,
      "Ĉ'(!": 746,
      "ďĉďĉďĉďĉďĉ!ďĉ!": 747,
      "%ćĈ&'(!": 748,
      ")!!!!!!!!!!!!!!!!": 749,
      "Ĉ!ĈĈĈ!ĈĈ": 750,
      "Ĉ!%&'(ďĉďĉďĉ!": 751,
      "ćĈĈĈććĈ": 752,
      "ďĉ!!!ćććć": 753,
      "ćĈĈĈĈĈćĈ": 754,
      "%&'(ďĉ!ďĉďĉďĉďĉ": 755,
      "ćĈ!ĈććĈ": 756,
      "!!ćććć": 757,
      "ćĈććć": 758,
      "Ĉ!ĈććĈ": 759,
      "RTVa!!!SĂĄĆ!!!!R!!!S": 760,
      "Ĉ!Ĉ!ĈĈĈĈĈĈ": 761,
      "ćĈ!ćĈĈĈ": 762,
      "Ĉ!Ĉ!Ĉ!ĈĈ!Ĉ": 763,
      "Ĉ!Č": 764,
      "ćĈ!ćĈ!ćĈ!Ĉ!": 765,
      "ďĉďĉ!!ďĉ!ďĉ!!": 766,
      "ćĈĈććĈĈĈ": 767,
      "ćĈćĈćĈćĈćĈ": 768,
      "Ĉ!ďĉďĉ!ďĉćććć": 769,
      "ććĈ!ćĈĈ": 770,
      "ćĈĈĈććĈĈĈ": 771,
      "ćďĉ!ďĉćć": 772,
      "ćććĈććĈ": 773,
      "ĈĈ!ććĈ!Ĉ!": 774,
      "ďĉććććĈ!ćĈ!ćĈ!": 775,
      "ććĈ!Ĉ!Ĉ!Ĉ!Ĉ!ďĉďĉ!ďĉćććć": 776,
      "ćĈ!ćĈ!ćĈ!ćĈ!ćĈ!ćĈćĈćĈ": 777,
      "ćĈ!ćĈ!ĈĈ!Ĉ!": 778,
      "ćĈ!ćĈ!ćĈ!ćĈćĈ!ćĈ!Ĉ!": 779,
      "ČďĉćĈ!ćĈ!ćĈ!ćĈćĈ!ćĈ!Ĉ!": 780,
      "ďĉććććĈ!ćĈ!ćĈ!ĈĈ!ććĈ!Ĉ!": 781,
      "!!!!)!)!!!!!!!!!!!!!!!!": 782,
      "ďĉďĉ!ćććććććĈ!Ĉ!": 783,
      "Ĉ!ĈĈĈćĈ!ćĈĈĈ": 784,
      "Ĉ!Ĉ!Ĉ!Ĉ!ĈćĈĈćĈĈĈĈĈ": 785,
      "ćĈ!Ĉ!ĈĈĈĈĈĈ": 786,
      "ďĉďĉďĉďĉĈ!ĈĈĈćĈ!ćĈĈĈ": 787,
      "Ĉ!ćĈ!Ĉ!ĈĈĈ!ĈĈĈććĈ!": 788,
      "ććĈćĈćĈćĈ": 789,
      "ćĈ!ćććĈ!ćć": 790,
      "Ĉ!ĈĈ!ććĈ!Ĉ!Ĉ": 791,
      "ćĈ!ććĈ!ćĈ!ććĈ!": 792,
      "ďĉďĉďĉďĉďĉććććĈ!ćĈ!ĈćĈ": 793,
      "ĈĈćĈćĈćĈ!Ĉ!": 794,
      "Ĉ!Ĉ!ĈĈĈĈ": 795,
      "ďĉ!!ďĉ!!!!!!!!": 796,
      "ďĉďĉ!!ďĉ!!!!": 797,
      "ććĈ!Ĉ!ĈĈĈ!Ĉ!": 798,
      "ĈĈĈĈĈĈĈĈĈĈĈĈĈĈĈĈĈĈĈĈĈĈĈĈ": 799,
      "ććĈ!Ĉ!ĈćĈĈĈććĈĈĈ": 800,
      "ćĈ!Ĉ!ććĈ!ĈĈćĈćĈćĈ!Ĉ!": 801,
      "ćććććććĈ!ćĈ!Ĉ!": 802,
      "ćĈĈĈĈĈćĈĈĈĈĈćĈ!ĈĈĈ": 803,
      "ććĈ!ĈĈ!ćĈĈ!Ĉ!Ĉ": 804,
      "Ĉ!Ĉ!ĈĈĈĈĈĈćĈ!ĈĈĈ": 805,
      "ććĈ!Ĉ!ĈĈĈ!Ĉ!Ĉ!ĈĈćĈ": 806,
      "ćĈ!Ĉ!ććĈ!ĈĈćĈćĈćĈ!Ĉ!ĈćĈĈ": 807,
      "ććĈ!ćĈ!ćĈ!ćĈ!ćĈćĈćĈ": 808,
      "!!!!!!!!!!!!": 809,
      "ĈĈĈĈĈĈĈĈĈ!Č": 810,
      "ćĈĈĈććĈ!Ĉ!": 811,
      "ĈĈĈĈĈĈĈĈĈĈĈĈĈĈĈĈĈĈ!": 812,
      "ćĈ!ĈĈĈĈ!ĈĈ!Ĉ": 813,
      "ććĈ!ććĈ!ĈĈ!ććĈ!Ĉ!Ĉ": 814,
      "ďĉ!)!)!!!!!!!!!!!!!!": 815,
      "ćĈ!ćććĈ!Ĉ!Ĉ!": 816,
      "ćĈ!Ĉ!ćĈĈ": 817,
      "ćĈ!ćĈ!ćĈ!Ĉ!Ĉ!": 818,
      "ććĈĈćĈĈĈ": 819,
      "ććććĈ!ććĈ!ć": 820,
      "ćĈ!ćĈ!Ĉ!Ĉ!ćĈ!ćĈ!Ĉ!ćĈĈ": 821,
      ")!!!!!!!!!!!!!!!": 822,
      "!!Č!": 823,
      "ĈĈĈĈĈĈĈĈĈĈĈĈĈĈĈĈĈĈĈĈĈĈĈ": 824,
      "Ĉ!ćććĈ!ććĈ!": 825,
      "ćććĈćććĈĈćĈ": 826,
      "ććĈćĈćĈćĈćĈ!": 827,
      "ćććĈĈ!Ĉ!": 828,
      "Ĉ!Ĉ!Ĉ!ćĈĈĈććĈ": 829,
      "ćĈ!ĈĈĈćć": 830,
      "ēē": 831,
      "ćĈ!ććććććĈ!": 832,
      "ćĈ!Ĉ!Ĉ!Ĉ!Ĉ!Ĉ!Ĉ!Ĉ!": 833,
      "ćĈ!ćĈ!ććĈ": 834,
      "ďĉ!!!!!!!!ďĉ!!!!!": 835,
      "Ĉ!ćĈ!ćĈĈĈĈ!Ĉ": 836,
      "Ĉ!Ĉ!Ĉ!ćĈ!Ĉ!ćĈććĈ": 837,
      "ĈĈĈĈ!ććĈ": 838,
      "ĈĈĈĈĈĈĈĈĈĈĈĈ!Ĉ!Ĉ!Ĉ!": 839,
      "Ĉ!%&'(ďĉďĉďĉ!))": 840,
      "Ĉ!ćććĈ!ććĈ!ćĈ!ĈĈĈćć": 841,
      "Ĉ!Ĉ!Ĉ!Ĉ!Ĉ!Ĉ!ĈĈĈ!Ĉ!": 842,
      "Ĉ!ĈĈ!ĈĈĈĈĈĈĈĈĈĈĈĈĈĈĈĈ": 843,
      "ďĉ!!!ćććĈ": 844,
      "ććććĈćĈććĈ!": 845,
      "ćĈ!ĈćĈ!ćĈ!Ĉ": 846,
      "Ĉ!ĈĈĈĈ!Ĉ": 847,
      "ććĈ!Ĉ!Ĉ!Ĉ!Ĉ": 848,
      "ďĉććĈĈĈĈĈ": 849,
      "ďĉ!!ďĉ!ććĈ!": 850,
      "Ĉ!ććĈ!ćĈ!Ĉ": 851,
      "ććĈ!ćććĈ!ćććĈ!ćććĈ!Ĉ!Ĉ!": 852,
      "ĈĈĈĈĈĈĈĈĈ!Čďĉ!": 853,
      "ćĈĈĈććĈ!Ĉ!ććĈ!ćć": 854,
      "Ĉ!Ĉćć": 855,
      "ćĈćĈćĈĈĈćĈ": 856,
      "ćĈ!ćĈ!!": 857,
      "ćĈ!Ĉ!!Ĉ!ćĈ!ćĈ!": 858,
      "ćĈ!Ĉ!ććĈ": 859,
      "ćĈćĈ!ććĈ": 860,
      "Ĉ!ĈĈĈ!ĈĈĈĈ": 861,
      "ćĈćĈĈĈ!Ĉ": 862,
      "Ĉ!ĈĈĈĈ!ĈĈĈĈĈĈĈĈ": 863,
      "ćĈćĈĈĈĈĈĈĈ": 864,
      "ćĈ!Ĉ!ĈĈĈĈĈĈććĈ!ć": 865,
      "ćĈ!ććććććĈ!ćĈ!ććĈ": 866,
      "ćĈĈĈ!Ĉ!ćĈ!Ĉ!": 867,
      "ćććĈććććĈććĈ": 868,
      "ćĈĈćĈĈćĈĈĈĈĈćĈ": 869,
      "Ĉ!Ĉ!Ĉ!Ĉ!Ĉ!Ĉ!Ĉ!Ĉ!Ĉ!Ĉ!Ĉ!Ĉ!": 870,
      "ĈĈ!ĈććĈ!Ĉ!Ĉ": 871,
      "Ĉ!Ĉ!ĈĈ!Ĉ!Ĉ!ĈĈĈĈ": 872,
      "ČďĉďĉććĈ!ćĈ!ćĈ!ćĈ!ćĈćĈćĈ": 873,
      "ďĉďĉ!ďĉďĉ%&'(": 874,
      "ćĈ!ĈććĈ!Ĉ": 875,
      "Ĉ!Ĉ!ĈĈ!Ĉ!ĈĈĈ": 876,
      "Ĉ!Ĉ!ĈĈ!Ĉ!ĈĈ!Ĉ": 877,
      "Ĉ!ĈĈĈĈ!ĈĈĈĈ": 878,
      "ććććĈ!ćććĈććĈ": 879,
      "ćććĈćććĈĈćĈćĈ!Ĉ!": 880,
      "ćĈ!Ĉ!!Ĉ!ćĈ!ćĈ!ććĈ!Ĉ!": 881,
      "Ĉ!ĈĈ!Ĉ!ćĈ!": 882,
      "ććĈ!Ĉ!Ĉ!Ĉ!Ĉ!ĈĈ!": 883,
      "ćĈ!ĈĈĈ!!ćććć": 884,
      "ććĈ!ĈććććĈ": 885,
      "ćĈĈĈćĈĈćććć": 886,
      "ćććĈ!Ĉ!Ĉ!ććĈ": 887,
      "ććĈĈĈĈćĈĈĈĈ": 888,
      "ćĈĈ!Ĉ!Ĉ!Ĉ!": 889,
      "Ĉ!ćĈ!Ĉ!Ĉ!Ĉ!Ĉ!Ĉ!": 890,
      "ćĈ!ĈćĈ!ććĈ": 891,
      "ćććĈ!Ĉ!Ĉ": 892,
      "Ĉ!Ĉ!ćĈ!Ĉ!ĈĈĈ": 893,
      "ćĈĈćĈĈćĈ!ćććĈ!ćć": 894,
      "Ĉ!ććĈ!ćĈ!ććĈ": 895,
      "ćĈ!ĈĈ!Ĉ!ďĉ!ďĉ!": 896,
      "!!Č!!Č!": 897,
      "ćĈćĈćĈćĈćĈćĈćĈćĈćĈćĈćĈćĈ": 898,
      "Ĉ!ććĈĈććĈ!ćĈĈ": 899,
      "Ĉ!ĈĈĈĈ!ĈĈ!ĈĈĈĈ": 900,
      "ćĈĈĈĈ!Ĉ!ćĈ!Ĉ!": 901,
      "ćĈĈĈĈ!Ĉ!ćĈ!": 902,
      "ćĈĈĈćĈ!ĈĈĈĈ": 903,
      "ćĈćĈćĈćĈĈĈ": 904,
      "ćĈćĈćĈććććĈ!Ĉ!": 905,
      "ććĈ!ćĈ!ćĈ!ĈćĈĈ": 906,
      "ćĈĈćĈĈćĈćĈćĈććĈćĈćĈćĈćĈ!": 907,
      "ćĈććĈ!ćĈ!ćĈ!ĈćĈĈ": 908,
      "ććĈ!Ĉ!Ĉ!ććĈ!Ĉ!": 909,
      "Ĉ!Ĉ!Ĉ!ćĈ!Ĉ!ćĈ!ćĈ!ćĈ!ćĈ!": 910,
      "Ĉ!Ĉ!ĈĈ!ĈĈ!Ĉ!ĈĈ": 911,
      "ććĈ!ćććĈ!ćććĈ": 912,
      "ćććĈ!Ĉ!ćĈ!Ĉ!ĈĈĈĈ!ććĈ": 913,
      "ćĈććć!!": 914,
      "ćććĈććććĈććĈććććĈććĈ": 915,
      "ćĈćĈćĈćĈćĈćĈćĈćĈćĈ": 916,
      "ććĈ!ĈććĈ!Ĉ!": 917,
      "Ĉ!ĈĈĈĈĈĈĈĈ!ĈĈĈĈĈ": 918,
      "ĈĈĈĈĈćĈćĈ": 919,
      "ćĈ!ćĈ!Ĉ!ćĈĈćĈ!ĈććĈ!Ĉ": 920,
      "ććććĈ!Ĉ!Ĉ!Ĉ!": 921,
      "ćććĈ!Ĉ!ćććĈĈ": 922,
      "ćĈ!ćććĈ!ććĈ": 923,
      "Ĉ!Ĉ!ĈĈćĈ!Ĉ!": 924,
      "Ĉ!ĈĈĈĈĈĈĈ!Ĉ!Ĉ!ĈĈ!Ĉ": 925,
      "ćĈ!ĈĈ!ĈĈ": 926,
      "Ĉ!Ĉ!ĈĈ!Ĉ!Ĉ!!": 927,
      "ćĈĈĈĈĈćĈĈćĈ": 928,
      "Ĉ!ĈĈ!ĈĈ!ĈĈĈ!ĈĈĈĈ": 929,
      "ćĈ!Ĉ!Ĉ!Ĉ!ćĈ!ćć": 930,
      "ďĉďĉďĉďĉďĉ!!ďĉ!ďĉ!": 931,
      "ĈĈĈĈĈĈĈĈĈĈĈĈ!Ĉ!": 932,
      "!!!!!!!!!!!!!!": 933,
      "ćććĈĈĈĈĈ": 934,
      "ćĈ!ćĈ!Ĉ!ćĈ!Ĉ": 935,
      "ććĈ!Ĉ!Ĉ!Ĉ!ćĈĈĈ!Ĉ!ćĈ!Ĉ!": 936,
      "ććććĈ!ććĈ!ćććĈ!ćććĈ": 937,
      "ćĈ!ĈĈĈ!ĈĈ": 938,
      "ćĈ!ĈĈćĈĈćĈ": 939,
      "ćććĈ!Ĉ!Ĉ!ĈĈ!Ĉ!ćĈ!Ĉ!": 940,
      "Ĉ!ĈĈĈĈĈĈ!Ĉ!Ĉ": 941,
      "ćĈććĈĈ!ĈĈĈ": 942,
      "!&'(ďĉ))": 943,
      "ćććĈĈ!Ĉ!ćĈ!ććĈćĈ!ćĈ": 944,
      "ććĈ!ćĈ!Ĉ!Ĉ!ćĈ!Ĉ!": 945,
      "ććĈ!Ĉ!ĈĈĈ": 946,
      "Ĉ!Ĉ!ćĈ!Ĉ!Ĉ!Ĉ!ćĈ!Ĉ!": 947,
      "ćĈ!ććĈććĈ": 948,
      "ćĈ!Ĉ!Ĉ!Ĉ!Ĉ!Ĉ!ĈĈ": 949,
      "ćĈ!Ĉ!Ĉ!Ĉ!Ĉ!Ĉ!Ĉ!ćĈ!": 950,
      "ćĈ!ĈĈĈćĈćĈćĈĈĈćĈ": 951,
      "Ĉ!ćĈ!ĈĈĈĈ": 952,
      "ćĈ!ĈĈćĈ!ćĈĈ": 953,
      ")!!!!!!!!)": 954,
      "ćĈ!ćĈ!ćĈ!ćĈ!ćĈ!Ĉ!Ĉ!Ĉ!ĈĈ!": 955,
      "ćććććććććććĈ!Ĉ": 956,
      "Ĉ!ćĈ!Ĉ!ĈćĈĈĈćĈĈĈćĈĈćććć": 957,
      "000111": 958,
      "ććĈ!Ĉ!Ĉ!Ĉ!Ĉ!ĈĈ!ćĈ!ćĈ!ćĈ": 959,
      "ćĈćĈćĈ!ĈćĈĈ": 960,
      "ćĈĈĈćĈ!ĈććĈĈĈ": 961,
      "Ĉ!Ĉ!Ĉ!Ĉ!Ĉ!Ĉ!Ĉ!ĈĈ!": 962,
      ")!)!!!!!!!!!ććććĈ!ĈĈ": 963,
      "01010101": 964,
      "ćĈĈĈĈĈĈĈĈććĈćĈĈ!": 965,
      "Ĉ!Ĉ!ćĈ!ĈĈ!ććĈ!ćĈ!ććĈ": 966,
      "ćĈ!ćĈ!ćĈ!Ĉ!ććććĈ!ććĈ!ć": 967,
      "ďĉ!!!ćććĈćĈ!ćĈ!ĈĈ!Ĉ!": 968,
      "ćĈĈĈĈĈĈćĈĈĈĈ": 969,
      "Ĉ!Ĉ!Ĉ!ĈĈĈĈĈĈĈĈ!ĈĈĈĈĈ": 970,
      "ćććććććĈ!Ĉ!Ĉ!ććĈĈććĈ!ćĈĈ": 971,
      "ććĈ!ĈĈ!ĈĈĈĈ!ĈĈ!ĈĈĈĈ": 972,
      "ćĈ!ćĈ!ćĈćĈ!ćĈ": 973,
      "ććĈ!ććććĈćĈćĈćĈććććĈ!Ĉ!": 974,
      "Ĉ!Ĉ!ĈĈ!Ĉ!ĈĈĈĈ!Ĉ!ĈĈ!Ĉ!Ĉ!!": 975,
      "ćĈ!ćććĈ!ććĈćĈ!ććĈ": 976,
      "ćĈĈ!Ĉ!ĈĈĈ": 977,
      "Ĉ!ĈĈ!Ĉ!Ĉ!Ĉ!ĈĈ": 978,
      "ććĈĈćĈĈĈććĈĈććĈćć": 979,
      "ćĈ!Ĉ!ććĈćĈ!": 980,
      "ććĈĈĈĈćĈĈĈĈćĈĈĈĈĈĈĈĈććĈ": 981,
      "ďćĉ": 982,
      "!!!ďĉďĉďĉďĉ": 983,
      "ćĈ!Ĉ!ćĈ!Ĉ!ćĈ!Ĉ!Ĉ!Ĉ!Ĉ!": 984,
      "Ĉ!ĈĈĈĈ!ĈĈĈĈĈĈĈĈĈĈĈĈ!Ĉ!": 985,
      "ććĈ!ććććĈć!!": 986,
      "ďĉďĉďĉ!!ďĉďĉćĈ!Č": 987,
      "ćĈ!Ĉ!ĈĈćĈ": 988,
      "ćĈĈććĈĈĈćĈ!ĈćĈ!ććĈ": 989,
      "ćĈĈĈĈ!Ĉ!ćĈ!Ĉ!ćĈĈĈćĈ!ĈĈĈĈ": 990,
      "ćĈ!Ĉ!Ĉ!Ĉ!Ĉ!Ĉ": 991,
      "ćĈ!ćĈ!Ĉ!ććĈ!ĈććĈ!Ĉ!": 992,
      "Ĉ!ďĉďĉćĈ!ďĉ!": 993,
      "ćĈĈĈĈĈćĈĈĈĈĈćĈ!ĈĈĈćĈ": 994,
      "Ĉ!ććĈ!ćĈ!ĈĈ!ćĈ!Ĉ!": 995,
      "ĈĈ!ĈććĈ!Ĉ!ĈĈ!ĈĈ!Ĉ!ćĈ!": 996,
      "ćććĈ!Ĉ!ćććĈĈćĈ!ĈĈĈ!!ćććć": 997,
      "%!!!!!!!!!!!!!!!!!!!!!": 998,
      "ćďĉďĉďĉďĉďĉďĉďĉ!": 999,
      "ďĉćďĉ": 1000,
      "ďĉ!ďĉ!ďĉ!ďĉ!": 1001,
      "ćĈćĈćĈćĈĈĈćĈĈĈĈĈĈ": 1002,
      "ćĈ!ćĈ!ćĈ!ĈĈ!Ĉ!": 1003,
      "ďĉďĉ!ďĉďĉ": 1004,
      "Ĉ!Ĉ!Ĉ!Ĉ!Ĉ!Ĉ!ĈĈĈ": 1005,
      "Ĉ!Ĉ!ĈĈĈ!Ĉ!Ĉ!Ĉ!ĈĈĈĈ": 1006,
      "ććĈ!ćďĉďĉďĉďĉ": 1007,
      "ććĈ!Ĉ!ĈĈ!ĈĈĈ": 1008,
      "ćĈĈ!ćĈ!Ĉ!ĈĈĈĈćĈĈĈĈ": 1009,
      "ĈĈĈĈĈ!ćďĉďĉ": 1010,
      "ćĈ!ćĈ!ććĈćĈ!Ĉ!Ĉ!Ĉ!ćĈ!ćć": 1011,
      "ćĈ!ćĈ!Ĉ!ćĈ!ĈćĈ!ĈĈ!Ĉ": 1012,
      "Ĉ!Ĉ!Ĉ!Ĉ!Ĉ!ćĈ!ĈĈĈĈ": 1013,
      "ććĈ!ćĈ!ĈććĈ": 1014,
      "ććććććććĈ!": 1015,
      "ćĈ!ććĈĈĈĈĈćĈćĈ": 1016,
      "Ĉ!Ĉ!Ĉ!ćĈ!ćĈ": 1017,
      "ććććććĈ!ćććĈ!ćć": 1018,
      "ććĈ!Ĉ!Ĉ!Ĉ!ćććĈ!Ĉ!Ĉ!ććĈ": 1019,
      "ĈĈĈ!ĈĈĈććĈ!ćĈćĈĈĈ!Ĉ": 1020,
      "ćĈćĈĈĈĈĈćĈĈ": 1021,
      "Ĉ!Ĉ!Ĉ!Ĉ!Ĉ!Ĉ!ĈĈĈ!Ĉ!ĈĈĈĈ": 1022,
      "ćĈĈ!Ĉ!Ĉ!Ĉ!ćĈćĈĈ": 1023,
      "ďĉďĉ!!!)!)!!": 1024,
      "ćĈćĈĈĈĈĈĈĈćĈĈĈĈĈĈ": 1025,
      "ćććććďĉ!": 1026,
      "ććććććććĈ!Ĉ!Ĉ!Ĉ!": 1027,
      "Ĉ!Ĉ!ĈćĈĈĈĈ": 1028,
      "ćĈĈĈćĈ!ĈĈĈĈ!ĈĈ!Ĉ": 1029,
      "ćććĈĈććććććĈ!ćĈĈ": 1030,
      "ćĈ!ćĈ!ćĈ!ćĈ!Ĉ!Ĉ!Ĉ": 1031,
      "ćĈ!ććĈććĈ!!!!!!": 1032,
      "Ĉ!ĈĈďĉ!!": 1033,
      "ććććććććććććććććććććććĈ!": 1034,
      "ććĈ!Ĉ!ĈĈĈ!!ćĈ!Ĉ!Ĉ!Ĉ!": 1035,
      "Ĉ!Ĉ!ćĈ!ĈĈ": 1036,
      "ćććĈćććĈĈ!Ĉ!ćĈ!ććĈćĈ!ćĈ": 1037,
      "ćĈ!Ĉ!ĈćĈććĈĈ!ĈĈĈ": 1038,
      "ććĈ!ćĈ!ćĈ!ć": 1039,
      "Ĉ!ĈĈćĈĈ!Ĉ": 1040,
      "Ĉ!ĈććĈĈ!Ĉ!": 1041,
      "ćĈ!ĈĈćĈ!ćĈĈćĈ!Ĉ!": 1042,
      "Ĉ!ĈĈĈĈĈĈĈĈĈĈĈĈĈĈĈĈ": 1043,
      "!!!SĂĄĆ!!ďĉ!!!!!!": 1044,
      "ďĉďĉďĉ!ďĉďĉ!ďĉďĉďĉ!ďĉďĉ!": 1045,
      "ćĈĈ!ćĈ!Ĉ!Ĉ!Ĉ!Ĉ!ĈĈĈ": 1046,
      "!!ćĈ!Ĉ!Ĉ!Ĉ!ćĈ!ććĈ!": 1047,
      "ćĈ!ĈćĈćĈćĈćĈ!Ĉ!ĈćĈ!Ĉ!": 1048,
      "ćĈ!ĈĈĈ!ĈĈćĈ!Ĉ!Ĉ!": 1049,
      "ćĈćĈćĈćććĈćĈ": 1050,
      "ćććĈćĈ!ćĈ": 1051,
      "ćĈ!ĈććĈĈĈćĈĈĈćĈ!ĈććĈĈĈ": 1052,
      "Ĉ!ćĈ!Ĉ!Ĉ!ćĈ!Ĉ!Ĉ!ĈĈ!": 1053,
      "ćĈ!Ĉ!Ĉ!ććĈ!ćĈ!Ĉ!Ĉ!ćĈ!Ĉ!": 1054,
      "Ĉ!Ĉ!ĈĈĈ!ććĈ!Ĉ!Ĉ": 1055,
      "ćĈ!Ĉ!ćĈććĈ!Ĉ!": 1056,
      "Ĉ!Ĉ!ćĈ!ććĈ!ćĈ!ććĈ!": 1057,
      "ďĉććććĈ!ćĈ!Ĉ": 1058,
      "Ĉ!Ĉ!ćĈ!Ĉ!ĈĈ!": 1059,
      ")!)!!!!!!!!ďĉ!ďĉďĉ": 1060,
      "ćĈ!Ĉ!ććĈćĈ!ĈĈĈĈĈĈćĈ!ććĈ": 1061,
      "Ĉ!Ĉďĉ!ďĉ!": 1062,
      "LL!LK": 1063,
      "ćďĉććć": 1064,
      "ĈĈĈ!ĈĈĈĈ!ĈĈ!Ĉ!Ĉ!Ĉ!ĈĈ": 1065,
      "ćĈćĈ!ććĈ!!": 1066,
      "ďĉďĉ!!ďĉććĈ!": 1067,
      "ćĈ!ććĈ!ćĈ!Ĉ": 1068,
      "ćĈ!ćĈ!Ĉ!Ĉ!ćĈ!Ĉ!Ĉ!ććĈ!Ĉ!": 1069,
      "ćĈ!Ĉ!ĈĈćĈćĈĈĈĈĈĈĈĈĈĈĈĈ": 1070,
      "ďĉďĉďĉ!ďĉďĉďĉ!!": 1071,
      "ďĉďĉ!!!ďĉćĈ!Ĉ!": 1072,
      "Ĉ!Ĉ!ĈĈĈĈĈ!Ĉ!Ĉ!": 1073,
      "ćĈĈćĈĈĈĈĈĈćĈĈĈĈ": 1074,
      "ćĈ!Ĉ!Ĉ!Ĉ!Ĉ!Ĉ!Ĉ": 1075,
      "!!!!RTVa!!!SĂĄĆ": 1076,
      "ďĉ!!!ćććććĈ!ĈĈ!ĈĈ": 1077,
      "Ĉ!Ĉ!ĈĈĈĈĈĈćĈ!ĈĈĈ%&'(ďĉ": 1078,
      "Ĉ!ćĈ!ćĈĈĈĈ!Ĉ%&'(ďĉćć": 1079,
      "ďĉćććĈ!Ĉ!Ĉ!ćĈ!Ĉ!Ĉ": 1080,
      "ćĈćĈ!ćĈĈ!": 1081,
      "ď!!": 1082,
      "Ĉ!Ĉ!Ĉ!Ĉ!Ĉ!Ĉ!Ĉ!!": 1083,
      "ććĈ!ćĈ!Ĉ!": 1084,
      "ćĈ!ćĈ!Ĉ!ćĈĈ!Ĉ!Ĉ!Ĉ!ćĈćĈĈ": 1085,
      "ďĉďĉ!!ďĉ!!!!!!": 1086,
      "ďĉććććććĈ!ććĈ!": 1087,
      "ďĉ!ďĉďĉďĉďĉďĉ!": 1088,
      "ćĈ!Ĉ!Ĉ!ććććĈćĈććĈ!": 1089,
      "ćĈ!ćĈ!Ĉ!Ĉ!ćĈĈ!": 1090,
      "ĈĈĈĈĈĈćĈ!ććĈćĈ!ćĈ!Ĉ!": 1091,
      "!!!!!!!!!!!!!!!!)!)!!": 1092,
      "ćĈ!ćĈ!Ĉ!ćĈ!Ĉ!Ĉ!ćĈ!Ĉ!": 1093,
      "!!!!!%!!!!!!!!!!!!!!!!": 1094,
      "ďĉďĉďĉ!!ďĉ!!!!": 1095,
      "%!!!!!&'(": 1096,
      "ćććĈ!Ĉ!Ĉ!Ĉ!Ĉ!ćĈ!Ĉ!": 1097,
      "!!!!RTVa!!!SĂĄĆ!!!!R!!!S": 1098,
      "ćĈ!Ĉ!Ĉ!ćĈ!Ĉ!ćĈ!Ĉ!Ĉ!ćĈ!Ĉ!": 1099,
      "%!!!!!!!!!!!!!!!!!!!!!!!": 1100,
      "%&'(ďĉďĉďĉďĉ": 1101,
      "%&'(%&'(ďĉ!!": 1102,
      "ćĈ!Ĉ!Ĉ!Ĉ!Ĉ!Ĉ!ďĉ!%&'(": 1103,
      "ćĈĈĈĈ!ĈććĈ!ććććĈć!!": 1104,
      "ćĈ!ćĈ!ćĈćĈ!ćĈćĈ!ććĈćĈ!ćĈ": 1105,
      "%ćć": 1106,
      "ćĈĈ!ćĈ!ćĈ!Ĉ": 1107,
      "ďĉ!!!!!!!!!!!!!!ďĉďĉďĉďĉ": 1108,
      "Ĉ!Ĉ!Ĉ!Ĉ!ćććĈ!": 1109,
      "ćććććććĈ!Ĉ!ćĈ!ĈćĈ": 1110,
      "ććĈ!ćĈ!ććĈ!ććććĈ!ćććĈććĈ": 1111,
      "ćĈ!ćĈ!!ććĈ!ććĈ!": 1112,
      "ďĉďĉďĉďĉ!ďĉďĉ!!": 1113,
      ")ććććććććććććĈ!": 1114,
      "ćććććĈ!Ĉ!Ĉ!Ĉ!Ĉ!Ĉ!": 1115,
      "ćďĉ!ďĉďĉďĉďĉ!!": 1116,
      "Ĉ!ĈĈ!Ĉ!!ćĈ!Ĉ!Ĉ!Ĉ!ćĈ!ććĈ!": 1117,
      "ćĈ!Ĉ!Ĉ!Ĉ!Ĉ!ĈĈĈ!Ĉ!Ĉ": 1118,
      "ďĉćććććććĈ!ćĈ!": 1119,
      ")!)!ďĉďĉ!!!)!)!!": 1120,
      "ĈĈĈĈĈ!Ĉ!Ĉ!Ĉ!Ĉ!Ĉ!Ĉ": 1121,
      "Ĉ!Ĉ!Ĉ!ĈćĈĈ!Ĉ!Ĉ": 1122,
      "%&'(ďĉ!!ďĉ!!": 1123,
      "Ĉ!ĈĈĈĈĈĈĈĈĈĈĈĈĈĈĈĈĈĈĈĈ!": 1124,
      "ďĉ!!ďĉďĉďĉďĉďĉ!!ďĉ!ďĉ!": 1125,
      "))))": 1126,
      "ďĉ!!!!!!!!!!!ďĉ!!": 1127,
      "%ć&'": 1128,
      "ćĈ!ććĈććĈ!!!!!!ďĉćć": 1129,
      "ďĉćććĈ!Ĉ!Ĉ!Ĉ": 1130,
      "ĈĈĈĈĈĈĈĈĈĈĈĈĈĈĈĈĈĈ!ďĉ!!": 1131,
      "ććĈ!ćĈ!Ĉ!ĈĈĈ!ĈĈĈ": 1132,
      "ďĉďĉďĉďĉ!!!!!!!!!!!!!!!!": 1133,
      "ćĈ!Ĉ!ĈćĈ!Ĉ!Ĉ!ććććĈćĈććĈ!": 1134,
      "ćĈ!ďĉ!ďĉ!!!!!!!!!!!!!!!!": 1135,
      "ćććĈĈĈĈĈććĈĈććĈćć": 1136,
      "ććććććććĈ!Ĉ!ćĈĈ": 1137,
      "Ĉ!ĈĈ!ćĈ!Ĉ": 1138,
      "ďĉďĉďĉ!ďĉďĉćććć": 1139,
      "ďĉ!ďĉĈ!Ĉ!ćĈ!Ĉ!ĈĈĈ": 1140,
      "ććććĈ!ćĈ!Ĉ!Ĉ!ćĈ!Ĉ!": 1141,
      "ďĉďĉ!ďĉ!)ďĉďĉďĉ": 1142,
      "ćĈ!ććĈ!Ĉ!Ĉ": 1143,
      "ćďĉďĉďĉĈ!ĈĈĈĈ": 1144,
      "ćććĈ!Ĉ!Ĉ!Ĉ!Ĉ!ćĈ!Ĉ!Ĉ!ĈćĈ!": 1145,
      "ďĉ!ďĉ%&'(": 1146,
      "ćććĈ!Ĉ!ćĈ!Ĉ!Ĉ": 1147,
      "ďĉďĉďĉďĉ!ďĉ!!": 1148,
      "ććććććććĈ!ćććĈ!Ĉ!": 1149,
      "ćććććĈ!ćĈ!": 1150,
      "ďĉďĉ!!ďĉ!!ďĉďĉ": 1151,
      "ćĈ!Ĉ!Ĉ!Ĉ!Ĉ!Ĉ!Ĉ!Ĉ!Ĉ!Ĉ!": 1152,
      "ćććĈ!Ĉ!Ĉ!Ĉ!ćććĈćĈ!ćĈ": 1153,
      "Ĉ!ĈććĈĈ!Ĉ!ććĈ!Ĉ!ĈĈ!ĈĈĈ": 1154,
      ")ććććććććććććĈ!ććĈ!": 1155,
      "ďĉďĉ%&'(!": 1156,
      "ćďĉďĉďĉďĉ!ććĈ!Ĉ!Ĉ!Ĉ!Ĉ": 1157,
      "Ĉ!Ĉ!Ĉ!Ĉ!!Ĉ!Ĉ!Ĉ": 1158,
      "ćďĉ!!!!!!!!!": 1159,
      "ćććĈ!Ĉ!Ĉ!Ĉ!Ĉ!Ĉ": 1160,
      "ďĉ!ďĉ!!!SĂĄĆ!!ďĉ!!!!!!": 1161,
      "ďĉďĉďĉďĉďĉďĉďĉ%&'(": 1162,
      "ďĉ!Ĉ!ĈćĈ!Ĉ!Ĉ!ĈćĈ!ćć": 1163,
      "ďĉĈ!ĈĈĈĈĈĈĈĈ!ĈĈĈ": 1164,
      "ćĈĈ!Ĉ!ĈĈĈćĈćĈ!ććĈ!!": 1165,
      "ćďĉďĉ!!": 1166,
      "Ĉ!ĈĈćďĉďĉďĉďĉďĉďĉďĉ!": 1167,
      "Ĉ!Ĉ!Ĉ!Ĉ!Ĉ!Ĉ!Ĉ!ĈĈĈĈĈĈ": 1168,
      "ďĉďĉď%&'(ĉ": 1169,
      "ďĉďĉććććććĈ!ćććĈ!ćć": 1170,
      "ćĈ!Ĉ!Ĉ!Ĉ!Ĉ!Ĉ!ćĈ!Ĉ!ććĈ!": 1171,
      "Ĉ!ĈćĈ!Ĉ!ććĈ!ććĈ!": 1172,
      "&'": 1173,
      "%!!!!!!&'(": 1174,
      "ďĉ!)!)!!!!!!!!!!ďĉ!!!!!!": 1175,
      "ććĈ!Ĉ!ćĈĈ!ćĈ!Ĉ!Ĉ!Ĉ!Ĉ!ĈĈĈ": 1176,
      "ďĉďĉďĉ!!ďĉ!!ďĉ!!!!!!!!": 1177,
      "Ĉ!Ĉ!ĈĈ!ĈĈ!Ĉ!Ĉ!Ĉ!Ĉ!Ĉ!ĈĈĈ": 1178,
      "%&'(%&'(ďĉ!!ććććććĈććĈ!": 1179,
      "ćďĉ#$": 1180,
      "ććććĈ!ćĈ!Ĉ!Ĉ!ĈĈ!Ĉ!Ĉ!Ĉ": 1181,
      "%!!!&'(ďĉďĉďĉ!!ďĉ!": 1182,
      "ďĉ!!ďĉ!ććĈ!ďĉ!ďĉďĉ!!": 1183,
      "Ĉ!ĈĈĈĈ!ĈĈĈĈĈĈĈĈ%&'(ďĉ": 1184,
      "ćĈćĈćĈćććĈćĈćććĈćĈ": 1185,
      "ďĉďĉ!!ďĉććĈ!ĈĈĈĈĈ!ćďĉďĉ": 1186,
      "ďĉďĉ!!ďĉ!!!!!!)!!!!!!!!)": 1187,
      "ďĈ!ĉ": 1188,
      "ĈĈĈ!Ĉ!Ĉ!ĈĈĈ": 1189,
      "Ĉ!ćććĈ!ććĈ!ćĈ!ĈĈĈćć!!!!": 1190,
      "ćĈćĈćĈćĈĈĈćĈĈĈĈĈĈćĈ!Ĉ!": 1191,
      "ďĉ!!ďĉ!ďĉ!": 1192,
      "ďĉďĉďĉďĉďĉďĉćďĉ!": 1193,
      ")!)ďĉďĉďĉďĉďĉďĉ!!!": 1194,
      "ćĈ!Ĉ!Ĉ!Ĉ!ćĈ!Ĉ!Ĉ!Ĉćć": 1195,
      "ďĈ": 1196,
      "ďĉďĉ)ďĉďĉ!": 1197,
      "ćććććććĈ!Ĉ!Ĉ!ćĈ!Ĉ!Ĉ!": 1198,
      "ćććĈ!ćĈ!Ĉ!Ĉ!ćĈ!Ĉ!": 1199,
      "ďĉďĉďĉďĉďĉ!ďĉ": 1200,
      "ćĈ!ćďĉďĉ!!": 1201,
      "3322": 1202,
      "%&'(Ĉ!Ĉ!": 1203,
      "ďĉďĉďĉď%&'(ĉ": 1204,
      "%&'(ďĉďĉĈ!ĈĈďĉ!!": 1205,
      "ććĈ!Ĉ!Ĉ!Ĉ!Ĉ!Ĉ!ććĈ!": 1206,
      "L!LK!LK": 1207,
      "ďĉ!ďĉ!!ćĈ!": 1208,
      "ďĉ!!!!!!!ďĉ!!ďĉďĉ!!!": 1209,
      "Ĉ!ĈĈĈ!ĈĈĈ": 1210,
      "Ĉ!ćĈ!Ĉ!Ĉ!ĈĈćĈĈ!Ĉ": 1211,
      "!ďĉććĈ!Ĉ!ĈĈĈ!Ĉ!Ĉ!ĈĈćĈ": 1212,
      "ďĉćĈ!": 1213,
      "2323232222222222222222": 1214,
      "ććććĈ!ćĈ!Ĉ!Ĉ!Ĉ!ćĈ!ĈĈ": 1215,
      "ćďĉďĉďĉćĈ!Ĉ!Ĉ!Ĉ!": 1216,
      "Ĉ!ććĈ!ćĈ!ĈĈ!ćĈ!Ĉ!ćĈ!ďĉ!": 1217,
      "%!!!!&'(": 1218,
      "ćĈ!%&'(ďĉ": 1219,
      "ćććĈ!Ĉ!ćĈ!Ĉ!ĈĈ!Ĉ!ĈćĈĈĈĈ": 1220,
      "ďĉďĉďĉďĉ!!!!ďĉ!!": 1221,
      "ććĈ!ćĈ!ćČ": 1222,
      "ďĉďĉ!!ďĉďĉďĉ!": 1223,
      "Ĉ!Ĉ!Ĉ!Ĉ!Ĉ": 1224,
      "ĉĉĉĉĉĉĉĉ": 1225,
      "ďĉ!!!!!!!!!!!!!!!!!!!!!": 1226,
      "ćĈ!Ĉ!Ĉ!Ĉ!ĈĈ!Ĉ!Ĉ!Ĉ!": 1227,
      "ďĉďĉďĉďĉďĉďĉ!%&'(%&'(": 1228,
      "ďĉ!!ďĉ!ďĉďĉďĉ!": 1229,
      "ćććĈ!Ĉ!Ĉ!Ĉďĉ!!!!!": 1230,
      "ćĈ!Čďĉďĉ!": 1231,
      "ďĉ!ćĈ!ćĈ": 1232,
      "ć%&'(ďĉ!!!!!!!!!": 1233,
      "ćĈĈĈĈ!ćĈ!Ĉ": 1234,
      "!!!!!!!!!ďĉ!!!!!!!!": 1235,
      "ćĈ!ĈĈ!Ĉ!ďĉ!ďĉ!ďĉďĉďĉ!!": 1236,
      "ććććĈ!Ĉ!Ĉ!Ĉ!Ĉ!ĈĈ!Ĉ!": 1237,
      "L!": 1238,
      "!!!!!!!!!!!!ďĉ!!": 1239,
      "ćĈ!Ĉ!Ĉ!ćĈ!Ĉ!Ĉ!Ĉ!ćĈ!Ĉ!": 1240,
      "LK": 1241,
      "ćĈ!Ĉ!ĈćĈ!ćďĉďĉ!!": 1242,
      "ďĉďĉďĉďĉďĉďĉďĉ)!": 1243,
      "ďĉďĉďĉ!ďĉďĉćććććĈ!Ĉ!ćĈĈ": 1244,
      "ďĉďĉ!ďĉ!)ďĉďĉďĉćďĉďĉ!": 1245,
      "!!!!!%!!!!!!!!": 1246,
      "Ĉ!ĈćĈ!Ĉ!Ĉ!Ĉćďĉ!": 1247,
      "ďĉ!!!!!!!!!!!!!!!!!": 1248,
      "RTVa!!!SĂĄĆ": 1249,
      "ććććĈćććĈ!Ĉ!Ĉ": 1250,
      "Ĉ!Ĉ!Ĉ!Ĉ!ććĈćć": 1251,
      "ćććĈ!Ĉ!ććĈ!ćĈ!ćČ": 1252,
      "ďĉ!ďĉ!!!!!!ďĉďĉ!!": 1253,
      "ďĉďĉďĉďĉďĉ!ďĉďĉďĉďĉ": 1254,
      "ćĈ!Ĉ!ćĈĈ!ćĈ!ćĈ!Ĉ": 1255,
      "Ĉ!Ĉ!Ĉ!Ĉ!!Ĉ!Ĉ!Ĉ!Ĉ!!Ĉ!Ĉ!Ĉ": 1256,
      "ďĉďĉďĉ!!!!!": 1257,
      "Ĉ!ĈĈ!ćĈ!ĈĈ!Ĉ!Ĉ!ćĈ!ćĈ": 1258,
      "ćĈ!Ĉ!Ĉ!ćďĉććć": 1259,
      "ćććďĉćććć": 1260,
      "ćĈ!Ĉ!ĈćĈ!ďĉćććććććĈ!ćĈ!": 1261,
      "!!!!%!!!!!!!!!!!!!!!!": 1262,
      "ĂĄĆ!!!!R!!!S": 1263,
      "ďĉďĉďĉ!!!!!!!!!!": 1264,
      "ďĉďĉ!!!ćććććĈ!ćĈ!": 1265,
      "ďĉ%!&'(": 1266,
      "ďĉďĉ!!ďĉ!ďĉ!!ďĉďĉďĉ!": 1267,
      "R%&'(": 1268,
      "%!!!!!!!&'(": 1269,
      "Ĉ!Ĉ!Ĉ!ćĈ!Ĉ!ćĈććĈćďĉ": 1270,
      "Ĉ!Ĉ!Ĉ!Ĉ!ćććĈ!ďĉ!!": 1271,
      "ďĉďĉćććĈ!Ĉ!Ĉ!Ĉ!Ĉ!Ĉ!": 1272,
      "ďĉćĈ!Ĉ!Č": 1273,
      "Ĉ!Ĉ!ĉ": 1274,
      "ćĈ!ćĈ!Ĉ!ćĈ!Ĉ!Ĉ!ćĈ!Ĉ!ćďĉ!": 1275,
      "ďĉďĉ%ď&'(ĉ": 1276,
      "ććććććĈ!ććĈ!Ĉ!Ĉ!Ĉ": 1277,
      "ććĈ!Ĉ!Ĉ!Ĉ!Ĉ!Ĉ!Ĉ!ĈĈćĈ": 1278,
      "ďĉ!ďĉ!!!!!!ďĉďĉ!!!!": 1279,
      ")!)ďĉďĉďĉďĉďĉ!": 1280,
      "ďĉďĉćĈ!ĈĈ!ĈĈĈ": 1281,
      "%!!!!!!!!&'(": 1282,
      "ćďĉćććććććććććććććć": 1283,
      ")!)!!Ĉ!Ĉ!ĈĈ": 1284,
      "!!!!ďĉ!!)ďĉďĉ!": 1285,
      "Ĉ!ĈĈ!ĈĈĈćĈĈĈćĈ!ĈĈĈĈ!ĈĈ!Ĉ": 1286,
      "!!Č!!Č!ďĉ!ďĉĈ!Ĉ!ćĈ!Ĉ!ĈĈĈ": 1287,
      "%!Ĉ&'(!": 1288,
      "ď%ĉ&'(!": 1289,
      "ćďĉ#$ćĈ!ćć": 1290,
      "323": 1291,
      "ďĉďĉďĉďĉďĉ!!ďĉ!!ďĉďĉďĉ": 1292,
      "ďĉ!ďĉďĉďĉďĉďĉ!ďĉďĉďĉ!!": 1293,
      "ďĉďĉ)ďĉďĉ!ďĉďĉ!!ďĉ!!!!": 1294,
      "Čďĉďĉďĉďĉďĉďĉďĉďĉ": 1295,
      "%&'(ďĉĈ!Ĉ!Ĉ!Ĉ!Ĉ!Ĉ!": 1296,
      "ďĉďĉ!ďĉ!!ďĉććććććĈ!ććĈ!": 1297,
      "ćďĉďĉďĉďĉ": 1298,
      "Ĉ!ćĈ!ćĈ!Ĉ!Ĉ!": 1299,
      "00110101": 1300,
      "!!!!!!!!!!!!!": 1301,
      "ďĉ!ďĉćććć": 1302,
      "ďĉ!ćććććĈ!Ĉ!Ĉ!Ĉ!Ĉ!Ĉ!": 1303,
      "ďĉďĉďĉ!ďĉďĉďĉ!!ďĉďĉďĉďĉ!": 1304,
      "ććĉ": 1305,
      "ćĈ!ĉ": 1306,
      "!!!!!ćććććććĈ!ćĈ!Ĉ!": 1307,
      "ćďĉďĉ%&'(": 1308,
      "ďĉćććďĉ!": 1309,
      "ďĉ!ďĉćććĈ!Ĉ!Ĉ!Ĉ!Ĉ!Ĉ!": 1310,
      "ďĉ!!ďĉďĉďĉ!": 1311,
      "ďĉďĉďĉćććĈ!Ĉ!Ĉ!Ĉ!": 1312,
      "ďĉďĉďĉ!ďĉ!%&'(": 1313,
      "%ćĈ&'(": 1314,
      "(788888888,-%&+": 1315,
      ")!)!!Ĉ!Ĉ!ĈĈ!!!!!": 1316,
      ")!)!!!!!!!!!!!!": 1317,
      "!!!%!!!!!!!!": 1318,
      "ďĉ!ďĉ!!ďĉ": 1319,
      "ďĉ!!ďĉ!ďĉ!ććĈ!Ĉ!Ĉ!ććĈ!Ĉ!": 1320,
      "ćććďĉććććććĈ!ćć": 1321,
      "ććĈ!%&'(": 1322,
      "ćďĉ!ďĉććććĈ!ćĈ!Ĉ": 1323,
      "Ĉ!Ĉ!Ĉ!ćĈ!Ĉ!Ĉ!": 1324,
      "ćććććďĉ!ććććĈćććĈ!Ĉ!Ĉ": 1325,
      "ďĉďĉĈ!Ĉďĉ!ďĉ!": 1326,
      "ďĉďĉďĉĈ!Ĉ!Ĉ!Ĉ!Ĉ!ćĈ!ĈĈĈĈ": 1327,
      "ďĉďĉďĉďĉďĉ)!)ďĉďĉďĉ": 1328,
      ")ďĉďĉďĉďĉďĉďĉďĉ!": 1329,
      "!!ďĉ": 1330,
      "Ĉ!ćĈ!ć": 1331,
      "MMM": 1332,
      "LLL!LK": 1333,
      "ćććĈ!Ĉ!Ĉ!ćĈĈĈĈ!ćĈ!Ĉ": 1334,
      "ďĉćććććććĈ!ćČ": 1335,
      "ćĈ!Ĉ!ĈćĈććĈĈ!ĈĈĈďĉ!!!": 1336,
      "ďĉďĉďĉďĉďĉďĉ!!": 1337,
      "ďĉ%&'(ďĉďĉďĉďĉďĉďĉ!": 1338,
      "ćďĉ!ććććĈ!ćĈ!Ĉ!Ĉ!ćĈ!Ĉ!": 1339,
      "ďĉďĉďĉćććććĈ!Ĉ!Ĉ!ćĈĈćĈ": 1340,
      "ďĉďĉ%&'(ďĉ": 1341,
      "ďĉďĉ!ďĉ!!!!!!!!": 1342,
      "ďĉďĉďĉďĉďĉ!": 1343,
      "ďĉĈ!ĈĈĈĈĈĈĈĈ!ĈĈĈ!": 1344,
      "!%!!!!!!!!": 1345,
      "ć'(": 1346,
      "ćĈ!ćĈ!Ĉ!ĈćĈ!Ĉ!ďĉćĈ!": 1347,
      "!!!!!!%!!!!!!!!": 1348,
      "ďĉďĉďĉ%&'(ďĉďĉďĉ": 1349,
      "ććććĈ!Ĉ!Ĉ!Ĉ!Ĉ!ĈĈ!Ĉ!ć": 1350,
      "ďĉďĉďĉ!ććĈ!ć": 1351,
      ")))": 1352,
      "ďĉ!!ďĉ!ďĉďĉďĉďĉ!": 1353,
      "ďĉ!!!!!!!!!ďĉ!!!!!!!!!!!": 1354,
      "ćććććĈ!ĈĈćĈĈćĈ": 1355,
      "ć%&'(ďĉďĉ": 1356,
      "ćććĈ!Ĉ!ććĈ!ćĈ!ćČďĉ!!!": 1357,
      "!!!!!!!!!!!ďĉćććĈ!Ĉ!Ĉ!Ĉ": 1358,
      "ćďĉ!ďĉďĉ!!": 1359,
      "ďĉďĉďĉ!!ććććĈ!Ĉ!": 1360,
      "ďĉ!ďĉďĉďĉďĉďĉďĉ!!": 1361,
      "ďĉ!!ďĉ!ďĉďĉďĉ!ďĉ!!!!!": 1362,
      "ćďĉćĈ!ććĈ!ćĈ!Ĉ": 1363,
      "ććććććććĈ!ćććĈ!Ĉ!ćĈ!ďĉ": 1364,
      "ďĉďĉćććććććć": 1365,
      "ďĉĈ!Ĉ!ĈĈĈ!Ĉ!Ĉ!Ĉ!ĈĈĈĈ": 1366,
      "Ĉ!ď": 1367,
      "%&'(ďĉďĉ!!!ćććććĈ!ćĈ!": 1368,
      "ćććĈ!Ĉ!Ĉ!ćĈ!Ĉ!Ĉ!Ĉ!Ĉ!!": 1369,
      "ćĈćĈćĈćĈćĈćĈćĈćĈćĈć": 1370,
      "ćĈ!ćĈ!ćĈ!ĈĈ!Ĉ!ćĈ!ćĈ!Ĉ!Ĉ!": 1371,
      "ďĉ!!!!ďĉďĉďĉ!ďĉďĉ!": 1372,
      "ďĉćĈ!ćĈ!Ĉ!": 1373,
      "!!!%!!!!!!!!!!!!!!!!": 1374,
      "%&'(%&'(ďĉďĉďĉ": 1375,
      "ďĉďĉďĉďĉďĉďĉďĉďĉďĉ%&'(": 1376,
      "ďĉďĉ%&'(ďĉďĉďĉ!!": 1377,
      "ďďĉĉ!": 1378,
      "!%!!!!!!!!!!!!!!!!": 1379,
      "00101": 1380,
      "ďĉćććĈ!ć": 1381,
      "RTVa!!!S": 1382,
      "ďĉćććććććĈ!ćČČ": 1383,
      "ďĉďĉďĉ%ď&'(ĉ": 1384,
      "ćĈććĈ!ćĈ!ćĈ!ĈćĈĈć%&'(ďĉ": 1385,
      "ē!": 1386,
      "ďĉ)": 1387,
      "ć%ć&'(": 1388,
      "ďĉćććĈ!Ĉ!Ĉ!Ĉ!Ĉ!Ĉ!": 1389,
      "%&'(ďĉďĉďĉ%&'(": 1390,
      "!!!!!!%!!!!!!!!!!!!!!!!": 1391,
      "ćć%&'(": 1392,
      "ďĉććććććććĈ!Ĉ!Ĉ!ĈćĈĈ!Ĉ!Ĉ": 1393,
      "ďĉćďĉ!!!!": 1394,
      "ďĉ!ďĉććććććĈććĈ!": 1395,
      "7'7777": 1396,
      "!!!!%!!!!!!!!": 1397,
      "&'(!!!!": 1398,
      "ďĉ!ďĉďĉďĉďĉ!!": 1399,
      "666666667'7777": 1400,
      "ĈćĈĈćĈćĈĈĈćĈĈďĉĈ!ĈĈĈĈ": 1401,
      "666666667'777777": 1402,
      "ć)": 1403,
      "ć%Ĉ&'(": 1404,
      "ħ)": 1405,
      "ďĉćććććććććć": 1406,
      "%&'(ďĉďĉ!!!!ďĉ!!)ďĉďĉ!": 1407,
      "ďĉďĉďĉďĉ%&'(ďĉďĉďĉďĉ": 1408,
      "ćĈ!Ĉ!Ĉ!Ĉ!Ĉ!Ĉ!ĈĈďĉ!!!": 1409,
      "R%&'(TVa": 1410,
      "Ĉ!ćĈ": 1411,
      "ććĈ!ćććĈ!Ĉ!ćĈ!Ĉ!": 1412,
      "ďĉ!ďĉďĉ!ďĉ!ďĉďĉďĉ!": 1413,
      "Ĉ!ĈĈĈ!ĈĈďĉ!ďĉďĉďĉ": 1414,
      "Ĉ!)": 1415,
      "ďĉ%&'(Ĉ!Ĉ!": 1416,
      "ććĈ!Ĉďĉ%&'(Ĉ!Ĉ!": 1417,
      "R%&'(TVaďĉććĈ!": 1418,
      "ćď%&'(ĉ": 1419,
      "&'(ćďĉ!ďĉćć": 1420,
      "ďĉďĉ!%&'(": 1421,
      "ďĉ!ďĉďĉďĉďĉćďĉ!": 1422,
      "!ďĉ!!!!!!!!!!!!!!!": 1423,
      "ĥ!": 1424,
      "77'7777": 1425,
      "6666666677'7777": 1426,
      "ćĈĈĈĈ!Ĉ!ćĈ!ďĉďĉ": 1427,
      "ćĈććć!!ďĉ!ďĉ!!": 1428,
      "6666666677'77777": 1429,
      "ďĉďĉć%&'(": 1430,
      "ďĉ!!!!!!!!ďĉ!": 1431,
      "ďĉĈ!Ĉ!": 1432,
      "ďĉďĉďĉďĉďĉďĉ%&'(ďĉďĉ!": 1433,
      "FD": 1434,
      "!!%!!!!!!!!!!!!!!!!": 1435,
      "ďĉććććććććććććĈ!ćĈ!Ĉ!": 1436,
      "666666667777": 1437,
      "ďĉďĉ!ďĉ%&'(ďĉĈ!": 1438,
      "Ĉ!Ĉ!ĈĈ!Ĉ!Ĉ!ĈĈĈĈćďĉďĉ": 1439,
      "!!!%": 1440,
      "ďĉďĉďĉ%&'(ďĉďĉďĉďĉ": 1441,
      "ďĉďĉďďĉĉ": 1442,
      "!!!!!!Ĉ!ďĉďĉćĈ!ďĉ!": 1443,
      "%&'(ďĉĈ!ćĈ!Ĉ!Ĉ!Ĉ!Ĉ!Ĉ!": 1444,
      "%&'(ćďĉ!": 1445,
      "ďĉďĉďĉďĉďĉ!ďĉďĉďĉ!": 1446,
      "ďĉďĉďĉďĉďĉďĉďĉ!ďĉ!": 1447,
      "ćĈ!ćĈ!Ĉ!Ĉ!ćĈ!Ĉ!ćĈ!%&'(ďĉ": 1448,
      "ććććĈ!ććĈ!ćććĈ!ćććĈćďĉďĉ": 1449,
      "ćĈ!ćĈ!Ĉ!Ĉ!ćĈĈ!ďĉďĉďĉďĉ": 1450,
      "ććććććĈ!Ĉ!": 1451,
      "ććĈ!ćďĉ": 1452,
      "66666666'7777": 1453,
      "66666666'7777777": 1454,
      "!!ďĉććĈĈĈĈĈ": 1455,
      "ćďĉďĉ!!ďĉďĉďĉďĉćććć": 1456,
      "ďĉĦ": 1457,
      "%&'(Ĉ!Ĉ!Ĉ!Ĉ!": 1458,
      "Ĉ!Ĉ!Ĉďĉ!!!!!!!!!!!!!!!!": 1459,
      "M&'(": 1460,
      "Ē!!!": 1461,
      "010011": 1462,
      "%&'ď(ĉ!": 1463,
      "!%!&'(!!!!!!!!!!!!!!!!": 1464,
      "ćďĉ!ďĉďĉďĉ!": 1465,
      "ććććĈ!ĈĈďĉ!!!!!!!!!!!": 1466,
      "323232222222222222222": 1467,
      "001011": 1468,
      "%&'(Ĉ!": 1469,
      "ććďĉďĉ)": 1470,
      "ďĉďĉďĉďĉ%ď&'(ĉ": 1471,
      "ćĈĈćĈĈćĈ!ćććĈ!ććďĉďĉ!!!!": 1472,
      "ććĈ!%&'(Ĉ!Ĉ!Ĉ": 1473,
      "ćďĉďĉ!ďĉďĉć%&'(": 1474,
      "ćĈ!ĈĈćĈ!ćĈĈćĈ!Ĉ!ćďĉďĉ": 1475,
      "%&'(ĂĄĆ!!!!R!!!S": 1476,
      "ććććĈ!ćĈ!Ĉ!ĈćĈ!Ĉ!": 1477,
      "Lĉ": 1478,
      "ďĉďĉ)!)!!": 1479,
      "!%": 1480,
      "ćĈ!!": 1481,
      "ďĉ!ďĉďĉďĉ!ďĉ!ďĉďĉďĉ": 1482,
      "!!%!!!!!!!!": 1483,
      "ćĈ!ćďĉďĉ!ďĉďĉćććć": 1484,
      "ďĉ!ďĉ!!!ďĉďĉćĈ!ĈĈ!ĈĈĈ": 1485,
      "Ĉ!ćĈ!Ĉ!ĈćĈĈĈćĈĈĈĈĈ": 1486,
      "ďĉ!!ďĉ!!!!!!": 1487,
      "ćĈćĈ!ćĈĈ!ďĉ": 1488,
      "ćĈćďĉďĉďĉ": 1489,
      "ćďĉ!ććĈ!ćĈ!Ĉ!ĈĈĈ!ĈĈĈ": 1490,
      "ĉĉĉ": 1491,
      "Mĉ": 1492,
      "!!!!!!!!!!!!!!!!ďĉďĉďĉ!": 1493,
      "ćĈ!)!)!!Ĉ!Ĉ!ĈĈ!!!!!": 1494,
      "!!!!!)!)!!!!!!!!!!!!!!!!": 1495,
      "ďĉ!!ďĉďĉďĉĈ!ĈĈĈ!": 1496,
      "ććĈ!ćďĉďĉďĉďĉďĉďĉďĉ!!": 1497,
      "ď%&'(ĉ!!": 1498,
      "ćĈ!Ĉ!ćĈ!ćĈ!Ĉ!": 1499,
      "ďĉďĉďĉďĉďĉ!!ďĉ!": 1500,
      "ďĉ!ďĉďĉ%&'(": 1501,
      "!!!)!)!!!!!!!!!!!!!!!!": 1502,
      "Ĉ!Ĉ!!": 1503,
      "ďĉ!!!!!!!!!!": 1504,
      "!!!!!!!%": 1505,
      "ďĉ!ćĈ!ćĈďĉďĉďĉďĉ!": 1506,
      "ďĉćďĉ!!!!ćďĉ!": 1507,
      "ćĈ!ćďĉďĉ!ďĉďĉćććććĈ!ćČ": 1508,
      "ďĈĈ": 1509,
      "%&'(ćććććććććććććććć": 1510,
      "!!!!!%": 1511,
      "%&'ć(": 1512,
      "%&ď'(ĉ!": 1513,
      "ďď!": 1514,
      "ďĉďĉĉ": 1515,
      "ďĉďĉćććććććĈĈććććććĈ!ćĈĈ": 1516,
      "ď)": 1517,
      "ďĉ%&'(ďĉďĉ!!": 1518,
      "MMMMMMMMMMMMMMMMMMMMMMMM": 1519,
      "ďĉ!ďĉďĉ!!ďĉďĉďĉďĉďĉ!ďĉ!": 1520,
      "ććĈ!Ĉ!Ĉ!ćĈ!ďĉďĉďĉďĉďĉďĉ": 1521,
      "%ćć&'(": 1522,
      "ďĉ!!ďĉďĉďĉďĉďĉďĉ!ďĉďĉ!!": 1523,
      "RTVa!!!S%&'(ĂĄĆ!!!!R!!!S": 1524,
      "%&'(ďĉćććććĈ!ĈĈćĈĈćĈ": 1525,
      "!!!!!!!!!!!!!!!!!!%&'(": 1526,
      "!!!ďĉ!ďĉ!!!!!!ďĉďĉ!!!!": 1527,
      "ćććĈ!Ĉ!Ĉ!Ĉ!Ĉ!Ĉ!Ĉ!Ĉ!Ĉ!Ĉ!": 1528,
      "%M&'(": 1529,
      "ďĉď%ĉ&'(": 1530,
      "%&'(ćĈ!Ĉ!": 1531,
      "%Ĉ&'(Ĉ": 1532,
      "%!!!!!!!&'(!": 1533,
      "!)!)!!!!!!!!!!!!!!!!": 1534,
      "AB": 1535,
      "!!!)": 1536,
      "Ē!!Ė": 1537,
      "ćććĈ!Ĉ!ććĈ!ćĈ!ćČďĉ!!!ďĉ!": 1538,
      "ćĈćďĉďĉďĉ!!!": 1539,
      "ďĉćĈ!ĈĈ!Ĉ": 1540,
      "ďĉďĉ!!!!!!!": 1541,
      ")!)!!!!!!!!!!!!!!!": 1542,
      "ďĉďĉďĉďĉďĉď%&'(ĉ": 1543,
      "KK": 1544,
      "!!!!ďĉďĉ": 1545,
      ">>": 1546,
      "ę!": 1547,
      "ćććććĈ!ćĈĈďĉďĉ!!": 1548,
      "ĈćĈĈćĈćĈĈĈćĈĈďĉĈ!Ĉ!ĈĈĈ": 1549,
      "ć%&'(ďĉ!!!!!!!!!ďĉďĉďĉ!!": 1550,
      "ďLĉ": 1551,
      "ďĉďĉďĉďĉďĉďĉďĉďĉďĉďĉďĉ!": 1552,
      "23232222222222222222": 1553,
      "ďĉććĈĈĈĈĈďĉďĉ)!)!!": 1554,
      "%&'(ďĉ!!!!!!!!!!!": 1555,
      "ďĉ!!!!!!!!ďĉ!ďĉ!": 1556,
      ")ďĉďĉďĉďĉďĉďĉďĉ!ďĉ!!": 1557,
      "ħ!": 1558,
      "%!!!!!!!!!!!!&'(": 1559,
      "ďĉďĉććĈ!Ĉ!Ĉ!ćĈ!": 1560,
      "ďĉďĉďĉďĉď%&'(ĉ": 1561,
      "ććĈ!ćďĉććććććććĈ!Ĉ!Ĉ!Ĉ!": 1562,
      "ďĉďĉďĉ!ďĉďĉ!!ďĉďĉďĉ!": 1563,
      "ďĉďĉ!!ďĉďĉďĉďĉďĉ!ďĉ!": 1564,
      ")!!!!!!!!!!!!!!!ďĉďĉďĉ": 1565,
      "ćL": 1566,
      "ĉĈ": 1567,
      "01'(333": 1568,
      "RTVa!!!SĂĄĆďĉćććďĉ!": 1569,
      "ď!ĉ!": 1570,
      "ďĉććĈ!ďĉ!ďĉ!!ćĈ!": 1571,
      "ćĈ!ćĈ!ćďĉďĉďĉďĉ!ďĉ!ďĉďĉ": 1572,
      "%&'(Ĉ!Ĉ!ćććććĈ!ćĈĈ": 1573,
      "ďMĉ": 1574,
      "!!ćććććććććććć": 1575,
      "ĈĈĈĈĈĈĈ": 1576,
      "!ďĉ!!": 1577,
      "ďĉ!ďĉďĉ!ďĉćććĈ!Ĉ!Ĉ!Ĉ!": 1578,
      "ďĈ!Ĉ": 1579,
      "ĒĒ": 1580,
      "ćććććĈ!ćĈĈ%&'(ďĉďĉ!!": 1581,
      "Ħ!": 1582,
      "%&Ĉ'(!": 1583,
      ")ħ": 1584,
      "32222": 1585,
      "ćďĉćććć": 1586,
      "ććĈ!ďĉďĉďĉďĉ!ďĉďĉ!!": 1587,
      "ĥĤ!": 1588,
      "ďĈ!Ĉ!ĉ": 1589,
      "Ĉ!%Ĉ&'(!": 1590,
      "%&'(ďĉďĉďĉďĉďĉďĉďĉ": 1591,
      "ćĈ!Ĉ!Ĉ!Ĉ": 1592,
      "ďĉďĉ!ďĉ!ďĉďĉďĉ!": 1593,
      "%&'(%&'(%&'(%&'(%&'(%&'(": 1594,
      "%&'(ďĉďĉ)!)!!": 1595,
      "66666666777": 1596,
      "ďĉ!!ďĉ!!!!!!)!!!!!!!!)!": 1597,
      "66666666777'7777": 1598,
      "ďĉ%&'(ććďĉďĉ)": 1599,
      "%&'Ĉ(!": 1600,
      "ćććććĈ!ćĈĈ%&'(ďĉďĉ": 1601,
      "ćĈ!%Ĉ&'(!": 1602,
      "ďĉďĉďĉďĉďĉďĉďĉďĉ!!": 1603,
      "ďĉ!ďĉ!ďĉďĉďĉ": 1604,
      "ć%&'(ďĉďĉďĉďĉ!": 1605,
      "ĈĈĈ!Ĉ": 1606,
      "ďĉ!ďĉďĉďĉ%&'(": 1607,
      "ďĉďĉ%&'(ďĉďĉ": 1608,
      "ďĉďĉďĉďĉďĉ%ď&'(ĉ": 1609,
      "!!ďĉććĈĈĈĈĈ%&'(ďĉďĉ)!)!!": 1610,
      "!!!!!!!!!!!!!!!!)!)!!)!)": 1611,
      "ĉ!!": 1612,
      "đđ": 1613,
      "Ĉ!ć": 1614,
      "ďĉďĉďĉ!!ďĉćććĈ!Ĉ!Ĉ!Ĉ!": 1615,
      "%!ć": 1616,
      "ćĈ!ĈĈĈćĈćĈćĈĈĈćĈďĉďĉ!": 1617,
      "ĈćĈĈćĈćĈĈĈćĈĈ%&'(ďĉ": 1618,
      "!ďĉ!!!!!!!!!!!!!!!!": 1619,
      "ďĉďĉ!ďĉďĉćććććďĉ!ďĉďĉďĉ!": 1620,
      "%ć&'ć(": 1621,
      "!!!!!!%": 1622,
      "ďĉ%&'(ďĉ!!": 1623,
      "%&'(ďĉććććććććĈ!Ĉ!Ĉ!Ĉ!": 1624,
      "Ħ%&'(%&'(%&'(%&'(": 1625,
      "Ĉ!ćĈĈ": 1626,
      "%&'(ďĉ!ďĉ!!": 1627,
      "ććĈ!Ĉ!ćĈ!Ĉ!": 1628,
      "ćĈ!ćĈ!ć%&'(ďĉďĉďĉďĉ!": 1629,
      "ďĉ%&'(ďĉďĉ!!!!": 1630,
      "B!": 1631,
      "!!%&'(!!!!!!!!!!!!!!!!": 1632,
      "!!!!%": 1633,
      "ďĉ%&'(ďĉďĉ!": 1634,
      "M!": 1635,
      "ď%&'(ĉďĉďĉ!": 1636,
      "%&'(ďĉďĉ!!!!ďĉďĉ": 1637,
      "L&'(": 1638,
      "ćĈ!Ĉ!Ĉ!Ĉ!Ĉ!ĈďĉĈ!Ĉ!Ĉ!Ĉ!": 1639,
      "%&'(Ĉ!Ĉ!ćććććĈ!ćĈĈďĉďĉ": 1640,
      "Ĉ)": 1641,
      "ēĖ": 1642,
      "ćĈćć": 1643,
      "%ď&'(ĉ!!": 1644,
      "Ĉ!Ĉ!Ĉ!Ĉ!ĈćĈ!ĈĈ!ĈĈĈ": 1645,
      "ďĉďĉďĉĈ!Ĉ!Ĉ!Ĉ!ĈćĈĈĈ!ĈĈĈ": 1646,
      "ďĉďĉďĉďĉďĉďĉďĉďĉďĉďĉďĉďĉ": 1647,
      "ďĉďĉ!ďĉďĉ!!": 1648,
      "&Ĉ'(!": 1649,
      "BB": 1650,
      "ďććĉ": 1651,
      "!!!!!!!!!!!!!!!!!!!!%&'(": 1652,
      "ďĉďĉďĉďĉ!ďĉďĉďĉďĉ!ďĉ!!": 1653,
      "ćĈĈĈĈĈćĈĈĈĈĈćĈ!ĈĈĈćĈďĉ!": 1654,
      "ďćĈ": 1655,
      "ďĉĉĉ": 1656,
      "!!!%!&'(": 1657,
      "'(333": 1658,
      "%&'(!ďĉďĉďĉ!ďĉ!ďĉ!": 1659,
      "!!!!!ďĉ!!!!!!!!!!!!!!!!": 1660,
      "!!!!!!!%!!!!!!!!": 1661,
      "ďĉ!ďĉ!!!!": 1662,
      "!!!!!!!!!!!!!!!!!!!%&'(": 1663,
      "ćĈćĈćĈ!ĈćĈĈďĉ%&'(ďĉďĉ": 1664,
      "ďĖ": 1665,
      "Ħĉ": 1666,
      "!!!!ďĉ!!!ćććććĈ!ĈĈ!ĈĈ": 1667,
      "ďĉ!!ďĉďĉ!!ďĉ!ďĉ!!ďĉďĉďĉ!": 1668,
      "ďďď": 1669,
      "ĥďĉ": 1670,
      "ďĉ!ĉ": 1671,
      "ďĉďĉďĉ!ďĉ%&'(!": 1672,
      "ďĉďĉďĉďĉďĉďĉďĉďĉďĉ": 1673,
      "ď%&'(ĉďĉďĉ": 1674,
      "ĥĤē": 1675,
      "ďćĈ!ĉ": 1676,
      "ćććďĉ!": 1677,
      "ććććććĈ!Ĉ!Ĉ!ćĈ!Ĉ!Ĉ!Ĉ!Ĉ!!": 1678,
      "ćďĉ!!": 1679,
      "ďĉďĉďĉďĉďĉďĉďĉďĉďĉďĉ%&'(": 1680,
      "ďďĉĉďďĉĉ": 1681,
      "ćďĉďĉćĈ!ćĈ!Ĉ!Ĉ!ćĈ!Ĉ!": 1682,
      "ćĈ!Ĉ!Ĉ!ćďĉćććďĉ!!": 1683,
      "ć'": 1684,
      "%&'(ďĉćććććććć": 1685,
      "ćďĉ!ďĉďĉďĉďĉďĉďĉďĉďĉ": 1686,
      "ć%&'(ćććć": 1687,
      "ďĉďĉ!ďĉ!ďĉďĉďĉ!ďĉ!ďĉ!!ďĉ": 1688,
      "ćĈ!ć%&'(": 1689,
      "ćĈ!Ĉ!ćĈ!Ĉ": 1690,
      "LL!LK!LK": 1691,
      "%&'(ďĉćĈ!ćĈ!Ĉ!": 1692,
      "ďĉćććććĈ!ĈĈćĈĈćĈ": 1693,
      "ďďďďďďďď": 1694,
      "!&'(ďĉ))ħ": 1695,
      "%ć&'Ĉ(!": 1696,
      "%&'(ćďĉ!ďĉďĉ!!!": 1697,
      "ďďĉďĉĉ": 1698,
      "Ĥ))))": 1699,
      "!!%": 1700,
      "332222": 1701,
      "AAAA": 1702,
      "ďĉ!ďĉďĉďĉďĉďĉďĉďĉďĉ!": 1703,
      "%&'(ďĉĈ!ĈĈĈĈĈĈĈ": 1704,
      "LLLL!LK": 1705,
      "ćĈ!Ĉ!Ĉ!ćĈ!Ĉ!Ĉ!Ĉ!Ĉ!!": 1706,
      "Ĉ!ĈĈĈ!ďĉ!!!!!!!!!!!!!!!!": 1707,
      "RTVaďĉććĈ!": 1708,
      "ħĉ": 1709,
      "Ĉ!ćĉ": 1710,
      "ććĈĈĈĈ": 1711,
      "%&'(ďĉ!ďĉďĉďĉďĉ!!": 1712,
      "ć%": 1713,
      "ĈćĈ": 1714,
      "Ĕĥ": 1715,
      "ďĉ!%ď&'(ĉ": 1716,
      "!!!!!)!)": 1717,
      "ćććĉ": 1718,
      "ćČČ": 1719,
      "ĈĈ!Ĉ!": 1720,
      "!!!ďĉ!!!!!!!!!!!!!!!!": 1721,
      "LLL": 1722,
      "%Ĉ&'(ĈĈ": 1723,
      "ďĉďĉ!ďĉďĉĈ!": 1724,
      "Ĉ!ćĈ!ćďĉďĉďĉďĉďĉćććć": 1725,
      "ďĉ!ďĉ!!Ĉ": 1726,
      "32323232222222222222222": 1727,
      "ďĉ!ď%&'(ĉ": 1728,
      "ďĉďĉďĉ%&'(ďĉďĉ!!": 1729,
      "Ĉ!ĈĈĈ!Ĉ!ĈĈ!Ĉ!Ĉ!": 1730,
      "ďĉďĉďĉ!ďĉ%&'(!ďĉ!ďĉ!": 1731,
      "%&'(ďĉ!ďĉďĉďĉ": 1732,
      "ćććććććĈ": 1733,
      "!!!ćććććććććććć": 1734,
      "ĈĈĈĉ": 1735,
      "ďĉďĉ!ďĉďĉďĉďĉ!": 1736,
      "ćććĈ!Ĉ!Ĉ!Ĉ!Ĉ": 1737,
      "ďĉ%&'(!!!": 1738,
      "ďĉďĉďĉďĉďĉďĉďĉ!ďĉ!ďĉ": 1739,
      "Ĉ!Ĉ!Ĉ!Ĉ!Ĉ!Ĉ!Ĉ!Ĉ!ĈĈĈ!Ĉ": 1740,
      "ďĉ!!ďĉ!ďĉďĉ!ďĉďĉ!": 1741,
      "Ĉ!ćĈ!Ĉ!Ĉ!ćĈ!Ĉ!Ĉ!ĈĈ!ćĈ!": 1742,
      "ćĈ!%&'(ďĉ!": 1743,
      "ć%&'(ďĉďĉ!!": 1744,
      "ćďĉ)ħ": 1745,
      "ćć!": 1746,
      "ćĈ!ććĈ!Ĉ!ćĈ!Ĉ!": 1747,
      "!!!!!!!%!!!!!!!!!!!!!!!!": 1748,
      "ćĈ!ćĈ!Ĉ!Ĉ!ďĉďĉ!": 1749,
      "ČČČČ": 1750,
      "Ĉ!ĈĈĈĈ!ĈĈĈĈďĉĈ!Ĉ!Ĉ!Ĉ!": 1751,
      "ćććďĉććććććĈ!ććČ": 1752,
      "Ĉ!%&'(ďĉ!ďĉďĉďĉďĉ": 1753,
      "!!!%!&'(!!!!!!!!!!!!!!!!": 1754,
      "!!!!!%&'(": 1755,
      "%ď&'(ĉďĉďĉ!": 1756,
      "%ć&Ĉ'(!": 1757,
      "Ĕ!": 1758,
      "ĦĦ": 1759,
      "!!)": 1760,
      "ďĉ%&'ď(ĉ": 1761,
      "ďĉćĈ!Č": 1762,
      "ďĉ!ďĉ!ďĉ!": 1763,
      "ďĉďĉ%&'(ďĉ!": 1764,
      "ć%&'(ďĉ!ććĈ!ćĈ!Ĉ!ĈĈĈ!ĈĈĈ": 1765,
      "ćĈ!ćĈ!ćĈ!ĈĈ!Ĉ!%&'(": 1766,
      "ďĉ%&'(ććďĉďĉ)ćďĉ": 1767,
      "ćK": 1768,
      "%!!!!!!!!!!!!!&'(": 1769,
      "ďĉ!!ďĉ!ďĉďĉ!ďĉ!ďĉďĉďĉ!": 1770,
      "ďĉ)!!!)": 1771,
      "ćČČďĉďĉďĉ!!!!!": 1772,
      "ćĈ!ććĈ!Ĉ!ćĈ!Ĉ!ćĈ!ć": 1773,
      "ďĉďĉď": 1774,
      "!!!!!!!!!!!!!!!!!!!!%": 1775,
      "ćĈ!ĈĈ!ćĈ!Ĉ": 1776,
      "ćĈććć!!%&'(ďĉ!ďĉ!!": 1777,
      "Ĉ!ćĈ!ćĈ!Ĉ!Ĉ!ďĉďĉ!!!!!!!": 1778,
      "ććČďĉďĉďĉďĉďĉďĉďĉďĉ": 1779,
      "%&ć'(": 1780,
      "!!!!!!!!!!!!!!!!!!!%": 1781,
      "%M&'(MMMMMMMMMMMMMMMM": 1782,
      "32222222222222222": 1783,
      "ďĉ!!ďĉ%&'(ďĉďĉ": 1784,
      "%Ĉ&'(!Ĉ": 1785,
      "ďĉć%&'(": 1786,
      "%&'(!!!!!!!": 1787,
      "%&'(ĉĉĉĉĉĉĉĉĉ": 1788,
      "L!M": 1789,
      "BM": 1790,
      "Ė!": 1791,
      "ďĉćććĈ": 1792,
      "ďĉ%&ď'(ĉ": 1793,
      "ďĉ%&'(ďĉďĉďĉ": 1794,
      "%!!!!!!!!!!&'(": 1795,
      "%!!!!!!!!!!!&'(": 1796,
      "%!&'(!!!!!!!!!!!": 1797,
      "L!LKL!LK": 1798,
      "%&'(ďĉďĉ!ďĉ!!!!!!!!": 1799,
      "ćĈĈĈĈĈĈĈ": 1800,
      "ć%&'(ććććććĈ!": 1801,
      "%!&'(!": 1802,
      "ďĉ!ďĉďĉ!Ĉ!Ĉ!ĈĈ!Ĉ!Ĉ!Ĉ!": 1803,
      "ďĉ!!ďĉďĉ!!!)!)": 1804,
      "ďĉďĉďĉ!ďĉďĉ!!": 1805,
      "ďĉďĉďĉďĉďĉďĉďĉďĉ)": 1806,
      "ďĉ%&'(Ĉ!Ĉ!Ĉ!Ĉ!": 1807,
      "!!!!R%&'(": 1808,
      "010101'(3": 1809,
      "ďĉ!!!!ďĉ!!": 1810,
      "ćĈ!Ĉ!Ĉ!ćďĉćććďĉ!!ďĉďĉďĉ!": 1811,
      "ĥďĉĈ!ĈĈ!": 1812,
      "!!%!&'(!!!!!!!!!!!!!!!!": 1813,
      "!!%!!&'(!!!!!!!!!!!!!!!!": 1814,
      "%&'(ďĉ!ďĉ!": 1815,
      "ďĉďĉďĉďďĉĉ": 1816,
      "MMMMM": 1817,
      "ćĈĈćĈćĈĈćĈĈ": 1818,
      "00110011": 1819,
      "ďĉďĉďĉďĉďĉďĉćďĉ!ďĉ": 1820,
      "ćĈććĈ!ćĈ!ćĈ!ĈćĈĈćďĉ": 1821,
      "Ĉ!ĈĈĈ!ĈĈĈćďĉďĉ!ďĉďĉć%&'(": 1822,
      "%L&'(": 1823,
      "ďĉďĉ%&'(ďĉďĉďĉďĉďĉďĉ": 1824,
      "ďďďĉĉĉ": 1825,
      "ďĉďĉďĉ%&'(ďĉďĉďĉďĉďĉ": 1826,
      "!!!!!!!!!!!!!!!!!!!!!!!%": 1827,
      "ďĉćććĈ!ćďĉďĉďĉďĉďĉ!!": 1828,
      "001101010011": 1829,
      "ďĉďĉď%ĉ&'(": 1830,
      "ďĉďĉďĉĈ!ĈĈĈ!": 1831,
      "ďĉ%&'(ďĉďĉďĉďĉćććć": 1832,
      "ďĉ!!ďĉ!ďĉďĉ!ďĉďĉ!ďĉ!": 1833,
      "ćĈ!Ĉ!Ĉ!Ĉ!Ĉ!Ĉ!ĈĈďĉ%&'(!!!": 1834,
      "Bĉ": 1835,
      "ď!!!!!!!!!!!!!!!!": 1836,
      "Ĉ!ďĉ!ďĉďĉďĉďĉ": 1837,
      "ćĈ!ď": 1838,
      "!!!%&'(": 1839,
      "%!!!!!!!!!&'(": 1840,
      "ď!ď!": 1841,
      "33222323": 1842,
      "ďĈĈĉ": 1843,
      "%ĈĈ": 1844,
      "!!!!!!!!!!!!!!!!%": 1845,
      "ćĈ!ćććć": 1846,
      "ććććććĈ!ćĈĈďĉďĉ!!": 1847,
      "Ĉ!Ĉ!ĈĈ!Ĉ!Ĉ!ĈĈĈĈćďĉďĉ%&'(": 1848,
      "&'Ĉ(!": 1849,
      "ďĉ!!!!!ďĉ!ďĉďĉďĉďĉďĉďĉďĉ": 1850,
      "!!!!!!!!!!ćććććććććććĈ!Ĉ": 1851,
      "ď&'(ĉ": 1852,
      "ććććć": 1853,
      "ďĉććďĉďĉ)": 1854,
      "ććć%Ĉ&'(!": 1855,
      "ďĉ!!!!ďĉ!!)ďĉďĉ!": 1856,
      "ććć%&'(": 1857,
      "ďĉ!!ďĉ": 1858,
      "ďĉďĉďĉ!ďĉďĉďĉďĉ": 1859,
      "%ď&'(ĉďĉďĉ": 1860,
      "ďĉ!ďĉď%&'(ĉ": 1861,
      "ďďďĉĉ": 1862,
      "ďĉ!!ďĉďĉďĉďĉďĉďĉ!ďĉďĉ!": 1863,
      "!)": 1864,
      "ďĈĈĈĉ": 1865,
      "ćĈ!ćďĉďĉďĉďĉďĉ!!": 1866,
      "%!!!!!!!!!!!!!!&'(": 1867,
      "!!!!!!!!!!!!!!!)!)": 1868,
      "ćĈ!ďĉććĈ!Ĉ!Ĉ!Ĉ!": 1869,
      "ďĉ!ďĉďĉďĉďĉćďĉ!ďĉďĉďĉ": 1870,
      "ćĈ!Ĉ!ćĈ!ćĈ!Ĉ!ćĈ!Ĉ!ćĈ!Ĉ": 1871,
      "%Ĉ!": 1872,
      "Ĥĉ": 1873,
      "%&'(!!!!!!": 1874,
      "ďĉďĉ!ďĉ!ďĉ!": 1875,
      "01000111": 1876,
      "ć%&'(ďĉ!ďĉďĉ!!!": 1877,
      "ďĖĉ": 1878,
      "ĥďĉĈ!ĈĈ!ďĉćĈ!Č": 1879,
      "ćĈĈćĈĈćĈĈćĈćĈĈćĈĈ": 1880,
      "!!!!!!!!!!!!!!!!!!%": 1881,
      "ďĉ!ďĉďĉďĉďĉďĉďĉďĉďĉ!!": 1882,
      "32232323": 1883,
      "ďĉćććĈ!Ĉ!Ĉ!Ĉďĉ!ďĉďĉďĉďĉ": 1884,
      "3232222222222222222": 1885,
      "!!!!%&'(!!!!!!!!!!!!!!!!": 1886,
      "ďĉďĉďĉďĉ%&'(ďĉ": 1887,
      "ćĈĈ!Ĉ!": 1888,
      "ďĉ!ďĉ!!!!ďĉďĉ!!": 1889,
      "ćĈ!ĈĈ!ćĈ!ĈćććććććĈ": 1890,
      "ďĉďĉďĉ!!!!!!!!!!!!!!!!": 1891,
      "ćďĉďĉ!ďĉďĉ!": 1892,
      "ď)ĉ": 1893,
      "ďĉďĉ%!&'(": 1894,
      "ć%&'(ďĉďĉďĉďĉ": 1895,
      "ć%&'(ďĉďĉďĉ": 1896,
      "ďĉďĉ%&'(ďĉ!!": 1897,
      "ďĉďĉďĉďĉďĉďĉď%&'(ĉ": 1898,
      "ĈĈĈĈĈďĉ!ďĉ!": 1899,
      "ćććĈĈććććććĈ!ćĈĈďĉďĉ!!": 1900,
      "ďĈ!Ĉĉ": 1901,
      "ďĦĉ": 1902,
      "ďĉħ": 1903,
      "ćććĈ!Ĉ!Ĉ!Ĉ!Ĉ!": 1904,
      "MMMMMMM": 1905,
      "ć%&'(!!!!!!!!!!!!!!!!": 1906,
      "%ć&ć'(": 1907,
      "(788888888,-%&+01000111": 1908,
      "ćĈ!Ĉ!Ĉ!Ĉ!Ĉ!ĈďĉĈ!": 1909,
      "ďĈĉ": 1910,
      "!!)!)!!!!!!!!!!!!!!!!": 1911,
      "ďĉćĈ!ćĈ!": 1912,
      "Ĉ!Ĉ!ĈĈ!Ĉ!Ĉ!": 1913,
      "ďĉ%&'(ďĉ": 1914,
      "ďĉ!ďĉ!ďĉďĉďĉďĉ": 1915,
      "ĈĈĈ!ĈĈĈćďĉďĉ!ďĉďĉć%&'(": 1916,
      "Ėē": 1917,
      "Ĥ!": 1918,
      "Ħē": 1919,
      "ćĈĈ!Ĉ": 1920,
      "ćĈ!ćĈ!ćĈĈ": 1921,
      "ďĉďĉďĉćďĉ!": 1922,
      ")!)ďĉďĉďĉ": 1923,
      "!!!!!!!!!!!!!!!!!!!!!%": 1924,
      "ććĈ!ĈďĉĈ!Ĉ!": 1925,
      "!!!!!!!!!!!!!!!!!%!&'(": 1926,
      "ć!Ĉ": 1927,
      "L!LK!LK!LK": 1928,
      "ďĉ!!!!!!!!%&'(ďĉ!": 1929,
      "ďĉ%&'(ćććććććććć": 1930,
      "ď!Ĉ!ĉ": 1931,
      "ĈćĈĈćĈćĈĈĈćĈĈďĉ%&'(": 1932,
      "Ĉ!ĈĈĈ!ĈĈ%&'(ďĉ!ďĉďĉďĉ": 1933,
      "ďĉĈ!ĈĈĈĈĈĈĈĈ!ĈĈĈďĉ": 1934,
      "ďĉ)!!!)!!!!!": 1935,
      "ďK": 1936,
      "ďĉďĉďĉďĉćďĉ#$ćĈ!ćć": 1937,
      "ďĉ!)": 1938,
      "!!!%&'(!!!!!!!!!!!!!!!!": 1939,
      "Ĉ!Ĉ!Ĉ!Ĉ!Ĉ!Ĉ": 1940,
      "%&'(ĉĉĉĉĉ": 1941,
      "ďď!!": 1942,
      "!!!!RTVa": 1943,
      "ħ)ę": 1944,
      "ďĉ!!!!!!!!ďĉ!ďĉ!!!!!!!!": 1945,
      "C!": 1946,
      "ďĉĈ!Ĉ!Ĉ!Ĉ!Ĉ!Ĉ!": 1947,
      "%&'(ďĉ!ďĉďĉďĉďĉďĉďĉďĉďĉ": 1948,
      "ďĉďĉ!!ććć": 1949,
      "%ď&'(ĉďĉ": 1950,
      "ďĉ!ďĉ%!&'(": 1951,
      "LLLLLLLLLLLL": 1952,
      "Ĉ!ĈĈĈ!ĈĈĈćďĉďĉ!": 1953,
      "ďĉ!!!!!!!!ďĉ!ďĉ!%&'(": 1954,
      "L!L": 1955,
      "ď!!!": 1956,
      "ďĉ!ďĉďĉďĉďĉ%&'(ďĉďĉďĉ": 1957,
      "!&'(ďĉ))ď": 1958,
      "%Ĉ": 1959,
      "ĈĈĈ!": 1960,
      "%&'(ďĉĈ!Ĉ!ĈĈĈ!Ĉ!Ĉ!Ĉ!ĈĈĈĈ": 1961,
      "ď%&'(ĉ!!!!!!!!!!!!!!!!": 1962,
      "ď%&'(ĉďĉďĉďĉďĉ": 1963,
      "ďĉ!!!ďĉ%&'(ďĉďĉ!!": 1964,
      "ćĈ!ćĈ!ćĈ!Ĉ!ććććĈ!ććĈ!ć!": 1965,
      "Ĉ!Ĉďĉ!ďĉ!ďĉćććććććććć": 1966,
      "!!!!RTVa!!!SĂĄĆ!": 1967,
      "&'ć(": 1968,
      "ćďĉ!ďĉďĉ!!ďĉďĉďĉďĉ!": 1969,
      "Ĉ!ćĈ!ćĈ!Ĉ!": 1970,
      "ďĉď!ĉ": 1971,
      "ďĉďĉďĉďĉćĈ!ĈĈ!Ĉ!ďĉ!ďĉ!": 1972,
      "ďĉ!!!!!!!!!!!!ďĉ!!": 1973,
      "ďĉ!ďĉ%ď&'(ĉ": 1974,
      "Ĉ!ćĈ!ć%&'(": 1975,
      "ĈĈ!ĉ": 1976,
      "ĖĖĖĖ": 1977,
      "ćĈ!ććĈ!Ĉ!ćĈ!Ĉ!ćĈ!ć!ďĉ!!": 1978,
      "A!": 1979,
      "ćĈć": 1980,
      "%Ĉ&'(ĈĈĈ": 1981,
      "ďĉďĉďĉďĉďĉďĉďĉďĉ!ćĈ!Č": 1982,
      "ćĈ!Ĉ!ćĈĈćďĉćĈ!ććĈ!ćĈ!Ĉ": 1983,
      "ćČ": 1984,
      "ďĉćĈ!ćĈ!Ĉ!Ĉ!ćĈ!Ĉ!": 1985,
      "&'(ďĉ!!!!!!!!!!!!!!!!": 1986,
      "%Ĉ&'(!Ĉ!": 1987,
      "Ĉ!ćĈ!Ĉ!ĈĈĈ!ĈĈĈććĈ!ďĉ": 1988,
      "%!ć&'(": 1989,
      "&ď'(": 1990,
      "0000111": 1991,
      "%&'(!!!!!!!!!!!": 1992,
      "ćĈ!Ĉ!Ĉ!ĈĈ!Ĉ": 1993,
      "ďĉ!%&'(ďĉ": 1994,
      "ďĉ!!ďĉďĉďĉďĉďĉďĉďĉ)!": 1995,
      "ďĉďĉ!ďĉ!ďĉďĉďĉďĉ": 1996,
      "ďĉďĉďĉćććć": 1997,
      "ďĉ!ďĉ!ďĉďĉďĉďĉ!ďĉďĉ": 1998,
      "ď%&'(ĉďĉ": 1999,
      "ď!!ĉ": 2000,
      "ĤĤ": 2001,
      "Ĉ!%&'(": 2002,
      "ďĉďĉ%&ď'(ĉ": 2003,
      "ćĈ!Ĉ!Č": 2004,
      "ďĉ!ďĉďĉďĉďĉ!": 2005,
      "ďĉďĉ!ďĉďĉďĉďĉ!ďĉ!!": 2006,
      "Ĉ!ćĈ!Ĉ!Ĉ!": 2007,
      "ćĈ!Ĉ!ćĈĈ!ćĈ!ćĈ!ĈĈ!Ĉ!Ĉ!": 2008,
      "ďĉćĈ!Ĉ!Čďĉďĉďĉ!": 2009,
      "ćďĉďĉďĉďĉććĈ!Ĉďĉ%&'(Ĉ!Ĉ!": 2010,
      "!%!!&'(": 2011,
      "ďďĉ!ĉ": 2012,
      "Ĉ!Ĉ!ĈĈ!Ĉ!ćĈ!Ĉ!": 2013,
      "!!!!!%!&'(": 2014,
      "ććć%ć&'(": 2015,
      "32233": 2016,
      "Ĉ!ďĉďĉćĈ!ďĉ!%&'(": 2017,
      "Ĕ!ďĉďĉďĉďĉ": 2018,
      "ćććĈ!Ĉ": 2019,
      "ćĈ!Ĉ!Ĉ!Ĉ!Ĉ": 2020,
      "ďĉďĉďĉďĉ%&'(ďĉďĉ": 2021,
      "!!!!!!!!!!!!!!!!!!!!!!%": 2022,
      "Ĉ!Ĉ!Ĉ!ćĈ!ćĈďĉďĉďĉďĉ": 2023,
      ")ďĉ": 2024,
      "!!!!)!)": 2025,
      "ććĈ!ďĉ!ďĉ!!ćĈ!": 2026,
      "ďĉ!ďĉ!ďĉ%&'(ďĉďĉ": 2027,
      "ď%&'(ĉďĉ!!": 2028,
      "Ĉ!Ĉ!Ĉ!Ĉ!Ĉ!Ĉ!Ĉ!ĈĈćĈ": 2029,
      "ďĉ!!ďĉďĉďĉ)!)ďĉďĉďĉďĉďĉ!": 2030,
      "ďĉď%&'(ĉ!": 2031,
      "%&'(ďĉďĉďĉďĉďĉďĉďĉ!": 2032,
      "ĈĈĈĈĈćĈĈ": 2033,
      "ćĈ!ćĈ!ĈĈ!": 2034,
      "ďĉďĉďĉď%ĉ&'(": 2035,
      "!!!!!!%&'(": 2036,
      ">>>>": 2037,
      "Lďĉ!": 2038,
      "Ğğ": 2039,
      "!!Ĉ": 2040,
      "!!ďĉ!!!!!!!!!!!!!!!!": 2041,
      "ćć%ć&'(": 2042,
      "ďĉ!Ĉ!Ĉ!ĈĈ!Ĉ!Ĉ!Ĉ!": 2043,
      "ďĉ!ďĉ!ďĉďĉďĉ!": 2044,
      "ďĉćććććĈ!Ĉ!Ĉ!ćĈĈćĈ": 2045,
      "%Ĉ&'(!Ĉ!Ĉ!": 2046,
      "ďĉ)))": 2047,
      "Čďĉďĉďĉďĉďĉďĉďĉďĉ!!!": 2048,
      "ććććĈ!Ĉ!Ĉ!Ĉ!Ĉ!ĈĈ!Ĉ!ćďĉ!!": 2049,
      "!%&'(!!!!!!!!!!!!!!!!": 2050,
      "\"%&-+/,'(%&-+/,'(": 2051,
      "ėĥĤē": 2052,
      "ďĉďĉďĉďĉďĉďĉďĉďĉďĉćććć": 2053,
      "ćďĉ!ďĉ!!!!!!!!!!!!!!!!": 2054,
      "ćććďĉ!!ďĉďĉďĉ!": 2055,
      "Ĉ!Ĉ!ĈĈĈ!ĈćĈ!": 2056,
      "ďĉ!%&'(!": 2057,
      "ďĉďĉďĉďĉďĉ%&'(ďĉďĉďĉ!": 2058,
      "%ĈĈ&'(": 2059,
      "ćććĈ!ćĈ": 2060,
      "2322": 2061,
      "ćďĉď%&'(ĉ": 2062,
      "ć%&'(ďĉćĈ!ććĈ!ćĈ!Ĉ": 2063,
      "ĥ!Ĥ": 2064,
      "ćććĈ!Ĉ!Ĉ!Ĉ!Ĉďĉ!ďĉ!ďĉ!": 2065,
      "Lďĉ!K": 2066,
      "Ĉ!Ĉ!ĈĈĈ!ĈćĈ!ĈĈĈĈĈćĈĈ": 2067,
      "'7": 2068,
      "ďĒ": 2069,
      "ďďĉ": 2070,
      "ďćććĉ": 2071,
      "!!!ďĉ!ďĉ!!!!!!": 2072,
      "ććĈćĈ!Ĉ!Ĉ!Ĉ!Ĉ!Ĉ!": 2073,
      "ďĉďĉďĉďĉďĉďĉďĉďĉ%&'(": 2074,
      "ďĉďĉďĉďĉďĉďĉďĉďĉďĉďĉ!": 2075,
      "%&'(ďĉććĈ!Ĉ!ĈĈĈ!Ĉ!Ĉ!ĈĈćĈ": 2076,
      "77'7": 2077,
      "ďĉććććĈ!ćĈ!Ĉ!": 2078,
      "ďĉďĉ%&'(ďĉďĉďĉďĉ": 2079,
      "ďĉďĉďĉďĉďĉďĉ%ď&'(ĉ": 2080,
      "ćďĉ%&'(ďĉćĈ!ćĈ!Ĉ!Ĉ!ćĈ!Ĉ!": 2081,
      "Ĉ!Ĉ!ćĈĈćĈĈĈĈĈĈĈĈ": 2082,
      "66666666777777'7": 2083,
      "00001111": 2084,
      "Ē!!!!": 2085,
      "ďĉ%&'(ďĉďĉďĉďĉďĉďĉďĉ": 2086,
      "%!&Ĉ'(!": 2087,
      "))ħ!": 2088,
      "%!&'(ďĉďĉďĉ!!ďĉ!": 2089,
      "ďĉ!ďĉďĉĈ!Ĉ!": 2090,
      "%&'(ďĉďĉďĉ!ďĉ!ďĉ!": 2091,
      "ć%&'(ďĉ!ďĉććććĈ!ćĈ!Ĉ": 2092,
      "ć%ď&'(ĉ": 2093,
      "Ĉ!Ĉ!Ĉ!Ĉ!ĈĈ!Ĉ!Ĉ!Ĉ!": 2094,
      "ďĉ!!ďĉ%&'(": 2095,
      "ććććććććććććĈ!ćĈ!Ĉ!": 2096,
      "ďĉďĉďĉ!!!": 2097,
      "!!!!!!%!!&'(": 2098,
      "ďĉ%&'(!!!!!!!!!!!!!!!!": 2099,
      "ďĉ%&'(Ĉ!ćĈ!Ĉ!Ĉ!Ĉ!Ĉ!Ĉ!": 2100,
      "!!!!!!!%!!!!!!!!!!!!!!": 2101,
      "%&'(ďĉďĉćććĈ!Ĉ!Ĉ!Ĉ!Ĉ!Ĉ!": 2102,
      "%&'(ďĉ!!ďĉďĉďĉĈ!ĈĈĈ!": 2103,
      "%&'(ďĉďĉďĉ!!!!!": 2104,
      "ďĉĈ!Ĉ!Ĉ!Ĉ!Ĉ!Ĉ": 2105,
      "!%!!!&'(!!!!!!!!!!!!!!!!": 2106,
      "ćďĉďĉďĉďĉďĉďĉ": 2107,
      "ĐĐ": 2108,
      "Ħ!!": 2109,
      "%&'(!!": 2110,
      "ćĈ!ćĈ!Ĉ!ĈĈ!": 2111,
      "ďĉďĉ!!ďĉďĉďĉďĉďĉďĉďĉďĉ!": 2112,
      "Ĉ!ĈĈĈ!ĈĈ!ĈĈĈĈ!ĈĈ!Ĉ": 2113,
      "'(3323": 2114,
      "ćĈ!ďĉ!ďĉďĉďĉ%&'(": 2115,
      "ďĉ!ďĉďĉ!!ďĉďĉďĉďĉ!ďĉďĉ": 2116,
      "ďĉďĉ!ďĉďĉ%&'(ďĉďĉ!": 2117,
      "ćććććććććććĈ!ĈćĈ!Ĉ!ĈćĈ!": 2118,
      "ćĈĈ!Ĉ!ĈĈĈćĈćĈ!ććĈ!!ďĉ!!": 2119,
      ")M": 2120,
      "ćħ": 2121,
      "!!)!!!!!!!!!!!!!!!!": 2122,
      "'(;": 2123,
      "%&'(ďĉďĉďĉďĉďĉďĉ": 2124,
      "ďĉ%&'(!!": 2125,
      "ďĉ!ďĉ)))": 2126,
      "ďĉďĉďĉ%&'(ćććĈ": 2127,
      "%!&'(!!!!!!!": 2128,
      "ďĉďĉďĉďĉďĉďĉ!!!!!!!!!!!": 2129,
      "ď!Ĉ": 2130,
      "ď!ď": 2131,
      "ćĈ!ĈćĈĈćĈĈĈĈĈĈĈ": 2132,
      "ćĈĈĈĈ!Ĉ!ćĈ!%&'(ďĉďĉ": 2133,
      "%&'(ďĉĈ!ĈĈĈĈĈĈĈĈ!ĈĈĈ": 2134,
      "ďKĉ": 2135,
      "!ĉ": 2136,
      "ēĉ": 2137,
      "ďĉďĉ%&'ď(ĉ": 2138,
      "ćĈ!%&'(": 2139,
      "%&'(%&'(ďĉďĉďĉ%&'(": 2140,
      "ďĉ!!ďĉďĉďĉďĉ%&'(": 2141,
      "ďĉďĉďĉ!ďĉ!!!!!!!!!!!!!": 2142,
      "ďĉ%&'(ďĉďĉďĉďĉďĉďĉďĉďĉ": 2143,
      "!!!!!!!%&'(%&'(": 2144,
      "ďĉďĉďĉ%&'(ďĉ!ďĉďĉ": 2145,
      "%Ĉ&'(!Ĉ!Ĉ!Ĉ!Ĉ!": 2146,
      "!!!!!!!!!!!!!!!!!%": 2147,
      "ďĉďĉďĉďĉďĉ%&'(ďĉďĉďĉ": 2148,
      "Ĉ!!Ĉ!!": 2149,
      "Ĉ!ćĈ!ć%&'(ďĉďĉďĉďĉďĉćććć": 2150,
      ")!!": 2151,
      "Ĉ!!!": 2152,
      "ćććďĉ": 2153,
      "ďĉďĉ!ďĉ": 2154,
      "!!!!!ďĉććĈĈĈĈĈďĉďĉ)!)!!": 2155,
      "%Ĉ&'(ĈĈĈĈĈĈĈĈĈĈĈĈĈĈĈĈ": 2156,
      "ĈĈĈĈĈĈĈĈĈĈĈĈĈ": 2157,
      "ďĉ!ďĉďĉďĉďĉďĉďĉďĉďĉ%&'(": 2158,
      "ďĉď%&'(ĉ!!": 2159,
      "ćďćĉ": 2160,
      "Ĉ!Ĉ!ćĈ!Ĉďĉ!!!!!!!!!": 2161,
      "!%!!&'(!!!!!!!!!!!!!!!!": 2162,
      "EFD": 2163,
      "ćď%&'(ĉ!": 2164,
      "ďĈ!ćĉ": 2165,
      "ďĉĈ!Ĉ!ĈĈĈ": 2166,
      "ďĉďĉććć": 2167,
      "ďĉ!Ħ": 2168,
      "%&'(ĉĉ": 2169,
      "ď%&'(ĉďĉďĉďĉ": 2170,
      "Ĉ!ĈĈ!ćĈ!ćĈ!": 2171,
      "ĈĈ!ćĈ!Ĉ": 2172,
      "L!LKLLLL": 2173,
      "ďĉď%&'(ĉďĉćććĈ": 2174,
      "Ĉ!Ĉććďĉ!ćĈ!ćĈďĉďĉďĉďĉ!": 2175,
      "0011010101'(3": 2176,
      "(788888888,-%&+0011": 2177,
      "ćďĉććććććĈ!Ĉ!": 2178,
      "!!!!RTVa!!!S": 2179,
      "Ĕ!ďĉďĉďĉďĉćććďĉ!": 2180,
      ")ĉ": 2181,
      "ďĤĉ": 2182,
      "ďĉ!ďĉ%&'(ďĉďĉ": 2183,
      "ďĉďĉďĉĈ!Ĉ!Ĉ!Ĉ!!": 2184,
      "LLL!LK!LK": 2185,
      "ćĈ!ĈĈ!Ĉ!Ĉ!Ĉ!": 2186,
      "ć%&'(ďĉ!ďĉďĉďĉďĉďĉďĉďĉďĉ": 2187,
      "ďĉďĉďĉ%&'(!": 2188,
      "ď!ďď": 2189,
      "ćććććććććć%&'(Ĉ!": 2190,
      "ďĉďĉ!ďĉ!ďĉďĉďĉďĉ!": 2191,
      "(788888888,-%&+010011": 2192,
      "%&'(ďĉ!ćĈ!ćĈ": 2193,
      "%&'(ďĉĈ!ĈĈĈĈĈĈĈĈ!ĈĈĈďĉ": 2194,
      "ďĈĈĈĈ": 2195,
      "ďĉć": 2196,
      "ďĉĈ!ćĈ!Ĉ!Ĉ!Ĉ!Ĉ!Ĉ!": 2197,
      "ďĉďĉďĉďĉď%ĉ&'(": 2198,
      "ćĈĉ": 2199,
      "ććĈ!ďĉďĉďĉďĉ!": 2200,
      "ďĉďĉďĉ!ćĈ!Ĉ!": 2201,
      "ďĉ!!!!!!!!ďĉ!ďĉ%!&'(": 2202,
      "!!!!!!!%&'(": 2203,
      "%ď&'(ĉ!!!!!!!!!!!!!!!!": 2204,
      "ďĉććĈ!Ĉ!Ĉ!Ĉ!Ĉ!Ĉ!Ĉ!ĈĈćĈ": 2205,
      "ďĉććĈ!ďĉďĉďĉďĉ!ďĉďĉ!!": 2206,
      "ćĈĈĈĈĈĈĈĈĈĈĈĈĈĈ": 2207,
      "ďĉďĉďĉďĉ%&'(!ďĉ!!": 2208,
      "ďĉ%ď&'(ĉ!!": 2209,
      "%ćć&": 2210,
      "ćććććććĈ!Ĉ!Ĉ!ćĈ!Ĉ!Ĉ!ćďĉ!": 2211,
      "ďĉĈ!ĈĈĈĈĈĈĈĈ!ĈĈĈ!ďĉ": 2212,
      "ďĉďĉďĉďĉďĉ!ďĉďĉďĉ!ćĈ!Ĉ!": 2213,
      "ďĉĖ": 2214,
      "ďĉďĉďĉďĉ!!!": 2215,
      "ćĈ!ćĈ!ćĈ!": 2216,
      "MMMMMM": 2217,
      "2222222222222222222222": 2218,
      "ďĉďĉďĉďĉďĉďĉRTVaďĉććĈ!": 2219,
      "ĖĖĖ": 2220,
      ")!)!!!!!!!!!ććććĈ!ĈĈďĉ": 2221,
      ")Ĉ": 2222,
      "%&'(ďĉ!ďĉďĉ!ďĉ!ďĉďĉďĉ!": 2223,
      "ććććĈ!Ĉ": 2224,
      "ďĉďĉďĉďĉćĈ!ĈĈ!Ĉ": 2225,
      "ćĈ)!)!!Ĉ!Ĉ!ĈĈ!!!!!": 2226,
      "Ĉ!ĈĈĈĈ!ĈĈĈĈĈ": 2227,
      "23322": 2228,
      "%Ĉ&'(!Ĉ!Ĉ": 2229,
      "ďĉďĉďĉďĉďĉ!!ďĉ!!!!!!!": 2230,
      "%!!!!!!!!!!!!!!!&'(": 2231,
      "ćĈćĈćĈ!ĈćĈĈ%&'(ďĉďĉďĉ": 2232,
      "ē!Ħ": 2233,
      "ďĉ!ďĉ!ďĉďĉďĉćďĉ!": 2234,
      "%ććĈ": 2235,
      "ML": 2236,
      "!!))))": 2237,
      "ďĉďĉďĉďĉ!!!!!!!!!": 2238,
      "ďĉďĉďĉďĉďĉ!ďĉ%&'(": 2239,
      "ďĉ!))ħ!": 2240,
      "Ĉ!ćĈ!Ĉ!Ĉ!Ĉ!Ĉ!": 2241,
      ")!)!!!!!!!!!!!!!!!!!!": 2242,
      "Ĉ!Ĉ!Ĉ!!ďĉďĉ!ďĉ!!!!!!!!": 2243,
      "ďĉ!ďĉďĉ!%&'(": 2244,
      "!!&'(!!!!": 2245,
      "ďĉ!ďĉďĉďĉ!!!": 2246,
      "ćďĉďĉ!ďĉďĉďĉ!!ďĉ!!!!": 2247,
      "Ē!!Ē": 2248,
      "%&'(ďĉďĉďĉ!!!!!!!!!!": 2249,
      "ďĉďĉďĉ!!ďĉ!ďĉ%&'(!": 2250,
      "ćďĉ!!!!!!!!!ďĉďĉďĉ!!": 2251,
      "ďĉćĈ!Ĉ!Čďĉďĉďĉ!ććĈ!ć": 2252,
      "ćďĉ!ďĉďĉ!!ďĉďĉďĉďĉ!ďĉďĉ": 2253,
      "ďĉććďĉďĉ)ćďĉ%&'(": 2254,
      "!ď": 2255,
      "ć%ćĈ&'(!": 2256,
      "Ĉ!ććĈ!Ĉ!Ĉ!Ĉ!": 2257,
      "ďĉĒ": 2258,
      "ĈĈĉ": 2259,
      "ďĉ%&'(ďĉďĉďĉďĉďĉ": 2260,
      "ćĈĈĈĈćć": 2261,
      "%Ĉ&'(ĈĈĈĈ": 2262,
      "ďĉ!ďĉďĉďĉďĉďĉďĉďĉ%&'(": 2263,
      "ć%&'(ďĉ!ďĉďĉďĉ": 2264,
      "ďĉďĉďĉ%&'(ďĉďĉ!": 2265,
      "ďĉďĉďĉďĉďĉďĉďĉ!!!": 2266,
      "ďĉďĉďĉďĉďĉďĉďĉ%&'(ďĉ": 2267,
      "ćďććĉ": 2268,
      "!!!!!!!!!!!!!!!ďĉ!!!!": 2269,
      "ďĉ!ďĉ!ďĉ%&'(ďĉďĉćďĉ!": 2270,
      "!!ď": 2271,
      "ďĉē": 2272,
      "%&'(!!!!": 2273,
      "ďĉďĉďĉ%&ď'(ĉ": 2274,
      "ďĉ%&'(ďĉ!!!!ďĉ!!)ďĉďĉ!": 2275,
      "%!&": 2276,
      "ďĉďĉďĉďĉ!ďĉ!ďĉ!ďĉ!ďĉ!": 2277,
      "ďĉ!ďĉďĉďĉďĉďĉ!ďĉďĉďĉďĉ": 2278,
      "ďďĉĉďĉďĉďĉ": 2279,
      ")!)!!!!!!!!!!ďĉ!!!!!!": 2280,
      "232323232222222222222222": 2281,
      "ďĉććĈ!%&'(": 2282,
      "(788888888,-%&+010101": 2283,
      "!&'(ďĉ))ďĉħ": 2284,
      "ďĉćďĉćććććććććććććććć": 2285,
      "32322": 2286,
      "!%&'(": 2287,
      "ĈĈĈ!Ĉ!Ĉ!Ĉ!": 2288,
      "ďĉ!ďĉďĉďĉ%&'(ďĉďĉďĉďĉ": 2289,
      "ďĉďĉďĉ!ďĉďĉďĉďĉďĉ)!)": 2290,
      "ććĈ!Ĉ!Ĉ!ĈĈ!Ĉ": 2291,
      "%&'(ďĉćććĈ": 2292,
      "ďĉďĉďĉ!!ďĉďĉďĉ": 2293,
      "%Ĉ&'(ĈĈĈĈĈĈĈĈ": 2294,
      "ć%&'(ďĉďĉ!ďĉďĉ": 2295,
      "ćĈ!ćďĉďĉďĉďĉćććć": 2296,
      "ďĉďĉďĉďĉďĉďĉćĈ!Ĉ!Ĉ!ĈĈ!Ĉ": 2297,
      "!!!SĂĄĆ!!!!R!!!S": 2298,
      "001101'(3": 2299,
      "ćĈ!Ĉ!Ĉ!ćĈĈćĈ%&'(ďĉďĉ": 2300,
      "ďĉďĉďĉ!!ďĉďĉ%&'(ďĉćććĈ": 2301,
      "ćĈĈ!ćĈ!ćĈ!ĈĈ!Ĉ!Ĉ!ćĈ!Ĉ!Ĉ!": 2302,
      "ďĉćććććććĈ!ćĈ!ćďĉ!": 2303
    },
    "merges": [
      "! !",
      "!! !!",
      "!!!! !!!!",
      "Ĉ !",
      "ď ĉ",
      "!!!!!!!! !!!!!!!!",
      "ć ć",
      "ďĉ ďĉ",
      "Ĉ Ĉ",
      "Ĉ! Ĉ!",
      "' (",
      "& '(",
      "% &'(",
      "ć Ĉ!",
      "2 2",
      "ĈĈ ĈĈ",
      "ćć ćć",
      "ć Ĉ!Ĉ!",
      "ďĉďĉ ďĉďĉ",
      "ďĉ !",
      "ć Ĉ",
      "22 22",
      "%&'( %&'(",
      "!! !",
      "Ĉ!Ĉ! Ĉ!Ĉ!",
      "Ĉ! Ĉ",
      "ć ĈĈ",
      "ćć Ĉ!",
      "ďĉ !!",
      "ĈĈĈĈ ĈĈĈĈ",
      "ćĈ ćĈ",
      "M M",
      "!!!!!!!!!!!!!!!! !!!!!!!!",
      "ĈĈ Ĉ",
      "ćĈ! ćĈ!",
      "% &",
      "ďĉďĉ !",
      "ćććć ćććć",
      ") !",
      "%&'(%&'( %&'(%&'(",
      "&'( !!!!!!!!!!!!!!!!",
      "ďĉďĉ ďĉ",
      "Ĉ! ćĈ!Ĉ!",
      "2222 2222",
      "ćć Ĉ",
      "!!!!!!!!!!!!!!!! !!!!",
      "L L",
      ")! )",
      "ćĈ! Ĉ",
      "Ĉ!Ĉ! Ĉ",
      "ćć ćĈ!Ĉ!",
      "ďĉďĉ ďĉ!",
      "MM MM",
      "!!!! !!",
      "ďĉ !!!!!!!!",
      "ćĈ! ćĈ!Ĉ!",
      "ďĉďĉ !!",
      "0 1",
      "Ĉ! ĈĈĈ",
      "ćĈĈ Ĉ",
      "!!!! !",
      "ďĉ !!!!!!!!!!!!!!!!",
      "ďĉďĉďĉďĉ ďĉďĉďĉďĉ",
      "Ĉ! ĈĈ",
      "ďĉ %&'(",
      "!!!! !!!",
      "4 4",
      "5 5",
      "6 6",
      "8 8",
      "ć ĈĈĈĈ",
      "ćć Ĉ!Ĉ!",
      "+ /",
      "+/ ,",
      "+/, '(",
      "ďĉ! ďĉ!",
      "%&'( ďĉ",
      "%&'( ĉ",
      "22222222 22222222",
      "%& -",
      "! L",
      "% !!!!!!!!",
      "% !",
      "!L K",
      "ď %&'(ĉ",
      "ć ďĉ!",
      "Ĉ! ĈĈĈĈ",
      "7 7",
      ")!) !!!!!!!!!!!!!!!!",
      "LL LL",
      "ĈĈĈĈĈĈĈĈ ĈĈĈĈĈĈĈĈ",
      "ďĉďĉ ďĉ!!",
      "ćĈ! ćć",
      "ďĉ ćććć",
      "ćĈćĈ ćĈ",
      "Ĉ!Ĉ!Ĉ!Ĉ! Ĉ!Ĉ!",
      "ďĉďĉďĉďĉ !",
      "Ĉ!Ĉ! ćĈ!Ĉ!",
      "&'( ĉ",
      "% ď",
      "MMMM MMMM",
      "Ĉ &'(",
      "ćĈ! ććĈ",
      "ćĈ! ćĈ",
      "%ď &'(ĉ",
      "- %&",
      "ďĉ! ďĉ",
      "% Ĉ&'(",
      "ďĉ! ďĉďĉďĉďĉ",
      "ć %&'(",
      "!!!!!!!!!!!!!!!!!!!! !",
      "2 3",
      "% !!!!!!!!!!!!!!!!",
      "!!! S",
      "ĉ ĉ",
      "ďĉďĉ %&'(",
      "ćĈćĈ ćĈćĈ",
      "ćć ćĈ",
      "Ĉ!Ĉ! Ĉ!",
      "%&- +/,'(",
      "Ĉ ćĈĈ",
      "ćććććććć ćććććććć",
      "ć ďĉ",
      "'( 3",
      "!LK !LK",
      "Ĉ!Ĉ Ĉ!",
      "ď ď",
      "Ĉ!Ĉ! Ĉ!Ĉ",
      "!! &'(!!!!!!!!!!!!!!!!",
      ") )",
      "+ 01",
      "44 44",
      "55 55",
      "66 66",
      "88 88",
      "ďĉďĉďĉ %&'(",
      "ćĈ!Ĉ! Ĉ!",
      "-%& +/,'(",
      "-%&+/,'( -%&+/,'(",
      "ćĈ!Ĉ! Ĉ",
      "ćĈ! ććĈ!",
      "ćĈ! ć",
      "ćććć Ĉ",
      "ćććć ććĈ!",
      "ćĈ!Ĉ! Ĉ!Ĉ!Ĉ!Ĉ!",
      "!!!!!!!!!!!!!!!!!!!! !!!",
      "ďĉ ĉ",
      "ďĉďĉ !!!",
      "%! &'(",
      "ćĈĈĈĈ Ĉ",
      "ćć Ĉ!Ĉ!Ĉ!Ĉ!",
      "ďĉ !!!",
      "ćććć ćććĈ!Ĉ!",
      "2222 22",
      "'( 7",
      "ćĈ! ĈĈĈ",
      "ďĉďĉďĉďĉ ďĉďĉ!",
      "Ą Ć",
      "Ă ĄĆ",
      "22 2",
      "4 %&",
      "5 222",
      "6 '(7",
      "4%& 5222",
      "4%&5222 6'(7",
      "222222 4%&52226'(7",
      "8 ,",
      "2222224%&52226'(7 8,",
      "!!!!!!!!!!!!!!!!!!!! !!",
      "%&- +01",
      "ď ďĉĉ",
      ")!) !!!!!!!!",
      "ďĉ ćć",
      "T V",
      "ćĈĈ ćĈĈ",
      "'(3 2222224%&52226'(78,",
      "TV a",
      "Ĉ!Ĉ Ĉ!Ĉ",
      "%Ĉ&'( !",
      "!!!!!!!!!!!!!!!! !!!",
      "ćć ć",
      "ĈĈĈĈĈĈĈĈ ĈĈĈĈ",
      "ďĉďĉďĉďĉ ďĉďĉ",
      "ďĉ!!!!!!!! !!!",
      "!!!! R",
      "Ĉ!Ĉ! ĈĈ",
      "ććĈ! ć",
      "01 01",
      "%&-+/,'( %&-+/,'(",
      "ćĈ!Ĉ! Ĉ!ćĈ!Ĉ!",
      "ćć Ĉ!Ĉ",
      "ďĉďĉďĉďĉ ďĉ",
      "ďĉ!! ďĉ!",
      "LLLL LLLL",
      "%! &'(!!!!!!!!!!!!!!!!",
      "Ĉ! ćĈ!",
      "!!! &'(!!!!!!!!!!!!!!!!",
      "ćć Ĉ!Ĉ!Ĉ",
      "ćĈ!Ĉ! Ĉ!Ĉ!",
      "23 23",
      "!!!S ĂĄĆ",
      "Ĉ!Ĉ! Ĉ!ćĈ!Ĉ!",
      "ćĈ!ćĈ! ćĈ!ćĈ!",
      "!!!!!!!!!!!!!!!! !!",
      "2222222222222222 22222222",
      "ď !",
      "ććĈ! ćć",
      "ćć ĈĈ",
      "ďĉ! ďĉ!!",
      "ćććć Ĉ!",
      "ćĈĈ ćĈ",
      "ďĉ !!!!",
      "MMMMMMMM MMMMMMMM",
      "%&'( ďĉďĉ",
      "# $",
      "ĈĈĈĈ ĈĈ",
      "Ĉ Ĉ!",
      "% ć",
      "ďĉ! ďĉďĉ",
      "ćĈ! ĈĈ",
      "ďĉďĉďĉďĉ ďĉďĉďĉ",
      "ćć ĈĈĈ",
      "ćĈ! ďĉ!",
      "!!!!!!!!!!!!!!!! !",
      "% ĉ",
      "ĈĈ Ĉ!ĈĈĈ",
      "ďĉďĉďĉďĉ ďĉďĉďĉ!",
      "ĈĈĈĈĈĈĈĈ Ĉ",
      "%& '",
      "Ĉ!Ĉ ćĈ!Ĉ!",
      "ďĉ!!!!!!!! !",
      "ćććĈ!Ĉ! Ĉ!Ĉ!Ĉ!Ĉ!",
      "ĉ !",
      "ď %ĉ",
      ")!) !!",
      "77 77",
      "ćććć Ĉ!ćĈ!Ĉ!",
      "ďĉ !!!!!!",
      "TVa !!!SĂĄĆ",
      "ć ďĉďĉ",
      "ćĈ!ćĈ!Ĉ! Ĉ!",
      "01 1",
      "&'( !",
      "Ĉ!Ĉ!Ĉ !!",
      "%&'( !!!!!!!!!!!!!!!!",
      "ćć Ĉ!Ĉ!Ĉ!Ĉ!Ĉ!Ĉ!",
      "ďĉďĉ ćććć",
      "ćĈ!ćĈ!Ĉ! Ĉ!ćĈ!Ĉ!",
      "0 011",
      "ďĉ! ďĉďĉďĉ!",
      "ďĉďĉďĉďĉ ďĉ!!",
      ") !!!!!!!!",
      "ďĉ !!!!!",
      "ćĈ Ĉ!",
      "ćććĈ!Ĉ! Ĉ!Ĉ!",
      "Ĉ! ćĈ!Ĉ",
      "ď '(",
      "!!!! &'(!!!!!!!!!!!!!!!!",
      "!!!!! &'(!!!!!!!!!!!!!!!!",
      "% !!&'(!!!!!!!!!!!!!!!!",
      "ćĈ!ćĈ! Ĉ",
      "3 3",
      "ćĈĈĈĈ ĈĈ",
      "ćĈ! ćĈĈ",
      "ďĉ! ďĉďĉ!",
      "ďĉ! %&'(",
      "!! )!",
      "ĈĈĈ Ĉ!",
      "!LK!LK !LK!LK",
      "%& ď'(",
      "ćĈĈĈ ćĈĈ",
      "ďĉďĉďĉ! ďĉďĉ!",
      "ď%ĉ &'(",
      "# .",
      "$ #$",
      "ď (",
      "Ĉ!ćĈ!Ĉ! Ĉ",
      "ććĈ! ćĈ!ćĈ!",
      "#. .",
      "!!!!R !!!S",
      "Ĉ!ĈĈĈĈ ĈĈĈ",
      "!! &'(",
      "ććĈ ćć",
      "ĈćĈĈ ćĈ",
      "ććĈ! ććĈ!",
      "$#$ !!)!",
      "%&-+/,'( #..",
      "Ĉ!Ĉ! ĈĈĈ",
      "%&' ď(",
      "Ĉ!Ĉ!Ĉ Ĉ!Ĉ",
      "ďĉďĉďĉďĉďĉďĉďĉďĉ !",
      "ćĈĈćĈĈ ćĈćĈćĈ",
      "ĈĈ Ĉ!Ĉ!",
      "ćććĈ!Ĉ! Ĉ!",
      "ććććććĈ! ćĈĈ",
      "ćĈ!ćĈ!ćĈ!ćĈ! ćĈ!Ĉ!",
      "ďĉ! ďĉďĉďĉ",
      "ĉĉ ĉĉ",
      "ĈĈĈĈ Ĉ",
      "Ĉ!ĈĈ ćĈ",
      "! &'(!!!!!!!!!!!!!!!!",
      "!!!!!!!! !!!",
      "%&-+/,'(#.. $#$!!)!",
      "Ĉ!ĈćĈ!Ĉ! Ĉ!Ĉ",
      "!!!! ďĉ!!",
      "ďĉ ććĈ!",
      "ćĈ!Ĉ! Ĉ!Ĉ!ćĈ!Ĉ!",
      "ďĉďĉďĉďĉ ďĉćććć",
      "Ĉ!Ĉ Ĉ!ĈĈĈ",
      "%&'( ďĉ!!",
      "ćććĈ!Ĉ! Ĉ!Ĉ",
      "%ć &'(",
      "!!! &'(",
      "Ĉ!Ĉ!Ĉ!Ĉ! Ĉ!Ĉ!Ĉ!Ĉ!",
      "ćććććććć ćć",
      "ďĉ! ďĉďĉ!!",
      "ć ĉ",
      "%& 5555",
      "4444 4444",
      "6666 6666",
      "8888 ,",
      "8888 8888,",
      "%&5555 5555",
      "44444444 %&55555555",
      "%&ď'( ĉ",
      "ć ďĉďĉďĉ",
      "( 7",
      "(7 88888888,",
      "% !!!!!!!",
      "Ĉ! ććĈ!",
      "ďĉďĉďĉďĉ !!",
      "%&'ď( ĉ",
      "% !!!!!!!!!!!!!!!!!!!!",
      "2 44444444%&55555555",
      "(788888888, -%&",
      "%&'( ďĉďĉďĉ!",
      "ć ĈĈĈĈĈĈĈĈ",
      "ć !",
      "ćĈ ćĈĈ",
      "Ĉ!Ĉ! ćĈ!",
      "Ĉ!ĈĈĈĈ Ĉ",
      "Ĉ!Ĉ!Ĉ!Ĉ! ĈćĈĈ",
      "ćĈ! Č",
      "ćĈ ććĈ",
      "Ĉ!ĈĈ Ĉ!",
      "Ĉ Ĉ!Ĉ!Ĉ!Ĉ!",
      "% !!!!!!",
      "ć ĈĈĈĈĈĈĈĈĈĈĈĈ",
      "% !!&'(",
      "ćĈ!ć Č",
      "Ĉ! ćĈ!ćĈ!",
      "L !LK",
      "ďĉ! ďĉďĉďĉďĉďĉďĉďĉďĉ",
      "Ĉ! ććĈ!Ĉ!",
      "ď%&'(ĉ !",
      "ĈĈĈĈĈĈĈĈ ĈĈĈ",
      "TVa!!!SĂĄĆ !!!!R!!!S",
      ") ďĉďĉ!",
      "!!!!!!!! !",
      "ďĉďĉďĉďĉ %&'(",
      "ćĈ!ćĈ! ćĈ",
      "ć ďĉďĉ!",
      "ćĈ!Ĉ Ĉ!Ĉ!",
      "ćććć ćĈ!ćĈĈ",
      "ďĉďĉ !!!!",
      "ďĉ!!!!!!!!!!!!!!!! !!!",
      "' 7777",
      "ćć ćĈĈ",
      "ćĈ!Ĉ! ćĈ!Ĉ!",
      "ćĈ!Ĉ!Ĉ ćĈ!Ĉ!",
      "ćććć Ĉ!Ĉ!",
      "ć ďĉďĉďĉďĉ!",
      "!! Č",
      "ććććĈ ććĈ",
      "ćĈ Ĉ!Ĉ!Ĉ",
      "ćĈćĈćĈćĈ ćĈćĈćĈćĈ",
      "ćĈ! ćĈćĈćĈ",
      "ćĈĈĈĈĈĈĈĈ ććĈ",
      "ćĈ!ćĈ! ćĈ!ćĈ",
      "ććĈ!ćć ćĈ!ćć",
      "LLLLLLLL LLLLLLLL",
      "ćĈ!ćĈ!Ĉ! ćĈĈ",
      "!! ďĉ!!!!!!",
      "% !!!&'(",
      "Ĉ!ĈĈĈ Ĉ!",
      "ććĈ ććĈ!",
      "ćĈ Ĉ!ćĈ!Ĉ!",
      "ćć ćĈćĈ",
      "ććĈ! ććććĈ",
      "ĈĈĈ!ĈĈĈ ććĈ!",
      "ćććć Ĉ!ĈĈ",
      "ćĈĈĈ Ĉ!Ĉ",
      "ĈĈĈĈ ćĈĈĈĈ",
      "ĈĈĈĈĈĈĈĈĈĈĈĈĈĈĈĈ ĈĈĈĈ",
      "ćĈ ćĈĈĈĈ",
      "ďĉ!! ďĉďĉďĉďĉďĉďĉ!",
      "ćĈ!Ĉ ććĈĈĈ",
      "Ĉ!ĈĈĈĈ ĈĈ",
      "Ĉ ćĈ!Ĉ!",
      "ćĈćĈćĈćĈ ćĈĈćĈĈćĈćĈćĈ",
      "% !!!&'(!!!!!!!!!!!!!!!!",
      "ďĉ!!!!!!!! !!!!!!!",
      "ćĈ!Ĉ Ĉ!Ĉ",
      "ćĈ!ććĈ ćĈ!ćĈ",
      "!! ćĈ!Ĉ!Ĉ!Ĉ!",
      "ćĈ!Ĉ! ććĈ!",
      "ććĈĈ ććĈćć",
      "Ĉ!ĈćĈ!Ĉ!Ĉ!Ĉ ćĈ!ćć",
      "ďĉ ď%&'(ĉ",
      "ćĈ!ćĈ! ćĈ!ćĈ!Ĉ!",
      "ćććĈ!Ĉ! ćĈ!Ĉ!",
      "Ĉ!Ĉ!Ĉ!Ĉ !!",
      "ĈĈĈĈĈĈ ćĈ!ććĈ",
      "ďĉ ćĈ!Ĉ!",
      "ććĈ! ćĈ!ććĈ!",
      "ĈĈĈĈĈĈĈĈĈĈĈĈ ĈĈ!Ĉ!Ĉ!Ĉ!",
      "ĈćĈĈćĈ ćĈĈĈćĈĈ",
      "%&'( !",
      "ďĉ! )!)!!!!!!!!",
      "ďĉďĉďĉďĉ ďĉ%&'(",
      "ĈĈĈĈĈĈĈĈĈ Ĉ!ćĈ!Ĉ!",
      "ďď ďď",
      "ć ď",
      "ćĈ!Ĉ ćĈćĈćĈ",
      "! &'(",
      "Ĉ!ĈĈ!ĈĈĈ Ĉ!ĈĈ!Ĉ",
      "ďĉ! ďĉ!!!!!!!!!!!",
      "ćĈ!Ĉ!Ĉ! ćĈĈćĈ",
      "ďĉ!ďĉ !!!!!!",
      "ććĈ!Ĉ!Ĉ!Ĉ!Ĉ!Ĉ! ćĈ",
      "% ćĈ",
      "ďĉ!! ďĉďĉ",
      "ĈĈĈĈĈĈĈĈĈ Ĉ!ĈĈ",
      "Ĉ!ćĈ!Ĉ!Ĉ ćĈĈĈ",
      "ď! ĉ",
      "%!!!!!!!! !!!!!!",
      "ďĉďĉ! ďĉ!",
      "ďĉćććć ćć",
      "ďĉďĉ !!!!!!!!!!!!!!!!",
      "ćććććććććććććććć ćććććććć",
      "ďĉďĉďĉďĉ! ďĉďĉ",
      "%ć &",
      "ćććć ćć",
      "(788888888,-%& +01",
      "Ĉ!Ĉ!Ĉ! ĈĈĈĈĈĈĈĈĈĈ!ĈĈ",
      "ďĉ!! ďĉďĉ!!!",
      "ďĉďĉ! ďĉ%&'(",
      "ĥ Ĥ",
      "Ĉ!Ĉ!Ĉ Ĉ!Ĉ!Ĉ!Ĉ!",
      "ćććććććĈ!Ĉ! Ĉ!ćĈ!Ĉ!",
      "ďĉ !!!!!!!",
      "ďĉ!! ďĉďĉďĉ",
      "ďĉ %ď&'(ĉ",
      "ďĉ ćććććććć",
      "!!!!!!!! !!",
      "%&'( ďĉ!",
      "ćććććććĈ!Ĉ! ććććććĈ!ćĈĈ",
      "Ĉ !!",
      "%&'( ďĉďĉ!",
      "Ĉ!Ĉ ćĈ!",
      ")!) ďĉďĉďĉďĉ",
      "%!!!!!!!! !!!!!!!",
      "Ē !!",
      "%&'( ďĉ!!!!!!!!!!!!!!!!",
      "ďĉ Ĉ!ĈĈĈĈĈĈĈ",
      "ďĉ ďďĉĉ",
      "%&'( ďĉďĉďĉ",
      "Ĉ (",
      "!!!!! &'(",
      "Ĉ! ĉ",
      "ďĉ!!!!!!!! !!!!!!",
      "ďĉ Ĉ!Ĉ!Ĉ!Ĉ!",
      "ćĈ!Ĉ ćĈĈ",
      "Ė Ė",
      "!!!!!!!! !!!!!!!",
      "%&'( ďĉďĉ!!",
      "%&'(ďĉ Ĉ!Ĉ!Ĉ!Ĉ!",
      ")!!!!!!!! )!",
      "Ĉ Ĉ!Ĉ",
      "ćć ćĈ!",
      "ďĉďĉďĉďĉ ćććć",
      "%ď&'(ĉ !",
      "!!!! &'(",
      "ć ďĉ%&'(",
      "Ĉ '(",
      "3 22",
      "ćĈĈĈĈĈ ćĈĈĈĈĈ",
      "ććĈ!Ĉ! Ĉ!Ĉ",
      "! ďĉ",
      "Ĉ!Ĉ! ćĈ!Ĉ",
      "ďĉďĉďĉďĉ ďĉďĉ%&'(",
      "ćććććććć ćććć",
      "01 '(3",
      "ďĉďĉďĉďĉďĉ )!)",
      "ďĉ%&'( ďĉďĉ",
      "23 2222222222222222",
      "ďĉ!!!!!!!! !!!!",
      ")! )!",
      "ďĉďĉďĉ!! ďĉďĉ",
      "ďĉ ))",
      "!LK!LK!LK!LK !LK!LK!LK!LK",
      "ćĈ!Ĉ Ĉ!ĈĈĈ",
      "A A",
      "ďĉďĉďĉďĉďĉďĉďĉďĉ ďĉďĉ",
      "% !!!!&'(!!!!!!!!!!!!!!!!",
      "Ĉ!Ĉ!Ĉ Ĉ!Ĉ!",
      "ďĉ ćććĈ!Ĉ!Ĉ!Ĉ!",
      "Ĉ!Ĉ Ĉ!Ĉ!Ĉ!Ĉ!",
      "ďĉ ď",
      "%&'(ďĉ ćć",
      "Ĉ! ćć",
      "ďĉďĉďĉ! ďĉ!ďĉ!",
      "3 2323",
      "ć (",
      "ćĈ!ćĈ!Ĉ! ĈćĈ!Ĉ!",
      "Ĉ!Ĉ!Ĉ Ĉ!",
      "ďĉ!!ďĉ! ďĉďĉ!",
      "ďĉ!ďĉ !!!",
      "ćĈ! ĈĈĈĈ",
      "ďĉ!!!!!!!!!!!!!!!! !!",
      "ďĉďĉďĉ!! ďĉ!",
      "ćć ćĈ!ćć",
      "ďĉ!!!!!!!! !!!!!",
      "Ĉ!Ĉ!Ĉ!Ĉ!ĈćĈĈ Ĉ!ĈĈĈ",
      "%&'( ďĉďĉďĉďĉďĉďĉďĉďĉ",
      "ćĈ! ďĉ",
      "ć !!",
      "Ĉ!ĈĈ Ĉ!Ĉ!Ĉ",
      "ďĉďĉ! ďĉ!!",
      ")!) !!!!!!!!!!!!!!!!!!!!",
      "ććććĈ ćĈ",
      "ďĉďĉ! ďĉďĉćććć",
      "ććĈ!Ĉ! Ĉ!ćĈ!",
      "77 7",
      "! ććććĈ!ĈĈ",
      "ďĉ!ďĉďĉďĉďĉ ďĉďĉďĉ",
      "ćĈ!Ĉ! Ĉ!Ĉ!Ĉ!",
      "Ĉ!ćĈ!Ĉ! Ĉ!ćĈ!Ĉ!",
      "Č ďĉ",
      "Č ďĉďĉ",
      "!!!! ďĉ!!!!!!!!!!!!!!!!",
      "Ĉ!Ĉ! Ĉ!ĈĈĈ",
      "ćĈĈĈ ćĈ",
      "%! Ĉ&'(",
      "ć %&'(ďĉ",
      "ćććć ććĈććĈ!",
      "R TVa",
      "ćć Ĉ!ĈĈ!",
      "%&'(%&'( %&'(",
      "ĈćĈĈćĈćĈĈĈćĈĈ ďĉ",
      "ďĉďĉ )",
      "ćĈ!Ĉ! ĈĈ",
      "ćĈ!Ĉ ćĈ!Ĉ!",
      "ćĈ!Ĉ!Ĉ ćĈ!",
      "Ĉ( !",
      "Ĉ!Ĉ Ĉ!Ĉ!",
      "Ĉ!Ĉ!ĈĈ Ĉ!",
      "%&'(ďĉ !!!",
      "ĈĈĈĈ Ĉ!",
      "ćććććććć ććććĈ!",
      "ďĉ ćććĈ!Ĉ!",
      "Ĉ!Ĉ!Ĉ!Ĉ! ĈĈĈĈ",
      "ćĈ!ćĈ! ćďĉďĉďĉďĉ!",
      "ćććĈ ćć",
      "ćĈćĈ ćĈ!Ĉ!",
      "Ĉ!ćĈ!Ĉ! Ĉ!Ĉ!Ĉ!!",
      "ćććć ćĈ!Ĉ!Ĉ!ćĈĈćĈ",
      "ććĈ!ć ďĉďĉďĉďĉďĉďĉďĉďĉ",
      "Ĉ! ďĉďĉ!",
      "ćĈ!Ĉ !!",
      "0 0011",
      "Ĉ!ćĈ!Ĉ ćĈ",
      "ďĉ Ĉ!",
      "Ĉ!Ĉ!Ĉ!Ĉ! Ĉ!Ĉ!Ĉ",
      "ć%&'( ďĉ!",
      "Ĉ! ććĈĈ",
      "Ĉ!Ĉ Ĉ!Ĉ!Ĉ!Ĉ",
      "ćĈ!Ĉ ćĈ",
      ") ďĉďĉďĉ",
      "Ĉ!Ĉ! ćĈĈ",
      "Č Č",
      "Ē !",
      "ďĉďĉďĉďĉďĉďĉ! ďĉďĉ!",
      "Ĉ! ďĉďĉ",
      "ćĈ ćĈ!ćĈ",
      "ďĉ%&'( !",
      "ćĈ!Ĉ! ćĈ",
      "ć %Ĉ&'(!",
      "Ĉ'( !",
      "ďĉďĉďĉďĉ ďĉ!ďĉ!",
      "%ćĈ &'(!",
      ") !!!!!!!!!!!!!!!!",
      "Ĉ!ĈĈ Ĉ!ĈĈ",
      "Ĉ! %&'(ďĉďĉďĉ!",
      "ćĈĈĈ ććĈ",
      "ďĉ!!! ćććć",
      "ćĈĈĈĈĈ ćĈ",
      "%&'( ďĉ!ďĉďĉďĉďĉ",
      "ćĈ!Ĉ ććĈ",
      "!! ćććć",
      "ćĈ ććć",
      "Ĉ!Ĉ ććĈ",
      "R TVa!!!SĂĄĆ!!!!R!!!S",
      "Ĉ!Ĉ! ĈĈĈĈĈĈ",
      "ćĈ! ćĈĈĈ",
      "Ĉ!Ĉ!Ĉ!Ĉ Ĉ!Ĉ",
      "Ĉ! Č",
      "ćĈ!ćĈ! ćĈ!Ĉ!",
      "ďĉďĉ!! ďĉ!ďĉ!!",
      "ćĈĈ ććĈĈĈ",
      "ćĈćĈ ćĈćĈćĈ",
      "Ĉ!ďĉďĉ! ďĉćććć",
      "ććĈ! ćĈĈ",
      "ćĈĈĈ ććĈĈĈ",
      "ćďĉ! ďĉćć",
      "ćććĈ ććĈ",
      "ĈĈ! ććĈ!Ĉ!",
      "ďĉćććć Ĉ!ćĈ!ćĈ!",
      "ććĈ!Ĉ!Ĉ!Ĉ! Ĉ!ďĉďĉ!ďĉćććć",
      "ćĈ!ćĈ!ćĈ!ćĈ! ćĈ!ćĈćĈćĈ",
      "ćĈ!ćĈ!Ĉ Ĉ!Ĉ!",
      "ćĈ!ćĈ!ćĈ!ćĈ ćĈ!ćĈ!Ĉ!",
      "Čďĉ ćĈ!ćĈ!ćĈ!ćĈćĈ!ćĈ!Ĉ!",
      "ďĉććććĈ!ćĈ!ćĈ! ĈĈ!ććĈ!Ĉ!",
      "!!!! )!)!!!!!!!!!!!!!!!!",
      "ďĉďĉ! ćććććććĈ!Ĉ!",
      "Ĉ!ĈĈĈ ćĈ!ćĈĈĈ",
      "Ĉ!Ĉ!Ĉ!Ĉ!ĈćĈĈ ćĈĈĈĈĈ",
      "ćĈ!Ĉ! ĈĈĈĈĈĈ",
      "ďĉďĉďĉďĉ Ĉ!ĈĈĈćĈ!ćĈĈĈ",
      "Ĉ!ćĈ!Ĉ! ĈĈĈ!ĈĈĈććĈ!",
      "ććĈ ćĈćĈćĈ",
      "ćĈ!ćć ćĈ!ćć",
      "Ĉ!ĈĈ! ććĈ!Ĉ!Ĉ",
      "ćĈ!ććĈ! ćĈ!ććĈ!",
      "ďĉďĉďĉďĉďĉćććć Ĉ!ćĈ!ĈćĈ",
      "ĈĈ ćĈćĈćĈ!Ĉ!",
      "Ĉ!Ĉ! ĈĈĈĈ",
      "ďĉ!! ďĉ!!!!!!!!",
      "ďĉďĉ!! ďĉ!!!!",
      "ććĈ!Ĉ! ĈĈĈ!Ĉ!",
      "ĈĈĈĈĈĈĈĈĈĈĈĈĈĈĈĈ ĈĈĈĈĈĈĈĈ",
      "ććĈ!Ĉ!Ĉ ćĈĈĈććĈĈĈ",
      "ćĈ!Ĉ!ććĈ! ĈĈćĈćĈćĈ!Ĉ!",
      "ćććććć ćĈ!ćĈ!Ĉ!",
      "ćĈĈĈĈĈćĈĈĈĈĈ ćĈ!ĈĈĈ",
      "ććĈ!ĈĈ! ćĈĈ!Ĉ!Ĉ",
      "Ĉ!Ĉ!ĈĈĈĈĈĈ ćĈ!ĈĈĈ",
      "ććĈ!Ĉ!ĈĈĈ!Ĉ! Ĉ!ĈĈćĈ",
      "ćĈ!Ĉ!ććĈ!ĈĈćĈćĈćĈ!Ĉ! ĈćĈĈ",
      "ććĈ!ćĈ!ćĈ! ćĈ!ćĈćĈćĈ",
      "!!!!!!!! !!!!",
      "ĈĈĈĈĈĈĈĈ Ĉ!Č",
      "ćĈĈĈ ććĈ!Ĉ!",
      "ĈĈĈĈĈĈĈĈĈĈĈĈĈĈĈĈ ĈĈ!",
      "ćĈ!ĈĈĈ Ĉ!ĈĈ!Ĉ",
      "ććĈ!ćć Ĉ!ĈĈ!ććĈ!Ĉ!Ĉ",
      "ďĉ!)!)!!!!!!!! !!!!!!",
      "ćĈ! ćććĈ!Ĉ!Ĉ!",
      "ćĈ!Ĉ! ćĈĈ",
      "ćĈ!ćĈ! ćĈ!Ĉ!Ĉ!",
      "ććĈĈ ćĈĈĈ",
      "ććććĈ! ććĈ!ć",
      "ćĈ!ćĈ!Ĉ!Ĉ! ćĈ!ćĈ!Ĉ!ćĈĈ",
      ")!!!!!!!! !!!!!!!",
      "!!Č !",
      "ĈĈĈĈĈĈĈĈĈĈĈĈĈĈĈĈĈĈĈĈ ĈĈĈ",
      "Ĉ!ćć ćĈ!ććĈ!",
      "ćććĈćć ćĈĈćĈ",
      "ććĈćĈćĈćĈ ćĈ!",
      "ćććĈ Ĉ!Ĉ!",
      "Ĉ!Ĉ!Ĉ! ćĈĈĈććĈ",
      "ćĈ!ĈĈĈ ćć",
      "ē ē",
      "ćĈ! ććććććĈ!",
      "ćĈ!Ĉ! Ĉ!Ĉ!Ĉ!Ĉ!Ĉ!Ĉ!",
      "ćĈ!ćĈ! ććĈ",
      "ďĉ!!!!!!!! ďĉ!!!!!",
      "Ĉ!ćĈ! ćĈĈĈĈ!Ĉ",
      "Ĉ!Ĉ!Ĉ!ćĈ!Ĉ! ćĈććĈ",
      "ĈĈĈĈ! ććĈ",
      "ĈĈĈĈĈĈĈĈĈĈĈ Ĉ!Ĉ!Ĉ!Ĉ!",
      "Ĉ!%&'(ďĉďĉďĉ! ))",
      "Ĉ!ćććĈ!ććĈ! ćĈ!ĈĈĈćć",
      "Ĉ!Ĉ!Ĉ!Ĉ!Ĉ!Ĉ! ĈĈĈ!Ĉ!",
      "Ĉ!ĈĈ! ĈĈĈĈĈĈĈĈĈĈĈĈĈĈĈĈ",
      "ďĉ!!! ćććĈ",
      "ććććĈćĈ ććĈ!",
      "ćĈ!Ĉ ćĈ!ćĈ!Ĉ",
      "Ĉ!ĈĈĈ Ĉ!Ĉ",
      "ććĈ!Ĉ!Ĉ!Ĉ! Ĉ",
      "ďĉćć ĈĈĈĈĈ",
      "ďĉ!!ďĉ! ććĈ!",
      "Ĉ!ććĈ! ćĈ!Ĉ",
      "ććĈ!ćććĈ!ćć ćĈ!ćććĈ!Ĉ!Ĉ!",
      "ĈĈĈĈĈĈĈĈĈ!Č ďĉ!",
      "ćĈĈĈććĈ!Ĉ! ććĈ!ćć",
      "Ĉ!Ĉ ćć",
      "ćĈćĈ ćĈĈĈćĈ",
      "ćĈ!ćĈ !!",
      "ćĈ!Ĉ!! Ĉ!ćĈ!ćĈ!",
      "ćĈ!Ĉ! ććĈ",
      "ćĈ ćĈ!ććĈ",
      "Ĉ!ĈĈ Ĉ!ĈĈĈĈ",
      "ćĈćĈĈ Ĉ!Ĉ",
      "Ĉ!ĈĈĈĈ! ĈĈĈĈĈĈĈĈ",
      "ćĈćĈĈĈĈ ĈĈĈ",
      "ćĈ!Ĉ!ĈĈĈĈĈĈ ććĈ!ć",
      "ćĈ!ććććććĈ! ćĈ!ććĈ",
      "ćĈĈ Ĉ!Ĉ!ćĈ!Ĉ!",
      "ćććĈ ććććĈććĈ",
      "ćĈĈćĈĈ ćĈĈĈĈĈćĈ",
      "Ĉ!Ĉ!Ĉ!Ĉ!Ĉ!Ĉ!Ĉ!Ĉ! Ĉ!Ĉ!Ĉ!Ĉ!",
      "ĈĈ!Ĉ ććĈ!Ĉ!Ĉ",
      "Ĉ!Ĉ!ĈĈ!Ĉ! Ĉ!ĈĈĈĈ",
      "Čďĉďĉ ććĈ!ćĈ!ćĈ!ćĈ!ćĈćĈćĈ",
      "ďĉďĉ! ďĉďĉ%&'(",
      "ćĈ!Ĉ ććĈ!Ĉ",
      "Ĉ!Ĉ!Ĉ Ĉ!Ĉ!ĈĈĈ",
      "Ĉ!Ĉ!Ĉ Ĉ!Ĉ!ĈĈ!Ĉ",
      "Ĉ!ĈĈĈ Ĉ!ĈĈĈĈ",
      "ććććĈ! ćććĈććĈ",
      "ćććĈćććĈĈćĈ ćĈ!Ĉ!",
      "ćĈ!Ĉ!!Ĉ!ćĈ!ćĈ! ććĈ!Ĉ!",
      "Ĉ!Ĉ Ĉ!Ĉ!ćĈ!",
      "ććĈ!Ĉ!Ĉ!Ĉ! Ĉ!ĈĈ!",
      "ćĈ!ĈĈĈ !!ćććć",
      "ććĈ!Ĉ ććććĈ",
      "ćĈĈĈćĈĈ ćććć",
      "ćććĈ!Ĉ!Ĉ! ććĈ",
      "ćć ĈĈĈĈćĈĈĈĈ",
      "ćĈ Ĉ!Ĉ!Ĉ!Ĉ!",
      "Ĉ!ćĈ!Ĉ! Ĉ!Ĉ!Ĉ!Ĉ!",
      "ćĈ!Ĉ ćĈ!ććĈ",
      "ćććĈ!Ĉ! Ĉ",
      "Ĉ!Ĉ!ćĈ!Ĉ! ĈĈĈ",
      "ćĈĈćĈĈ ćĈ!ćććĈ!ćć",
      "Ĉ!ććĈ! ćĈ!ććĈ",
      "ćĈ!ĈĈ!Ĉ! ďĉ!ďĉ!",
      "!!Č !!Č!",
      "ćĈćĈćĈćĈćĈćĈćĈćĈ ćĈćĈćĈćĈ",
      "Ĉ!ććĈĈ ććĈ!ćĈĈ",
      "Ĉ!ĈĈĈĈ!Ĉ Ĉ!ĈĈĈĈ",
      "ćĈĈĈ Ĉ!Ĉ!ćĈ!Ĉ!",
      "ćĈĈĈ Ĉ!Ĉ!ćĈ!",
      "ćĈĈĈ ćĈ!ĈĈĈĈ",
      "ćĈćĈćĈ ćĈĈĈ",
      "ćĈćĈćĈ ććććĈ!Ĉ!",
      "ććĈ!ćĈ!ćĈ! ĈćĈĈ",
      "ćĈĈćĈĈćĈćĈćĈ ććĈćĈćĈćĈćĈ!",
      "ćĈ ććĈ!ćĈ!ćĈ!ĈćĈĈ",
      "ććĈ!Ĉ! Ĉ!ććĈ!Ĉ!",
      "Ĉ!Ĉ!Ĉ!ćĈ!Ĉ! ćĈ!ćĈ!ćĈ!ćĈ!",
      "Ĉ!Ĉ!ĈĈ!Ĉ Ĉ!Ĉ!ĈĈ",
      "ććĈ!ćććĈ!ćć ćĈ",
      "ćććĈ!Ĉ!ćĈ!Ĉ! ĈĈĈĈ!ććĈ",
      "ćĈććć !!",
      "ćććĈććććĈććĈ ććććĈććĈ",
      "ćĈćĈćĈćĈ ćĈćĈćĈćĈćĈ",
      "ććĈ!Ĉ ććĈ!Ĉ!",
      "Ĉ!ĈĈĈĈĈĈĈ Ĉ!ĈĈĈĈĈ",
      "ĈĈĈĈĈ ćĈćĈ",
      "ćĈ!ćĈ!Ĉ!ćĈĈ ćĈ!ĈććĈ!Ĉ",
      "ćććć Ĉ!Ĉ!Ĉ!Ĉ!",
      "ćććĈ!Ĉ! ćććĈĈ",
      "ćĈ!ćć ćĈ!ććĈ",
      "Ĉ!Ĉ!ĈĈ ćĈ!Ĉ!",
      "Ĉ!ĈĈĈĈĈĈ Ĉ!Ĉ!Ĉ!ĈĈ!Ĉ",
      "ćĈ!Ĉ Ĉ!ĈĈ",
      "Ĉ!Ĉ!Ĉ Ĉ!Ĉ!Ĉ!!",
      "ćĈĈĈĈ ĈćĈĈćĈ",
      "Ĉ!ĈĈ!Ĉ Ĉ!ĈĈĈ!ĈĈĈĈ",
      "ćĈ!Ĉ!Ĉ!Ĉ! ćĈ!ćć",
      "ďĉďĉďĉďĉďĉ!! ďĉ!ďĉ!",
      "ĈĈĈĈĈĈĈĈĈĈĈ Ĉ!Ĉ!",
      "!!!!!!!! !!!!!!",
      "ćć ćĈĈĈĈĈ",
      "ćĈ!ćĈ!Ĉ! ćĈ!Ĉ",
      "ććĈ!Ĉ!Ĉ!Ĉ! ćĈĈĈ!Ĉ!ćĈ!Ĉ!",
      "ććććĈ! ććĈ!ćććĈ!ćććĈ",
      "ćĈ!ĈĈ Ĉ!ĈĈ",
      "ćĈ!ĈĈ ćĈĈćĈ",
      "ćććĈ!Ĉ!Ĉ!Ĉ Ĉ!Ĉ!ćĈ!Ĉ!",
      "Ĉ!ĈĈĈĈĈ Ĉ!Ĉ!Ĉ",
      "ćĈććĈ Ĉ!ĈĈĈ",
      "!&'( ďĉ))",
      "ćććĈĈ!Ĉ! ćĈ!ććĈćĈ!ćĈ",
      "ććĈ! ćĈ!Ĉ!Ĉ!ćĈ!Ĉ!",
      "ććĈ!Ĉ! ĈĈĈ",
      "Ĉ!Ĉ!ćĈ!Ĉ! Ĉ!Ĉ!ćĈ!Ĉ!",
      "ćĈ!ććĈ ććĈ",
      "ćĈ!Ĉ!Ĉ!Ĉ!Ĉ!Ĉ! ĈĈ",
      "ćĈ!Ĉ!Ĉ!Ĉ!Ĉ!Ĉ! Ĉ!ćĈ!",
      "ćĈ!ĈĈĈ ćĈćĈćĈĈĈćĈ",
      "Ĉ!ćĈ! ĈĈĈĈ",
      "ćĈ!ĈĈ ćĈ!ćĈĈ",
      ")!!!!!!!! )",
      "ćĈ!ćĈ!ćĈ!ćĈ!ćĈ!Ĉ! Ĉ!Ĉ!ĈĈ!",
      "ćććććććććć ćĈ!Ĉ",
      "Ĉ!ćĈ!Ĉ!ĈćĈĈĈ ćĈĈĈćĈĈćććć",
      "00011 1",
      "ććĈ!Ĉ!Ĉ!Ĉ!Ĉ!ĈĈ! ćĈ!ćĈ!ćĈ",
      "ćĈćĈ ćĈ!ĈćĈĈ",
      "ćĈĈĈ ćĈ!ĈććĈĈĈ",
      "Ĉ!Ĉ!Ĉ!Ĉ!Ĉ!Ĉ! Ĉ!ĈĈ!",
      ")!)!!!!!!!! !ććććĈ!ĈĈ",
      "0101 0101",
      "ćĈĈĈĈĈĈĈĈććĈ ćĈĈ!",
      "Ĉ!Ĉ!ćĈ!Ĉ Ĉ!ććĈ!ćĈ!ććĈ",
      "ćĈ!ćĈ!ćĈ!Ĉ! ććććĈ!ććĈ!ć",
      "ďĉ!!!ćććĈ ćĈ!ćĈ!ĈĈ!Ĉ!",
      "ćĈĈĈĈĈĈ ćĈĈĈĈ",
      "Ĉ!Ĉ! Ĉ!ĈĈĈĈĈĈĈĈ!ĈĈĈĈĈ",
      "ćććććććĈ!Ĉ! Ĉ!ććĈĈććĈ!ćĈĈ",
      "ććĈ!Ĉ Ĉ!ĈĈĈĈ!ĈĈ!ĈĈĈĈ",
      "ćĈ!ćĈ!ćĈ ćĈ!ćĈ",
      "ććĈ!ććććĈ ćĈćĈćĈććććĈ!Ĉ!",
      "Ĉ!Ĉ!ĈĈ!Ĉ!ĈĈĈ Ĉ!Ĉ!ĈĈ!Ĉ!Ĉ!!",
      "ćĈ!ćććĈ!ććĈ ćĈ!ććĈ",
      "ćĈ Ĉ!Ĉ!ĈĈĈ",
      "Ĉ!ĈĈ!Ĉ!Ĉ!Ĉ! ĈĈ",
      "ććĈĈćĈĈĈ ććĈĈććĈćć",
      "ćĈ!Ĉ!ććĈ ćĈ!",
      "ććĈĈĈĈćĈĈĈĈ ćĈĈĈĈĈĈĈĈććĈ",
      "ď ćĉ",
      "!!! ďĉďĉďĉďĉ",
      "ćĈ!Ĉ!ćĈ!Ĉ! ćĈ!Ĉ!Ĉ!Ĉ!Ĉ!",
      "Ĉ!ĈĈĈĈ! ĈĈĈĈĈĈĈĈĈĈĈĈ!Ĉ!",
      "ććĈ!ććććĈ ć!!",
      "ďĉďĉďĉ!!ďĉďĉ ćĈ!Č",
      "ćĈ!Ĉ!ĈĈ ćĈ",
      "ćĈĈććĈĈĈ ćĈ!ĈćĈ!ććĈ",
      "ćĈĈĈĈ!Ĉ!ćĈ!Ĉ! ćĈĈĈćĈ!ĈĈĈĈ",
      "ćĈ!Ĉ! Ĉ!Ĉ!Ĉ!Ĉ",
      "ćĈ!ćĈ!Ĉ! ććĈ!ĈććĈ!Ĉ!",
      "Ĉ!ďĉďĉ ćĈ!ďĉ!",
      "ćĈĈĈĈĈćĈĈĈĈĈćĈ!ĈĈĈ ćĈ",
      "Ĉ!ććĈ!ćĈ!Ĉ Ĉ!ćĈ!Ĉ!",
      "ĈĈ!ĈććĈ!Ĉ!Ĉ Ĉ!ĈĈ!Ĉ!ćĈ!",
      "ćććĈ!Ĉ!ćććĈĈ ćĈ!ĈĈĈ!!ćććć",
      "% !!!!!!!!!!!!!!!!!!!!!",
      "ć ďĉďĉďĉďĉďĉďĉďĉ!",
      "ďĉ ćďĉ",
      "ďĉ!ďĉ! ďĉ!ďĉ!",
      "ćĈćĈćĈćĈĈĈ ćĈĈĈĈĈĈ",
      "ćĈ!ćĈ! ćĈ!ĈĈ!Ĉ!",
      "ďĉďĉ! ďĉďĉ",
      "Ĉ!Ĉ!Ĉ!Ĉ!Ĉ!Ĉ! ĈĈĈ",
      "Ĉ!Ĉ!ĈĈ Ĉ!Ĉ!Ĉ!Ĉ!ĈĈĈĈ",
      "ććĈ!ć ďĉďĉďĉďĉ",
      "ććĈ!Ĉ!Ĉ Ĉ!ĈĈĈ",
      "ćĈĈ!ćĈ!Ĉ! ĈĈĈĈćĈĈĈĈ",
      "ĈĈĈĈĈ! ćďĉďĉ",
      "ćĈ!ćĈ!ććĈ ćĈ!Ĉ!Ĉ!Ĉ!ćĈ!ćć",
      "ćĈ!ćĈ!Ĉ!ćĈ!Ĉ ćĈ!ĈĈ!Ĉ",
      "Ĉ!Ĉ!Ĉ!Ĉ! Ĉ!ćĈ!ĈĈĈĈ",
      "ććĈ! ćĈ!ĈććĈ",
      "ćććććććć Ĉ!",
      "ćĈ!ćć ĈĈĈĈĈćĈćĈ",
      "Ĉ!Ĉ!Ĉ! ćĈ!ćĈ",
      "ććććććĈ! ćććĈ!ćć",
      "ććĈ!Ĉ!Ĉ!Ĉ! ćććĈ!Ĉ!Ĉ!ććĈ",
      "ĈĈĈ!ĈĈĈććĈ! ćĈćĈĈĈ!Ĉ",
      "ćĈćĈĈĈĈ ĈćĈĈ",
      "Ĉ!Ĉ!Ĉ!Ĉ!Ĉ!Ĉ!ĈĈĈ!Ĉ! ĈĈĈĈ",
      "ćĈĈ!Ĉ!Ĉ!Ĉ! ćĈćĈĈ",
      "ďĉďĉ!!! )!)!!",
      "ćĈćĈĈĈĈĈĈĈ ćĈĈĈĈĈĈ",
      "ćććć ćďĉ!",
      "ćććććććć Ĉ!Ĉ!Ĉ!Ĉ!",
      "Ĉ!Ĉ!Ĉ ćĈĈĈĈ",
      "ćĈĈĈ ćĈ!ĈĈĈĈ!ĈĈ!Ĉ",
      "ćććĈĈ ććććććĈ!ćĈĈ",
      "ćĈ!ćĈ!ćĈ!ćĈ!Ĉ! Ĉ!Ĉ",
      "ćĈ!ććĈććĈ !!!!!!",
      "Ĉ!ĈĈ ďĉ!!",
      "ćććććććććććććććć ććććććĈ!",
      "ććĈ!Ĉ!ĈĈĈ !!ćĈ!Ĉ!Ĉ!Ĉ!",
      "Ĉ!Ĉ! ćĈ!ĈĈ",
      "ćććĈ ćććĈĈ!Ĉ!ćĈ!ććĈćĈ!ćĈ",
      "ćĈ!Ĉ!Ĉ ćĈććĈĈ!ĈĈĈ",
      "ććĈ!ćĈ!ćĈ! ć",
      "Ĉ!ĈĈćĈ Ĉ!Ĉ",
      "Ĉ!ĈććĈ Ĉ!Ĉ!",
      "ćĈ!ĈĈćĈ!ćĈĈ ćĈ!Ĉ!",
      "Ĉ! ĈĈĈĈĈĈĈĈĈĈĈĈĈĈĈĈ",
      "!!!SĂĄĆ !!ďĉ!!!!!!",
      "ďĉďĉďĉ!ďĉďĉ! ďĉďĉďĉ!ďĉďĉ!",
      "ćĈĈ!ćĈ!Ĉ! Ĉ!Ĉ!Ĉ!ĈĈĈ",
      "!!ćĈ!Ĉ!Ĉ!Ĉ! ćĈ!ććĈ!",
      "ćĈ!ĈćĈćĈćĈ ćĈ!Ĉ!ĈćĈ!Ĉ!",
      "ćĈ!ĈĈĈ!ĈĈ ćĈ!Ĉ!Ĉ!",
      "ćĈćĈćĈ ćććĈćĈ",
      "ćććĈ ćĈ!ćĈ",
      "ćĈ!ĈććĈĈĈ ćĈĈĈćĈ!ĈććĈĈĈ",
      "Ĉ!ćĈ!Ĉ!Ĉ!ćĈ!Ĉ! Ĉ!ĈĈ!",
      "ćĈ!Ĉ!Ĉ! ććĈ!ćĈ!Ĉ!Ĉ!ćĈ!Ĉ!",
      "Ĉ!Ĉ!ĈĈĈ! ććĈ!Ĉ!Ĉ",
      "ćĈ!Ĉ!ćĈ ććĈ!Ĉ!",
      "Ĉ!Ĉ! ćĈ!ććĈ!ćĈ!ććĈ!",
      "ďĉćććć Ĉ!ćĈ!Ĉ",
      "Ĉ!Ĉ!ćĈ!Ĉ! ĈĈ!",
      ")!)!!!!!!!! ďĉ!ďĉďĉ",
      "ćĈ!Ĉ!ććĈćĈ! ĈĈĈĈĈĈćĈ!ććĈ",
      "Ĉ!Ĉ ďĉ!ďĉ!",
      "LL !LK",
      "ćďĉ ććć",
      "ĈĈĈ!ĈĈĈ Ĉ!ĈĈ!Ĉ!Ĉ!Ĉ!ĈĈ",
      "ćĈćĈ!ććĈ !!",
      "ďĉďĉ!! ďĉććĈ!",
      "ćĈ!ććĈ! ćĈ!Ĉ",
      "ćĈ!ćĈ!Ĉ!Ĉ!ćĈ!Ĉ! Ĉ!ććĈ!Ĉ!",
      "ćĈ!Ĉ!ĈĈćĈ ćĈĈĈĈĈĈĈĈĈĈĈĈ",
      "ďĉďĉďĉ! ďĉďĉďĉ!!",
      "ďĉďĉ!!! ďĉćĈ!Ĉ!",
      "Ĉ!Ĉ!ĈĈĈĈ Ĉ!Ĉ!Ĉ!",
      "ćĈĈ ćĈĈĈĈĈĈćĈĈĈĈ",
      "ćĈ!Ĉ!Ĉ!Ĉ!Ĉ!Ĉ! Ĉ",
      "!!!!R TVa!!!SĂĄĆ",
      "ďĉ!!!ćććć ćĈ!ĈĈ!ĈĈ",
      "Ĉ!Ĉ!ĈĈĈĈĈĈćĈ!ĈĈĈ %&'(ďĉ",
      "Ĉ!ćĈ!ćĈĈĈĈ!Ĉ %&'(ďĉćć",
      "ďĉćććĈ!Ĉ! Ĉ!ćĈ!Ĉ!Ĉ",
      "ćĈćĈ!ćĈ Ĉ!",
      "ď !!",
      "Ĉ!Ĉ!Ĉ!Ĉ! Ĉ!Ĉ!Ĉ!!",
      "ććĈ! ćĈ!Ĉ!",
      "ćĈ!ćĈ!Ĉ! ćĈĈ!Ĉ!Ĉ!Ĉ!ćĈćĈĈ",
      "ďĉďĉ!! ďĉ!!!!!!",
      "ďĉćććć ććĈ!ććĈ!",
      "ďĉ!ďĉďĉďĉďĉ ďĉ!",
      "ćĈ!Ĉ!Ĉ! ććććĈćĈććĈ!",
      "ćĈ!ćĈ!Ĉ!Ĉ! ćĈĈ!",
      "ĈĈĈĈĈĈćĈ!ććĈ ćĈ!ćĈ!Ĉ!",
      "!!!!!!!!!!!!!!!! )!)!!",
      "ćĈ!ćĈ!Ĉ! ćĈ!Ĉ!Ĉ!ćĈ!Ĉ!",
      "!!!!! %!!!!!!!!!!!!!!!!",
      "ďĉďĉďĉ!! ďĉ!!!!",
      "% !!!!!&'(",
      "ćććĈ!Ĉ! Ĉ!Ĉ!Ĉ!ćĈ!Ĉ!",
      "!!!!R TVa!!!SĂĄĆ!!!!R!!!S",
      "ćĈ!Ĉ!Ĉ!ćĈ!Ĉ! ćĈ!Ĉ!Ĉ!ćĈ!Ĉ!",
      "% !!!!!!!!!!!!!!!!!!!!!!!",
      "%&'( ďĉďĉďĉďĉ",
      "%&'(%&'( ďĉ!!",
      "ćĈ!Ĉ!Ĉ!Ĉ!Ĉ!Ĉ! ďĉ!%&'(",
      "ćĈĈĈĈ!Ĉ ććĈ!ććććĈć!!",
      "ćĈ!ćĈ!ćĈćĈ!ćĈ ćĈ!ććĈćĈ!ćĈ",
      "% ćć",
      "ćĈĈ! ćĈ!ćĈ!Ĉ",
      "ďĉ!!!!!!!!!!!!!! ďĉďĉďĉďĉ",
      "Ĉ!Ĉ!Ĉ!Ĉ! ćććĈ!",
      "ćććććććĈ!Ĉ! ćĈ!ĈćĈ",
      "ććĈ!ćĈ!ććĈ! ććććĈ!ćććĈććĈ",
      "ćĈ!ćĈ!! ććĈ!ććĈ!",
      "ďĉďĉďĉďĉ! ďĉďĉ!!",
      ") ććććććććććććĈ!",
      "ćććć ćĈ!Ĉ!Ĉ!Ĉ!Ĉ!Ĉ!",
      "ćďĉ! ďĉďĉďĉďĉ!!",
      "Ĉ!ĈĈ!Ĉ !!ćĈ!Ĉ!Ĉ!Ĉ!ćĈ!ććĈ!",
      "ćĈ!Ĉ!Ĉ!Ĉ! Ĉ!ĈĈĈ!Ĉ!Ĉ",
      "ďĉćććććć ćĈ!ćĈ!",
      ")!)! ďĉďĉ!!!)!)!!",
      "ĈĈĈĈ Ĉ!Ĉ!Ĉ!Ĉ!Ĉ!Ĉ!Ĉ",
      "Ĉ!Ĉ!Ĉ!Ĉ ćĈĈ!Ĉ!Ĉ",
      "%&'(ďĉ!! ďĉ!!",
      "Ĉ!ĈĈĈĈĈĈĈĈĈĈĈĈĈĈĈĈ ĈĈĈĈ!",
      "ďĉ!! ďĉďĉďĉďĉďĉ!!ďĉ!ďĉ!",
      ")) ))",
      "ďĉ!!!!!!!!!!! ďĉ!!",
      "%ć& '",
      "ćĈ!ććĈććĈ!!!!!! ďĉćć",
      "ďĉ ćććĈ!Ĉ!Ĉ!Ĉ",
      "ĈĈĈĈĈĈĈĈĈĈĈĈĈĈĈĈĈĈ! ďĉ!!",
      "ććĈ!ćĈ!Ĉ! ĈĈĈ!ĈĈĈ",
      "ďĉďĉďĉďĉ !!!!!!!!!!!!!!!!",
      "ćĈ!Ĉ!Ĉ ćĈ!Ĉ!Ĉ!ććććĈćĈććĈ!",
      "ćĈ!ďĉ! ďĉ!!!!!!!!!!!!!!!!",
      "ćććĈĈĈĈĈ ććĈĈććĈćć",
      "ćććććććć Ĉ!Ĉ!ćĈĈ",
      "Ĉ!ĈĈ! ćĈ!Ĉ",
      "ďĉďĉďĉ! ďĉďĉćććć",
      "ďĉ!ďĉ Ĉ!Ĉ!ćĈ!Ĉ!ĈĈĈ",
      "ććććĈ!ćĈ!Ĉ! Ĉ!ćĈ!Ĉ!",
      "ďĉďĉ!ďĉ! )ďĉďĉďĉ",
      "ćĈ!ćć Ĉ!Ĉ!Ĉ",
      "ćďĉďĉďĉ Ĉ!ĈĈĈĈ",
      "ćććĈ!Ĉ!Ĉ!Ĉ!Ĉ!ćĈ!Ĉ! Ĉ!ĈćĈ!",
      "ďĉ! ďĉ%&'(",
      "ćććĈ!Ĉ! ćĈ!Ĉ!Ĉ",
      "ďĉďĉďĉďĉ! ďĉ!!",
      "ććććććććĈ! ćććĈ!Ĉ!",
      "ćććć ćĈ!ćĈ!",
      "ďĉďĉ!! ďĉ!!ďĉďĉ",
      "ćĈ!Ĉ!Ĉ!Ĉ!Ĉ!Ĉ! Ĉ!Ĉ!Ĉ!Ĉ!",
      "ćććĈ!Ĉ!Ĉ!Ĉ! ćććĈćĈ!ćĈ",
      "Ĉ!ĈććĈĈ!Ĉ! ććĈ!Ĉ!ĈĈ!ĈĈĈ",
      ")ććććććććććććĈ! ććĈ!",
      "ďĉďĉ%&'( !",
      "ćďĉďĉďĉďĉ! ććĈ!Ĉ!Ĉ!Ĉ!Ĉ",
      "Ĉ!Ĉ!Ĉ!Ĉ!! Ĉ!Ĉ!Ĉ",
      "ć ďĉ!!!!!!!!!",
      "ćććĈ!Ĉ! Ĉ!Ĉ!Ĉ!Ĉ",
      "ďĉ!ďĉ !!!SĂĄĆ!!ďĉ!!!!!!",
      "ďĉďĉďĉďĉ ďĉďĉďĉ%&'(",
      "ďĉ! Ĉ!ĈćĈ!Ĉ!Ĉ!ĈćĈ!ćć",
      "ďĉĈ!ĈĈĈĈĈĈĈ Ĉ!ĈĈĈ",
      "ćĈĈ!Ĉ!ĈĈĈ ćĈćĈ!ććĈ!!",
      "ć ďĉďĉ!!",
      "Ĉ!ĈĈ ćďĉďĉďĉďĉďĉďĉďĉ!",
      "Ĉ!Ĉ!Ĉ!Ĉ!Ĉ!Ĉ! Ĉ!ĈĈĈĈĈĈ",
      "ďĉďĉ ď%&'(ĉ",
      "ďĉďĉ ććććććĈ!ćććĈ!ćć",
      "ćĈ!Ĉ!Ĉ!Ĉ!Ĉ!Ĉ! ćĈ!Ĉ!ććĈ!",
      "Ĉ!ĈćĈ!Ĉ! ććĈ!ććĈ!",
      "& '",
      "%!!!!!! &'(",
      "ďĉ!)!)!!!!!!!! !!ďĉ!!!!!!",
      "ććĈ!Ĉ! ćĈĈ!ćĈ!Ĉ!Ĉ!Ĉ!Ĉ!ĈĈĈ",
      "ďĉďĉďĉ!! ďĉ!!ďĉ!!!!!!!!",
      "Ĉ!Ĉ!ĈĈ!Ĉ Ĉ!Ĉ!Ĉ!Ĉ!Ĉ!Ĉ!ĈĈĈ",
      "%&'(%&'(ďĉ!! ććććććĈććĈ!",
      "ćďĉ #$",
      "ććććĈ!ćĈ!Ĉ! Ĉ!ĈĈ!Ĉ!Ĉ!Ĉ",
      "%!!!&'( ďĉďĉďĉ!!ďĉ!",
      "ďĉ!!ďĉ!ććĈ! ďĉ!ďĉďĉ!!",
      "Ĉ!ĈĈĈĈ!ĈĈĈĈĈĈĈĈ %&'(ďĉ",
      "ćĈćĈćĈćććĈćĈ ćććĈćĈ",
      "ďĉďĉ!!ďĉććĈ! ĈĈĈĈĈ!ćďĉďĉ",
      "ďĉďĉ!!ďĉ!!!!!! )!!!!!!!!)",
      "ď Ĉ!ĉ",
      "ĈĈĈ!Ĉ! Ĉ!ĈĈĈ",
      "Ĉ!ćććĈ!ććĈ!ćĈ!ĈĈĈćć !!!!",
      "ćĈćĈćĈćĈĈĈćĈĈĈĈĈĈ ćĈ!Ĉ!",
      "ďĉ!! ďĉ!ďĉ!",
      "ďĉďĉďĉďĉďĉďĉ ćďĉ!",
      ")!)ďĉďĉďĉďĉ ďĉďĉ!!!",
      "ćĈ!Ĉ!Ĉ!Ĉ!ćĈ!Ĉ! Ĉ!Ĉćć",
      "ď Ĉ",
      "ďĉďĉ )ďĉďĉ!",
      "ćććććććĈ!Ĉ!Ĉ!ćĈ!Ĉ! Ĉ!",
      "ćć ćĈ!ćĈ!Ĉ!Ĉ!ćĈ!Ĉ!",
      "ďĉďĉďĉďĉ ďĉ!ďĉ",
      "ćĈ!ć ďĉďĉ!!",
      "33 22",
      "%&'( Ĉ!Ĉ!",
      "ďĉďĉďĉ ď%&'(ĉ",
      "%&'(ďĉďĉ Ĉ!ĈĈďĉ!!",
      "ććĈ!Ĉ!Ĉ!Ĉ!Ĉ!Ĉ! ććĈ!",
      "L !LK!LK",
      "ďĉ!ďĉ!! ćĈ!",
      "ďĉ!!!!!!! ďĉ!!ďĉďĉ!!!",
      "Ĉ!ĈĈ Ĉ!ĈĈĈ",
      "Ĉ!ćĈ!Ĉ! Ĉ!ĈĈćĈĈ!Ĉ",
      "!ďĉ ććĈ!Ĉ!ĈĈĈ!Ĉ!Ĉ!ĈĈćĈ",
      "ďĉ ćĈ!",
      "2323 232222222222222222",
      "ććććĈ!ćĈ!Ĉ! Ĉ!Ĉ!ćĈ!ĈĈ",
      "ćďĉďĉďĉ ćĈ!Ĉ!Ĉ!Ĉ!",
      "Ĉ!ććĈ!ćĈ!ĈĈ!ćĈ!Ĉ! ćĈ!ďĉ!",
      "% !!!!&'(",
      "ćĈ! %&'(ďĉ",
      "ćććĈ!Ĉ!ćĈ!Ĉ!Ĉ Ĉ!Ĉ!ĈćĈĈĈĈ",
      "ďĉďĉďĉďĉ !!!!ďĉ!!",
      "ććĈ! ćĈ!ćČ",
      "ďĉďĉ!! ďĉďĉďĉ!",
      "Ĉ!Ĉ!Ĉ!Ĉ! Ĉ",
      "ĉĉĉĉ ĉĉĉĉ",
      "ďĉ !!!!!!!!!!!!!!!!!!!!!",
      "ćĈ!Ĉ! Ĉ!Ĉ!ĈĈ!Ĉ!Ĉ!Ĉ!",
      "ďĉďĉďĉďĉďĉďĉ! %&'(%&'(",
      "ďĉ!!ďĉ! ďĉďĉďĉ!",
      "ćććĈ!Ĉ!Ĉ!Ĉ ďĉ!!!!!",
      "ćĈ!Č ďĉďĉ!",
      "ďĉ! ćĈ!ćĈ",
      "ć%&'( ďĉ!!!!!!!!!",
      "ćĈĈĈ Ĉ!ćĈ!Ĉ",
      "!!!!!!!!! ďĉ!!!!!!!!",
      "ćĈ!ĈĈ!Ĉ!ďĉ!ďĉ! ďĉďĉďĉ!!",
      "ććććĈ!Ĉ!Ĉ!Ĉ! Ĉ!ĈĈ!Ĉ!",
      "L !",
      "!!!!!!!! !!!!ďĉ!!",
      "ćĈ!Ĉ!Ĉ!ćĈ!Ĉ! Ĉ!Ĉ!ćĈ!Ĉ!",
      "L K",
      "ćĈ!Ĉ!Ĉ ćĈ!ćďĉďĉ!!",
      "ďĉďĉďĉďĉďĉďĉďĉ )!",
      "ďĉďĉďĉ!ďĉďĉćććć ćĈ!Ĉ!ćĈĈ",
      "ďĉďĉ!ďĉ!)ďĉďĉďĉ ćďĉďĉ!",
      "!!!!! %!!!!!!!!",
      "Ĉ!ĈćĈ!Ĉ!Ĉ!Ĉ ćďĉ!",
      "ďĉ!!!!!!!!!!!!!!!! !",
      "R TVa!!!SĂĄĆ",
      "ććććĈ ćććĈ!Ĉ!Ĉ",
      "Ĉ!Ĉ!Ĉ!Ĉ! ććĈćć",
      "ćććĈ!Ĉ! ććĈ!ćĈ!ćČ",
      "ďĉ!ďĉ!!!!!! ďĉďĉ!!",
      "ďĉďĉďĉďĉ ďĉ!ďĉďĉďĉďĉ",
      "ćĈ!Ĉ! ćĈĈ!ćĈ!ćĈ!Ĉ",
      "Ĉ!Ĉ!Ĉ!Ĉ!! Ĉ!Ĉ!Ĉ!Ĉ!!Ĉ!Ĉ!Ĉ",
      "ďĉďĉďĉ !!!!!",
      "Ĉ!ĈĈ!ćĈ!Ĉ Ĉ!Ĉ!Ĉ!ćĈ!ćĈ",
      "ćĈ!Ĉ!Ĉ! ćďĉććć",
      "ććć ďĉćććć",
      "ćĈ!Ĉ!ĈćĈ! ďĉćććććććĈ!ćĈ!",
      "!!!! %!!!!!!!!!!!!!!!!",
      "ĂĄĆ !!!!R!!!S",
      "ďĉďĉďĉ !!!!!!!!!!",
      "ďĉďĉ!!! ćććććĈ!ćĈ!",
      "ďĉ %!&'(",
      "ďĉďĉ!!ďĉ!ďĉ!! ďĉďĉďĉ!",
      "R %&'(",
      "%!!!!!!! &'(",
      "Ĉ!Ĉ!Ĉ!ćĈ!Ĉ!ćĈććĈ ćďĉ",
      "Ĉ!Ĉ!Ĉ!Ĉ!ćććĈ! ďĉ!!",
      "ďĉďĉ ćććĈ!Ĉ!Ĉ!Ĉ!Ĉ!Ĉ!",
      "ďĉćĈ!Ĉ! Č",
      "Ĉ!Ĉ! ĉ",
      "ćĈ!ćĈ!Ĉ!ćĈ!Ĉ!Ĉ!ćĈ!Ĉ! ćďĉ!",
      "ďĉďĉ %ď&'(ĉ",
      "ććććććĈ! ććĈ!Ĉ!Ĉ!Ĉ",
      "ććĈ!Ĉ!Ĉ!Ĉ!Ĉ!Ĉ! Ĉ!ĈĈćĈ",
      "ďĉ!ďĉ!!!!!! ďĉďĉ!!!!",
      ")!)ďĉďĉďĉďĉ ďĉ!",
      "ďĉďĉ ćĈ!ĈĈ!ĈĈĈ",
      "%!!!!!!!! &'(",
      "ćďĉ ćććććććććććććććć",
      ")!)!! Ĉ!Ĉ!ĈĈ",
      "!!!!ďĉ!! )ďĉďĉ!",
      "Ĉ!ĈĈ!ĈĈĈ ćĈĈĈćĈ!ĈĈĈĈ!ĈĈ!Ĉ",
      "!!Č!!Č! ďĉ!ďĉĈ!Ĉ!ćĈ!Ĉ!ĈĈĈ",
      "%!Ĉ&'( !",
      "ď%ĉ &'(!",
      "ćďĉ#$ ćĈ!ćć",
      "3 23",
      "ďĉďĉďĉďĉďĉ!! ďĉ!!ďĉďĉďĉ",
      "ďĉ!ďĉďĉďĉďĉďĉ! ďĉďĉďĉ!!",
      "ďĉďĉ)ďĉďĉ! ďĉďĉ!!ďĉ!!!!",
      "Č ďĉďĉďĉďĉďĉďĉďĉďĉ",
      "%&'(ďĉ Ĉ!Ĉ!Ĉ!Ĉ!Ĉ!Ĉ!",
      "ďĉďĉ!ďĉ!! ďĉććććććĈ!ććĈ!",
      "ć ďĉďĉďĉďĉ",
      "Ĉ! ćĈ!ćĈ!Ĉ!Ĉ!",
      "0011 0101",
      "!!!!!!!! !!!!!",
      "ďĉ! ďĉćććć",
      "ďĉ! ćććććĈ!Ĉ!Ĉ!Ĉ!Ĉ!Ĉ!",
      "ďĉďĉďĉ!ďĉďĉďĉ!! ďĉďĉďĉďĉ!",
      "ćć ĉ",
      "ćĈ! ĉ",
      "!!!!! ćććććććĈ!ćĈ!Ĉ!",
      "ć ďĉďĉ%&'(",
      "ďĉćć ćďĉ!",
      "ďĉ!ďĉ ćććĈ!Ĉ!Ĉ!Ĉ!Ĉ!Ĉ!",
      "ďĉ!! ďĉďĉďĉ!",
      "ďĉďĉďĉ ćććĈ!Ĉ!Ĉ!Ĉ!",
      "ďĉďĉďĉ! ďĉ!%&'(",
      "%ćĈ &'(",
      "(788888888,-%& +",
      ")!)!!Ĉ!Ĉ!ĈĈ !!!!!",
      ")!)!!!!!!!! !!!!",
      "!!! %!!!!!!!!",
      "ďĉ!ďĉ!! ďĉ",
      "ďĉ!!ďĉ!ďĉ! ććĈ!Ĉ!Ĉ!ććĈ!Ĉ!",
      "ćććďĉćććć ććĈ!ćć",
      "ććĈ! %&'(",
      "ćďĉ! ďĉććććĈ!ćĈ!Ĉ",
      "Ĉ!Ĉ!Ĉ!ćĈ!Ĉ! Ĉ!",
      "ćććććďĉ! ććććĈćććĈ!Ĉ!Ĉ",
      "ďĉďĉ Ĉ!Ĉďĉ!ďĉ!",
      "ďĉďĉďĉ Ĉ!Ĉ!Ĉ!Ĉ!Ĉ!ćĈ!ĈĈĈĈ",
      "ďĉďĉďĉďĉďĉ)!) ďĉďĉďĉ",
      ") ďĉďĉďĉďĉďĉďĉďĉ!",
      "!! ďĉ",
      "Ĉ! ćĈ!ć",
      "MM M",
      "LL L!LK",
      "ćććĈ!Ĉ!Ĉ! ćĈĈĈĈ!ćĈ!Ĉ",
      "ďĉćććććć ćĈ!ćČ",
      "ćĈ!Ĉ!ĈćĈććĈĈ!ĈĈĈ ďĉ!!!",
      "ďĉďĉďĉďĉ ďĉďĉ!!",
      "ďĉ%&'( ďĉďĉďĉďĉďĉďĉ!",
      "ćďĉ! ććććĈ!ćĈ!Ĉ!Ĉ!ćĈ!Ĉ!",
      "ďĉďĉďĉ ćććććĈ!Ĉ!Ĉ!ćĈĈćĈ",
      "ďĉďĉ %&'(ďĉ",
      "ďĉďĉ! ďĉ!!!!!!!!",
      "ďĉďĉďĉďĉ ďĉ!",
      "ďĉĈ!ĈĈĈĈĈĈĈ Ĉ!ĈĈĈ!",
      "! %!!!!!!!!",
      "ć '(",
      "ćĈ!ćĈ!Ĉ!ĈćĈ!Ĉ! ďĉćĈ!",
      "!!!!!! %!!!!!!!!",
      "ďĉďĉďĉ%&'( ďĉďĉďĉ",
      "ććććĈ!Ĉ!Ĉ!Ĉ!Ĉ!ĈĈ!Ĉ! ć",
      "ďĉďĉďĉ! ććĈ!ć",
      ")) )",
      "ďĉ!!ďĉ! ďĉďĉďĉďĉ!",
      "ďĉ!!!!!!!!! ďĉ!!!!!!!!!!!",
      "ćććć ćĈ!ĈĈćĈĈćĈ",
      "ć%&'( ďĉďĉ",
      "ćććĈ!Ĉ!ććĈ!ćĈ!ćČ ďĉ!!!",
      "!!!!!!!!!!! ďĉćććĈ!Ĉ!Ĉ!Ĉ",
      "ćďĉ! ďĉďĉ!!",
      "ďĉďĉďĉ!! ććććĈ!Ĉ!",
      "ďĉ!ďĉďĉďĉďĉ ďĉďĉ!!",
      "ďĉ!!ďĉ!ďĉďĉďĉ! ďĉ!!!!!",
      "ćďĉ ćĈ!ććĈ!ćĈ!Ĉ",
      "ććććććććĈ!ćććĈ!Ĉ! ćĈ!ďĉ",
      "ďĉďĉ ćććććććć",
      "ďĉ Ĉ!Ĉ!ĈĈĈ!Ĉ!Ĉ!Ĉ!ĈĈĈĈ",
      "Ĉ! ď",
      "%&'( ďĉďĉ!!!ćććććĈ!ćĈ!",
      "ćććĈ!Ĉ! Ĉ!ćĈ!Ĉ!Ĉ!Ĉ!Ĉ!!",
      "ćĈćĈćĈćĈćĈćĈćĈćĈćĈ ć",
      "ćĈ!ćĈ!ćĈ!ĈĈ!Ĉ! ćĈ!ćĈ!Ĉ!Ĉ!",
      "ďĉ!!!! ďĉďĉďĉ!ďĉďĉ!",
      "ďĉ ćĈ!ćĈ!Ĉ!",
      "!!! %!!!!!!!!!!!!!!!!",
      "%&'(%&'( ďĉďĉďĉ",
      "ďĉďĉďĉďĉďĉďĉďĉďĉ ďĉ%&'(",
      "ďĉďĉ%&'( ďĉďĉďĉ!!",
      "ďďĉĉ !",
      "! %!!!!!!!!!!!!!!!!",
      "0 0101",
      "ďĉćć ćĈ!ć",
      "RTVa !!!S",
      "ďĉćććććććĈ!ćČ Č",
      "ďĉďĉďĉ %ď&'(ĉ",
      "ćĈććĈ!ćĈ!ćĈ!ĈćĈĈ ć%&'(ďĉ",
      "ē !",
      "ďĉ )",
      "ć %ć&'(",
      "ďĉ ćććĈ!Ĉ!Ĉ!Ĉ!Ĉ!Ĉ!",
      "%&'( ďĉďĉďĉ%&'(",
      "!!!!!! %!!!!!!!!!!!!!!!!",
      "ćć %&'(",
      "ďĉćććććććć Ĉ!Ĉ!Ĉ!ĈćĈĈ!Ĉ!Ĉ",
      "ďĉćďĉ !!!!",
      "ďĉ!ďĉćććć ććĈććĈ!",
      "7 '7777",
      "!!!! %!!!!!!!!",
      "&'( !!!!",
      "ďĉ!ďĉďĉďĉďĉ !!",
      "66666666 7'7777",
      "ĈćĈĈćĈćĈĈĈćĈĈďĉ Ĉ!ĈĈĈĈ",
      "666666667'7777 77",
      "ć )",
      "ć %Ĉ&'(",
      "ħ )",
      "ďĉ ćććććććććć",
      "%&'(ďĉďĉ !!!!ďĉ!!)ďĉďĉ!",
      "ďĉďĉďĉďĉ%&'( ďĉďĉďĉďĉ",
      "ćĈ!Ĉ!Ĉ!Ĉ!Ĉ!Ĉ!ĈĈ ďĉ!!!",
      "R%&'( TVa",
      "Ĉ! ćĈ",
      "ććĈ! ćććĈ!Ĉ!ćĈ!Ĉ!",
      "ďĉ!ďĉďĉ! ďĉ!ďĉďĉďĉ!",
      "Ĉ!ĈĈĈ!ĈĈ ďĉ!ďĉďĉďĉ",
      "Ĉ! )",
      "ďĉ%&'( Ĉ!Ĉ!",
      "ććĈ!Ĉ ďĉ%&'(Ĉ!Ĉ!",
      "R%&'(TVa ďĉććĈ!",
      "ć ď%&'(ĉ",
      "&'( ćďĉ!ďĉćć",
      "ďĉďĉ! %&'(",
      "ďĉ!ďĉďĉďĉďĉ ćďĉ!",
      "! ďĉ!!!!!!!!!!!!!!!",
      "ĥ !",
      "77 '7777",
      "66666666 77'7777",
      "ćĈĈĈĈ!Ĉ!ćĈ! ďĉďĉ",
      "ćĈććć!! ďĉ!ďĉ!!",
      "6666666677'7777 7",
      "ďĉďĉ ć%&'(",
      "ďĉ!!!!!!!! ďĉ!",
      "ďĉ Ĉ!Ĉ!",
      "ďĉďĉďĉďĉďĉďĉ%&'( ďĉďĉ!",
      "F D",
      "!! %!!!!!!!!!!!!!!!!",
      "ďĉćććććććć ććććĈ!ćĈ!Ĉ!",
      "66666666 7777",
      "ďĉďĉ!ďĉ%&'( ďĉĈ!",
      "Ĉ!Ĉ!ĈĈ!Ĉ!Ĉ!ĈĈĈĈ ćďĉďĉ",
      "!!! %",
      "ďĉďĉďĉ%&'( ďĉďĉďĉďĉ",
      "ďĉďĉ ďďĉĉ",
      "!!!!!! Ĉ!ďĉďĉćĈ!ďĉ!",
      "%&'(ďĉ Ĉ!ćĈ!Ĉ!Ĉ!Ĉ!Ĉ!Ĉ!",
      "%&'( ćďĉ!",
      "ďĉďĉďĉďĉ ďĉ!ďĉďĉďĉ!",
      "ďĉďĉďĉďĉďĉďĉďĉ! ďĉ!",
      "ćĈ!ćĈ!Ĉ!Ĉ!ćĈ!Ĉ! ćĈ!%&'(ďĉ",
      "ććććĈ!ććĈ!ćććĈ!ćććĈ ćďĉďĉ",
      "ćĈ!ćĈ!Ĉ!Ĉ!ćĈĈ! ďĉďĉďĉďĉ",
      "ćććć ććĈ!Ĉ!",
      "ććĈ! ćďĉ",
      "66666666 '7777",
      "66666666'7777 777",
      "!! ďĉććĈĈĈĈĈ",
      "ćďĉďĉ!! ďĉďĉďĉďĉćććć",
      "ďĉ Ħ",
      "%&'( Ĉ!Ĉ!Ĉ!Ĉ!",
      "Ĉ!Ĉ!Ĉ ďĉ!!!!!!!!!!!!!!!!",
      "M &'(",
      "Ē !!!",
      "01 0011",
      "%&'ď( ĉ!",
      "! %!&'(!!!!!!!!!!!!!!!!",
      "ćďĉ! ďĉďĉďĉ!",
      "ććććĈ!ĈĈ ďĉ!!!!!!!!!!!",
      "32323 2222222222222222",
      "00101 1",
      "%&'( Ĉ!",
      "ćć ďĉďĉ)",
      "ďĉďĉďĉďĉ %ď&'(ĉ",
      "ćĈĈćĈĈćĈ!ćććĈ!ćć ďĉďĉ!!!!",
      "ććĈ!%&'( Ĉ!Ĉ!Ĉ",
      "ćďĉďĉ! ďĉďĉć%&'(",
      "ćĈ!ĈĈćĈ!ćĈĈćĈ!Ĉ! ćďĉďĉ",
      "%&'( ĂĄĆ!!!!R!!!S",
      "ććććĈ!ćĈ!Ĉ! ĈćĈ!Ĉ!",
      "L ĉ",
      "ďĉďĉ )!)!!",
      "! %",
      "ćĈ !!",
      "ďĉ!ďĉďĉďĉ! ďĉ!ďĉďĉďĉ",
      "!! %!!!!!!!!",
      "ćĈ!ć ďĉďĉ!ďĉďĉćććć",
      "ďĉ!ďĉ!!! ďĉďĉćĈ!ĈĈ!ĈĈĈ",
      "Ĉ!ćĈ!Ĉ!ĈćĈĈĈ ćĈĈĈĈĈ",
      "ďĉ!! ďĉ!!!!!!",
      "ćĈćĈ!ćĈĈ! ďĉ",
      "ćĈ ćďĉďĉďĉ",
      "ćďĉ! ććĈ!ćĈ!Ĉ!ĈĈĈ!ĈĈĈ",
      "ĉĉ ĉ",
      "M ĉ",
      "!!!!!!!!!!!!!!!! ďĉďĉďĉ!",
      "ćĈ! )!)!!Ĉ!Ĉ!ĈĈ!!!!!",
      "!!!!! )!)!!!!!!!!!!!!!!!!",
      "ďĉ!!ďĉďĉďĉ Ĉ!ĈĈĈ!",
      "ććĈ!ćďĉďĉďĉďĉ ďĉďĉďĉ!!",
      "ď%&'(ĉ !!",
      "ćĈ!Ĉ! ćĈ!ćĈ!Ĉ!",
      "ďĉďĉďĉďĉ ďĉ!!ďĉ!",
      "ďĉ! ďĉďĉ%&'(",
      "!!! )!)!!!!!!!!!!!!!!!!",
      "Ĉ!Ĉ !!",
      "ďĉ!!!!!!!! !!",
      "!!!!!!! %",
      "ďĉ!ćĈ!ćĈ ďĉďĉďĉďĉ!",
      "ďĉćďĉ!!!! ćďĉ!",
      "ćĈ!ćďĉďĉ!ďĉďĉćććć ćĈ!ćČ",
      "ď ĈĈ",
      "%&'( ćććććććććććććććć",
      "!!!!! %",
      "%&' ć(",
      "%&ď'( ĉ!",
      "ďď !",
      "ďĉďĉ ĉ",
      "ďĉďĉćććć ćććĈĈććććććĈ!ćĈĈ",
      "ď )",
      "ďĉ%&'( ďĉďĉ!!",
      "MMMMMMMMMMMMMMMM MMMMMMMM",
      "ďĉ!ďĉďĉ!! ďĉďĉďĉďĉďĉ!ďĉ!",
      "ććĈ!Ĉ!Ĉ!ćĈ! ďĉďĉďĉďĉďĉďĉ",
      "%ćć &'(",
      "ďĉ!!ďĉďĉďĉďĉďĉďĉ! ďĉďĉ!!",
      "RTVa!!!S %&'(ĂĄĆ!!!!R!!!S",
      "%&'(ďĉ ćććććĈ!ĈĈćĈĈćĈ",
      "!!!!!!!!!!!!!!!!!! %&'(",
      "!!! ďĉ!ďĉ!!!!!!ďĉďĉ!!!!",
      "ćććĈ!Ĉ!Ĉ!Ĉ!Ĉ!Ĉ! Ĉ!Ĉ!Ĉ!Ĉ!",
      "% M&'(",
      "ďĉ ď%ĉ&'(",
      "%&'( ćĈ!Ĉ!",
      "%Ĉ&'( Ĉ",
      "%!!!!!!! &'(!",
      "! )!)!!!!!!!!!!!!!!!!",
      "A B",
      "!!! )",
      "Ē!! Ė",
      "ćććĈ!Ĉ!ććĈ!ćĈ!ćČďĉ!!! ďĉ!",
      "ćĈćďĉďĉďĉ !!!",
      "ďĉ ćĈ!ĈĈ!Ĉ",
      "ďĉďĉ !!!!!!!",
      ")!)!!!!!!!! !!!!!!!",
      "ďĉďĉďĉďĉďĉ ď%&'(ĉ",
      "K K",
      "!!!! ďĉďĉ",
      "> >",
      "ę !",
      "ćććććĈ!ćĈĈ ďĉďĉ!!",
      "ĈćĈĈćĈćĈĈĈćĈĈďĉ Ĉ!Ĉ!ĈĈĈ",
      "ć%&'(ďĉ!!!!!!!!! ďĉďĉďĉ!!",
      "ď Lĉ",
      "ďĉďĉďĉďĉďĉďĉďĉďĉ ďĉďĉďĉ!",
      "2323 2222222222222222",
      "ďĉććĈĈĈĈĈ ďĉďĉ)!)!!",
      "%&'( ďĉ!!!!!!!!!!!",
      "ďĉ!!!!!!!! ďĉ!ďĉ!",
      ")ďĉďĉďĉďĉďĉďĉďĉ! ďĉ!!",
      "ħ !",
      "%!!!!!!!! !!!!&'(",
      "ďĉďĉ ććĈ!Ĉ!Ĉ!ćĈ!",
      "ďĉďĉďĉďĉ ď%&'(ĉ",
      "ććĈ!ćďĉ ććććććććĈ!Ĉ!Ĉ!Ĉ!",
      "ďĉďĉďĉ! ďĉďĉ!!ďĉďĉďĉ!",
      "ďĉďĉ!! ďĉďĉďĉďĉďĉ!ďĉ!",
      ")!!!!!!!!!!!!!!! ďĉďĉďĉ",
      "ć L",
      "ĉ Ĉ",
      "01'(3 33",
      "RTVa!!!SĂĄĆ ďĉćććďĉ!",
      "ď! ĉ!",
      "ďĉććĈ! ďĉ!ďĉ!!ćĈ!",
      "ćĈ!ćĈ!ćďĉďĉďĉďĉ! ďĉ!ďĉďĉ",
      "%&'(Ĉ!Ĉ! ćććććĈ!ćĈĈ",
      "ď Mĉ",
      "!! ćććććććććććć",
      "ĈĈĈĈ ĈĈĈ",
      "! ďĉ!!",
      "ďĉ!ďĉďĉ! ďĉćććĈ!Ĉ!Ĉ!Ĉ!",
      "ď Ĉ!Ĉ",
      "Ē Ē",
      "ćććććĈ!ćĈĈ %&'(ďĉďĉ!!",
      "Ħ !",
      "%& Ĉ'(!",
      ") ħ",
      "3 2222",
      "ć ďĉćććć",
      "ććĈ! ďĉďĉďĉďĉ!ďĉďĉ!!",
      "ĥĤ !",
      "ď Ĉ!Ĉ!ĉ",
      "Ĉ! %Ĉ&'(!",
      "%&'( ďĉďĉďĉďĉďĉďĉďĉ",
      "ćĈ!Ĉ! Ĉ!Ĉ",
      "ďĉďĉ! ďĉ!ďĉďĉďĉ!",
      "%&'(%&'(%&'(%&'( %&'(%&'(",
      "%&'(ďĉďĉ )!)!!",
      "66666666 777",
      "ďĉ!!ďĉ!!!!!! )!!!!!!!!)!",
      "66666666777 '7777",
      "ďĉ%&'( ććďĉďĉ)",
      "%&' Ĉ(!",
      "ćććććĈ!ćĈĈ %&'(ďĉďĉ",
      "ćĈ! %Ĉ&'(!",
      "ďĉďĉďĉďĉďĉďĉďĉďĉ !!",
      "ďĉ!ďĉ! ďĉďĉďĉ",
      "ć%&'( ďĉďĉďĉďĉ!",
      "ĈĈ Ĉ!Ĉ",
      "ďĉ! ďĉďĉďĉ%&'(",
      "ďĉďĉ%&'( ďĉďĉ",
      "ďĉďĉďĉďĉďĉ %ď&'(ĉ",
      "!!ďĉććĈĈĈĈĈ %&'(ďĉďĉ)!)!!",
      "!!!!!!!!!!!!!!!!)!)!! )!)",
      "ĉ !!",
      "đ đ",
      "Ĉ! ć",
      "ďĉďĉďĉ!! ďĉćććĈ!Ĉ!Ĉ!Ĉ!",
      "%! ć",
      "ćĈ!ĈĈĈćĈćĈćĈĈĈćĈ ďĉďĉ!",
      "ĈćĈĈćĈćĈĈĈćĈĈ %&'(ďĉ",
      "! ďĉ!!!!!!!!!!!!!!!!",
      "ďĉďĉ!ďĉďĉćććć ćďĉ!ďĉďĉďĉ!",
      "%ć&' ć(",
      "!!!!!! %",
      "ďĉ%&'( ďĉ!!",
      "%&'(ďĉ ććććććććĈ!Ĉ!Ĉ!Ĉ!",
      "Ħ %&'(%&'(%&'(%&'(",
      "Ĉ! ćĈĈ",
      "%&'( ďĉ!ďĉ!!",
      "ććĈ!Ĉ! ćĈ!Ĉ!",
      "ćĈ!ćĈ! ć%&'(ďĉďĉďĉďĉ!",
      "ďĉ%&'( ďĉďĉ!!!!",
      "B !",
      "!! %&'(!!!!!!!!!!!!!!!!",
      "!!!! %",
      "ďĉ%&'( ďĉďĉ!",
      "M !",
      "ď%&'(ĉ ďĉďĉ!",
      "%&'(ďĉďĉ !!!!ďĉďĉ",
      "L &'(",
      "ćĈ!Ĉ!Ĉ!Ĉ!Ĉ!Ĉ ďĉĈ!Ĉ!Ĉ!Ĉ!",
      "%&'(Ĉ!Ĉ!ćććććĈ!ćĈĈ ďĉďĉ",
      "Ĉ )",
      "ē Ė",
      "ćĈ ćć",
      "%ď&'(ĉ !!",
      "Ĉ!Ĉ!Ĉ!Ĉ!Ĉ ćĈ!ĈĈ!ĈĈĈ",
      "ďĉďĉďĉ Ĉ!Ĉ!Ĉ!Ĉ!ĈćĈĈĈ!ĈĈĈ",
      "ďĉďĉďĉďĉďĉďĉďĉďĉ ďĉďĉďĉďĉ",
      "ďĉďĉ! ďĉďĉ!!",
      "& Ĉ'(!",
      "B B",
      "ď ććĉ",
      "!!!!!!!!!!!!!!!!!!!! %&'(",
      "ďĉďĉďĉďĉ! ďĉďĉďĉďĉ!ďĉ!!",
      "ćĈĈĈĈĈćĈĈĈĈĈćĈ!ĈĈĈćĈ ďĉ!",
      "ď ćĈ",
      "ďĉ ĉĉ",
      "!!! %!&'(",
      "'(3 33",
      "%&'(! ďĉďĉďĉ!ďĉ!ďĉ!",
      "!!!!! ďĉ!!!!!!!!!!!!!!!!",
      "!!!!!!! %!!!!!!!!",
      "ďĉ!ďĉ !!!!",
      "!!!!!!!!!!!!!!!!!!! %&'(",
      "ćĈćĈćĈ!ĈćĈĈ ďĉ%&'(ďĉďĉ",
      "ď Ė",
      "Ħ ĉ",
      "!!!! ďĉ!!!ćććććĈ!ĈĈ!ĈĈ",
      "ďĉ!! ďĉďĉ!!ďĉ!ďĉ!!ďĉďĉďĉ!",
      "ďď ď",
      "ĥ ďĉ",
      "ďĉ! ĉ",
      "ďĉďĉďĉ! ďĉ%&'(!",
      "ďĉďĉďĉďĉďĉďĉďĉďĉ ďĉ",
      "ď%&'(ĉ ďĉďĉ",
      "ĥĤ ē",
      "ď ćĈ!ĉ",
      "ćć ćďĉ!",
      "ććććććĈ!Ĉ! Ĉ!ćĈ!Ĉ!Ĉ!Ĉ!Ĉ!!",
      "ć ďĉ!!",
      "ďĉďĉďĉďĉďĉďĉďĉďĉ ďĉďĉ%&'(",
      "ďďĉĉ ďďĉĉ",
      "ćďĉďĉ ćĈ!ćĈ!Ĉ!Ĉ!ćĈ!Ĉ!",
      "ćĈ!Ĉ!Ĉ!ćďĉććć ďĉ!!",
      "ć '",
      "%&'(ďĉ ćććććććć",
      "ćďĉ! ďĉďĉďĉďĉďĉďĉďĉďĉ",
      "ć%&'( ćććć",
      "ďĉďĉ!ďĉ!ďĉďĉďĉ! ďĉ!ďĉ!!ďĉ",
      "ćĈ! ć%&'(",
      "ćĈ!Ĉ! ćĈ!Ĉ",
      "LL !LK!LK",
      "%&'(ďĉ ćĈ!ćĈ!Ĉ!",
      "ďĉćććć ćĈ!ĈĈćĈĈćĈ",
      "ďďďď ďďďď",
      "!&'(ďĉ)) ħ",
      "%ć&' Ĉ(!",
      "%&'(ćďĉ! ďĉďĉ!!!",
      "ď ďĉďĉĉ",
      "Ĥ ))))",
      "!! %",
      "33 2222",
      "AA AA",
      "ďĉ! ďĉďĉďĉďĉďĉďĉďĉďĉ!",
      "%&'(ďĉ Ĉ!ĈĈĈĈĈĈĈ",
      "LLLL !LK",
      "ćĈ!Ĉ!Ĉ!ćĈ!Ĉ! Ĉ!Ĉ!Ĉ!!",
      "Ĉ!ĈĈĈ! ďĉ!!!!!!!!!!!!!!!!",
      "RTVa ďĉććĈ!",
      "ħ ĉ",
      "Ĉ! ćĉ",
      "ćć ĈĈĈĈ",
      "%&'(ďĉ!ďĉďĉďĉďĉ !!",
      "ć %",
      "Ĉ ćĈ",
      "Ĕ ĥ",
      "ďĉ! %ď&'(ĉ",
      "!!!!! )!)",
      "ććć ĉ",
      "ć ČČ",
      "Ĉ Ĉ!Ĉ!",
      "!!! ďĉ!!!!!!!!!!!!!!!!",
      "LL L",
      "%Ĉ&'( ĈĈ",
      "ďĉďĉ!ďĉďĉ Ĉ!",
      "Ĉ!ćĈ!ć ďĉďĉďĉďĉďĉćććć",
      "ďĉ!ďĉ!! Ĉ",
      "32323 232222222222222222",
      "ďĉ! ď%&'(ĉ",
      "ďĉďĉďĉ%&'( ďĉďĉ!!",
      "Ĉ!ĈĈĈ!Ĉ!Ĉ Ĉ!Ĉ!Ĉ!",
      "ďĉďĉďĉ!ďĉ%&'(! ďĉ!ďĉ!",
      "%&'( ďĉ!ďĉďĉďĉ",
      "ćććć ćććĈ",
      "!!! ćććććććććććć",
      "ĈĈĈ ĉ",
      "ďĉďĉ! ďĉďĉďĉďĉ!",
      "ćććĈ!Ĉ! Ĉ!Ĉ!Ĉ",
      "ďĉ%&'( !!!",
      "ďĉďĉďĉďĉďĉďĉďĉ! ďĉ!ďĉ",
      "Ĉ!Ĉ!Ĉ!Ĉ!Ĉ!Ĉ!Ĉ!Ĉ! ĈĈĈ!Ĉ",
      "ďĉ!!ďĉ!ďĉďĉ! ďĉďĉ!",
      "Ĉ!ćĈ!Ĉ!Ĉ!ćĈ!Ĉ!Ĉ!ĈĈ! ćĈ!",
      "ćĈ! %&'(ďĉ!",
      "ć%&'( ďĉďĉ!!",
      "ćďĉ )ħ",
      "ćć !",
      "ćĈ! ććĈ!Ĉ!ćĈ!Ĉ!",
      "!!!!!!! %!!!!!!!!!!!!!!!!",
      "ćĈ!ćĈ!Ĉ!Ĉ! ďĉďĉ!",
      "ČČ ČČ",
      "Ĉ!ĈĈĈĈ!ĈĈĈĈ ďĉĈ!Ĉ!Ĉ!Ĉ!",
      "ćććďĉććććććĈ!ćć Č",
      "Ĉ! %&'(ďĉ!ďĉďĉďĉďĉ",
      "!!! %!&'(!!!!!!!!!!!!!!!!",
      "!!!!! %&'(",
      "%ď&'(ĉ ďĉďĉ!",
      "%ć& Ĉ'(!",
      "Ĕ !",
      "Ħ Ħ",
      "!! )",
      "ďĉ %&'ď(ĉ",
      "ďĉ ćĈ!Č",
      "ďĉ!ďĉ! ďĉ!",
      "ďĉďĉ%&'( ďĉ!",
      "ć%&'(ďĉ! ććĈ!ćĈ!Ĉ!ĈĈĈ!ĈĈĈ",
      "ćĈ!ćĈ!ćĈ!ĈĈ!Ĉ! %&'(",
      "ďĉ%&'(ććďĉďĉ) ćďĉ",
      "ć K",
      "%!!!!!!!! !!!!!&'(",
      "ďĉ!!ďĉ!ďĉďĉ! ďĉ!ďĉďĉďĉ!",
      "ďĉ) !!!)",
      "ćČČ ďĉďĉďĉ!!!!!",
      "ćĈ!ććĈ!Ĉ!ćĈ!Ĉ! ćĈ!ć",
      "ďĉďĉ ď",
      "!!!!!!!!!!!!!!!!!!!! %",
      "ćĈ!Ĉ Ĉ!ćĈ!Ĉ",
      "ćĈććć!! %&'(ďĉ!ďĉ!!",
      "Ĉ!ćĈ!ćĈ!Ĉ!Ĉ! ďĉďĉ!!!!!!!",
      "ćć Čďĉďĉďĉďĉďĉďĉďĉďĉ",
      "%& ć'(",
      "!!!!!!!!!!!!!!!!!!! %",
      "%M&'( MMMMMMMMMMMMMMMM",
      "3 2222222222222222",
      "ďĉ!! ďĉ%&'(ďĉďĉ",
      "%Ĉ&'(! Ĉ",
      "ďĉ ć%&'(",
      "%&'( !!!!!!!",
      "%&'(ĉ ĉĉĉĉĉĉĉĉ",
      "L! M",
      "B M",
      "Ė !",
      "ďĉ ćććĈ",
      "ďĉ %&ď'(ĉ",
      "ďĉ%&'( ďĉďĉďĉ",
      "%!!!!!!!! !!&'(",
      "%!!!!!!!! !!!&'(",
      "%!&'( !!!!!!!!!!!",
      "L!LK L!LK",
      "%&'(ďĉďĉ! ďĉ!!!!!!!!",
      "ćĈĈĈĈ ĈĈĈ",
      "ć%&'( ććććććĈ!",
      "%!&'( !",
      "ďĉ!ďĉďĉ! Ĉ!Ĉ!ĈĈ!Ĉ!Ĉ!Ĉ!",
      "ďĉ!!ďĉďĉ!!! )!)",
      "ďĉďĉďĉ! ďĉďĉ!!",
      "ďĉďĉďĉďĉďĉďĉďĉďĉ )",
      "ďĉ%&'( Ĉ!Ĉ!Ĉ!Ĉ!",
      "!!!!R %&'(",
      "0101 01'(3",
      "ďĉ!!!! ďĉ!!",
      "ćĈ!Ĉ!Ĉ!ćďĉććć ďĉ!!ďĉďĉďĉ!",
      "ĥďĉ Ĉ!ĈĈ!",
      "!! %!&'(!!!!!!!!!!!!!!!!",
      "!! %!!&'(!!!!!!!!!!!!!!!!",
      "%&'( ďĉ!ďĉ!",
      "ďĉďĉďĉ ďďĉĉ",
      "MMMM M",
      "ćĈĈćĈ ćĈĈćĈĈ",
      "0011 0011",
      "ďĉďĉďĉďĉďĉďĉćďĉ! ďĉ",
      "ćĈććĈ!ćĈ!ćĈ!ĈćĈĈ ćďĉ",
      "Ĉ!ĈĈĈ!ĈĈĈ ćďĉďĉ!ďĉďĉć%&'(",
      "% L&'(",
      "ďĉďĉ%&'( ďĉďĉďĉďĉďĉďĉ",
      "ďď ďĉĉĉ",
      "ďĉďĉďĉ%&'( ďĉďĉďĉďĉďĉ",
      "!!!!!!!!!!!!!!!!!!!!!!! %",
      "ďĉćććĈ!ć ďĉďĉďĉďĉďĉ!!",
      "00110101 0011",
      "ďĉďĉ ď%ĉ&'(",
      "ďĉďĉďĉ Ĉ!ĈĈĈ!",
      "ďĉ%&'( ďĉďĉďĉďĉćććć",
      "ďĉ!!ďĉ!ďĉďĉ! ďĉďĉ!ďĉ!",
      "ćĈ!Ĉ!Ĉ!Ĉ!Ĉ!Ĉ!ĈĈ ďĉ%&'(!!!",
      "B ĉ",
      "ď !!!!!!!!!!!!!!!!",
      "Ĉ! ďĉ!ďĉďĉďĉďĉ",
      "ćĈ! ď",
      "!!! %&'(",
      "%!!!!!!!! !&'(",
      "ď! ď!",
      "3322 2323",
      "ďĈĈ ĉ",
      "% ĈĈ",
      "!!!!!!!!!!!!!!!! %",
      "ćĈ! ćććć",
      "ććććććĈ!ćĈĈ ďĉďĉ!!",
      "Ĉ!Ĉ!ĈĈ!Ĉ!Ĉ!ĈĈĈĈ ćďĉďĉ%&'(",
      "&' Ĉ(!",
      "ďĉ!!!!! ďĉ!ďĉďĉďĉďĉďĉďĉďĉ",
      "!!!!!!!!!! ćććććććććććĈ!Ĉ",
      "ď &'(ĉ",
      "ćććć ć",
      "ďĉćć ďĉďĉ)",
      "ććć %Ĉ&'(!",
      "ďĉ!!!!ďĉ!! )ďĉďĉ!",
      "ćć ć%&'(",
      "ďĉ!! ďĉ",
      "ďĉďĉďĉ! ďĉďĉďĉďĉ",
      "%ď&'(ĉ ďĉďĉ",
      "ďĉ!ďĉ ď%&'(ĉ",
      "ďď ďĉĉ",
      "ďĉ!!ďĉďĉďĉďĉďĉďĉ! ďĉďĉ!",
      "! )",
      "ď ĈĈĈĉ",
      "ćĈ!ć ďĉďĉďĉďĉďĉ!!",
      "%!!!!!!!!!!!!!! &'(",
      "!!!!!!!!!!!!!!! )!)",
      "ćĈ!ďĉ ććĈ!Ĉ!Ĉ!Ĉ!",
      "ďĉ!ďĉďĉďĉďĉćďĉ! ďĉďĉďĉ",
      "ćĈ!Ĉ!ćĈ!ćĈ!Ĉ! ćĈ!Ĉ!ćĈ!Ĉ",
      "% Ĉ!",
      "Ĥ ĉ",
      "%&'( !!!!!!",
      "ďĉďĉ! ďĉ!ďĉ!",
      "01 000111",
      "ć%&'(ďĉ! ďĉďĉ!!!",
      "ďĖ ĉ",
      "ĥďĉĈ!ĈĈ! ďĉćĈ!Č",
      "ćĈĈćĈĈ ćĈĈćĈćĈĈćĈĈ",
      "!!!!!!!!!!!!!!!!!! %",
      "ďĉ!ďĉďĉďĉďĉďĉďĉďĉďĉ !!",
      "322 32323",
      "ďĉćććĈ!Ĉ!Ĉ!Ĉ ďĉ!ďĉďĉďĉďĉ",
      "3 232222222222222222",
      "!!!! %&'(!!!!!!!!!!!!!!!!",
      "ďĉďĉďĉďĉ %&'(ďĉ",
      "ćĈ Ĉ!Ĉ!",
      "ďĉ!ďĉ!!!! ďĉďĉ!!",
      "ćĈ!ĈĈ!ćĈ!Ĉ ćććććććĈ",
      "ďĉďĉďĉ !!!!!!!!!!!!!!!!",
      "ćďĉďĉ! ďĉďĉ!",
      "ď) ĉ",
      "ďĉďĉ %!&'(",
      "ć%&'( ďĉďĉďĉďĉ",
      "ć%&'( ďĉďĉďĉ",
      "ďĉďĉ%&'( ďĉ!!",
      "ďĉďĉďĉďĉďĉďĉ ď%&'(ĉ",
      "ĈĈĈĈĈ ďĉ!ďĉ!",
      "ćććĈĈććććććĈ!ćĈĈ ďĉďĉ!!",
      "ďĈ!Ĉ ĉ",
      "ď Ħĉ",
      "ďĉ ħ",
      "ćććĈ!Ĉ! Ĉ!Ĉ!Ĉ!",
      "MMMM MMM",
      "ć%&'( !!!!!!!!!!!!!!!!",
      "%ć& ć'(",
      "(788888888,-%&+01 000111",
      "ćĈ!Ĉ!Ĉ!Ĉ!Ĉ!Ĉ ďĉĈ!",
      "ďĈ ĉ",
      "!! )!)!!!!!!!!!!!!!!!!",
      "ďĉ ćĈ!ćĈ!",
      "Ĉ!Ĉ!Ĉ Ĉ!Ĉ!Ĉ!",
      "ďĉ%&'( ďĉ",
      "ďĉ!ďĉ! ďĉďĉďĉďĉ",
      "ĈĈĈ!ĈĈĈ ćďĉďĉ!ďĉďĉć%&'(",
      "Ė ē",
      "Ĥ !",
      "Ħ ē",
      "ćĈ Ĉ!Ĉ",
      "ćĈ!ćĈ! ćĈĈ",
      "ďĉďĉďĉ ćďĉ!",
      ")!) ďĉďĉďĉ",
      "!!!!!!!!!!!!!!!!!!!!! %",
      "ććĈ!Ĉ ďĉĈ!Ĉ!",
      "!!!!!!!!!!!!!!!!! %!&'(",
      "ć! Ĉ",
      "L!LK!LK !LK",
      "ďĉ!!!!!!!! %&'(ďĉ!",
      "ďĉ%&'( ćććććććććć",
      "ď! Ĉ!ĉ",
      "ĈćĈĈćĈćĈĈĈćĈĈ ďĉ%&'(",
      "Ĉ!ĈĈĈ!ĈĈ %&'(ďĉ!ďĉďĉďĉ",
      "ďĉĈ!ĈĈĈĈĈĈĈĈ!ĈĈĈ ďĉ",
      "ďĉ)!!!) !!!!!",
      "ď K",
      "ďĉďĉďĉďĉ ćďĉ#$ćĈ!ćć",
      "ďĉ! )",
      "!!! %&'(!!!!!!!!!!!!!!!!",
      "Ĉ!Ĉ!Ĉ!Ĉ! Ĉ!Ĉ",
      "%&'(ĉ ĉĉĉĉ",
      "ďď !!",
      "!!!!R TVa",
      "ħ) ę",
      "ďĉ!!!!!!!!ďĉ! ďĉ!!!!!!!!",
      "C !",
      "ďĉ Ĉ!Ĉ!Ĉ!Ĉ!Ĉ!Ĉ!",
      "%&'( ďĉ!ďĉďĉďĉďĉďĉďĉďĉďĉ",
      "ďĉďĉ!! ććć",
      "%ď&'(ĉ ďĉ",
      "ďĉ!ďĉ %!&'(",
      "LLLLLLLL LLLL",
      "Ĉ!ĈĈĈ!ĈĈĈ ćďĉďĉ!",
      "ďĉ!!!!!!!!ďĉ!ďĉ! %&'(",
      "L !L",
      "ď !!!",
      "ďĉ!ďĉďĉďĉďĉ %&'(ďĉďĉďĉ",
      "!&'(ďĉ)) ď",
      "% Ĉ",
      "ĈĈ Ĉ!",
      "%&'(ďĉ Ĉ!Ĉ!ĈĈĈ!Ĉ!Ĉ!Ĉ!ĈĈĈĈ",
      "ď%&'(ĉ !!!!!!!!!!!!!!!!",
      "ď%&'(ĉ ďĉďĉďĉďĉ",
      "ďĉ!!! ďĉ%&'(ďĉďĉ!!",
      "ćĈ!ćĈ!ćĈ!Ĉ!ććććĈ!ććĈ!ć !",
      "Ĉ!Ĉďĉ!ďĉ! ďĉćććććććććć",
      "!!!!RTVa!!!SĂĄĆ !",
      "&' ć(",
      "ćďĉ!ďĉďĉ!! ďĉďĉďĉďĉ!",
      "Ĉ! ćĈ!ćĈ!Ĉ!",
      "ďĉ ď!ĉ",
      "ďĉďĉďĉďĉ ćĈ!ĈĈ!Ĉ!ďĉ!ďĉ!",
      "ďĉ!!!!!!!! !!!!ďĉ!!",
      "ďĉ!ďĉ %ď&'(ĉ",
      "Ĉ!ćĈ! ć%&'(",
      "ĈĈ! ĉ",
      "ĖĖ ĖĖ",
      "ćĈ!ććĈ!Ĉ!ćĈ!Ĉ!ćĈ!ć !ďĉ!!",
      "A !",
      "ćĈ ć",
      "%Ĉ&'( ĈĈĈ",
      "ďĉďĉďĉďĉďĉďĉďĉďĉ! ćĈ!Č",
      "ćĈ!Ĉ!ćĈĈ ćďĉćĈ!ććĈ!ćĈ!Ĉ",
      "ć Č",
      "ďĉ ćĈ!ćĈ!Ĉ!Ĉ!ćĈ!Ĉ!",
      "&'( ďĉ!!!!!!!!!!!!!!!!",
      "%Ĉ&'(! Ĉ!",
      "Ĉ!ćĈ!Ĉ!ĈĈĈ!ĈĈĈććĈ! ďĉ",
      "%!ć &'(",
      "& ď'(",
      "0 000111",
      "%&'( !!!!!!!!!!!",
      "ćĈ!Ĉ! Ĉ!ĈĈ!Ĉ",
      "ďĉ! %&'(ďĉ",
      "ďĉ!! ďĉďĉďĉďĉďĉďĉďĉ)!",
      "ďĉďĉ! ďĉ!ďĉďĉďĉďĉ",
      "ďĉďĉďĉ ćććć",
      "ďĉ!ďĉ! ďĉďĉďĉďĉ!ďĉďĉ",
      "ď%&'(ĉ ďĉ",
      "ď!! ĉ",
      "Ĥ Ĥ",
      "Ĉ! %&'(",
      "ďĉďĉ %&ď'(ĉ",
      "ćĈ!Ĉ! Č",
      "ďĉ! ďĉďĉďĉďĉ!",
      "ďĉďĉ! ďĉďĉďĉďĉ!ďĉ!!",
      "Ĉ!ćĈ!Ĉ! Ĉ!",
      "ćĈ!Ĉ!ćĈĈ!ćĈ!ćĈ!Ĉ Ĉ!Ĉ!Ĉ!",
      "ďĉćĈ!Ĉ!Č ďĉďĉďĉ!",
      "ćďĉďĉďĉďĉ ććĈ!Ĉďĉ%&'(Ĉ!Ĉ!",
      "! %!!&'(",
      "ď ďĉ!ĉ",
      "Ĉ!Ĉ!Ĉ Ĉ!Ĉ!ćĈ!Ĉ!",
      "!!!!! %!&'(",
      "ććć %ć&'(",
      "322 33",
      "Ĉ!ďĉďĉćĈ!ďĉ! %&'(",
      "Ĕ! ďĉďĉďĉďĉ",
      "ćć ćĈ!Ĉ",
      "ćĈ!Ĉ! Ĉ!Ĉ!Ĉ",
      "ďĉďĉďĉďĉ %&'(ďĉďĉ",
      "!!!!!!!!!!!!!!!!!!!!!! %",
      "Ĉ!Ĉ!Ĉ!ćĈ!ćĈ ďĉďĉďĉďĉ",
      ") ďĉ",
      "!!!! )!)",
      "ććĈ! ďĉ!ďĉ!!ćĈ!",
      "ďĉ!ďĉ! ďĉ%&'(ďĉďĉ",
      "ď%&'(ĉ ďĉ!!",
      "Ĉ!Ĉ!Ĉ!Ĉ!Ĉ!Ĉ! Ĉ!ĈĈćĈ",
      "ďĉ!!ďĉďĉďĉ )!)ďĉďĉďĉďĉďĉ!",
      "ďĉ ď%&'(ĉ!",
      "%&'( ďĉďĉďĉďĉďĉďĉďĉ!",
      "ĈĈĈĈ ĈćĈĈ",
      "ćĈ!ćĈ! ĈĈ!",
      "ďĉďĉďĉ ď%ĉ&'(",
      "!!!!!! %&'(",
      ">> >>",
      "L ďĉ!",
      "Ğ ğ",
      "!! Ĉ",
      "!! ďĉ!!!!!!!!!!!!!!!!",
      "ćć %ć&'(",
      "ďĉ! Ĉ!Ĉ!ĈĈ!Ĉ!Ĉ!Ĉ!",
      "ďĉ!ďĉ! ďĉďĉďĉ!",
      "ďĉćććć ćĈ!Ĉ!Ĉ!ćĈĈćĈ",
      "%Ĉ&'(! Ĉ!Ĉ!",
      "ďĉ)) )",
      "Čďĉďĉďĉďĉďĉďĉďĉďĉ !!!",
      "ććććĈ!Ĉ!Ĉ!Ĉ!Ĉ!ĈĈ!Ĉ!ć ďĉ!!",
      "! %&'(!!!!!!!!!!!!!!!!",
      "\" %&-+/,'(%&-+/,'(",
      "ė ĥĤē",
      "ďĉďĉďĉďĉďĉďĉďĉďĉ ďĉćććć",
      "ćďĉ! ďĉ!!!!!!!!!!!!!!!!",
      "ććć ďĉ!!ďĉďĉďĉ!",
      "Ĉ!Ĉ!ĈĈ Ĉ!ĈćĈ!",
      "ďĉ!%&'( !",
      "ďĉďĉďĉďĉďĉ%&'( ďĉďĉďĉ!",
      "%ĈĈ &'(",
      "ćć ćĈ!ćĈ",
      "23 22",
      "ćďĉ ď%&'(ĉ",
      "ć%&'(ďĉ ćĈ!ććĈ!ćĈ!Ĉ",
      "ĥ! Ĥ",
      "ćććĈ!Ĉ!Ĉ!Ĉ!Ĉ ďĉ!ďĉ!ďĉ!",
      "Lďĉ! K",
      "Ĉ!Ĉ!ĈĈĈ!ĈćĈ! ĈĈĈĈĈćĈĈ",
      "' 7",
      "ď Ē",
      "ď ďĉ",
      "ď ćććĉ",
      "!!! ďĉ!ďĉ!!!!!!",
      "ććĈ ćĈ!Ĉ!Ĉ!Ĉ!Ĉ!Ĉ!",
      "ďĉďĉďĉďĉďĉďĉďĉďĉ %&'(",
      "ďĉďĉďĉďĉďĉďĉďĉďĉ ďĉďĉ!",
      "%&'(ďĉ ććĈ!Ĉ!ĈĈĈ!Ĉ!Ĉ!ĈĈćĈ",
      "77 '7",
      "ďĉćććć Ĉ!ćĈ!Ĉ!",
      "ďĉďĉ%&'( ďĉďĉďĉďĉ",
      "ďĉďĉďĉďĉďĉďĉ %ď&'(ĉ",
      "ćďĉ%&'( ďĉćĈ!ćĈ!Ĉ!Ĉ!ćĈ!Ĉ!",
      "Ĉ!Ĉ!ćĈĈ ćĈĈĈĈĈĈĈĈ",
      "666666667777 77'7",
      "0000111 1",
      "Ē !!!!",
      "ďĉ%&'( ďĉďĉďĉďĉďĉďĉďĉ",
      "%! &Ĉ'(!",
      ")) ħ!",
      "%!&'( ďĉďĉďĉ!!ďĉ!",
      "ďĉ!ďĉďĉ Ĉ!Ĉ!",
      "%&'(ďĉďĉďĉ! ďĉ!ďĉ!",
      "ć%&'(ďĉ! ďĉććććĈ!ćĈ!Ĉ",
      "ć %ď&'(ĉ",
      "Ĉ!Ĉ!Ĉ!Ĉ! ĈĈ!Ĉ!Ĉ!Ĉ!",
      "ďĉ!! ďĉ%&'(",
      "ćććććććć ććććĈ!ćĈ!Ĉ!",
      "ďĉďĉďĉ !!!",
      "!!!!!! %!!&'(",
      "ďĉ%&'( !!!!!!!!!!!!!!!!",
      "ďĉ%&'( Ĉ!ćĈ!Ĉ!Ĉ!Ĉ!Ĉ!Ĉ!",
      "!!!!!!! %!!!!!!!!!!!!!!",
      "%&'(ďĉďĉ ćććĈ!Ĉ!Ĉ!Ĉ!Ĉ!Ĉ!",
      "%&'(ďĉ!! ďĉďĉďĉĈ!ĈĈĈ!",
      "%&'(ďĉďĉďĉ !!!!!",
      "ďĉĈ!Ĉ!Ĉ!Ĉ! Ĉ!Ĉ",
      "! %!!!&'(!!!!!!!!!!!!!!!!",
      "ć ďĉďĉďĉďĉďĉďĉ",
      "Đ Đ",
      "Ħ !!",
      "%&'( !!",
      "ćĈ!ćĈ!Ĉ! ĈĈ!",
      "ďĉďĉ!! ďĉďĉďĉďĉďĉďĉďĉďĉ!",
      "Ĉ!ĈĈ Ĉ!ĈĈ!ĈĈĈĈ!ĈĈ!Ĉ",
      "'(3 323",
      "ćĈ!ďĉ! ďĉďĉďĉ%&'(",
      "ďĉ!ďĉďĉ!! ďĉďĉďĉďĉ!ďĉďĉ",
      "ďĉďĉ!ďĉďĉ%&'( ďĉďĉ!",
      "ćććććććććććĈ!Ĉ ćĈ!Ĉ!ĈćĈ!",
      "ćĈĈ!Ĉ!ĈĈĈćĈćĈ!ććĈ!! ďĉ!!",
      ") M",
      "ć ħ",
      "!! )!!!!!!!!!!!!!!!!",
      "'( ;",
      "%&'( ďĉďĉďĉďĉďĉďĉ",
      "ďĉ%&'( !!",
      "ďĉ!ďĉ )))",
      "ďĉďĉďĉ%&'( ćććĈ",
      "%!&'( !!!!!!!",
      "ďĉďĉďĉďĉďĉďĉ !!!!!!!!!!!",
      "ď! Ĉ",
      "ď! ď",
      "ćĈ!ĈćĈĈ ćĈĈĈĈĈĈĈ",
      "ćĈĈĈĈ!Ĉ!ćĈ! %&'(ďĉďĉ",
      "%&'(ďĉĈ!ĈĈĈĈĈĈĈ Ĉ!ĈĈĈ",
      "ďK ĉ",
      "! ĉ",
      "ē ĉ",
      "ďĉďĉ %&'ď(ĉ",
      "ćĈ! %&'(",
      "%&'(%&'( ďĉďĉďĉ%&'(",
      "ďĉ!! ďĉďĉďĉďĉ%&'(",
      "ďĉďĉďĉ! ďĉ!!!!!!!!!!!!!",
      "ďĉ%&'( ďĉďĉďĉďĉďĉďĉďĉďĉ",
      "!!!!!!! %&'(%&'(",
      "ďĉďĉďĉ%&'( ďĉ!ďĉďĉ",
      "%Ĉ&'(! Ĉ!Ĉ!Ĉ!Ĉ!",
      "!!!!!!!!!!!!!!!!! %",
      "ďĉďĉďĉďĉďĉ%&'( ďĉďĉďĉ",
      "Ĉ!! Ĉ!!",
      "Ĉ!ćĈ!ć%&'( ďĉďĉďĉďĉďĉćććć",
      ") !!",
      "Ĉ !!!",
      "ćć ćďĉ",
      "ďĉďĉ! ďĉ",
      "!!!!! ďĉććĈĈĈĈĈďĉďĉ)!)!!",
      "%Ĉ&'( ĈĈĈĈĈĈĈĈĈĈĈĈĈĈĈĈ",
      "ĈĈĈĈĈĈĈĈĈĈĈĈ Ĉ",
      "ďĉ!ďĉďĉďĉďĉďĉďĉďĉďĉ %&'(",
      "ďĉď%&'(ĉ !!",
      "ćď ćĉ",
      "Ĉ!Ĉ!ćĈ!Ĉ ďĉ!!!!!!!!!",
      "! %!!&'(!!!!!!!!!!!!!!!!",
      "E FD",
      "ć ď%&'(ĉ!",
      "ď Ĉ!ćĉ",
      "ďĉ Ĉ!Ĉ!ĈĈĈ",
      "ďĉďĉ ććć",
      "ďĉ! Ħ",
      "%&'(ĉ ĉ",
      "ď%&'(ĉ ďĉďĉďĉ",
      "Ĉ!ĈĈ! ćĈ!ćĈ!",
      "ĈĈ! ćĈ!Ĉ",
      "L!LK LLLL",
      "ďĉď%&'(ĉ ďĉćććĈ",
      "Ĉ!Ĉćć ďĉ!ćĈ!ćĈďĉďĉďĉďĉ!",
      "00110101 01'(3",
      "(788888888,-%&+ 0011",
      "ćďĉćććć ććĈ!Ĉ!",
      "!!!!RTVa !!!S",
      "Ĕ!ďĉďĉďĉďĉ ćććďĉ!",
      ") ĉ",
      "ď Ĥĉ",
      "ďĉ! ďĉ%&'(ďĉďĉ",
      "ďĉďĉďĉ Ĉ!Ĉ!Ĉ!Ĉ!!",
      "LL L!LK!LK",
      "ćĈ!Ĉ Ĉ!Ĉ!Ĉ!Ĉ!",
      "ć%&'( ďĉ!ďĉďĉďĉďĉďĉďĉďĉďĉ",
      "ďĉďĉďĉ%&'( !",
      "ď! ďď",
      "ćććććććććć %&'(Ĉ!",
      "ďĉďĉ!ďĉ! ďĉďĉďĉďĉ!",
      "(788888888,-%&+01 0011",
      "%&'(ďĉ! ćĈ!ćĈ",
      "%&'(ďĉĈ!ĈĈĈĈĈĈĈĈ!ĈĈĈ ďĉ",
      "ď ĈĈĈĈ",
      "ďĉ ć",
      "ďĉ Ĉ!ćĈ!Ĉ!Ĉ!Ĉ!Ĉ!Ĉ!",
      "ďĉďĉďĉďĉ ď%ĉ&'(",
      "ćĈ ĉ",
      "ććĈ! ďĉďĉďĉďĉ!",
      "ďĉďĉďĉ! ćĈ!Ĉ!",
      "ďĉ!!!!!!!! ďĉ!ďĉ%!&'(",
      "!!!!!!! %&'(",
      "%ď&'(ĉ !!!!!!!!!!!!!!!!",
      "ďĉćć Ĉ!Ĉ!Ĉ!Ĉ!Ĉ!Ĉ!Ĉ!ĈĈćĈ",
      "ďĉććĈ! ďĉďĉďĉďĉ!ďĉďĉ!!",
      "ćĈĈĈĈĈĈĈĈĈĈĈĈ ĈĈ",
      "ďĉďĉďĉďĉ%&'( !ďĉ!!",
      "ďĉ%ď&'(ĉ !!",
      "%ćć &",
      "ćććććććĈ!Ĉ!Ĉ!ćĈ!Ĉ!Ĉ! ćďĉ!",
      "ďĉĈ!ĈĈĈĈĈĈĈĈ!ĈĈĈ! ďĉ",
      "ďĉďĉďĉďĉďĉ!ďĉďĉďĉ! ćĈ!Ĉ!",
      "ďĉ Ė",
      "ďĉďĉďĉďĉ !!!",
      "ćĈ!ćĈ! ćĈ!",
      "MMMM MM",
      "2222222222222222 222222",
      "ďĉďĉďĉďĉďĉďĉ RTVaďĉććĈ!",
      "ĖĖ Ė",
      ")!)!!!!!!!!!ććććĈ!ĈĈ ďĉ",
      ") Ĉ",
      "%&'( ďĉ!ďĉďĉ!ďĉ!ďĉďĉďĉ!",
      "ćććć Ĉ!Ĉ",
      "ďĉďĉďĉďĉ ćĈ!ĈĈ!Ĉ",
      "ćĈ )!)!!Ĉ!Ĉ!ĈĈ!!!!!",
      "Ĉ!ĈĈĈ Ĉ!ĈĈĈĈĈ",
      "23 322",
      "%Ĉ&'(! Ĉ!Ĉ",
      "ďĉďĉďĉďĉďĉ!! ďĉ!!!!!!!",
      "%!!!!!!!!!!!!!!! &'(",
      "ćĈćĈćĈ!ĈćĈĈ %&'(ďĉďĉďĉ",
      "ē! Ħ",
      "ďĉ!ďĉ!ďĉďĉďĉ ćďĉ!",
      "% ććĈ",
      "M L",
      "!! ))))",
      "ďĉďĉďĉďĉ !!!!!!!!!",
      "ďĉďĉďĉďĉ ďĉ!ďĉ%&'(",
      "ďĉ! ))ħ!",
      "Ĉ!ćĈ!Ĉ! Ĉ!Ĉ!Ĉ!",
      ")!)!!!!!!!!!!!!!!!! !!",
      "Ĉ!Ĉ!Ĉ!! ďĉďĉ!ďĉ!!!!!!!!",
      "ďĉ!ďĉďĉ! %&'(",
      "!!&'( !!!!",
      "ďĉ!ďĉďĉďĉ !!!",
      "ćďĉďĉ! ďĉďĉďĉ!!ďĉ!!!!",
      "Ē!! Ē",
      "%&'(ďĉďĉďĉ !!!!!!!!!!",
      "ďĉďĉďĉ!!ďĉ! ďĉ%&'(!",
      "ćďĉ!!!!!!!!! ďĉďĉďĉ!!",
      "ďĉćĈ!Ĉ!Č ďĉďĉďĉ!ććĈ!ć",
      "ćďĉ!ďĉďĉ!! ďĉďĉďĉďĉ!ďĉďĉ",
      "ďĉććďĉďĉ) ćďĉ%&'(",
      "! ď",
      "ć %ćĈ&'(!",
      "Ĉ! ććĈ!Ĉ!Ĉ!Ĉ!",
      "ďĉ Ē",
      "ĈĈ ĉ",
      "ďĉ%&'( ďĉďĉďĉďĉďĉ",
      "ćĈĈĈĈ ćć",
      "%Ĉ&'( ĈĈĈĈ",
      "ďĉ!ďĉďĉďĉďĉ ďĉďĉďĉ%&'(",
      "ć%&'( ďĉ!ďĉďĉďĉ",
      "ďĉďĉďĉ%&'( ďĉďĉ!",
      "ďĉďĉďĉďĉďĉďĉďĉ !!!",
      "ďĉďĉďĉďĉďĉďĉďĉ %&'(ďĉ",
      "ćď ććĉ",
      "!!!!!!!!!!!!!!! ďĉ!!!!",
      "ďĉ!ďĉ!ďĉ%&'(ďĉďĉ ćďĉ!",
      "!! ď",
      "ďĉ ē",
      "%&'( !!!!",
      "ďĉďĉďĉ %&ď'(ĉ",
      "ďĉ%&'( ďĉ!!!!ďĉ!!)ďĉďĉ!",
      "%! &",
      "ďĉďĉďĉďĉ! ďĉ!ďĉ!ďĉ!ďĉ!",
      "ďĉ!ďĉďĉďĉďĉ ďĉ!ďĉďĉďĉďĉ",
      "ďďĉĉ ďĉďĉďĉ",
      ")!)!!!!!!!! !!ďĉ!!!!!!",
      "2323 23232222222222222222",
      "ďĉććĈ! %&'(",
      "(788888888,-%&+01 0101",
      "!&'(ďĉ)) ďĉħ",
      "ďĉćďĉ ćććććććććććććććć",
      "323 22",
      "! %&'(",
      "ĈĈ Ĉ!Ĉ!Ĉ!Ĉ!",
      "ďĉ! ďĉďĉďĉ%&'(ďĉďĉďĉďĉ",
      "ďĉďĉďĉ! ďĉďĉďĉďĉďĉ)!)",
      "ććĈ!Ĉ! Ĉ!ĈĈ!Ĉ",
      "%&'(ďĉ ćććĈ",
      "ďĉďĉďĉ!! ďĉďĉďĉ",
      "%Ĉ&'( ĈĈĈĈĈĈĈĈ",
      "ć%&'( ďĉďĉ!ďĉďĉ",
      "ćĈ!ć ďĉďĉďĉďĉćććć",
      "ďĉďĉďĉďĉďĉďĉ ćĈ!Ĉ!Ĉ!ĈĈ!Ĉ",
      "!!!SĂĄĆ !!!!R!!!S",
      "0011 01'(3",
      "ćĈ!Ĉ!Ĉ!ćĈĈćĈ %&'(ďĉďĉ",
      "ďĉďĉďĉ!!ďĉďĉ %&'(ďĉćććĈ",
      "ćĈĈ!ćĈ!ćĈ!Ĉ Ĉ!Ĉ!Ĉ!ćĈ!Ĉ!Ĉ!",
      "ďĉćććććććĈ!ćĈ! ćďĉ!"
    ]
  }
}